#version: 0.2
Ġ Ġ
ĠĠ ĠĠ
ĠĠĠĠ ĠĠĠĠ
n o
e r
h t
r e
i t
n i
s i
n e
r a
ĉ ĉ
e l
Ġ ,
no it
r o
t a
Ġ =
n u
Ġ e
t s
; )
l a
si ht
n a
Ġ :
e d
o r
noit c
r u
e s
Ġ )
noitc nu
noitcnu f
t ne
* *
ĠĠĠĠĠĠĠĠ ĠĠĠĠĠĠĠĠ
, "
Ġ n
t er
t c
e g
e m
ru ter
Ġ ra
{ )
, )
s a
= =
Ġra v
e t
o t
e p
f i
l u
Ġ t
y t
Ġ s
h c
ĠĠĠĠ ĠĠ
Ġn ruter
Ġ d
no c
, }
r t
e ta
o c
/ /
e u
e c
Ġ *
& &
d a
o l
" (
g ni
" :
ĠĠĠĠĠĠĠĠ ĠĠĠĠ
k c
x e
d i
l e
tne m
g i
p m
p a
b a
t eg
em a
or p
t i
y a
ĉĉ ĉĉ
ep yt
o m
_ .
l i
** **
- -
, ]
Ġ fi
la v
Ġ noitcnuf
ro f
Ġ //
0 0
. )
tc e
p o
s u
t u
i l
" ,"
d e
Ġ a
a p
i s
| |
j b
l lu
w e
f o
re t
l o
m a
o n
' (
s sa
o d
e v
Ġe ht
s er
} )
t es
llu n
n er
i r
i d
g ne
t h
n I
a ta
l c
f ed
tce jb
a m
ĠĠĠĠ Ġ
s e
Ġ }
e k
u q
re p
ht gne
m u
l p
, '
a t
el ba
ĉĉ ĉ
Ġ y
_ _
htgne l
C I
Ġ ts
ĠĠĠĠĠĠĠĠ ĠĠ
ra p
: "
Ġ fo
p u
l la
we n
e R
tnem el
i f
Ġ, '
noit a
" =
eu lav
g A
ĠĠĠĠ Ċ
s t
d ne
r ts
re v
Ġ +
; }
Ġ "
or P
r r
ro p
0 1
Ġ: "
Ġ) (
tne v
o b
;) (
t lu
ema n
": "
2 1
ata d
s s
) (
x et
Ġ na
e h
a b
Ġ re
{) (
c s
" ,
;) }
Ġ wen
Ġ ot
o p
**** ****
Ġ >
== =
Ġ 0
x ed
u d
Ġ (
o C
gA CI
e ni
o h
Ġts noc
/ *
Ġe s
Ġ {
no C
-- --
t si
ot orp
Ġ ]
i v
tnem u
A A
g a
t xe
tcejb O
l l
Ġ, "
/ <
; ]
th gi
u b
n ruter
) )
Ġ '
Ġ ni
ema N
f f
er i
s noit
ssa lc
Ġ m
t xet
y ek
d na
e S
g ra
/ .
6 1
g n
0 2
t ner
d da
er c
( &&
o f
g na
o s
U Q
epyt otorp
s j
a fed
b u
l oc
Ġ i
el ud
w or
c a
ĠĠĠĠĠĠĠĠ Ċ
1 1
Ġ gni
ĠĠĠĠĠĠĠĠĠĠĠĠĠĠĠĠ ĠĠĠĠ
re s
ĠĠ Ġ
t S
re b
" [
y T
rop xe
re d
Ġ= ==
eri uq
ĠĠ Ċ
Ġ si
hc ta
tc el
e w
eu rt
o T
) "
Ġ &&
lla c
eg a
a c
pm oc
d li
ed on
5 2
s p
o M
gACI gACI
Ġ ;
Ġ ro
e D
h C
z i
er p
k a
. ]
o N
tnemel E
;) '
eta erc
eriuq er
la f
ht di
si d
,) "
Ġd i
ma rap
3 1
Ġ rof
! (
tu o
ep yT
xed ni
Ġes le
r re
+ +
rr A
o v
** /
{ =
;) "
ht a
t ra
or f
4 1
it a
snoit po
tc a
l C
5 1
tlu afed
e b
ht i
Ġ> =
ru c
tcejb o
es laf
ya rrA
eg na
h T
e hc
m et
Ġ .
c i
d ni
4 2
es u
v id
Ġ 1
8 1
elud om
la V
{ (
eta d
m i
o o
{ :
c od
) }
w od
m rof
Ġ ||
Ġ el
Ġ= =
kc ab
rt S
Ġ er
ĉ Ċ
p s
gni rts
tnemel e
9 1
E L
Ġ ne
y ts
== !
no is
e no
sa h
7 1
tu p
ec a
" \
Ġfo epyt
2 3
d nu
ec na
; "
l m
h su
tne no
tnev e
Ġ ?
p pa
x E
yt rep
Ġe u
pm i
i h
= ]
Ġe sa
s na
ev om
d I
' [
noit is
w o
el yts
Ġ -
,) (
t ni
Ġ ta
gn it
f er
gi f
re da
ssa lC
i rt
tne t
; '
v a
eu q
B F
ĠĠĠĠĠĠĠĠĠĠĠĠĠĠĠĠ ĠĠĠĠĠĠĠĠĠĠĠĠĠĠĠĠ
hsu p
t e
ĠĠĠĠĠĠĠĠ ĠĠĠĠĠĠ
i T
tnev E
******** ********
a l
\ \
oh s
m oc
3 3
rr E
reb mu
t A
p ir
4 6
o P
eni l
tcel es
Ġ, ]
Ġdi ov
Ġ 2
h s
N O
,} "
$ .
ll or
R O
} }
r ra
Ġ marap
st ropxe
---- ----
gni rtS
9 2
( (
ĉĉ Ċ
b ew
ata D
Ġe ta
0 3
y re
ĠĠĠĠĠĠĠĠĠĠĠĠ Ċ
Ġm orf
tsi L
Ġd na
Ġesa c
! :
[ ,]
le ba
ni m
a f
htdi w
E T
ec ru
tnemu gra
ro rrE
a r
t f
" {
) ]
teg ra
no t
ed oN
7 2
! =
ro pmi
li f
Ġ x
ht ap
hta M
ĠĠĠĠĠĠ Ċ
eta ts
f O
ĠĠĠĠĠĠĠĠĠĠĠĠĠĠĠĠ ĠĠĠĠĠĠĠĠ
u a
ni at
pa r
Ġ l
lo C
Ġe c
re ne
n E
tnemu cod
d ro
9 9
8 2
Ġd e
il c
Ġt i
ni fed
hc a
eu laV
Ġe ma
b m
la c
i F
) '
o L
ya lp
ro rre
Ġ: '
6 2
ĉĉĉĉ ĉ
em iT
evom er
not tu
i c
,} )
ro ta
Ġ h
Ġe p
tner ap
Ġe hT
n gi
g ol
p ot
m ro
[ :
ub irt
0 5
pa m
/. .
4 3
f fo
N I
met i
u s
u o
. .
kc ap
kc ol
== ==
ts ni
F UQ
er b
d o
wod ni
Ġ, }
ev it
dli hc
6 3
z is
+ "
et ubirt
p O
ya rra
: )
e K
t nu
7 3
pm oC
hti w
tra ts
s tnemugra
eca lp
gif noc
rt ta
xed nI
t th
Ġ c
am i
ed oc
or g
es a
5 3
e n
E R
ytrep orP
ts et
Ġe su
e H
de nifed
er u
w ol
ka erb
ret ni
bu s
Ġ la
h gi
Ċ Ċ
0 4
n y
da ol
sna rt
em it
l ed
- ,
ts u
* /
Ġ /
8 3
Ġt el
;) )
8 4
Ġe d
lm th
ss ec
ro loc
k ni
tegra t
D I
txe n
{ ,"
re su
c il
tner ruc
tc ep
,) }
i p
eta l
c r
Ġ <
> "
Ġeu lav
dna h
Ġt ropmi
b c
u Q
.) "
we iv
wor ht
x am
9 3
C A
Ġ 3
Ġe b
tup ni
si m
Ġ== !
eta tS
6 6
yt i
es rap
no m
tneno pmoc
Ġ `
tnet noc
eta D
Ġ sa
y B
e zi
wodni w
eni fed
d le
s el
thgi eh
.) (
,} }
UQ B
// :
denifed nu
l it
t o
tsi l
4 4
y eK
Ā Ā
00 00
pir cs
i u
Ġt on
kcap bew
txe T
a w
ht em
t it
=== "
re n
kc ehc
m e
sp orp
g u
et u
. _
,] "
hcta m
;) ]
tf el
ts euq
l es
ĉĉĉ Ċ
Ġ [
2 2
leba l
Ġ) )
5 5
no p
R E
Ù İ
etad pu
Ġ no
x p
ne k
N E
y l
d er
e f
ra P
da er
ir ts
,) )
Ġ htgnel
ss em
u rts
Ġ siht
n A
es ab
d ra
r T
t ro
tlu ser
y d
Ġep yt
na ps
> >
5 4
e zis
red ro
t no
ih w
niat noc
l ru
= !
G I
ne m
rebmu n
n U
rev o
i ra
i V
r if
s re
e ht
Ġt lu
noitc el
T I
0 6
7 6
m o
ĠĠĠĠĠĠĠĠ Ġ
tcep xe
k o
ra m
T S
x a
< >
Ġ worht
kc a
" +
pm a
tc urts
jb o
y lp
t re
Ġ gna
p U
il s
{ $
re ti
9 5
ss c
Ġ) '
b i
n mu
[ =
' =
ya l
D O
0 8
ecru os
htdi W
w ohs
Ġ 4
f les
p xe
ĠĠĠĠĠĠ Ġ
d d
el tit
e L
tc irts
Ġ 5
noit po
dli hC
bm y
nottu b
.) '
re g
llor cs
lo bmy
el if
7 4
\ ;
,) ]
g at
7 5
y ro
emaN ssalc
yt S
[ (
ra b
la uq
== "
y rt
ir p
r g
ecalp er
Ġ 8
u B
tes ffo
noitc a
m c
R U
s ser
met I
noitis op
// //
Ġ htiw
R A
d et
Ġe v
ita ts
yd ob
9 4
tcel eS
dni f
? )
yalp sid
u x
ecna tsni
pm et
Ġ 6
G X
_ (
00 1
noita c
ga r
Ġ p
ll A
ega ssem
Ġ o
8 6
Ġa ta
txet noc
w s
] "
kcab llac
Ġ* /
se R
hc ra
gACIgACI gACIgACI
Ø §
o j
t eS
Ġt hgi
Ġ S
b ol
Ġ k
ep s
Ġ u
ts al
di lav
n f
Ġta ht
s eludom
tnemelE etaerc
ra hc
\ {
el ed
d elba
el os
. -
Ġ, )
c e
( )
yre uQ
red ner
el c
cr s
9 6
c o
dni b
AA AA
pa M
tce j
it ne
n w
ĠĠĠĠĠĠĠĠĠĠĠĠĠĠĠĠ Ċ
b il
7 7
_ _.
o B
Q BF
N A
etubirt tA
elos noc
re ff
1 2
el e
thgi r
yre uq
eg ap
tneno pmoC
G d
x ob
ret lif
ĠĠĠĠĠĠĠĠĠĠĠĠĠĠĠĠ ĠĠĠĠĠĠĠĠĠĠĠĠ
Ġ f
we iV
( ||
nop ser
noc i
rebmu N
ylp pa
d ed
ĉĉĉĉ ĉĉ
H I
E S
M M
ta ts
8 5
t rop
hta P
Ġ elba
r i
g er
m orf
s es
s m
ol c
mro F
-------- --------
c S
3 2
oc s
t na
**************** ****************
il C
a h
e T
kni l
f a
Ġema n
noitcnu F
kc ilc
it i
evit ca
ni f
ro loC
lu ohs
do htem
ap s
L M
e W
y c
X Z
par w
8 8
ed oC
5 6
la i
T A
re l
9 0
Ġ vid
ec iv
r O
Ġt es
ev ita
hca E
à ¸
h sa
w ar
. $
ya d
{ ,
or ts
ner dlihc
g g
dne txe
tne c
pu org
n wod
el dnah
c itats
T H
ti m
Ġ noita
W Z
e B
ro w
egna hC
n O
eu v
Ġ hc
af eD
egna hc
elud oM
es ac
"{ :"
/< >
Ġs t
i da
L A
\ }
Ġer a
dne ppa
oo g
P M
D E
}) (
w w
a s
m od
sp tth
c A
eta c
l b
g o
S J
ti lp
ytrep orp
tre ssa
lo ser
s se
Ġs e
4 0
el ytS
lit u
rene tsiL
d om
ecru o
d lo
x if
p xE
er oc
g r
7 8
eg ami
? (
p tth
p or
Ġ tcejbo
==== ====
sa lc
( =
&& )
ff O
ht o
nmu loc
hcta c
Ġs nruter
dle if
n ret
er id
l f
tilp s
Ġ ĉ
p orp
B E
$ (
[ ]
mu n
D FUQ
tnet noC
tcurts noc
e er
or t
9 8
h w
00 2
ema r
p it
kcol b
ga T
i pa
Ġy l
gna l
redro b
Ġt ropxe
tseuq er
pu s
F F
dna H
ci L
}) )
na el
er of
re m
ro c
Ġ ret
ezi S
hca e
ne ciL
ot ua
ec ils
hcaE rof
k e
ta m
k sa
s I
ti de
ta mrof
s gnit
B A
d el
d m
si v
reda eh
x i
re S
ep ocs
lla C
ni gra
Ġ r
fer h
g no
fO xedni
nek ot
Ġgna y
Ġy b
i fi
s op
ĉĉĉĉ Ċ
tlu afeD
Ù Ĵ
9 7
/ (
i bc
na c
lo ot
e sim
= +
P A
nw O
p A
nu r
E D
Ð °
ru t
kcol B
s M
g oog
yreuQ j
p i
led om
dro w
elba t
l A
0 7
Ġ= +
s ec
s rtta
tno f
ta c
e M
1 3
c of
it rep
ts rif
" ||
p e
ni gu
S S
Ġ 7
er a
m ot
t T
dnu org
no i
d di
le v
thgi eH
5 7
y b
I T
p ec
Ġe t
"\ =
d u
> /
es le
si D
no sj
! ,
ĀĀ ĀĀ
es olc
Ġata d
Ġt eg
" ?
reda ol
aw a
s marap
t nI
hti W
nottu B
G b
po p
s ed
tnu oc
nigra m
re niatnoc
2 4
6 0
h S
l P
lobmy S
) ++
ro F
6 4
tne ilc
6 5
s gra
ĠĠĠĠĠĠĠĠĠĠĠĠĠĠĠĠ ĠĠ
hcra es
o ts
l r
m em
r b
W a
Ù Ħ
O D
ni gi
H T
ma er
c ny
esa C
tca er
es nopser
esu om
dne p
pircs ed
y ra
u A
bol g
+ ]
l ort
t ob
Ġt u
Ġ /*
ssec orp
( ?
B N
tca eR
W Y
X Y
L RU
v i
ni am
Ġtlu afed
LM TH
si l
{ ,}
( $
of nI
m ele
ytreporP nwO
ne ht
s ba
n it
.. .
gA ibc
i b
ï ¿
gi rt
noitis na
0 9
g eR
noit ami
Ġ uo
na m
snoit pO
Y Y
a cs
M A
K CA
a P
DO M
" ,}
tuo emiT
la iti
n ra
k ram
s o
ev loser
ï¿ ½
egna R
hc u
rep le
g ro
Ġe ga
eta v
nois rev
ti ni
gni dda
noitis oP
gif noC
/.. /..
ra elc
ni oj
;] [
va n
Ġema N
la mro
lu m
yt pm
sse M
h p
D ET
su tats
Ġh a
: '
po T
à ¤
nu f
Ġ llun
Ġna k
Ġti awa
m m
Ġt uo
\ >
s yek
sna rT
ro tcurtsnoc
ni l
8 7
m v
er P
li w
! &&
Ġd luohs
mo tsu
tac noc
Ġ g
niat noC
ne po
ra e
rut eR
Ð µ
eh C
etal pmet
ren ni
Ġ Ċ
d nE
de tceles
ru o
s epyT
gnirtS ot
ä ¸
u lc
** */
ht ua
l er
Ð ¾
T U
to or
h par
b p
l lif
â Ģ
reff uB
re V
sp orP
f eR
" &&
NO SJ
tup nI
kc ehC
ol f
dnuorg kcab
txet noC
tni op
} "
id em
R H
ã ģ
;} {
su cof
v s
wo R
m or
el pma
y r
ni a
ti ws
et ir
c eps
D A
3 4
" {)
: ?(
Ġ/ ***/
ro s
delba sid
Ġ b
S I
Ġ gnit
lauq e
3 0
} })
ĉĉĉĉ ĉĉĉĉ
li F
(&& )
ytreporP enifed
1 0
se i
tra tS
d A
el iF
BE W
Ġ |
re tsu
ts op
htgne L
EL U
tce ff
E G
Ġe w
|| )
k row
res U
ĠĠĠĠĠĠĠĠĠĠĠĠĠĠĠĠ ĠĠĠĠĊ
el ac
2 5
7 9
rev res
lac ol
Ġ 9
tseuq eR
or G
d E
ec aps
Ġ= !
t xE
> =
mrof snart
Ġd a
r id
st lu
Ġt ner
tes ffO
y p
O R
co D
hcta p
] '
noita ru
Ġ ĉĉ
li a
ĠĠĠĠ ĉ
Ġna d
Ġl liw
Ð ½
s eulav
4 5
Ġst ropxe
nigi ro
p orP
Ù Ĳ
Ġsi hT
cs ed
ra ts
d t
B C
[ ,
et i
x el
KCA P
d noc
\ '
gnidda p
u m
ega sseM
re mu
y fi
Ġy ek
re di
( __
reg girt
ELU DOM
se itrep
po ts
re kc
Ġ w
Ġ xedni
n b
Ġ lla
n ruteR
B S
por d
5 52
. "(
d c
pu orG
Ù Ĩ
Ġ noit
etubirt ta
ï¿½ ï¿½
b o
nois ser
ba t
Ð ¸
KCAP BEW
}) "
1 4
. "
dle iF
ĠĠĠĠĠĠĠĠĠĠ Ċ
Ġfo ecnatsni
noitac ol
= >
mor F
PM I
eni L
5 0
li at
T L
E I
ce xe
ed ih
am I
Ġ ya
retsu lc
ĠĠĠĠĠĠĠĠĠĠ Ġ
x y
elba T
n t
la bolg
et el
kc ilC
s c
pa c
K C
egna r
Ġt xet
i w
Ġ "(
ed iv
t r
Ġ) "
si ger
etad pU
Ġ ;)
ht nom
Ġne hw
n na
ts nI
u nem
//// ////
ya L
ts a
{) )
u r
lr U
. }
/ )
5 8
eno d
v erp
Ġne k
'( $
leba L
mot tob
h a
l E
6 9
y na
7 0
ega P
red lo
of ni
,}} "
esim orP
Ġe no
Ġtu p
B CI
e i
er C
llor cS
q er
na p
ret nI
Ġ) ++
res ni
es neciL
Ġs u
ru C
o ob
se D
Ġe va
lauq E
sgnit tes
eno n
s k
O C
' ,'
ro tceleS
Ġ" \
s ret
nigu lp
DET RO
Ù ħ
ida r
6 8
tu O
Ġ{ (
reb mem
s A
l s
ed om
laiti ni
Ġ A
el gg
oo B
Ù Ī
yarrA si
Ġa k
Ġs salc
ira v
re niatnoC
Ġ yarra
tf eL
ĉĉĉĉ ĉĉĉ
rene g
Ġd ne
lobmy s
x S
em o
Ġd o
K retsulc
Ġ Y
Ġe k
Q B
8 0
ngi la
renetsiL tnevE
O L
" ,]
| ]
o R
Ġtlu ser
wo L
3 5
/ \
;) )(
Ñ Ĥ
d ep
lamro n
DETRO PMI
ro t
m it
t on
Ġna c
st po
+ )
el bi
res wor
Ġna ps
t pircs
el acs
kni L
wol f
! */
ehc ac
ni s
kcab llaC
tnu oC
ta M
nu oc
re hto
re po
nek oT
c u
s meti
ra lu
g ap
er ots
,] [=
li am
- [,]
erof eb
eg amI
BF U
la t
ti k
lit U
[ ,"
ehc a
ta mroF
à ®
[ :"
Ġf I
: :
s tnenopmoc
Ġec na
_ ,
k s
a hs
ne ddi
at S
3 6
A C
wol la
,} ))
8 9
ytreporPnwO sah
eno lc
ed oM
T NE
: ))
dd A
r p
y V
y orts
Ġep yT
tni oP
noit pircsed
y x
ulc ni
bu S
ll ec
==! "
r w
UQB tT
thgi l
cil ppa
G Z
Ù ı
Ñ Ģ
s litu
pir c
re dne
re tnec
t fi
Q DFUQ
noc I
e G
sa v
g etac
reda eH
+ '
g mi
na M
su o
rep us
ssalC dda
reple h
motsu c
a k
Ù Ĭ
ma raP
k ra
\ -
6 7
d l
da eh
s et
M OD
m s
kca ts
etir w
maer ts
n retni
gar d
1 5
. ,
da p
c nuf
NO C
tnemu coD
i nu
g ub
Ġc ny
re woL
Ġnek ot
t el
llor t
l le
elpma xe
nra w
gr A
ne cil
l ecna
4 8
ts oh
L L
tegra T
noitisna rt
tce n
llu f
s tneve
F I
Ġre b
tro s
2 0
no M
Ġt xe
"[ :
Ġe di
Ġs nruteR
Ġet eled
ne M
nael oob
Ġuo y
s ti
a a
gni s
4 7
NO I
,) '
c us
3 8
=! "
d es
2 7
n wo
{) ++
x tc
n c
te G
Ġ E
x ir
tnemelE teg
v e
i m
rel dnaH
l R
led oM
etav irp
o g
^ /
ĠĠ ĉ
.) }
hsa d
etal snart
Ġeu rt
de hc
x oB
S A
g vs
Ġy rt
thgi R
H C
N U
er ed
2 9
tc er
j a
O BN
s b
ot orP
ev a
re ga
ro tide
lo p
# #
l g
esaC rewoL
elgg ot
Ġdo htem
] [
Ġ tnemele
O T
"( )
d oM
3 7
noitcel es
,] '
= <
hc tiws
\ ;)
ol F
yti ca
esa B
ã Ĥ
Ġthgi r
sser g
| )
na r
ww w
5 9
re P
ra h
ne er
war d
p pA
Ġs noitpo
/ $
m b
esaCrewoL ot
/. "
teg di
rep parw
bu p
R T
Ġel if
eru ta
Ġd enifed
ĉĉĉĉ ĉĊ
noit pO
ĠĠĠĠĠ Ċ
ngi s
et eled
ta tS
di laV
. `
it ca
b d
di rg
2 6
t ropmi
ngi ssa
, ,
,} )(
de v
v ne
hcu ot
t t
lort noc
/. '
s noita
nois ne
Ġ sah
ytpm e
t resni
ke ew
dne s
reff ub
Ġed oc
ec ner
de zi
ti me
ra v
Ġeva h
' t
tnev erp
e F
remu ne
ã ĥ
OBN UQBtT
,) })
m moc
Ġel ihw
ro tceles
ni op
Ġ &
x A
Ġcny sa
.) )
ssa p
dro c
Ġ tnem
re h
Ġ ytreporp
Ġ, `
r A
ytica po
noitc A
eca f
F L
noitami na
m oC
Ġ os
d eta
ser p
Ġe gna
yp oc
G NI
a y
} ]
emar f
Ġd nu
a i
ï ¼
D u
elba sid
Ġ T
edoN tnerap
ecruo S
ti dE
ema rap
c it
neddi h
nret ta
Ġ tneve
x eg
J H
**** **/
dli ub
jb O
TI DE
eh w
er em
Ġ on
\ .
tnI esrap
; })
la u
m oo
# "(
xel f
Ġhc ihw
< '
Ġd el
eu euq
gACI g
c c
o of
Ġy ro
N EL
rev O
Ġ) ]
yti li
G c
ren wo
Ġd esu
Ġ htap
u gnal
/ '
Ġre dnu
Ġ xednI
Ø ±
B i
tup tuo
ssalC citats
Ġeta d
eb ir
Ġd et
2 8
ek orts
" ,}"
b b
nmu loC
y m
3 9
ud orp
ecna tsnI
f it
s la
ni M
tfi hs
w on
Ñ ģ
yorts ed
' ,
---------------- ----------------
W d
======== ========
OBNUQBtT QDFUQ
i a
l x
@ @
Ð° Ð
t ol
n F
` (
wo da
{ :"
A M
ov ni
s tnem
ir P
ĀĀĀĀ ĀĀĀĀ
oh S
eludoM se
4 9
Ġt f
a N
RO TIDE
Ġx p
S E
o D
Ġ ka
e e
Ġd ed
ta olF
rekc ip
hpar g
noitcel loc
: ]
Ġ mu
Ġ ci
ĠĠĠĠĠĠĠĠĠĠĠĠ Ġ
Ġgni rts
r f
k nu
Ġts um
pm eT
* ]
re llort
! !
par W
ROTIDE KC
lev el
00 0
tra hc
r G
i L
dlihC dneppa
yl kcolB
tuoemiT tes
ssec cus
C X
nt b
s U
po C
Ġ tne
ya D
tcen noc
tsi d
rop pus
da oL
1 6
Ġ, )(
h ser
o i
1 9
at em
u g
u neM
Ġ **/
f d
redlo h
eriuq eR
RH X
d nA
le nna
hctap sid
Ġd es
Y T
Ġ= >
Ġ pu
ti T
Ġ I
re tuo
kca B
A L
om er
Ġd I
a g
ta ht
. __
ff ff
ehca C
Ġ D
y s
go la
[ ,}}"
kc it
Ġ 21
ra hC
tc erid
ol C
ed is
lai re
tce R
l B
tik bew
l li
! ||
< <
ya p
s elyts
- [
Ġdi lav
\ ,
tcej er
mi na
{ ,}"
reswor b
- (
w t
Ġa y
g oL
O N
em eht
pxE geR
Ġro rre
a ira
lm x
h sah
re yal
ssalC evomer
Ġ !*/
eciv reS
ts eT
g sm
g I
d eriuqer
tes er
ht noM
iv erp
tca rt
O P
nael ooB
elba remune
Ġ ma
E M
e j
redne R
,] ]
lo oT
dnu ob
S U
ep S
d esu
A I
( }
( ,
ret siger
Ġe nil
nop seR
hc at
hcta M
Ġeu laV
er if
nois reV
s ni
y ram
y y
Ġdenifed nu
Ġ/ ******/
Ġyl no
Ð¾ Ð
á ĥ
,} })
am ehc
> '
tu or
hgi h
dra ob
si V
u l
etubirttA tes
ga lf
a er
Ġ v
ega ro
Ġ od
f eD
A F
na C
noitc en
ta d
re tne
b eW
O H
gno l
e fer
( :
dnu oB
la nigiro
bu hti
da eR
noitcel eS
y daer
zi ro
ll oc
ro W
x m
Ġya m
Ġ 61
1 7
nwo D
ĠĠĠĠĠĠĠĠĠĠĠĠĠĠ Ġ
' :
wor ra
ne l
tne ilC
Ġ X
\ [
) ;
( +
W b
,)] )"
renetsiLtnevE dda
g sM
A S
ht uA
1 8
,] }
? ]
Ġ ruo
r ered
no r
mi T
a rt
ĠĠĠĠĠĠĠĠĠĠĠĠĠĠĠĠ ĠĠĠĠĠĠ
pirc seD
$ $
g Q
å ı
d luohs
s J
tcej orp
tner aP
gn ita
Ġeta ts
eta dilav
U S
wodni W
fi d
la dom
gub ed
R ET
rev noc
g el
ra c
Ġak erem
E V
6 52
l J
Ġ RO
y poC
Ġ htdiw
Ġe zi
Ġ B
rorrE epyT
AAAA AAAA
eta reti
lecna c
N aN
/. '(
gi van
gola id
noit id
sa lC
lac it
Ù ĳ
buhti g
ts noc
UQB NEL
ret fa
seitrep orp
tnu om
"{ ,}
dnu or
eg rem
evita n
Ġt ub
no n
s redaeh
- =
dnoc es
ret liF
eer t
evit c
dI yB
si xa
noita cilppa
ek am
z a
oo R
eciv res
ĠĠĠĠĠĠĠĠĠĠĠĠĠĠĠĠ ĠĠĠĠĠĠĠĠĊ
** *
yro tca
sav nac
_ [
etu or
. '(
s epyt
( ]
s wor
æ ľ
eri D
ecruo ser
rev oh
liat ed
******************************** ********************************
t p
lat ot
. '
r h
eta erC
noitaru d
ð Ł
Ġed on
elbi siv
C E
lle C
hc te
'[ ,'
yrt emo
Ġt rats
ralu gna
Ġ] "
t em
ni dro
nit noc
f c
8 21
;] [=
Ġ] '
pe ts
G a
tceff e
ĠĠĠĠĠĠĠĠĠĠĠĠĠĠĠĠĠĠĠĠĠĠĠĠĠĠĠĠĠĠĠĠ ĠĠĠĠĠĠĠĠĠĠĠĠĠĠĠĠĠĠĠĠĠĠĠĠĠĠĠĠĠĠĠĠ
i la
I c
Ġreb mun
x t
s yad
ĠĠĠĠĠĠ ĉ
i P
ç ļ
ec il
A D
ht eM
mi rt
noisser pxe
y fit
t fo
x F
ne pO
rotceleS yreuq
hc na
ĠĠĠĠĠĠĠĠ ĉ
I L
l F
liam e
Ġtup ni
te kc
Ġteg ra
s ro
g w
nois sim
noitc es
tim il
Ġe g
Ġ" +
"[ ,]"
ru gifnoc
el tiT
s f
rel dnah
eu Q
n s
e ts
nu oC
0000 0000
ti rw
hcra eS
ya w
Ġs ti
ep ahs
} {
e z
lort noC
,} {(
t l
s etubirtta
hsad ol
s maraP
__ (
Ø ª
"{ ,}"
oo H
u j
ĠĠĠĠĊ Ċ
a d
E H
ra B
epyt otorP
kca rt
te n
rae Y
rega naM
Ġata D
çļ Ħ
sa p
retni op
nom moc
\ )
etu pmoc
;) )}
Ġ 01
noitc erid
Ġes neciL
z V
Ø ¨
tluafeD tneverp
s litU
neer cs
pit loot
emar F
on gi
,} )"
Ġ lav
epyT edon
s n
DFUQ D
tegdi w
Ġer u
|| ]
h si
lc ed
etubirttA teg
/. "(
\ "
Ġ j
/ }
llu F
itne di
* )
F O
rae y
Ġy re
elba ne
ko oh
v N
# ":
,} {=
e N
el u
AA A
' \
etel pmoc
nom rah
ses salc
ru os
,] [
yt ic
,) )"
b O
Ġ hctac
ata da
p ed
F m
if it
evit cA
reh ni
dni k
Ġ 00
ĠĠĠĠĠĠĠĠĠĠĠĠĠĠĠĠ ĠĠĠĠĠĠĠĠĠĠĠĠĠĠĠĠĠĠĠĠ
rene tsil
ÙĦ Ø§
noitami nA
M z
Ġ _
me ts
E C
ni b
s emaN
s oP
ud er
Ġec ruos
el b
Ġm rof
dra c
l N
ev as
Ġy nomrah
s tnevE
ed ils
," \
su tatS
we N
Ù ĩ
noit at
` }
Ġro ta
va N
na P
L I
nretta p
sgnit teS
tnem gar
q e
co F
)) "
redi v
e y
it lum
Ġtner ruc
X E
f A
; ++
ar T
de kcehc
o H
>> >
esu oM
,) )}
c p
xif erp
ded a
Ġa dap
Ġs ser
Ġe tu
xa ja
X a
evita ler
tuo yal
t po
la nretni
ro olf
X d
D F
kra M
Ġsa w
t z
o id
ni g
suo iverp
,} {
t g
E K
Ġthgi eh
/ :
rt tA
sser dda
enil ni
woda hs
Ġ __
Ðµ Ð
# '($
dna mmoc
Ġ rep
d it
t H
nois ses
m z
i k
d oc
Ġ fO
gACIgACIgACIgACI gACIgACIgACIgACI
g U
edoc ne
nu p
' +
," .
ï¿½ï¿½ ï¿½ï¿½
ba T
å ħ
? {
å Ī
,} ]
le nap
ã Ģ
ra C
/< >"
yfi gnirts
xir taM
# '
ew t
Ġes laf
ot S
tceff E
a idem
erof eB
ed i
rota reti
/ "
do B
gni l
pm t
lev eL
re tuor
s cod
Ġec nis
Ġ eludom
etal pmeT
seitrep orP
b A
o ediv
pec xe
s tnemele
Ġna ka
ksa t
;) )'
;} {=
xeg er
tro hs
Ġha llA
c lac
reg et
@ '
ega ugnal
Ġtf el
NO IT
gACI ux
mu s
es rev
"," .
Ġts rif
s niatnoc
Ġt sil
do hteM
kc atS
stlu ser
e a
S Z
gne m
mm oC
Ġ htdiW
ret I
s edoN
ezis er
Ġ pot
01 1
la C
el goog
esim orp
Ġd eta
ä »
ol ev
t ooR
elac ol
y L
g es
pir cS
LMTH renni
s metI
yl no
Ġ= <
] ]
ah S
ytpm E
xa M
Ġgna ro
nu R
ek ovni
c ev
si xe
li af
b irt
Ġ 23
( *
{ >=
ifi dom
;) )"
es nopseR
sepyT porP
gn p
0 21
ser u
< "
tni U
i D
w a
ecil ps
__ _
à ¹
el ihw
m I
ro tce
el gna
le D
_ =
redloh ecalp
u V
nigu lP
gni daol
( !(
Ġd li
eru t
F A
e ne
ap S
" ,)
Ġtes ffo
Ġs eulav
wolf revo
Ġ z
maer tS
E P
s gni
G V
eB ot
- :
Ġd le
CI L
de R
tner ruC
pit lum
st niop
yro tsi
l h
/ '(
Ġe zis
eu nitnoc
noitac oL
hcte f
b n
eh T
Ġd er
99 99
Ġ) )(
ko ob
ec ne
Ġe mit
MA N
s V
s tes
Ġ C
G A
Ġda ol
,} )}
//////// ////////
ER U
tc et
i M
Ġ)( (
di rG
po P
Ġthgir ypoC
s repleh
laire tam
( ,"
t la
Ġ L
Ġre su
å ®
r d
gar D
st na
s x
Ġne eb
ema raP
Ġ kcabllac
O B
Ġy na
A B
,) )(
"," )
00 3
dIyB tnemelEteg
s noitca
\ *
Ã ©
Ñ ĥ
r c
Ġt na
noitisna rT
vi g
l bc
Ġ 42
Ġu ti
C d
pu S
( :)
la nret
y S
ï¼ Į
Ġre hto
^ [
re zi
er g
elba rugifnoc
pa lloc
tcurts noC
I U
Ġts euq
00 5
b z
ne dnep
cr ic
Ġs j
mu N
<> '
tuo emit
xy QBF
sei res
ra d
ta l
Ġ jbo
)] "
Ġy lla
k i
tlu seR
U R
Ġ ht
) )(
Ġtegra t
etu lo
t m
Ġ P
Ġer of
}) ]
ida R
i g
Ġm eti
oc S
++ ;
re yalp
S M
hcu oT
c v
Ġ le
sserg orp
tuo yaL
u S
}) }
ic eps
Â ł
s yeK
so i
q s
å Į
Ġ %
trop pus
#"( $
lenna hc
: )(
su idar
si xA
;' '
Ġ Ùİ
y doB
di u
Ġ id
txe N
ä º
o S
b f
et yb
noita u
tnem moc
gni dnep
pm I
rene G
Ġ) }
tno ziro
ec rof
nwod pord
Ð¸ Ð
Ġh al
el or
tni l
ac se
ĉĊ ĉ
re k
L z
ru oh
ne R
moo z
21 1
à ¯
tsiL ssalc
yalp siD
it rap
Ġka dit
Ġuo Y
lu M
lai D
et is
w ohS
ss A
cny sa
hcta w
å İ
drow ssap
å Ĳ
tca rahc
dra w
ne g
d f
I PA
p c
[ [,]
id ni
rev reS
et ihw
ra dne
Ġega ssem
t or
v l
Ġgni su
k Q
YY YY
/ ]
,) }}
noisser pxE
. \
r iF
< >"
g eta
Ġna gne
b j
lai res
.] "
pa C
ET A
E DO
Ġ knil
; (
cil bup
sel if
ri D
ros ruc
Ġtxe T
D M
> }
Ġ) __
ko ol
ifi ceps
a j
Ġ!*/ (__
Ø ¯
y lla
s edon
E B
i i
ebir csed
E ER
Ġe m
Ġ llac
w h
te eh
w op
Ġot ni
kcilC no
mrof snarT
( _
tna tropmi
ĉĉĉĉ ĉĉĊ
droc er
m Z
eu euQ
ne p
tc udorp
Ã ¡
h u
Ġed oN
emit nur
rep parW
o re
._ `
ev i
M U
E F
Ġ Ø§
s htnom
edoC rahc
Ġe hc
Ġl ru
b s
e si
tnemel pmi
ra tS
lo ob
de tcepxe
su coF
c f
ni F
y lop
em u
á ŀ
w S
ab gr
lav e
&& ]
tfo s
om em
ksa m
g b
go laiD
Ġs sec
s si
fi ceps
to B
yro getac
I F
etubirt sid
reple H
ner dlihC
V EL
k na
à ¥
amehc s
xi m
lia va
er aw
s eulaV
ke eW
elba irav
eta nidro
egaro tS
es raP
ç Ķ
mod nar
ytreporPnwO teg
s nigulp
Ø ³
, `
por D
cny S
Ġc itats
t d
lm tH
R RA
Ġret fa
\ (
de tceleS
f ub
y h
I D
i j
l dnah
ti b
k S
red li
rota repo
Ø ¹
à ¦
7 01
Ġek il
ya led
ah p
sa m
nig eb
re if
V mc
tA rahc
am rof
tre la
Ġe eS
ev oM
OR P
m le
emaN edon
> "\
la doM
Ġ noitisop
/.. '
tcej ni
ma rg
x iF
T X
yr tne
rellort noC
Ġt ni
Ġev ita
h R
ne t
æ ĸ
elac S
.) ]
/ =
Ġnagne d
E A
Ġthgi eH
# "
Ġ q
wol lo
delba ne
es olC
rep O
taolF esrap
Ġerof eb
noitcen noc
{) ;
å ¤
eta mina
cs bus
sM UQBNEL
Ġre hti
lacit rev
red rO
MM MM
.) )(
tc nup
ĠfO rebmem
dna mmoC
Ġeta tS
stlu afed
H H
P U
hser fer
Ġruo y
roc ed
emaN yalpsid
v res
Ġe es
Ġdnu of
noitac ifit
c es
tnem om
Ġ lu
dilav ni
gACIgACI ux
Ġ tnetnoc
ssec ca
l S
bil d
si L
T P
p j
00 4
s ci
Ġgni rtS
ep acse
11 1
sserg orP
Ġtxe n
Ġ nottub
W L
)) )
eer T
è ¯
Ġs dnetxe
ecner efer
daol pu
ecner ef
s rorre
G L
21 5
Ġadap ek
j L
a v
Ġne vig
re yaL
leba b
hcat ta
le h
tro hS
et S
c h
= -
tnil se
ro hcna
egnahC no
s E
[ )
gni ppa
uo R
RA P
Ġd da
evitc erid
ĠĠĠĠĠĠĠĠĊ Ċ
g k
o w
0 52
xF dc
Ġy d
ema g
ega kcap
er otS
pec ca
61 1
Ġe ca
yB s
D D
sel ytS
` `
"[ __
p ilc
mo D
tim bus
/. ",
Ġtner ap
ediv orp
æ Ĺ
Ġro rrE
rts bus
"= +
NaN si
_ "(
nu F
\ |
S P
eciv ed
dni B
n g
yr c
nif eD
Ġ tnemelE
"[ :"
RE V
Ġd etubirtsid
fO epytotorP
q j
Ġ} *
Ġ #
u ti
Ġy ra
etatS tes
noitau tcnup
E U
etulo sba
tA edoCrahc
y J
gna L
eta g
poT llorcs
Ġy daer
EER HT
Ġyro getac
ĀĀĀĀĀĀĀĀ ĀĀĀĀĀĀĀĀ
xe h
Ġ ÙĴ
Ù ĥ
o uq
Ġhc tiws
daol yap
S N
da eH
d n
dna pxe
po ol
ret fA
eru txeT
T EG
h Z
ecaps eman
LA V
æ ķ
T M
Ġ hcae
is et
motsu C
ES NE
ip A
va j
ĠĠĠĠĠĠĠĠĠĠĠĠĠĠ Ċ
Ġ yarrA
Ġ) )'
C S
Ġ; "
ksa T
tni rp
knu hc
c ol
00 01
re ta
xob kcehc
tc at
Ġy p
. (
z N
rab loot
noitcnuF si
noisne txe
.. ..
ĠĠĠĠĠĠĠĠĠĠĠĠĠĠĠĠ Ġ
21 21
gnirts bus
s rota
x f
reda oL
de M
Ġ yt
re f
na pxe
k u
edon v
{$ `
Ġm ele
Ġer om
{ {
yti ro
E N
i pmoc
Ġrehti e
( !
pma ts
Ġd lu
syad keew
T N
v A
tsa L
Ġde en
el ur
Ġs sel
" {:
n S
I P
{ [:
s z
bi siv
s dleif
dra C
( )}
Ġecna tsni
Ġs noita
ESNE CIL
om eR
re ma
or c
bi S
sser ddA
s v
itne dI
ira V
elbi siV
p il
5 21
gn A
o F
Ġne ht
Ġ noitpo
å ¸
or ht
Ġ noisrev
R RE
kc iT
c t
si geR
Ġ 81
la tnoziro
rered ner
Z p
Ġ kcehc
yx orp
yrtemo eg
â Ķ
ep ocS
deda ol
E MAN
Ġ 11
er eh
kc arT
ed ulcni
noitcel loC
rediv orP
ec er
Ġ}* {
S L
rev oc
re kram
vi D
ssalC sah
ep ip
s tnemelE
åİ ¿
h W
s resu
hsa H
sel ur
yram irp
Ġe ti
nim ret
de en
Ġel yts
Y EK
," ":
[ '
lav retnI
f I
NOI TI
eno z
Ġne l
O M
Ġ FO
t oN
lo P
xir tam
: )"
m Y
eta lu
de xif
s eg
Ġ, )"
gap orP
Ġre ht
ro tcurtsnoC
h B
0 61
,)} "
ot uA
Ġ,] '
Ġ tcejbO
dnu of
S C
Ġni at
o or
Ġd eriuqer
LM X
ep er
rot pircseD
P O
rh x
Ġt eS
aer at
= _
Ġma la
atada tem
ts oP
it na
," )
" ,]"
s rep
B I
à ª
i ro
Ġy eK
E E
no d
T RO
li ma
noissim rep
;) ))
J XZ
Ġ pa
g M
ev is
o pmoc
Ġ tnenopmoC
( ,)
Ġera lced
Ġtxet noc
[ ,}"
j N
i n
hsi nif
era pmoc
Ġ DI
Ġ wor
C L
a n
t b
r s
Ġ LRU
B D
:" \
Ù ģ
r W
tcer roc
0 81
v ed
ĠĠĊ Ċ
s eman
! ,)
no sJ
Ġx if
t k
nim da
å Ĭ
Ġre d
"[ ,]
Ġt nuoc
p h
ne tsil
æ ĺ
ti nu
pe ed
se hctam
ta olf
o J
Ġre dro
ezi lamron
lac oL
Ġs tnemele
em os
Ġgni n
ĠĠĠ Ċ
e kc
il S
liat eD
ro tidE
" ==
% ":
4 11
P S
s drow
er ongi
sa e
ĠĠĠĠĠĠĠĠĠĠĠĠĠĠĠĠĠĠĠĠĠĠĠĠĠĠĠĠĠĠĠĠ ĠĠĠĠĠĠĠĠ
rekcip etad
TNE M
el er
v R
Ġ weiv
SS C
Ġ 46
eta tor
xi Q
ht am
Ġyp oc
noit i
TX ET
edoc ed
na iset
Ġyd ob
delba nE
s nmuloc
G R
a e
y F
yal P
Ġ ri
re ts
p S
gnil biS
s galf
g l
gnit tes
tne serp
l V
F FUQ
pu pop
Ġ Ù
ĉĊ Ċ
Bi O
\ :
' s
rellort noc
ecruo seR
ru lb
-- (
B B
c ca
Ġesu ac
gni doc
ni L
ema ne
oo F
hpar G
bol G
g eS
pi ks
d b
^ ^
ne s
/. !
t V
a era
33 33
Ġer us
wollo f
ap A
c epS
ĠĠĠĠĠĠĠĠĠĠĠĠĠĠĠĠ ĠĠĠĠĠĠĠĠĠĠ
el ddi
i uq
tno F
li m
tu m
redi ls
ngi lA
Ð ²
Ġeta erc
eta reneg
46 0
tro S
noita gaporP
\ "(
" ===
y M
sk ooH
elba tirw
t ropxe
\ /(
Ġd ra
Ġ, )'
EDO N
gACI gAibc
Ġk u
laiti nI
r F
7 21
s dohtem
ep ahS
Ġ htaP
BFU R
L O
{ ]
C C
Ñ ı
s egami
0 51
pu tes
c ed
=] "
r U
H S
mot toB
,] [:
a S
f tu
s lobmyS
yal revo
V E
ts riF
le naP
Ġn gi
s weiv
Ġi rad
3 11
y z
ma ny
Ġe miT
Ġ hctam
x sj
te M
kc om
# :
Ġsu tats
lamro N
fo epyt
tni u
b gr
re fed
Ġre g
eman resu
r P
{ [
EP YT
Ġ nu
t pircS
ef as
i C
mrof ta
el ib
di ov
o a
o ita
m rif
x ip
Ġema s
Ġes U
ĠĠĠĠĠĠĠĠĠĠĠĠĠĠĠĠ ĠĠĠ
Ġ TU
yrotsi h
/ !
der ed
Ġ ","
x C
H d
dehc s
st ni
sret emarap
Ġt nuoC
"[ (
+ "(
Ġt rop
Ù °
T R
h P
nia hc
Ġ llA
llu N
le R
Ġ tnenopmoc
dep pam
T C
rotce V
- )
ssa P
Ġtuo htiw
Ġtseuq er
Ġ htgneL
ko oc
b e
noitc ej
yrotca F
â ĸ
m L
Ġesa b
d egnahC
yl nO
t w
i y
u M
s r
ãĢ Ĥ
I R
a M
01 01
m er
,, ,,
emaN tnerap
Ġna ht
lla ms
yrotca f
{) "
aerat xet
ngi S
ec uder
S O
iv ah
D N
}) })
tca rts
m p
e tsni
po retni
lb is
s w
pa rts
elu R
Ġec aps
ä ½
pm is
eca lP
Ġn mu
kc al
re c
lo v
Ġetad pu
tuoemiT raelc
3 21
V V
Ġre ff
noita r
t HI
d etaerc
è ¿
lauqE ot
5 01
sed ulcni
( ]"
Ġed oC
s Q
Ġ gat
na elc
ru d
ĊĊ Ċ
c b
, /
ni gol
Ġeta l
Ġezi S
n Z
Ġ 84
id erp
eva el
5 72
el dnaH
åĮ º
i ws
Ġ 41
^ /(
h h
(|| )
R F
p ih
radne lac
res raP
l q
Ġ noitca
Ùİ Ùĳ
o k
der et
n L
Ġ M
Ġse itrep
Ù Ĥ
gni c
se nil
reswor B
Ð º
lo s
t revnoc
D NI
Ġs er
å į
Ġydaer la
el p
ta lf
UQB VEL
u t
ts noC
yreuq j
Ġay n
Ġci ficeps
tol s
ĠĠĠĠĠĠĠĠĠĠĠĠĠĠĠĠ ĠĠĠĠĠĠĠĠĠĠĠĠĊ
ni w
TI W
sav naC
dlihC tsrif
v J
c d
9 11
- '
/.. '[,'
bild ts
5 11
s liated
s l
D L
Ġ kaerb
rev e
k roW
tra hC
Ð »
BS Z
K g
I M
yBs tnemelEteg
Y A
tnuoc ca
,} {:
1 01
/ "(
Ġd dA
,) ))
e x
æ Ī
cu S
Ġyre uQ
Ġro F
GV S
sa b
9 01
u k
Ġt siL
Ġt niop
re ht
ts oH
s ecruoser
ĠĠĠĠĠĠĠĠĠĠĠĠ ĉ
tnec rep
j M
Ġs salC
l d
t rap
Ġegna hc
8 01
k V
res rap
bp R
di v
ĉĉĉĉ ĉĉĉĉĉ
aer A
tna irav
d eriuqeR
Ġro loc
rap es
stes sa
tnemgar f
Ġ tcaeR
Ġdel lac
b mu
Ġepyt otorp
ts e
Ġd ep
ny s
g ep
mets yS
Ġ fles
3 40
Ġ ì
ed af
/! #
2 01
el pmoc
Ġt pecxe
esa e
se ic
bol b
etanidro oc
DO T
; ;
! ,"
nu om
,} }}
# ","
Ġ ter
Ġse od
ts er
ner ap
É µ
Ġes necil
d s
me M
y lima
rered neR
ro htua
EL BA
ga lF
;] "
ebir csbus
etu nim
Ġe er
gACIgACI gAibc
;" "
etav itca
ir tne
ema s
nor iv
dezi omem
2 91
Ġ gifnoc
Ġ !
Ġ 51
ses salC
i I
i z
,]] ]'
{ ,}}
m il
at led
Ġ yalpsid
K A
cny s
Ġ} ?{
thgi ew
eu lb
hgi H
la er
evom eR
elb is
droc eR
la w
tnemu grA
NOI TA
C TU
s grA
< "(
O DOT
"\ ,"\
rep pU
cny sA
,' '
s egap
Ġetu birt
e C
es necil
Q A
W T
xet rev
Ġ,] [
o idar
oid ua
st rap
Ġa i
elba vres
ret pa
s d
ps bn
niam od
Ġ gnita
mi L
eriuqeR poretni
emiT teg
/.. '(
eta idem
P si
Ġn er
noi si
ec i
el C
s gat
S F
f e
Ġ noisreV
å Ń
erc S
tsu j
;) })
0 31
bm em
elif orp
t n
Ġes nopser
å Ľ
rota givan
_ /
b w
eruta eF
V Z
Ġ 31
{ /
reget nI
tim E
44 0
t od
æķ °
pirc sa
kra d
Ġt oor
[[,] ]
TA D
kc ip
to ob
es op
d etu
Ġs re
s loot
tne gA
seru ta
lecna C
dlihC evomer
I S
eru txet
de il
Ġed om
s roloc
emar fi
,)" _"(
elac oL
tt H
. '($
t j
ret emarap
tnemelE tnemucod
## ##
e etareti
4 01
ytili ba
Ġ Ã
Ġ ĉĉĉ
Ġe sim
(&& ]
z om
Ġdilav nI
evita N
etel eD
redli uB
__ ",
"[ =
Ġt eG
f b
y loP
la iceps
"= ]
renetsiLtnevE evomer
soi xa
U A
gni daoL
;] '
Ġ tnevE
fi nu
Ġ,} {(
Ġn wod
nednep ed
vl Gd
noit u
el it
+" -
Ġts al
Ġro tceles
noita zi
ewt eb
U B
bu P
eulaV tluafed
gno rts
s tcejbo
Ġ MMMM
de bm
naiset raC
thgil hgih
q q
pa l
et uoR
================ ================
ret nE
war D
Ġ ;)(
é Ģ
l Z
Ġ lebal
Ġe W
nigi rO
r B
Ġec iv
p yrc
tnemucoD renwo
eer f
N W
7 11
la h
e na
xeg eR
^/ =
tcejbO si
rot pircsed
o hc
( })
i rep
Ġla u
x d
á »
i O
noitc eriD
," "=
d egnahc
i ru
$ :
} ;
ç »
y R
pa s
a rema
eru sa
H b
B X
ohs pa
Ġelba t
noitcen noC
ec apS
w A
Ġmala d
Ġ oN
etac erp
Ġesuac eb
C N
Ġ NI
e P
TI M
6 01
eu ssi
se it
art xe
el bu
V f
se od
m ret
edoC yek
s nekot
ih W
el cric
dna ts
lenna hC
\ ":
y la
eu V
55 6
a F
g gard
t ve
X AM
s dro
Ġs uo
no g
Ġev omer
xif erP
ci fi
;) `
"+ )
rem it
Ġ, __
ht ped
eri F
ne b
x di
0 95
s oc
tnemgar F
ahp la
noitaru D
loc otorp
Ġts uj
Ġe gap
a u
g en
è ¡
e V
Ġts et
{) ]
ĠY NA
/< }
yaw la
Ġhal et
it s
p ttH
è ®
moo Z
gni dnuoB
ner efer
3 00
Ġdli hc
x x
ti nI
gi ro
;)" .
Ġyre uq
gu orht
sei ro
; `
ĉĉĊ Ċ
Ġev itca
ts eg
âĢ ĵ
esrev er
C F
2 00
egnaR dda
tegdi W
res nI
el gnis
emaN ssalC
ts ed
lu mi
su j
[ "
ssec cA
Ġ kcehC
3 01
ec no
,)) })
á Ģ
ni B
e o
du V
mrof rep
gni dnib
tnem moC
BC L
Ġw on
noitar ip
s noci
EG A
Ġt roppus
u R
stni oP
le xip
dilaV si
/< .
d etupmoc
s etubirttA
g H
tne dni
RO F
," "
g pj
0000 00
sz O
etag eled
mi D
uq es
Ġde ificeps
s dnoc
( )(
l EL
Ġel tit
etel pmoC
r ruc
( ?)
Q BN
red nu
L G
ra l
Ġega ugnal
/ +
Ġ 52
Ġi pa
42 2
Ġ 71
Ġs tneve
41 2
] }
dev re
egaro ts
ff f
id nI
Ġn I
ts ac
' :'
Ġm o
T ES
eruta ef
yrtemo eG
ai deM
noita ni
ta eper
dne gel
D NE
or ci
ud orP
å ¼
x at
ï¿½ï¿½ï¿½ï¿½ ï¿½ï¿½ï¿½ï¿½
Ġs gra
< )
Ġd lo
lo seR
tnem ecalp
PM OC
o CI
no sa
Ġ MOD
NA RRA
N GI
sba t
Ġer eht
AA E
m d
Ġeta erC
Ġs es
amehc S
yt itne
tnetnoC txet
u J
de xiF
å¸ Ĥ
Ġ, )}
el E
ER A
( ==!
NARRA W
Ġla bolg
c nuF
ifi doM
;} }
del lac
p eD
> )
ss el
ÑĢ Ð
hc ti
esu o
BCI ux
Ġ '(
Ġm et
la noitpo
Ġre niatnoc
tcel feR
gni nraw
' '
ra pmoc
D NOC
BS P
ni al
lr tc
p etS
st ol
Ġ pam
Ġ ytpme
Ġdle if
etu cexe
}} }
Ġtes ffO
ret oof
Ġ ru
# '(
66 66
en O
O F
P XE
",} {:"
[ [
f fid
U U
snoit is
Ġra b
Ġer ots
: /
t v
ecneref eR
Ġs epyT
kcab lla
u F
pot S
å ľ
TH GI
0 63
2 02
eulaV teg
B y
Ġ rev
2 21
8 11
TL U
)" +
t D
amrof ni
emaN gat
ti aw
ro tc
æ ł
noi ger
< '(
ss C
h sil
FF FF
wor rA
Ġ 91
yt iv
Ġa da
reppU ot
it cA
rev noC
% '
l dnaH
ne ercS
Ġseitrep orp
ir w
el pitlum
sedoN dlihc
eg de
z l
Ġs noitpO
V A
sser p
emaN gaT
C K
ĠĠĠĠĠĠĠĠĠ Ċ
p R
tluafeD eriuqeRporetni
L P
Ġ lmth
ezi laitini
ed iV
Ġs porp
AAAAAAAA AAAAAAAA
b t
elddi m
Ġ ll
ĠS E
à ´
Q H
se S
Ġe si
E UQ
it luM
d esrap
Ġ tnemugra
wh ab
n d
nw on
s renetsiL
tcart xe
reg gol
e sil
i nU
t pircsa
re M
( :))
su idaR
euq inu
u c
"[ ,"
ERU P
Ġa whab
b is
7 61
ci many
ma k
n Y
tsi xe
xi P
r bil
I A
ed ir
âĶ Ģ
G K
Ġ paM
tne s
00 02
st rop
J CX
ezi laires
la bolG
4 41
Ġ ***
TLU AF
j V
BFU S
ed ilS
à ½
x u
tol p
se irtne
E Z
g v
AA C
sret emaraP
nra W
s egassem
Ġeta D
Ġe etareti
pit looT
TLUAF ED
@ {
MA RAP
M c
nret la
[,] "
TS OP
Ġi ni
Ġro loC
ss orc
nretta P
xS R
m bp
Ñ Į
ra M
Ġ yti
- "
$ =
. \\
/< '
," â
Ġn A
tekc os
A TAD
es palloc
noitid noc
tcerid er
46 2
0 91
C M
ytili bisiv
|| )"
. /
ti nU
Ġred ner
tna tsnoc
- ]
s dI
Ġmet I
d etalsnart
noitc udorp
TNE VE
et ni
Ġnmu loc
esaC reppUot
Ġd ekovni
reget ni
Ġ,] "
R B
Ġer ehw
ssec orP
)) }
$ ,
QB J
z M
à¯ į
rep pop
emane lif
revo g
9 21
gni dne
tu M
ya P
gi vaN
R TS
ĠS A
dehc ac
02 2
Âł Âł
Ġde tcepxe
, ++
noitid da
de eps
Û Į
Ñ ĭ
mo or
ytpmE si
ES U
Ġedi s
BCI gAibc
retni oP
sse n
Ġd edivorp
lu b
ts esolc
noisne txE
s lortnoc
ylla nif
Ġd esneciL
po on
Q Q
D S
on na
Ġ 33
roloC dnuorgkcab
mets ys
! {
s nmuloC
Ġ V
"\ :"\
Ġ weiV
drow yek
02 3
tim moc
s g
em or
c nI
ses necil
gnidoc ne
enil tuo
t I
Ġku tnu
# "=
\ //
i rtS
E NI
pmats emit
lav retni
_ "
Ġs etaerC
)) ]
Ġ ;]
$ $.
W A
s dleiF
s fer
FUQ J
gnippa M
erut pac
\* !
thgi L
yc ner
! ***
Ġ*** !
ht ro
,} '
sa ila
4 21
di d
set yb
yfit on
llA rotceleSyreuq
yfit suj
iv orp
h J
à º
å °
olev ed
ro tca
0 42
ru s
le H
G U
\ ","
lu f
Ġ revo
Ġl rU
hctap siD
eziS tnof
delba siD
Ġy fi
Ġ+ +
Y S
0 41
Y X
et oN
pi z
p w
Ġk row
det i
Ġ> >>
parts toob
o eg
# &
Ġre swor
F D
gna ro
Ġel ytS
X X
_ ,}
__ #
5 31
Ġec ruo
FFUQ F
\ "\
Ġs tcejbo
E x
noitca snart
Ð ´
à ¨
xFdc RHX
Ġem os
= |
n seod
Ġ --
; %
_ '
Ġ ba
gACIgACI g
em ehT
ec nu
Z v
etacerp ed
s euq
et on
va J
Ġ gaT
RO RRE
'[ (
Ġsser pxe
gni p
s renetsil
yrt nE
Ġs op
IT NARRAW
t ohspa
rota retI
mrofta lp
çĶ ¨
ssec cuS
s ta
L C
x lbc
ezis eR
r pxe
ĠepyT edon
-------------------------------- --------------------------------
esa ba
m l
Ġni a
gi d
ssalC cod
M I
: }
51 2
GX ux
ecna tsid
Ġp orp
ny S
ro ti
detalsnart nu
Ġmo tsu
\ ]
redro B
f t
l esuo
Ġs marap
rota c
âĢ ĭ
tcat noc
mu mi
latnoziro h
Ġ< <
Ġta pa
eno Z
geta C
lanret nI
kna lb
{= ]
la nif
s nottub
: )]
Ġt ratS
erofeB tresni
oita R
e A
ruo H
ti rehni
sa H
Ġni am
tcarts bA
Ġ= -
__# */
it nE
nem id
s dnuob
W S
elba liava
Ġ,} {
tsi D
ra ta
edi S
Ġde zi
=== ]
rekc iP
Ġek am
00 6
elba iraV
at eM
Ġ revres
Ġ LMTHrenni
oT dneppa
ne v
Ġ tceles
gi rT
K O
d EL
ros ruC
y ol
li ec
/.. "(
gni n
le xiP
ro C
pec xE
eciv eD
reif itnedI
"{ [:"
ehca pa
g nu
ydob t
o A
s dnetxe
atada teM
Ġde tceles
oo G
s lebal
b D
ĠyreuQ j
etal er
dlo h
ecna v
g s
st sixe
weiv erp
s redaeH
p d
9 91
Ġreb muN
i U
Ġp e
s kooh
ĠĠĠĠĠĠĠĠĠĠĠĠĠĠĠĠ ĠĠĠĠĠ
sop er
03 2
em oh
u gnaL
Ġx ob
[ ":
g N
ra V
Ñ ĩ
fi D
b y
trop weiv
rega nam
yz al
ehc s
er us
à °
' d
Ġn f
lli W
i af
rotpircseD ytreporPnwOteg
| ?
Ġs yek
z F
BS K
da b
Ġ" "
retuo R
nwod yek
tnu oM
\ ?
. _.
nois nemid
nom moC
nit sed
," ]
Ġesa el
Ġx am
6 31
op er
tro ba
k ooH
ka M
la b
tneno pm
Ġno i
gni sae
ri ap
sed ils
el ipmoc
j A
tcet ed
l rt
reyal P
( ===
trop puS
ĠSE ITNARRAW
{( )
T F
Ġni m
te N
âĶĢ âĶĢ
F ED
å ·
1 21
re wol
OH TIW
9 31
E CA
noitagaporP pots
Ġner dlihc
- +
ĠemaN ssalc
oR HI
BF kQ
t F
elib om
la mi
ret emaraP
Ġd row
d etadpu
tnenopm oCI
UQB lEL
Ġro tcurtsnoc
DNI K
a rts
Ġ," "
T O
( -
tcep sni
ĠĠĠĠĊ ĠĠĠĠ
C Z
marg orp
,}) })
d em
s tnetnoc
tfihs nu
o ediV
6 21
s lauqe
"[ ,
/* __
s woR
Ġne ewteb
Ġ yad
woda hS
Ġtf eL
mrif noc
elbaT ataD
d eg
di or
Ġa yna
la ci
noitc eS
Ġ il
pu poP
s gaT
B H
tnuom a
X L
Ġ nottuB
Ġ: )
Ġtup tuo
Ð ¼
it u
esa eler
gni lbis
5 43
to uq
RE P
å º
ar g
. :
Ġs porP
ĠTU OHTIW
Ġy eht
daol pU
ene cs
tne iro
( +"
Ġ0 2
eca F
ti xe
t q
' re
Ġ N
noitacifit on
mu ne
t C
71 02
ap O
kca P
ro ts
tc udorP
Ã Ń
Ġ tnemucod
Ġos la
Ð ¹
{,} })
i di
ĠĠĠĠĠĠĠĠĠĠĠĠĠĠĠĠĠĠĠĠĠĠĠĠĠĠĠĠĠĠĠĠ ĠĠĠĠĠĠĠĠĠĠĠĠ
Ġt ro
tpircsa vaj
di D
d w
Ġetubirt ta
v Z
emiT noitarip
," }
c seD
g c
Ġtna w
noit pircseD
gnit irw
C B
cil pu
t rev
ĠĠĠĠĠĠĠĠĠĠĠĠĊ Ċ
ek iL
krow ten
Ġ hcraes
esu ap
tnenopmoCI RU
TA M
sei reS
ek at
Ġ# //
? )"
Ġed ulcni
ce xE
laire taM
tT K
M q
dd d
rab llorcs
re miT
etac iderp
llu p
é ĩ
": )
s etuor
x SS
teeh s
Ġton naC
na s
tcejb us
G G
tcej orP
retne C
re mun
la reti
&& )(
rota dilav
e Y
ĠĠĠĠ ĉĊ
Ã ¤
li ub
o ba
Ġh el
trop er
s etanidrooc
e bu
ra elC
nois seS
elba tide
ĉĉĉĉ ĉĉĉĊ
mi nA
Y TI
tro P
Ġy r
bi L
tceR tneilC
nap S
sre ldnah
ĠĠĠĠĠĠĠĠĠĠĠĠĠĠĠĠ ĠĠĠĠĠĠĠ
Ġa t
ded ivorp
edoN etats
R XZ
Ġ' >
Ġ// /
)) '
lau tca
no f
a W
ffff ffff
Ġta mrof
Ġehc apA
# /
92 4
el t
Ġ puorg
gn E
Ġesael P
el gnA
33 3
a x
N UQ
/$ )
Ġd elbasid
Ġ' '
Ġehc ac
sj lc
tim buS
d mc
da el
m sa
Ġe uq
tno rf
re gna
Ġo wt
der ahs
S si
il pmoc
Ġs s
Ġ rts
h g
yorts eD
^ [(
tcep xE
gni dniB
Ġ O
gACIgACI gACIg
ma et
Ġeg ami
Ġ EI
Ġ ë
sel iF
evit im
Ġ> >
&& )"
å ¯
ETA TS
Ġe se
D NA
Ġta olf
Ġa ner
re li
rediv orp
o pmoC
Ġ oT
g E
elbavres bO
00 8
r D
re kraM
"," ":"
gi b
}} "
deriuqeR si
x WY
pma s
noriv ne
Ġha la
ts en
Ġ LMTH
6 51
Ġ wodniw
ne d
er oC
ec irp
noitca snarT
Ġ wol
ev il
Ġret emarap
572 0
eno hp
\ ,}
erots er
Ġm ot
? ?
w O
z c
ER P
xet reV
M W
s sim
SA B
ä¸ Ģ
+ )(
- ;
Ġdilav ni
ĠĠĠ ĉ
ĠĠĠĠĠ ĉ
+' "=
noitat or
A E
metI teg
å ±
w rehto
lu g
t Q
ed ulc
yrt nuoc
y daeR
8 42
lop retni
7 31
s tupni
095 71
;) )]
81 2
re lu
c erp
xednI tsal
Ġ 72
;)] '
4 31
noit pac
Ġa m
ta D
zi S
JH X
fOepytotorP teg
ff u
kcal b
ĠĠĠĠĠĠĠĠĠĠĠĠĠĠĠĠ ĠĠĠĠĠĠĠĠĠĠĠĠĠĠ
Ġdes sap
$ '
Ġniat bo
le ehw
Ġed oM
nednep eD
D C
ret ta
tup tuO
=== )
61 2
Ġel ac
Ġs tnemugra
d st
uq s
la ti
liam E
Ġ{ [
ei kooc
k F
æ ī
raeY lluF
ha llA
å ĩ
reb meM
Ġa ma
ylp er
s ledom
s labolg
at ta
p g
tes atad
na k
._ (
NOITI DNOC
s dnuoB
s puorg
Ġ 82
Ġd esab
lc eD
it am
ivah eb
eg dE
8 31
j nem
Ġs noissimrep
pm e
st rahc
yram mus
i J
Ġ kcolb
ya m
ÑĤ Ñģ
u es
ren nI
zis er
.] '
EL E
d erc
ytiro irp
tnegA resu
AL C
hsa D
g B
43 2
y no
g ed
lauqE tcirts
Ġ kniL
tnev erP
eraw tfos
s evitcerid
gnilbiS txen
."( $
ya leD
9 51
deda oL
\ ":"
s retlif
reda er
no N
dnuorg kcaB
Ġd nE
\ /
d z
ded ne
A CI
Ġ G
re T
hcta b
\ /*
T CA
J A
Ġ) )"
Ġ H
Ġ noci
yal revO
tu f
bu ts
ĊĊ ĊĊ
;)' .
es U
E NO
f noc
ec eR
Ġre daeh
et ouq
Ġetad pU
R BF
Ġni gu
ega ugnaL
Ġd nif
Ġra lu
ĀĀĀĀĀĀĀĀĀĀĀĀĀĀĀĀ ĀĀĀĀĀĀĀĀĀĀĀĀĀĀĀĀ
;" "=
et yB
y A
ä ¹
Ġe nifed
å Ĩ
red oc
a L
ngi sed
l tr
o V
8 61
B ib
me ht
L OC
stna tsnoc
ytic apO
[ )"
t U
ep pa
ra enil
* .
4 83
ni p
deil pmi
/ ":
na i
à ²
ti miL
x c
Ġelba cilppa
5 73
4 81
l t
s di
5 81
Ġreht ehw
4 03
' "
Ġ wohs
Ġy lp
ik iw
noita rt
Ġ' \
Ġ 54
esil lim
GX yx
debm e
det roppus
ecaf retnI
H P
,)} })
ĠĠ ĉĊ
Ġ ;}
[: ?(
xi M
: )}
Ġegna r
"\ (
denifed nU
2 31
/.. "
ret ti
yx orP
lrt C
tnuoc cA
cr iC
02 02
,} ]"
s noitcnuf
//////////////// ////////////////
le S
noit pircs
c x
Ġt I
z z
Ġ ÙĲ
esuoM no
Ġ li
J FUQJ
Ġd noc
i N
c ne
V QB
Ġ RE
Ø Ń
tnem ges
s htap
Ġs meti
V GZ
rab van
tr qs
Ã ³
5 41
+ =
ef fid
k b
Y B
ore z
er ga
lat oT
neer g
0 71
/. ","
tfeL llorcs
Ġetal pmet
hca C
emaNgaT yBstnemelEteg
Ġssel nU
******************************** ****************
emiT etaD
nwod porD
oh w
xoB weiv
8 41
1 31
'[ ,]'
ro rr
Ġ kcilc
hc nA
v M
n l
i B
53 2
4 91
ti cil
\\ -
ar d
t J
yt itnedi
el oR
el iT
Ġmotsu c
ic o
v irp
ema G
rep iws
t x
kc oM
6 71
hsu lf
Ġ rre
bb ub
l liF
Ġ level
it ra
/../.. /../..
FUQ H
23 23
nt B
om e
Ġw al
SI SAB
ĠS NOITIDNOC
y ca
dl row
nosa er
Ġecna ilpmoc
U N
noisne miD
Ġgnin revog
b l
a vaJ
92 2
egarotS lacol
~ ~
Ø ©
Ð° Ð½
Ġs gnittes
,' .
3 31
N WZ
Ġl ort
Ġt e
s noc
oj od
gnidnuoB teg
er ocs
Ð¸ Ð½
u lave
Ġre ldnah
r m
AA B
=] ++
g fc
s liateD
dlo f
æĺ ¯
ev ah
T NI
Ø ´
lliW tnenopmoc
Ġ 63
00 9
sre P
sre ifidom
Ġreswor b
tcen noC
Ġde erga
ataD teg
82 2
)] [
{) )(
no l
sla nretni
;)' '
7 51
TA P
Ġ **
å ½
v x
le b
da erp
( )]"
o I
! &&)
Ø ¬
83 2
gnidda P
Ġgni wollof
dehc S
Ġton nac
etatS esu
pal loC
ro m
P I
s F
ä ¼
od ues
rets am
sa B
tu c
ç ½
Ġ Ùı
o G
ksa M
Ġre bmem
revres bO
Ġes ne
ger g
[ [:
rep pu
h N
TS IL
== )
erusa em
I CX
om ed
Ġel pitlum
.) )'
62 2
ded napxe
Ġsnoita timil
gi B
lla tsni
p leh
"," (
42 01
etalu clac
rt xe
lanret xe
noita repo
æ Ŀ
g ooG
Ġ noitcelloc
51 02
à¸ ²
`` `
? ))
Ġ gno
i R
p lug
Ġa l
t y
it rev
o Q
detu pmoC
Î ±
J XY
rab edis
Ġ kcab
b g
Ġegna hC
nwod esuom
draw rof
ter p
re feD
dnu oF
etatS deziomem
Ġg mi
noita givan
daol nwod
... {
lau tr
R W
99 9
re tcarahc
r q
Ġel dnah
h x
Ġ noitisoP
å ¹
Ġa pa
Ġaner ak
niam oD
4 04
7 41
Ġel gnis
+ "=
( {)
s tnenopmoC
c ba
tni arts
stna tsnoC
elba ts
r k
na em
tc irtS
93 2
s noitcA
8 02
Ġ ×
evit is
Ġi ba
nif nI
j F
Ġ)' '
Ġtup nI
@ /
Ġtxet noC
thgi eW
;)} }
de wolla
gn l
6 02
si hT
@ "
ä¸ Ń
reif itnedi
tnerap snart
p Z
(|| ]
gnit teS
y reve
ru lB
;} "
UQB tz
a C
ĉĉĉ ĊĊ
de vi
= __
1 00
5 02
aa aa
hcat ed
ĠI PA
Ġy llac
R I
( [
er B
cit atS
â ķ
w l
ap erp
s dne
;)} {
Ġd il
à ¶
pma xe
sti rehni
kcablla f
Ġ nur
noit pecxE
Ġi a
reb m
ab es
Ġs dohtem
$ ","
" ,}}
u h
8 51
y w
yrotsi H
2 51
( $(
ti siv
Ġ wolla
se M
s rebmem
4 02
Ġec ne
- ?
iti ni
;)( )}
noitani gap
NI M
t xt
tsuj da
7 23
noitacifit oN
reda hS
it raP
Ġmu mi
i Y
H ot
dev omer
9 41
8 81
hc ihw
Ġl it
elgg oT
Ġgni ht
RE S
Ġdes U
Ġev omeR
Ġu nem
46 3
eg k
erut paC
t oh
})) })
9 71
s h
ä» ¶
y N
eman htap
Ġev it
ta hc
der refed
gni S
la ru
Ġ repparw
drow ssaP
pe ek
j J
,} )]
6 61
Ġta ya
s tats
Ġ F
t pecca
__ "
I RU
gnic aps
yl g
? )(
\ ,"\
y nem
LO OT
xy Q
\ :?(
Ġer eh
00000000 00000000
ç Ľ
U Z
Ġ retlif
P YT
revo H
n h
r pxE
ret timE
;)( }
fO eulav
da etsni
[ "(
eman rid
/!# "\=
reffuB yarrA
4 73
noitaru gifnoc
s emit
Ġn wo
lm c
L U
"+ )"
tc eriD
RA TS
ĉĉĊ ĉĉ
Ġgni eb
E DI
\ _
u U
2 62
Ġ Û
Ġ: ]
xSR BFUR
oid uA
eva S
P P
ko oC
á º
Ġtapa d
bol B
9 61
S b
n k
5 61
iu g
NA HC
yra rbil
é ¡
Ġ ofnI
Ġre n
u G
arema c
s egnahC
à ·
05 3
è ¾
Ġer aw
o ra
ssergorP nI
noita dilav
ylp itlum
! =]
MU N
d elyts
4 52
niam er
F X
Ġ ĉĊ
ĠE HT
æľ Ī
b k
Ġ nocI
li ba
NOIT C
ĉĉĉĉ ĉĉĉĉĉĉ
,}) )(
.$ (
Ġdil os
Ġna a
sla itne
eruta ngis
+ )"
Ġde il
ycner ruc
a z
la ic
i A
gni ht
tc es
rota reneG
ru p
U AA
se niL
ecaf retni
c g
t op
72 2
or b
Ġs tluser
4 51
t B
AAAA A
nimret ed
ne ew
7 71
nep su
la s
dnu b
ne hw
no srep
... (
} '
sU UQBVEL
h V
d epocs
Ġne ddi
T TH
Ġa idem
nia M
"\ \\
xSS BFUS
/ "=
( ;
etir W
erc ni
-- -
'\ =
Ġ R
2121 2121
( /
tfo S
t P
O p
N c
sk UQBlEL
Ġesne ffO
Ġs thgir
y C
rotce v
$ [
n Q
fOepytotorP tes
3 41
yra niB
Ġs niatnoc
Ã ¼
r C
Ġ, ))
s rav
s pam
PA EH
t pec
ba f
sc it
6 41
Ġeca lp
8 71
t EL
ET AD
dro W
- :"
Ġh guorht
tceRtneilC gnidnuoBteg
k l
desu nu
set yB
Ġreff ub
ev re
i K
regna d
emit nuR
s knil
Ġrav n
ita l
ir T
Ġ kc
cil ppA
v orp
.... ....
Ġeno d
etubirttA evomer
rata va
5 71
MM M
&& ))
Ġc nuf
ya rg
etaidem mI
F C
;' >
Ġs elif
EU LAV
ot oh
é Ļ
/../.. '
23 2
stlu seR
se irt
ema c
Ġne hW
Ġse i
mro finu
ar b
sn lmx
edir revo
s nF
ba b
ida rg
hsil bup
evitc eriD
y H
B U
h z
s rorrE
Ġ,} "
73 2
O S
oT evom
Ġ ;)}
noiti nifeD
g eL
s lebaL
noita repO
;)] "
Ġnoita tnemelpmi
++ (
er om
s noisnetxe
ĠĠĠĠĠĠĠĠĠĠĠĠĠĠĠĠĠĠĠĠĠĠĠĠĠĠĠĠĠĠĠĠ ĠĠĠĠĠĠĠĠĠĠĠĠĠĠĠĠ
c eD
,' >
na lp
Ġn ruteR
Ġh sah
na b
o si
t M
m U
reb iF
Ġ EL
Y egap
lesuo rac
= *
Î µ
A N
Ä ±
>= )(
Ġre niatnoC
Ġ noisserpxe
$ "
91 2
? ()
ä ¿
noita ra
xednI z
e en
st nerap
J B
_ :
s kcabllac
gnirtS oT
ĠĠĠĠĠĠĊ Ċ
st rats
yt itnE
3 61
tnem geS
{>= )
Ġ kcabllaC
gar f
R C
; --
,} {)(
pir ts
9 02
Ġ Ā
s egaugnal
Î ¿
teeh S
Ġyl nO
su m
gub eD
el pmoC
dlo hser
******** ****
g Y
l k
yra dnoces
} ;)
52 2
D B
seic nedneped
eva eL
Ġd etaerc
)] )"
m elE
der C
Ġer ongi
M UQBNEL
p p
r N
de k
ret nuoc
l snart
Ġgni dda
+" .
9 81
æ Ń
Ġ "=
re pa
,] )
A z
worra n
uq e
le n
TNEM ELE
nb l
} ?{
et omer
61 02
esop sid
84 4
ev res
Ġega P
ecnu ob
ĠS SC
ir d
va s
5 42
Ġn won
epyT atad
æ į
f x
nI si
elu dehcs
+ ":
lia F
dl roW
y geta
Ġc rs
Ġ cod
ne ewt
Fm d
Ġel bis
sel uR
y ps
fd p
elif orP
\ "[
Ġ) ))
R P
Ġd ddd
r v
1 02
c l
yc ph
eni gne
/< ;
eulaV tes
era hs
7 81
redneR citats
æ ŀ
ren roc
Ġ 62
elpma s
sepyT porp
63 2
Ġ Ðµ
X egap
AL F
L E
Ġec nerefer
Ġ2 2
._ =
hgi l
7 02
33 2
|| )(
sb A
c n
ia F
Ġ> -
b oj
w F
**************************************************************** ****************************************************************
cimany d
[ ?
Ġ fed
\ [(
mu cca
\ ,'
5 51
seruta ef
revres bo
ro hcnA
emaN tneve
," >
edi H
edoC rahC
Ġtuo emiT
llA teg
Ġs sap
Q AA
d etaler
ma r
1 91
\ /:
Ġs eman
( =!
esaba tad
& ;
ti f
Ġl edom
h A
" ;
3 02
6 92
diD tnenopmoc
Ġna ta
Ġ ol
ylima f
Ġla t
PA M
(&& )"
ga P
4 61
yfi rev
IT LOOT
o gol
æ Ķ
noitc urts
EL ES
k A
8 82
y Z
8 91
Ġ 55
Ġ 001
sser pxe
d esolc
s tceffe
si M
Ġdet roppus
lu clac
u E
t Z
redlo f
y cil
Ġ 53
N HI
,}{ ||
lo oP
re ssa
. >
reda eR
yt rid
D DA
Ġded da
revo pop
+] [
x dI
ts ap
4 71
ne L
oo L
/.. '[,]'
xif f
orci M
Ġtseuq eR
1 41
{ ,)
s dnoces
æ ²
li s
æ ³
00 7
ev ruc
Ġt nuom
etu niM
S NA
s egnahc
(&& ))
v u
pmi S
er ehw
2 41
ruc er
Ġ GNI
s tcejbO
s tnemugrA
Ġd t
noita nitsed
dne v
\\ \\
g us
" '
x r
emarF noitaminA
R G
dev loser
Ñ ĸ
ngi ssA
UQB dEL
Ġ1 2
pil f
e E
tnem etatS
- )(
tca rahC
tne d
pu kool
elba ggard
! !=
Ġ TIM
ne tsiL
ta s
l L
n n
y Y
knu hC
ser P
Ġla nigiro
dnib nu
del iaf
Ġ 43
Ġ," \
mit po
Ġded a
rezi motsuc
el pmis
rev i
ET EL
Ġre tnec
ĠĠĠĠĠĠĠĠĠĠ ĉ
emu lov
I C
[ )(
ka eW
Ġ gifnoC
;) __
i H
elba nE
s eludoM
lc c
r er
.) )"
à §
Q s
seitreporP enifed
eta r
reht O
nigra M
{) )"
æ İ
o U
Ġxif erp
;] ]
et ihW
Ġna el
v ni
Ġdnoc es
Ġ poT
Ġri eht
ht u
Ġ lobmyS
Ġreff uB
Ġs oP
Ġ( $
t ek
noiti nifed
tohspa nS
s po
6 91
re w
b v
s rap
s ecivres
S Y
dnep erp
6 81
8 03
T ON
_ ,})
01 2
diu u
Ġeta c
t ep
nia lp
re z
olev eD
eh W
am ce
C P
Ġ tcerroc
Ġesim orp
Ø °
itne htua
la itne
Ġda er
é Ĺ
s redaol
a T
dna tS
Ġtlu afeD
noi geR
ĠĠĠĠĠĠĠĠĊ ĠĠĠĠĠĠĠĠ
yarrA ot
W am
ega ts
Ġk e
su M
reg girT
emor hc
y I
tne idarg
Ġyr tne
gv S
Ġ 83
Ġsuo iverp
du olc
eta nretla
NOSJ ot
Q BA
, /$
tcat noC
Ġiba N
Ġre sU
dna l
d x
Ġ noitcnuF
Ġega sseM
o wt
{$ /
? "
ed uti
ecna tsiD
Ġ ppa
å ¾
pit luM
Ġ .)
de ef
\\ ":
[ '(
draob yek
ä¸ į
su nam
;)} "
m ra
de hctam
<> /
Ġs edon
T Z
Ð ·
YA RRA
c el
ro S
eca rt
p ilC
detupmoC teg
h seM
nia rts
noita givaN
Ġ 73
"( &&
Ġk sa
yro getaC
ä¸ ª
DA OL
on nA
ka erB
FUQ L
eta R
AA I
Ġtegra T
la cs
ç §
tes rahc
D EL
tre ssA
la m
ak erem
ç ī
nim dA
{>= )(
Ġ $
Ġda etsni
- "+
p x
V U
{,} ]
t E
s yarra
6 42
xedni bat
dlo b
ahp lA
Ġni htiw
dilav nI
\\ \
ta L
lacit reV
b C
A u
nb vN
11 2
ni d
\ +
0 62
TS A
}} })
i Q
21 2
kcit s
HI g
,) })(
Ġts eT
Gb eW
eru tuf
Ġne po
Ġst po
ka l
tnenopmoCIRU edocne
di ug
ĠĠĠĠĠĠĠĠĠĠĠĠĠĠĠĠ ĉ
31 02
; })(
l Ga
stnem moc
tnerruC teg
6 03
^^ ^^
yla na
u p
q A
hs em
lia rt
ĠĠĠĠĠĠĠĠĠĠĠĠĠĠĠĠ ĠĠĊ
rota reneg
B w
s resU
kciT txen
{ {=
91 02
lu p
Ġeca f
dne S
d etacerped
à¤ °
Ġ fer
. -,
ded da
tes sa
}) '
kcol c
ĠĠĠĠĠĠĠĠĠĠĠĠĠĠĠĠĠĠĠĠĠĠĠĠĠĠĠĠĠĠĠĠ Ċ
ÙĨ Ø§
mro n
e J
a Z
m S
22 2
BC d
p ic
Ġtuo ba
× Ļ
Ġe da
,)] )
BF UQ
ylima F
>/ "
di w
s tesffo
gnippaM ecruos
de ifi
è §
T E
\ >"
lR XY
p xeger
à¤ ¾
gnirtS si
wa R
ep y
tcart noc
etaD teg
SS ALC
Ġel acs
Ġ" '
è ĩ
t W
a ts
la W
c am
81 02
ra eppa
ep acs
dered ner
3 51
Ġ ofni
Ġ eludoM
k nU
mu idem
2 52
iv erP
Ġs eta
â µ
oh C
da h
Ġm eht
Ġd ir
M w
s eussi
al li
BCI gACIgACIgACIgACI
82 4
cil buP
Ġt pircs
ret tu
Ġu mak
s egakcap
,)( }
Q E
Ġ 92
ico ssa
Ø ®
e ip
kc i
neddi H
ni goL
Ġ) )]
rota rapes
er eht
0 46
F E
Ġe ni
æĸ ĩ
a hc
mu S
{ >
grA siht
iw FI
THGI R
Ð¾ Ð½
ff ub
lo op
41 02
LRU gnippaMecruos
ĠĠĠĠĠĠĠĠĠĠĠĠĠĠĠĠĠĠĠĠĠĠĠĠĠĠĠĠĠĠĠĠĠĠĠĠĠĠĠĠĠĠĠĠĠĠĠĠĠĠĠĠĠĠĠĠĠĠĠĠĠĠĠĠ ĠĠĠĠĠĠĠĠĠĠĠĠĠĠĠĠĠĠĠĠĠĠĠĠĠĠĠĠĠĠĠĠĠĠĠĠĠĠĠĠĠĠĠĠĠĠĠĠĠĠĠĠĠĠĠĠĠĠĠĠĠĠĠĠ
j I
dli uB
Ġc il
k k
Ġ W
S REV
,)] "
ew ol
latnoziro H
hcti wS
eno lC
rt em
edoCrahC morf
Ġ{ {=
" ,)"
devre ser
dexiF ot
86 7
se no
de kcehC
etir ps
æ Ģ
Ġl le
it on
gol b
fO eno
desu cof
- >
3 71
er aperp
dnep ed
b h
Ġelba liava
et tel
Q D
enil emit
htdiW tesffo
Ġegna R
RA V
stol s
æ ĭ
pm em
Ġn tb
noissim reP
Ġtni oP
lai reS
Ġx ir
s kcabllaC
B V
p f
za L
X e
yarrA d
Ġnoitcnuf n
kc oL
}) )(
ts af
tcejbO nial
1 92
W as
Ġec no
rttA evomer
txeT etaerc
å Ģ
remu nE
pmet ta
tcet orp
44 4
G N
H L
k ooB
ĉĉĊ ĉ
sre yal
Ġedi sni
&& "
{ ||
H A
TU P
s elba
Ġ ;)"
Ġd eni
\ ;}
k am
Ġ tnetnoC
s gnirts
pa ns
m A
Ġmot tob
gu ls
Ġ YYYY
eru tc
Ġthgi R
k nar
rab looT
_ ":
tuo R
at leD
Ð° ÑĢ
nb mu
L LA
T D
âĢ Ļ
9 42
gni nraW
7 91
tra P
7 03
mp n
er t
Ġ" ,
XZ k
æ ±
elba daer
F K
se na
u n
: "(
CA C
. $.
Ġd ered
la ws
strop xE
M P
lia nbmu
U J
oT enil
lauqE peed
å ī
Ġ 76
× ķ
ami na
C R
xe T
Ġev om
xe H
le k
ef aS
ru b
de b
gnit i
Ġs yawla
O I
ä¸ Ĭ
V X
nu hc
pe eD
tnec reP
orp pa
odues p
;] )
a B
Ġ3 2
C D
S K
! ===
hcta B
e I
em oc
tegraT tnerruc
à¸ Ļ
æĹ ¶
",} ]"
su b
c ir
a K
Ġnoit pircsed
emo H
;) `}
lo S
Ġr id
evi ecer
Ġhel o
j o
Ġ kcats
pu esuom
Ġ po
1 61
Ġ; '
ne ve
s tset
n r
t R
D RO
la itrap
Ġ] [
ro g
s lc
gel eD
emiTnoitarip xe
Ġtuo emit
L Q
S BF
edis ni
{$ `(
O DFUQD
snoit id
od nu
! ?(
SNA RT
ff x
eti niF
\\ "
sre yaL
V K
å® ļ
Ġgni daol
s T
C l
raeYlluF teg
tca xe
s ruoh
Ġmrof snart
k d
) `
yra nib
yti nifnI
fa s
Ġna gna
s ruoH
pa t
tne ga
e Z
retti wt
nia ga
"," ","
j l
ek af
R D
redli ub
ssergorPnI krow
Ġe tirw
div orp
/. "{,}
tse fi
P L
s llec
radne laC
i x
B ic
thgil hgiH
ni ks
s ecruos
yti ruc
t pm
i li
a R
7 42
rop puS
pord kcab
n m
æľ ī
su lp
7 66
+" _
MM OC
g e
tca f
lac S
Ġde tcepxE
l O
Ġfo rebmem
Ġde nruter
Ġsser g
nor hc
Ġ ir
lav E
der e
o y
st nuoc
,' )
Ñ ħ
5 91
Ġs elyts
Ġlort noc
ene cS
Ã ¶
4 42
d nopser
ĠĠĠĠĠĠĠĠĠĠĠĠĠĠĠĠ ĠĠĠĠĠĠĠĠĠĠĠ
eni gnE
hcta W
yb sta
sa w
lo V
rap eS
ãģ ®
Ġ ua
;)' >
o da
Ġhala da
Ġsu cof
rot C
/< "
ra k
ov nI
Y uV
3 22
Ġt pircS
tniop dne
e O
ir ter
v n
de epS
í ķ
Ġ TS
der refeD
retpa da
Ã §
V Gd
8 23
S B
Ġx eg
lc ni
s no
' {
no nis
ht peD
EM IT
w T
Ġre dloh
c oL
gni daeh
Ġel iF
Ġesim orP
Z GI
Ġelba sid
Ġm ro
elbu oD
ru S
Y g
ruc co
åľ ¨
thgieH retuo
x uder
AA G
d g
71 2
Ġm od
Å į
tneraP teg
noit pecxe
el gniS
elbu od
2 60
noita dilaV
Ġ,] ]
Ñ Ī
bi siV
ĠT EG
Ġt rap
ux lbc
hcna rb
BFU T
ytiro irP
s roloC
d h
wol lA
ret ooF
tnuom A
evita gen
N C
[ ,}}
1 51
Ġ loob
21 0
b yB
se hcuot
ro tu
ay N
c sa
DI LAV
rek roW
s deen
s yawla
5 92
se k
} {)
Ġ] ]
.) ][
krow teN
Ġ noitcerid
ore Z
, /)
Ġdiov a
tneserp er
edon V
11 11
\\ (
S T
"," â
mu b
cu deR
Ġ lluf
daol er
Ġg ub
thgieH tesffo
Ġ woR
& '
Lz lGa
n sah
Ï Ħ
E DOM
Y P
g ab
Ġs noitcnuf
ec irP
Ġ, )]
ti B
Ġeru ta
ht n
X A
SI D
0 84
noit seuq
G OL
Ġlau tca
dro oC
); --
9 03
+ /
Ġ laV
0 72
nog yloP
0 92
a vaj
Ã º
ETEL ED
Ġel gna
UQB tEL
lu c
ET I
re iz
Ð ±
el pu
s dnammoc
Ġnoita rud
de tcennoc
rev er
Ġese ht
Ġs etubirtta
^ "(
b x
_ '(
n x
D U
Ġp ets
st roppus
sdnoc eS
,)( )(
sre ldnaH
htnoM teg
Ġylla u
gno L
de tneverP
elba dnapxe
Ġts a
Ġgnit sixe
htro hs
8 72
Ġy B
@@ @@
y n
del laC
( _,
H dl
tes eR
di m
neercs lluf
ycph Gd
Ġel gg
0 33
á Ł
,]" ",
t N
htgneL etyb
eta roced
c w
GA T
ret teg
Ġ NOSJ
pm c
m si
Ġevita n
ci sab
ri aP
æ Į
ĠS J
CTU teg
tekc oS
s puorG
bmu ht
æ µ
Ġ tneilc
uq S
TRO PXE
Ġ} }
noitc et
/ >
g mI
eg ral
Ġ mun
noita tneiro
yV GZ
Î ¹
di h
0101 0101
ylno daer
BI RT
se iti
Ġa g
tc o
roc eD
r E
0 82
hti rog
sser P
er cs
Ġk sam
31 2
s mrof
se n
BCI gACIgACIux
di dna
net talf
redi lS
o z
r revo
cr S
Ġh u
c ra
Ġs kcehC
G T
ER C
ma h
D NU
RE SU
yro mem
{ [,
s rahc
[ )'
Ġ K
Ġ1 3
ĠĠĠĠĠĠĠĠĠĠĠĠĠĠĠĠĠĠĠĠĠĠĠĠ Ġ
sp ed
F R
n M
,' ðŁ
gaT tceffe
ci remun
9 52
ĠĠĠĠĠĠĠ Ċ
go D
tcej nI
sti nu
Ġts oh
Ð¾Ð ¿
a o
n ru
Ġev loser
NOI SREV
nog ylop
7 52
Ġ puorG
na j
Ġdlu ow
>> )
i re
i Z
da r
t Y
% "
evom esuom
Ġ 44
emaN elif
ot nI
suo iverP
è ´
l I
s rebmun
det ros
3 91
Ġ llec
y f
e q
era uqs
---------------------------------------------------------------- --------
Ġ gol
pih s
elbis sop
Ġs esu
k O
trop xE
Ø £
8 52
retpa dA
tnevE hctapsid
é Ŀ
s etalpmet
n p
Ġd roc
M O
marg orP
eru gifnoc
k R
l qs
ssalC elggot
a D
tnevE lanigiro
slobmyS ytreporPnwOteg
dI resu
remu N
Ġ" '+
Ġesi wrehto
elbats nu
6 33
na rt
Ġtner effid
Ġhc us
sj c
Ġde kcehc
Ġi da
noitat onna
il A
Ġeu euq
Ġdle iy
gACIgACI gACIgAibc
è¯ ·
etav irP
à¸² à¸
sec aps
Ġi u
g am
gi D
emit etad
Ð°Ð º
ç Ĥ
V R
w B
Ġ jbO
FUQ N
Ġelba irav
rt p
Ġna D
Ġx di
k ds
N mb
tcejbOnial Psi
Ġa iv
de es
Ġ81 02
à «
Ġ' "=
i na
Ġ) --
ts eR
RET NI
Ġh sa
Ġd eh
se ira
z R
lia vA
HI gACIux
dep parw
el eD
id E
- ":
is ne
t L
f r
ret tel
æĸ °
Q sMUQBNEL
W R
d r
dra ug
ag abes
Ġm er
S OP
di b
x g
à¥ į
è¡ ¨
ivah eB
Ġ6 9
A T
uq eS
deret lif
erus ne
Ġg sm
{ ?
htdiW retuo
noit amrofni
Ġel bisiv
el criC
e Q
/.! ?
dnoc eS
Ġe hcaC
etanidro oC
d ri
ï¿½ï¿½ï¿½ï¿½ï¿½ï¿½ï¿½ï¿½ ï¿½ï¿½ï¿½ï¿½ï¿½ï¿½ï¿½ï¿½
g f
[ _
Ġp it
la pu
Ġnek oT
\ ;)(
de hsinif
84 7
na t
",] }"
el R
sj lh
gi s
sro htuA
ega nam
Ġdeda ol
2 61
a q
n V
ecnav da
na R
Ġay nna
snF redneRcitats
di c
tnI U
# (
dro oc
ç½ ®
txeT teg
05 4
i S
knil x
+' "
F mc
sec idni
T Y
} {)(
Ġes olc
Ġre tne
Ï ģ
s Y
s tnetnoC
Ġ 93
Ġy ram
yfi dom
==! ]
la B
x w
i Ic
noitceleS teg
s emarf
W OR
Ġla noitidda
Ġlu f
sdro oc
T B
5 03
Ġ noitacol
GNI RTS
Ġ tceleS
reti rw
q es
;} })
Ġnoit at
de ificeps
e U
gnidne P
t O
hpar ga
EV I
redloh ecalP
am ma
Ġne pO
( +)
Ġ 66
Ġs teG
gn L
Ġ5 7
9 72
k m
Ġ' =
W Q
ecna c
.) )}
Ġs m
ti d
rop er
w V
Ġ 74
daer ht
,] ]"
h d
p ser
åħ ¥
B M
ot pyrc
Ġla itini
pmoc sj
u f
ez il
na ta
ni k
;} ]
TU O
stlu afeD
U G
* "
s lC
EZ IS
xednI bat
;)' '(
hc et
Ġ eriuqer
Ġht ob
\ ;)}
Ġs ec
Ġd eti
Ġ. `
ita pmoc
Ġeg amI
s egasseM
da eht
Ġ0 4
% -
Ġx oB
==! )
y g
l n
3 81
è ¦
noita v
t resnI
el pmiS
s etunim
ets ap
7 53
", ,
Ñ Ĩ
Ġ gra
nepO si
ENI L
BCI gACIg
" ?)
ybsta g
;)] [
ãĥ ¼
ay n
Ġre ldnaH
\\ ]
ob A
ä¸ º
cilpu d
5 62
noitis opmoc
wo P
ij ome
Ġ NOIT
OH S
eb yam
trohS shtnom
Ġ 94
dn v
Ġsa v
' >
htiW strats
eva Hot
a ma
Ġ llorcs
Ġnoit amrofni
Ġ DE
Ġata da
draob hsad
è ½
Ġdlu oc
Ġ} =
FUQ D
Ġssec ca
}} ]
il f
1 71
dd dd
ter ces
75 6
Ġw oh
8 63
yarrA ni
wolf revO
Ġ tc
no D
tnem norivne
:" "?
renetsiL evomer
pttH LMX
ei kooC
Ġti ni
! {)
1 04
H FUQH
Ġgni doc
dior dna
a J
ecna mrofrep
Ġecruo S
/!# '=
hcaE erofeb
ni xim
R Q
a id
ti n
TA TS
tcart bus
dna htrohs
ĠV NE
O A
lm Z
pu yek
Ġ maerts
enil nI
åı ĸ
yV Hdl
Ġe kaM
s eta
Ġa ra
Xa oRHI
sti b
ET U
s tatS
d ec
elytS detupmoCteg
9 23
KC OL
h gu
noi siv
L GbeW
if itnedi
Ð°Ð ²
ng oc
(( )
} }))
bu B
# ":"
a A
N X
gnis sim
ï¼ ļ
Ġt oN
Ġ weN
c eS
F Gd
2 71
u I
ren wO
uJ Xd
Ġreg girt
;" >
rota dilaV
n J
Ġmro finu
i ni
.) })
Å ¡
86 4
eg reM
N H
ir csbus
s B
mu nE
f fiD
æ ı
yro tcerid
esa hp
=] ]
rettimE tnevE
sec itrev
em im
llaC ssalc
3 52
hser feR
ev ruC
ç ¤
ti h
neew T
Ġno sj
j am
noitid noC
z B
,] }"
Ġe mu
lareti L
æĹ ¥
rorrE no
nia hC
FUQ P
ts ej
vlGd j
Ġs rorre
0 43
k es
ta tad
dc RHX
5 63
gni zis
Ġ ESNECIL
T RATS
Ġ,' '
y zaL
, _
gnippa m
NW OD
id roc
lB Xe
ssalC repus
_ $
ĠĠĊ ĠĠ
T CE
tre lA
S R
[ |
Ġak am
&& )]
gnit sixe
ED u
8 62
s rttA
2 53
poT nigram
lu mucca
Ġti m
weiv erP
snoit i
on gI
\ =
"= !
Ġa rap
fa S
W QB
" "
noitara lceD
é ĥ
wol F
etatS teg
n R
o K
99 3
s wa
ÑĢÐ ¿
Ġu ata
% )
rot pec
ba l
y en
re hctam
del la
st pO
hsu P
\\ ;
SS EC
s kcit
oM si
s elbairav
xS T
Ġlit nu
p hp
ssalC etaerc
tuo ba
Ġevita ler
y P
å ĳ
( ==
fi nU
re hta
Ġ noitceles
ehc apA
t X
F B
xy RBF
c tu
s etats
gg nu
emiT trats
>= )
9 92
n reta
eno N
rebmuN si
C b
Ġì Ŀ
Ġs redaeh
o Y
é ¢
htdiW xam
oog nom
yarrA oT
W dm
eu rT
Ġse hctam
Ġ ĉĉĊ
hparg op
otoh p
Ġta hw
eru tcurts
Ġ lacol
etiniF si
Ġn retta
GI g
9 53
edoc inu
9 62
Ġ ;)'
96 4
(&& )]
Ġ0 3
"\ ,
e X
st e
è¡ Į
Ø ²
à¹ Ī
s kcolB
#### ####
nc v
Ġel dnaH
dezi lamron
pu r
," %
ra w
à ¼
seiro getac
Ġts om
Ġneddi h
ss cs
Ġ noitces
Ġre daeH
w j
[ "=
o eG
å Ł
si xE
0 73
eta ulave
Ġne ercs
C Du
UAA FA
âĸ Ī
Y AL
Ġt ros
st xet
Ä į
uo y
tsa ot
8 73
s etuniM
}) )}
\ ;)"
. /$
C O
< `
Ġe niL
Ġd ek
Ġ noitamina
Ġs epyt
kcehC llaCssalc
sret liF
tro pmI
F d
ir f
/ ******/
el dnub
lami ced
evres bo
Ġgni rud
Ġya w
3 42
htem os
s lortnoC
< (
7 72
Ġret liF
v erP
Ġl lif
ci pot
L B
Ġ })
Ġa w
ecne uqes
ny d
v oc
wor hT
Q I
A f
z d
Ġelba T
ĉĉĉĊ ĉĉĉ
rab llorcS
6 23
ÂłÂł ÂłÂł
æĪ Ĳ
mu is
renni ps
tfeL nigram
/<> '
noita ziro
s looT
U V
tcet eD
Ġro s
Ġs retemarap
5 04
Ġs o
eno b
noit ubirt
è ĥ
h ab
dlihC teg
m se
Ġes rap
21 3
sgnitteS o
N B
n K
Ġw ohS
s tegrat
? )]
5 53
u vi
m V
1 81
ol s
Ð¾ ÑĤ
de nifeD
re krow
na tsi
ner ef
":" .
elpma xE
der a
T K
ek il
noi nreta
eno hP
ehc S
ih p
Ð° ÑĤ
E W
C x
del lif
__ __
hto om
tcel loc
- ","
ssa s
RE FF
," :
\ ^[
v c
8 33
b ma
i ab
noita reti
mro finU
sei re
u rtS
trats hcuot
devre seR
Ġ:" \
b r
dnE noitisnarT
66 6
emaN teg
& >
Ġ pmt
E d
à µ
n z
s galF
de vas
Ġdna mmoc
d edocne
Ġder et
" ==!
" .
+ (
e iv
renetsiL dda
f p
ç Ĳ
m y
t G
ec nO
dna pxE
3 73
emu ser
tfi hS
ne G
00 05
Ġs tluafed
9 002
9 05
Ġs worht
Ġ= *
fi l
Ġep ocs
evis nopser
l ec
Í ı
,)" .
a V
e el
D Du
la nidro
OR F
ë ĭ
Ġelac ol
xa jA
Ġro htua
N XZ
n v
z J
R X
des palloc
,,,, ,,,,
s dohteM
epacs E
F x
8 92
nu or
t et
s esa
2 81
ãĢ ģ
Ð°Ð ´
de tsen
s nottuB
ecnuob ed
ti g
p oleved
CI ux
ĠÙ ī
21 02
la noita
elba remunE
redlo F
n C
ti K
ir U
"+ ]
Íı Íı
edulc xe
, --
or tS
eri deR
xat nyS
8 43
s q
elc itra
< .
Ġ it
Ġedi vorp
" )
"[ ,]]
s kcolb
Ġra ey
Ġ yticapo
. })
Ø µ
n si
=> )
trop weiV
,} })(
di los
Ġ htnom
Ġ ferh
lum is
a H
ir A
/. "\
pa ws
noitaru gifnoC
Ġ] ++
@ '(
( }}
1 22
s tne
Ġes o
div orP
noisi cerp
ci bu
hp rom
seg de
Ġtlu seR
s nekoT
xat nys
(( (
Ġla nretni
hcte F
repa p
oT llorcs
ita L
a da
Ġp i
s egnar
<< ]
Ġre netsil
yy yy
7 62
epyT lanretni
r cs
Ġet elpmoc
der f
idi rem
3 03
sc UQBdEL
RO TA
8 04
. ?
orci m
d do
tluafeD teg
tces retni
Ġ: ?
;" .
noita cifi
! ?
ygeta rtS
U C
c m
ru oc
ecalp eR
"|| )
ut ital
[[,] "
Ġ csed
Ġ' >"
gk p
P PA
Ġecaps eman
ppa h
er oM
D RA
U W
6 54
ç º
+ [
l emac
ĠĠĠĠĠĠĠĠĠĠĠĠĠĠĠĠ ĊĊ
Ġa f
ca f
noitat oR
Ġeta virp
tra c
Ġl edoM
Ð ³
Ġre di
8 83
s rotceles
Ġy c
v JH
X B
Ġnak u
daol no
9 33
Ġ ffo
elba tidE
do irep
×Ļ ×
pil le
ya M
a na
nif ni
= }
âĢ Ŀ
h XZ
reffuB si
de ifidom
ytiv itca
epocS toor
8 86
dne m
ep eR
dni F
enil emiT
v eD
Ġ2 4
Gd hR
YuV nZ
s loc
lautr iv
tim moC
tuo htiW
mi a
ke es
xC R
hcat tA
etaidem mi
tca F
t K
;))( }
"( $
Ġtes er
K OT
U M
noita cilppA
G ALF
tp yrc
7 43
tcep s
v h
itam otua
rep uS
06 4
ne tpircs
0000 0
Î ½
roloC redrob
Ġo D
Ġdle iF
ega tnecrep
fO yad
V NE
ĉĉĉĉ ĉĉĉĉĊ
Ġ} {
Ġgnit tes
ERU TXET
ret time
c lJ
d R
Ġ verp
\\ '
tsoh lacol
\ ",
na gro
deti rehni
ĠĠĠĠĠĠĠĠĠĠĠĠĠĠĠĠĠĠĠĠĠĠĠĠĠĠĠĠĠĠĠĠ ĠĠ
F Du
ref snarT
birt noc
edoN teg
hsa lf
elbaT atad
ĠT ON
46 4
Ġ 99
\' ,'
Ġg vs
," /
ä¸ ĭ
ì Ŀ
Ġnigu lp
Ġro t
esi w
Ġredloh ecalp
evitim irP
Ġti b
dra dnats
g ua
5 82
Ġyl tnerruc
U P
itne htuA
arema C
g p
tcart noC
gar F
yrt sigeR
v nE
tin UQ
mo ta
evi eceR
æ Ł
s htnoM
Ð¸Ð »
Ġgni dnib
sim orp
9 82
od ot
Ġl E
Ġ, [
etelpmoc otua
Ġyro tcerid
z oM
lu J
ä ¾
à¸ Ń
wol le
gACIgACIgACIgACI ux
Ġlat ot
sI CX
tceffE esu
\ '(
la F
$ ",
7 82
noit amrof
PA RW
EL IF
9 63
Ġde hctam
xob kcehC
Ġecna tsnI
Ġai sunam
noita tuM
Ġs maraP
; _
Ġre llort
s lobmys
gni redneR
m f
Ġ' "
Ġs sc
9999 9999
æį ®
F Z
elba tros
Ġnoit u
4 43
oj I
i Zp
mb v
or d
m r
t ooB
Ã ł
I W
netpircs me
g rO
f leS
+" /
a G
yV Gd
ip xe
èĩ ª
dnu os
Ġes op
Ġi ma
r ps
s N
"|| ]
E HT
Y L
f lah
Ġ 95
ep iws
yla nA
p nosj
mar ga
h k
Ġnael oob
Ġ. ..
rotca F
Ø «
," ðŁ
5 05
gnit set
noitart siger
72 60
WZ k
eman tsoh
Ġs yeK
ĉĉĉĉĉĉĉĉ ĉĉĉĉĉĉĉĉ
re tcarahC
Ġti mil
Ġa rtxe
6 62
ata k
ez eerf
) --
9 43
ra eniL
muis eC
/ )]
;; ;;
sni xim
ta b
Ġs eriuqer
s lacol
ettel ap
HT O
åĬ ł
Ġd ewol
Ġnoita cilppa
7 63
bp sj
s yaD
kcilc no
BA T
nib moc
2 42
," ;
dna s
Q J
at ni
etal snarT
Ġev oba
z A
yro ti
ne z
st pircs
X b
ro dnev
m id
Ġel pmaxe
<< )
g C
irp S
Ġssec orp
ec if
ow T
1 32
Ġt ekc
draob yeK
y k
ni S
åı ¯
tseuqeR pttHLMX
l pmI
l snarT
s repleH
51 3
5 33
Ġre tcarahc
QB l
à® ķ
QBF UQ
p pus
F TU
po oL
g oT
åŃ Ĺ
1 52
I B
r n
sti B
O SI
Ġti nu
Hb hZ
bild tS
yalp otua
us noc
Ġg nu
×ķ ×
RA HC
å¤ §
el la
Ġ pots
Ġd em
L v
6 75
se hctaM
8 53
Ġs dleif
yc nednepeD
Ġ rt
K q
d ma
sec nerefer
tcirts er
f ni
Ġ bildtS
esa el
G B
eri w
Ġe pa
9 04
ta p
Ġdeta reneg
Ġs teS
Ġre ga
gaT gnirtSot
na cs
ĉĉĉĉ ĊĊ
;] ++
Ġf eR
Ġe i
iti nas
ĠI U
no idroc
:) )(
srota roced
Ġdli ub
Ġel gooG
r S
Ġ parw
et nI
redliuB H
{ ,]
Ð¾Ð º
r z
Ġ "=+
Ġs tniop
Ġ, _
$ _
Ġgni niatnoc
yad ot
QBA UAAFA
D R
Ġta mroF
Ġ0 6
elba daeR
/..'[,]' )(
PM E
m R
tnevE evitan
m Ic
om yno
tluafeD si
Ġ DET
ssec en
ytic olev
L S
Ġ ^
- "(
hu M
Ġm m
ac i
ip oc
s noisnemiD
Ù ī
__ ,
Ġelba remune
elba ziser
irep xe
d M
- ",
7 33
Ġeciv res
Y Wa
7 92
reda hs
} })(
ĠemaN edon
p I
-- ;
D ER
S ER
lu sa
noitpircs bus
Ġnoi si
+] ][
mrofta lP
Ġ liame
N N
cs buS
Ġll its
{$ =
tneraP tesffo
cnyS eliF
elgna tceR
6 82
sp ets
reb me
edoN txeTetaerc
la ngis
çĤ ¹
evitim irp
sec ca
n B
y K
snoita repo
ro b
ĠĠĠĠ ĉĉ
det roppuS
4 33
dnoc esillim
4 92
p iT
âĶĢâĶĢ âĶĢâĶĢ
seruta eF
< '($
6 56
9 73
å ¦
s ecnatsni
"\ :
Ġy reve
Ġc it
eca rT
feD si
s tseuqer
é ĺ
Ð ¿
Ġdnu org
RHX qj
âĢ ľ
Ġses salc
D x
mil ed
tni h
s egaP
ic if
9 83
ĠS TROPXE
@ "(
etatS ydaer
Ġgni v
ç ®
G Q
de ifidoM
31 3
ts etal
D Z
à¸ £
ser iuq
Ġd egnahc
X R
gACIgACIgACIgACIgACIgACIgACIgACI gACIgACIgACIgACIgACIgACIgACIgACI
å¯ ¹
" ,)}
00 03
_ ,)
T V
Ġla nret
_. ]
46 8
Ġ Z
oo z
X n
nwoD yeK
à¹ Ģ
h guorht
a ka
na pxE
G S
v I
od napxe
X redliuBH
ih s
0000 1
- '(
Ġthgi l
Ã £
Ġ lobmys
Ġd evomer
s ksat
l U
nwon knu
s tuptuo
gA A
eta givan
Ġs egnahc
7 73
C J
Ġecna tsid
s llac
emiT evitaler
H K
revo esuom
ek ortS
te f
M S
dli ug
hp la
FD P
Ġren ni
idar G
of eriF
I AF
FO S
yVHdl J
KCA B
Ġeer t
; `}
eulaV wen
oita r
denifednU si
s tcejorp
ret tamrof
tz QBF
dap ek
snoitis op
Ġeno lc
gnic apS
reli pmoc
JH d
mod naR
Ġ ":
{ /}
;}{ ||
tned nI
__ =
Ġr b
k ooL
åĪ Ĩ
tnemelE evitca
Ġnak gna
Ġy x
Ġi rah
|| "
y e
æ Ľ
C Q
dra dnatS
{) '
ecruoS atad
de knil
edoC sutats
Y h
X tneilc
ecna lab
yol ped
Ġ" >
"," ;
Ġ rra
O V
ci remuN
Ġ 96
de yortsed
Ġ war
rep oleveD
ev e
gne p
s ecruoseR
de no
daerp s
,} }))
0 83
eta lopretni
elba reti
fO xednItsal
O G
RO LOC
Ġ loc
na J
ĠS I
v d
la noitidda
Û ķ
Ġi ra
tnec ca
å ¿
ne cs
p es
\\ ()}
nu rt
6 55
m lE
evre serp
sporP tluafed
lianbmu ht
6 73
/\ /\
Ġylp pa
H c
rev ni
åī į
lh Gd
Ġla iceps
Ġre netsiL
LRU ecruos
è Ģ
pmats emiT
,}} })
Ġt revnoc
n bc
lop retnI
ĀĀĀĀĀĀĀĀĀĀĀĀĀĀĀĀĀĀĀĀĀĀĀĀĀĀĀĀĀĀĀĀ ĀĀĀĀĀĀĀĀĀĀĀĀĀĀĀĀĀĀĀĀĀĀĀĀĀĀĀĀĀĀĀĀ
tel law
re tsa
F V
eueuq ne
ĠD NA
6 43
Ġla noitpo
deta reneg
w k
na mi
su B
Ġ4 8
DILAV NI
NE KOT
Ġ)( {=
niarts noc
r l
- {
[ [,
Ġ LA
Ġ lebaL
llA tceles
è ·
uq er
g D
5 83
rorr iM
ecaps emaN
ne S
;)" "(
4 05
Ġne ve
Ġsre tcarahc
ega kcaP
Ġ 75
2 72
eta geleD
n q
trohS syadkeew
noitcej orp
fer P
s nruter
Ġd ehc
tca xE
rem A
F NOC
Wb h
l liw
sci hparg
xt C
a is
A x
] )
e naP
i E
stnem ges
$ |
gi h
trop snart
y erg
ter ac
Ġd etupmoc
si s
htdiW nim
23 3
lau siv
eta retI
AAAAAAAAAAAAAAAA AAAAAAAAAAAAAAAA
ĠĠĠĠĠĠĠĠ ĉĊ
LL LL
trop eR
fa el
q J
k x
Ø± Ø§
stol S
eno D
reg goL
7 93
fi dne
yc ne
sec orp
/< "+
duV Wb
reiz eb
.$ =
s lleC
di p
! !(
Ġ kcilC
rd yh
st raP
Q skUQBlEL
s htaP
de tcetorp
Ġ0 8
rene ger
neercs lluF
Ġi gab
m ys
Ġra elc
b N
bo J
Ġsser dda
8 05
er bm
4 53
noriv nE
ht e
niM syadkeew
Ġ gn
å Ŀ
6 94
hu ggnu
tilp S
r dda
C V
tamroF etaD
noitat onnA
"{ ,"
/ ****************************************************************
! :"
m es
noitc ar
llif ylop
Ġs wolla
h l
redne s
es lE
ca M
p t
tcep sa
ci saB
\\ |
Ġniat noc
tne di
6 04
\> "\
Ġet oN
M Z
nit liub
Ġo g
I I
AA K
Ġs wor
.)' ]"
Ù° Ùĳ
(&& )(
\' :'
Ġla uqe
thgieW tnof
áĥ Ĳ
lareti l
- |
Ġa j
ecne uqeS
bu tS
i W
elp pir
sa P
lluN si
pih S
gni dnuob
et irpS
tniarts noC
r K
Ġs deen
rev ird
áĥ ĺ
tegraT detaler
Ġm roF
a Y
c j
gni g
" &&)
et omeR
1 03
8 93
æ Ĭ
Ġra ga
à® ¿
itna uq
Ġp pA
è İ
Ġel tiT
dle iy
F W
Ġdo hteM
Éµ Éµ
Ðµ ÑĢ
lm X
Ġsu tatS
h CI
\\ {
Ġro tceleS
rep oleved
ret nuoC
gACIgACI gACIux
! ;
âĢĭ âĢĭ
Ġeta reti
âĢ į
n j
+ !
eueuQ etadpu
> }}
p b
Ġedi h
s reb
ĉĉĉĉĉĉĉĉ ĉĉĉ
ta us
txetnoC teg
Ġx el
ç ¬
i o
7 04
Ġe mo
Ġssec cus
yro ts
Ñ İ
NO M
W OL
sse ni
s egnaR
H Zv
tol S
g eN
G P
k j
ser pmoc
* \
ç ł
ç¤ º
åĲ į
il itu
tt orht
æ ¸
[,] ]
, /*
Ġ1 0
SS IM
el i
hp ylg
B US
+' >"
,) )]
k N
Ġna u
ytreporP teg
Ġa id
éĢ ī
G J
;)] }
ni oc
ĠĠĠĠĠĠĠĠĠĠĠĠĠĠĠĠ ĠĠĠĠĠĠĠĠĠĠĠĠĠĠĠ
me idirem
ĠĠĠĠĠĠĠĠĠĠĠĠĠĠĠĠĠĠĠĠĠĠĠĠĠĠĠĠĠĠĠĠ ĠĠĠĠĠĠĠĠĠĠĠĠĠĠĠĠĠĠĠĠ
_ ",
nwod kram
Ġ,' )
A P
Ġ6 5
tcarts ba
E HC
yr ter
6 53
c te
01 0
t ov
FF O
Ġdne s
\ ;]
ssc tsop
rotac idnI
! <
Ġ pm
RU C
Ġ Ñı
tnairav ni
Ġmumi xam
B x
01 3
Ġa ya
det nuom
no b
à ³
= /
Kg YWa
RA M
Ġdep parw
dnopser roc
B GR
hcra re
4 82
ra lacS
dlo F
1 42
b itapmoc
AA M
Ġsi xa
nig eB
rotac idni
evitcA si
GI gACIux
si rapmoc
ay nna
P ITLOOT
Ġ" }
Ġm ets
" {=
h eb
æ Ļ
K K
tsi srep
FF u
s lauqE
Ġ> "
n N
Ġ tneverp
Ġdeil ppa
p N
ticil pxe
i reP
ce V
ema ner
sla itrap
ED NI
x T
Y TS
Ġne L
xy SBF
Ġd elbane
BFU U
tniop dnE
bil st
li M
la k
Ġnoita rugifnoc
de n
sti nU
ed a
llA evomer
ne eB
H Z
"{ ,}}
gerg ga
DA EH
Gc t
Y yV
rorrE egnaR
tnenopmoC tcartsbA
oT dda
,)} {=
E Q
ep iP
,)} ]
paM kaeW
Ġa n
y Fmd
;)" >
yro tceriD
DEL IAF
$ "(
ti rW
ycil oP
Ġ1 4
ERA WT
T T
ÐµÐ ¼
ERAWT FOS
,' ]
tnem yap
Ġ ruc
eel lac
mumi xam
ne T
^/ :
v on
hc nu
m g
uq E
B OL
kc iuq
L FUQL
Ġi agabes
VV VV
G O
mumi nim
â Ĥ
ta hC
7 05
yl suo
erusa eM
ç İ
X Q
s rid
Ġni al
% :
Ð¸ ÑĤ
rettu g
Ġ} >
tj Q
2 03
k p
s y
trop snarT
! ,]
7 83
Ġ rtS
Ġda eh
es opmoc
du olC
NU F
re llorcs
tcennoc sid
à¹ ī
Ġrehto na
03 40
Ġe meht
"( __
thgieH tneilc
esab erif
pa da
V N
cilpu D
xFdcRHX ux
es oognom
cimany D
ataD evomer
er eM
à¼ ĭ
.] [
8 08
å §
k M
ebircsbus nu
Ġlu b
txeT esnopser
nom ek
N FUQN
Ġelba ne
tc irt
tuo htiw
3 04
Ġnigu lP
por c
ta C
,]} {,}
fi g
,) })"
c z
Ġtnem moc
tcel fer
yen rab
6 83
ecil S
9 06
0 93
ci hparg
N NOC
61 4
$ _.
RET NE
htdiW tneilc
7 00
V ED
U BF
ta lp
å Ĵ
DA ER
s gnirtS
Ġdrow ssap
redlo H
Ġdli hC
æ ģ
ti xE
rt eM
6 72
el ihW
Ġ** :
i G
5 93
ic er
x yT
ir O
ob rev
seirt nE
G ET
H TAP
y kcits
s R
KCOL B
æį® æķ°
Ġthgi m
U F
4 72
lauqE si
s noC
yp S
ç ´
se b
elbavres bo
z Z
bu od
Ġlub natsi
8 84
ls h
ES AB
{ "
ega rev
Ġsav nac
tsefi nam
Ġd nib
re wop
å Ļ
Ġs emaN
koob ecaf
Ġne t
Ġt il
pu naelc
Ġtnuom a
ÐµÐ ´
Ġay N
p er
91 3
RXZ yB
itrep es
Ġrota reti
? ((
Ġ ##
53 556
ç «
}}) "
GX s
revi ecer
Ġak ereM
b moc
trev ni
eduti gnol
Ù ĭ
yt riD
t eb
x b
seit itne
AS Z
didna c
Ġ galf
BC Z
ita h
Ġ ytreporP
ãģ Ĺ
fO rebmun
Ġh si
esael eR
ed utital
eu g
Z I
Ġelbis sop
: })
la p
+ "[
d etac
s ys
L u
M C
tnem yaP
seriuq er
H SU
Y D
k at
é »
yti ra
sdro oC
Ġla mron
Ġeciv reS
Ġ, /*
ç Ń
" {(
Ġde ifi
emu loV
tnet xE
evita leR
Ġ bat
i q
sporP deziomem
8 76
re D
a I
s fed
ts d
no ht
ro ivaheb
leveL pot
o W
O J
Ġdra ob
col la
è¦ ģ
ref snart
ta lF
metI tes
rew sna
à¤ ķ
çĲ Ĩ
w N
ç ±
- >)
r hc
G NA
v t
CI gAibc
htirog la
8 00
}) )"
" ,)(
es nepsu
Ġ pool
Ġgnaro es
h b
Ï ĥ
eer ht
tpm orp
s droceR
n bp
si laitini
s rab
Ġgni ppa
sp i
42 3
à¸ ĩ
J CL
Ġgni ssim
U b
6 63
o uQ
yre lla
R XY
tceffE tsal
epyT tnemele
o x
B yc
snoitis oP
Ġylla nif
noisi lloc
draob pilc
n P
rota rapmoc
ha M
Ġdnu ora
della tsni
MOD tcaeR
c q
p eS
+ ","
ylnO daer
tu b
yrt siger
o idaR
tc id
Ġngi ssa
ä» ¥
^ (
tc O
\;)" \
eg dab
eniL teg
rorre no
# '=
Wd s
il it
sa c
Ġgnin nur
edoN enolc
Ġa tem
o E
å¼ ı
lapu rD
to R
ra neb
NGI S
REFF UB
5 00
Ġ, >
Ġna id
Î ¼
": "(
e nap
,] )"
ç ¼
na mu
c Q
noita tnemelpmi
gI XY
Ġm e
RE B
^[ |
ret sigeR
xiff us
i nim
lavretnI raelc
ret tamroF
tna tsnoC
Ġnak ta
po hs
Ġs gnitteS
Ġsa ila
FUQ R
t lA
r biL
cel es
sdnoc esillim
ataD tes
tne idarG
Ðµ Ð½
à¯ ģ
! (&&
Ġs el
lavretnI tes
re cudeR
TC ELES
Ġs f
z t
Ġec rof
ETAD PU
EDO C
deret siger
P TTH
daerp S
m t
r I
da B
to of
lav iuq
is op
gni su
@ ",
Ġ itrepes
9 76
o ira
F GZ
B J
edoN V
tpec cA
Ġded ne
dep potS
ãĤ Ĵ
tc erideR
tr B
8 06
tniarts noc
retsu lC
Ġs tnenopmoc
ĉĉ ĠĠ
P D
V m
Ġs llac
ni xiM
emarFnoitaminA tseuqer
)] '
3 43
c y
6 93
ĠsepyT porp
3 44
s egamI
j id
eg girt
sba T
det eled
á µ
Ġtuo yal
oo hc
dw c
sdrow yek
ï ¸
LL L
41 4
Ġ revoh
V QBN
bu H
{) ))
evael esuom
thgi n
s edoc
de eF
Ġnak i
Gd h
cir baf
Ġk ram
ref erp
Ġt nof
ic lR
u ot
eru liaf
DFUQD xSSBFUS
ia hc
n G
04 5
na h
åĬ ¨
ht la
dI eludom
J C
pu kram
d p
H W
mc w
[] '
Ġ)" "
Ġu la
ss UQBtEL
EF AS
Ġs resu
Ġida jnem
2 92
! ,)(
ub rep
at eb
la noitcnuf
rif noc
Ġo ita
ega naM
61 3
mi ced
resU teg
Ġs naem
` [
Ġlla ms
a yna
s da
Ġy orts
Wd k
\ ,]
Ġ eludoMse
5 46
8 46
Ġgni llac
( =]
23 4
S D
n W
6 86
ngilA txet
lit nU
é Ķ
pma lc
7 44
s kniL
elddi M
.} %
03 4
reti rW
ĠRO F
slobmyS tamroF
gni niamer
Y tneilc
tcel e
ylimaF tnof
è Ĭ
elytS tes
Ġa sa
Ġre zi
gH X
Ġnoita zi
noitpircs buS
a E
}} }}
p pc
pa g
emor hC
s em
d eman
Ġa er
ni W
Ġnretta p
t liub
Ġecruo ser
\ ^/(
EL YTS
7 46
ed arg
IR CS
iu G
desu ap
ê °
sixA y
slaitne derC
ra t
tsi h
Ġeva s
($ =
ER ID
ti l
w c
Ġp orP
TUP NI
V Gb
L c
Ġnoita ru
du lcni
G NEL
Ġcil bup
8 75
ãģ Ħ
sah P
tressA on
Ġre yal
Y v
de eN
u e
B Q
tne irO
s noitcnuF
",] [:"
e ef
Ġs renetsil
Ġreht ehW
\\ }
od ts
,}{( )
sixA x
tni ap
lg bew
s esu
el pitluM
gni dael
t pac
æł ĩ
[ __
Ġgnidoc ne
reb if
es laF
Ġ6 52
9 46
Ġe tuoR
tnemelE LMTH
y W
M R
sa E
2 73
41 3
elc yc
s edoC
xST BFUT
,} {)
tne lis
fO epyt
V P
h v
sel or
Ðµ Ñģ
E CI
la reneg
6 05
8 07
Ġs noitca
moo R
| )]
li sp
,) }))
Ġes nopseR
tsu m
ÐµÐ »
ssalC bus
Ġs tnevE
Ġsserg orp
rota rapeS
åĽ ŀ
7 07
s drocer
( )"
yeK lrtc
ðŁ ı
Ġy lluf
. =
re la
rebm E
8 54
d etadpU
re ep
Ġe ka
Ð°Ð ¼
det elpmoc
e etaretI
ÐµÐ ²
retne esuom
;)} '
gnita olf
l G
el z
re woP
n D
snoit amina
f s
gu A
åĪ °
dna rb
0 94
/../.. '(
n T
ev oba
Ġ,' .
@@ @
ir D
Ġer otS
P OT
kni r
tc A
Ġatada tem
ilit U
HT GNEL
yL v
Ġgni l
Ġ' /
X IF
/ ************************************************
Ġe ci
FUQ T
s tsop
sm ele
\; %
BOL G
detneverP tluafeDsi
L F
8 99
pm E
es palloC
Ġya led
3 92
esolC no
Ġeuq inu
RO TS
txeT ssc
0 74
Ġu taus
Ġ noitisnart
Ġro tide
u D
di s
04 4
r M
Ġ ĉĉĉĉ
diu lf
or F
slaitne derc
GXux Vf
yarrAd epyT
Ġs yarra
EI V
P E
é ģ
gni redner
epyT tnetnoc
v f
A Y
k law
}) ))
p nosJ
tes sA
Ġs enil
el ppa
metI tsiL
Ġxeg er
y hpargop
s tseuqeR
ob moc
hsi niF
dni K
Q S
a ni
" ,))
hparga rap
tHI p
NI F
Ġtner aP
ib el
aci remA
ĠedoC yek
H F
Ġla ire
sser pmoc
r ih
eh s
r x
Ġema rf
u Y
C g
re tad
9 54
htdiW enil
txeN teg
P FUQP
/ **
æ ¯
l et
Ġt og
kc ils
áĥĺ áĥ
Ġtnuoc ca
ru Q
æĸ ¹
ff uB
Å ¾
cit eht
ma eT
Ġ0 5
yrt nuoC
Ġ 98
sre niatnoc
seic nednepeD
tnuoM diDtnenopmoc
T NOC
HT UA
hu T
Ġ hcraeS
g uo
; }))
åĽ ¾
ol leh
Ġpe ek
re ifidom
u u
62 4
emaN dohtem
st ekc
htdiW redrob
Ġ noitcennoc
elba siD
Ġi j
42 5
v er
Ġs kooh
gnin nur
dlohser hT
ik im
x s
na B
Ġecalp er
Ġf fid
,})) "
a Q
Ġdes necil
neeB evaHot
Ġa iD
rota repO
sgni dnib
w g
à¤ ¿
Ġ," .
2323 2323
elb orp
ha teg
9 74
od nek
UR BF
ner aP
de nruter
r V
ì ł
ded een
Ġdlu ohS
li r
Ġs tnem
Ġu neM
re motsuc
IT CA
gerg gA
gg ub
s euQ
sel cit
Ġsu idar
\\ )
åį ķ
Ġs serp
det resni
Ġret tel
s etadpU
to D
\ ,"
u L
gni v
Ġs etyb
"= ]"
7 54
Ġnoit id
X f
j Y
mu i
Ġh par
Ġer ew
Ġeu rT
Ġedi rrevo
koob ecaF
gnidoc nE
7 85
Ġmu ak
ĠĠĠĠĠĠĠĠĠĠĠĠĠĠĠĠĠĠĠĠĠĠĠĠĠĠĠĠĠĠĠĠ ĠĠĠĠĠĠ
Ġerus ne
B G
Ġke ew
re weiv
rab ediS
k sed
Ġ {)
la eR
del iaF
iL u
\ **/
èĥ ½
edoc nE
Ġda oL
Î »
Ġ Ä
etats ydaer
rekcip etaD
\ /=
52 4
9 55
| }
E c
s CA
+] -
d ecrof
,][ ||
dered neR
tik beW
{$ (
d ts
j d
/<> "\
po ep
V FL
tseuqeR tes
der ots
ni P
rota reneger
I X
ãĥ ³
sV HZv
Ġ hctaM
: '(
7 08
E b
ar B
at tA
Ð¾Ð ³
hgil hgih
Ġn F
CI T
re weiV
( ,)"
43 21
alli zom
snoit at
81 3
rene m
& "
rebmuN enil
Y l
ar D
aaaa aaaa
9 44
Ġek at
a U
da orb
re il
TCA ER
73 4
Ġmu s
NOIT CA
åĢ ¼
Ġ kcart
SP E
æ °
dne tnorf
stnuoc ca
dem rof
WZ tV
x M
Ġs emit
yna pmoc
l or
Ġ ;))
tohspa ns
76 4
u N
etulo sbA
Ġ1 5
Ġre ta
V M
da P
Ġt A
xednI detceles
elytS citats
dlohser ht
BX b
Ġ ES
8 77
sre tcarahc
ec nA
.)" >
å ĵ
_ "=
.\ /
ot og
æ ¨
ts j
relu dehcs
Ġ MMM
il er
à¤ ¸
s noisrev
DO C
' m
{ '
ssim sid
Ġts riF
5 44
om eM
PA C
ylnO daeR
å¦ Ĥ
p leH
Ġksam tib
Ġdeta icossa
> <
å »
re ifi
D LI
gnilbiS suoiverp
Ġdroc er
ri a
Ġe tuor
31 0
h es
y nA
;)" !
ret tes
se hcuoT
< '=
seiti liba
sepyT atad
71 3
áĥĲ áĥ
v irP
Ġ5 52
/< :
ãģ Ļ
C OD
Ġ repleh
NE M
ENI FED
Ġxel f
pm ac
Ġs nmuloc
iu yal
Ġelgg ot
21212121 21212121
pi ns
T G
Ġir id
ĠtpircS avaJ
elib oM
D J
seg gus
pu kraM
mrif noC
Ġteg diw
"," >
lo d
metI tnerruc
c sid
iu y
gU Ga
66 4
Ġdra w
++ [
Ġre wol
E Y
v gra
de nepo
drow yeK
no sreP
Ġde ifidom
3 72
Ġara tna
r Q
rel ec
X EDNI
xS Q
ke ep
j Z
gni ggard
Ġd om
o O
elba tceles
z x
tnevE hcatta
kcablla F
garD no
ega su
yaD txen
ytili bisiV
yro tnev
daol nwoD
J g
Ġ 002
tneraP llorcs
S X
Ġ 77
eg di
yra noitc
si pa
n H
tamroF etad
Ġnia lp
ir F
âĸĪ âĸĪ
tnu rg
s emiT
or C
eraw tfoS
ereh pS
à¸ ģ
dleiF teg
l pmi
Ġa la
tuo esuom
eni feD
rg etni
à¸ ±
z yx
52 3
Q sI
9 00
?) +
ro tcejni
su s
s tesffO
b q
;] }
TS NOC
à¤ ¨
y llac
TS ET
tnem ercni
Ġts er
ET ON
m Q
\ /\
a O
Ñ į
nu s
se y
Ï Ģ
wol eb
sp pa
er G
ir csbuS
Ġ2 7
Ġima K
oid u
TF EL
esi wrehto
Ġpi ks
. */
nU si
å¼ Ģ
| "(
gu S
de nil
6 96
6 00
na f
s emaNssalc
noitart sigeR
s etatS
eti us
dellaC neeBevaHot
2 000
r J
or tni
sre mit
ni oJ
a nai
Ġeer f
tamroFetaD gnol
Ġti aw
Ġ, %
g P
esrev ni
__ '
di vid
8 55
; })"
reti miled
tsuj dA
n wohs
se ni
sena L
* '
L TR
Ġesu om
ĠE B
Ġd rac
jbO eldnah
Ġrota repo
âĸ «
el gooG
( &
TI T
ãĥ¼ ãĥ
ra hs
yra dnuoB
s tegdiw
YTI LI
s resworb
o Z
Ġs elytS
luc laC
\ |]
ng am
s noisnemid
Ġ tnetnoCtxet
YT PME
enO dnif
x P
ĠedoN tnerap
7 95
Ġ is
[ }
Ñ Ħ
1 23
à® ¤
Ġded een
EGA P
é ħ
Ġs yad
htoom s
Ġk iab
y od
s raey
tnemel pmI
gu j
5 94
esaC lemac
debm E
GX v
tfos orciM
su omyno
áµ Ĵ
l W
/ \\
S W
5 75
Ġo ediv
Ġ htiW
Ġesa B
emiTnoitarip xE
hcuoT no
Ġs eulaV
Ġ revreS
dezi laitini
tnemu rts
Ġ loC
7 94
"{,} ]
æ ¡
o na
el bbub
B g
Ġ ER
\*! ************************************************
no ic
ema S
ro sseccA
ecna C
5 74
ti aW
ĠNI AM
se iceps
sre divorp
n dc
NA C
* "(
Ġ ruoh
99 4
noitcurts ni
r j
)} "
Ġ tcennoc
dne geL
or hT
p n
Ġx dI
Ġxir tam
sI ytreporp
GI FNOC
Ġdel iaF
ta S
Ġ U
06 8
daeh a
es o
NA M
05 6
elacoL enifed
z za
li cne
re ifidoM
noita lu
7 55
Ġnmu loC
Ġa s
gi m
5 08
kc iP
Fm Z
BFU V
la g
Ġ" +)
93 4
Ġnoit pO
noitis opmoC
Ġ8 21
åĻ ¨
7 74
-- "(
:?( ^/
Ġreg etni
3 62
iu m
r Z
V I
Ġc nuF
Ð¾Ð »
EG NAHC
Gb vN
s elbairaV
FUQ F
Ġ poTllorcs
z JXZ
Ġot ua
el ek
h F
ro va
6 84
noit am
D d
Ġh ser
Ġxif erP
u w
nid rO
ra uq
etubirttA sah
eti S
51 0
PP US
u C
thgieH xam
eu lB
tne C
Ġ tcejorp
æŀ ľ
l wo
ç Ļ
6 46
ed iug
pac se
Ġk nuhc
thgieH enil
i e
+" '
tnem ecalP
PL EH
Ġy m
metI uneM
Xd vN
kcal B
Y p
la H
11 0
m E
Ġ8 5
yeK tfihs
tpircS avaJ
, `}
l ma
JB O
Ġst pecca
Ġre divorP
su lc
8 94
2 95
;)} })
Ġdne txe
à ©
9 84
ekiL yarrAsi
Ġtsa el
snoitid noc
Ġ llaC
rorrE repoleveD
Ġecaf retni
dne hcuot
, >
7 84
l K
Ġn O
do ireP
Ġs tes
ezil euq
lle w
ì ŀ
emiT tnerruc
noitani gaP
etac ol
ÙĦ ÙĦØ§
OL C
Ġ21 5
Ġgni hctam
63 5
itna tsni
à¥ ĩ
emo eg
Ġ noc
hsu rb
bm es
l qe
02 4
Y z
rorriM edoC
H V
9 86
Ġer ehT
tnemelE tnerap
ei P
Ġna ksa
cibu c
Ġ) }{
xob dnas
7 96
ĠÛ Ĺ
Ġ' .
Ġnoita repo
è µ
OR G
o ga
[ =]
QBAUAAFA QBAUAAFA
q eS
// /
.$ $
æľ ¬
lV HbhZ
mret ed
jJ XdvN
se xedni
lautr iV
Ġel pmis
v B
ta e
msi rP
te B
Ð°Ð ·
C AA
eslE emas
thgieH llorcs
w oN
S TL
ep a
Ġet eleD
11 3
T XE
- }
1 72
yaD tsal
lanret xE
Ġ" )
Ø ·
a lu
Ġt resnI
= _,
noidroc ca
a X
pyrc ne
EV OM
reta W
es obrev
em ehcs
7 86
c is
la j
\\ ","
99 91
m h
NU OC
r y
tol P
redaeH tseuqeRtes
Ġre dne
LA BOLG
e ec
ÙĲ Ùĳ
r X
9 08
k ot
ni gap
Ø ¡
emaN porp
Y R
Ġd eman
desu coF
ser ipxe
pnosJ kcapbew
ret teG
rep poP
ç» Ħ
tnem poleved
ĠS O
tce V
Ġya D
revo poP
è ±
Ġ kcolB
ngoc er
w v
; __
D MA
Ġr ered
Ġre mit
mi hs
Ġna mi
11 02
===" ]
F GI
Z A
s riap
ĠsepyT porP
yro meM
st nof
æ ·
â ´
,})) }
rt noc
dni heb
y eno
war der
l Gd
ro h
det rats
à¸ ¡
. +
8 95
dm b
3 83
Ġema rF
Ġniam od
yr ruc
,} })"
nigulP tnevE
42 4
ded nuor
Ġek ovni
' <
Ġesa elp
noitc irts
' .
s weiV
sel pmaxe
tesffO etyb
Ġgni c
n rut
dl O
re fer
ylp pA
eti L
k la
NI L
sserp pus
kcap beW
Ġgni s
sec i
si r
,}} ]
Ġs krow
la noitpO
Ġwon k
wolla hs
laviuq e
ĠĠĠĠĠĠĠĠĠĠĠĠĠĠĠĠĠĠĠĠĠĠĠĠĠĠĠĠĠĠĠĠ ĠĠĠĠĊ
se zis
s tamrof
Ġe moc
qA ibc
b U
Ġ) /*
_ /.
H TAM
Ġgni p
X P
ni sucof
Ġeta reneg
GZ v
sa f
no w
! ||)
w f
/< ...
Ġo ot
Ġeu nitnoc
d v
9 75
detceleS teg
2 93
Ä ł
z f
noitac itnehtua
stnem geS
ru ot
6 06
FUQ V
, '(
7 06
OL F
y hp
w E
åĲ İ
........ ........
âĢ Į
w J
8 74
( /)
noita tum
zV mc
|| ))
s mrofinu
_ }
Ġ lmx
ec roF
Ġl li
Ġev is
keeW tsal
Ġeraw tfoS
ytiruc es
nwO sah
l Q
éĻ ¤
Ġy lev
SA H
9 85
4 00
Ġev i
tnetnoc gn
ym mu
w I
Z u
Ï ħ
Ġyllac itamotua
ti mo
ĠS ELUDOM
tnem norivnE
gI CX
sec idnI
llaC nyd
de ts
etu ca
Ġf it
ytreporP tes
o ni
Ġs galf
n X
ĠP TTH
æ ¬
s lennahc
. }"
Ġde eps
e es
gnit rats
hca er
ts om
gH A
htua o
Ġy doB
473 701
Ġ leveL
ET S
na ra
nu g
Ġla tnoziro
etatsydaer no
2 82
ataD mroF
76 543
01 02
tsriF teg
kcatS hsup
Ġevit c
R V
txeT sutats
Ġpe ed
Ð¾Ð ²
1 33
st ropmi
53 40
BCI gACIgACIgACIg
redaoL etalpmet
emaNssalC yBstnemelEteg
dni w
ELBA T
re tal
Ġnwon knU
X I
tm f
M H
f g
y rev
" {)(
dlihC tsal
u de
4 93
ilf noC
Ø º
noit om
Ġ NA
lx WZ
ss I
Ġra eY
Ġeg rem
0 66
Ġ bc
43 43
Ġyl tcerid
QBF FL
keeW txen
o u
Ġeso ht
s eu
l v
_ ;
x qj
ET YB
;)) })
epyT teg
Ġ2 5
uj nu
zN XY
,})) })
å ŀ
ff e
iw S
éĿ ¢
eno t
di os
s wodniw
Ġd d
k U
tceps nI
( ]'
tpircs epyt
dnu B
BE D
REB MUN
Ġgni htemos
DFUQD xyQBF
Ġ3 4
wolle y
r R
6 85
7 99
l M
qq qq
xS QDFUQ
k J
é Ľ
Ġrep uS
Ġag gni
é ľ
Ġ 78
xF X
3 23
Ġdi or
RE M
s ev
Ġros ruc
draw roF
ecaps krow
G M
Ġ kooh
yaD emas
dne lb
S V
ledoM gn
2 23
thgieH nim
W QBJ
Ġthgir ypoc
Ġs litu
ï¸ ı
b wh
ç ľ
eulaV edon
gna b
tcej eR
Ġt resni
to g
iL v
/ _
xyT BF
z Y
s nigulP
re sahP
v E
5 84
elbaremunE sIytreporp
( ,))
wor b
ter ts
k I
d eldnah
rev loseR
Ġs tnemelE
Ġt ooR
à® ®
1 82
Ġ noitcA
gniti de
Ġh guo
Ï Ĥ
åĩ º
Ġ6 4
gni mit
Ġ â
xednI dnif
,' "
Ġetal pmeT
à¤ ®
ff a
Ġ Ã©
åı ĳ
NO T
Ġlle C
Ú ©
hsa ls
Ġdered ner
Ġs noit
Ġnoit i
AI A
Ġs teg
emo se
. "+
Ġde tsen
li b
ç± »
Ġd nik
ne es
yra dnuob
del u
tceleS no
etac ifit
em usnoc
evom hcuot
ek aF
W OHS
Ġp ord
euq inU
3 82
Ġeno n
{ [=
AA BA
Ġ' -
Fm Y
tcejb uS
tnuom nU
CA E
ÑĮ Ð»
de tcejer
WZ u
egasseM tsop
5 06
era pmoC
6 08
tu odts
Ġnruter t
Ġe nimreted
s ne
,] ++
vM XZ
dna b
9 66
Ġ oc
;)( ]
sb mu
EL C
Ġy nam
ga l
_ "+
elba liavA
HSU P
TM G
\\ :
dior dnA
Q F
ĠT RO
nI esae
Ġ' /'
Ð°Ð »
NOIT PO
Ġ5 6
lx Wdk
61 0
Ġel ib
s Z
lami ceD
nwon knU
å ¥
re hctapsiD
sj v
elgna tcer
,' ;
t noc
è® ¾
nu t
aid ep
noitca retni
Ġh ab
weiV tluafed
81 4
Ø± Ø¨
ri b
71 0
z ab
re it
5 85
gni r
/ ":"
ĠĠĠĠĠĠ ĉĊ
pu teS
f u
sre g
Ġ Ð¹
53 4
dezi laitinI
èİ ·
Ġn itaL
st sil
xob b
1 62
à ±
sserp yek
nI edaf
6 77
ð Ŀ
Ġt rahc
mi nim
;)) )(
sMUQBNEL JFUQJ
IR P
yeK atem
83 4
r Y
\ ;'
s lru
ta n
ro ba
Ġdnu ob
Ġs troppus
tno rF
Ġema ne
/<> /
ne vig
emaN war
gACIgACIgACIgACI gACIg
é¡ µ
eci ohc
c dm
Ġev oM
lau siV
ĉ ĠĠĠĠ
i X
gnL taL
A W
æľ Ł
ytiv itcA
C US
id ua
Ġ Ð¸
rorr im
Ġ" ?
elytS teg
ä½ ¿
s nrettaP
åĪ Ĺ
8 85
I H
reli pmoC
Ġelac S
s noisnetxE
fub otorp
Ġs metI
tra ms
se xednI
,}" ":
åĲ ¦
ti awa
de kcilc
daol erp
=] )
} >
ra f
g eled
u K
Ġecaps etihw
r H
ne hW
7 6666
te L
thgiR nigram
w KA
s ecnatsnI
c er
3 93
Ġat led
s tcudorp
p J
Ġeu euQ
äº º
deno lc
_ '=
Ġht ped
EH W
esaba taD
OT ORP
na lP
Ġx tc
det tamrof
del ipmoc
( *)
[ /
m n
8 66
É Ļ
Y etalsnart
n noc
egnahC eldnah
rev loser
ii ii
V GI
NOITI SOP
sesa ila
dne csed
lq hparg
âķ Ĳ
s lexip
rorrE ecnerefeR
qer ed
ÑĮ ÑĤ
Ã ¥
m O
Ġs emarf
noita roced
ta hw
yti C
o e
dnu oR
Ġ, .
S TSIL
43 4
noinreta uQ
ecnatsnI tnenopmoc
sp it
ĠĠĠĠĠĠĠĠĠĠĠĠĠĠĠĠĠĠĠĠĠĠĠĠĠĠĠĠ Ġ
gnis siM
M ROF
der ev
y ub
ç ¨
X U
æİ ¥
æ³ ķ
enil rednu
00 21
Ġtni h
ch x
lN mc
* .(
dniheb kool
ihp ylg
s kciT
tekc ub
nar B
Ġdaol yap
LA I
Ġ locotorp
> ]
po n
ena lP
slitU xm
nit noC
à® ¾
cs A
[ /(
æ ĥ
la nidrO
sreyaL nepO
nw ohS
ssi M
Å Ł
* )]
Ġe fas
Ġtropxe er
{$ "
Ġyram irp
d j
---- -
s ecaf
Ġt fi
da uq
=== )(
v itca
sre llort
re hp
s raV
Ġe z
za ma
sre kram
Y C
w K
åĴ Į
esrev art
; >'
Q R
ç ©
Ġyra nib
edir revO
hcraes er
tca fit
Y RA
TNE MU
Ġ} ][
I V
5 78
dne kcab
yram irP
gnita r
ĠĠĠĠĠĠĠĠĠĠĠĠĠĠĠĠĠĠĠĠĠĠĠĠĠĠĠĠĠĠĠĠ ĠĠĠĠĠĠĠĠĠĠ
lp t
Ġenil ni
ti G
ä¼ ļ
Ġ 97
ecaps etihw
lati pac
/ "+
81 473701
_. )
"|| )"
z P
ro ivaheB
Ġruo Y
/ ))
! ==!
lb d
Ġgnidda p
ecneref fid
SE PYT
dna r
6 76
va S
orc am
88 7
ra et
Ġnak h
ses ac
dri ht
Ġh ibel
ecna laB
Ġ3 5
ycner ruC
xiff uS
hc eT
Ġd elbanE
b M
Ġs rtta
av od
è ī
================================ ================================
Ġa d
pi kS
ca lp
ffff ff
01 4
daol nu
skooH ssc
Ġd etadpu
na hT
Ġnaid um
sed ir
Q M
d etavitca
c D
set on
Ġetac iderp
< "=
ruc eR
ti art
73 5
m ep
( !!
7 75
? '
s tegraT
Ã ¸
Z Z
Ġdir G
tek ram
Ġrega naM
Ġpa dah
tes nu
j j
/< )
Ġdewol la
rotpec retni
lusa R
ro htuA
cr A
z s
gra l
c k
84 02
gni da
llorcS teg
li pmoc
xel F
reg ga
M RO
Ġtuo yaL
Ðµ ÑĤ
[ ě
5 99
Ġedis tuo
U T
daol yaP
>=)( :
yram muS
Ġ8 42
Ġam ehcs
daer hT
ci rtem
re tuO
3 05
6 99
X F
d elytS
Ġdeh si
htdiW ekorts
|? .\
Ġtne ilC
l Ic
u H
roF tiaw
Z ul
ĠgnirtS ot
G Y
NOITI SNART
lu j
h ek
Ġ] )
W I
dI teg
Ġgni dnep
è °
96 7
ãģ «
,)" ",
not elek
eulaV tnerruc
== ]
Ġts e
| ?)
56 56
sel ac
Ġ2 0
Ġera pmoc
o RH
Ġ tcer
d egrem
=! )
we ks
{$ "=
Ġeciv ed
Ġ vne
re oc
( '
ľ ì
Ġd eldnah
ä¿ ¡
d J
× Ķ
é ķ
ä½ ľ
,)}} "
p v
o q
ts oc
SS EM
tcart xE
nu m
de wollA
TI NI
, __
DI V
," ":"
Ġts niaga
ĉĉĉĊ ĉ
mia lc
ĠĠĠĠĠĠĠĠĠĠĠĠĠĠĠĠĠĠĠĠĠĠĠĠĠĠĠĠĠĠĠĠ ĠĠĠ
tel laW
tu obA
5 95
\*! ****************************************************************
xi Ic
w Q
Ġx aM
O BF
SU TATS
LC NI
GI S
å± ±
er ahS
ĠĠĠĠĠĠĠĠĠĠĠĠĠĠĠĠĠĠĠĠ ĉ
ren nab
emaN eliF
Ġetubirt tA
y E
Ġre hta
;} {:
Ġgni dnopserroc
naiset rac
des sap
Ġst revnoC
Bic hZ
birt tA
ytili bis
tratS tes
[ )}
1 83
de ec
63 4
Ġgub ed
W W
Ġ Q
ren nuR
) ;)
ra lced
lesuo raC
;)" "
eruta ngiS
pircs bus
Ġdel iaf
Ð¾ ÑĢ
/ `
etaD trats
sc is
stnem moC
tne txe
GET NI
yt itnedI
Ġ ":"
ne ewteb
gni llorcs
pu kooL
s bus
la nigirO
5 66
yna M
Ġ) ]'
72 4
ĠNOIT CE
yL u
Ġni giro
ta epeR
set uoR
åĨ ħ
Äł n
Ġer if
_ ,"
il ed
55 4
TU B
ylsuo regnad
K S
ffffffff ffffffff
UQ BF
/../.. "(
;)' !
sel dnah
gni daeH
ãĤ ĭ
Ġhc tef
Ġe mor
mi S
RO C
evis sap
Ġs egassem
gna t
6 74
rots ecna
D P
elgna irt
parts tooB
vs c
Ġta ub
O O
Ġgni dulcni
W EIV
ev loseR
r fi
çĶ Ł
emaN noci
_ !(
etu m
m is
fer H
ezilaires ed
noita lsnart
p k
{ >"
< ]
yL ux
Î º
ep or
76 94
( }})
Ġev itcA
revoc er
éĹ ´
Gd c
% /(
D H
/< }}
åŃ ĺ
w b
u P
ol oc
DI W
rN WY
Ġs ed
$ {
stes atad
Ġ 90
à® °
ppa inu
Ã «
relu dehcS
SS ER
Ġ wodniW
L q
k rap
Ġs eludom
elz ziS
ðŁ ĳ
nu J
tna iraV
41 0
ENO N
zF Gb
Î ·
ec iton
hcta P
Ġngi s
ec non
ĠĠĠĠĠĠĠĠĠĠĠĠĠĠĠĠĠĠĠĠĠĠĠĠĠĠĠĠĠĠĠĠ ĠĠĠĠĠĠĠĠĠĠĠĠĠĠĠĠĠĠĠĠĠĠĠĠ
des palloC
.)][ ||
63 556
lu B
rif ak
Ġd amma
dm C
dra zi
gni liart
de ngis
ena lp
- [,
o X
Wa yR
B R
Ġxir taM
lla f
laru lp
B k
æ ¶
TA OLF
norhc nys
evit ce
ĠI P
" }
tca pmoc
no lisp
g F
AA Q
Ġdamma huM
2 99
s etad
w M
delbanE si
9 88
de xedni
" '(
tuo gol
JH dz
s ksaT
r L
Ġs liated
çł ģ
etu pmoC
Ġ nommoc
NO N
6 95
eru tseg
ht ob
Ġred rO
M YS
U d
tnenopmoCIRU edoced
Y AD
ob moC
Ġgni ssiM
c V
eman gat
52 5
ro jam
Ġeman resu
21 4
t pur
li ar
edis tuO
Ġs gat
retfA tresni
mc vZ
elbisiV si
de kcol
BIRT TA
ycil op
z g
Ġs ehc
we f
Ġetu lo
sgni lbis
s oduesp
ez itinas
dep ma
sa er
Ġt revnoC
many d
snoita ler
Ġ: )(
Ġt no
31 4
FUQ C
8 96
ren nur
evita geN
ega revoc
ci w
,)' _'(
edoc eD
ed u
F Gb
" ,}}"
X etalsnart
( |
54 54
- \
Ġwol eb
Ġ ;)]
Ġra hc
A HS
sporP gnidnep
Ġrev en
d oog
el et
à¸ µ
C a
/../.. "
epacse nu
å½ ĵ
Ġ golaid
y Q
{ %
serp er
sa ilA
sporP citats
cs E
dnu oS
0 75
ir csed
v m
Ġlav retni
æ º
dna m
iti m
noitaziro htuA
i ba
lla b
st sixE
* "+
ĠP ITLOOT
rota lumucca
53 8
bm oC
... [
z n
ek ovnI
noitcej orP
å° ı
Ðµ Ñĩ
lx mY
Ġuti ay
9 77
W P
u T
nu mmoc
de tseuqeR
ci reneg
ebu c
.] ]
. ":
el s
Ġ" .
SSEC CUS
lau nam
eroc S
11 4
91 4
0 99
ulc xe
1 99
uneM txetnoC
| '
áĥ Ķ
v k
Ġre s
I RT
Ã ª
Ġma rg
$ __
uM XaoRHI
FF x
sporP otorp
ĠL LA
Ġst rap
ci lati
elpma S
Ga j
bp RH
Ġaggni hes
ga M
s wen
à® ª
tni rP
GU BED
mottoB nigram
Ġre yalp
Ġo Ã£
2 43
er ongI
j c
du ts
ca er
Ġ ytiliba
noi nu
z L
Ġ lenap
li d
Ġnoisi cerp
WZ s
Ġ noitc
Ġd eg
Ġret nE
pma S
noitces retni
M V
Ġs gnirts
A U
eiv om
\ `
Ġ hsup
z Q
BIRT NOC
Â Ħ
TNE MMOC
rt l
Ġ á»
5 76
ded dA
va h
52 6
tuo y
/ )(
elba retI
era uqS
d emaN
.] [=
ma c
Ġf ub
ma d
cp R
ro M
Ġ rrA
",} ]
rekc arT
TS EUQ
redoc ed
ts eb
snoiti nifed
Ġ' #'=
yca gel
semaN ytreporPnwOteg
v o
d us
eni msa
S G
pmet tA
Ġgni daoL
redne g
ĠĠĠĠĠĠĠĠĠĠĠĠĊ ĠĠĠĠĠĠĠĠĠĠĠĠ
Ġi h
kcab deef
GX c
yra rbiL
/\/\ :
M L
," ?
tnevE erif
Ġ yalpsiD
HI gACIgACIg
Ġse ic
art xE
gna s
Ġesi w
eni bmoc
,] )}
yfi l
inu d
âĢ Ķ
esi ar
sc its
ä»¶ æĸĩ
V H
2 04
W J
yarrA morf
Ġla ci
nomek op
s etaD
po o
â Ī
ka w
d FL
Ġla dom
ytiruc eS
F T
2 63
k w
,' }
Ġdnuorg kcab
Ġsa ta
pma xE
re pmem
kra D
Â ĥ
61 5
ts ew
Ġrellort noC
( !&&
I XZ
c noc
tnem ngila
B T
,] )(
Ġu m
se xa
äº Ĩ
Ġ3 6
Ġra B
à¸ ¥
EGA SSEM
Ġre kcip
lp s
s rahC
Ġs thgiR
erc nI
7 76
<> "\
)' '
reniatnoC trats
deta erC
xS U
:) })
g eb
Ġel os
dedne txe
3 63
FF F
dnE tes
wor g
BSZ oRHI
Ġecne uqes
Ġdir g
Ġpit loot
gACIgACIgACIgACI gACIux
F N
stolS depocs
" ;)
Ġ tceffe
Ġnia hc
1 43
2 76
reti l
Ġ van
Q C
j orp
KC EHC
aidep ikiw
Ġ3 0
tcejbO ot
WZ sV
Ð¸Ð ²
c P
Ġ; (
gi F
à¸ Ĺ
EUQ BF
noitu loser
tuc trohs
sa g
b R
Ġec iton
_ ":"
ni ps
4 74
t ta
88 01
s le
U O
eer F
311 8
åľ °
ä¸ª ä¸Ģ
1 93
htaP elif
æ ´
U Y
hpar go
Ġp xE
Wd x
detu m
b B
Ġgnit ac
xednI morf
HT NOM
78 7
æģ ¯
Ġs reldnah
ni htiw
3 90
s nigram
do g
Ġla ic
pm uj
rots ecnA
daoL no
ru P
rotca f
Ġ gnol
Ã ¨
FL iw
5 77
c C
el ffu
ci ficeps
Ġ, "(
suidaR redrob
na id
fi L
[: )
ĠE PYT
nimret eD
H f
lrU etalpmet
çĶ¨ ä½¿
na rg
eziS egap
5 86
+ .
3333 33
lle hs
m N
W e
Ã ¢
ne lla
gni ssecorp
ticil pmi
Ñĭ Ð½
ni rt
Ġ lennahc
v v
tnem etats
=+ ]
hcta C
tc urtS
6 44
k h
l X
ĠĠĠĠĠĠĠĠĠĠĠĠ ĠĊ
ãģ Ł
c O
Ġec ils
na l
dered ro
\ ^/
---- --
/ ********************************
Ġret siger
rif noC
Ġni gra
tsoh g
NE PO
it si
UQ J
rd yH
tra C
3 53
Ġpadah ret
!: )
;++ ]'
Ġs dnoces
;) })(
ni ard
OR TNOC
ter ceS
Ġs kcabllac
iv erb
erut xif
r cS
DF u
eri pxe
b Q
s ts
p r
fi res
"[ ]"
* !*/
ç ¡
tnevE dda
Ġ llorcS
Ġt ol
{$ '
{) )]
edoN mod
etaD nim
eziS tnoF
bmu rc
C u
s kram
- "=
Ġ= %
eru ces
hc neb
ĠS SE
s ru
elb buB
roloC tnerruc
z I
XX XX
htiW sdne
de erg
es ruoc
eru liaF
pa T
n red
ti gid
w sna
es ne
tnenopmoC teg
reti awa
Ġgnita erc
Ġnoit pecxe
c B
RE Z
ataD mrof
sro tu
Ġu t
b vJ
tseg id
rotcurtsnoC elbissop
lli ks
æł ¼
à¸ Ķ
é «
red nU
Ġ Â
Ġ8 8
Ġre ifitnedi
elacoL ot
\ ;)'
tc iD
_ :"
T J
neercS lluF
gni ziS
{$ }
tsi sreP
oA iZp
te y
{ $.
( ;)
WY j
NOT TUB
ma l
eru p
epyT tneve
lmth x
11 5
era lced
2 440
;) _
rotide kc
12 02
Q sM
) `}
s D
. /)
h n
sporP txen
nael C
Q gA
ru T
la r
L zV
XZ yB
thgieH renni
Ġeva S
:)) "
ded nepsu
:?( ^/=
noitces retnI
j O
C OL
à® ©
d B
NA R
h K
eg rahc
ti F
yeK tla
;} ;
Ġrep parW
Ġeg de
,)( }}
è¿ Ļ
Ġ ward
Ġgnit i
ĉ ĠĠ
Ġd ehcac
eta dilaV
ret em
B teg
noita tnemucod
tnem niatnoc
Ġde es
( {
4 85
Ġmrof snarT
loc otorP
ĠÙ Į
Ð¸ ÑĢ
roti nom
Ġa lup
Ġdeil ppus
Bib yVHdlJ
,' %
htdiW renni
slobmyStamroF rebmuN
b J
Ġala ges
ga id
*** \
é ĸ
dra h
Ġ4 5
Ġnata ubrep
*** !*/
det elpmoC
> -
de xim
Ð¸Ð º
X V
Ġe j
od nU
M ETI
1 44
Ġy ficeps
Ġde silaitini
Ġtnem norivne
is yw
enimsa j
htaP nigeb
EG ER
n ro
M ORF
Ġ riD
05 7
tuO edaf
elpu T
+" "=
sci hparG
à¸ ¢
Ġs elbaTataD
esa hP
draw kcab
noitagaporP etaidemmI
h I
Ġs nekot
é ļ
ra pmoC
X elacs
7 002
Ġgni nraw
51 4
åı Ĥ
Ġna ra
C Y
åĮ ĸ
des serp
Ġtnem garf
Ġe pacse
.)" ]
åıĸ èİ·
aka hs
te kcap
egnaR etaerc
)][ +][
Ġdne ppa
y hcrare
Ġ] }
QBN EL
tes dleif
55 5
re ssA
** \
sre ffub
p erg
knir hs
Ġsti b
g J
Ġot orp
yh P
noitca retnI
s worht
/../.. /..'
áĥĶ áĥ
I RAV
pil lE
è ¥
ega sU
|| )]
regetnI ot
Ø ¶
æĹ ı
. *
F SO
7694 924
s nf
Ġyorts ed
T ER
Ġ Å
** !*/
BCI gACIgACIgACIgACIgACIgACIgACIgACI
Ġd etaler
2 74
Ġ tcejbus
Ġ pmet
Ġ maertS
emaN ytreporp
Ġnak ra
le ehW
Ġes olC
Ġmod nar
st el
s nocI
bpR XY
s etanidrooC
s nruteR
ytili bitapmoc
so pmoc
F M
u rb
elos noC
yB teg
s ecivreS
Ð° Ñģ
nI sI
VQBN FL
c ni
g oj
ĉĉĉĉĉĉĉĉ ĉĉĉĉ
eu h
ikim ed
na gna
mi leD
c erP
yrella g
ç Ł
Ġ bew
s maerts
erofeB no
56 5
04 40
da uQ
tnemucoD erapmoc
cnySeliF daer
na d
unem txetnoc
á Ħ
reti rc
33 5
q E
---------------- --------
sixa x
F Wb
Ġd esrap
K DS
æ »
Ġe ud
ĠemaN gat
Ġ noisses
ic sa
a irA
rep orp
sporP oT
u org
Ġgni redner
Ġd etacerped
su nim
Ġm ooz
tnem ecalper
rb ba
{,} })(
y D
nruteR rotcurtsnoCelbissop
k B
åº ¦
TRO P
na S
g R
noitamrof nI
sk nuhc
Ø ¦
s nrettap
T n
è ¨
Ġd evloser
Ġ galF
: (
elba tatad
etis opmoC
x dm
YX F
ci h
tnem hcatta
Ġema rfi
Ġ ODOT
p E
ss orC
Ġyro mem
BA eA
Ġgnit rats
0 76
Ġeraw tfos
xa J
enil tuO
Ġ! //
ledoM teg
Ġ2 6
m M
egaP tnerruc
sci rtem
ya s
Ġret teg
Ġ," )
4 06
ãĥ Ī
ssen kci
,})) )
á ħ
{ ":
D V
s emeht
Ġ' :
yc nedneped
b G
TAM ROF
2 83
Ġa era
ecif fO
Ġ tceted
EV ITCA
Ġel ur
W N
Ġh gih
æĪ ·
sa l
Ġevita gen
la trop
NE D
se ziS
A G
b F
Ġama ga
j P
Ġ ÑĤ
1 08
ad bma
+ ":"
el am
da erb
sucoF no
Ġrep pu
Ġre nwo
LI AF
;} {)(
Ġmrof talp
+][ +!
x I
Ġy rev
yB tros
yr C
Ġded ulcni
no zama
devi reD
N RET
tnetnoC teg
,' /
Ġ noisnetxe
Ġs htap
} ++
u deR
Ùħ Ø§
[ [(
y gol
AM I
Ġl ecnac
teehS elytS
q YXF
Ġ rtta
+' >
Ġs oi
Ġs tsixe
33 4
pm atS
ll es
gifnoC teg
l w
Ġra dne
la gel
= ?(
- ,"
Ġi la
seru t
ro pmet
\\ [
72 6
åĲ¦ æĺ¯
ĠĠĠĠĠĠĠĠĠĠĠĠĠĠĠĠ ĠĠĠĠĠĠĊ
Ġsa f
)] )]
Ġnoita nitsed
OB V
Ġmets ys
} /*
or B
hR XY
delbasiD si
it reV
Ġd niF
la ev
e ba
== ===
{ ,'
,} {,
ni sa
DE M
tsa oT
sruoH teg
ir b
er ts
u z
gnit roS
Ġ tcirts
^ "
Ġtne di
il oP
etouq kcolb
K J
eulaV dlo
. ","
Ġipa tet
bu h
TI F
epyT fOeno
sed ilS
Ġre tuor
p Q
Ġeti hw
K V
¨ ×
sna s
Ġs tnetnoc
dets eN
ç ķ
8 002
Ġev itim
N RA
Ġtu O
y lev
] \[
deta mina
":" ;
mot A
na mo
sgni ppa
NOITC NUF
C AAC
01 6
Ġ,] }
WZ y
noita tneserp
Ġese hT
\\ :?(
\ >/
s noitacifiton
02 5
;)] ]
y ev
1 53
v noc
ĠfO epytotorP
Ġema g
[ ]"
Ġ nup
(= +
yaD teg
OB MYS
b W
LMTH rennI
GNI SSIM
P X
ãģ ¾
ya r
etaD dne
RT TA
h E
m x
wKA sCA
å® ī
terp retni
ir c
83 40
84 5
gi rO
Ġm v
4 54
TN ET
l j
= $
m k
Ġ ERAWTFOS
poT redrob
Ġ RA
ytiliba tuM
tceffE txen
evitis op
9 78
N WY
ilfnoC on
yt isne
um es
goT Z
LI F
Ġdel ipmoc
l war
tnem hcattA
HI gACIgAibc
tuO esae
[:" \
evitca ni
EL TIT
el g
åħ ³
Ġnwo D
[: ]
N F
t Fm
B u
.)" ",
ef u
etaD xam
atni rep
ĠĠĠĠĠĠĠĠĠĠĠĠĠĠĠĠĠĠĠĠĠĠĠĠĠĠĠĠĠĠĠĠ ĠĠĠĠĠĠĠĠĠĠĠĠĠĠ
od er
/ +]
det ratS
nI c
C G
b V
htiW ecalper
txeT tes
Ġu ka
01010101 01010101
% "(
y deerg
re C
Ġre gnol
h M
t pO
Ñĥ Ðº
pi R
re eP
s DI
der ahS
Ġ OT
ot ni
la nimret
olc d
Ġgniht on
eta minA
ê ¸
D T
Ġ om
56 4
etatS elbadaer
tnI daer
ECA PS
oidu olcd
tsac daorb
neref eR
sa tad
TI B
Ġ1 6
0 77
sdro W
08 08
Ġ htnoM
,)] )])"
g L
d epyt
kal em
Ġ= |
paM ecruos
- &&
enoz emit
,} ;
ĉĉĉĉĉĊ Ċ
Ġde xif
{:" \
+" ."(
71 4
Ġ ko
Ġetu cexe
5 96
srid V
Ġ> /
Ġde n
oT sedils
2 05
è® ¤
ĠÃ ł
p B
PM A
E MA
Ġtes eR
eltit bus
rulB no
Ġret nuoc
>>> )
Ġse ipoc
RE HTO
Ġro tC
xS Z
seira dnuob
ro tcepsnI
b I
ami nA
éĢ ļ
lo R
Ġet yb
Ġla doM
Ġ," +
3 54
å¹ ´
G ER
H Q
seg guS
ret teS
nor tcele
7 98
eta nimreted
Ġhc uot
æı Ĳ
Ġ" -
o ne
Ġdior dnA
Ġs edoN
ytilibatuM etats
,)" "(
is ed
Ġner dlihC
ne ppah
tnemucoD teg
Ġgni dael
gni saE
Ġd m
P V
' ==
sti gid
LMX si
Ġyllau tca
wodniW si
Ġt pmetta
Ġ ÛĮ
æĢ §
ĠÙİ Ùĳ
Ð¸Ð ´
8 98
v w
Y elacs
4 95
b S
gnidaoL si
Ġna C
gu B
y G
d erutpac
lia T
ï¼ ī
ecnav eler
bm ek
nem moc
Ġseitrep orP
847 412
x epa
s noitacol
xel pmoC
Ġti cil
C T
d CI
laic os
ï¼ Ī
= ^
dnu ora
4 57
et il
Ġgni liart
D Q
D K
Q FFUQ
Ġ Åį
;] )(
Ġgnit ne
eulaV crs
la troP
/.. ",
Ġ ETA
se xA
DIV ORP
hc terts
,)])" --"(
(( =
\ ,)
s lav
sridV sridV
nia g
U a
t le
nu S
Ġgni nruter
c en
46 6
nois su
eer tsj
Ġe nimreteD
YAL P
FUQ X
epor uE
Ġes raP
dne kcaB
Ġ,` }
/ ;
/\ <
vlGd w
Ġgni dne
hc narB
de kcats
ws nA
thgir b
E AA
"\ "
ediv id
l lop
ylla u
1 95
v p
l y
noitcej ni
tooR teg
gnis raP
v U
Ġ J
à¸ Ħ
S WA
åı ·
esil liM
73 6
b K
ĠE MAN
Ġla nif
sporP mod
Ġha llu
^^^^ ^^^^
Ġs rebmun
V RES
i hc
N V
sI esab
b E
.)' '
nI s
Ġngi lA
cit sa
N S
am moc
sJ WY
SL t
no s
d orp
noita tneirO
Ġ' +
X ak
+" >
etav itcA
s redro
elba tirW
85 091
s liaf
Ġa guj
1 63
Ġdel laC
Ġayna h
z pm
98 76543
draob hsaD
tce v
naps loc
t ya
Ġi mak
tnem oM
epyT esnopser
Ġeu V
D n
Ġam ehcS
noitceleS tes
gACIgACIgACIgACI gAibc
etaD si
b P
da m
ralu gnA
ret tam
w n
Ġ6 7
Ġrot pircsed
yroti soper
Ġh saH
sba l
H J
ra en
åį Ĺ
lo ohc
4 94
DL OH
Ġdra dnats
sre yalp
X tesffo
Ġs ddA
tekc uB
à¸ §
Z yF
;)] [(
WY vx
b iu
Ġnoitca snart
yarrAd epyt
reldnaH tnevE
Ġksa t
u Z
se simorp
yL vA
s noissimrep
no loc
ir id
è¿ ĩ
V xu
6 98
yt terp
C c
Ġesa ba
éħ į
ul GI
V BF
," "||
DF UU
l z
x n
& ]
Ġs grA
Ġro ivaheb
äº İ
* )(
Ġs resworb
ĠeulaV wen
1 05
Û ¤
nim reT
Ġezi laitini
noitcirts er
suomyno na
Ġreta erg
^/ ,
Ġel gnA
ecna raeppa
s pac
rebmuN ot
scit ylana
l T
i sa
x U
regetnI si
Ġ lacitrev
kla hc
[ |]
A Q
d V
etadpU no
c ot
w U
éĩ ı
é Ĥ
.) ))
tcirt siD
ydaer la
Ġw as
s tceffE
'[ ]'
timil ed
Ġredne R
Ġs nottub
tceff a
esuoM eldnah
eulaV laitini
{ "(
redi vid
eca rb
det nu
teS ylsuoregnad
OF NI
gni moc
pa G
eulaV nruter
ï¸ı â
P G
Y RO
TSEUQ ER
kcilC eldnah
ãĤ ¹
gA AI
bb ep
sop eR
feR esu
htnoM fOyad
tnIU daer
53 5
Ġ liaf
gap orp
etelpmoC no
3 74
thgiR gniddap
Vxu K
Ġts op
gs HI
tel lub
y U
dewolla sid
d no
tov ip
F si
gQ WZ
ezi nekot
J V
Ġ) _
ec my
tupnI teg
;) ++
noitac ovni
BFU W
ll eps
d eueuq
sgni dniB
äº ĭ
Y tesffo
;)} ]
Ġx d
depma lC
drac dli
Ġy poC
na grO
lanoita nretni
s gol
y bab
ev iL
51 5
erutc ip
,)" \
Ġt ressa
m htirogla
om E
timbuS no
gnis olc
ed ac
":" â
emaN dleif
tna rg
ÍıÍı ÍıÍı
_ ,})(
ol pxe
Ġeno z
tna pic
eta didnac
Gd u
62 00
ee yol
Ġyt iv
irt eR
ira faS
des serpmoc
etis bew
pord kcaB
hc e
Ġs elbairav
,)} })(
Ġ*/ (
yna b
Ġse it
Ġeva el
1 74
sse L
06 5
si b
|| __
Ġ tnemucoD
kcol nu
Ġ NO
ï¿½ï¿½ï¿½ï¿½ï¿½ï¿½ï¿½ï¿½ï¿½ï¿½ï¿½ï¿½ï¿½ï¿½ï¿½ï¿½ ï¿½ï¿½ï¿½ï¿½ï¿½ï¿½ï¿½ï¿½ï¿½ï¿½ï¿½ï¿½ï¿½ï¿½ï¿½ï¿½
sp il
Ġmot toB
Ġ5 0
Ġ8 6
eulaV jbo
r pa
y nam
if itnedI
Ġb d
nu j
rer refer
ella rap
sei kooc
p M
ðŁ ĩ
4 08
etalu pop
es ret
ĉĊ ĉĊĉ
? *]
Ġeta dilav
edoc inU
E a
Ġrota rapmoc
st od
o nom
der ongi
n sa
f fi
å§ ĭ
æ ®
Ġay ni
/ ?
4 84
ses ser
Ġ worra
EV QBFFL
2 55
im es
O E
P teg
srellort noc
C ELES
DU LCNI
s ecafretni
nidro oc
Ġtne s
Ġtnih sj
Ä ĳ
# ,
Ġesa C
eraw elddim
etavitca ed
è ģ
seire uQ
eg ra
NI FED
erg ed
Ġs tset
Ġgnitac idni
ra hS
fO xednI
ä¼ ł
f us
tnuom nu
g x
Ġ3 8
tsoP elyts
h il
Ġl ed
Ġnami reb
yt itnauq
roloC llif
ãģ ¦
6 07
," \\\
88 8
B AA
Q AAE
Ġd raC
top s
2 90
seire uq
E URBF
redaoL tsoPelyts
( >
ksam tib
la itraP
el ca
des op
Î ¯
poT tesffo
xel pmoc
Ġs lobmys
remu snoC
ebu tuoy
su lP
01 5
1 84
d W
fa eL
æī Ģ
i ojI
e xe
Ġs evomeR
tseg gus
l H
de tseuqer
et iv
s elbat
_ {)
krow emarf
$ $(
noitpO tes
Ã ´
z b
é Ĵ
Ġ Ð°Ð½
tcaxE esraP
elba sucof
Ġmu N
3 08
f laH
-[, ,,,,,,,,
devi ecer
D ES
Ġgni niamer
ì Ħ
stnatsnoC xm
, _,
gnit u
weiV teg
V G
THGI L
( ==="
u v
renni pS
XY w
ku h
Ġod napxe
;)} {=
Ġo rez
Ġla er
iw iI
bu r
{,} ]"
ĠĠĠĠĠĠĠĠĠĠĠĠ ĉĊ
ecmy nit
si h
eno la
nam es
B n
slC xiferp
Ġdi laV
K n
ecna h
roti noM
,) )'
Ġ RET
Ġw oN
44 5
ÙĪ ÙĬ
âķĲ âķĲ
Ġre tuoR
ncv BH
03 5
etadilav ni
41 5
smetI ngila
l D
$ `
æŁ ¥
22 4
Ġni M
gep j
X ET
æ ĵ
eta lumis
NO L
2 08
dra oB
ETU BIRTTA
RE GETNI
è± ¡
Ġot no
åŃ Ĳ
des olC
noht yp
strahc xepa
eetaretI teg
tsu rt
li uB
etaD tes
y v
," '
Ġ, /$
4 460
+ ))
yti lauq
dd u
\*! ********************************
DE C
dep acse
Ġak it
rop orP
"\\\ ,"\\\
cp r
ddo neve
HT DIW
ĉĉĉ ĠĠ
weiV ataD
Ġtil ps
; /$
noita lsnarT
Ã ¦
egna ro
ET L
des secorp
Ġ pmatsemit
1 73
Ġsu coF
ff ats
pi nam
Ġs etaerc
Ġs ekat
parw nu
redoc eD
Ġnoitaru D
eno ts
w m
8 78
repparW yzaL
c laC
Ġre tal
Ġdna mmoC
,) ))"
6 002
"[ [,"
f uB
fo s
l Y
ĉĉĉĉĊ ĉĉĉĉ
ecruoS ataD
å· ŀ
RU P
w p
\ "+
31 5
54 7
rezi laireS
tfeL gniddap
ĠetatS ydaer
w oh
sed om
éĩ į
hsa lF
à® µ
Mz Mz
avod roc
UQB J
l tni
Ġnwod pord
th gu
2 64
å ķ
{) --
semaN yad
Ġel or
citeht nyS
83 6
o reh
j h
ais A
Q nb
X T
c M
q S
deil ppa
ralu ger
noit seuQ
sci rteM
g G
kc on
leehw esuom
d F
pa dA
[ [:"
Ġd u
>" ;
éĥ ¨
ma i
sa r
it rA
Ġ7 9
Y DO
g m
reta w
Ġ à¯į
à¤ ¬
ta taD
dedocne lru
[ "[
noitisoP tnemucoDerapmoc
ygeta rts
åĬ Ł
feR drawrof
Ġde ngis
åħ ĥ
,)}) }
reg ap
b ef
Ġ1 7
eg atS
parw on
Ġssel nu
US ER
,})} })
K RO
ser g
tnem trap
Ġ," }
gni di
ci p
f n
V ID
Ġd id
wl Hd
eulaV ytreporPteg
Ä ģ
yno k
iverb ba
s rebmuN
PU ORG
Ġetulo sba
ml GI
Ġnoita dilav
ãģ §
xx xx
q m
å» º
à¤ Ĥ
,}) })(
W V
" >
RE PO
eR si
o kc
hcnu al
>> //
__ "(
Ġa haM
f v
F ER
Ġ' .'
fles ti
el poep
k lat
Ġti k
emaN yB
Ġ8 9
kc u
Ġnwon knu
ECA LP
ecafretnI yreuQj
divid ni
93 6
lek il
42 0
ëĭ ¤
_ /."(
Ġthgi L
áŁ Ĵ
to H
stxet noc
Ġs I
g j
+" '=
mZ mZ
4 90
Ġts aL
m reT
EI F
Ġdi m
Ġlort noC
P H
2 66
ded napxE
tiK beW
ataD resu
X M
noitpO teg
evi hcra
BAeA gHA
'[ ]
//////////////////////////////// ////////////////////////////////
Ġna h
Ġna sa
× ľ
poT gniddap
Ġayn huggnu
Ġeer ht
;)} {(
wol s
Ġp leh
el di
FUQ Z
Ġro tac
e ed
à¤ µ
Ġs tluafeD
dezi laires
! ,))
de tcennoC
$"," )}
ec nis
ç½® è®¾
Ġs eni
noita s
Ġ8 0
iw FK
o il
w d
ecnatsnI teg
sret revnoc
Ġsser ddA
Ġta k
yti di
tsaL teg
F G
Ġfed fi
eh S
Ġsemarf yek
93 0
nwod kraM
Ġsserg orP
de kram
RHX ux
\ ?]
YP OC
c ek
,)] }})
1 54
Ġha lai
y lluf
4 56
Ġ ;}{
X K
egasseM rorre
epyT tnevE
epy tc
re hctaM
Ġ baT
yarrA ekam
;} }}
Ñ ī
noisrev noc
a sa
Ġ lmtH
61 6
c ep
.) }"
4 55
k um
ODFUQD xyQBF
s yarrA
94 5
UQB tjQ
Ġd egnahC
Ġro tidE
m T
nI teg
RA B
w C
enil no
esraP lanidrO
g d
ret rauq
ner ruc
pa eh
mu c
eti nifni
Ġsei res
HT EM
re ward
ci reneG
Ġ bus
f erp
erc ed
àµ į
Ġa hpla
we R
Ġyro tsih
Ġ hctapsid
red ts
ol eV
tes erp
- ::
Ġe n
Ġ;" .
ĠÙ į
el ttorht
da R
yl f
Ġ or
Ġ erp
Ġti de
ĉĉĉĉĉĉĉĉ ĉĊ
GX sICX
retsa M
ĠĠĠĠĠĠĠĠĠĠĠĠĠĠĠĠĠĠĠĠĊ Ċ
Q V
X S
Ġ00 01
rih ka
reb id
Ġ wolf
lleC teg
K P
Ġxeg eR
Ġelos noc
s nommoc
Ġder e
ĠÙ ĵ
s tupnI
Ġna ig
05 5
yhpargop yT
: &
tnem ngilA
j e
rt si
ĠedoC sutats
hcta rcS
åŀ ĭ
Ġt si
Ġeru tcurts
âĤ Ĵ
Ġ,' )(
et ic
etaidemmI tes
z al
emaN tnenopmoc
R ID
Ġat res
00 08
Ġy ca
ãĤ ¤
noisiv er
1 000
R R
Ġna laj
ralu ceps
<' :
Ġsu idaR
N L
d T
m df
Ġ" /
Ġs elur
ti jid
; >
tsi snoc
åŁ İ
rata vA
denifeD si
Ġs etadpu
å ģ
tne serP
_ ","
hctaM ot
IL C
{) }
Ġel bisiV
Ġ 0000
Ġezis er
LL UN
Ġd eviecer
v b
( {=
( "
s rebmeM
s rotpircseDytreporPnwOteg
"," }
1 06
è¿ Ķ
s dnammoC
tnec er
RH d
evre ser
w AC
srotu birtnoc
v r
mo eg
. "=
x Q
OBV UQBtz
43 5
,)( )
Ġro hcna
atak reb
w Y
Ġer oc
RET I
Ø¹ Ø§
× Ĳ
no dda
Ġ6 0
lrU esab
Ġro tcurtsnoC
Ġy fit
eru tlu
Gd jV
Ġk ooH
2 44
yc u
yad keew
X c
tnem ngissA
ru f
"\ [__
tnetnoC yfitsuj
è¾ ĵ
g garD
/.. !
etatS pam
ga d
Ġ"\ .
Ġd erots
Ġlanret xe
G E
laic epS
Ġnak ha
xS V
! !:
i ma
Ġ tcudorp
_ -
tel fael
Ġc eps
BCd y
4 96
R FUQR
6 57
g of
ÑĢÐ ±
X N
j Q
p l
1 76
Ġyra ssecen
"= "(
Ġel cric
Ġs A
Ġemo S
de xednI
Ġt idE
Ġs edulcni
AAA E
Ġgni yra
0000000000000000 0000000000000000
Y hB
Ġs rota
hcta rcs
DO HTEM
\\ ",
1 65
BA B
Ġ ĊĊ
sgni nraw
neew teB
op eR
hc s
è ĭ
0 96
c E
Ġi ru
RE DRO
s tseT
rab vaN
go CIux
PM ET
( -)
Ġ repleH
emarf I
åħ ¨
det timE
a ot
5 07
s kcarT
2 84
Ġelgg oT
L T
eve irter
ev aw
tni H
elba yap
2 06
ecaps etihW
3 86
p V
8 09
x k
mc m
esraPlanidrO htnoMfOyad
s noitces
ra lacs
i cs
è· ¯
Ġnoitat or
Ġs ecnerefer
ru of
tya cs
( (&&
ni v
JH c
gni ward
es ar
ãģ ¯
f rep
det hgilhgih
uo Y
OSI ot
ro nim
d lu
yarra bus
dne irf
":" _
so ta
itne s
(] `
Ġtna irav
REP ORP
kc ots
ä½ į
BS f
latnoziroH si
EVI TA
enob kcaB
{ ":"
h Gd
,)" %
slaitnederC htiw
noitac erp
b L
unem bus
golaiD iu
LMTHrennI teSylsuoregnad
ytic oleV
çĽ ®
{$ -
75 7
re xe
xednI atad
x Wd
\ #
[ ,)
Ġ4 0
^ |
eueuq ed
snoitis nart
(+ )"
s mrofsnart
Ġo da
Ġa liba
gnit idE
Ġt ols
Ä ĥ
82 5
ì ļ
snoiti nifeD
sre kraM
TNET NOC
j B
ec orp
Gb h
b T
sim orP
Ġ Ð½
Ġ Ð²
des U
TU BIRTNOC
_( )
htuA O
el dnuB
;)( )
ç Ĭ
elba tum
Ġralu ger
sT QDFUQ
la niF
Ġ ÙĨ
$ !(
Ġre daol
63 6
eta toR
xS f
åĲ Ī
Ġira faS
c I
S H
eg nella
rA wKAsCA
Ð¸Ð ¼
Ã ±
htla eh
hateg nem
o ta
laitne derc
fO yaD
Ġ` )(
Ġredro b
S EI
Ġgna l
Ġt nu
w D
roti siv
Ġoita R
tnem irepxe
QB VEL
ded eec
Ġ2 9
tegraT tnevE
Ġua k
Ġ pU
Ð¾Ð ´
Ġa nami
T NO
+"," +
Ġd l
\ *]
ep pA
Ġs retemaraP
" +"
Ġde tceleS
02 6
ÂłÂłÂłÂł ÂłÂłÂłÂł
% `
73 0
ro ssecorP
SE MAN
c R
V Y
lli b
kca h
TCE JBO
Ġcny s
h D
":" )
_ "{,"
ycnednepeD dda
Ġemor hC
ç ¦
~~ ~~
Ġlat oT
l GI
42 6
72 5
oT trevnoc
tcejbO ytpmEsi
Ġla itne
xednI wor
Ġse irtne
. ",
WZ yB
Ġ6 8
Ġs emoc
Ġp etS
Ò ¯
tnemelE mod
vres bo
Ġcil buP
re xel
98 7
x oferiF
4 86
p yrC
BN UQBtT
;)" )
;)" ",
75 8
x R
tratS enil
d pu
i icsa
4 46
s O
f l
skooH porp
noita ler
Ġ kcabllaf
Ġ kool
VQB VFL
E e
etac nurt
Ġlatnoziro h
di r
pi rtS
na hc
tnuomnU lliWtnenopmoc
92 5
noitcurts nI
Ùı Ùĳ
gniziS xob
81 7
ro n
h H
laci no
}}) ]
ĠS RO
st niartsnoc
evieceR lliWtnenopmoc
elba troS
em iM
de W
æŀľ å¦Ĥ
Ġev e
mrof reP
Ġ ELBA
Ġs eh
!( !
' "(
f z
Ġx oferiF
hc am
à® Ł
Ġ5 9
463 847412
puorg tpo
sipa elgoog
å¤ ļ
æŃ £
+" "(
N nbvN
mub la
ĠB D
c rep
ld WY
Ġt en
3 64
gni kcart
TCA RT
ts r
RU OS
gnit celes
B m
cit s
Ġssec cuS
Ġnoitid noc
p D
Ġa rac
Ġla bolG
sec ne
T FUQT
egnahc etatsydaerno
o lu
fO trats
semaN noitartsigeR
lla tsnI
Q sUUQBVEL
len rek
Ġdlu oC
b Z
eru giF
æĽ ´
s W
lla mS
rop eR
3 56
ti H
52 52
ht rib
noitisoP teg
Ġeru tpac
det ouq
egasseM dnes
3 85
s feD
Gb iF
d y
tsil yalp
Ġs tseuqer
rem moc
Ð ¶
le va
noita lopretni
W ah
ĠG ALF
Ġs ruoh
à¦ ¾
J K
Ġ ud
ci noi
Xd w
s kcart
teeh selyts
u y
ebu C
ta B
REV O
+" ^"(
pon ml
M D
s riaP
å½ ķ
g T
, /]
yeK no
Ġ2 8
IM IL
74 5
Ġse il
Ġ 000
Y BF
ee N
ca j
nekoT teg
DF US
et nara
Ġ ON
oT netsil
, /$)
tnuoM lliWtnenopmoc
; "(
serut xif
d ner
,)] [=
çī ĩ
set oN
æķ° åıĤ
otoh P
tnerruC tes
Ġel b
Ġreswor B
NRA W
s P
z U
NOITA RU
gni yalp
pa rt
S f
na w
7 88
Ġ4 9
rev es
Ġa rema
4 76
esu aP
at ed
ti giD
lia M
nol ybab
emaN tsrif
resU tnerruc
à¸ ´
ek irts
yrotnev ni
ep iwS
å· ²
c lR
ìĿ ´
yti la
rev art
Ġ72 6
& $
Ġyfi cepS
å ¢
hS Z
wollo F
tesffO trats
ets aP
Ġsi xA
roloC ekorts
s wodniW
2 77
Ġnet tirw
d esahp
NU R
Ġy li
\[ /(
evitis oP
pf m
es oohc
g K
e eb
Y H
5 002
23 6
ekiL tcejbOsi
re gni
s C
weiv er
Ġ tcepxe
EG AMI
DS B
"\ {:"\
ec m
AB GR
Ġemane lif
sp etS
l FL
åĬ ¡
zza lC
TRO HS
èĬ Ĥ
Ġla noitpO
ĠpxE geR
Ð Ĵ
+"- "+
Ġel buod
noitara lced
xSU BFUU
gni ssecorP
ylp eR
semaN htnom
NIF NI
Õ ¡
ç ³
Ġn rut
pot ksed
7 97
! "
DL EIF
droc ca
ĠTU O
HC T
htro n
Ġpu pop
deta minA
à¥ Ģ
yeK teg
55 0
u lavE
j R
Ġ noitacoL
Ġs wodniW
// /:
Ġs etac
oo w
WOR RA
Ġepa hs
T NUOC
Ġs redaeH
å® ¹
T Q
gno M
kram kooB
CIL C
dellif luf
s L
-- '
xi bew
sam ehcs
Ġ Ã¡
ros nes
eer g
ĀĀĀĀĀĀĀĀĀĀĀĀĀĀĀĀĀĀĀĀĀĀĀĀĀĀĀĀĀĀĀĀĀĀĀĀĀĀĀĀĀĀĀĀĀĀĀĀĀĀĀĀĀĀĀĀĀĀĀĀĀĀĀĀ ĀĀĀĀĀĀĀĀĀĀĀĀĀĀĀĀĀĀĀĀĀĀĀĀĀĀĀĀĀĀĀĀĀĀĀĀĀĀĀĀĀĀĀĀĀĀĀĀĀĀĀĀĀĀĀĀĀĀĀĀĀĀĀĀ
sixa y
ymmu d
X D
u lf
Gd z
elp piR
emaN etubirtta
gI XZ
| ))
Ġa kaM
sil bup
à¦ °
s epahs
ol pxE
eru za
ãĤ ¯
ĠĠĠĠĠĠĠĠĠĠĠĠĠĠĠĠĠĠĠĠĠĠĠĠĠĠĠĠĠĠĠĠ ĠĠĠĠĠĠĠĠĊ
htgneL teg
3 06
1 64
mottoB redrob
æ Ħ
Ġs htnom
CE PS
dirg atad
ts eG
dnep pA
è±¡ å¯¹
secaps eman
Z uV
i oJ
Ġ1 8
EF u
U L
n JXY
pu c
etatS elbatirw
Ġ nuR
éľ Ģ
m rts
Ġre srap
uqer f
Ġtxe N
ä¸ ľ
Ġ qer
a ga
62 5
nwod raet
"( "(
ĠĠĠĠĠĠĠĠĠĠĠĠĠĠĠĠĠĠĠĠĠĠĠĠĠĠĠĠĠĠĠĠ ĠĠĠĠĠĠĠĠĠĠĠĠĠĠĠĠĠĠĠĠĠĠĠĠĠĠĠĠ
Ð¾ Ñģ
li ferP
ĠĠĠĠĊ ĠĠ
Y M
)] ]
et ouQ
00 06
dev omeR
ESU OM
Øª Ø§
F J
is m
lla w
hc ac
RE N
X OB
y rT
Ġylp pA
Ġluf esu
ni rp
niarts noC
C h
uo S
Ġ, $
( })"
tnenopmoC tcaeR
Ġada P
Ġ' -'
11 6
eti rova
3 46
N R
æľ Ģ
elgna irT
Ġt pecca
s evom
de kniL
ew s
Ġtu c
,})} }
Ġ7 0
C TR
rev los
yc naf
Ġs sen
Ġba za
snoita tum
Ġdaol no
Ġezi laitinI
Ġdne S
Ġx a
Ġ retniop
i ca
Ġe nO
tlu av
reb ircsbuS
eziS teg
Ġelba tirw
Ġha dus
Ñĥ Ð½
81 5
Ġti me
lai dar
2 54
vN GI
tnIU etirw
Ġdem rof
eta G
det tamroF
/<> /"
nu ob
Ġ KCAPBEW
E O
tsefi naM
noitaziro htua
8801 76
ren roC
dlo g
71 5
re gne
erbm on
tsa rtnoc
xaJ htaM
MA D
Ġku sam
Ġkrow ten
ts era
re ka
Ġra hC
ofnI reniatnoc
knil nu
c J
Ġ tcejni
htgneL xam
: ?()
PU D
011 02
rorrE eldnah
evitcA teg
Q y
Ġgni og
Ġgna tnet
pu dih
J NI
xy UBF
denil tuo
x of
Ġt sixe
bp jI
Ġtim bus
llu P
96 5
._ ,
Ġlaire tam
tnevE etaerc
E J
E h
t reb
f ar
W M
ts ecna
íķ ĺ
no ol
Ġ8 7
Ġ4 7
åħ ¶
IX IP
rO lluNsi
ro tS
Ġ,' >
s roc
3 84
Ġtni rp
' )
yc q
gnit ros
noitu cexe
-- [
Ġ htua
Ġet on
Ġsti nu
emaN noitartsiger
s loC
/ ","
3 07
Ġa mi
tra h
d k
tluafeD rO
rezi lamroN
s emarF
zpm L
40 7
tca pmoC
ema Ssi
skooH eueuq
ir se
Ġgnitne serper
s kc
P R
âĢĭâĢĭ âĢĭâĢĭ
G RA
eru gif
noitu cexE
U UQBVEL
è Ļ
)) )"
nw aps
pa le
sel bbep
é ĵ
de kcolb
â´ °
yl kcolb
\ )}
id m
q eR
etirw revo
áŀ ¶
IL PMI
FFFF FFFF
ro tcennoc
it S
Ġega rots
æ² »
noitisoP tes
Ġdet revnoc
re kcehC
N RETNI
cev t
2 75
< ",
q inu
rotpec retnI
G F
yt rap
x D
s lexiP
lli k
gniti aw
Ġra elC
ay nu
snoitat onna
? %:
DA R
ELBA IRAV
Ġtne serp
tsa e
41 7
sena l
G bu
Ġ THGIR
\; "\
(&& "
à¤ ²
ETA ERC
Ġ hcaE
nor v
78 9
z W
Ġksa T
= &
e ff
Ġ noisserpxE
": ]
tsi xE
og oL
& )
=_ ,)
s noisserpxe
3 94
Ġ+ '
eci ov
ĠM ORF
retad pu
s S
Ġ kcatS
ataD elacol
ĠĠĠĠĠĠĠĠĠĠĠĠĠĠĠĠĠĠĠĠĠĠĠĠĠĠĠĠĠĠĠĠ ĠĠĠĠĠĠĠ
yV Gc
\\ "(
æ± Ĥ
åĽŀ è¿Ķ
srota dilav
X u
Ġ GVS
U NEM
Ġn ra
mro N
86 9
snoitpO tes
fi s
sil loC
tsi H
3 66
4 75
31 7
3 55
( ^/
Y Z
x q
Ġder eggirt
Ġs ezi
1 66
Gb lN
r pA
nb h
Â °
<> /"
Ġnael ooB
edis tuo
ki n
elpu t
UQB tD
re K
CI g
Ġo of
4 77
na v
ä» £
s redloh
Ġtnem ecalp
X teg
Ġelba nU
semaNnoitartsigeR desahp
dne txE
etadpU diDtnenopmoc
k y
:" &
BFU Y
2 85
ĉĉ ĠĠĠĠ
or ca
) "(
2 94
Ġ5 8
dm bp
noitcet eD
Ġ` }
0 97
DF kQ
× ĳ
xS K
23 5
Ġs noitidnoc
Ġts ac
å® ŀ
Ġyra rbil
Ġ Ø¯
X lR
dne noitisnart
esrev eR
OP RUP
æģ¯ ä¿¡
etnara ug
c N
gni llorcS
tceffE tsrif
lac is
elffu hs
! '
se T
åĩ ½
######## ########
Y K
Ġs dI
etacerp eD
gg ot
tesffO Yegap
gno s
y ce
ek a
,}}) }
Ñ Ĭ
hgu orhT
egnaR teg
Ð ¡
Ġa b
emo S
\ ;))
":" "?
Ġka na
SS A
Ġec niS
,] [(
f R
Ġti nI
Ġt xt
VGZ v
äº Į
ĠssalC repus
Wa zJXZ
Bi Ic
ne hp
tnevE motsuC
à¸ ª
",, [,
.)" "||
sdnoc esilliM
y nit
ed art
Ġda eR
tnemelE tnerruc
tnerruC tcaeR
3 95
è¥ ¿
69 04
1 75
re hctaw
Ġs etunim
f w
Ġi i
rehp ic
si spil
08 6
neer G
etatS repparw
ç¼ ĸ
Ġnaki rebmem
H dcRHX
f V
^ [:?(
r ss
x V
Ġs ecnatsni
z p
tuo sucof
noitac itnehtuA
vR HI
Ġs retlif
htaP teg
ed iw
OR D
yca geL
Ġ3 7
N RU
c F
46 5
$ '[
Ġ,' :
Ġ yalp
ecaf ruS
Y AA
c if
__ /*__
AAA Q
X ag
WZtV Gb
AD D
k C
not elgnis
8 97
sd oog
noc ihpylg
+" )
le w
Ġre daer
c K
ezi mitpo
21 7
P ED
msa w
Ġeta luclac
Ġel ohw
g O
Ġeu ssi
TP IRCS
=]" ]
esU nac
T NA
Ġti miL
pe eK
4 99
Ġeruta ef
Ù ¾
Ġs dnocesillim
Ġci remun
evita erc
3 002
htu os
Ġ*/ {
{ ,}}"
Ġd ec
ka dne
71 6
63 7
ĠĠĠĠĠĠĠĠĠ ĉ
Ġden revog
$ ":
à® ²
dev res
Ġm s
1 440
P J
evitcA tes
Ġ" "\
Ġre miT
la it
d ecnavda
+ )]
kram koob
! ,)"
s level
Ġradne lac
5 87
Z h
gna hc
k hc
na rT
C BA
Ġta gnas
Ġno saer
daerpS tcejbo
oc a
noitid dA
BU P
Ġ3 73
æ Ĥ
6 87
Ġha lu
BA L
Ġx at
elytS llif
ni htiW
Ġezi lamron
a ti
noitcej er
33 8
Wd yR
sgnitteS xaja
Ġd epyt
pm u
re warD
sI hto
b yJ
90 9
RE DLOH
Îµ Î
d N
kcol C
zis eR
erutc urtS
K CILC
dnuoF toN
Ġmu leb
s thgil
nret nI
Ġes rever
SA M
ib vlGdj
F u
k et
Ġti nU
c id
,))} "
DNI B
X O
sj eroc
Ġ" ;
srota c
èī ²
, _(
tw j
&&) )(
Ġ TI
Ġs n
BCIux FL
skooH lav
s noissimreP
Bi K
é ª
noit elpmoc
;' ]
æĪ· çĶ¨
FUQ B
86 5
st rahC
A H
Ġeda m
gnirtS OSIot
AS P
TNI OP
le j
Yl pm
Ġnoita tnemucod
ĠemaN yalpsid
Ġy nA
tne tni
Ġs di
om eD
Ġrered ner
6 79
roloC dnuorgkcaB
tnevE teg
Ö Ģ
SN tnemelEetaerc
V mb
Ġelba nE
- =]
r redts
a ra
Ġret fA
emaN tsal
s bil
enil ffo
sp O
Ġmumi nim
tseR esab
seg dE
morF tes
roF lmth
sel it
DE NGIS
æķ° åĩ½
bwh XZ
W F
nu hC
p pord
rt P
. [:
_ })
Ġs ekam
esnopseR teg
MRO N
Ġyro tcaF
Ġm i
Ġ' _
ecnav dA
Ġs lortnoc
22 6
63 0
ruo y
Ġ1 9
W K
elgnA trats
ek aM
;)' )
Ġra f
EVOM ER
e eF
UQBtT QBFUQ
Ġdaol pu
Ġm oc
æ± Ł
tnemgarF tnemucoD
g V
Ġec iloP
EGA MAD
P C
Ġgni sU
c du
u naJ
efas nu
4 88
Ġs etyB
lanretnI tcaer
k L
dna B
Ġtnedi cnI
52 0
Ġm orF
tnI etirw
83 5
-> )"
Ġut kaw
rorrE on
Ġgni ssecorp
U c
Ñ ĺ
å ĭ
Ġgni daeH
Q N
v j
Ġnak ata
htu rt
y el
se etareti
ataD sah
tT Z
CIT RAP
\ ^[(
tuohtiW tcejbo
s etadpu
& "(
su lcni
Ġci sab
ì ĭ
tekcoS beW
ma n
Ã ½
ç© º
tpur ba
sporP evieceRlliWtnenopmoc
1 94
Ġt nil
ru oC
s K
esnepsu s
b H
Ġt ey
tneno pxe
Ġevit isop
trev er
ytiv it
======== ====
s maet
f F
B l
",] [,
Ġot orP
ro x
åŃ ¦
J ye
slitU mod
"," ]
> ^[
p q
,} ;)
)} {
uk ek
eru P
TRO PPUS
,}{ ||]
snoit roporP
Ġs esac
Ġnu pu
icif fe
tcep sA
ĠĠĠĠĠĠĊ ĠĠĠĠĠĠ
de hcaC
Ġ TSOP
li n
TNEMU COD
z QBF
Q K
txetnoC esu
é« ĺ
at pic
dere ffub
a ht
tcafit ra
eg ua
= %
g t
eta cilpud
etalu me
Ġyx orp
thgu ac
e fil
0 462
noita erc
tegraT teg
å¤ ©
namu H
e eS
dehc atta
d q
delu dehcS
ol leH
sc u
Ġrab loot
norhc ny
trats er
TC ERID
3 76
Ġ {)(
soi xA
,)] )]
Ġyl tcerroc
Ġha k
m dl
Ġtrop puS
u i
ega tnecreP
snoit pircsbus
de tnemelpmi
Ġ,} '
X g
," !
etu cexE
VVVV VVVV
Z uF
ç ¾
ngilA lacitrev
W at
Ġ noissimrep
Ġde ngissa
è½ ½
Ġre yaL
dlihC dda
Ġla miced
Ġeti s
stnem etats
nu ru
BX bp
ca F
UQ R
ri ah
calp er
XZ y
efas nU
DLI HC
å¹ ³
s rotceleS
Ġb eW
er f
yVGZ h
rel ot
BCI gACIgACIgAibc
P N
sserP no
tes ataD
op s
:)) )
edoN MOD
a iv
V FUQV
Ġre kram
á ´
emiT etad
AA CA
Ġ( >
- ;)
_ &&
Ġ GIS
Ġeta idem
à¥ ģ
s tnemucod
Ġ,' }
62 6
,)}) ]
dnammoC cexe
TNE NO
Ġs knil
Ġta yA
W O
b Y
Q sE
ezi latipac
egarev a
é» ĺ
Ġakit ek
K RAM
æĪ ĳ
k dc
ä»¥ åı¯
ç» ĵ
ãģ Į
ereh ps
ê ³
Ġeti rW
1 96
ne P
,}] [:
ai sunam
ha j
77 761
na n
st siL
ulc nI
Ø³ ÙĦØ§
93 5
TL USER
yra dnoceS
: _
âĸ ĳ
3 97
emitnuR rotareneger
âĶĢâĶĢâĶĢâĶĢ âĶĢâĶĢâĶĢâĶĢ
g h
æ £
}}) }
é¡ ¹
Ġs nF
._ ;
mu tad
æĶ ¹
tfeL redrob
esiw rehtO
ataD oa
gACIgACIgACIgACI g
Ġs nigulp
EI si
æĿ ¥
})" .
Y RE
g Z
y O
ru a
noitcar f
ç ¥
Ġ{ {
Ã µ
;))} {
emaN eludom
smaraP yreuq
Ġdezi laitini
nwoDyeK no
× ŀ
;) /
éĹ´ æĹ¶
c si
'\ (
dleiF txeT
Ġ maraP
4 87
"( )"
y q
ä¸ ī
"," ðŁ
dep parW
p rahs
BCIgACIgACIgACIgACI gAibc
s draw
da rg
xa lla
b X
nu l
][ ?
Ġret teb
Ġder refed
Ġhallu lusaR
Ġse iro
{$ :
TCART NOC
J R
Ð ŀ
,)" >
32 01
' }
gni ga
Y hJ
77 7
de si
ruc ca
rel pmas
Ġret oof
99 5
lo f
Ġyt itne
noi silloC
ret revnoC
FGd z
gno rw
pi hc
Ġ gard
3 75
ta ya
s lamroN
de hcuot
AA O
Ġs puorg
& >"
elu dehcS
ecaf rus
w z
( ,]
it re
Ġ RAV
seiro getaC
2 462
metI tsil
ir y
ujnu tep
eso ol
ecif fo
hcti p
k Z
w H
æĮ ĩ
s ledoM
Ġ2 91
j ret
marga id
DNA H
.)' >
w P
ita r
lo oB
de yalpsid
YTILI BA
04 8
Ġ3 9
YDO B
è° ĥ
ncvBH el
kc in
( <
ãĥ «
b ba
Ġdet ros
metI evomer
Ġtekc os
Ġs eldnah
(|| )"
elc yce
so hc
dedaoL tnetnoC
Ġs lobmyS
A V
HP LA
Ġnigra m
h f
ki ab
sro tceV
I E
Ġs sa
;)' )'
NE G
2 65
Ġs roloc
kcit S
der referp
R BFUR
yB redro
rorrEon rrE
enil esab
ì Ĺ
sota rk
Ġ, /
ĠĠĠĠĠĠĠĠĠĠĠĠĠĠĠĠĠĠĠĠĠĠĠĠĠĠĠĠĠĠĠĠ ĠĠĠĠĠĠĠĠĠĠĠĠĠĠĠĠĠĠ
s noitcelloc
Ġ{ =
Ġtro S
G C
Ġs renetsiL
noinreta uq
vs h
seitreporP tuohtiWtcejbo
$ ;
Ġno n
,)) })(
snmuloC oa
odues P
Ġ tcejer
gnit amina
": )"
na ka
]] ]
Ġ' }
F b
åĪ Ļ
ele T
ac ir
ç¬ ¦
ot pyrC
/< '+
sehcuoT degnahc
åı £
diov a
tnemelE si
ap u
Ġylev is
cit si
h Q
41 6
.)} {||
ĠĠĠĠ ĉĉĉ
na u
Bi Kg
Ġa umes
Ġega kcap
3 65
ret revnoc
Ġy rT
#"," #
" ,})
å ¡
2 46
è ¢
ne no
S RE
enil wen
hp lA
sret teg
k ub
× ©
sm ret
ãģ ª
lianbmu hT
Ġnoiti nifed
toof t
D ec
)] ++
s paM
Ġ Ð¼
lc ct
Â ·
ro et
er oF
esa hc
k P
la ngiS
k is
kni p
QH X
éĻ¤ åĪ
Ġd erif
à¤ ª
emane liF
noitazi nagro
<"( $
è ª
laru tan
Ú ¯
xednI teg
Ġlav retnI
enil epip
THGI EH
Ġs noisrev
VQB dFL
evitca retni
Ġs litU
ka ew
noisi cerP
H SA
Ġts ni
m Lz
ziro h
Ġ, '(
na yc
ĠĠĠĠĠĠĠĠĠĠĠĠĠĠĠĠĠĠĠĠĠĠĠĠĠĠĠĠĠĠĠĠ Ġ
od oT
B q
[ {=
Ġ viD
{ [(
Ġni gol
\ ^/=
syad keeW
SS AP
mottoB gniddap
erots eR
"," ?
Ġrota rapes
tA detaerc
s rotarepo
gat e
htdiW teg
8 90
l mu
ê¸ °
l GZ
VZ k
K NU
Ġs woR
fO yarra
detneverP tluafed
ì Ľ
H E
oT s
hc ir
{$ /}
,]" }
ol b
51 6
egamI ward
æ¨ ¡
Ġpu tes
.) )]
de kcilC
Y f
ek ram
=< )
regetnI giB
2 86
TI NU
51 7
h X
fI gn
A yc
91 5
Ġ itah
Ġdes op
": ))
Ġd ri
Ġderet siger
Ġecna tsiD
1 55
der if
d lf
g ner
ip icer
tne duts
edonV dlo
2 56
ï ½
Ġtner ruC
Ġrellort noc
22 7
etaD tamrof
Ġecna mrofrep
v Q
(? ]
t tna
v V
ELBA SID
B o
BNUQBtT QDFUQ
ecnah ne
AAAA AA
Ġydob t
sl Hd
Ġs edivorp
Ġ yalrevo
rec uder
s epip
pm ud
à¸ ļ
c G
Ġm ih
s neewt
Ġ noitceleS
81 8
rt ib
;} ;)
tf ard
GNI S
02 7
Ġke eW
__ "=
2 96
edoN si
bmu hT
Ġei kooc
cihparg ot
s tneilc
Î ³
",} }}
nwon k
Ġerus nE
reb met
P F
yt is
FUQ h
54 5
nia rt
tratS noitceles
T OB
è®¤ é»ĺ
06 9
w elg
å¤ ±
76 7
RET LIF
Ġ= /
Ġeru tuf
Ġ84 4
E ROF
Ġ HC
stes sA
ÙĨ ÙĬ
snoit seuq
ĠsporP tluafed
licne ts
xS W
U LAV
v oN
m J
enil ylop
ê ²
ĠĠ ĉĉĉ
å± ŀ
5 460
w q
tro bA
Ġeru txet
vres bO
d erutpaC
yl tcerid
Å Ĥ
slauqE tressa
O Z
åħ¥ è¾ĵ
zi nred
3333 3333
nemmoc er
hsu lF
à¥ ĭ
re lif
Ġ' ,
lim is
ì ķ
LL OR
setuniM teg
del lebal
ses nopser
ro ssecca
Ġ" '=
1 85
K M
j g
sj xr
åº Ķ
Ġtnem ges
è ¶
oc i
pe els
ha d
evita nretla
fed cba
ssalC evitcA
Ġlle w
oil of
wodniW tnetnoc
Ġnoita tneserper
ĠRE HTO
noitcet ed
lat em
"\ \
gw SZ
tnevE evomer
è Ī
99 6
Ġs liaf
Ġd eb
wodniW teg
H CA
de f
åĲ Į
Ġ âĢĿ
nra el
tw g
c H
ro ssecorp
;}} {:
noitu loseR
Ġ"\ (
Ġer ocs
AC S
Ġmotsu C
atleD leehw
= >>>
selac ol
< ":
yrt eR
al sh
"? )"
ĠĠ ĉĊĉ
st pecca
u nitnoc
}] [:
ä¾ ĭ
Ġgni sae
GX sk
\ !?(
Z IS
zl Ga
,)] }}
Ġec udorp
hcaE retfa
Y Q
de yortseD
DI H
cit am
ci sum
ES A
æĭ ©
T BF
Ġci manyd
p F
kcab deeF
HCT EF
nekoT ssecca
}}} {:"
Ġ wodahs
ãģ ¨
by ZGI
' {=
se ht
morF etatS
ĠY TI
åĪ ¶
etanimreted ni
ra j
f m
sret tel
smaraP hcraeS
Ġ00 4
etag en
stniop kaerb
f N
c Z
Ġ wolfrevo
detceleS si
tinu q
Ġ42 01
Ġmarg orp
laitne derC
O REZ
lit nu
K T
Ġ noitceriD
;++ ]
ret roper
yfit euv
Ġna huT
oo Z
lx Wam
at eht
y kc
DI M
Ð° ÑĤÑģ
à§ į
k seD
u dek
esnepsu S
Ġfed epyt
dera uqS
yaw lA
ĠtnioP edoc
irp orppa
è¿ Ľ
Ġtfi hs
LI SPE
noitagaporP si
Ġ ÑĮÑĤ
72 7
æĢ ģ
ar G
;" )
kcabllaC esu
æĭ© éĢī
a ro
eman resU
YTI NIFNI
Ġla retil
la ed
Ġ: :
orp pA
notelek s
å ²
gn r
NAHC REM
tnemelE morF
82 02
epyT tnetnoC
.) `
TRO PMI
Ġ0 202
OBNUQBtT QFFUQ
ey nem
à¯ Ī
æ¶ Ī
.)' ]
egasseM rorrE
ngi erof
c AA
ET AL
sa d
ĠNOITCE JNI
y ks
s H
puorg loc
ux lcc
Ġtaub reb
LA IT
G AAG
å¤ Ħ
C U
Ġa suM
R EL
m F
il fnoc
Ġses salC
tfos orcim
ra lceD
noita dnuoF
rev ew
/.. "{,}
sseni sub
â Ħ
AS K
R HI
XIF ERP
S VR
kcab yalp
k CK
lx We
esu a
u ts
ib ma
"," -","
q o
hgil hgiH
;}{: ]
à¸ °
Ġdehc atta
ĠTU B
sec orP
P B
o ot
thgir ypoc
gni htemos
ĠĠ ĉĉ
3 000
cc c
#'( $(
retsiger nu
Ġy lekil
tuc trohS
s drac
Ġla h
ey e
ĠĠĠĠĠĠĠĠĠĠ ĊĊ
st p
s ecruoS
Ġega rotS
tnem eganam
483 61
w x
elR mbp
Ġniat rec
Ġna gnu
MU LOC
dracdli W
æ²» èĩª
LA NRETNI
la S
Ì ģ
23 40
BE I
swa nozama
Ġ0 9
!&& )"
erocs rednu
ci m
ni gaP
tep pins
ngi seD
CI gACIg
l ellarap
del bbub
Ġ; %
detceleS tes
lo si
st ressa
gni daer
83 9
ta f
htaP esolc
;;;; ;;;;
duV Gdu
08 5
esac rewol
arb I
Ġlla hs
C m
noit paC
à¤ ¤
W B
1 40
6 97
ngi a
Ġelba reti
jbO wen
kS K
(,) )]"
Ï Ĩ
Ġi aynu
cit rap
nO esolc
e it
(( +
Ġ xe
_ "[
Ġeta nidrooc
Ġts uM
iry sum
Ġec apS
DENGIS NU
snoitid noC
åīį å½ĵ
os la
TXET NOC
la sop
( )]
Å Ļ
h r
ĠepyT atad
Ġaer at
I N
Y j
Ġd etucexe
J F
ret teL
è £
ĉĉĉĉ ĠĠ
53 6
c T
xa h
YTILIBA IL
p X
xS QBFUQ
x st
) ;)(
g q
ãĥ¼ ãĤ
lR mb
w G
Ġra neb
Ġdnu or
cv x
u O
92 02
s yS
Ġ TNEVE
a ya
Î Ń
w Z
ĠDET IMIL
ĠxednI tsal
rev irD
Ġl ecnaC
H M
p yt
à¹ Ĵ
s mune
Ġle naP
R s
Ð¾Ð ±
lJ HI
yranoitc id
Ġ71 02
m LzlGa
pi naM
Ġyfi dom
Ġ ytilibisiv
Ġo S
nwon K
ceps rep
$ '(
T EL
Ġrehta r
ra eppA
sel pmas
de i
Ø¨ Ø§
Ġel t
Ġiaynu pmem
s gro
U D
à¸ ķ
drazi w
gACIgACIgACIgACI gACIgACIgAibc
cu M
( )'
&& ))"
tsu rT
81 0
Ġd enolc
tratS no
elba tu
ew T
laru lP
1 46
Ġemit nur
13 4
92 9
98 9
rebm ev
h i
"[ ]
edoC enilni
es ned
ojI u
A R
s ecived
," )(
x v
xtc LG
eno h
ag eV
Wds Fmd
del oo
dev loseR
81 6
Ġnakgna renem
weiV otnI
lZ Xa
* ))
Ġn raw
Ġec irp
Ġnoit ubirt
éĻ¤åĪ ł
Î ¬
Ġyl ticilpxe
xaM teg
Ġk rad
ezileuq es
tnevE esuoM
htirog lA
3 99
5 88
yl thgin
daer B
s tnemucoD
Ġe nifeD
ä»¶ äºĭ
nit seD
Ġta eper
edulc nI
po hS
)][+][ !!(
Ġ) $(
gni miT
s tcesretni
pec cA
4 89
liam g
7 09
Ġiu hategnem
Ġgna Y
} `
revresbO noitatuM
Ġ, _(
iu S
deman nU
tc ilfnoCon
Ġs etadpU
ne cS
xSV BFUV
rp S
ĠtfeL llorcs
| "
vMXZ sVHZv
[ ((
hparga raP
Ġapa is
hgi en
BAT NAHCREM
Ġeg dE
eg A
hca M
AA S
sla miced
Ġmrofinu n
L X
à »
w R
Ġi rebmem
f B
eraw elddiM
+" `
ÐµÐ ¶
å° Ĩ
de z
Ġerof eB
kcap nu
f k
ecaps kroW
Lz ojIu
Ġe necs
noitav ele
t noC
t nc
rg etnI
Ġ rulb
æĪ ĸ
eta cilpuD
Ġo idua
Ġ ytpmE
el cih
b rev
Ġnak ia
re motsuC
43 6
ãĥ ĥ
noitagaporPetaidemmI pots
83 0
LA MRON
\> '
ç¡ ®
/$ +]
DFUQ F
ci gol
h al
W QBF
rezilamroN tnenopmoc
A g
JC LzojIu
Ġnoita givan
Ġ,' ]
gACIgACIux FL
enil epiP
à¤ Ł
Q ssUQBtEL
Ġgniht yna
htgnel xam
FUQ Cd
pal revo
et lev
\ @
l tnI
q F
dev om
Ġt fos
21 6
LQ hparG
S YS
Ġmrof rep
tsa F
æ¬ ¡
Y atled
gni hctaM
sre ffuB
< /
32 6
xof erif
deret liF
Ġ,' ;
j p
z E
Ġ" "=
Ġ ÑĢ
Ġp tth
nam rif
64 5
tnemelE evitan
EC RUOS
éĺ ³
sx sj
l ss
kna lB
gi S
Ġesaba tad
Ġak ij
elba llorcs
u su
ro pmI
ter aC
tnemurts ni
Ġemu ssa
noisser pmoc
Ġ ;][
91 0
Ġ oh
hsa lS
det roS
Ġ í
L N
gni kcarT
[( )
62 8
kraM retaW
," -":
Ġs dnuob
LQ S
Ġ kni
s ofnI
ER RUC
s ot
re B
laev er
W EN
htiW evloser
ifi cepS
tniU teg
2 07
DE PYT
ya di
tniop kaerb
1 09
de tcepxE
f E
el a
," (
PM AS
Ġre divorp
lV nd
Ġtniop dne
76 5
Ġhser fer
pmatS emit
sro htua
gnl tal
QAAE AABA
s lenap
Ġ $$
TU A
ä¿ Ŀ
dios pille
42 8
no si
woR teg
dt d
Ġ tcaxe
tra eh
Y G
tu pmoc
,)) )(
ni deknil
NI W
Ġyro tcaf
Ġ21 1
rota roceD
oT og
tnevE xm
82 6
"," ,
001 02
sti giD
R IF
Ġla ti
M T
d H
Ġni oj
Ġeta mina
#"( $(
Ġ5 21
ëĭ Ī
sel bbub
Ġs kcehc
Ġnak ida
s ep
Ġd evas
FFFF FF
ic eR
KC F
wo H
h G
Ġwol lA
egnahc xe
ĠH TIW
U H
1 77
Ġa z
IT NE
Ġtnem om
va el
uneM txetnoc
Ġnak nuru
detac itnehtuA
esaB teg
ssalC ssc
82 7
ĠI RU
Ġ00 5
a repo
à® ¯
X FUQX
Ġ rifak
det ropxe
Ġ) ;
Ġ:' %
Y pR
tcel loC
ded ulcni
reb ircsbus
& ",
æ ¹
Ġedi H
Bi Zv
: }{
[ )]
tno d
( :]
Ġs ev
2 88
æ Ĵ
ĠĠĠĠĠĠĠĠĠĠĠĠĠĠĠĠĠĠĠĠĠĠĠĠĠĠĠĠĠĠĠĠĠĠĠĠĠĠĠĠĠĠĠĠĠĠĠĠĠĠĠĠĠĠĠĠĠĠĠĠĠĠĠĠĠĠĠĠĠĠĠĠĠĠĠĠĠĠĠĠĠĠĠĠĠĠĠĠĠĠĠĠĠĠĠĠĠĠĠĠĠĠĠĠĠĠĠĠĠĠĠĠĠĠĠĠĠĠĠĠĠĠĠĠĠĠĠĠ ĠĠĠĠĠĠĠĠĠĠĠĠĠĠĠĠĠĠĠĠĠĠĠĠĠĠĠĠĠĠĠĠĠĠĠĠĠĠĠĠĠĠĠĠĠĠĠĠĠĠĠĠĠĠĠĠĠĠĠĠĠĠĠĠ
egna rra
yl tcerroc
# `
Ġd erahs
eta L
Ġedon v
ta pmoc
snoita zi
Ġ: }
Ġ) _(
gACIgACIgACIgACI gACIgACIg
BSP gM
raneb ek
Ġyl bab
K AAK
Ġgni g
", ,,
=! ]
Ġevitc erid
gni hctam
' {(
"{ ,}}"
c W
ydaeR si
13 60
.*/ **/
,))) }
oitaR tcepsa
Y u
1 56
S EL
ì Ĭ
es pille
è ı
Ġd ro
snoita leR
s tamroF
duV mbv
Ġ ub
der eggirt
QH elR
Ġev ig
o gnoM
Ġdli uB
c uder
c orp
st neraP
AA AI
Ã °
Ġ noitcelloC
yrtemoeG reffuB
âĢį ðŁı
TNENO PMOC
\= ?(
u dehcs
j E
": )(
Ġelba daer
Ġnoi ger
+ ",
bpRH cv
tcejbO teg
weiv revo
ffu ts
buH tiG
6 90
gni li
& }
Ġres raP
/. ///:
Ġs lebal
r revO
f Z
B K
lebaL teg
GNI T
s ruo
Ġep ocS
Ġro tcev
EE W
32 81473701
.$ $.
t ooF
elba hcuoT
' ===
1 86
73 7
22 5
id erP
52 60
Ġg oL
J J
00 51
Ġst pircs
tpm orP
ra H
paM ecruoS
ĠRA LU
Ġ,) )(
\ ,)"\
yrev E
01 7
REV RES
yra ssecen
tnemelE txen
BC dz
nret lA
à¸ «
æ³ ¨
( ,)}
Ġa inud
sispil le
etadpU ecrof
Ġevitim irp
Ġnia ga
evil A
h m
Ġ noitaminA
ro i
du Vmc
< /(
tekc arb
er ac
Ð ĺ
sedir revo
Ġel pmaxE
vi G
)) )(
,)) }))
xob pam
dlo H
ÐµÐ ¿
syeK nwo
s tegdiW
edoN toor
Ġ' `
Ġgni yrt
ta k
no k
pyrc nE
O Y
h at
o it
/ ",
Ġs mret
ĠhtgneL etyb
Ġ xeh
[ ,}
Ġes ohw
SL ORTNOC
ra g
è¯ ķ
Ġno srep
NI AT
Ġd esolc
é¢ ĺ
j Ic
á´ ¼
devi eceR
noita rgetni
s coD
c lN
1 45
ãĥ³ ãĥ
Ġs trats
áµĴ á´¼
Ġula l
}} {)
54 0
noi su
áµĴá´¼ áµĴ
2 97
desu aP
TI SOP
ncv BXbp
tsaL dnif
eulaV tupni
o gi
s G
mit se
Ġs drow
sec itreV
xS QBF
- *
ä¹ ī
è¡¨ åĪĹ
- `
____ ____
Gdc RHX
." .
evis sim
seit ilitU
BSP g
Ġnaksa le
Ġedi ls
EFAS NU
âĢ ¦
Ġ rttA
h U
nb vlGdw
reniatnoC dne
detnu oMsi
deg gol
ol S
refsnarT atad
elba mus
W QBN
tu nim
Ġ golaiD
stna irav
gnin nuR
Ġec ner
Ġdlo h
Ð¸ Ñĩ
Ġlla tsni
f Q
htaM muiseC
Xa z
gni k
B DI
U Gb
s timil
,}} {:
|| ]"
\ +]
lu pop
lec xe
ra E
Ġna m
57 9
sre ifidoM
Ġyrt emoeg
esu oh
ê° Ģ
seman ssalc
nb lR
Ġ Ø±
ort nI
snrettaP emiTetaD
seci ohc
NOITARU D
k T
Ġrorre no
[ ^/
ES IW
Ġgnit teg
¥ ¼
Ġe gral
NWZ qJ
des rever
gnit tamrof
x Y
k t
Ġ 111
Ġgni llorcs
U Gc
ja M
é ¦
41 9
y lia
itna uQ
K F
" '+
tnevE eldnah
Õ ¥
S ETYB
Ġret sigeR
sulc xe
c U
ezi omem
Ġ' "+
kcilc lbd
cen noc
dedaoLtnetnoC MOD
yalpsiD i
denifednU rOlluNsi
Ġeer T
s kcehc
tnem tniop
Ġna ha
morFetatS devireD
ij omE
Ġna ikimed
reffuB yarra
ka y
A Z
Ġcny S
Ġyfi rev
L J
ĠSI HT
92 6
ts A
24 5
tes ni
è Ĳ
zl GI
çĤ¹ èĬĤ
m P
Ġes palloc
sid er
/../.. /..'(
^ ":"
l JH
nehp yh
te kcit
UQ ER
51 8
åĬŁ æĪĲ
CR S
rt xE
ĠRALU CITRAP
tuO nIesae
Ñı Ð½
noitcar F
noita relec
ç¨ ĭ
{ `
rehto na
_( $
Ġesiw rehtO
sU VQBVFL
Ġdeta rapes
,}}} "
g va
d X
yti dilaV
,] [,"
dl N
o di
kroW dehsinif
Ġd ah
\) +
Ġi gal
egamI teg
EL O
DNOC ES
00 63
keeW osi
Ġ' :'
d O
_ '[
ãģ ĭ
eliF teg
yb dellebal
Â Ļ
",}} {:"
B Z
æĺ İ
ca rf
lu ser
O FFUQF
xel pu
Ġ" ."
DRO W
Ġt p
aerat xeT
seit itnE
T TA
j i
Ġre ts
"{,}" )
( _=
_ +
ol oC
Ġgnippa m
C w
re kcart
L H
Ġdetcepxe nU
1 87
Â ļ
L V
tfeL tesffo
2 87
C p
ĠĠĠĠ ĉĊĉ
tni m
ros net
tsa C
Ġs tseT
Ġ tnemucoDrenwo
ES OLC
gvS etaerc
[ [=
gA DI
naelooB si
clJ HI
R M
yeK ipa
ĠSSE N
ĠD NE
Ġd elbasiD
elbatide tnetnoc
scit ylanA
su niM
yhcrare ih
didna C
jV mai
egdi rB
EM EHT
rettam tnorf
EC NAC
+)" ":"
Ġ tnecrep
cnyS stsixe
c Y
Ġ lacit
a ru
tnemtrap ed
P ORD
d eri
/) +]
Ġ7 66
Ġh i
Ġhc atta
ed aF
iw F
Ġr hx
deppotS noitagaporPsi
1 07
Ġk raM
txeT renni
li S
42 7
litU TK
76 76
se id
.)} {
Ġdet tamrof
è Ĥ
Ġro tc
edarg pu
Ġta pmet
s noitacifitoN
Ġs egami
Ġeg reM
"( _
egaP reP
$ ,)
S NOITPO
W U
teG esab
Ġ ÙĬ
emiT dne
retsulC vni
gi l
Ġrota reneg
' ?
Ð¾ ÑĢÐ¿
snoita repO
OBF UQBtTQBFUQ
gi H
12 4
se Y
pu oc
ĠeulaV tluafed
LU M
$ :"
3 60
Ġ tca
tcejbO etaerc
yranoitc iD
3 96
Ġs dne
Ġ itu
Ġ noissimreP
xif fa
Ġpa rts
>/ }
f q
(: )(
Z YX
nosa eR
Ġlanret nI
ma g
etatS wen
Ġs etanidrooc
0 90
ä¿ ®
àª ¾
B p
ë ³
'( )
ne D
f M
sb oj
Ġngi la
ni ar
ux Vf
ĠY EK
sgaT yarrAdepyt
eta lopretnI
52 8
w as
etac itnehtua
ãģ ķ
Ġrep pop
ssalC teg
nb lJ
ĠX egap
Ġelib om
v og
la M
Ġ NaN
SA LC
Ġ, ":
rO teg
t rep
91 7
å £
ezi lacol
tnem gua
() })
sel iT
æĺ ¾
{ >}
lauqE tcirtS
er T
elbis palloc
08 01
x ua
Ġezi motsuc
03 6
mI sI
x G
ssen thgirb
gg oL
f J
G do
noit ida
ed irts
Ġdel lif
elytS tnof
eg daB
de hsiniF
Ġesa eler
åĽ ½
Ġaer A
: */
1 002
a ic
Ġuak gne
Ġs eliF
Ġe h
snoitca snart
enola dnats
Ġl itu
ë °
Ġhpar g
74 9
ba c
à¸ ŀ
Ġe ts
",] }
pm ub
BC K
Ð°Ð ³
Ġhal nak
ç Ħ
Ġt rela
nO gn
puorG mroF
^ ]
Ġ"+ )"
noitcej eR
S Q
eurT si
Ġsoi xa
s etalpmeT
\ "=
q V
ĠES OPRUP
! !&&
Ġdi u
B s
c siD
RO TCELES
ralu geR
Ġd ab
Ġgni dniB
Ġa trah
55 8
st pircS
eci ohC
t pi
rorrE xatnyS
retnE no
Ġtup tuO
Ġka ynab
x es
det revni
r zinred
s metsys
Ġ} ]
ay ni
la reneG
ER TS
\\ ()
73 9
;)( _
Ġgnit teS
laitinI teg
lu F
gaT teg
ĠSSEN TIF
Ġula les
` )
z u
gni ws
82 8
dlo B
Ġgni moc
tne S
{: }
q ACI
tupnI no
\) +]
gAibc x
Ġ ov
c L
32 4
Ġna i
Ġg l
A w
ĠsnF redneRcitats
m w
rebmuN giB
sno sirapmoc
s lrU
kc atta
llorcS no
åŀĭ ç±»
krap s
3 88
Ġ ESU
rep pam
ssalC gn
nwohS si
em irp
edilS tnerruc
àª °
Ġt nI
73 8
Ġ yarrAsi
Ġnoit pircseD
Wb f
d D
nwoD esuoMno
Ġia pmas
wohS si
ç½® éħį
gnit sixE
Ï Į
seludoM dellatsni
éĩ ĳ
d L
cc n
Ġeta cilpud
3 58
By eg
Ġa p
sah p
detcennoc sid
è Ĺ
Ġde yalpsid
NI P
;))) }
dI tnerap
< ":"
Ġ ETELED
Ġhguo ne
0000 001
NO LISPE
Ġt ih
Ġdroc eR
Ġn wohs
c se
esu ffid
05 8
LL UF
T s
95 6
§ Ģ
Ġ[ (
ib vlGd
ro tcejnI
noissim bus
sihT tressa
d etacerpeD
ro tceteD
Ġgni vah
RES NI
Ġmu ne
m bc
GZ h
+" #"(
è¦ģ éľĢ
lli uq
tnes noc
ÙĦ ÙĪ
ciw iI
loohc s
pi Z
? /\
Ġs erutaef
ĠÃ Ń
Ġ ĉĉĉĊ
Ġ42 2
ÑĮ Ð½
etis opmoc
85 6
NUQ R
à¤ ľ
K E
lma y
)} }
ĠT CELES
Ð¾Ð ¼
morFetatSdevireD teg
ts eh
_ `
/$ +
NED DIH
ĠfOepytotorP tes
dedne txE
éĶ Ļ
y retta
Ð Ĳ
tcer roC
hg uo
ĠY egap
LzV Gb
d ecils
gar p
rehta ew
ro P
tnioP teg
N Xa
s worra
si c
ec in
tz O
Õ¡ Õ
. /$)
yeK cilbuP
Ġ0 61
VA N
NO D
Bi I
GA RF
gA iC
mY CI
ya W
sel gna
Ġderet lif
3 87
ira fas
redaol pu
ĠemaN ssalC
W H
Ġdeti rehni
74 7
nb lZ
Ġla gel
sel oR
Ġed uti
det resnI
$ -
0 98
e ter
f H
t liuB
del lecnac
yra nu
32 5
fr sc
Ġer oM
Xd j
kna b
Ġer A
aaaaaaaa aaaaaaaa
ri k
6 40
rorrE worht
ãĤ ĵ
Ġ' '\
+": ?(
Ġ gnorts
dra uG
eziS eloR
Ġ91 02
ra F
( }))
elc itrA
Ġr ih
dIyB teg
rem em
DNU OF
dnu S
Ġre daoL
gol B
Ġtapa dnem
Ġgno rw
re llac
egnella hc
U as
f C
Ø³ Ø§
mi xam
edoM tnemucod
epy tataD
s feR
43 8
yaw etaG
Ġni geb
xednI ecruoS
ç§ °
,)" )
S TLUAFED
snoitroporP repleh
ov er
p irt
23232323 23232323
_ ,}))
elba ggarD
x N
mil suM
pa nS
71 7
e id
ts oC
ena l
æ²»èĩª æĹı
xS Y
æ±Ĥ è¯·
yol peD
? /
esar hp
a dna
{>=)( (
ga iD
Ġhc ti
lP sj
xy VBF
Ġ ytiroirp
elba sop
eb yaM
Ġba b
71 8
f h
ih g
hc rA
5 98
ro da
gnirtS morF
dlroW xirtam
evitis nes
yaw etag
eli pmoC
Ġd evom
sdrow yeK
ro N
Ġret nuoC
c X
tcurts ed
lat I
hsil buP
ĠT ES
mc yV
yra nU
,' ]"
NW ON
dednepsu S
ec eip
Ġtub esret
nu T
rid km
T OM
Ġne ercS
43 40
/."( __
æĢ§ å±ŀ
Ġ HT
ti ko
tnemele ÉµÉµ
3 77
Ġ tceR
à¸ Ľ
Ġs riap
Ġs dda
d C
Ġet omer
Ĭ Ķ
Ġ noitceS
di M
s rev
XY t
snoita ralced
31 6
)"+ )"
ap erP
Wa k
egaP teg
)][+][!!( +]][
Ä ĵ
ag ab
de ksam
? "(
epyT ataD
ĠÐµ ÑĤ
Ġ TL
Ġreg gol
9876543 210
LLA C
NIAT NOC
t pmetta
lm L
91 6
mit pO
v S
2 57
t FI
ti sop
5 97
åı ĺ
weiv eR
Ġni w
ri A
Q Z
TS I
Ġticil pxe
tnemurts nI
Ġre da
Ġti xe
h j
D w
Ġd ni
ci poT
s krow
t revnoC
tel o
tV Gd
gniht on
dI euqinu
lo b
evit cepsrep
tnemecalp sid
no sirapmoc
revoc sid
emane sab
Ġe id
Ġxob kcehc
eruta re
Ġpu dih
s dnahtrohs
ï »
Ġs etupmoC
"," $
noita retI
84 8
snoit aminA
dek ovni
ziro htua
'[ [
ĠTHGIR YPOC
os I
1 79
V GL
ya leR
Ġsser P
teehS elyts
lapu rd
lo g
Ġgnis olc
a va
pm er
FI HS
H TIW
? +
l loR
Ġs tupni
it es
Ġs noitisop
Ġ51 02
si deR
tu P
esop xe
Ġet elpmoC
RI HF
99 11
xi R
x B
wor G
rekciP etaD
3 98
ni vorp
Ġcod gn
virP atad
et ov
edi sa
Ġa v
66 5
z O
ro sserpmoc
FUQ Cl
Q g
l yts
Ġa ti
eca r
y X
# .
/* ]
elc itrap
ĠìĿ Ħ
ne tni
à¤ ¹
72 0
selcit rap
Ġv ed
92 0
3 68
M N
lmth isyw
eg ot
82 9
Ġgni krow
Ġd mc
Ġdra ug
Ġdlo hser
le B
ĠE M
AD M
G SM
MI ALC
etacifit rec
! `
ezileuq eS
Ġs bat
Î ®
__ "[
Bib vlGdj
Ġa c
i ht
Ġnoita reti
æĹ ł
noissu csid
\\ "\
ssenkci hT
draob pilC
h gnem
eu c
WZ yJ
;" +
tim rep
Ïħ Î¿
tnetnoC tes
62 0
ep pins
CI gACIux
modnaR teg
43 0
TNE DI
} ;)(
Ġ nommoC
Ġgniht yreve
s X
evitaN si
s tuoyal
Ġeta reneG
s noitcennoc
Ġata k
etatS esab
Ġ repus
Ġdrow ssaP
Ġs tneserper
Ġdi ug
__ ((
esa ercni
Ġla itrap
tT f
Ð¸ ÑĨ
ded ulcxe
ettel aP
++ =
Ġdnu oF
d op
ĉĊĊ ĉĊ
Y J
idi b
N si
h e
.) }}
+" #
æ· »
tnemgarFtnemucoD etaerc
Ġs rorrE
iti nI
ç¤º æĺ¾
ir ra
Ġel it
re ffo
dezi rohtua
K NIL
M B
V S
yfi doM
ĠĠĠĠĊ ĊĊ
WY yR
xednI evitca
nu mmoC
Ġi mub
Ġatada teM
urb eF
h o
ifit on
Ġtrop er
71 9
SE DOC
| >
b eF
norhcny sa
Ġy geta
k rof
Ġgnit irw
.)" ]'
ai retirc
ss ol
@ ":
dna L
n ital
ua s
Ġc oD
92 7
fO rebmuN
Ġ"," {
srotac idni
lai rotu
Ġt rahC
DF UW
Ġ tnemelpmi
53 0
era eB
eu nitnoC
Ġdaol pU
ti derc
yF Gc
MA ERTS
ETATS IRT
hparg xm
m laer
:)) ]
n LzlGa
y oj
éĩ Į
niam eR
DF UR
deb ircsed
^[| .\\
ï¼ ģ
94 7
åĮ ħ
er F
4 98
82 0
re wsnA
41 41
ataD wen
noita dnuof
kci uQ
Ġd etelpmoc
gw yJ
rorrE si
Ġret tes
" ;]
f P
gni R
Ġs dleiF
Ġs tnioP
htdiW lluf
Ġeu v
592 7694924
4 97
.)" "(
reP sedils
MUQBNEL DFUQD
tne laviuqe
X trats
Ä Ł
eru tseG
mb h
namu h
33 6
Ġtne dni
reganam dd
Ġrav t
kcolB si
æĶ ¯
/ @'
ded eeN
s tcatnoc
BSP gQ
ĠtxeT renni
etlev s
Ġna elc
Ġ41 02
,)] [,
strahc e
Ġnoitu cexe
Ġdeni at
Ġr er
zN XZ
kc os
dezilaitinI sihTtressa
tnem ngissa
ha Y
ts bus
Ġ" ,)"
xy J
evitaN teg
snoit seggus
K I
id es
eliF daer
s lairetam
eta rdyh
gnig garD
Ġmala D
eldnaH rtta
ĠelytS llif
89 91
Ġet yB
ĠĠĠĠĠĠĠĠĊ ĠĠĠĠ
1 68
GI H
Ġa ka
nwoD esuom
smaraPhcraeS LRU
00 04
Ġu tas
à¸ Ī
or i
. /]
nool lab
Ġreg girT
å ł
pu llor
lle hS
× ¨×
ros neT
yc lxWdk
noit itrap
( ":
Ġyrt nE
à¹Ĵ à¹Ĵ
22 22
te F
90 7
wS X
Ú Ĩ
\, *
bg R
> /<
Ġ Ø©
k E
trop ssap
Ġesop xe
X atled
) *]
g S
te erts
gnit sil
gs CI
xednI tnerruc
v eler
V T
Ġsserp pus
lacino nac
88 9
norv ehc
\ )(
d U
å ĸ
ne txE
ab mah
à¹ ģ
. ,"
riD gnal
h q
Ġd nA
gni wollof
75 0
etubirttA reffuB
ĠDE DIVORP
6 460
Ġra eppa
txeT nottuB
is na
Ġseic nedneped
pa k
mi ceD
slobmyS emiTetaD
epyT emim
a ba
Xa oRH
Ġs egap
Ġtrop snart
Ġutaus es
elba enolc
stxet noC
? +]
Ġre ifidom
Ġnoita dnuoF
egarotS noisses
ãģ Ĩ
\[ |
Ġy cil
det pyrcne
Ġs etubirttA
2121212121212121 2121212121212121
Ġta olF
Ġs ekovni
Ġ tcerider
tuo kcehc
daol yzal
Ġer itne
B j
Ġgnit u
x J
85 8
_ !
(|| )(
rotceleS sehctam
}} ;
edoN etubirttAteg
enil itlum
emu ssa
gl D
rotcepsnI beW
Ġdesu cof
el ppA
) *
lli v
amma g
dnu f
Ġoita r
tcirt sid
esu ac
elp rup
Ġde tcennoc
74 0
egra L
EROF EB
a di
o pa
Ġ{ ((
DI U
!( (
"," _
ab mem
te kcaP
! ;)
i niM
evitc el
( ==)
Ġelif orp
dam ma
adbma l
gni gnem
Ġta mu
Ġgni kcehc
rt noC
( ))
è Į
BSP gU
cis nirt
Ġs drocer
kc pw
; /
gni b
Ġ noitcennoC
na ht
çĬ ¶
p erp
md pR
S NE
J nc
tupnI txeT
WY oN
HC RA
sm reT
kcpw ccn
ç Ī
Ġ," >
ç ģ
d od
Ġnoit amrof
B P
NO CI
buhti G
do of
dra ger
ssa m
Ġ)) )(
.)) })
O K
elba lecnac
X J
d epyT
× ª
Ġ} '
Q G
k r
ĠtcejbO si
ĠĠĠĠĠĠĠĠĠĠĠĠĠĠ ĉ
elytS tnerruc
ecarT kcatS
s fo
83 7
no rt
A ERA
_ ?
z K
k H
Wds Fm
Ġno pu
u oT
Ġeman htap
zl GZ
F U
ne B
nap ic
Ġ' ,'
Ġ4 41
tna w
k ta
l yy
âĶ Ĥ
klat llams
á Ĩ
Ġgni kam
AAAAAAAAAAAAAAAAAAAAAAAAAAAAAAAA AAAAAAAAAAAAAAAAAAAAAAAAAAAAAAAA
EV EL
snoit u
ni bmoC
Ġro tcaF
Ġ kcit
lR GI
RT C
Ġt od
SI RA
Ġtfos orciM
' ]
bpjI zV
æŃ ¤
Ġyti ra
Ġai deM
yV md
Ġ $.
u W
epyT emiM
x W
é ł
Ġti mmoc
c eR
Ġ" %
Ġ NE
re uq
Ġgni ssap
qqqq qqqq
Z T
à« į
Ġ Ùĩ
weN si
jl Gb
AAAA AAA
zNXY s
"\ [:"\
gg Gd
åĬł æ·»
nb v
S ERU
elc itraP
f j
elbaT o
Ġnaidum ek
à¤ ¯
nerdlihC teg
åĵ ģ
de tcejeR
gnit roper
elgnA dne
Ø ¸
ĉĉĉ ĠĠĠĠ
lc xe
/) +
Ġyl etaidemmi
g gna
FUQ j
è½ ¬
esac reppu
DI UU
\;) __
tnem eganaM
R J
." "
Ġila bmek
ezi lanif
xob thgil
ĠY T
æľ į
61 7
Ġta hil
Ġdaol er
tnevE hcated
TO OR
seiro ts
^ )
Ġaliba pa
ner a
bmu lPsj
tFm T
di W
0 78
m K
1 58
t ed
i si
noitida rt
23 8
"[,] }}}{:"
X at
ro T
:" ]
Ġtnuoc cA
LLOR CS
oT gnirts
m q
03 7
ggub r
CTU tes
de kcoL
> )(
nev E
A K
om orp
dI tneilc
lor cs
Ġtrop weiv
na ma
,)}} }
yB ylpitlum
f noC
} "(
ĠĠĠĠĠĠĠĠĠĠĠĠĠĠĠĠĠĠĠĠĠĠĠĠĠĠĠĠĠĠĠĠ ĠĠĠĠĠĠĠĠĠĠĠĠĠĠĠĠĠĠĠĠĠĠ
reta erG
emaN resu
xednI edon
k v
es ooL
74 52
Ġ" /"
i am
æ Ĳ
weiV atad
(? )(
B Y
noitcnuF rotareneG
emo eG
eu ssI
gni sopmoc
mc h
% '(
yeno m
s it
31 31
iclR WYvx
s gub
Ä Ľ
Æ °
Ġnaidum eK
95 9
etatS laitini
B O
ya R
æ ļ
ec niS
Ġarema c
` >
Ġetal snart
å ĥ
op it
roloC txet
acir fA
tesffO Xegap
iu M
_ ,}}
éĿ¢ é¡µ
Q scUQBdEL
ci hparG
mu cric
tcejbO X
CA M
Ġ0 7
[] ]
R Wa
xednI Z
reldnaH rorre
Ġhc um
htoom S
ro tcennoC
3 57
laV wen
cv R
ydoB teg
Ġg sM
Ġr pxe
sre timiled
cnySeliF etirw
damma huM
Ġyl pmis
hctaM si
Ĺ Ĳ
ä½ ł
NUQ J
tnem ercnI
ataD sporp
Ġne g
iv af
d Z
g z
weiv revO
a re
V Q
æĥ ħ
1111 1111
Wbf VGZv
ta pmoC
am rak
dn d
à ¾
eniL ekorts
Ġnoita cifi
ofnI resu
LTR si
+ :
Ġol leH
repa P
*] >^[
R sI
de yaled
Ġel ddi
yrt em
áĥ ¡
BFU Z
;} '
rota erC
EVI TISOP
èĢ ħ
alu mrof
C H
Ġs llec
@ }
Ġts eb
yl tnerruc
96 9
NOIT P
åĳ ¨
ëĭ¤ ëĭĪ
[ ))
evis nopseR
nev noc
ç® ¡
thgieH teg
NE I
à¸ ·
è® ¡
tesffO teg
çº §
gni ru
52 9
ãĤ ·
Ġ] %
SSEC CA
nwoD esuoM
Ġ pxe
yfit oN
d K
xob ycnaf
yro tS
00 11
M EM
Ġeta r
Ġde tseuqer
62 9
yroti sopeR
SI V
Ġri ap
Ġle xip
? *
it oN
Ġt po
}] }
enil esaB
å· ¥
f T
Ġtu ru
eeyol pme
1 90
eni mreted
sb irt
G D
Ġweiv revo
+". "+
Ġylbab orp
f uS
Ġs se
Ġylla er
Ġnak apu
rekcip emit
62 7
wohS oTsedils
77 0
dna rB
UQ E
reda el
ERC ES
d Q
at eD
61 8
_ |
pu ngis
sj nommoc
yl G
AC L
tit sbus
Ð° Ñĩ
s nI
eduti ngam
Y N
nwod yeK
Ġgno la
d erp
CIL BUP
Ġre dlof
snoit pircseD
gAibc tHI
hparG xm
scis yhp
RA EY
ecrof ne
,' ?
semarf yek
æľ º
ĠÛ ļ
IC SA
"," .)
Wd uB
4 78
ts itra
lp S
IT LUM
len reK
stnuoc cA
snoitpO tluafed
Ã ĩ
gv am
LAIT RAP
O Q
2 003
"? )(
Y teg
tsil yalP
43 7
Ġnwon k
R K
ce jbo
mu r
PA WS
_ +)
la no
da ek
Ġm oor
[ *
ĠĠĠĠĠĠĠĠĠĠ ĠĊ
Ġi pA
SI L
æº Ĳ
ĠLLA HS
Ġtro hS
b yR
y sop
llA dnif
k W
< ;
Ġdet rats
E RO
ĠĠĠĠĠĠĠĠĠĠĠĠĠĠĠĠĠĠĠĠĠĠĠĠĠĠĠĠĠĠĠĠ ĠĠĠĠĠ
})" "(
**************** ************
sepyT ataD
Ġs elbanE
ä½ ĵ
de eS
Ġt sid
edis nI
Y lxWZ
Ġnoita tneiro
Ġci gol
NWZ sV
, %
AAAA C
re tsop
paM teg
Ġded nuor
omeM esu
q N
Ġ ffffffff
seirtnE yrt
ic noc
go zc
dnEnoitisnarT etalume
Ġd edocne
pa wS
hRXY k
d P
stnem hcatta
Y NA
ãĤ Į
Ġdraob yek
K EEW
Ġyx orP
m j
Ī ĺ
UQ F
x sop
ç ²
gg e
nu P
!( )
mc v
gnis U
Ġrezi motsuc
se il
ykc ul
t ohs
z H
Ġdet roppuS
d edoced
mu tsu
Ġngi S
G EB
ts rq
çĽ ¸
"{ >=)
01 8
net talF
F S
le W
s ma
Gb pZ
D SU
rev en
o em
ì ĺ
ta h
Ġyram mus
sgnippa m
_ /.",
Ġyl reporp
Ġdezi laiceps
emarf eriw
Ġlaire taM
rek law
Ġ tcaer
tnem itnes
á ¸
Ġt ws
ľ ë
noita ti
el as
evissim e
5 09
\ $
noitceriD xelf
bu k
edoN trats
naps wor
d ub
yZ u
? *.
GG OT
leveL poT
rop orp
' "+
rotceleS sehctaM
egasseM tluafed
Ġanami agabes
Ġna J
elca ro
IA K
Ġtne laviuqe
U E
Ġyti ruc
HT EHW
Ġt ob
la rts
niat bo
nolisp E
u nim
ia W
la d
| +
46 7
Ġt if
ĠNOIT CA
ELO OB
s revresbo
Ġdraw rof
692 55
! !,
sna idaR
tnet nI
D b
y bur
701 31
Ġtnuom A
ol lo
52 7
V nY
se simorP
EL DFUQD
tnemelE dilaVsi
ey ol
dnE enil
Ġnaa sa
56 7
sepyT tneve
æį ¢
gni warD
ne j
Ġtnem moC
` '
{ "=
rev loS
Ġ LMX
Ġa nu
Ġts ed
rra c
rota givaN
åº ı
Ġdered is
ataD naelc
çīĩ åĽ¾
Â »
x j
htem oS
seru txet
ihg fedcba
Ġt pot
,)" "=
noita roceD
Ġs redner
ba L
noit elpmoC
/* ------------------------------------------------------------------------
95 7
Ġlau tr
tna dne
M E
RE D
eziS tes
SN etubirttAtes
meti unem
Ġedoc ne
âĸĳ âĸĳ
kc od
wl H
gno leb
nmuloC teg
{); --
Ġedi lS
z xWY
Ġt nioj
( /(
,)] [
srota dilaV
yeK dnib
ux FX
Ġm ooZ
ĠĠĠĠĠĠĠĠĠĠĠĠĊ ĠĠĠĠ
21 8
Ġderedis noc
bz JCL
pm A
,' ':
tF mb
******************************************************************************************************************************** ****************************************************************
( !||
yeK cilbup
lV nc
tpyrc ne
}) })(
"," :
tz J
kcabllaC pnosj
na rb
"\ =]
Ġgni srap
Ġy lima
": ":
," ...
niamoD ssorc
Ġ lluF
.} {=
A iZp
k f
Ġl es
W C
nem ele
Ġy zal
Ġ ;]"
84 0
Ġ]' '=
,] )]
Ġu ma
"&& ]
ä¹ ĭ
BS Y
;) }))
de xiM
las rev
}) }"
reniatnoC teg
85 9
66 0
(: )"
R S
ru m
elba s
GI yFmd
Ġt raP
noN si
Ġ:" +
Ġni b
ci rteM
roti siV
Ġgni drocca
tna net
NI AM
b yd
reifi cepS
\ ()
nc lN
elt taB
motsuC si
> "(
hp roM
yticapO llif
Ġdehsi nif
dle iY
ytilibis secca
da ed
gnita R
Ġnakapu rem
N MULOC
eltiT teg
sseccuS no
htaP lluf
Ġaerat xet
k lub
Ġt pircsa
m on
)' >
m om
emiT tes
Ġs noitcA
LMTH retuo
0000 01
Ġni goL
rezi laitini
;)" &
55 7
lortnoC mroF
fed nu
x ro
Ġha li
ĠGNI DULCNI
lN XY
ç´ ł
I J
m H
Ġrep orp
gu lp
ĠS EGAMAD
snoitpO teg
pot kseD
ç½ ĳ
gni yalP
Ġse irt
Ġd eriuqeR
CTU si
licne tS
TXE N
60 9
ba h
C ED
eziseR no
k K
bmes sa
/../../../.. !
Ġpot S
Ġ Ñħ
Wa y
04 7
Ġs eluR
dekcehC tluafed
xoB gnidnuoB
U OT
ĠRE HTEHW
` {=
s ita
06 0
ne eb
won k
{ ,)"
CA I
em ehcS
,]" >
DE G
red nif
6 88
83 8
red niF
m iv
tesffO dne
ytreporP MOD
Ġ liamE
Ġna gno
st niartsnoC
\ (*
KRO W
Ġel pmas
._ ;)
75 82
ro olF
sk nuhC
CX E
åİ Ł
gnit e
nez orf
t GL
ytiro htua
Ġde eN
FGb w
p ICX
gnil dnaH
xSRBFUR s
+"/ "+
sucof otua
I K
," *
_ ||
ka na
GI gACIgACIg
> %
sgaT elbaenolc
j na
ĊĊĊĊ ĊĊĊĊ
Ġec nO
ãģ ĵ
æ³ķ æĸ¹
daeha epyt
redaeH esnopseRteg
dna c
TNE ILC
çŃ ¾
f el
{$ >
/ ~
76 0
retneC teg
2 78
Y nim
teS dehcac
pma C
noit ressA
ER B
ecruo satad
sdnoceS teg
s citats
sa em
Ġm pn
p K
L OBMYS
1 57
ta eb
rt siger
epyT aidem
gnirtS elacoLot
Ġ lo
Ġn Ã³
ĠĠĠĠĠ ĊĊ
tnioP atad
Ġec nerefeR
raelC dehcac
Ġni girO
08 7
ãģ ı
u haY
epyT giro
72 9
rev nI
nraW did
/$ *
DA B
85 7
ÙĪ Øª
elib oMsi
94 9
08 9
j U
FF US
f K
Ġ íķ
Ġm elE
)} ]
x HI
;) /*
gni rps
tcel E
ssa lk
68 41
2 002
Ġ" -"
sV nb
Ġ pop
birt ta
xyQBF UR
46 9
O l
Y F
ngoc eR
y u
an l
seit ilitu
NWON KNU
Ġol leh
) ;]++
ĠRO TUBIRTNOC
Ġera pmoC
lq S
JXZ w
y eht
bi w
," =
NI A
Ġssec orP
è Ħ
W D
ne i
tekc arB
$ !
lexiP teg
æ° ´
noita gerggA
ac it
ROTA RETI
top S
gni gap
})) }))
Ġa r
lacoL teg
x ojod
Ġ" _
131 0
GNI NRAW
Y V
nepO no
Ġama s
tnapic itrap
s gifnoC
tni aP
sp eD
ET O
Ġd epacse
ETA P
RE NEG
ĠELBA IL
åĮ Ĺ
Ġyl suoiverp
Ġtno F
Ġ Ñĥ
86 8
em on
CI ml
53 9
c tr
s niatnoC
() ++
snoitpO dirg
82 60
rAwKAsCA rAwKAsCA
D a
q a
Ġgnit ros
dios pillE
Ġel bitapmoc
/.. ","
erutc iP
de hsilbup
4 79
Ġ8 82
ĉĉĉĉĉĉĉĉ ĉĉĉĉĉ
63 8
sre hto
ep at
Ġ[ ]
% ",
us es
dne lB
Ġre nepo
kj ihgfedcba
de j
ili ffa
Ġtnem garF
ia lam
Ġetac idni
lVHbhZ HI
ed iuG
Ġnwod yek
sel acs
================================ ================
Ġtpot d
Ġd etaerC
Ġ" *"
Ġega su
nA iO
,)]) "("(
rotc es
dnE no
D si
X nim
k si
TN ETAP
ĠĠĠĠĠĠĠĠĠĠĠĠĠĠĠĠĊ ĠĠĠĠ
45 8
mrofsnarT tes
Ġo i
xirtaM ylppa
eci ovni
Ġtro hs
ä¼ł ä¸Ĭ
Ġel ipmoc
ESIW REHTO
o ol
Ġret ooF
sec cA
lobmyS si
2 67
;)" ]
,)])" )"(
NOITC ERID
so ediv
ĠtuoemiT tes
s tsoP
( :"
66 7
75 9
B L
Ġde epS
ãĤ Ĭ
à¹ Ħ
z w
70 21
gnig gol
iu yreuqj
cc gn
",""," ","","
z r
p eR
Ġ warD
RE I
m irT
stnem garf
ma hs
lqs ym
ci hpargo
tu C
s tcudorP
Ġgni od
Ġd esaeleR
emaN nigulp
esrev nI
di U
Ġta m
VGZ ul
,] )])"
åĪ Ŀ
emaN rtta
ro dne
Ġta hW
Ġtrop xE
rep paM
etatS hsup
txetnoC sdeen
58 91
napS loc
s eciveD
di o
è´ ¥
/ `(
ĳ ç¼ĸ
0000 000
teG nf
' +)
2 40
\\ ^[
s koob
53 7
è į
,}] }
æµ ·
ç³ »
ĠxednI morf
Q JA
htiW dellac
è§ £
gACIgACIgACIgACI gACIgACIux
oh p
re nE
ti us
BCIgAibc tHI
:}{ ?
ĠSO i
Ġgni daer
loot ved
ralu cric
Â ¯
weiVotnI llorcs
rekc it
sk raM
^ '
tcaxEesraP syadkeew
pu kcab
44 9
Ġdep pam
rerrefer on
O OH
84 01
erots erif
v L
SO i
[ \
ĊĊ ĊĊĊ
epyT leveLpot
del acs
Ġecalp eR
Ġgni k
(|| ))
redaol pU
irid nes
sloot ved
åķ Ĩ
63 70131
"( ]"
[( +]][
I yc
tu ol
poT llorcS
# =
PAC SE
f D
noi ca
reldnaH reggirt
H N
V W
é Ł
s lamron
nocI B
gnirtS epyt
dnep eD
etalu mucca
noitisoP etaerc
44 7
RE DAEH
Ġs etuor
snoita cilppA
v da
Ġre il
23 7
me ne
noit nem
Ġlati pac
á ¹
Ġdesu nu
Ġni aM
ts eW
tcejbO ekiLyarrAsi
ttna g
tsrq ponml
ci gam
ET AC
noitazi nagrO
Ã¡ m
re hctaW
sc VQBdFL
luM der
Ġd elyts
w r
ot i
rb bA
troS s
1 88
\ .)
wolf krow
c itar
Ó ©
Ġht peD
marga iD
pU esuom
,)' >
te ewt
8 460
c edoc
Ġre l
tnemelE enolc
3 09
tre c
etacifit reC
Ġe touq
w AA
h O
---- ---
noitas revnoc
da e
rebm ec
;' )
viD pd
si sah
à¸ ¹
dog nom
Ġaynhuggnu seS
d G
,})} "
è´¥ å¤±
CI TATS
Ġl tr
Ġelba rugifnoc
BCIgAibc tTK
reiz eB
76 8
ë ¦
hx Gc
M J
æĺ Ł
ek ahs
4 867
ĠÃ ¥
s moor
dep uorg
Ġhalet es
ico ssA
å Ĥ
WA RD
3 440
s noitceles
pac enil
ts E
re Z
ĠtxeT ssc
;) })"
04 0
rel A
95 0
set ouq
x idar
-+ [(
Ġ ohw
LG BEW
g Gd
çĲĨ å¤Ħ
se erged
s bc
Ġ NOITA
76 9
[ ?)
ca P
Ġ fOxedni
:" \\\
Ġs eno
tra d
,}{: ]
neddiH si
no L
pmer ep
lauqE tressa
LE BAL
lla W
rorrE etaerc
ç µ
Ġk ujnutep
Ġtro ba
u lek
v q
ga B
] )'
ru k
su nem
01 31
DEC ORP
r lc
it atS
na is
GbvN WL
Ġ' )
ĠGNI SIRA
Ġra enil
lavE labolg
a ne
( ,}"
mot na
Ġd niB
NOITC ES
egdi rb
BCL iw
elba v
stniop dne
Ġni k
Y U
Ġre f
00 91
ic hZ
Ġs nmuloC
T FIHS
Ġlu sar
Ġs gniht
}" ":
tsoH teg
b buB
Ġy cne
95 8
ki gnem
Ġri a
rh X
sre wsna
Y I
lau tcA
sV XY
Ġs liateD
tser etni
à® ³
h id
elytS ekorts
Ġeti nifni
Ġ, ))}
;)] )
æĮ ī
= $.
Ġ xetrev
A HPLA
9999 99
Ġ Ñĭ
gni og
_ {
htu rT
Ġdiov A
sre divorP
Ġgnidda P
X SJ
p C
y rota
SO I
Ġel uR
EC NA
Ġë ĬĶ
Ġd evreser
thgi lf
erutlu C
sucoF sah
N XY
Ð¸ Ñģ
_ /.'(
!! +][
x DI
Ġ Ðº
sesser dda
gw C
Ġ noitisnarT
Ġeta rapes
ä¸ »
tnemmoC etaerc
del lecnaC
devres bo
Ġs tnemugrA
:)) }
Ġs rahc
CI gACIgACIux
rem yloP
ĉĉĉĉĉĉĉĉ ĉĉĊ
lJ Xa
Ġeruta ngis
gni m
m rf
Ġgniti aw
det narg
ĠS SER
sp ih
X W
ee ff
C LL
emiTnoitaripxE dlihc
ni oC
Ġetu cexE
Â ¤
Ġevi ecer
Ġgna tad
Ġtne tap
Ġ## #
U CA
snoitpO tnenopmoc
sk VQB
ret liferP
des raP
elba b
Ġgni zi
Ġ) ]"
lu had
LAI TINI
Å «
,}" )
yhpargop yt
tnem evom
de tceted
++ ;)
daeha kool
ep irts
v D
87 9
;}) }
\ )]
noita leR
mm I
n did
( ,]"
= '
Ġf eD
AA W
rosruC teg
;)' ]"
Ġ,' ?
pm orp
metI detceles
ç¬ ¬
if fi
esraP meidirem
Ġna iset
ne hT
Ġh atnirep
A J
d nI
,' >"
;)` .
ĠnaD n
gola tac
tpyrc ed
se xob
< )(
ataD m
ba wa
Ġa repO
Ġerots er
Z k
tnemelE llorcs
yti nummoc
3 80
,]]]' ',
ycphGd g
Ġthgil hgih
nwoD porD
gnL tal
H O
or caM
set ov
O OF
xalla rap
evis rucer
oT gni
mui deM
kcarT txeT
irep xE
rT n
eta itnatsni
Ġer ongI
ĠE ZIS
rezi nekot
ĠĠĠĠĠĠĠĠ ĉĉ
Y t
81 9
snoita cilppa
reifitnedI epyt
ma H
)) ))
/) $
Ġedi rrevO
J GI
Ð°Ð ¿
Ġgniv omer
Ġy hpargop
kcu lp
si p
l om
Ġm irt
tsrqponml kjihgfedcba
gni nna
Ġeru txeT
,][ ||]
åı °
à¸ ¸
ya rG
mc Q
t orp
snoit segguS
43 9
deifidoM tsal
Ġ tneverP
ataD tneve
áĢ º
2 68
u X
Ġniam oD
roloC tes
coL yllanif
04 9
JH U
## ,
hcuoT si
eg nem
72 8
lrU teg
RET FA
na cS
00 61
2 09
j q
ĠĠĠĠĠĠĠĠĠĠĠĠĠĠĠĠĠĠĠĠĠĠĠĠĠĠĠĠĠĠĠĠĠĠĠĠĠĠĠĠĠĠĠĠĠĠĠĠĠĠĠĠĠĠĠĠĠĠĠĠĠĠĠĠĠĠĠĠĠĠĠĠĠĠĠĠĠĠĠĠĠĠĠĠĠĠĠĠĠĠĠĠĠĠĠĠĠĠĠĠĠĠĠĠĠĠĠĠĠĠĠĠĠĠĠĠĠĠĠĠĠĠĠĠĠĠĠĠĠĠĠĠĠĠĠĠĠĠĠĠĠĠĠĠĠĠĠĠĠĠĠĠĠĠĠĠĠĠĠĠĠĠĠĠĠĠĠĠĠĠĠĠĠĠĠĠĠĠĠĠĠĠĠĠĠĠĠĠĠĠĠĠ ĠĠĠĠĠĠĠĊ
no pa
xWd hZ
hp ro
paM wodahs
:" +
pam tiB
Ġa h
93 9
feR tnemele
97 9
noitaruD noitisnart
"\ ,]
dnammoC dda
ç® Ĺ
ni kS
{{ "=
x orppa
dl d
t elbat
noitu los
æ² ¡
äº ¤
Ġem ehT
dne b
ĠhtdiW tesffo
Ġ Ñģ
Ġevita N
peeD enolc
$ "=
ĠroloC dnuorgkcab
ru oloc
NA ELOOB
sei kooC
\\( ",
ca rt
xoB gnidnuob
xednI tA
Ġd oog
}] )
"{,}] [:"
.} ;
Ġylluf sseccus
." ":
[ /=
m el
mc hB
à· Ĭ
htaP esab
NI B
Ġnaku kalem
Ġy daeR
(? )"
Ġeman rid
0000 08
tratS teg
;)" ."(
66 8
yreuQ teg
tupnI eldnah
=== )"
ecnu onna
roloC teg
nO yps
ri uq
}] [=
Ġ çļĦ
Ġxa ja
ngi l
det si
reh nI
teehs ykcul
wl HV
M g
tni oj
à® ļ
m W
( +]
06 7
N D
U I
Ġnak ub
Ġ tcerid
enoz emiTteg
ta eh
na lb
z q
noit seggus
Ġy M
htdiW poTredrob
di B
sed iug
03 0
,}}} }
12 5
ip xE
etatS ecalper
oT ecnatsid
03 9
Ġdra dnatS
@ \
s leveL
OOH AY
Ġeta vitca
paM talf
CI H
56 21
cibu C
Ġs tluseR
88 88
=== "=
ur ht
k D
v P
ĠE C
,]]]' )(
strahc hgih
TNEM GARF
KCA TS
/ &&
G EN
DNA C
ĉĉĉĉĉĉĊ Ċ
Ġs erif
Ġlit U
Ġl liF
m B
gol on
tnem a
Ġ-- !<
(( ?
f L
xlbc tHI
yI jM
sre tcarahC
çĻ »
gni rif
Ġy f
à® ±
................ ................
tiko tco
U Wd
Ġë ¥¼
Ġtne ga
91 8
TS NI
go jb
ne K
21 9
NGI LA
du tS
Ġ NOISREV
rop roC
64 7
ba rg
es worb
reldnaH etuoR
lumi S
yna pmoC
txetnoC dlihc
gnis olC
Ä ħ
deg goL
bmurc daerb
æĿ ¡
Ġse ira
å®¹ åĨħ
C OF
el li
$$ $
aa a
à¦ ¬
x K
Ġyl rae
kS f
O OT
tnuoC llac
Ġedi S
Ġtim buS
l em
pih snoitaler
Ġ61 02
,)}) })
Ġ4 83
eliF si
tc ilfnoc
Ġia uses
ĠY RO
Ġ liated
r tc
rev oC
yy y
dlu ohS
Y xam
TCA F
-[,,,,,,,,, [,
O BFUQ
mbp Z
Ġa hplA
ega mad
23 0
ç§ »
5656 5656
dnuorg erof
" ,)}"
Ġi si
66 9
al b
sci pot
6 78
oT ylppa
) .
ç ¢
G SPE
Ġde yortsed
Ġf a
reffuB yarrAsi
ecnO dellac
i mo
u pg
Ġro tceV
g la
6666 6666
m VGZ
DE ILPMI
scis yhP
N Z
{,} '
mu rof
rota lsnart
L ECNAC
xednI trats
Ä «
reffub emarF
toN si
dI tcejorp
æĶ ¾
s mroF
s lennahC
us si
der rucco
ar sI
{) )'
è¯ ¥
tsu lc
Ġfles ti
/< ",">
Ã ¬
Ġh am
ssecorp erp
05 9
sucoF otua
f po
ãģ į
æ ¢
M F
\ "[,
devreseR si
esraP shtnoM
yca virp
lir pA
c irts
Ð°Ð ±
V F
Ġ> '
54 8
ç§° åĲį
N ER
Ġ Î±
Ġ[ )
Ġrega nam
oilof trop
Ġne ppah
ï¸ıâ Ļ
del ecnac
\. \:?(
Ġ kcapbew
Ġs lexip
æĵ į
); ;(
+" |
Ġgnit set
demrof snart
cp n
$[ $$
fed nUsi
åĽ Ľ
BFkQ n
11 7
ro hs
08 8
Ġgni ldnah
Ġpit looT
M y
k g
ĠĠĠĠĠĠĊ ĠĠ
Î ´
RH K
Ġtnerap snart
EL GGOT
eer ged
nc lB
X EGER
lo T
{,} }))
m htiroglA
WZ z
vJH U
;)' ;
à¨ °
æĮ ģ
sv u
dere tnec
LRU ataD
L W
hsaH iu
ĠĠĠĠĠĠĠĠĠĠĠĠĠĠĠĠĠĠĠĠĠĠĠĠĠĠĠĠĠĠĠĠ ĠĠĠĠĠĠĠĠĠĠĠĠĠĠĠĠĠĠĠĠĠĠĠĠĠĠ
Ġepyt otorP
Ġkcilc no
GNIT TES
deloo Pteg
S RO
W al
Ġra ta
Ġ. '
erehpS gnidnuoB
no I
._ :
V b
tne tsisreP
\ "=+
hc tek
Ġ ps
eta gergga
vZ GI
revew oH
s tcejorP
ed lit
35 9
==! )(
ev leH
================================================================ ========
Ġla ma
_ ===
Ġthgi ew
htaP eliF
tceR llif
a repO
à® ¨
ä» ĸ
htdiW llorcs
Ġsu rah
F WZ
M G
02 0
Ġ tcejorP
63 9
Ġdeda oL
eer ga
Ġnaka j
.) })(
ĠĠĠĠĠĠĠĠĠĠĠĠĠĠĠĠ ĠĊ
kraMretaW hgih
WY w
tner effid
uF GI
egnaR ni
tset iuy
sre hctaw
DI DNAC
oT evruC
tesffO ctu
/ ***/
ĠS TNETAP
\ {(
k z
,) ","(
56 8
byB HI
-- //
87 0
m ed
v nI
Ġts eg
;}) ]
Ġre doc
s om
~ ,
Ġxat nys
Ġta ma
etal s
XZ n
92 8
Ġma cam
worhT ot
Ġs draw
pircs buS
stnemugrA si
roF esab
ĠsgnitteS o
etelpmoc otuA
reh pi
Wdx Vmc
Ġ"\ "
UQB tj
å° ±
eman lluf
Ġs tnenopmoC
net tirw
O w
u hT
gni dlof
de vaS
44 8
retti wT
1 98
}) )]
yb debircsed
.$ ,
snoita lsnart
Ġt is
la irA
Ġ0 81
f W
Ġeta geled
Ġss orca
éĥ ½
Ġetu pmoc
Ġt uB
ERU LIAF
roloC redroB
llif yloP
et iuS
- \+
evi red
a tne
84 9
3 79
65 8
=] '
99 7
suo ht
hsu rB
Ġla ru
Ġni milsuM
77 9
V C
W OD
cev n
O WT
å® Į
à¦ ¿
m ir
Ġs gaT
Ġ tcatnoc
Ġeno lC
ciremuN si
5 90
kna R
eg el
TS OH
51 9
noht yP
yrotnev nI
x H
ï» ¿
l dmb
q h
61 9
Ġ0 21
ĉĉĉĉĊ ĉ
p W
X G
Ġd ap
oi Kq
/ ,
a la
p G
noitisnarT tes
t nit
Ġ54 7
regga ws
"{ [
ytiliba paC
d S
Ġrota dilav
yfi reV
D G
ç ª
eniL tes
c yc
rota erc
yY f
ro v
o kram
Ġnoit pecxE
epy tatad
Ġec roF
trats gard
{,} }}
D h
34 5
red om
33 9
p T
esa E
Ġo G
Ġemu lov
P OP
rota roced
;)} }}
Ġ' .'(
des serP
soP rruc
)" \
Ġne tsil
ne c
Ġ âĢĵ
sM UQBVEL
Ġesu ap
Ġdaol nwod
Â ģ
AA DA
Ġeve irter
laci gol
RA C
egnahc xE
Ġay nmu
elba kcilc
EG NAR
> --
é ¾
Ġs egnahC
Ġre lu
roloC gb
Ġc ol
Gct lm
tnevE reggirt
gni nepo
HC UOT
Ġyt rid
q r
ccgn Éµ
x o
s evitceriD
hti ra
u pc
tnemelE crs
oitaR tcepsA
Ġcit atS
evitc ep
à¤ ¦
Ġt id
,)" ."(
,` .
duVmbv BXb
s eca
Ġse iti
lleC xm
J X
Wa z
p H
s redloH
ux FL
si sab
Ġre m
Ġtaolf t
Ġ,' /'(
det pecca
Ġek orts
n FI
oitaR lexiP
cp x
S ES
duV mdl
epyt d
Zu lmc
Ġë ¡
elba ta
63 63
ytreporP sehctam
57 81
noit resni
s renetsiLtnevE
Ġelba vresbo
etirova f
3 78
nu b
.) )][
,)( _,
ĠemiT tnerruc
noitav itca
Ġaj as
GI uJXd
droc sid
Ġgni di
mra f
nd lu
h y
ke eS
m elborp
Ġi n
rab ssergorp
ĠĠĠĠĠĠĠĠĠĠĠĠĠĠĠĠĠĠĠĠĠĠĠĠĠĠĠĠĠĠĠĠ ĠĠĠĠĠĠĠĠĠĠĠ
à¤ Ĺ
luf sseccus
Ġ OD
iti naS
ros neS
nes rap
Ġ) `
Ġtna tropmi
Ġ hctap
seluR thgilhgiH
Ġre kraM
B t
ec remmoc
ataD a
RA T
slHd z
02 8
Ġla mroN
Ġn tB
áŀ ĺ
Ġya leD
kk kk
Ġhu ru
red nopseR
Ġo idar
yaw a
redoc ne
96 8
cu Fmc
Ġ: __
åĨ Ļ
gACIgACIgACIgACI gACIgAibc
æĢģ çĬ¶
Ġs kcolb
nami reb
Ġt ohspa
deret sigeR
emaN tegdiw
sis ylana
Ġ --------
[ /:
si g
55 9
^ ":
l RH
ah k
+ '(
åĲ ĳ
Ġweiv erp
MMMM MMMM
elba ppord
s deeps
y hturT
Ġn worht
Ġra seb
Z FUQZ
22 0
ELBA NE
94 0
Ġod ot
q Z
e AA
dirG ataD
s mrofsnarT
Ġrot pircseD
i pmoC
Ġra ts
ãĤ ¢
Q w
telo iv
Ġ hctaw
re llorcS
Ġemo H
S NOITA
j H
wohS no
tpec retni
ytidi loS
," >/
TUO EMIT
Ġs eniL
"+ )(
Ġgnin nigeb
Ġt oh
tra mS
_ ((
Ġkusam ret
57 0
yt ilitu
f ws
24 8
é ©
42 9
s goL
rre T
1 97
è¯ ¯
)} '
Ġp xeger
}] ]
. {)
de ir
tsnI tegrat
ev ila
65 0
,] [,
Ġgna des
va ne
lli kS
ä½ľ æĵį
h Y
rega e
AD Mw
wor B
HT E
NRU TER
11 9
-- '(
k Y
LI AM
gf C
Q L
Ġrota reneG
3 89
T ERCES
ĠS REDLOH
/ [
nra e
, ,"
txetnoC etaerc
KC OS
< ))
rep id
reti d
åĪ Ľ
=> )"
re H
Ù ĵ
lau txetnoc
ç ı
S e
Ġ Øª
Ġ lluN
<>/ "\
ti s
ht gner
ne sohc
eni hcam
edonV detresni
; >/
Ġretne C
Ġlli W
FUQCd GL
epyT etageled
Ġer ac
gnip pihs
e ism
+[ )][+][!!(+]][
reldnaHetuoR daolyzal
Ġha n
>=)( (
D NEL
Ġ bi
Ġnaa daek
\ !
tegraT redneR
s noitacoL
| '(
XZ pZ
QB dEL
Ġnretta P
à¸ Ĥ
ecruoS teg
âĢĶ âĢĶ
m yS
hp ylG
== )(
} ][
54 9
ecneref fiD
85 0
troS euqinu
s niamod
Ġka h
l sI
egamI dnuorgkcab
Ġredi ls
NH U
l eu
gnirtS teg
xob xelf
{$ _
eri W
]] ]]
Ġ00 3
æ¸ ħ
ĠìĿ ĺ
BC EI
pi nS
_ $.
<'= +
13 5
) +
4 70
ĠTRO T
ec nivorp
gnit tamroF
teS teg
dmb lx
elbatidE tnetnoc
D ELBASID
ETAL PMET
B d
niM teg
ee e
v K
;)( }}
fO ecnatsni
Ø¯ Ø§
raeYlluF CTUteg
× ł
smetI teg
Ġs eludoM
Ġylla itrap
di T
tov iP
{{ '
j K
Ġne ewt
çİ °
slobmyStamroFrebmuN tcapmoC
Ġno g
W G
Ġsnoita repo
pxEgeR si
Ġs pets
Ġ,] [(
h FUQh
Ġx elpmoc
ĠeziS tnof
set is
dne mmoc
Ġi naB
af d
22 8
ehcaC paM
or pmi
gACIgACIgAibc tHI
s llaC
rep yh
à§ ĩ
Ġno sJ
it ap
r ba
al f
çĲĨ ç®¡
| $
Ġi lau
Ġu am
Ġpa tet
Ġnak atpic
E AAE
BU OD
ÙĪ ÙĨ
Ġne es
lleC elbaT
Ġt d
Xd vJ
ylno daeR
mret eD
[ ","
dI tegrat
Ġci saB
H a
R N
/ '[
bm ep
ĠĠ ĉĉĉĉ
Ġ. "
12 6
z iv
tsriF si
! *
Ø Į
Ġi k
ik S
rebmet peS
k G
+ "{
Ġs tesffo
Ġs saP
gnirtS eniL
05 0
Ġyc nedneped
uqes noc
gnita olF
s lE
74 8
Wa oN
31 8
GNI DAOL
Ġlau dividni
Ġgni dneped
Y trats
023 65
Ġega ugnaL
esa ila
>" +
QB V
sedir revO
H Y
s thgir
el icnoc
fo n
{$ >"
,"â Ī
ss es
çŃ ī
ed il
OBVUQBtz OBNUQBtTQDFUQ
te T
0000 2
di resu
Ġnwod esuom
j D
Ġeta irporppa
ses op
XZ uB
à± į
33 7
æ® µ
dna repo
77 8
n dluohs
Ġmih arbI
ralacS ylpitlum
b oN
dI tcejbO
c siM
redaeR eliF
H B
ĠĠĠĠĠĠĠĠĠĠĠĠĠĠĠĠĠĠĠĠĠĠĠĠĠĠĠĠĠĠĠĠĠĠĠĠĠĠĠĠĠĠĠĠĠĠĠĠĠĠĠĠĠĠĠĠĠĠĠĠĠĠĠĠ ĠĠĠĠĠĠĠĠĠĠĠĠ
H SAH
l LzlGa
ts ol
timbuS eldnah
s yrt
Ġs etad
nep yt
å¸ ¸
4343 4343
Ġ hsulf
Ġgni dnes
CE NNOC
en itsi
s epocs
sI lav
xegeR tcirtS
+":" +
Ġyro tsiH
ecne irepxe
w at
pi hC
3 69
ĠÐµ Ð½
Ġdet resni
rezi laires
lecnaC no
gE GI
emarFnoitaminA tseuqeR
ROTA REPO
p ds
la noitidnoc
25 8
hc iR
y i
Ġ parW
tne ipicer
yVGZ uV
s pots
;)] ++
elt til
Ġyhpargop yT
Ã Ĳ
gni krow
.)" "
cit names
gnitu or
Ġ tcudorP
éķ ¿
Ì Ģ
Ġami renem
yt nuoC
z am
991 7
ãĥ ī
ĠETA DIDNAC
'( _
?) *
"( ]
58 0
de kcap
é £
å¹ ¶
lo h
evitca retnI
Gb v
ahc om
yarrA depmalC
Ġ wef
; /*
sessalC ssc
2 98
H GIH
41 8
ipA o
evoM esuom
kcabllaC rO
Ġrered neR
k q
,}}) ]
y por
tooR wodahs
07 9
V J
ì Ĥ
å¯ Ĩ
LRU esab
d oP
;)' /'(
Ġep y
thgiR ekat
f G
33 0
dI yb
Ø¡ Ø§
)' '(
sk w
sa iB
gni vaS
etacol la
h L
ra D
HT PED
çº ¿
Ġde tnemelpmi
esaC rewol
fr sx
del a
esab eriF
eueuQ edonVdetresni
Õ «
ts esolC
sro hcna
Ġ× ª
( +'
W g
or D
WZ t
re kaM
à¹ Į
no il
DO RP
p oleveD
Ġelba liavA
áŀ Ģ
Ġneddi H
z m
napS wor
æ² ³
sa re
ti soper
el kc
Ġs tropxE
ev ar
emaN tnevE
Zp Z
.) ]"
Ġ" >'
Ġre yalP
2 70
Ġa lah
noitubirt sid
X v
o ib
31 9
tna dnecsed
denifeD eBot
g yw
a itre
Ø ¥
re gnem
.)" >/
etiv ni
Y px
eeff oc
lu muc
rt u
"[ _
M nc
N T
B v
Ġr eraeB
F P
eru tu
ç ĭ
edoC trohs
Ġ lac
reta erg
mu j
Ġyc nerruc
´ ë
ediv orP
Z J
(+)" ":"
;" ]
paM yarra
(}) }}
Ġ tcurts
Ġnoitca snarT
edoN tnerruc
tnec eR
PM UJ
citeht nys
,'ðŁ ĺ
2 69
Ġpu kram
å¿ ħ
/< "(
kc ed
edoN etaerc
Ġpu teS
htaP GVS
morF etaerc
ssim siD
"[ [:
den nip
tsiL edoN
yretta b
4 002
dI tnenopmoc
regni f
Ġdetroppus nu
M OT
la nimreT
dI qes
a po
ĠĠĠĠĠĠĠĠĠĠĠĠĠĠĠĠĊ ĠĠĠĠĠĠĠĠĠĠĠĠĠĠĠĠ
wol fer
Ġelba siD
âµ Ļ
edoN txeT
sre zi
Ġ Ä±
sel tit
R TL
ä¹ī å®ļ
hctapsiD pam
Ġrenepo on
z v
er A
Ġec uder
Ġtnem etats
Ġ:" ;
lb t
j C
Ġla reneG
,)}) )(
O TUA
Ġpu yek
s redrO
tu g
Ġna pS
nolisp e
dI puorg
Ġts oP
Ġ) )}
da orB
eer hT
02 9
gna T
oT htap
tel tuO
N G
__ $
spit loot
p rel
.)" ;
) /
laci goL
sporPoT etatSpam
f U
s elbaT
Ġf fiD
36 880176
ä»¶ ç»Ħ
rota col
s gifnoc
f ca
+][+! [
sI tes
tnemelE tcaeR
noitarip xE
ED L
AC OL
d Y
etal fni
{$ [
Ġteg diW
sre niatnoC
lo oc
;][ ||
Ġezis eR
Ġre tuo
sed ivorp
D Y
ĠtesffO etyb
Ġhsi nif
rzinred oM
z e
;)' ]
Ġsre ifidom
Ġdeni mreted
eludoM gN
G MI
!&& )(
O pg
HI gACIgACIgACIgAibc
^( /:
Ġre hgih
noita nitseD
/../../../.. /..!
Ġdna pxe
nial P
Ġdes secorp
revO si
64 9
æ ¼
tnenopmoC dluohs
gM XZ
sridVsridV sridVsridV
di g
elba tno
noita lopretnI
23 9
R L
l pmt
Ġs pam
TS E
40 9
j Lz
o ned
Ġx t
bs F
Ġecruo seR
w y
tni rps
gACIgACIgAibc JHX
rr rr
U g
Ġa ud
91 9
m bu
! {)(
cu l
Å Ľ
tc nuf
+" ?
ãĤ ¿
dI epocs
03 8
Wd vJ
Ġna em
pma lC
noitcej nI
deti siv
esi rp
{); ;
ĠER EHW
áŀ ļ
da d
htiW dellaCneeBevaHot
edulc snart
Ġsec idni
dIyB dnif
Ġgnita dpu
Ġ ytreporPenifed
des salc
sa rtxe
ya dnuS
," +
weiV si
tne caj
sreg girt
eulaV porp
elb itapmoc
K L
è¯ ģ
' `
ç ¿
Ġepa hS
ec orP
Ġre bm
reti rC
detcepxe nu
evitimirP si
tneserp eR
;)" ?
åĬ¡ æľį
emarf yeK
snoitat onnA
{ '(
rop snart
des pale
ãĢ Ģ
( ;"
nu rut
lli p
EDI H
S TNEVE
Ġ3 00
sbmu rc
gnisraP lru
W aw
Ġta yaw
Ġedoc inU
eulaV etadpu
$ "[=
(? ))
_ *
i ka
waR teg
tne dneped
à½ Ĥ
å¾ Ĺ
lusa r
moD teg
: ]"
Ġnak k
rebiF nruter
Ġilau cek
A ic
f S
su p
& /(
cihpargot raC
Ġ ita
Ġ/ (
ĠÙ Ĺ
y sub
)" +)
cQ NHU
1 69
tnemelE tes
redne S
mu h
sE UQBF
Ġs reldnaH
ggub ed
zNXYs NGI
p rahS
rorrim edoc
s daolpu
ycne uqerf
sj edon
dic ni
rebmev oN
Ġd egrem
V L
dnE noitisnart
s dra
à¦ ķ
Ġgni dnuob
P d
Ġeman tsoh
x Z
,) ++
du m
gc mbp
T b
y o
eu nev
Ġseni mreteD
edoC rorrE
Ġs raey
Ġ kcaB
",] ]"
Ġnaig abes
htnoM CTUteg
Ga z
è ²
rid daer
N q
åĩ »
Ġtnil se
Ġs et
Ġ woH
ìĽ Ķ
." "=
i Kg
( !=
etaD ot
emiT tratS
BF I
Ġb gr
Ġa dna
çĽ ´
Ġ tceteD
la tad
åı ª
",]" "[:"
Ġyti lauqe
xednI gnitrats
w i
edoN eerT
x h
Ġs tats
hc S
Gb ph
evoM esuoMno
su J
GXv oCI
y ni
s revres
noitisopmoC no
Ġsi h
zFGb j
Gb hN
Ġs enifed
xe n
zi uq
noc ivaf
dna suoht
D AA
ni h
Ġse xedni
à¦ ¨
s raB
el dI
metI mroF
Fm L
s htdiW
etatS txen
Ġeno hp
BFUR sI
Ġedoc ed
f Y
ci rt
Ġel cit
$ {)
yrella G
ylluf sseccus
Ġ lennahC
32 0
dep pots
T EM
ka pa
lu pinam
eu d
t ecaF
å Ķ
ĠoÃ£ Ã§
93 7
=] )(
yad oT
D TS
åĿ Ģ
Ġeta R
eeb gi
Ġt eL
Ġd erugifnoc
okc eG
edoM tcejbo
Ġeta dilaV
Ġpe eK
gnis rap
epytc od
Ġi gna
xob txet
re ziser
U K
Ġti g
esraP syadkeeW
Ġd us
{,}] }"
gAibc tTK
redoc nE
Ġsemoc eb
be sid
xSW BFUW
esi ouq
ĠS U
ĠĠĠĠĠĠĠĠĠĠĠĠĠĠĠĠ ĠĠĠĠĠĠĠĠĠĠĊ
fo ecnatsni
res opmoC
emar FI
Ġpo oL
noidroc cA
**************** ********
nomek oP
kcolB teg
,)" ]
sel as
to k
U e
12 0
TES FFO
+ ,
ETAC NOC
B h
Y gQ
/ ?)
05 05
aot b
g W
DM C
scits itats
lt R
QAAEAABA QAAEAABA
ar c
Y RT
st eS
: ?((
Ð° ÑĢÐ
Ġe bu
;) ","(
Ġi sa
Ġos lA
tooR si
Ġsav naC
XZ kF
vJ nc
( }"
F Gc
w u
evitca nI
ig c
Z n
dlihC tnemelE
emaN elbat
94 8
esua lC
og nom
Ġtna tsnoc
p P
% (
ded debme
lacitreV si
cQNHU zB
BCIux lbc
itluM si
ĠTRO P
Ġ ÙĦ
Ġre daeR
ÐµÐ ±
FO E
Ġxif fus
Ġi g
Ġne viG
à³ į
Ġde kcilc
C NUF
Ġrev ene
f X
ĠĠĠĠĠĠĠĠĠĠĠĠĠĠĠĠĠĠĠĠĠĠĠĠ ĉ
htdi we
nblR nbvN
ore pmem
Ġ ÏĤ
\\ *
Ġ,}" )
ÍıÍıÍıÍı ÍıÍıÍıÍı
xednI tesatad
noitac ude
X sixa
tac noC
_ []
sa t
b dognom
elbisiv ni
raeY fOyad
st oor
nogyloP itluM
-- "
RF NI
efasnU colla
d pU
(:) )(
$ ":"
tel tuo
O pA
sa ib
g y
fI worht
g od
i ci
s nur
sret tamrof
ĠRO NOD
+ -
y kcitS
Ġ9 11
ehcaC tsiL
Ð¸Ð ¿
yLv QHX
Ġralu gnA
C duVWb
LL OC
noitarip xe
86 0
d de
sbmu ht
D c
ac il
Ġta fis
epytotorP rotaretI
¸ ë
gACIgACIgACIgACIgACIgACIgACIgACIgACIgACIgACIgACIgACIgACIgACIgACI gACIgACIgACIgACIgACIgACIgACIgACIgACIgACIgACIgACIgACIgACIgACIgACI
tesffO enozemiTteg
paM srtta
cifi ngis
melE cod
KO OH
Ġtahil em
Ġs noci
"( (
Ġa na
É Ľ
det roba
LA F
ĠemaN tneve
paM vne
éª Į
XZ r
æł ·
Ġ' ]
L EN
ĠemiT trats
è¯¯ éĶĻ
N P
åİ¿ æ²»èĩªæĹı
j S
noitacerp eD
ET XE
tu ki
Ġyl suo
ãĤ ī
\. \
Ġd evieceR
Ġev re
æĭ ī
reffuB etaerc
Ġd ev
noitisoP lanigiro
áº £
,'ðŁ ĳ
reg gubed
gnip pilc
ka eps
di rb
Ġs tcejbO
po h
dri b
- ,)
C ER
thgiR redrob
lm d
æľ ª
Ġnaksale jnem
deg gard
Ð¾Ð Ł
äº Ķ
543 21
Ġdek ram
ĠRO RRE
Ġ ytilibitapmoc
Ġ FI
yad noM
"{ ,
nam eS
z X
àº ²
erus olc
âĪ Ļ
fO dne
Ġreg etnI
",, [,]"
12 7
tluafeD tes
emose wA
despalloC si
Ã ¿
/. ",}
B r
TN ERRUC
re ir
Ġ tcelfeR
lL tZ
Ġmumi xaM
í Ĭ
Ġs ksat
Ġne d
;' .
+] .
% ","
ti L
Ġna hu
ka lid
Ġdetcepxe nu
s lmZ
B c
Ġ, $$
FUQ l
eh x
K H
C dcRHX
è® °
56 9
ãĤ ¦
pU esuoMno
htro N
pa eL
Ġllif ylop
elc yC
elbatum mi
xiF porp
tnemelE toor
gifnoC hctapsid
t ecaf
rene ewt
s emag
se xoB
93 8
è½½ åĬł
ul h
del lortnoc
ul Gb
è¢ «
ELU R
ç ħ
dlihC wen
( ,)(
Ġdesu ap
ep olev
seru txeT
Ġgnita olf
dnal sI
,)" ","
51 51
Ġweivrevo elif
nU no
DLI UB
å® ĥ
hc op
de ngiS
MA RF
nez orF
NRET XE
p VX
et l
AA AC
tcet orP
Ġ, }}
Ġi ah
ste ehs
Ġts ap
BFkQ p
n Ã³
24 7
lp T
S n
egnahC etatS
9917 009
v H
ET IR
d ele
58 9
deifi nu
AN ETACNOC
c zV
Ġ PA
Ġ Ð´
ssalc repus
yfi ceps
: ][?
C DM
ĠDET ANETACNOC
mu ereht
snommoc evitaerc
yl F
koob yrots
ĠedoC rahc
RXZ n
s epahS
( /*
yB puorg
TL G
e ngil
AA u
(:)) "
gni netsiL
CIH EV
NA I
enohP i
." -
des secorP
skVQB lFL
p tf
noitca er
retta cs
}) }}
yVGZ y
UQB N
dI ppa
thgiR ecuder
?) )(
Ġti gnal
2 89
Ġ tnemugrA
Ġla ed
tcirtS si
S s
Ġel poep
gni wohs
,' :
ffo w
R SS
)" .
elba iler
SNE S
;` >
s retniop
sj nolybab
A a
eno to
der ised
78 0
tcejbOX evitcA
ma D
f y
ff c
Ġhab me
rev eR
pac u
selcit ra
Ġ ðŁ
sel dnaH
ff ot
Ġret timE
ylia d
Ġx iF
retpa hc
m C
04 7452
,)( }})
Ġ5 73
tseuqeR ptth
X xam
Ġ+ "
1 67
ct U
Ġmets yS
teS kaeW
erp s
nottuB dda
n worb
la P
Ġnoit pac
strahc hgiH
HCRA ES
tes ataDteg
tlu m
Ġre hctam
lmc jN
tce y
\[ /
L EVEL
96 0
tob or
( ~~
tsa E
ddA no
P Z
egnahC nO
Ġs lauqe
rekc od
Y lJ
Ġec irP
å¤ į
,]]" ","
"," âĢĿ
F DFu
(( *
ed ahs
Ġa pu
metI tamroFetad
Ġs noisnetxe
ÙĬ Ø§
x O
Ġ ca
z T
z D
99 8
no K
no gard
ef m
âĢ ¢
elbamus noC
Ġdesu ac
Ġat leD
N M
iler ua
GX p
nru f
N XL
æī ĭ
elbaT n
bmes sA
B b
derev oh
laitne nop
( ":"
edoN sucof
ĉĉĉĉĉĊ ĉĉĉĉĉ
mus noc
047452 9917009
[,}} })
elba tS
xoB Bteg
ytica pac
DC AA
ngia pmac
cnysA si
sredaeH esnopseR
deifi rev
z S
ĉĉĊ ĉĊĉ
etatS verp
ĠdI resu
Ġayn ta
Ġeta luclaC
isne S
_ ,}})
,) `
noi nU
Ġp iz
. "\
Ġeso ohC
E g
hcra M
pm es
q inU
me es
æľī æīĢ
1 60
7 90
Bi P
ĠhtdiW enil
s nel
yhturT eBot
ra uQ
de hctaM
â ī
Ġro jam
Ġder ongi
z h
su nob
id er
Ġro n
sse nra
cp J
de yalpsiD
BFUQ F
va f
f dc
tohspanS teg
K CI
Ġn it
Wam VGZ
Ġas od
^[|.\\ \\:
ER G
Ġe nu
SERU DECORP
88 0
tcennoc er
neref erp
v F
ĠthgieH tesffo
V Wb
y da
nA SP
:?( *
citsa lE
S YEK
e et
epyT xdm
litU moD
0000 02
tnevE o
," __
ĠĠĠĠĠĠĠĠĠĠĠĠĠĠ ĠĊ
etal fed
ECALP ER
EL DNAH
etaD CTUteg
lN HbhZ
ena L
ediH no
niat niam
if a
sro tsecna
et g
... ,
elbasop siD
ataD draobpilc
1 89
Ġre hctaw
evaeL esuoMno
seitiliba paC
d tna
," ,"
,)}} })
pu t
% =
I NU
Y W
esahc rup
netxE si
Ġelddi m
y j
snoitca snarT
Ġdezi lamron
txetnoC dlihC
Ġla uqE
evitca eR
25 9
xx x
Ġnwod porD
Y NAM
Ġla r
iu E
tnemmoC si
hsaD ekorts
xm Y
sepyT txetnoc
ĠyeK lrtc
eulaV sah
ĠÃ «
q R
yf itnedi
)' .
AC d
a dapek
ci suM
det eleD
s noiger
gw iIc
HCA TTA
jL x
Ġgni lbis
æķ Ī
B XY
eni feR
yeK etavirp
áĥ Ŀ
Ġ,' '(
tsu guA
B yb
nit sid
a ilerua
Ġ' ;
Ġs dohteM
ud ortni
TNO F
Ġs tnemmoc
ward htiw
ãĥ ©
Ġitu kignem
Ġ nois
ren naB
Gc z
sro dnev
Ġrotac idni
;) >/
eludoM teg
eva W
v g
ch J
bu lc
DFUQD xiQ
_ )
rev mes
á ģ
ãģĻ ãģ¾
H TI
epyT edoN
nigirO ssorc
Ð £
se ert
ecna relot
tnevE time
Ġo ediV
por C
s draC
LA C
Ä Ĺ
Ġ kcarT
Ä Ļ
ĠsoP rruc
na L
ll ecnac
evi sulcni
w L
tnevE egnahC
o zc
z j
,"â ī
Ġ tcartxe
enil nO
N ET
gni ziser
Q P
X QBJ
mu l
í ĺ
tne i
a il
en re
Q WZ
% /
na eb
Ġre krow
è¾ ĳç¼ĸ
xe Hot
__ {)
à¹Ī à¸µ
pu or
Ġssec cA
s LRU
re loT
emaN epyt
H R
Ġnakata gnem
ĠĠĠĠĠĠĠĠĠĠĠĠĠĠĠĠĠĠĠĠĠĠĠĠĠĠĠĠĠĠĠĠ ĠĠĠĠĠĠĠĠĠĠĠĠĠĠĠĠĠĠĠĠĠĠĠĠĠĠĠĠĠĠĠĠĠĠĠĠ
æĶ¹ ä¿®
htdiW tfeLredrob
d ps
+"_ "+
revoc eR
q p
raV lacol
de nepO
Ġlautr iv
Ġarac es
Ġda B
5454 5454
&& _
pa p
ATAD C
l Gb
ib yVHdlJ
DO N
suoiverP teg
Ġtne gA
elytS txet
Gc wF
å»º åĪĽ
Ġt hgu
ĠĠĠĠĠĠĠĠĠĠĠĠĠĠĠĠĠĠĠĠĠĠĠĠĠĠĠĠĠĠĠĠĠĠĠĠĠĠĠĠĠĠĠĠĠĠĠĠĠĠĠĠĠĠĠĠĠĠĠĠĠĠĠĠĠĠĠĠĠĠĠĠĠĠĠĠĠĠĠĠĠĠĠĠĠĠĠĠĠĠĠĠĠĠĠĠĠĠĠĠĠĠĠĠĠĠĠĠĠĠĠĠĠĠĠĠĠĠĠĠĠĠĠĠĠĠĠĠĠĠĠĠĠĠĠĠĠĠĠĠĠĠĠĠĠĠĠĠĠĠĠĠĠĠĠĠĠĠĠĠĠĠĠĠĠĠĠĠĠĠĠĠĠĠĠĠĠĠĠĠĠĠĠĠĠĠĠĠĠĠĠĠĠĠĠĠĠĠĠĊ ĠĠĠĠĠĠĠĠĠĠĠĠĠĠĠĠĠĠĠĠĠĠĠĠĠĠĠĠĠĠĠĠĠĠĠĠĠĠĠĠĠĠĠĠĠĠĠĠĠĠĠĠĠĠĠĠĠĠĠĠĠĠĠĠĠĠĠĠĠĠĠĠĠĠĠĠĠĠĠĠĠĠĠĠĠĠĠĠĠĠĠĠĠĠĠĠĠĠĠĠĠĠĠĠĠĠĠĠĠĠĠĠĠĠĠĠĠĠĠĠĠĠĠĠĠĠĠĠĠĠĠĠĠĠĠĠĠĠĠĠĠĠĠĠĠĠĠĠĠĠĠĠĠĠĠĠĠĠĠĠĠĠĠĠĠĠĠĠĠĠĠĠĠĠĠĠĠĠĠĠĠĠĠĠĠĠĠĠĠĠĠĠĠĠĠĠĠĠĠĊ
s weN
tned tuo
evitcep sreP
æī §
k n
ç« ¯
ìł ķ
Ġna mrif
oT tes
{ ,})
k SZ
reti m
} >/
ru taS
DN ER
[ ))}
s tcartnoc
ecnu oB
/ -
ĠE DOC
Ã© d
Ġbab es
$ #
Ġc exe
deta luclac
;)] [=
yalP otua
pxE ger
lacoL si
Ġi D
iw VP
seirt nuoc
- ||
gQ H
og la
\| +
tpec noc
{ }
se hctapsiD
sna idar
pam tib
z C
tsu c
ytila uQ
Ġnaknuru tid
lu dom
Ġb mu
Ġyllac i
à´ ¿
éĻ Ĳ
rebmuN nmuloc
Ġ;' \'
X x
k sid
Ġ @
q b
lasop orp
rb C
nI ngis
ruo ivaheB
Ġdi uu
TES ER
detroppus nu
no h
yeK si
Ġ` '
s evoM
ĠRO TOM
dnE noitceles
Ġyllac ip
yl rednu
ta P
de ngissa
Ġ( ]
K v
Ġgnit luser
ci V
{,}" .
tu hs
emaN lluf
ba s
mu t
Ġhguo ht
/ {{
ãĥ ķ
Z N
thgiR pord
yZ ul
Ġ, ++
lairotu t
edoN morF
u ka
Ġ] )(
tnioP xm
tT QBF
nY ld
Ġ noitacifiton
es lup
emaN noitcnuf
( {)(
cs FmZ
edoN dlihc
yt ilitU
86 723
Ġts oH
Ġnoita tum
es ruoC
A b
u lav
GI lhGd
J T
âĤĴ âĤĴ
lcct HI
Ġ7 6666
Mw oh
EG NI
Ġek iL
Ġyorts eD
Ġida jret
G ag
4 80
ä» ¬
ĉ ĠĠĠĠĠĠĠĠ
ra eb
sla bolG
× ĵ
//////// ////
tsaL si
p y
E PACSE
o deR
BH ch
\ }}
v noC
sdnuoB teg
alli zoM
Ġ FF
ro irp
Ġrevres bO
nigeB trB
| :
eliF etirw
sedoN dlihC
lluN wolla
ylnOdaeR tes
XY yJ
eulaV ledom
à¶ »
) ;]
srenetsiL llAevomer
33 60
u rt
sru hT
.- ,"
Ġtil pS
citsa le
Ġs tnemucod
Ġna ma
q M
la nosrep
45 9
J ORP
Ġdengis nu
" ,)]
Ġnoita erc
{,} {,)
ĠsporP oT
deifi lauq
Ġ PAM
LA CS
Ġdrow yek
egua g
ç ·
kcab yalP
ĠĠĠĠĠĠĠĠĠĠĠĠĠĠĠĠĠĠĠĠĠĠĠĠĠĠĠĠĠĠĠĠ ĠĠĠĠĠĠĠĠĠĠĠĠĊ
dneS erofeb
/ @'(
z k
namrif reb
E ROTS
fa n
44 44
citatS si
, /}
+] ]
roet eM
V O
deri pxE
Ġ kcol
Y llorcs
yeno M
s raeY
Ġde kcehC
Ġma eT
ir g
YA P
q I
tnioP dda
da g
yortseD erofeb
Ġ ĉĉĉĉĉ
res opmoc
/../.. /.."
å ³
rebmuN eniL
tnI ot
vJ nZ
rettu G
Ġgni retlif
tna hc
r ht
hc i
,))} ]
DD D
anl WZ
ç´ ¢
q g
Ġ ~
Ġnak pa
Ġre kciP
reldnaH tneve
Ġdus kam
_ {=
la id
sI er
CI GOL
( <)
Ċ ĉ
dec erp
srepleH lebab
_ ,})"
gniht yna
ksam tupni
ht iffi
b ed
rebmuN ssc
e ad
noit oM
;' )'
retfA no
ĠemarF noitaminA
snoitpircseD epyt
li T
rq S
ĠĠĠĠĠĠĠĠĠĠĠĠĠĠĠĠĠĠĠĠĠĠĠĠĠĠĠĠĠĠĠĠ ĠĠĠĠĠĠĠĠĠ
PS ER
tsiL teg
pi M
{,} })}
Ġ hca
de tsurT
gni dliub
æľī æ²¡
hc nip
Ġapa reb
D W
FC DFu
HC TAM
Q Y
65 9
AS R
elt tab
;} })(
yticapO elbahcuoT
}) }})
nahc em
Ġgni gnahc
Ġ8 02
la tnemirepxe
SU COF
EU V
sweiv erp
yca rucca
Ċ ĠĠ
ts etaL
,)])" ."(
rexe L
573 9
LA COL
BA I
dI resU
-= -=
mi hS
mb hh
sVXY mVGZ
EL PMAS
stes erp
Ġo id
evomeR no
Ġema G
nottuB nocI
ÛĮ Ø§
," ãĢĤ
Ġm ret
Ġ6 71
gna d
/< !
æľŁ æĺŁ
ded nE
XZ s
\ --
la noitcerid
è «
dna S
oT noitisnart
ITNE DI
8 512
Ġ âĢĮ
ÙĪ Ø±
lN Xd
==" ]
æı Ĵ
ssalC ssC
Ġd ecalper
{] %
w W
ë ª
NA P
^( "(
eni p
reff O
y rre
Ġ liat
Ġs tcepxe
YhB nYld
X C
a ca
noisi vid
tf arD
Ġdlo b
Ġs ecruoser
åį Ī
01 9
k AA
,)" )"+
Ø£ ÙĦØ§
Ġ pus
WY u
' !
G KgYWa
m th
åħ ¬
HFUQH xyQBF
/************************************************ ****
pudih ek
ĠkcabllaC rO
çī ¹
htiffi rg
L ER
elytS enil
à· Ĵ
Ġsu lp
Ġemit nuR
NRET TAP
J E
eiv oM
WZ g
/\ )
l vl
gib ma
Q n
oT gnirtS
llA llup
j T
EE EE
SS SS
ataD motsuC
Ġecner effid
97 0
noita tnemelpmI
Ġk roW
tnuoC edils
U Wbh
01 00
namo w
D p
Ð½ ÑĥÐº
Ġ)( ]
;) ))"
2 79
ĠSSER PXE
em il
tcejbO na
Q W
ton na
Ġeni gne
: ","
Ġs eldnaH
sa C
;" "||
J m
s mrofinU
reyalP TY
Ġre fed
å®ļ æĮĩ
Ġgniv om
[ ?]
sisah pme
07 91
dehc attA
)] )
FUQCl GL
tnemelE MOD
j v
elba niahc
il op
Ġg mI
htiffirg dm
à° °
MOT TOB
sporP ssc
tm ts
X IM
yl etaidemmi
lrU egami
tceRtneilC teg
Z B
e fiL
nA CL
æ¡ Ĩ
Y b
pO ruc
Ġxif fuS
æĻ Ĥ
Ġnupu am
Q sQ
~ "
Ġ" [
Ġx aj
n tal
Ġs neppah
gni nem
LA ED
tesffO wodahs
Ġma lsI
H G
UQ D
etaD esrap
98 0
Ġpu kool
__ ,)
Ġc epS
da or
dlihC ecalper
pme xe
Ġ kcip
Ġs rav
elcyce fil
ãĤĭ ãģĻ
la og
gola taC
WdyR HI
< /=
Â «
Ï ī
Ġgniyra v
EM OH
snoit pac
? *.(
j n
yd l
nwO rof
emoc lew
lrt CI
weiV tes
>>> ]
sti art
% .
p puS
DFUQD xySBF
cv B
relif orP
retnioP SM
Â Ĥ
% ":"
l ep
07 0
1 003
ar i
Ġ1 202
lN mb
ni arD
nret xe
Ġst pO
retnE esuoMno
52 01
++ ++
Ġreb iF
32 8
( |)
Ġp ikS
Ġseta tum
snoitpO tseuqer
oo oo
GNA L
eg rat
Ġs DI
Ġs egde
Ġna v
Ġrota lumucca
ĠYT NARRAW
bp N
xC T
Ġmer oL
YTILI BATNAHCREM
ob oR
Ġera hs
egk CI
00 52
po oN
éĹ ®
Ï į
regne ssem
se hcnarb
Ġy yyy
IT L
itna tsbus
ä¸ İ
ĠNOITCE NNOC
yaD tsrif
AI DEM
ulh kam
sepyT leveLpot
ĠP I
è¡Į æī§
reganaM tneve
EGNI RFNI
k yJ
xednI baT
Ġyt itnedi
op xE
op ot
rorrE dda
"( )]"
sed oM
M XZ
ĠS GNI
w er
ytisne tnI
+ '=
.] )
yF G
Ġyllau su
Ġev il
dleiF atad
spac ne
bmurc daerB
Ġsnoit rop
y os
æ ¦
Ġnoitu loser
è ³
go DI
Ñĥ ÑĢ
- ":"
TNEM EGNIRFNI
tid ua
Ġrevene hw
derev oc
j s
K U
m Vmc
IT M
delu dehcs
mbpZ WZk
68 9
à¸£ à¸²à¸
es rucer
Ġla ha
Ġcny sA
á ł
uqer F
li c
yfi nim
yalP nac
s noitcelloC
Ġs tegrat
64 8
Ġreht O
0202 0202
ç¬¦ åŃĹ
å¼ ķ
001 0
Ġyb ereh
Ġre ifitnedI
Ġ3 61
ru ta
Ġ" +]
hgu or
s keew
ĠnepO si
C CA
R Xa
Y wolfrevo
{); ;(
rer olpxE
k eK
å® ģ
dI meti
, _:
htaP pilc
ec reoc
nru T
s od
R CI
K D
Ġhsa d
eruta n
*) .\\
Ġdnoc eS
Q z
ahc tpac
41 21
etatS revoh
Ġdeta mina
11 8
Ġrota retI
oRH Zp
Q v
oT cnysa
Ġnagne D
ĠlrU esab
sc nuf
noitazi lacol
13 9
å§ĭ åĪĿ
Ġdo irep
ç´ł åħĥ
el im
Ġ] .
emaNeliF xsj
X s
Ġy hw
Q u
b eb
sehcuoT tegrat
P ORP
pec noc
yps llorcs
keeW fOyaD
Ġeka f
Ġs gni
lwar b
deta dilav
rem ylop
ÙĬ ÙĤ
j f
Ð¾Ð ·
sgnippa M
ste ehS
Vf gACIg
ep irtS
Ġta l
Ġrevres bo
Ġesop xE
Ġb oj
notelek S
lrtCI UG
Ã ħ
yal er
teS eluR
áŀ ĵ
Z g
V Wa
ci goL
ë ı
elbayap non
ni rP
Ġd eteled
.\ :?(
Ġre dliuB
Ġ noitcudorp
Ġ grAsiht
puteS xaja
ĠtxeT sutats
n worht
:)) })
lwar B
{ ,)(
laic oS
L yVGZh
etadpU tnenopmoCdluohs
QBAUAAFAQBAUAAFA QBAUAAFAQBAUAAFA
çī ©
tluafeD tropmi
Ġs ol
latoT teg
**************** ****
åĿĢ åľ°
Ġt ve
el ohw
yra unaJ
geS htaPGVS
snruteR taht
Z lJ
Ġts etal
eni hcaM
WQBF GL
Ġyl tcaxe
- "?
b ff
jl GdhR
sna pS
erut xiF
s htdiw
ecne tsisrep
Q U
dracdliW eriuqeRporetni
Û Ĺ
Ġnak hab
", $
oem iv
Ġeno Z
ĠxednI z
ĠTU P
sruoH tes
ren nacs
Ġtsuj da
riah ssorc
V Gc
Ġy s
s mc
Ø© Ø¹Ø§
elbamusnoC ot
eve irteR
ka j
BCIgAibc JHX
se a
xE no
won s
tnes noC
i mub
ec udeR
slobmyStamroF tsiL
epyT s
pir T
ĠdilaV si
Ġs evomer
etaD nai
emaN yalpsiD
cf r
ç» ı
edoN gnisraPlru
Ġ Ð°Ðº
lm b
tceles itlum
,))" ",
VGd u
txeN no
wodahS xob
Ã ®
. [,]
è º
Ġs dnammoc
Ġi rebid
BF u
pirtS htiw
Ġ!*/ (
o gA
Ġdezi ngocer
gniv om
k siD
F a
ita pmoC
eva ew
dnep sus
J N
ĠLRU PLEH
Ġ noitcnuFsi
snoita reti
WQB VGL
Ġ= &
ep icer
ãģ Ĥ
tseT rts
25 0
Ġay nra
Ġid uhaY
da c
par f
ĠxednI detceles
iw VZ
Ġecaf retnI
UP C
Ġeru t
dev oM
ĉĉĊĊ ĉĉĊ
K SAM
T EN
EL BUOD
sel pmaxE
e il
# {{
fi u
oT dneperp
65 4321
yortseD no
çľ ĭ
K b
Ġ hs
ë §
srab eldnaH
{,} })"
dnE trB
elbisiV teg
epip nu
æ¯ Ķ
æ ħ
c ef
puorG si
smaraP yreuQ
det revnoc
u ma
di oV
.) ]'
ha su
GU LP
22 9
Ġu k
< "=+
ledoM weiv
emarFnoitaminA lecnac
WOL LA
Ġetirw revo
j orP
===" "||
Ðµ ÑĢÐ¿
NO PSER
etulosbA si
(: )}
Ġro irp
esolC eldnah
noitamrof snart
ro pmeT
æĸ Ń
ĉĉĉĉĉĉĉĉĉĉĉĉĉĉĉĉ ĉĉĉĉĉĉĉĉĉĉĉĉĉĉĉĉ
ĠĠĠĠĠĠĠĠĠĠĠĠĠĠĠĠĠĠĠĠĠĠĠĠĊ Ċ
Ġralu citrap
Ġdeb me
Ġtapad ret
2 80
l loC
EL GNA
noitc id
,)} {=]
edoN txet
P W
del liF
gw tahw
.)" )
r gim
Ã ĳ
xe nk
oreZ si
eno T
eka ns
f reP
æ ½
kram er
su neM
Ġl x
55 55
hsi f
åĬ Ľ
or rus
Ġse ificepS
eta rapes
b oB
LFUQL xyQBF
Ġmuleb es
Ġs knuhc
h GI
< {=
Ġ Ùħ
Õ ¸
Ġta ts
ohc e
scit atS
H D
tuoyaL teg
Ġgnil biS
txeT llif
noitisnarT si
SSER DDA
Ø¯ ØŃ
," ",
sx WYj
Ġtekc oS
Ġyfit on
/ '=
|| ))"
bu R
Ġna ranebek
gna h
ataD ssecorp
1 78
\*!************************************************ ****
Ġna su
det time
esaC tset
Ġeca rt
d ecnerefer
Ġs x
Ġpa ites
tcafit rA
Z C
{ ,)}
mor hc
MOD esUnac
demrof snarT
Ġs tnemelpmi
Ġsetac idni
UQBtz QBF
IRU ecapseman
Ġua i
Â ¥
oi liw
Ġelib oM
NUQ Z
{,} ]}
yad seu
m D
reniatnoC weiv
tegraT hprom
h yYf
eu T
Ġpu esuom
deg reM
tcejbO etalpmet
;" )"
à¦ ¸
99 0
==!" "&&
ĠĠĠĠĠĠĠĠĊĊ ĠĠĠĠĠĠĠĠĊ
Ñĭ Ð²
\ })
Ġega tnecrep
Ġla itnatsbus
TF SM
Ġro tcaf
L R
ãĥ ª
TS ID
ä» »
Ġde xiferp
,)]) ","(
hcnu aL
b on
T OT
ne V
Ġnek at
lE teg
Zp J
- ==!
S sI
Ġro tu
Ġyra dnoces
Ġt em
;))) '
_. )(
'( __
Ġra limis
57 86
Y DAER
c bil
ec itoN
tekcos bew
ta oc
ep parf
Ġre cudeR
si vid
eta didnaC
Â º
}} ;)
Ġhan rep
noitaru tas
åĿ Ĺ
nioj enil
nekoT sseccA
dedaol pu
Ġyreuq j
s golaid
Ġdetroppus nU
der or
Ġs repleh
f nI
RO SNES
FFFF u
elytS meti
Ġeb ircsbus
tratshcuot no
htiW erif
! )
v orP
Ġnakia pma
æĶ ¶
àº Ļ
TS UC
eer G
Ġhpar ga
niatnoC ot
X EH
32 7
rotc A
",,, ,"}
rt C
retemaraP teg
Ġs ecruos
Ġc rS
Ġ !(
er tS
Ġs seni
nom en
$ ((
hsad oL
wolfrevo kcats
Ġ4 01
,}" .
Ġa ni
Ġ, $(
ERA PMOC
dednepsu s
O W
Ġyra niB
s ecalp
56 0
éĽ Ĩ
è¯ Ń
ycph Gdo
s ceps
c re
æĸ° æĽ´
J SP
ĠÂ ©
yZu lmc
IRCS ED
ev ird
Ġes oognom
+' -
Ġ} "
******************************************************************************************************************************** ********************************************************************************************************************************
Ø² Ø§
noita rdyH
\\ "=
.'( $(
199 0474529917009
draw er
ereh W
Vmc gACIg
A c
)} }"
eca l
tnetnoc resu
noita uqE
ka s
F Y
081 02
lo D
Ð² Ð°
eh Jnc
Ġtro P
RETNE C
61 61
52 65
ci ba
13 6
eltiT lenap
Ġm ohw
45 0
ĠthgieH llorcs
Ġtnem poleved
ul WY
desucoF si
Ġsu omyno
Ġs rotceles
S by
q Y
y ug
Ġgni ggard
revi eceR
emose wat
Ġ tcartsba
AC M
etalu claC
Ġnoitaru gifnoC
dne gard
_ ,]
- ==
í Ļ
Ġ0 23
\?] -+
hg uoR
sre krow
tne tsisrep
ek raM
ĠS SALC
goj Ic
tt orhT
tohspanS hctaMot
re hti
EI v
Ġyllau nam
thgil yad
% "+
enil yloP
å¯ ¼
YRE UQ
z er
regetnI efaS
epyT tcejbO
Ġs nosrep
ii i
M BI
emaN lluF
ĠtnemelE evitca
1 50
ĠX tneilc
seulaV tes
C W
;)' ,'(
Â ¦
erutare pmet
> })
htnoM nI
rae N
X as
-------------------------------- ----------------
& =
3 50
A BA
noitar gim
ro xah
yarrA elbamusnoCot
sx WduB
yarrAoT decils
Ġ pac
evitce jbO
redro er
Y lh
A d
Ġd roW
)" "
^ [:
Ġded napxe
/ #/
elu keK
0101010101010101 0101010101010101
O n
thgir B
ataD egamI
03 03
nh oj
RU JK
ĠX P
R sM
IF ITNEDI
V D
tratS gard
Ġdeg gol
RE DNER
s rotpircsed
tfeL pot
â´° âµ
o oh
gnit uoR
ìĿ ¼
s evitimirp
V B
Ġ: _
rab kca
",] ]
gyw isyw
yrev iled
Y BAB
sj em
Ġhel orepmem
dep ocS
tnioP edoC
Q x
mbp x
Ġro olf
a eb
hc nup
Ġ{ $
Â £
noita roproC
Ġli bma
a lc
tnem erusaem
SL OOT
Hb l
noisrev noC
yt raP
rebmuN egap
++; (
ĠtneraP tesffo
( ==!"
Ġelba tide
#& '
tluav yek
( "(
JFUQJ xyQBF
Ġsesu ac
6 70
U v
morF evomer
/**************************************************************** ********
AAB k
kc ir
dt L
kcatS teg
Ñı Ð»
p L
Ġ ÙĪ
g X
re i
Ġs tceffe
Sb vJnZ
a rap
Î ²
Ġs na
Ġ4 04
gACIgACIgACIgACI gACIgACIgACIg
cits on
NIFED NU
M XaoRHI
na huT
pa ma
A O
xob loot
:?( '
xSY BFUY
\ ;"
Ġnial es
re G
X llorcs
Ġ) "+
Ġ( !
re oC
enil revoc
TC UR
AA Y
lagel li
$ ,"
Fmc yF
j k
CI RTS
J Z
)' "
Ġse oD
ene b
;}] [:
è ¼
è ©
Ġnaka nas
a uq
Ġs noisnemid
st ratS
;' >"
Ġdl row
p sid
stnem norivne
Ġhi sam
edoN rohcna
elba i
",] [,"
æ ¥
Ġs mees
gY iJ
Ġa hc
DNA MMOC
ra lop
f tt
eltiT tes
å¤ ĸ
QJA UCA
ma s
XXXX XXXX
c st
el oh
ss eug
NOITI NIFED
eg Q
UQ ES
Ġs rebmem
da bi
AA U
93 60
àª ķ
à¸ĩ à¸Ń
ĠepyT tnetnoc
Ñĥ Ð´
s jb
Vm bc
s noitcurtsni
WY lJ
ON RRE
no F
ES P
kV Gd
rosruC tes
Ġ" #"=
Ġgnidoc nE
epyTemiM edirrevo
ic vx
trats rts
Ġmu kuh
etaerC no
a nit
s yalrevo
ka v
epyT retniop
tceles nu
yt t
Ã ľ
ecna mrofreP
kcilC nO
draw kcaB
ec s
Ġgni rif
ret ros
Ġgni niatbo
redner z
Ġegnahc etatsydaerno
peeD si
{)} {=
ek over
emaN ppa
DI euqinu
PX EGER
k Ic
MI NA
s tcepxe
ssenkci ht
sredaeHesnopseR llAteg
egk CK
em em
xu niL
áŀ Ł
tniop kaerB
åħ¥è¾ĵ è¯·
Ġ eri
âĢĭâĢĭâĢĭâĢĭ âĢĭâĢĭâĢĭâĢĭ
Ġre dlo
esu oH
noitam rifnoC
tsera eN
tla s
sbA noitisop
Ġpe eD
00 30
piz nu
lRXY lJ
F GR
,])} }"
)) })
Ġnoita nigap
j G
la noitidnoC
sx WY
zxWY m
sI edon
Ġs evloser
nna b
Ġev res
J I
h oJ
sj e
A RT
tnioP edoc
XET REV
Ġ noisnemid
yad sen
-= &
z o
GI u
sl n
s rabllorcs
ra y
ç» Ł
noitacerp ed
Y etator
Ġyca gel
\ %
qACI g
/*------------------------------------------------------------------------ */
ì ľ
Ġa lu
sA daer
çĶ ±
tv D
R sMUQBNEL
Ġgni b
reg en
è§ Ĩ
Ġni xiM
pU edils
32 9
191 8
"( ?
Ġ,' "
j m
GI gACIgAibc
de tcirtser
ot liam
nia ter
à¦ ®
TNEMU GRA
d eripxe
Ġs p
Ġoc i
ĠO SI
"{) __
ma S
co ssa
å® ¶
eert bus
Ġkrow teN
Ġta ert
BC f
emiT dednepsuS
thgil F
de x
atni remem
ĠYTI LI
Q T
è Ń
noisne t
p Y
TS RIF
LRU PLEH
tneilC ipA
reil pitluM
pinaM mod
po eP
F TLG
X etator
;} }})
Ġ tcartnoc
noitam rifnoc
34 8
Ġ' "'
deta leR
fOepytotorP si
ga th
dleiF dda
ymmu D
edoC rorre
reffuB teg
zNXY sN
rotareneG oTcnysa
]" ",
_ ,)"
al em
æ¯ ı
Ġre wsna
{$` {=
Ðµ Ð¸Ð½
08 61
^[ /(
sserP yeK
Ġro ssecca
ylimaF tnoF
is t
rota nim
ENO LC
esop snart
CI RE
ì ĸ
sj etaerc
j FUQj
! %
noitcennoC reeP
no ri
si seht
14 9
å ¨
secnerefer P
Ġs mele
IT REPORP
;))} {=
w AAM
ti siV
epyT porP
Ġs wohs
Ġmu spi
iclRWYvx WL
$ ?
1 70
gnimoc ni
i ms
Ġhal nagna
s otohp
Wd z
Ġxaj A
'= +
c sim
lm v
ÑĢ ÐµÐ²
GNI DNE
si a
ekiL yarra
Z BF
Ġ nom
dne noitamina
Ð¸Ð ±
Ġs laitnederc
hsa rt
Ġek ac
ecruos nepo
sporP morFetatSdevireDteg
à¤ķ à¤
ĀĀĀĀĀĀĀĀĀĀĀĀĀĀĀĀĀĀĀĀĀĀĀĀĀĀĀĀĀĀĀĀĀĀĀĀĀĀĀĀĀĀĀĀĀĀĀĀĀĀĀĀĀĀĀĀĀĀĀĀĀĀĀĀĀĀĀĀĀĀĀĀĀĀĀĀĀĀĀĀĀĀĀĀĀĀĀĀĀĀĀĀĀĀĀĀĀĀĀĀĀĀĀĀĀĀĀĀĀĀĀĀĀĀĀĀĀĀĀĀĀĀĀĀĀĀĀĀ ĀĀĀĀĀĀĀĀĀĀĀĀĀĀĀĀĀĀĀĀĀĀĀĀĀĀĀĀĀĀĀĀĀĀĀĀĀĀĀĀĀĀĀĀĀĀĀĀĀĀĀĀĀĀĀĀĀĀĀĀĀĀĀĀĀĀĀĀĀĀĀĀĀĀĀĀĀĀĀĀĀĀĀĀĀĀĀĀĀĀĀĀĀĀĀĀĀĀĀĀĀĀĀĀĀĀĀĀĀĀĀĀĀĀĀĀĀĀĀĀĀĀĀĀĀĀĀĀ
dere ffuB
79 02
ĠeulaV nruter
nek rad
,))} }
y sae
/../.. /..
$( $
08 21
BiO z
nigirO mrofsnart
U BE
Ġna elC
Ġs k
ì Ĩ
pm T
eD F
Ġs kool
se xiferp
nois se
Ġd emaner
emaN epyT
Ġdel lortnoc
ytriD si
pi m
P Y
gni niahc
htla eH
Ġelgna tcer
napic itrap
gni dnuor
de nraw
bm A
ge nem
gnit iaW
Ġiba n
X EL
Z R
weiV tnerruc
ĠlrU toor
;)" /"(
tF mchB
Q k
}" "=
Ġtne dneped
qo yL
yB xednI
elba redneR
53 53
Gb sF
W bu
ET M
sre hctam
Lz R
Gctlm bc
ir C
Ġì ĹĲ
ki Ic
sre hctaM
Ġ hctab
Ġs roloC
sec apS
612 77761
_ ;)
okc eg
YpR XY
, >/
[ '($
Ġ HTGNEL
/\ /(
d ff
ru h
emaN noitacol
"," Ùİ
noitacifi rev
ev obA
TS AL
ebir csbuS
;)( ]"
Ġti gid
elacS x
Ġdri ht
Ġi m
@ ","
Ġra en
elbis netxEsi
DNA TS
edoNMOD dnif
Y uF
Ġh sil
,) _
Ġ31 02
ro H
ĠSRO HTUA
Ġlatnoziro H
1 001
N nL
TA C
elbis serpmoc
am lub
"? ]
O d
, .
7 463847412
34 7
tfi l
42 42
c ff
è Ĵ
Ġeta tor
sc epS
;) )))
Ġeta virP
Ġ21 02
Qy ggubr
/* >
hguorht ekirts
Ġ htuA
è¯ ¢
ssergorP no
sloot ro
XZk J
drac sid
s niamoD
eg ACI
sexednI hctam
TNEMEGNIRFNI NON
Ġ grA
ateM teg
x CS
dI elif
Ġdeta reneG
cr c
reht e
Ġeru gif
ssalC evitca
Ġl qs
Ġedon V
à« ĩ
Z V
MU I
;)` })
s tsnoc
Ġ; ++
NA L
FED CBA
Ø± Ùĩ
pm uJ
Ġre wop
egassem no
vi red
!&& ]
R b
erg eD
kcilC elbuoD
mia lC
84 91
Ġ vaN
gi M
egarotS lacoL
mIc BiO
s tcerideR
s nim
ba k
esnecil bus
noitcet orp
noita tnedni
' ":
ic vR
rezi nekoT
@@@@ @
y revocer
na K
de hctab
xeH oT
Ġ Ð°ÑĤ
ka h
% "=
I DI
eert buS
Ġhcti wS
db k
Ġl g
mets y
Ġs kooH
gACI go
OL OC
kc oD
edoN hsinif
ft lg
fi hs
Ġses sap
kx WaoN
Ġtse fi
o oT
~~~~ ~~~~
05 91
xob obmoc
ov e
Q CA
sla miceD
j W
Ġhc teF
E w
sec ir
Gb w
ãĥ Ĺ
P T
bil z
LMTH etaerc
di S
snoita tuM
,}{( )(
âĸĪâĸĪ âĸĪâĸĪ
txeT nottub
yV mY
ke M
WZ S
ul F
etis op
Ġ noisseS
# "\=
'[ :
Ġs ledom
eta reneG
tek raM
vJH c
Ġs gol
hcti h
h Vmc
v itcA
knir hS
ro bal
yna Mwoh
ÏĦ Ïĥ
eda caf
lar tnec
BFkQ t
Y jN
;" ;
ì ĥ
ret ropeR
ka el
tuo goL
NOL YBAB
gACIgACIgACIgACI gACIgACIgACIgAibc
C s
Ġyllacip yt
le T
pu naelC
yB dnif
\( /(
Ġro lod
raB ssergorP
à½ ĸ
icif fus
^ '(
tT RBFUR
ë ĵ
bu nem
Ġtcerroc ni
Ġdeni feD
ne tacnoc
= >"
0000 04
YR RUC
tnapic itraP
âĢ ĺ
q B
å ĺ
na ts
sb h
mI s
# }
ve irter
eni m
sp pA
FI v
elbis secca
Î¹ Ïģ
lu afed
redi viD
US N
, [:
è ĳ
Ġluf sseccus
ka ts
gnil dnah
1 068
Ġba f
elacS teg
Ġ Ð¸Ð»
xi nu
dlihCtnemelE tsrif
Ġh n
de nibmoc
uq il
GET AC
mu kuh
éķ ĩ
elcih ev
ĠSGNI LAED
× ¤
tseh gih
c edoC
g eB
reb o
q d
nI syek
Ġdehsi nruf
w ob
Ġti aW
Ġ` >
DFUQD xyRBF
Ġdu olC
Ġyfi doM
re kcehc
evitis neS
^[|.\\\\: ?((
\ */
.} {
bc b
ll ecnaC
cifi cepS
tna lp
cifi caP
ezil emac
;} }"
sre miT
st oD
Ġ00 8
dne irF
emaN ledom
dered rO
Ġtam kin
d fd
ç ĸ
deta reneG
aj FmY
éĢ ģ
áº ¡
BA u
cel eS
B a
txeT erusaem
Ø§ ÙĦ
ĉĉĉĉĉĉĉĉ ĉĉĉĉĉĉ
DETRO PPUS
Ġsserp yek
Ġnoita timil
Ġ LM
elba llun
cS Z
aerA txeT
o Ã£
ecaps emaNtneve
,) )))
j aw
C du
d or
etadpU lliWtnenopmoc
gnu m
?) ?)
sdne irf
Ġparts tooB
u di
s kcehC
× ¢
mc e
enil ffO
nra y
Ġdne gel
DEG NAHC
åį ģ
ĠemaN elif
ral lod
s noisses
" ;)"
etadpU erofeB
pm b
egaP txen
ehcaC etalpmet
CF R
ETEL PMOC
A DI
evilA peek
lli B
Ġa tik
Ġhc narb
Ġelif orP
é ½
Ġy ehT
zza lc
é ¼
sgni nraW
$ |]
et orp
ecna nif
etac iderP
da s
lia R
Ð± Ð¾
llif luf
j u
æĤ ¨
op S
Ġder rucco
Ġralu gna
mc lR
noitazi laitini
tA detadpu
55 33
Ġap nat
edarg pU
yarrAdepyT si
v C
ĠhallA n
,}] )
v Y
Ġel pitluM
Ġs kcabllaC
;)' .'(
edoN wen
llA parw
mb vN
Ġipa teT
( =]"
ç ĳ
yt itnauQ
esu ffiD
q K
s wolf
Ġel dnub
ei n
s lh
Ġ bolb
hcti P
Ġemoc eb
Ð½ ÐµÐ¼
eg U
ç Į
mi h
72 72
ruo F
yz z
Ġ Ð¾Ð½
Ġirid nes
Ġa L
tces retnI
74 91
Ġgni nraW
tnemelE ot
ĠY B
rotu birtnoc
oira necs
iojI lxWam
metI dda
tna tsni
ç»Ħ æķ°
no lc
elba sucoF
EL I
sed is
GX b
Ġ tceffE
@ `
[( /(
Ġlaic epS
J b
gnil lop
* ,
o poT
HC TU
lbc JHX
G NOL
;' /
TA L
Ġs evitcerid
k X
yl WdxVmc
Ġya wa
Ġnakida jnem
rew ob
$ "[
Ġna kni
xaM evitan
elacS y
ma t
gnirtS yreuQ
yhcrare iH
tcey orp
Y sixa
Hd y
Ġ=% <
eta hw
Xa oR
Ġ Ð¾Ð³
Ġe sahp
_ /*__
Ġ go
ĠegnahC no
Ġ })(
ref ni
c ab
xWdhZ WZk
S a
Ġ Ð¾ÑĤ
+" >'
._ ;})
htgneL si
å¸ ĥ
laV dlihc
srab eldnah
s noitcennoC
Ġl esuo
dohteM dda
," )"+
woR elbaT
Ġs edoc
\} {
EC ER
M K
08 0
Ġd lO
ma id
,' !
ef c
elbatidE tnetnoC
Ġs traP
I G
}}) )(
( ,}
O NE
GI D
bb b
jJXdvN nIsI
Ġret pada
å¤ ´
etu M
Ġda erps
Ġ itra
sop po
roF kcehc
07 02
,)) })"
36 7
lx WR
Ġredi snoc
O c
s dliub
tne b
Ġa sam
62 02
._ ,)
s deeN
p ni
v T
Ġ wollof
ataD egami
I UQER
si k
"\ [
Ġde ir
fO roF
_ /."{,}
P K
V IRP
BX ayN
Ġgni lap
Ġst el
_ {:
Ġ not
sporP verp
emu seR
pih snoitaleR
# "?
ĠH TAP
V SC
eta tum
sbirt ta
y sa
D l
RU OLOC
r ddA
diu U
NIM DA
su g
tnemelE tegrat
Ġser us
Ġgni htemoS
Ġsei reS
\ []
mbp JHdz
l Kq
Ġre tsaf
tpircs on
#& :)(
B W
w BA
ram marg
GX sU
B AAAA
erofeB si
NFUQN xyQBF
(&&) )(
,,,,,,,, ,,,,,,,,
s noisreV
n dm
ataD on
ĠC TU
",, [,]]
o es
elam ef
tsaL detros
eva H
å¼ı æł¼
ç ¶
ecne serp
Y E
na a
Ġgnit tamrof
Ġtnem ngila
åı ³
dI tseuqer
ĠÃ ³
gmi wt
âķĲâķĲ âķĲâķĲ
Ġ, ))"
Ġs ecaps
gA C
1 80
htgneL nim
noita iverbba
Ġtropmi n
00000000 0000
hB HI
seit iv
srenetsiL hctapsid
Ã ĺ
Ġ,' /
Ġ: `
is nes
RU OH
F Q
GZ uF
ol g
s thgiew
GXuxVf ux
C NI
Ġn ru
xy YBF
evis ruceR
Ġhser feR
, /.
Ġt r
,)" ;
lb l
QA BE
Ġnakh atniremem
ll et
Ġetu nim
Ġa teM
) __
yfil gu
esop rup
ĠXP Kn
02 00
Ġdes opmoc
P SEMAN
detu cexe
Ġyfi reV
sna ps
adbma L
" /
Ġs oc
ataD labolg
er o
CZ uV
am em
htdiW redroB
H U
Ġ us
,)) })]
nalp xe
Ġret emaraP
no rac
re tac
yV mb
Ġaner aK
hto ot
é º
Ġnim da
LEN NAHC
emiT latot
b da
ÙĬ Ø±
Ġs la
sed ulcnI
àª ¨
hce eps
tcaxEesraP shtnom
noitaroceD txet
Ġod na
Ġa ts
lauqE sIesab
(:)) )
Ġ llup
pu trats
sti h
m wo
te j
Ġnoc ihpylg
çŃ¾ æłĩ
-- ;)
åħ Ń
@ "{,}
Ġc seD
seca fiu
W c
ser Psi
pU yeK
Ġs reyal
noita erC
Ġada reb
om a
tnerap snarT
s maertS
46 21
krow emarF
v O
"[ ||)
FFUQF xiQ
Ġs yawlA
Ġtne uqes
s rotpecretni
ca a
bi wSX
rel pmaS
tceleS itlum
etaerC erofeb
Ġo ira
etadpU dnA
rot om
Ġde tcurtsnoc
nI rof
enifed er
sporP wen
01 11
x um
Ġ itam
maraP teg
DNEL B
gni niameR
Ġ kcom
\\ )]
Ġ>= //
ded nu
redaeH tes
gib vlGdj
Õ¥ Õ
å½ ¢
e nuJ
coD LMXsi
kci ht
revreS si
RETNI OP
gnili arT
no B
er ehT
ecneref erp
Ġtnu oM
S NI
FF E
S sMUQBNEL
rop xE
DI redrO
Ø³ ÙĬ
sseni suB
ro jaM
ĠĠĠĠĠĠĠĠĠĠĠĠĠĠĠĠ ĉĊ
xaM tes
slobmyS rts
det hgilhgiH
Ġes oohc
yaD lla
Ġgnaroes es
Ġni xim
tesffO kcehc
la K
stegraT hprom
l pmis
gno S
( })(
I zM
nim il
Ð¾ ÑĤÑģ
NOI SS
GXyx lbcJHX
- =!
LP AA
13 40
elba hcaer
ur f
nc lZ
Ġa lli
C elRmbp
UQ Z
oT redner
kram eR
dl dm
txeN sah
Ġ' ['
tnuoM tcaeR
d ecnavdA
q c
tc ip
Ġrab edis
dna rg
å· Ŀ
P ON
su S
ser ots
eci oV
sretliF tes
rekcip roloc
ç¤º è¡¨
si rp
tuo kcehC
+" +
elbatceles nu
EVITA N
.. '
ytica paC
hJ XYw
y RH
mumi niM
tsu r
F c
M na
"\ `
nO si
TEG RAT
3 70
Î ĳ
elbaT teg
DRA OB
ĠÄ ĥ
Ġhc uoT
j x
t ko
nA SbvJnZ
tnetnoC sah
LI AT
ĠhtdiW xam
Ġa rt
suo ena
dem rifnoc
åŁ º
DFUQD xSRBFUR
piz g
èĥ½ ä¸į
Ġeta nretla
tni oJ
Ġla H
lacis yhp
Z U
bu oD
Ġi á»
dI noisses
y xa
RA ELC
,}) })"
ĠemaN tnenopmoc
M Q
ebir cseD
æĮģ æĶ¯
UBE MARF
Â ±
dI lanretxe
ded nemmocer
Ġse simorp
Ġ1 00
Ø ¤
w vu
SJ p
ci latI
Ġtro pmI
na ikimed
htdiW rabllorcs
remu snoc
cy ce
atne gam
å° Ķ
egaugnaL retsiger
[ .]
ĠY tneilc
Â ²
Ġ) "\
ud ortnI
Ġ lum
Ġma et
ĠtuoemiT raelc
,/ +
@@ "[
} `}
Ġde yek
poT teg
esuoM pot
YD ec
," "(
rqS der
,)]) ":"(
NX ak
Ã ²
ua eb
Ġla reves
444 96
: __
= *]
Ġre woL
suomyno nA
å½ķ çĻ»
mooZ xam
ĠtnemelE tnemucod
SER SYS
reht egot
& ":"
Ġgni kool
Ġeta g
dirg j
yra las
Ġta hT
T W
Ġ` )
gaT teGesab
xm Z
X si
Ġksa M
ni ngis
tne nam
$ ;)
ded debmE
ep ot
NOSJ teg
evi sulcxe
á Ī
/. ":"
LRU tcejbOetaerc
nc lV
hctek s
"{,} ]"
Ġit sap
mu d
re hc
yad rutaS
eg am
Ġa ri
002 02
bd v
raB llorcS
& %
Ġ,' ðŁ
Ġba tik
ikim eD
y uB
iv om
om s
Ġer eH
nO dekcolb
kcaB dda
Ġtayaw iR
t xu
s evruc
ĠT RATS
zc q
Ġyf itnedi
p z
{,}] [:
yadi rF
tratS hcuot
woR dirg
m eS
â Ļ
a inud
åĩ» çĤ¹
Ġega rev
resraP ytidiloS
~ |
RU S
Ġylevis rucer
ga es
ERA P
Ġna pudihek
det timo
Ġs egasseM
X neercs
_ {(
a du
,} ][
L D
NI GOL
serg orp
k ek
Ġm htirogla
"( &&)
do olf
Ġ4 03
ç ĥ
ĠD SB
k ed
ç Ŀ
egnahc hsah
resU tes
R Xd
f tnirps
sesser ddA
sruo HCTU
Ġ UN
det timbus
E X
V Ga
Ġgni ru
a iV
EDI V
eteleD no
labolG teg
set enre
à¯ ĩ
{>=)( (=
lN Hbl
Ġder ised
gni lacs
gnip yt
gw Hf
dI retniop
æĦ ı
y luJ
sro ivaheb
})" ",
Ġnoit pircsbus
b fc
eziS knuhc
ZI RO
L ORTNOC
ehcaC tsil
i op
nar F
Ġx c
RA L
noitc er
SE ULAV
à½ Ł
lecnac hcuot
it id
rota lsnarT
ard yh
txet teg
etis beW
RXZyB CIgAibc
ri g
u ks
tnuoc sid
x orp
ek ac
Ġgni netsil
Ġeru gifnoc
relipmoC SJ
Ġ Ð°
ecaps onom
Ùĳ ÙĲ
ĠetatS esu
Ġm le
n taL
v G
jL y
\ ?)
Ġ,' %
ts oob
Ġts esolc
tnenopmoC tnuomnu
æŀ Ħ
CS ED
Ġla noitcnuf
Ñĥ Ð
CA G
rebmec eD
HC TAP
hctef erp
hCI ml
ga hab
G bm
B gA
bm e
Y neercs
su R
Ġgni vas
å· ¦
tsera en
ETO UQ
Ġ6 31
nia G
nois napxE
dn r
at ek
et t
Ġs tnemges
fff du
è ĵ
ra dar
GO LA
RH b
WZ iF
elba tceleS
nerdlihC sah
Y s
tnuoC etageled
pil F
MI RT
)"+)" |"(
.)" "+
le V
Ġy g
Ġ; "+
' ll
gg oT
76666 6
lo nem
!= _
ec id
* ","
," $
sihT labolg
æ ¤
"\ {,}
dnuoF ton
pa eH
noita reneg
,)])" #"(
DA C
I RA
Ø ¢
porP nwOsah
u mi
Ġ}= ?{
eni ps
eltiT boj
na ec
ä¸ ļ
YT M
ĠĠĠĠĠĠĠĠĠĠĠĠ ĉĉ
._ ;}
col lyy
Ġ-- -
ac S
50 21
ãģ¦ ãģĹ
elbatu mmI
a li
é Į
Ġezi laires
}" "
X wolfrevo
Ġeno hP
Ġ3 21
la noiger
noit segguS
nw ot
( /*__
pe eb
nu rr
Ñĥ Ð»
:: */
Ġ rop
Ġs drawkcab
EH CAC
} ]"
xednI seires
nottuB esolc
/************************************************ ********
eulaV tupnI
l ema
esU tsum
èĢ ĥ
Y k
x l
XY RO
VVVVVVVV VVVVVVVV
Q sU
es lu
Ġs nrettap
,)] ))
DFUQDxSSBFUS sMUQBNEL
ë Ĥ
yad sruhT
à¤ ¶
Ġp ih
deepS llorcs
r kcip
sgni ht
j ni
Ġde xiF
cisnirt ni
Ġdep uorg
Ġasa rem
CA PS
gM Xag
D g
hCI mlGI
ru oT
Ġsuo irav
Ġr h
x z
91 01
Q q
Ġeda rg
EVITA GEN
oh T
gnis necil
Ġnakaj regnem
K N
ab id
à¨ ¾
oT edils
feR renni
ram s
Ġtnem ecalper
Ġt la
de ksaM
pU tes
k gna
gni d
ev irD
te i
paM parw
Ġel gniS
Ġak iJ
Ġs nur
gni puorg
:" ,}"
BCIgACIgACIgACIgACI gACIgACIux
de hcuoT
Ġ0 63
fi hS
AI AA
ek aT
nI ngissa
tratS wen
neddi b
R sE
sa M
14 7
drazi W
s thgiL
Ġs labolg
:" =
SLOOT VED
noitisnarT teg
retfA si
ralu criC
u lm
tu pmoC
sita s
Q O
ne dlog
reti mileD
Ø±Ø¨ Ùħ
sti miL
Ġapareb eb
Ġ tcennoC
ä¹ Ł
j Vmc
Ġ," ]
ssalC oT
\[ /:
tnetnocresu buhtig
d eganaM
BSZ zx
REFF UBEMARF
Z F
elbisiV tes
bdv nepo
Q TN
i kal
Ġ revO
Ġi ki
kcabllaC rorre
A si
gnida eL
à³ Ĩ
noita lipmoc
sa N
de etnaraug
/<. >
"[,]" ","
ssel revres
OD U
esiouq rut
yeK yB
gn R
M nb
i de
Ġt eppins
",}]" ",
f du
Ġtuc trohs
Ġe nap
æĿ ĥ
mutsu rf
EL GNIS
._ !(
Ġd n
"\ ,}
Ġecna lab
00 81
, $
af e
J U
Ġdnuorg kcaB
Ġgnik ovni
ra ma
s kcom
IU Y
EHC S
Z t
ehcaC pam
% %
BC dl
68 0
s odot
Ġpord kcab
T g
neno pmoc
O pU
:?( :?(
oiKq oiKq
Ã ī
JH dg
d eru
ne thgil
}} {=
ĠĠ ĉĉĉĉĉ
Ġp orD
GG GG
,)] ]
Ġdet nuom
âķ ĳ
s tuctrohs
(: )]
Ġsti rehni
|) +
p ph
ç ¯
DI S
s tsoh
Ġs kcit
ä» İ
yadseu T
epyT nekoT
Ġelba daeR
sepyT txetnoCdlihc
Ġsec itrev
ollo pa
tm F
etatS tnerruc
EU RT
Ġ 3333
Ġs noitamina
13 7
d etavitcA
Ġylla itne
eu G
Ġ2 53
lebaL aira
nocI gvSetaerc
roloC txeT
/ #
DFUQD xSTBFUT
' -'
re mrofsnarT
sw A
Ġdeti nU
mc vJ
K B
p xegeR
lar tneC
_ :'
Ġdeniat noc
è¯¢ æŁ¥
! ,}
I t
Ġts af
emaN lacol
Ġeta roced
ĠdI yB
gnidi lS
esaC tseT
eeyol pmE
noita ts
weN teg
åĪ ¤
w RO
Ġa tni
Ġdi D
BFkQ r
teSeluR denolc
esraP shtnom
Ġsa p
( ,)})
ydaer lA
Ġs enifeD
sec nerefeR
j t
Ġ) >
áĥ ł
gnit seT
ydaeR no
lmZ u
Ġrets am
Ġsuomyno na
de tsujda
(&& ))"
Ġs reggirt
st nuoC
Ġde tcejer
gg o
nb I
50 61
S GNITTES
rebmuN oT
s lenaP
daol eR
noit roporp
SE ITREPORP
sm id
Ï ĩ
statS esab
yarrA etyB
tpo da
æľŁ æĹ¥
Ġedi vorP
ec I
Ġel bbub
tne gnat
lacis yhP
edoN tceles
LIAM E
Y gACIg
mp b
ra K
am moC
gc XZuB
s gnal
Ġi c
yeK ot
m G
Ġro tsecna
SL LACS
æ£ Ģ
Ġ2 73
Ġnak tu
Ġgno rW
Ġ rucco
im eS
snoitarepo ssalc
ìļ Ķ
zyx wvu
å¢ ŀ
Y q
strop er
è¿ĩ éĢļ
iu t
RE IFITNEDI
tnemucoD tnetnoc
SLLACS YS
yra urbeF
kram hcneb
C teg
Ġtes atad
CIRE MUN
luc if
Ð° ÑĢÐ±
,)} }))
eziS kcolb
dezi omeM
emaN erots
Q p
Ġ)' .
vnE resworB
H SI
"? "
å¸Ĥ å·ŀ
s buS
ema neR
R WZ
tnuoC dlihc
huggnu S
seuq er
Ġa nam
;)" ;
sre cuder
X uMXaoRHI
gu lS
yc na
Ġaynhuggnu ses
Ġnog ylop
h ar
tnI giB
nettalF esab
re hctapsid
12 9
lA QJAUCA
eR teg
Ġru lB
xlbc JHX
;}) })
Ġst ols
r su
Ġnakatpic nem
Ġde xim
redaeH teg
xu uq
s red
epyT si
u ko
ma rG
à° Ĥ
re ifit
ata m
Ġep ip
Ġ llor
Ġetu pmoC
ETIR W
det ropmi
Ġ garD
Ġtik ides
\ "+)
Ġs galF
semiT dellaCneeBevaHot
rekcehC epyT
__ {
kna B
,"â Ĭ
Ã ĸ
Ġs retliF
\\ /
S RET
l dm
Ġ Ð¸ÑĤ
BiO y
TSI XE
nI nur
YlxWZ z
I FI
c cA
;)} ;)
8 463847412
Ġba tiK
vM na
hsa lps
,)} {(
tesffO rohcna
ĠX IF
SN ETXE
esraP syadkeew
âĤ ¬
m bpR
etaD tnerruc
ĠgnirtS oT
d esaB
Qs EVQBFFL
Ġl pmi
il rae
neer gaes
F Ga
.} /*
å Ħ
X p
mooZ teg
denil tuO
Ñĸ Ð²
` \
ir i
metI no
ĠD DA
sreb ircsbus
sMUQBNELJFUQJ xyQBF
sna S
W VU
dra H
ruC si
YT REPORP
Ġlagel lI
ĠepyT esnopser
eueuQ tnerruc
ratS tropmi
âĶ ľ
s ra
Ã ĥ
ro tcepsni
Ġt liub
nwod retniop
lJ WY
à¹ ĥ
A y
EL ACS
ruo ivaheb
Ġda eH
txet nialp
KA ERB
NOSJ esrap
ES O
"( ||
marg ot
Ġyp S
noitpac gif
mialc sid
xi S
rad uas
PO TS
,) __
Ġ5 01
ru et
Ġnaasa ukek
,' /'
ãģ £
65 31
eg du
ud ecorp
LA MI
,}}) })
çĶ »
ĠĠĠĠĠĠĠĠĠĠĠĠĠĠĠĠĠĠĠĠĠĠĠĠĠĠĠĠĠĠĠĠĠĠĠĠĠĠĠĠĠĠĠĠĠĠĠĠĠĠĠĠĠĠĠĠĠĠĠĠĠĠĠĠ ĠĠĠĠĠĠĠĠ
WZsV GI
v RHd
Ċ Ġ
Ġs kniL
ore H
çī Ī
gnitceles nu
Ġ ga
tes crs
åĲ ¯
D k
LO F
na ira
elt tes
eta nigap
eru eh
hcrare ih
ap ic
94 91
eg I
Ġs lc
cs VGI
Ġse ificeps
G FEDCBA
- :)
O U
no puoc
R g
NOI SNETXE
G NO
ku p
tpircsa mce
i mak
lu v
lav omeR
eg girT
etatS teS
nmuloC dirg
Ġdnu os
g it
si ar
Ġ3 41
oRHZp d
P n
siv da
Gb j
sk rad
& "+
is x
ezi laitinI
muereht e
. }}
Ġsetac idnI
Z M
x gn
Â į
ed am
Ñĥ Ñģ
( })})
norhc nyS
;" ":
xoB kcehC
00 31
elba revoh
k laW
åħ Ī
Ġralu cric
lm y
c at
c FA
Ġ' #'
nar G
åŁ Ł
Ġytiv itca
d ecnuobed
z G
te erg
noitisoP lebal
Ġsti gid
nek orb
P b
TNEM HCATTA
ìĤ ¬
æ ¿
ema nepyt
ngissa er
egarev oC
ylev is
DA HS
slooT rO
d ll
oT noitisoP
der eb
bu si
tceles ed
NO RI
,)])" {"(
yllau nam
epyT dnib
ay nmu
\ ,)}
tneilC teg
çŁ ¥
ecna raeppA
sev aw
," ,
pu d
dradnatS si
æµ ĭ
SSC ruc
æ¶Ī åıĸ
\ ;)]
aw retac
DRA H
swor rA
Ġ ffO
áŀ Ķ
x is
ira h
I Q
çļĦ ä¸Ń
la tsop
Ġeti soppo
tfeL tneilc
"[ "(
li Nsi
Ġwolla hs
eludoM gn
EG DE
ç Ĺ
em i
24 9
noit ome
Ġret tam
morF edoNteg
epyt bus
emaN ytreporP
æī ĵ
,)] '
èĹ ı
ĠthgieH xam
áĢ ¬
oca nom
gi r
pa el
fO yek
tnI teg
citsi retcarahC
v W
dnu kes
BV i
snoit pecxe
Ġu nbI
cep ser
enoz porD
sis ylanA
yVmY tV
yJ g
kl Gb
Ġs noitubirt
Ġ` "+
Ġf lah
NWZ oN
f le
og GK
? +.
no y
mi m
nwoD edils
V ITCA
@ }}
Ġ koob
? )}
,)])" }"(
Ġ" }}
Ġtu obA
marga tsni
G AAE
n itaL
ĳ Ħ
rel liF
ĠĠĠĠĠĠĠĠĠĠĠĠĠĠĠĠĠĠĠĠĠĠĠĠĠĠĠĠĠĠĠĠ ĠĠĠĠĠĠĠĠĠĠĠĠĠĠĠĠĠĠĠĠĠĠĠĠĠĠĠĠĠĠ
kni lam
Ġgnic aps
reit terp
sa G
ci nummoc
G e
lu Y
gnidi ls
s kcilc
ht uoS
Ġle n
æł ¹
ĠevitcA si
tiaW xam
emosewA tnoF
a dne
LA H
J Q
xy R
t tes
pu p
eetaretI si
s lianbmuht
Ġ:' )
WQBN GL
\.\:?( +
Y vR
Ġ" "\=
ezi minim
ODU ESP
s reneewt
w RH
lu awretac
Ġs ecivres
SY AD
evitimirP ot
NOSJ morf
Ġ poon
wolle Y
' ;
c eb
ta ma
j r
ti uq
BC E
deldnah nu
evitca er
rob hgien
Ġgni yalp
Ð· Ð¸
40 21
,'ðŁ Ĵ
sedoC pttH
Hb vN
Ġ BN
fd P
ezi rohtua
stnevE SJ
l loP
0000 06
OM ER
retnioP no
rts aot
Ġre timiled
SS S
txetnoC gniredneR
tamroF rebmuN
tep pinS
tnemelE lanigiro
ĠL TR
tv d
Ġ lacoL
Ġta rihka
evitisnes nI
di ls
Ġdaol nwoD
Ylpm YP
enoh pi
wRO BVi
nb lN
Ø¹ Ø¨
ZuV Gbu
pU naelc
roloC enil
Ġv om
nbvN GI
Ø¹ Ùħ
napS ecruos
gnicapS rettel
Ġt ekram
_ =]
gU Eh
s noitcirtser
det ro
Ġdet sil
N K
Ġde nepo
SU B
ci n
Ġda eht
lumi Ssi
e ev
Ġs esnopser
Ġd ecalp
IRU edocne
desi ar
a ed
Ġrep pU
Ġ ve
ba tse
yg rene
reredneR LGbeW
seitiliba pac
[ ||
Ġre ti
tropweiV teg
Ġdewol lof
ataD hcraes
GX ct
USN AAAA
M Psi
Wd j
Ġega ts
",} {(
Ġnak lag
, //
Ġdeta luclac
ytivit isneS
Ġ ff
95 03
Ġdek nil
Ġs etuoR
egk SZ
Ġhsa lF
sp f
Ġdne ppA
ec ila
TS RQ
TNI U
TCE NNOC
ciw FI
torp inu
skooH rtta
edonV tnerap
_ <
â ģ
hcaE yarra
LA UQE
MA I
USNAAAA ogGK
Ġelt til
te ertS
du A
295 8512
ĠrrA si
L t
st rela
tsu lC
aitre ni
noitagaporPetaidemmI si
Ġreht ruf
ê µ
Ġel oR
;}) )(
snoit nem
hta ed
ren trap
Ġturu nem
mo k
Ġ61 4
Ġylla noitpo
YL NO
s BXb
Ġeu lb
ãĥĥ ãĥ
yadsen deW
lE repparw
SSER PXE
Ġthgi eW
ylimaF sah
PFUQP xyQBF
"," )(
gnirtS yreuq
nar f
# |
C f
eta losi
yra ropmet
tnemtniop pa
gUEh USNAAAAogGK
Ġna lub
Ġs looT
ffff x
æķ ´
. \*
ldmb hh
d ca
Ġu kA
ETI HW
am gis
ecna reloT
epyT egasseM
yeK etavirP
par T
àª µ
suB tneve
:)" ",
ss o
secruoseR xm
66 21
Ġi e
dne noitisopmoc
Ġre c
eulaV roF
Wdm BiO
Å ł
llA ecalper
Ġ kcoM
Ġs kcarT
( !:
Ġ noisnetxE
++ ,
etaD weiv
etats pop
/..'[,]' )
wB XY
S TIB
ï¿½ï¿½ï¿½ï¿½ï¿½ï¿½ï¿½ï¿½ï¿½ï¿½ï¿½ï¿½ï¿½ï¿½ï¿½ï¿½ï¿½ï¿½ï¿½ï¿½ï¿½ï¿½ï¿½ï¿½ï¿½ï¿½ï¿½ï¿½ï¿½ï¿½ï¿½ï¿½ ï¿½ï¿½ï¿½ï¿½ï¿½ï¿½ï¿½ï¿½ï¿½ï¿½ï¿½ï¿½ï¿½ï¿½ï¿½ï¿½ï¿½ï¿½ï¿½ï¿½ï¿½ï¿½ï¿½ï¿½ï¿½ï¿½ï¿½ï¿½ï¿½ï¿½ï¿½ï¿½
z y
Ġ. }
Ġtne w
noitas revnoC
nekoT xegeR
ts ev
reh silbup
stnioP atad
emose wa
tnem yolped
tfeL llorcS
Ġs noitcnuF
Ġs eussi
rec aps
ta rihka
stnevE retniop
w X
è ħ
h am
{) __
Ġtes sa
L DS
Ġ LL
R p
ssa M
Ġne i
yl bmessA
ni n
Ġs etats
Ġne erg
-------------------------------- ------------------------
itca rp
yrtnuoC pihS
ê ·
ecnatsnI lanretni
egnahc no
duVmbvBXb vN
pur retni
rtsi nimda
y Fm
Ġs dnuoB
xlbctHI pA
DI O
})) )(
NU Z
dc b
DNU OR
"\,] "\
[,] ]"
ralu cepS
edoNV etaerc
l revo
Ġro hcnA
ira d
ij naj
suidaR renni
Ġti rehni
Ġtaolf n
Ġtak ialam
tnecaj dA
q i
Ġo k
emaN pihS
ĠelytS ekorts
Ġnau pmerep
=== '
metI unem
Ġk at
poo nesrap
noita cil
y sla
dI edon
Ġnaki rebid
GNI DULCNI
Ġnakanas kalem
tupnI txet
tesffO tes
Ġdne perp
-{ %
MO TSUC
yti reves
Ġta b
ru B
ma j
Ġnoita repO
ia M
sreldnaH tnevE
Ġse etareti
* '(
Ġdlohser ht
rehpi C
Û ĩ
Ġ: >
Ġx f
;% ?
Ġs egaP
)} })
mu ra
Ġts eh
Ġ BA
etaD redrO
so da
snoitca er
rodne V
Ġ butS
FUQC tGL
smaraP etats
naid nE
kni lm
Ġredi lS
deeN tsal
tne itap
Ġm elborp
P g
FFUQF xyQBF
ĠjbO eldnah
AM CE
s kaerB
noita irav
Ġ2 01
htap elif
' /
[ \|
x euv
Ġde ifidoM
llaC eetaretIsi
èĻ Ł
- <
å ´
Ġ })'
di f
la noitidart
pu kcaB
TI L
xS X
Å ŀ
/.. /.
ezi motsuc
revo gard
à· Ģ
tcennoc siD
à¹ ĩ
[ {
gni retlif
Ġ tcartbus
yti lacol
ED M
ÑĤ Ðº
s etirps
sserddA pihS
â Ĩ
Ġelba iraV
lami nim
ec iw
Ġ" ]
Ġg fc
mui morhc
[ )][
\\ |]
gaT dne
Ġ NOSJot
Ġtnem ercni
KK K
Ġs cit
091 02
;)" )"
Ġk irysum
dI tuoemiT
tnevE moD
mz t
ni ek
NORI VNE
Ġyl er
Ġpu poP
nwoD worrA
Ġnakk ujnu
rota rapmoC
Ġeda f
AT EM
gni llib
Ġla noita
dep piks
ĠĠĠĠĠĠĠĠĠĠĠĠĠĠĠĠĠĠĠĠĠĠĠĠĠĠĠĠĠĠĠĠĠĠĠĠĠĠĠĠĠĠĠĠĠĠĠĠĠĠĠĠĠĠĠĠĠĠĠĠĠĠĠĠĠĠĠĠĠĠĠĠĠĠĠĠĠĠĠĠĠĠĠĠĠĠĠĠĠĠĠĠĠĠĠĠĠĠĠĠĠĠĠĠĠĠĠĠĠĠĠĠĠĠĠĠĠĠĠĠĠĠĠĠĠĠĠĠ ĠĠĠĠĠĠĠĠĠĠĠĠĠĠĠĠĠĠĠĠĠĠĠĠĠĠĠĠĠĠĠĠĠĠĠĠĠĠĠĠĠĠĠĠĠĠĠĠĠĠĠĠĠĠĠĠĠĠĠĠĠĠĠĠĠĠĠĠĠĠĠĠĠĠĠĠĠĠĠĠĠĠĠĠĠĠĠĠĠĠĠĠĠĠĠĠĠĠĠĠĠĠĠĠĠĠĠĠĠĠĠĠĠĠĠĠĠĠĠĠĠĠĠĠĠĠĠĠ
q Q
rewoP esab
Ġy hturt
s thgieW
la rtu
rekc iT
Ġhabme ynem
Ġ BC
ka T
el gni
ru tas
nurr id
Ġs tcudorp
Ġno sirapmoc
deyortseD si
Ġs egnar
Ġs tneserpeR
Ġs etalpmet
H X
eS n
roloC tnof
Ġit kub
Q DA
reffub yarra
Ġv eD
ll epS
gnippa rW
ES LAF
Ġ tcurtsnoc
relec ca
Ġ1 01
ES AC
Y w
det im
de B
Ġa lib
Ġy y
dI torpinu
; $
si ru
eru Psi
à§ ģ
Ġ00 6
ci mota
B f
Ã ģ
Ġti K
s lliks
Ġter ces
m X
ro lav
,)( })
Ġha kapa
r ret
B z
_ '+
,}] [=
K W
noitcurts noc
{: )
"( !(
"[ [
Ġyti lanoitcnuf
GX sc
lN WY
slebaL atad
(|| )]
mlE tnerap
L RTC
Ġ= ^
ema id
etubirttA dda
yalpsiD ia
Ġ" |
NOISS ES
gni kees
ps nart
nc hR
nosj oeg
." "(
tceR raelc
+"= "+
Ġla itinI
dedeeN fI
nekoTxegeR dda
htgnel nim
tn C
la n
Ġk ud
,})} ]
ĠfOepytotorP teg
vi ecer
[)} {
scits itatS
sts eug
lu t
ataD wor
ezi mixam
nc h
& '(
di j
lo e
tsil etihw
hsa c
Ġret ti
na nsi
// "
T LA
Wa g
trap itlum
Bib p
$ )
pal revO
ssel esu
éģ ĵ
ÑĭÐ½ Ð½
Ġ noitacitnehtua
deta iverbba
Ġenil tuo
ë ¶
revo retniop
Ġi nu
t eR
", /$
Ġm ei
sret em
many D
DROW SSAP
% )(
C t
Ġlaitne top
Ġhc attA
åĳ ½
JH du
A gA
;) })}
ssalC tcaeR
Ġtna veler
tfos dx
Ġdes palloc
ìĬ ¤
rorrE noitadilaV
Ġtno rf
demrofsnarT teg
Ã Ł
la z
dnu F
Ġrehti E
03 90
seno b
sutatS tes
\\ "\:
s keeW
ta N
,)" /
Ġelac oL
Ġytiruc es
ECI VRES
Ġs evom
/******************************** ********
rkcip talf
w al
Ġecna hc
rtib ra
) >
Ġeta cilpuD
@ "[
Ġ' [
à² °
'+ )"
Ġru op
j z
æ ©
xa T
TNE S
ãĤ ¸
ç§ Ĵ
Ġ,' ]"
mi niM
Ġle ehw
ĠE DON
Ġht la
YX ak
ä»ĸ åħ¶
l eg
Ñĭ ÑĢ
( [,
g BA
Ġti art
lB H
Ġsei reuq
J D
Ġuai leb
Ġsrota roced
C TB
Gb tU
snoitpO tolp
q W
li pmoC
tuo retniop
äº ¬
v z
å¹ ¿
gnilbiS tnemelEtxen
Ġeduti gnol
Ġum li
Ġdl roW
rota lu
Mz M
V mU
s tnemelpmi
elba tcejnI
Ñİ Ð¸
Ġ, +
st ropmI
eg del
s or
rorrE wohs
go CIgAibc
thgiR morf
s redrob
14 8
tnemucoD tes
mal sI
PA LLOC
Z S
RE NIATNOC
WQB VEL
)][+][ !(
Ġnoita lsnart
iclRWYvxWL lVnd
Ġelba vresbO
snoitis narT
;) %
is rev
tcejbO verp
tesffO sucof
TNEM NORIVNE
; /$)
Ġa udek
Ġyro getaC
Ġtel law
Û İ
Ġes opmoc
Õ« Õ
; /)
dI tnemele
× Ľ
te tces
ba S
lai daR
eerT lrU
Ġti xE
\[ /=
åİ »
Ġs goL
itne S
[, ,,"
Ġevitim irP
smrof noc
ĠrettimE tnevE
on A
deec cus
Ġthgu ac
o ic
ETS YS
Ġde kcol
ĠĠĠĠĊĊ ĠĠĠĠĊ
stnevE tcartxe
Ġ ",".
ne li
Ġgni daeh
hC d
rotu cexe
çłģ ä»£
droc siD
m irp
MUI DEM
ç¤º æıĲ
de xiferp
g CA
tne dI
ĠT XET
s renroc
tnemyaP latoT
EL D
eg at
Ġdel la
spO edon
IU G
egk C
By O
ret taM
gAibc JHX
/' +
Ġì Ħ
\| ?
zam A
Ġre nwO
dellif luF
"+)" ":"
ĠUN G
Ġne hT
nottuB lecnac
) _
la noitiddA
PO g
Z D
Ġ CI
epyt x
yl reporp
noitazi mitpo
G W
llA verp
ä¹ ¡
tiKbeW elppA
sl t
F XZyB
Î ¸
Ġros ruC
rebmem er
ï¼ Ł
çĶ º
K Q
wol S
[," \
à¦ ²
es pillE
"," %
xednI woR
Ġse hctaM
,] ))
wohs edils
Ġ;) )(
deredneR tsal
reil pitlum
P Q
ÙĲ Ù
gnit cennoc
\ ;}{
Ġrev i
à¶ ±
07 11
g reb
la uQ
emiT tA
WY uB
0 7102
sla dom
rebo tcO
," -
Ġgni wohs
s ratava
ci b
sredaeH tseuqer
XaoRH K
WVU TSRQ
Ġo gol
åĳ ĺ
Ġr hc
Ġama n
noissu csiD
ER CS
Ð°Ð Ĺ
ider gni
pyrc ed
ë¦ ¬
C k
se hcac
Ġr pxE
oN Gdh
CI F
Ġded dA
Ġdeifi ssalc
stekc arb
ira M
lV n
IH GFEDCBA
DFUQD xyTBF
tik ved
sV mY
24 31
sf erp
xoB B
EE E
Ġre i
suidaR retuo
Ġre lipmoc
Ġsu tu
rekciP roloC
GdjV GblN
bvJ nZ
U PAEH
51 90
\\ ,
BC a
lennahC egasseM
noitaruD noitamina
seirt emoeg
Ġa te
wohS tes
$ ,}
daP i
,"â Ĩ
Ġs kcart
hsu i
60 21
ralu gnis
Â §
Ġs cod
eluR llif
Ġrt l
"," +
htgneL ot
tes rahC
áŀ ı
98 98
}] }"
ĠeludoM sedivorp
Z BFkQn
Ġ{ {{
,)( ]
maertS elbadaeR
gM XY
ĠroloC garF
retliferP xaja
¿ ","
er eH
UQBtz O
deziomeM lanretnItcaer
s ol
Ġ wodahS
lortnoC mrof
tinI o
Ġyli ra
tne dutS
Ġnim dA
Q AF
à ¬
Ġ TA
WZu lmZ
Ġ' ?
Ġb n
Ġa mmoc
Ġy n
roloC tnoF
s boJ
xednI yB
yev rus
æ ¾
Ġm oD
ro tnemele
Ġ' _'
nigulP kcapbeW
g ga
Ġ tcatnoC
tra eH
LA TOT
wAAM AADA
"=== ]
deueuq nu
í Į
emaN yBstnemelEteg
sret pada
âµ ī
Ġ// "(
eta nehpyh
evis saP
, _=
GI RT
\: ?()
U DNOC
Ġ,' !
neercS lluf
mu J
44 77
LAMI CED
=< ]
Q r
CI t
Øª Ø³
sessalC o
Ġde tcejni
ECA E
o gna
Ġla ngis
å§ĭ å¼Ģ
\ ;][
hca et
Ġelba ggard
s doireP
Y tQ
Ġa ga
éĹ Ń
) +]
li dec
teS si
sI PA
!! !
elkc ist
Ð¸Ð ¶
ä¸ª è¿Ļ
x X
egasseM teg
âĪĻ âĪĻ
se nalp
QBF UR
k CI
Gb vI
( .\/
rep pets
nak am
Ġ× Ŀ
srotceV bus
Ã ¹
b zVmc
Ġs nottuB
Ġx i
Ġayni rid
msi rp
" ;)(
W E
gne t
Ġmu i
Ġru s
Ġera uqs
gaT gnirtSoT
etadpU ecroF
redahS tnemgarf
s redlohecalp
elbaliava nu
\*!************************************************ ********
elba zi
ĠP U
Ġ hctapsiD
yarrA ypoc
Ġ Îµ
tnioP oT
ataD war
( !,
red erF
ML KJ
D X
Ġ ØĮ
ÙĨ ÙĦØ§
i nevnoc
Ã¡ s
. &
enoz pord
Ð ķ
des opmoc
ì §Ģ
Ġtrop snarT
kV mbpZWZk
kc otS
zi uQ
lmc w
Ġra j
/* [:
in hcet
Ġeciv eD
/*] ::*/
/*[: :*/
T d
sre yalP
Gd uV
kniL vaN
ba F
n FUQCdGL
li B
Ġ] "\
dior tnec
seireS atad
noitarelec cA
Ġ" #"
32 21
@ ":"
.) })"
<' ,"
","âĢĿ .
a no
red dib
è¾ ¾
Ġ> --
ĠtcejbO ot
{ ,]"
s yawlA
nwO roFesab
Ġkni ht
Ġ pirts
yna h
Ġs wollA
/< ãĢĤ
eziS xam
=> ]
EA E
Ġ" )(
dI tcejbo
ytili caF
< |
di hc
å¥ ½
tratS hcuoTno
knuhC kcapbew
etaDnai luJ
ts eug
Ġka diT
noitubirt siD
rua tser
uj ut
* "[
llaC tsal
nekoT lecnaC
GA RD
Ġs tamrof
Ġdet ouq
Ġ ê°Ģ
Ġs loot
ol B
ai retirC
detac itnehtua
.\ |
ngissA esab
ĠdlihC tsrif
ĠEL CIHEV
eulaV atad
reffuB dnib
huggnu s
stekc os
" ,'
åį ¡
zyxwvu tsrqponmlkjihgfedcba
- _
Ġsemit emos
;)' "
ral pmexe
r ic
oT tcerider
291 8
AC Z
reta L
Ġesuac eB
\\ .
çĶ¨ è°ĥ
Ġ: /*]::*/
Ġra p
rab hcraes
tnedi cca
s tcafitra
bp Z
L w
Ġ' {
sc es
rah il
é¾ Ļ
re ussi
Ġ' #'($
s revreS
eti nifnI
FE FFu
noita tneserper
78 91
yVHdl JH
WZ j
[ "[,"
Ġel udehcs
tnil st
ma N
Ġs rehto
ĠXIF ERP
Ġhel O
Y vx
s resrap
Ġ loop
\( /\
yalp nac
rets ac
eli ms
di rem
edoN tresni
leva rt
emaN redaeH
weiV enil
lli rd
esaeler erp
iM XZ
EPYT OTORP
Õ¸ Õ
it nA
B AAA
## #
c jN
Ġ kcalb
tsnI teg
ee tceles
22 02
knuhC redahS
y es
01 61
Ġel ihW
us U
v X
Ġ eriF
sei geta
à¯ Ĩ
nerap snart
q U
Ġs ub
eziS bat
Ġ/* __
å± ķ
gACIgACIgACIgACI gACIgACIgACIux
Ä ĩ
setenre buk
sm s
L l
lp er
ERU TA
etic lac
.$ ;
Ġre gral
DE V
Ġel pmiS
Ġ× Ķ
reldnaH dda
eAA e
~ (
nblJ nc
ZYX WVUTSRQ
Ġa hasu
wolla hS
}) }]
laire seD
nes rev
seno z
Ġnagno log
: }))
T RESNI
Ġ Î¿
rep e
ff b
etelpmoC otua
,)]) "="(
L EH
nI deggoL
Z rNWY
der ew
Ġdes revart
çľ ģ
yrotcaF cnysa
Ġeka T
RO W
i ua
EF ER
Ġ73 8
el pmi
lo k
dezi lamroN
m ci
at sil
GX sQ
EGA ROTS
57 21
à· ĥ
ĠĊ Ġ
PON MLKJ
Ġs kcilc
Ġnoit seuq
- ===
Ġ yalrevO
DET A
EP ER
yh aw
cseD trohs
soc a
Ġht uoS
det sil
Ġret padA
sgnitteS etalpmet
Ġlaha dap
sdrow edoC
|| }
ataD no
gni rep
ba g
pih srebmem
el zz
ãģ Ľ
ataD o
(_ [,
spuorG gge
XZ z
ecne tsisreP
YuVnZ g
ref fid
tcaf u
trohS semaNhtnom
E u
DI gubed
\/ ,"
$ &&
Ġre gnad
Ġgni ward
tra m
TP O
j w
o om
eulaV dleiF
tne ibma
weiV tsiL
Ġereh ps
èµ Ħ
\ &
Ġd nopser
Ġc itam
WZ yR
E jL
ezil yts
Ġs lebaL
Ġlla f
s ram
selytS tes
/.! ]
å¿ ĥ
ru oloC
birttA xetreV
suo u
nak ata
"\\\ :"\\\
(=! )
ä¾ĭ å®ŀ
X eT
Ġs LRU
gi le
Ġk nar
061 02
æŃ ¥
eca rB
cc cc
O y
Ġs elbat
Ġyrt emoeG
G g
eta givaN
Ġnoisrev noc
n saw
é Ħ
eziS retsulCvni
dnekcaB ptth
paM si
ht rae
åħ ·
deti de
olu dom
sec nereferp
ç ĵ
gne l
tnemelE nottub
à¥ Ĥ
mc nt
e euq
z ef
ë ¡
pm un
V ERP
udi ab
tetces noc
Ġll et
gniga ssem
GI v
tx T
no om
ec eiP
Ġta las
AS X
A TA
d orP
gni gaP
eulaV xam
edoM tes
,})" "(
Ġ8 61
sixA Y
mu nesrev
gk thgiew
itna tsnI
ĠTI UDNOC
sa W
baT evitca
det tols
12 8
reb ot
xelpu D
s geS
,] }}
byB nL
eyol pme
Ġnaka sa
à° ¿
J M
reyaL teg
MROF SNART
- ))
Ġwor rA
:)} "
Ġdered ro
hcuoT eldnah
acit evleH
J k
Ġ à¯ģ
L K
g ami
s dnuos
eg w
lc a
otorP tcejbo
è§ Ī
Ġ tnecreP
k nI
áĢ Ķ
\*!******************************** ********
Ġs loc
AA w
eta gaporp
Ġub A
atad c
åľ¨ åŃĺ
j X
emaN s
rebmuN teg
Ġ;" "
gni lacS
Ġel p
biL lwarB
Ġtc erideR
Ġem ehcs
ngi lav
noita llatsni
Ġdes serp
ziro htuA
Ġten retnI
__ '(
edoM tcirtS
Ø© ÙĬ
ĠecruoS KC
s noitceleS
tes bus
emaN ecivres
lR Wa
Ġgni ga
deredro nu
PMI S
aj RXY
em irP
tratS dlo
I O
ew S
CP R
m thgieh
tsi ssA
PONMLKJ IHGFEDCBA
"," ",
byJ XZ
tes elit
dleif txet
EZ I
rak gnignem
etiL ageV
Ġs ba
.)' >/
metI redner
Ġu luhad
81 51
redro eR
yr reb
nioc tib
® æĮī
86 47
ENIL NI
iciffe oc
Ġ gi
s redlof
Ġdaeh a
A iO
tnemelE elyts
q X
Ġti siv
5891 51
Ġna hab
tnuoC egnar
Ġsti B
ĠtegraT tnerruc
Ġ'= '
é Ĩ
tA tresni
fO dnE
taoc raelc
st noF
stropxe n
ee ei
Ġezi lamroN
yllac itamotua
xA iO
/******************************** ************
ts aP
thgiR laitrap
sesu tats
ylnOdaeR si
pU worrA
la taf
redahS xetrev
V mL
X QB
kcal s
cilbuP teg
elbatno s
l pmet
AA D
sepyT kcehc
Ó Ļ
Ġ bu
Ġd epocs
/../.. /..!
citar dauq
b DN
nap st
ĠE ULAV
htnoM tes
metsyS gni
oitaRlexiP ecived
na ha
paM ekam
noi sulc
otorP rotpircseD
kc or
edoc sv
RA I
00 41
Ġs rttA
"," '
tnenopmoC eruP
htaP cilbup
snoitca retni
diu G
Ġs noisserpxe
sM VQBNFL
gaT trats
[ ^/(
Ġevitc eriD
hid f
89 11
ĠgnirtS efas
è¿ ŀ
it cnuf
q f
Ġci reneg
ð ŀ
I XY
× Ŀ
renwO tnerruCtcaeR
gath sah
{>=)( =
f orp
82 01
Ġneercs lluf
dda i
áº ¿
tnevE tini
Ġ4 05
noitacoL teg
@ (
Ġpm atS
",} })
v PI
è¡Į è¿Ľ
P h
CI gACIgACIgACIgACIgACIgACIgACIgACI
rekciP emiT
kni s
gw yc
qe qe
a de
eR tcaeR
mrofinU teg
ts eB
Ġ hsem
puorG tupnI
ra uG
tnenopmoC etaerc
mra la
rub ed
af nam
{ |
:?( ?)
rev lo
02 91
egnahC noitceleS
è Ķ
ner ruC
noitacifi dom
s tcatnoC
puorG teg
í ĥ
ya j
revoc siD
dloF teg
Cd jVmai
gni zi
EB UC
em ina
oT weiv
poT tneilc
Ġs weiv
htaP evitaler
rek am
dI euqinU
egasseM tamrof
egaugnaL o
Ġir U
WOL F
ytiC ralpmexe
r ruC
sci saB
è Ľ
E l
j da
Ġder ev
N x
gnirtS morf
Ġelb it
X Bw
Ġs lortnoC
noitalu pinam
ĉĊ ĊĊ
worG xelf
tes erP
ĠĠĠĠĠĠĠĠĠĠĠĠĠĠĠĠĠĠĠĠĠĠĠĠĠĠĠĠĠĠĠĠ ĠĠĠĠĠĠĠĠĠĠĠĠĠĠĠ
ä»¬ æĪĳ
Ġed utital
:)) })]
mi le
net noc
yro tc
@ {]
Ġ yalP
RE G
åº ĵ
@ '[
re mrofsnart
dI kniL
nor de
duVmc yV
rorrE nO
[ "&&
zV mU
ì Īĺ
ĠÐµ Ð¸Ð½
nid ts
lJ Wb
kraD si
Ġci pot
Ġnoiti nifeD
ona n
tA trats
Ġeci ohc
.} "\
Ġdeti mil
ayna dapek
Y LP
ĠegaP tnerruc
EL BI
garD pot
TC ER
Î± Î
Ġs gnidnib
sre ifitnedI
Ġuma dapek
ci nomen
77 77
Ġdere tne
eni lps
etadpU tsal
Ġhala ynah
HC S
gnisaE laiceps
B Du
noit atS
tnem erusaeM
sre ifitnedi
Z etalsnart
Ġgni ylrednu
rorrE gol
ses nopseR
Ġkram hcneb
Z nL
b yh
pa h
Ġa u
Ġaw abmem
stel lub
s bp
ni e
Ġlav e
Ġem oh
Ġrab llorcs
RO N
SJ enecS
s miD
ll mZ
DNE S
noitubirt ta
Ġseit itne
15 9
Ġri b
hek ob
O EDIV
$ /
C SA
ã Ħ
acs E
éĹ ¨
duolC tnioPdda
fi n
Ġt relA
/. /
Ġgni da
Ġ6 51
å± Ĥ
q H
BCIgACIgACIgACIgACI gACIg
05 21
yfi simorp
resraP MOD
Ġylima f
Ġnakkujnu nem
htdiW rab
,) _(
tsi g
94 01
L g
xednI si
Øª Ø¨
"{,}" )(
ÙĲÙ ķ
enip la
o ro
noit ressa
sec eip
EG RAL
ĠD MA
gU Gd
YALP SID
Ã »
97 11
resraP lmth
Ġdep pots
N SA
csa c
G l
elytS tnoF
Ġtnem norivnE
Ġeru liaf
! ,)]
Ã Ĩ
xob tsil
xiferp otua
noitu tit
è¾ ¹
," _
ro getac
hsaD enil
åĮĸ å§ĭåĪĿ
Ġaynmu ak
$ *
evita re
s rotide
x irp
noitcet orP
Ġadna t
su r
rebmuN enohP
gni P
Ġyl wen
noissim buS
selif orp
ss oI
Y ROTS
hc neB
ãģ ¤
kF WZ
à¼ĭ à¾
eulaV nim
75 62
Ġ7 21
CN ETS
rotaretI cnysa
Wa yB
Q j
ih S
war deR
ð ĳĦ
Ġesa Cl
Ġseil ppa
Ġycil op
tseuqeR IPA
Ġ ED
ataD etadpu
wol eB
seno B
rel da
Ġgnig gol
J w
Q X
.] [(
trats tceles
ĠeulaV dlo
F EL
ros si
repparW snoitpOdirg
erehpS gnidnuob
U DORP
etaD evitca
to si
xy S
{$ :}
na ki
Ġs resU
Ġre ifi
noitisoP lebaL
ĠhtdiW tneilc
TIM IL
}][: __
t pu
gnit siL
,) ":
t pecxe
CI mlGI
Ġdna l
q T
edoC yrtnuoc
Ġnaka nug
vMXZ jJXdvN
Ġs Ã©
SE A
Cd h
Q b
de niatnoc
tnemelE dda
dra weR
{,}} })
Ġneddi rrevo
P HP
Ġi p
Ġgni wolla
Ġrekcip etad
Ġ' ?'
tnenopmoC MODtcaeR
eziS nim
nwoD pord
çĽ ĳ
serutaeF o
"," ðŁı
a lacs
Ġ ob
kcolB reP
NW as
ìŀ Ĳ
Ġgni nepo
gw S
noitcel fer
TS ER
13 8
dae tsnI
gi ii
gnidne csa
dered rob
á» į
/ __
Ġra k
na ku
Ġta as
aerA trahc
r NWZoN
Ġ" _"
73 31
etaD wen
so ira
sn d
I jL
v om
é Ń
Ġy ps
tik loot
Ð½ÑĥÐº ÐµÑģ
\ :'
Ġra F
sretlif erp
ytis ned
,} )'
enoz emiT
Ġdeni bmoc
lJ GI
Z G
rttA tes
,}}] [:
llaC teg
Ġtneuqes bus
txeT si
ecaps kcaB
ledoM weiV
[ -
va l
TRO S
$ ,]
ro Y
so rez
è ĸ
Ġs dnoceS
rev lis
+] _
oT hcatta
:?( |
Ġ2 21
oR Xa
æ §
13 0
Ġd esaB
Ġse og
éĵ ¾
t res
Ġno lisp
laev eR
QH A
rekroW ecivres
S CI
UQ H
ppA teg
__ {||
Ġesa ercni
Ø©Ø¹Ø§ Ø³ÙĦØ§
Ã Ī
snoitid da
piT teg
Ġt pmettA
/ "\
net ta
l Wb
iY px
alu mroF
U cs
re zis
tceffE tuoyaL
enoZ emit
Ġs mrof
Ġh p
/) ?
mit sE
elb orP
la et
Ġc c
tisop ed
tnet ek
Ġdna h
Ġo wT
edoN ecruoS
- ((
gnirts yreuq
Ġtnairav ni
ĉ ĠĠĊ
ç £
Ġoci rederF
ERP ED
:)" "(
Ġl rtC
TNE C
etiv nI
ĠÙ ĸ
LM V
Ġts uJ
renetsiLtnevE tcaeR
ECA PSEMAN
)( }
erutlu c
? _
Ġ[ [
Bi M
mumi xaM
ĠĠĠĠ ĉĉĊ
erutpaC esu
nb J
sredaeH esnopser
c rexe
raB ssergorp
noita z
Ġla g
tiaW ydaer
Ġmei direm
oT eulav
tratS dap
wollo fon
! ;)(
: /*
Ġs ezis
Ġ2 51
neb ba
NUQ F
Ġhalu ti
sjb f
P ot
e ic
Ġtohspa ns
åĨ į
/< "=+
revi leD
{) ]"
SA T
ssergorp ni
Ġm rifnoc
nebba nK
& `
gni wolf
( ^/(
ed arT
egap emoh
k il
"=== )
ek ats
sR mbhh
oit cnuf
Ġ}* ...{
rekcip emitetad
Ġe gra
knil b
NOITP IRCSED
Ġrenni ps
kadne hek
dI ecived
Gd pR
# ?
By Zul
pm am
Ġi regen
Ġer ocS
[( )]
de kcatS
eulaV weiv
Ġnoita cilppA
nwoD yek
àº² àº
u os
raB llorcs
_( ])'
elbahcaer nu
Ġe tsap
(( +)
seira rbil
ðĿ Ķ
åħ ±
X DM
s llifylop
atad o
esa erced
[)} {=
ÂłÂłÂłÂłÂłÂłÂłÂł ÂłÂłÂłÂłÂłÂłÂłÂł
s krowten
è Ĩ
.)' )
metI evitca
Ġ"= "
ĠrenetsiL tnevEdda
ë³ ´
D FF
p bew
yarrA etyb
TP gk
erotS etaerc
æĪĲ çĶŁ
bu c
dnu orG
etadpU dluohs
pihs rebmeM
syaD teg
éĴ ®æĮī
iojIlxWam JCLzojIu
edoc tsop
htiW yfiton
Ġeva eL
] )"
xu nil
s noitceS
lNHbhZ GI
tnemtniop pA
loc ohc
^( /(
e ac
tne dnepeD
Ġna pa
Ġ33 3
q G
Ġd r
)( )}
(! &&)
uU Gb
y mene
WOD NIW
txu n
emaN elyts
Ġ6 82
dnE noitaminA
,' \
51 01
ĠB P
)} {(
(( ||
iU pas
ĠpoT tesffo
one nil
gnite em
zl GT
: ;
d oow
hgi eN
DE DAOL
sepyT tnemugra
[ ",
c dc
de tceffa
ru ob
Ġes revni
OR TS
Ðµ ÑĢÐ
à´ ¨
Ġ0 84
K G
Ġe nalp
sepyt marap
Ġtc ilfnoCon
Ġnaku kalid
YRO TCAF
toH tcaer
ta uq
deppotS noitagaporPetaidemmIsi
ita lov
Ġhel ob
gni dulcni
ev ei
st xeT
dnEnoitisnarT sb
q C
oT pam
LO E
Ġ op
AC AA
ytili bA
Ġ Ð¸Ðº
rab oof
Ġ"," ","
ecnatsnI etaerc
QH anlWZ
AS Qyggubr
ĠhtdiW renni
Â ´
LI CNETS
da pi
Ġi lak
20 21
ZYXWVUTSRQ PONMLKJIHGFEDCBA
Ġs etareti
Ġnoita givaN
76 723
Ġ// //
34 9
niM evitan
Q t
er ht
el aS
æİ §
}} {:"
rorrE sah
Ġaynna k
metsyS eliF
tnem evoM
Ġevre serp
strop snart
KKK KA
\ ^
etatS etadpu
WamVGZ uV
M Y
q D
ĠÙ ĭ
/< ]
çĻ ½
secnatsnI hctapsid
v ssalc
ãĥ³ ãĤ
s egaugnaL
eg rup
s daerht
sre hte
mp N
Ġ âĢĶ
gni naem
T a
ERA HS
Ñĸ Ð½
. //
)( ]
Ġyra dnuob
éĶ ®
tsu M
nur p
d ecalper
mo R
ÙĦ Ø¹
LMTH esrap
ky mc
à¹ ĳ
s nigraM
ssa lg
gifnoC ppa
sutatS txet
ob or
Ġst revnoc
ra L
\> --
àª ¸
V NI
\ (?
ma C
st nuom
txetnoC rss
Ġyti nifnI
f eb
Ġtne dnI
noitav itcA
Ġygeta rts
lR Xa
gni eB
fO tuO
ecnatsnI edulcni
Ġeni gnE
y li
Ġd eralced
"( +"
Ġ4 02
TF EHT
ti u
Ġa od
.)} ]
ë ł
AA a
Ġayna da
TCE JORP
HSA LS
Ġeta ulave
6666 66
Ġd ma
è¨ Ģ
elcyce fiL
r Ã©
Ġtne tsisnoc
tcejbO morf
Ġrih ka
Ġ ooF
dap emag
,"â ĭ
epyT yB
ï¿ ¿","
ĉĉĉĉĉĉĉĉ ĉĉĉĉĉĉĉ
redrO tros
Ġ6 33
rem mus
Ġgnippa M
ogi dni
{= ]"
Ġ6 94
ded iv
sporP tluafeDteg
noisi ced
rosruC evom
00 62
Ġ BS
__ _.
ĉĉ ĠĠĊ
tluafeD htiW
ĠÑı Ð»
L s
:?( _
Ġdnu oB
q O
ETU NIM
84 81
53 11
esiw kcolc
yrota dnam
ru oj
d nit
SE C
wolf kroW
WOR B
Ġgni dliub
ecnatsnI si
Ñĥ ÑĤ
\ ï¿½
lu kup
Ðµ ÑĦ
RA ENIL
noitisoP ecruos
,}} })(
Ġ'>" '
Ġs llaf
-- !
tce frep
Ġ RHXqj
[,] "\
=- ]
giii CA
k Vmc
Ġs tneverp
FW bp
stnioP morf
Ġerots eR
hateg nep
Wa ux
Ġru of
Ġevom esuom
hca eR
P l
ya b
nois napxe
ãĤ Ĥ
elba llorcS
egarevoc sj
åĮº å±±
oitaR lexip
etalsnarT tes
kat reb
ĠmaraP ipa
3333 3
noita tneserP
Ġ REV
Ġ. >
;)] }}
TA LP
ĠĠĠĠĊ Ġ
ecne serP
coL yrt
s elbaTataD
Ġdezi laires
ç ¸
a ir
vane dis
Ġ ytic
na eM
QsM VQBNFL
T OR
é¢ ĳ
ti derC
ri m
Ð¸ ÑĢÐ¿
xegeR shtnom
xSZ BFUZ
Ġel bi
63 513
Ġdedne txe
g tP
Ġt l
li h
Ġ0 51
Ġtim rep
tcep ser
9876543 21
\ "?
eulaV war
Ġgna rO
de hsad
DE EN
$. $
yc zN
renetsiL hcatta
troS b
eliT teg
Ġygeta rtS
E k
Q AB
la pic
elytS evomer
na g
gne P
del lortnoC
parW etaerc
Z K
× ¡
( ^/=
Į Ģ
Ġyl etelpmoc
MO eciffO
;)" ","
ÏĤ Î¿
åĥ ı
i idar
egua G
C BC
Ð¸ ÑĪ
Ġll es
oooo A
Ġekil nU
X weks
na ru
yt q
Ġnoita silaitini
Ġnigra M
- ?)
ĠĠĠĠĠĠĠĠĊ ĠĠ
à´ ¾
laV elacS
Ġs tessa
ug XZk
dekcehc nu
sj fdp
Ñı Ð¸Ð½
deta rdyh
Ġyrt nuoc
dd O
SI HT
gnirtSoT esab
Ġ à¤¾
ĠtnevE lanigiro
èı ľ
ĠxednI tnerruc
ayn ta
ycne uqerF
Ġer oC
leR gniziSxob
H dc
è ľ
;)} ;
Ġte ehs
WZulmZ lRmb
se hsals
} ;]
ĠL QS
Ġ**/ (
× Ĺ
$ .]
Z SZ
Ġ yticolev
Ġs ped
htaP tnerruc
Ġd etac
nekoT tamroF
ro od
Ġa sib
buS teg
evitce ffe
Ġta cnoc
Ġayna dapek
tnev ni
Ġhparga rap
i reif
de tcejni
,})" .
Ġsa l
Ġylevis ruceR
A VA
gw Gb
noitat on
// *
Ġre dni
ìĺ ¤
pe el
AL P
p FUQClGL
te ews
Ġgniyra vn
Ġ lev
X di
Ġro dnev
soP wen
ro ngi
pi uqe
rahC tsal
ç½® ä½į
ralacS yBylpitlum
ifa num
Ġs laitrap
\[ |]
Ġhalnagna j
u gnem
v diuu
bz JCLzojIu
G H
Ġ MM
BSZzx WZg
et id
tnem erced
Ġ2 00
73 40
spi hc
ç ¹
è¶ ħ
esnopseR mrofsnart
Ġde ipoc
egasseM no
tpircs bus
seruta ngis
tpi ecer
N J
Ġs redro
54 81
vne tod
NWOD PORD
N Y
nI bpjIzV
egnahc noitceles
Ġevis rucer
desop siD
erutu F
de w
rep yH
ĠGNI RTS
æ ª
Ġed ulcxe
gnidne csed
s repparw
n Lz
d bc
ft U
ecnatsnI morFedoNteg
ECA F
dI knil
,))} })
sd ls
mub lA
esuac eb
laV tnerap
n ni
Ġs dneped
tnemelE morf
: `
sserp drow
daolpU no
8 812
c gQ
Ġ6 75
tcart buS
ec erp
del bbuB
seman trohs
YL OP
tnemelE tset
è¾ ĸ
sa R
Ġevita leR
kca H
kcabllaC sseccus
maertS aideM
å¾ Ħ
sal tA
u dehcS
xednI nmuloc
ecapS etihw
na y
va w
X H
} *
epyT erutaef
seta cilpuD
Ġre llams
mo no
yV mZ
bab ek
? '(
ir ca
Ġgni kcilc
s mun
Ġna ni
AA FA
dli uG
lau dividni
Ġret tamrof
09 002
hB yc
{) ;)(
75 03
sec eiP
elacS emit
æĸŃ åĪ¤
#"($ =
ĠdI remit
<'( $(
s li
àª ®
ì £
roloc gb
lec xE
Ġiah aW
lx GZuF
áĥ £
x L
,)])" .
daer nu
sa n
Ġa sk
hcraeS s
FUQD xC
detroppuS si
setadpU dehctab
t ot
tnemelE GVS
redaoL toHtcaer
.] /*
92 21
T sI
ba rA
à½ ²
Ġam garp
ay ut
p ocs
pm j
yfi resworb
Ġel cyc
noisreV amce
ãģ ł
,})) })(
b dc
Ġre dloF
hctam sim
24 73
ts it
reniatnoC weiV
retad pU
Ġ Ð°Ð´
94 21
Å ĳ
Ġx u
namo R
Y hV
x ot
Å ¼
ht rO
41 01
MzMz MzMz
dna p
regga ts
SI der
s wo
Ġra lacs
\ )'
Ġre kroW
Ġssel drager
A SU
IT ON
a ab
Ġ5 11
s rats
eci ovnI
RFUQR xyQBF
b orp
LL IF
[...]
