{"<|endoftext|>":0,"!":1,"\"":2,"#":3,"$":4,"%":5,"&":6,"'":7,"(":8,")":9,"*":10,"+":11,",":12,"-":13,".":14,"/":15,"0":16,"1":17,"2":18,"3":19,"4":20,"5":21,"6":22,"7":23,"8":24,"9":25,":":26,";":27,"<":28,"=":29,">":30,"?":31,"@":32,"A":33,"B":34,"C":35,"D":36,"E":37,"F":38,"G":39,"H":40,"I":41,"J":42,"K":43,"L":44,"M":45,"N":46,"O":47,"P":48,"Q":49,"R":50,"S":51,"T":52,"U":53,"V":54,"W":55,"X":56,"Y":57,"Z":58,"[":59,"\\":60,"]":61,"^":62,"_":63,"`":64,"a":65,"b":66,"c":67,"d":68,"e":69,"f":70,"g":71,"h":72,"i":73,"j":74,"k":75,"l":76,"m":77,"n":78,"o":79,"p":80,"q":81,"r":82,"s":83,"t":84,"u":85,"v":86,"w":87,"x":88,"y":89,"z":90,"{":91,"|":92,"}":93,"~":94,"¡":95,"¢":96,"£":97,"¤":98,"¥":99,"¦":100,"§":101,"¨":102,"©":103,"ª":104,"«":105,"¬":106,"®":107,"¯":108,"°":109,"±":110,"²":111,"³":112,"´":113,"µ":114,"¶":115,"·":116,"¸":117,"¹":118,"º":119,"»":120,"¼":121,"½":122,"¾":123,"¿":124,"À":125,"Á":126,"Â":127,"Ã":128,"Ä":129,"Å":130,"Æ":131,"Ç":132,"È":133,"É":134,"Ê":135,"Ë":136,"Ì":137,"Í":138,"Î":139,"Ï":140,"Ð":141,"Ñ":142,"Ò":143,"Ó":144,"Ô":145,"Õ":146,"Ö":147,"×":148,"Ø":149,"Ù":150,"Ú":151,"Û":152,"Ü":153,"Ý":154,"Þ":155,"ß":156,"à":157,"á":158,"â":159,"ã":160,"ä":161,"å":162,"æ":163,"ç":164,"è":165,"é":166,"ê":167,"ë":168,"ì":169,"í":170,"î":171,"ï":172,"ð":173,"ñ":174,"ò":175,"ó":176,"ô":177,"õ":178,"ö":179,"÷":180,"ø":181,"ù":182,"ú":183,"û":184,"ü":185,"ý":186,"þ":187,"ÿ":188,"Ā":189,"ā":190,"Ă":191,"ă":192,"Ą":193,"ą":194,"Ć":195,"ć":196,"Ĉ":197,"ĉ":198,"Ċ":199,"ċ":200,"Č":201,"č":202,"Ď":203,"ď":204,"Đ":205,"đ":206,"Ē":207,"ē":208,"Ĕ":209,"ĕ":210,"Ė":211,"ė":212,"Ę":213,"ę":214,"Ě":215,"ě":216,"Ĝ":217,"ĝ":218,"Ğ":219,"ğ":220,"Ġ":221,"ġ":222,"Ģ":223,"ģ":224,"Ĥ":225,"ĥ":226,"Ħ":227,"ħ":228,"Ĩ":229,"ĩ":230,"Ī":231,"ī":232,"Ĭ":233,"ĭ":234,"Į":235,"į":236,"İ":237,"ı":238,"Ĳ":239,"ĳ":240,"Ĵ":241,"ĵ":242,"Ķ":243,"ķ":244,"ĸ":245,"Ĺ":246,"ĺ":247,"Ļ":248,"ļ":249,"Ľ":250,"ľ":251,"Ŀ":252,"ŀ":253,"Ł":254,"ł":255,"Ń":256,"ĠĠ":257,"ĠĠĠĠ":258,"ĠĠĠĠĠĠĠĠ":259,"no":260,"er":261,"ht":262,"re":263,"it":264,"ni":265,"si":266,"ne":267,"ra":268,"ĉĉ":269,"el":270,"Ġ,":271,"noit":272,"ro":273,"ta":274,"Ġ=":275,"nu":276,"Ġe":277,"ts":278,";)":279,"la":280,"siht":281,"na":282,"Ġ:":283,"ed":284,"or":285,"noitc":286,"ru":287,"es":288,"Ġ)":289,"noitcnu":290,"noitcnuf":291,"tne":292,"**":293,"ĠĠĠĠĠĠĠĠĠĠĠĠĠĠĠĠ":294,",\"":295,"Ġn":296,"ter":297,"tc":298,"eg":299,"em":300,"ruter":301,"Ġra":302,"{)":303,",)":304,"sa":305,"==":306,"Ġrav":307,"et":308,"ot":309,"ep":310,"fi":311,"lu":312,"Ġt":313,"yt":314,"Ġs":315,"hc":316,"ĠĠĠĠĠĠ":317,"Ġnruter":318,"Ġd":319,"noc":320,",}":321,"rt":322,"eta":323,"oc":324,"//":325,"eu":326,"ec":327,"Ġ*":328,"&&":329,"da":330,"ol":331,"\"(":332,"gni":333,"\":":334,"ĠĠĠĠĠĠĠĠĠĠĠĠ":335,"kc":336,"xe":337,"di":338,"le":339,"tnem":340,"gi":341,"pm":342,"pa":343,"ba":344,"teg":345,"ema":346,"orp":347,"ti":348,"ya":349,"ĉĉĉĉ":350,"epyt":351,"om":352,"_.":353,"li":354,"****":355,"--":356,",]":357,"Ġfi":358,"lav":359,"Ġnoitcnuf":360,"rof":361,"Ġ//":362,"00":363,".)":364,"tce":365,"po":366,"su":367,"tu":368,"il":369,"\",\"":370,"de":371,"Ġa":372,"ap":373,"is":374,"||":375,"jb":376,"llu":377,"we":378,"fo":379,"ret":380,"lo":381,"ma":382,"on":383,"'(":384,"ssa":385,"od":386,"ev":387,"Ġeht":388,"ser":389,"})":390,"tes":391,"llun":392,"ner":393,"ir":394,"id":395,"gne":396,"th":397,"nI":398,"ata":399,"lc":400,"fed":401,"tcejb":402,"am":403,"ĠĠĠĠĠ":404,"se":405,"Ġ}":406,"ek":407,"uq":408,"rep":409,"htgne":410,"mu":411,"lp":412,",'":413,"at":414,"elba":415,"ĉĉĉ":416,"Ġy":417,"__":418,"htgnel":419,"CI":420,"Ġts":421,"ĠĠĠĠĠĠĠĠĠĠ":422,"rap":423,":\"":424,"Ġfo":425,"pu":426,"lla":427,"wen":428,"eR":429,"tnemel":430,"if":431,"Ġ,'":432,"noita":433,"\"=":434,"eulav":435,"gA":436,"ĠĠĠĠĊ":437,"st":438,"dne":439,"rts":440,"rev":441,"Ġ+":442,";}":443,"Ġ\"":444,"orP":445,"rr":446,"rop":447,"01":448,"Ġ:\"":449,"Ġ)(":450,"tnev":451,"ob":452,";)(":453,"tlu":454,"eman":455,"\":\"":456,"21":457,"atad":458,"ss":459,")(":460,"xet":461,"Ġna":462,"eh":463,"ab":464,"Ġre":465,"{)(":466,"cs":467,"\",":468,";)}":469,"Ġwen":470,"Ġot":471,"op":472,"********":473,"Ġ>":474,"===":475,"Ġ0":476,"xed":477,"ud":478,"Ġ(":479,"oC":480,"gACI":481,"eni":482,"oh":483,"Ġtsnoc":484,"/*":485,"Ġes":486,"Ġ{":487,"noC":488,"----":489,"tsi":490,"otorp":491,"Ġ]":492,"iv":493,"tnemu":494,"AA":495,"ga":496,"txe":497,"tcejbO":498,"ll":499,"Ġ,\"":500,"/<":501,";]":502,"thgi":503,"ub":504,"nruter":505,"))":506,"Ġ'":507,"Ġni":508,"emaN":509,"ff":510,"eri":511,"snoit":512,"ssalc":513,"Ġm":514,"txet":515,"yek":516,"dna":517,"eS":518,"gra":519,"/.":520,"61":521,"gn":522,"02":523,"tner":524,"dda":525,"erc":526,"(&&":527,"of":528,"gna":529,"os":530,"UQ":531,"epytotorp":532,"sj":533,"afed":534,"bu":535,"loc":536,"Ġi":537,"elud":538,"wor":539,"ca":540,"ĠĠĠĠĠĠĠĠĊ":541,"11":542,"Ġgni":543,"ĠĠĠĠĠĠĠĠĠĠĠĠĠĠĠĠĠĠĠĠ":544,"res":545,"ĠĠĠ":546,"tS":547,"reb":548,"\"[":549,"yT":550,"ropxe":551,"red":552,"Ġ===":553,"eriuq":554,"ĠĠĊ":555,"Ġsi":556,"hcta":557,"tcel":558,"ew":559,"eurt":560,"oT":561,")\"":562,"Ġ&&":563,"llac":564,"ega":565,"ac":566,"pmoc":567,"dli":568,"edon":569,"52":570,"sp":571,"oM":572,"gACIgACI":573,"Ġ;":574,"Ġro":575,"eD":576,"hC":577,"zi":578,"erp":579,"ka":580,".]":581,"oN":582,"tnemelE":583,";)'":584,"etaerc":585,"eriuqer":586,"laf":587,"htdi":588,"sid":589,",)\"":590,"Ġdi":591,"marap":592,"31":593,"Ġrof":594,"!(":595,"tuo":596,"epyT":597,"xedni":598,"Ġesle":599,"rre":600,"++":601,"rrA":602,"ov":603,"**/":604,"{=":605,";)\"":606,"hta":607,"tra":608,"orf":609,"41":610,"ita":611,"snoitpo":612,"tca":613,"lC":614,"51":615,"tluafed":616,"eb":617,"hti":618,"Ġ>=":619,"ruc":620,"tcejbo":621,"eslaf":622,"yarrA":623,"egna":624,"hT":625,"ehc":626,"met":627,"Ġ.":628,"ci":629,"dni":630,"42":631,"esu":632,"vid":633,"Ġ1":634,"81":635,"eludom":636,"laV":637,"{(":638,"etad":639,"mi":640,"oo":641,"{:":642,"cod":643,")}":644,"wod":645,"mrof":646,"Ġ||":647,"Ġel":648,"Ġ==":649,"kcab":650,"rtS":651,"Ġer":652,"ĉĊ":653,"ps":654,"gnirts":655,"tnemele":656,"91":657,"EL":658,"Ġne":659,"yts":660,"==!":661,"nois":662,"eno":663,"sah":664,"71":665,"tup":666,"eca":667,"\"\\":668,"Ġfoepyt":669,"23":670,"dnu":671,"ecna":672,";\"":673,"lm":674,"hsu":675,"tneno":676,"tneve":677,"Ġ?":678,"ppa":679,"xE":680,"ytrep":681,"Ġeu":682,"pmi":683,"ih":684,"=]":685,"Ġesa":686,"sna":687,"evom":688,"dI":689,"'[":690,"noitis":691,"wo":692,"elyts":693,"Ġ-":694,",)(":695,"tni":696,"Ġta":697,"gnit":698,"fer":699,"gif":700,"reda":701,"ssalC":702,"irt":703,"tnet":704,";'":705,"va":706,"euq":707,"BF":708,"ĠĠĠĠĠĠĠĠĠĠĠĠĠĠĠĠĠĠĠĠĠĠĠĠĠĠĠĠĠĠĠĠ":709,"hsup":710,"te":711,"ĠĠĠĠĠĠĠĠĠĠĠĠĠĠ":712,"iT":713,"tnevE":714,"****************":715,"al":716,"\\\\":717,"ohs":718,"moc":719,"33":720,"rrE":721,"rebmu":722,"tA":723,"pir":724,"46":725,"oP":726,"enil":727,"tceles":728,"Ġ,]":729,"Ġdiov":730,"Ġ2":731,"hs":732,"NO":733,",}\"":734,"$.":735,"llor":736,"RO":737,"}}":738,"rra":739,"Ġmarap":740,"stropxe":741,"--------":742,"gnirtS":743,"92":744,"((":745,"ĉĉĊ":746,"bew":747,"ataD":748,"Ġeta":749,"03":750,"yre":751,"ĠĠĠĠĠĠĠĠĠĠĠĠĊ":752,"Ġmorf":753,"tsiL":754,"Ġdna":755,"Ġesac":756,"!:":757,"[,]":758,"leba":759,"nim":760,"af":761,"htdiw":762,"ET":763,"ecru":764,"tnemugra":765,"rorrE":766,"ar":767,"tf":768,"\"{":769,")]":770,"tegra":771,"not":772,"edoN":773,"72":774,"!=":775,"ropmi":776,"lif":777,"Ġx":778,"htap":779,"htaM":780,"ĠĠĠĠĠĠĊ":781,"etats":782,"fO":783,"ĠĠĠĠĠĠĠĠĠĠĠĠĠĠĠĠĠĠĠĠĠĠĠĠ":784,"ua":785,"niat":786,"par":787,"Ġl":788,"loC":789,"Ġec":790,"rene":791,"nE":792,"tnemucod":793,"dro":794,"99":795,"82":796,"Ġde":797,"ilc":798,"Ġti":799,"nifed":800,"hca":801,"eulaV":802,"Ġema":803,"bm":804,"lac":805,"iF":806,")'":807,"oL":808,"yalp":809,"rorre":810,"Ġ:'":811,"62":812,"ĉĉĉĉĉ":813,"emiT":814,"evomer":815,"nottu":816,"ic":817,",})":818,"rota":819,"Ġh":820,"Ġep":821,"tnerap":822,"ĠehT":823,"ngi":824,"gol":825,"pot":826,"mro":827,"[:":828,"ubirt":829,"05":830,"pam":831,"/..":832,"43":833,"ffo":834,"NI":835,"meti":836,"us":837,"uo":838,"..":839,"kcap":840,"kcol":841,"====":842,"tsni":843,"FUQ":844,"erb":845,"do":846,"wodni":847,"Ġ,}":848,"evit":849,"dlihc":850,"63":851,"zis":852,"+\"":853,"etubirt":854,"pO":855,"yarra":856,":)":857,"eK":858,"tnu":859,"73":860,"pmoC":861,"htiw":862,"trats":863,"stnemugra":864,"ecalp":865,"gifnoc":866,"rtta":867,"xednI":868,"tth":869,"Ġc":870,"ami":871,"edoc":872,"org":873,"esa":874,"53":875,"en":876,"ER":877,"ytreporP":878,"tset":879,"Ġesu":880,"eH":881,"denifed":882,"eru":883,"wol":884,"kaerb":885,"retni":886,"bus":887,"Ġla":888,"hgi":889,"ĊĊ":890,"04":891,"ny":892,"daol":893,"snart":894,"emit":895,"led":896,"-,":897,"tsu":898,"*/":899,"Ġ/":900,"83":901,"Ġtel":902,";))":903,"84":904,"Ġed":905,"lmth":906,"ssec":907,"roloc":908,"kni":909,"tegrat":910,"DI":911,"txen":912,"{,\"":913,"resu":914,"cil":915,"tnerruc":916,"tcep":917,",)}":918,"ip":919,"etal":920,"cr":921,"Ġ<":922,">\"":923,"Ġeulav":924,"dnah":925,"Ġtropmi":926,"bc":927,"uQ":928,".)\"":929,"weiv":930,"worht":931,"xam":932,"93":933,"CA":934,"Ġ3":935,"Ġeb":936,"tupni":937,"sim":938,"Ġ==!":939,"etatS":940,"66":941,"yti":942,"esrap":943,"nom":944,"tnenopmoc":945,"Ġ`":946,"tnetnoc":947,"etaD":948,"Ġsa":949,"yB":950,"ezi":951,"wodniw":952,"enifed":953,"dle":954,"sel":955,"thgieh":956,".)(":957,",}}":958,"UQB":959,"//:":960,"denifednu":961,"lit":962,"to":963,"tsil":964,"44":965,"yeK":966,"ĀĀ":967,"0000":968,"pircs":969,"iu":970,"Ġton":971,"kcapbew":972,"txeT":973,"aw":974,"htem":975,"tit":976,"===\"":977,"ren":978,"kcehc":979,"me":980,"sporp":981,"gu":982,"etu":983,"._":984,",]\"":985,"hctam":986,";)]":987,"tfel":988,"tseuq":989,"les":990,"ĉĉĉĊ":991,"Ġ[":992,"22":993,"lebal":994,"Ġ))":995,"55":996,"nop":997,"RE":998,"Ùİ":999,"etadpu":1000,"Ġno":1001,"xp":1002,"nek":1003,"NE":1004,"yl":1005,"der":1006,"ef":1007,"raP":1008,"daer":1009,"irts":1010,",))":1011,"Ġhtgnel":1012,"ssem":1013,"urts":1014,"Ġsiht":1015,"nA":1016,"esab":1017,"dra":1018,"rT":1019,"tro":1020,"tluser":1021,"yd":1022,"Ġepyt":1023,"naps":1024,">>":1025,"54":1026,"ezis":1027,"redro":1028,"tno":1029,"ihw":1030,"niatnoc":1031,"lru":1032,"=!":1033,"GI":1034,"nem":1035,"rebmun":1036,"nU":1037,"revo":1038,"ira":1039,"iV":1040,"rif":1041,"sre":1042,"eht":1043,"Ġtlu":1044,"noitcel":1045,"TI":1046,"06":1047,"76":1048,"mo":1049,"ĠĠĠĠĠĠĠĠĠ":1050,"tcepxe":1051,"ko":1052,"ram":1053,"TS":1054,"xa":1055,"<>":1056,"Ġworht":1057,"kca":1058,"\"+":1059,"pma":1060,"tcurts":1061,"jbo":1062,"ylp":1063,"tre":1064,"Ġgna":1065,"pU":1066,"ils":1067,"{$":1068,"reti":1069,"95":1070,"ssc":1071,"Ġ)'":1072,"bi":1073,"nmu":1074,"[=":1075,"'=":1076,"yal":1077,"DO":1078,"08":1079,"ecruos":1080,"htdiW":1081,"wohs":1082,"Ġ4":1083,"fles":1084,"pxe":1085,"ĠĠĠĠĠĠĠ":1086,"dd":1087,"eltit":1088,"eL":1089,"tcirts":1090,"Ġ5":1091,"noitpo":1092,"dlihC":1093,"bmy":1094,"nottub":1095,".)'":1096,"reg":1097,"llorcs":1098,"lobmy":1099,"elif":1100,"74":1101,"\\;":1102,",)]":1103,"gat":1104,"75":1105,"yro":1106,"emaNssalc":1107,"ytS":1108,"[(":1109,"rab":1110,"lauq":1111,"==\"":1112,"yrt":1113,"irp":1114,"rg":1115,"ecalper":1116,"Ġ8":1117,"uB":1118,"tesffo":1119,"noitca":1120,"mc":1121,"RU":1122,"sser":1123,"metI":1124,"noitisop":1125,"////":1126,"Ġhtiw":1127,"RA":1128,"det":1129,"Ġev":1130,"itats":1131,"ydob":1132,"94":1133,"tceleS":1134,"dnif":1135,"?)":1136,"yalpsid":1137,"ux":1138,"ecnatsni":1139,"pmet":1140,"Ġ6":1141,"GX":1142,"_(":1143,"001":1144,"noitac":1145,"gar":1146,"Ġp":1147,"llA":1148,"egassem":1149,"Ġo":1150,"86":1151,"Ġata":1152,"txetnoc":1153,"ws":1154,"]\"":1155,"kcabllac":1156,"Ġ*/":1157,"seR":1158,"hcra":1159,"gACIgACIgACIgACI":1160,"Ø§":1161,"oj":1162,"teS":1163,"Ġthgi":1164,"ĠS":1165,"bol":1166,"Ġk":1167,"eps":1168,"Ġu":1169,"tsal":1170,"dilav":1171,"nf":1172,"Ġtaht":1173,"seludom":1174,"tnemelEetaerc":1175,"rahc":1176,"\\{":1177,"eled":1178,"delba":1179,"elos":1180,".-":1181,"Ġ,)":1182,"ce":1183,"()":1184,"yreuQ":1185,"redner":1186,"elc":1187,"crs":1188,"96":1189,"co":1190,"dnib":1191,"AAAA":1192,"paM":1193,"tcej":1194,"itne":1195,"nw":1196,"ĠĠĠĠĠĠĠĠĠĠĠĠĠĠĠĠĊ":1197,"bil":1198,"77":1199,"__.":1200,"oB":1201,"QBF":1202,"NA":1203,"etubirttA":1204,"elosnoc":1205,"reff":1206,"12":1207,"ele":1208,"thgir":1209,"yreuq":1210,"egap":1211,"tnenopmoC":1212,"Gd":1213,"xob":1214,"retlif":1215,"ĠĠĠĠĠĠĠĠĠĠĠĠĠĠĠĠĠĠĠĠĠĠĠĠĠĠĠĠ":1216,"Ġf":1217,"weiV":1218,"(||":1219,"nopser":1220,"noci":1221,"rebmuN":1222,"ylppa":1223,"ded":1224,"ĉĉĉĉĉĉ":1225,"HI":1226,"ES":1227,"MM":1228,"tats":1229,"85":1230,"trop":1231,"htaP":1232,"Ġelba":1233,"ri":1234,"ger":1235,"morf":1236,"ses":1237,"sm":1238,"olc":1239,"mroF":1240,"----------------":1241,"cS":1242,"32":1243,"ocs":1244,"tna":1245,"********************************":1246,"ilC":1247,"ah":1248,"eT":1249,"knil":1250,"fa":1251,"Ġeman":1252,"noitcnuF":1253,"kcilc":1254,"iti":1255,"evitca":1256,"nif":1257,"roloC":1258,"luohs":1259,"dohtem":1260,"aps":1261,"LM":1262,"eW":1263,"yc":1264,"XZ":1265,"parw":1266,"88":1267,"edoC":1268,"56":1269,"lai":1270,"TA":1271,"rel":1272,"90":1273,"Ġvid":1274,"eciv":1275,"rO":1276,"Ġtes":1277,"evita":1278,"hcaE":1279,"à¸":1280,"hsa":1281,"war":1282,".$":1283,"yad":1284,"{,":1285,"orts":1286,"nerdlihc":1287,"gg":1288,"dnetxe":1289,"tnec":1290,"puorg":1291,"nwod":1292,"eldnah":1293,"citats":1294,"TH":1295,"tim":1296,"Ġnoita":1297,"WZ":1298,"eB":1299,"row":1300,"egnahC":1301,"nO":1302,"euv":1303,"Ġhc":1304,"afeD":1305,"egnahc":1306,"eludoM":1307,"esac":1308,"\"{:\"":1309,"/<>":1310,"Ġst":1311,"ida":1312,"LA":1313,"\\}":1314,"Ġera":1315,"dneppa":1316,"oog":1317,"PM":1318,"DE":1319,"})(":1320,"ww":1321,"as":1322,"mod":1323,"sptth":1324,"cA":1325,"etac":1326,"lb":1327,"go":1328,"SJ":1329,"tilp":1330,"ytreporp":1331,"tressa":1332,"loser":1333,"sse":1334,"Ġse":1335,"40":1336,"elytS":1337,"litu":1338,"renetsiL":1339,"dom":1340,"ecruo":1341,"dlo":1342,"xif":1343,"pxE":1344,"eroc":1345,"gr":1346,"78":1347,"egami":1348,"?(":1349,"ptth":1350,"por":1351,"Ġtcejbo":1352,"========":1353,"salc":1354,"(=":1355,"&&)":1356,"ffO":1357,"hto":1358,"nmuloc":1359,"hctac":1360,"Ġsnruter":1361,"dleif":1362,"nret":1363,"erid":1364,"lf":1365,"tilps":1366,"Ġĉ":1367,"porp":1368,"BE":1369,"$(":1370,"[]":1371,"mun":1372,"DFUQ":1373,"tnetnoC":1374,"tcurtsnoc":1375,"eer":1376,"ort":1377,"98":1378,"hw":1379,"002":1380,"emar":1381,"pit":1382,"kcolb":1383,"gaT":1384,"ipa":1385,"Ġyl":1386,"gnal":1387,"redrob":1388,"Ġtropxe":1389,"tseuqer":1390,"pus":1391,"FF":1392,"dnaH":1393,"ciL":1394,"}))":1395,"nael":1396,"erof":1397,"rem":1398,"roc":1399,"Ġret":1400,"eziS":1401,"hcae":1402,"neciL":1403,"otua":1404,"ecils":1405,"hcaErof":1406,"ke":1407,"tam":1408,"ksa":1409,"sI":1410,"tide":1411,"tamrof":1412,"sgnit":1413,"BA":1414,"del":1415,"dm":1416,"siv":1417,"redaeh":1418,"xi":1419,"reS":1420,"epocs":1421,"llaC":1422,"nigra":1423,"Ġr":1424,"ferh":1425,"gno":1426,"fOxedni":1427,"nekot":1428,"Ġgnay":1429,"Ġyb":1430,"ifi":1431,"sop":1432,"ĉĉĉĉĊ":1433,"tluafeD":1434,"ÙĴ":1435,"97":1436,"/(":1437,"ibc":1438,"nac":1439,"loot":1440,"esim":1441,"=+":1442,"PA":1443,"nwO":1444,"pA":1445,"nur":1446,"ED":1447,"Ð°":1448,"rut":1449,"kcolB":1450,"sM":1451,"goog":1452,"yreuQj":1453,"pi":1454,"ledom":1455,"drow":1456,"elbat":1457,"lA":1458,"07":1459,"Ġ=+":1460,"sec":1461,"srtta":1462,"tnof":1463,"tac":1464,"eM":1465,"13":1466,"cof":1467,"itrep":1468,"tsrif":1469,"\"||":1470,"pe":1471,"nigu":1472,"SS":1473,"Ġ7":1474,"era":1475,"mot":1476,"tT":1477,"dnuorg":1478,"noi":1479,"ddi":1480,"lev":1481,"thgieH":1482,"57":1483,"yb":1484,"IT":1485,"pec":1486,"Ġet":1487,"\"\\=":1488,"du":1489,">/":1490,"esle":1491,"siD":1492,"nosj":1493,"!,":1494,"ĀĀĀĀ":1495,"esolc":1496,"Ġatad":1497,"Ġteg":1498,"\"?":1499,"redaol":1500,"awa":1501,"smarap":1502,"tnI":1503,"htiW":1504,"nottuB":1505,"Gb":1506,"pop":1507,"sed":1508,"tnuoc":1509,"nigram":1510,"reniatnoc":1511,"24":1512,"60":1513,"hS":1514,"lP":1515,"lobmyS":1516,")++":1517,"roF":1518,"64":1519,"tneilc":1520,"65":1521,"sgra":1522,"ĠĠĠĠĠĠĠĠĠĠĠĠĠĠĠĠĠĠ":1523,"hcraes":1524,"ots":1525,"lr":1526,"mem":1527,"rb":1528,"Wa":1529,"ÙĦ":1530,"OD":1531,"nigi":1532,"HT":1533,"maer":1534,"cny":1535,"esaC":1536,"tcaer":1537,"esnopser":1538,"esuom":1539,"dnep":1540,"pircsed":1541,"yra":1542,"uA":1543,"bolg":1544,"+]":1545,"lort":1546,"tob":1547,"Ġtu":1548,"Ġ/*":1549,"ssecorp":1550,"(?":1551,"BN":1552,"tcaeR":1553,"WY":1554,"XY":1555,"LRU":1556,"vi":1557,"niam":1558,"Ġtluafed":1559,"LMTH":1560,"sil":1561,"{,}":1562,"($":1563,"ofnI":1564,"mele":1565,"ytreporPnwO":1566,"neht":1567,"sba":1568,"nit":1569,"...":1570,"gAibc":1571,"ib":1572,"ï¿":1573,"girt":1574,"noitisna":1575,"09":1576,"geR":1577,"noitami":1578,"Ġuo":1579,"nam":1580,"snoitpO":1581,"YY":1582,"acs":1583,"MA":1584,"KCA":1585,"aP":1586,"DOM":1587,"\",}":1588,"tuoemiT":1589,"laiti":1590,"nra":1591,"kram":1592,"so":1593,"evloser":1594,"ï¿½":1595,"egnaR":1596,"hcu":1597,"reple":1598,"gro":1599,"Ġega":1600,"etav":1601,"noisrev":1602,"tini":1603,"gnidda":1604,"noitisoP":1605,"gifnoC":1606,"/../..":1607,"raelc":1608,"nioj":1609,";][":1610,"van":1611,"ĠemaN":1612,"lamro":1613,"lum":1614,"ytpm":1615,"sseM":1616,"hp":1617,"DET":1618,"sutats":1619,"Ġha":1620,":'":1621,"poT":1622,"à¤":1623,"nuf":1624,"Ġllun":1625,"Ġnak":1626,"Ġtiawa":1627,"mm":1628,"Ġtuo":1629,"\\>":1630,"syek":1631,"snarT":1632,"rotcurtsnoc":1633,"nil":1634,"87":1635,"mv":1636,"erP":1637,"liw":1638,"!&&":1639,"Ġdluohs":1640,"motsu":1641,"tacnoc":1642,"Ġg":1643,"niatnoC":1644,"nepo":1645,"rae":1646,"ruteR":1647,"Ðµ":1648,"ehC":1649,"etalpmet":1650,"renni":1651,"ĠĊ":1652,"dnE":1653,"detceles":1654,"ruo":1655,"sepyT":1656,"gnirtSot":1657,"ä¸":1658,"ulc":1659,"***/":1660,"htua":1661,"ler":1662,"Ð¾":1663,"TU":1664,"toor":1665,"hpar":1666,"bp":1667,"llif":1668,"âĢ":1669,"reffuB":1670,"reV":1671,"sporP":1672,"feR":1673,"\"&&":1674,"NOSJ":1675,"tupnI":1676,"kcehC":1677,"olf":1678,"dnuorgkcab":1679,"txetnoC":1680,"tniop":1681,"}\"":1682,"idem":1683,"RH":1684,"ãģ":1685,";}{":1686,"sucof":1687,"vs":1688,"woR":1689,"mor":1690,"elpma":1691,"yr":1692,"nia":1693,"tiws":1694,"etir":1695,"ceps":1696,"DA":1697,"34":1698,"\"{)":1699,":?(":1700,"Ġ/***/":1701,"ros":1702,"delbasid":1703,"Ġb":1704,"SI":1705,"Ġgnit":1706,"lauqe":1707,"30":1708,"}})":1709,"ĉĉĉĉĉĉĉĉ":1710,"liF":1711,"(&&)":1712,"ytreporPenifed":1713,"10":1714,"sei":1715,"tratS":1716,"dA":1717,"eliF":1718,"BEW":1719,"Ġ|":1720,"retsu":1721,"tsop":1722,"htgneL":1723,"ELU":1724,"tceff":1725,"EG":1726,"Ġew":1727,"||)":1728,"krow":1729,"resU":1730,"ĠĠĠĠĠĠĠĠĠĠĠĠĠĠĠĠĠĠĠĠĊ":1731,"elac":1732,"25":1733,"79":1734,"revres":1735,"lacol":1736,"Ġ9":1737,"tseuqeR":1738,"orG":1739,"dE":1740,"ecaps":1741,"Ġ=!":1742,"txE":1743,">=":1744,"mrofsnart":1745,"Ġda":1746,"rid":1747,"stlu":1748,"Ġtner":1749,"tesffO":1750,"yp":1751,"OR":1752,"coD":1753,"hctap":1754,"]'":1755,"noitaru":1756,"Ġĉĉ":1757,"lia":1758,"ĠĠĠĠĉ":1759,"Ġnad":1760,"Ġlliw":1761,"Ð½":1762,"seulav":1763,"45":1764,"Ġstropxe":1765,"nigiro":1766,"porP":1767,"ÙĲ":1768,"ĠsihT":1769,"csed":1770,"rats":1771,"dt":1772,"BC":1773,"[,":1774,"eti":1775,"xel":1776,"KCAP":1777,"dnoc":1778,"\\'":1779,"gniddap":1780,"um":1781,"egasseM":1782,"remu":1783,"yfi":1784,"Ġyek":1785,"redi":1786,"(__":1787,"reggirt":1788,"ELUDOM":1789,"seitrep":1790,"pots":1791,"rekc":1792,"Ġw":1793,"Ġxedni":1794,"nb":1795,"Ġlla":1796,"nruteR":1797,"BS":1798,"pord":1799,"552":1800,".\"(":1801,"dc":1802,"puorG":1803,"ÙĨ":1804,"Ġnoit":1805,"etubirtta":1806,"ï¿½ï¿½":1807,"bo":1808,"noisser":1809,"bat":1810,"Ð¸":1811,"KCAPBEW":1812,"})\"":1813,"14":1814,".\"":1815,"dleiF":1816,"ĠĠĠĠĠĠĠĠĠĠĊ":1817,"Ġfoecnatsni":1818,"noitacol":1819,"=>":1820,"morF":1821,"PMI":1822,"eniL":1823,"50":1824,"liat":1825,"TL":1826,"EI":1827,"cexe":1828,"edih":1829,"amI":1830,"Ġya":1831,"retsulc":1832,"ĠĠĠĠĠĠĠĠĠĠĠ":1833,"xy":1834,"elbaT":1835,"nt":1836,"labolg":1837,"etel":1838,"kcilC":1839,"sc":1840,"pac":1841,"KC":1842,"egnar":1843,"Ġtxet":1844,"iw":1845,"Ġ\"(":1846,"ediv":1847,"tr":1848,"Ġ)\"":1849,"siger":1850,"etadpU":1851,"Ġ;)":1852,"htnom":1853,"Ġnehw":1854,"nna":1855,"tsnI":1856,"unem":1857,"////////":1858,"yaL":1859,"tsa":1860,"{))":1861,"ur":1862,"lrU":1863,".}":1864,"/)":1865,"58":1866,"enod":1867,"verp":1868,"Ġnek":1869,"'($":1870,"lebaL":1871,"mottob":1872,"ha":1873,"lE":1874,"69":1875,"yna":1876,"70":1877,"egaP":1878,"redlo":1879,"ofni":1880,",}}\"":1881,"esimorP":1882,"Ġeno":1883,"Ġtup":1884,"BCI":1885,"ei":1886,"erC":1887,"llorcS":1888,"qer":1889,"nap":1890,"retnI":1891,"Ġ)++":1892,"resni":1893,"esneciL":1894,"Ġsu":1895,"ruC":1896,"oob":1897,"seD":1898,"Ġeva":1899,"lauqE":1900,"sgnittes":1901,"enon":1902,"sk":1903,"OC":1904,"','":1905,"rotceleS":1906,"Ġ\"\\":1907,"sret":1908,"nigulp":1909,"DETRO":1910,"Ùħ":1911,"idar":1912,"68":1913,"tuO":1914,"Ġ{(":1915,"rebmem":1916,"sA":1917,"ls":1918,"edom":1919,"laitini":1920,"ĠA":1921,"elgg":1922,"ooB":1923,"ÙĪ":1924,"yarrAsi":1925,"Ġak":1926,"Ġssalc":1927,"irav":1928,"reniatnoC":1929,"Ġyarra":1930,"tfeL":1931,"ĉĉĉĉĉĉĉ":1932,"reneg":1933,"Ġdne":1934,"lobmys":1935,"xS":1936,"emo":1937,"Ġdo":1938,"Kretsulc":1939,"ĠY":1940,"Ġek":1941,"QB":1942,"80":1943,"ngila":1944,"renetsiLtnevE":1945,"OL":1946,"\",]":1947,"|]":1948,"oR":1949,"Ġtluser":1950,"woL":1951,"35":1952,"/\\":1953,";))(":1954,"ÑĤ":1955,"dep":1956,"lamron":1957,"DETROPMI":1958,"rot":1959,"mit":1960,"ton":1961,"Ġnac":1962,"stpo":1963,"+)":1964,"elbi":1965,"reswor":1966,"Ġnaps":1967,"tpircs":1968,"elacs":1969,"kniL":1970,"wolf":1971,"!*/":1972,"ehcac":1973,"nis":1974,"kcabllaC":1975,"tnuoC":1976,"taM":1977,"nuoc":1978,"rehto":1979,"repo":1980,"nekoT":1981,"cu":1982,"smeti":1983,"ralu":1984,"gap":1985,"erots":1986,",][=":1987,"liam":1988,"-[,]":1989,"erofeb":1990,"egamI":1991,"BFU":1992,"lat":1993,"tik":1994,"litU":1995,"[,\"":1996,"ehca":1997,"tamroF":1998,"à®":1999,"[:\"":2000,"ĠfI":2001,"::":2002,"stnenopmoc":2003,"Ġecna":2004,"_,":2005,"ks":2006,"ahs":2007,"neddi":2008,"atS":2009,"36":2010,"AC":2011,"wolla":2012,",}))":2013,"89":2014,"ytreporPnwOsah":2015,"enolc":2016,"edoM":2017,"TNE":2018,":))":2019,"ddA":2020,"rp":2021,"yV":2022,"yorts":2023,"ĠepyT":2024,"tnioP":2025,"noitpircsed":2026,"yx":2027,"ulcni":2028,"buS":2029,"llec":2030,"==!\"":2031,"rw":2032,"UQBtT":2033,"thgil":2034,"cilppa":2035,"GZ":2036,"Ùı":2037,"ÑĢ":2038,"slitu":2039,"pirc":2040,"redne":2041,"retnec":2042,"tfi":2043,"QDFUQ":2044,"nocI":2045,"eG":2046,"sav":2047,"getac":2048,"redaeH":2049,"+'":2050,"gmi":2051,"naM":2052,"suo":2053,"repus":2054,"ssalCdda":2055,"repleh":2056,"motsuc":2057,"ak":2058,"ÙĬ":2059,"maraP":2060,"kra":2061,"\\-":2062,"67":2063,"dl":2064,"daeh":2065,"set":2066,"MOD":2067,"ms":2068,"kcats":2069,"etirw":2070,"maerts":2071,"nretni":2072,"gard":2073,"15":2074,".,":2075,"dap":2076,"cnuf":2077,"NOC":2078,"tnemucoD":2079,"inu":2080,"gub":2081,"Ġcny":2082,"rewoL":2083,"Ġnekot":2084,"tel":2085,"llort":2086,"lle":2087,"elpmaxe":2088,"nraw":2089,"grA":2090,"necil":2091,"lecna":2092,"48":2093,"tsoh":2094,"LL":2095,"tegraT":2096,"noitisnart":2097,"tcen":2098,"lluf":2099,"stneve":2100,"FI":2101,"Ġreb":2102,"tros":2103,"20":2104,"noM":2105,"Ġtxe":2106,"\"[:":2107,"Ġedi":2108,"ĠsnruteR":2109,"Ġeteled":2110,"neM":2111,"naeloob":2112,"Ġuoy":2113,"sti":2114,"aa":2115,"gnis":2116,"47":2117,"NOI":2118,",)'":2119,"cus":2120,"38":2121,"=!\"":2122,"des":2123,"27":2124,"nwo":2125,"{)++":2126,"xtc":2127,"nc":2128,"teG":2129,"ĠE":2130,"xir":2131,"tnemelEteg":2132,"ve":2133,"im":2134,"reldnaH":2135,"lR":2136,"ledoM":2137,"etavirp":2138,"og":2139,"^/":2140,"ĠĠĉ":2141,".)}":2142,"hsad":2143,"etalsnart":2144,"Ġeurt":2145,"dehc":2146,"xoB":2147,"SA":2148,"gvs":2149,"Ġyrt":2150,"thgiR":2151,"HC":2152,"NU":2153,"ered":2154,"29":2155,"tcer":2156,"ja":2157,"OBN":2158,"sb":2159,"otorP":2160,"eva":2161,"rega":2162,"rotide":2163,"lop":2164,"##":2165,"lg":2166,"esaCrewoL":2167,"elggot":2168,"Ġdohtem":2169,"][":2170,"Ġtnemele":2171,"OT":2172,"\"()":2173,"doM":2174,"37":2175,"noitceles":2176,",]'":2177,"=<":2178,"hctiws":2179,"\\;)":2180,"olF":2181,"ytica":2182,"esaB":2183,"ãĤ":2184,"Ġthgir":2185,"sserg":2186,"|)":2187,"nar":2188,"www":2189,"59":2190,"reP":2191,"rah":2192,"neer":2193,"ward":2194,"ppA":2195,"Ġsnoitpo":2196,"/$":2197,"mb":2198,"esaCrewoLot":2199,"/.\"":2200,"tegdi":2201,"repparw":2202,"bup":2203,"RT":2204,"Ġelif":2205,"eruta":2206,"Ġdenifed":2207,"ĉĉĉĉĉĊ":2208,"noitpO":2209,"ĠĠĠĠĠĊ":2210,"ngis":2211,"eteled":2212,"tatS":2213,"dilaV":2214,".`":2215,"itca":2216,"bd":2217,"dirg":2218,"26":2219,"tropmi":2220,"ngissa":2221,",,":2222,",})(":2223,"dev":2224,"vne":2225,"hcuot":2226,"tt":2227,"lortnoc":2228,"/.'":2229,"snoita":2230,"noisne":2231,"Ġsah":2232,"ytpme":2233,"tresni":2234,"keew":2235,"dnes":2236,"reffub":2237,"Ġedoc":2238,"ecner":2239,"dezi":2240,"time":2241,"rav":2242,"Ġevah":2243,"'t":2244,"tneverp":2245,"eF":2246,"remune":2247,"ãĥ":2248,"OBNUQBtT":2249,",)})":2250,"mmoc":2251,"Ġelihw":2252,"rotceles":2253,"niop":2254,"Ġ&":2255,"xA":2256,"Ġcnysa":2257,".))":2258,"ssap":2259,"droc":2260,"Ġtnem":2261,"reh":2262,"Ġytreporp":2263,"Ġ,`":2264,"rA":2265,"yticapo":2266,"noitcA":2267,"ecaf":2268,"FL":2269,"noitamina":2270,"moC":2271,"Ġos":2272,"deta":2273,"serp":2274,"Ġegna":2275,"ypoc":2276,"GNI":2277,"ay":2278,"}]":2279,"emarf":2280,"Ġdnu":2281,"ai":2282,"ï¼":2283,"Du":2284,"elbasid":2285,"ĠT":2286,"edoNtnerap":2287,"ecruoS":2288,"tidE":2289,"emarap":2290,"cit":2291,"neddih":2292,"nretta":2293,"Ġtneve":2294,"xeg":2295,"JH":2296,"******/":2297,"dliub":2298,"jbO":2299,"TIDE":2300,"ehw":2301,"erem":2302,"Ġon":2303,"\\.":2304,"tnIesrap":2305,";})":2306,"lau":2307,"moo":2308,"#\"(":2309,"xelf":2310,"Ġhcihw":2311,"<'":2312,"Ġdel":2313,"eueuq":2314,"gACIg":2315,"cc":2316,"oof":2317,"Ġyro":2318,"NEL":2319,"revO":2320,"Ġ)]":2321,"ytili":2322,"Gc":2323,"renwo":2324,"Ġdesu":2325,"Ġhtap":2326,"ugnal":2327,"/'":2328,"Ġrednu":2329,"ĠxednI":2330,"Ø±":2331,"Bi":2332,"tuptuo":2333,"ssalCcitats":2334,"Ġetad":2335,"ebir":2336,"Ġdet":2337,"28":2338,"ekorts":2339,"\",}\"":2340,"bb":2341,"nmuloC":2342,"ym":2343,"39":2344,"udorp":2345,"ecnatsnI":2346,"fit":2347,"sla":2348,"niM":2349,"tfihs":2350,"won":2351,"Ñģ":2352,"yortsed":2353,"',":2354,"--------------------------------":2355,"Wd":2356,"================":2357,"OBNUQBtTQDFUQ":2358,"ia":2359,"lx":2360,"@@":2361,"Ð°Ð":2362,"tol":2363,"nF":2364,"`(":2365,"woda":2366,"{:\"":2367,"AM":2368,"ovni":2369,"stnem":2370,"irP":2371,"ĀĀĀĀĀĀĀĀ":2372,"ohS":2373,"eludoMse":2374,"49":2375,"Ġtf":2376,"aN":2377,"ROTIDE":2378,"Ġxp":2379,"SE":2380,"oD":2381,"Ġka":2382,"ee":2383,"Ġded":2384,"taolF":2385,"rekcip":2386,"hparg":2387,"noitcelloc":2388,":]":2389,"Ġmu":2390,"Ġci":2391,"ĠĠĠĠĠĠĠĠĠĠĠĠĠ":2392,"Ġgnirts":2393,"rf":2394,"knu":2395,"Ġtsum":2396,"pmeT":2397,"*]":2398,"rellort":2399,"!!":2400,"parW":2401,"ROTIDEKC":2402,"level":2403,"000":2404,"trahc":2405,"rG":2406,"iL":2407,"dlihCdneppa":2408,"ylkcolB":2409,"tuoemiTtes":2410,"sseccus":2411,"CX":2412,"ntb":2413,"sU":2414,"poC":2415,"Ġtne":2416,"yaD":2417,"tcennoc":2418,"tsid":2419,"roppus":2420,"daoL":2421,"16":2422,"Ġ,)(":2423,"hser":2424,"oi":2425,"19":2426,"atem":2427,"ug":2428,"uneM":2429,"Ġ**/":2430,"fd":2431,"redloh":2432,"eriuqeR":2433,"RHX":2434,"dnA":2435,"lenna":2436,"hctapsid":2437,"Ġdes":2438,"YT":2439,"Ġ=>":2440,"Ġpu":2441,"tiT":2442,"ĠI":2443,"retuo":2444,"kcaB":2445,"AL":2446,"omer":2447,"ĠdI":2448,"ag":2449,"taht":2450,".__":2451,"ffff":2452,"ehcaC":2453,"ĠD":2454,"ys":2455,"gola":2456,"[,}}\"":2457,"kcit":2458,"Ġ21":2459,"rahC":2460,"tcerid":2461,"olC":2462,"edis":2463,"laire":2464,"tceR":2465,"lB":2466,"tikbew":2467,"lli":2468,"!||":2469,"<<":2470,"yap":2471,"selyts":2472,"-[":2473,"Ġdilav":2474,"\\,":2475,"tcejer":2476,"mina":2477,"{,}\"":2478,"resworb":2479,"-(":2480,"wt":2481,"Ġay":2482,"goL":2483,"ON":2484,"emeht":2485,"pxEgeR":2486,"Ġrorre":2487,"aira":2488,"lmx":2489,"hsah":2490,"reyal":2491,"ssalCevomer":2492,"Ġ!*/":2493,"ecivreS":2494,"tseT":2495,"gsm":2496,"gI":2497,"deriuqer":2498,"teser":2499,"htnoM":2500,"iverp":2501,"tcart":2502,"OP":2503,"naelooB":2504,"elbaremune":2505,"Ġma":2506,"EM":2507,"ej":2508,"redneR":2509,",]]":2510,"looT":2511,"dnuob":2512,"SU":2513,"epS":2514,"desu":2515,"AI":2516,"(}":2517,"(,":2518,"retsiger":2519,"Ġenil":2520,"nopseR":2521,"hcat":2522,"hctaM":2523,"ĠeulaV":2524,"erif":2525,"noisreV":2526,"sni":2527,"yram":2528,"yy":2529,"Ġdenifednu":2530,"Ġ/******/":2531,"Ġylno":2532,"Ð¾Ð":2533,"áĥ":2534,",}})":2535,"amehc":2536,">'":2537,"tuor":2538,"hgih":2539,"draob":2540,"siV":2541,"ul":2542,"etubirttAtes":2543,"galf":2544,"aer":2545,"Ġv":2546,"egaro":2547,"Ġod":2548,"feD":2549,"AF":2550,"naC":2551,"noitcen":2552,"tad":2553,"retne":2554,"beW":2555,"OH":2556,"gnol":2557,"efer":2558,"(:":2559,"dnuoB":2560,"lanigiro":2561,"buhti":2562,"daeR":2563,"noitceleS":2564,"ydaer":2565,"ziro":2566,"lloc":2567,"roW":2568,"xm":2569,"Ġyam":2570,"Ġ61":2571,"17":2572,"nwoD":2573,"ĠĠĠĠĠĠĠĠĠĠĠĠĠĠĠ":2574,"':":2575,"worra":2576,"nel":2577,"tneilC":2578,"ĠX":2579,"\\[":2580,");":2581,"(+":2582,"Wb":2583,",)])\"":2584,"renetsiLtnevEdda":2585,"gsM":2586,"AS":2587,"htuA":2588,"18":2589,",]}":2590,"?]":2591,"Ġruo":2592,"rered":2593,"nor":2594,"miT":2595,"art":2596,"ĠĠĠĠĠĠĠĠĠĠĠĠĠĠĠĠĠĠĠĠĠĠ":2597,"pircseD":2598,"$$":2599,"gQ":2600,"åı":2601,"dluohs":2602,"sJ":2603,"tcejorp":2604,"tneraP":2605,"gnita":2606,"Ġetats":2607,"etadilav":2608,"US":2609,"wodniW":2610,"fid":2611,"ladom":2612,"gubed":2613,"RET":2614,"revnoc":2615,"gel":2616,"rac":2617,"Ġakerem":2618,"EV":2619,"652":2620,"lJ":2621,"ĠRO":2622,"ypoC":2623,"Ġhtdiw":2624,"Ġezi":2625,"ĠB":2626,"rorrEepyT":2627,"AAAAAAAA":2628,"etareti":2629,"lecnac":2630,"NaN":2631,"/.'(":2632,"givan":2633,"golaid":2634,"noitid":2635,"salC":2636,"lacit":2637,"Ùĳ":2638,"buhtig":2639,"tsnoc":2640,"UQBNEL":2641,"retfa":2642,"seitreporp":2643,"tnuom":2644,"\"{,}":2645,"dnuor":2646,"egrem":2647,"evitan":2648,"Ġtub":2649,"non":2650,"sredaeh":2651,"-=":2652,"dnoces":2653,"retliF":2654,"eert":2655,"evitc":2656,"dIyB":2657,"sixa":2658,"noitacilppa":2659,"ekam":2660,"za":2661,"ooR":2662,"ecivres":2663,"ĠĠĠĠĠĠĠĠĠĠĠĠĠĠĠĠĠĠĠĠĠĠĠĠĊ":2664,"***":2665,"yrotca":2666,"savnac":2667,"_[":2668,"etuor":2669,".'(":2670,"sepyt":2671,"(]":2672,"swor":2673,"æľ":2674,"eriD":2675,"ecruoser":2676,"revoh":2677,"liated":2678,"****************************************************************":2679,"tp":2680,"latot":2681,".'":2682,"rh":2683,"etaerC":2684,"noitarud":2685,"ðŁ":2686,"Ġedon":2687,"elbisiv":2688,"CE":2689,"lleC":2690,"hcte":2691,"'[,'":2692,"yrtemo":2693,"Ġtrats":2694,"ralugna":2695,"Ġ]\"":2696,"tem":2697,"nidro":2698,"nitnoc":2699,"fc":2700,"821":2701,";][=":2702,"Ġ]'":2703,"pets":2704,"Ga":2705,"tceffe":2706,"ĠĠĠĠĠĠĠĠĠĠĠĠĠĠĠĠĠĠĠĠĠĠĠĠĠĠĠĠĠĠĠĠĠĠĠĠĠĠĠĠĠĠĠĠĠĠĠĠĠĠĠĠĠĠĠĠĠĠĠĠĠĠĠĠ":2707,"ila":2708,"Ic":2709,"Ġrebmun":2710,"xt":2711,"syad":2712,"ĠĠĠĠĠĠĉ":2713,"iP":2714,"çļ":2715,"ecil":2716,"AD":2717,"hteM":2718,"mirt":2719,"noisserpxe":2720,"yfit":2721,"tfo":2722,"xF":2723,"nepO":2724,"rotceleSyreuq":2725,"hcna":2726,"ĠĠĠĠĠĠĠĠĉ":2727,"IL":2728,"lF":2729,"liame":2730,"Ġtupni":2731,"tekc":2732,"Ġtegra":2733,"sro":2734,"gw":2735,"noissim":2736,"noitces":2737,"timil":2738,"Ġeg":2739,"Ġ\"+":2740,"\"[,]\"":2741,"rugifnoc":2742,"eltiT":2743,"sf":2744,"reldnah":2745,"euQ":2746,"ns":2747,"ets":2748,"nuoC":2749,"00000000":2750,"tirw":2751,"hcraeS":2752,"yaw":2753,"Ġsti":2754,"epahs":2755,"}{":2756,"ez":2757,"lortnoC":2758,",}{(":2759,"tl":2760,"setubirtta":2761,"hsadol":2762,"smaraP":2763,"__(":2764,"Øª":2765,"\"{,}\"":2766,"ooH":2767,"uj":2768,"ĠĠĠĠĊĊ":2769,"ad":2770,"EH":2771,"raB":2772,"epytotorP":2773,"kcart":2774,"ten":2775,"raeY":2776,"reganaM":2777,"ĠataD":2778,"çļĦ":2779,"sap":2780,"retniop":2781,"nommoc":2782,"\\)":2783,"etupmoc":2784,";))}":2785,"Ġ01":2786,"noitcerid":2787,"ĠesneciL":2788,"zV":2789,"Ø¨":2790,"tluafeDtneverp":2791,"slitU":2792,"neercs":2793,"pitloot":2794,"emarF":2795,"ongi":2796,",})\"":2797,"Ġlav":2798,"epyTedon":2799,"sn":2800,"DFUQD":2801,"tegdiw":2802,"Ġeru":2803,"||]":2804,"hsi":2805,"lced":2806,"etubirttAteg":2807,"/.\"(":2808,"\\\"":2809,"Ġj":2810,"/}":2811,"lluF":2812,"itnedi":2813,"*)":2814,"FO":2815,"raey":2816,"Ġyre":2817,"elbane":2818,"kooh":2819,"vN":2820,"#\":":2821,",}{=":2822,"eN":2823,"elu":2824,"AAA":2825,"'\\":2826,"etelpmoc":2827,"nomrah":2828,"sessalc":2829,"ruos":2830,",][":2831,"ytic":2832,",))\"":2833,"bO":2834,"Ġhctac":2835,"atada":2836,"ped":2837,"Fm":2838,"ifit":2839,"evitcA":2840,"rehni":2841,"dnik":2842,"Ġ00":2843,"ĠĠĠĠĠĠĠĠĠĠĠĠĠĠĠĠĠĠĠĠĠĠĠĠĠĠĠĠĠĠĠĠĠĠĠĠ":2844,"renetsil":2845,"ÙĦØ§":2846,"noitaminA":2847,"Mz":2848,"Ġ_":2849,"mets":2850,"EC":2851,"nib":2852,"semaN":2853,"soP":2854,"uder":2855,"Ġecruos":2856,"elb":2857,"Ġmrof":2858,"drac":2859,"lN":2860,"evas":2861,"Ġynomrah":2862,"stnevE":2863,"edils":2864,",\"\\":2865,"sutatS":2866,"weN":2867,"Ùĩ":2868,"noitat":2869,"`}":2870,"Ġrota":2871,"vaN":2872,"naP":2873,"LI":2874,"nrettap":2875,"sgnitteS":2876,"tnemgar":2877,"qe":2878,"coF":2879,"))\"":2880,"rediv":2881,"ey":2882,"itlum":2883,"Ġtnerruc":2884,"XE":2885,"fA":2886,";++":2887,"arT":2888,"dekcehc":2889,"oH":2890,">>>":2891,"esuoM":2892,",))}":2893,"cp":2894,"xiferp":2895,"deda":2896,"Ġadap":2897,"Ġsser":2898,"Ġetu":2899,"xaja":2900,"Xa":2901,"evitaler":2902,"tuoyal":2903,"tpo":2904,"lanretni":2905,"roolf":2906,"Xd":2907,"DF":2908,"kraM":2909,"Ġsaw":2910,"tz":2911,"oid":2912,"nig":2913,"suoiverp":2914,",}{":2915,"tg":2916,"EK":2917,"Ġthgieh":2918,"/:":2919,"rttA":2920,"sserdda":2921,"enilni":2922,"wodahs":2923,"Ġ__":2924,"ÐµÐ":2925,"#'($":2926,"dnammoc":2927,"Ġrep":2928,"dit":2929,"tH":2930,"noisses":2931,"mz":2932,"ik":2933,"doc":2934,"ĠfO":2935,"gACIgACIgACIgACIgACIgACIgACIgACI":2936,"gU":2937,"edocne":2938,"nup":2939,"'+":2940,",\".":2941,"ï¿½ï¿½ï¿½ï¿½":2942,"baT":2943,"åħ":2944,"?{":2945,"åĪ":2946,",}]":2947,"lenap":2948,"ãĢ":2949,"raC":2950,"/<>\"":2951,"yfignirts":2952,"xirtaM":2953,"#'":2954,"ewt":2955,"Ġeslaf":2956,"otS":2957,"tceffE":2958,"aidem":2959,"erofeB":2960,"edi":2961,"rotareti":2962,"/\"":2963,"doB":2964,"gnil":2965,"pmt":2966,"leveL":2967,"retuor":2968,"scod":2969,"Ġecnis":2970,"Ġeludom":2971,"etalpmeT":2972,"seitreporP":2973,"bA":2974,"oediv":2975,"pecxe":2976,"stnemele":2977,"Ġnaka":2978,"ksat":2979,";))'":2980,";}{=":2981,"xeger":2982,"trohs":2983,"ĠhallA":2984,"clac":2985,"reget":2986,"@'":2987,"egaugnal":2988,"Ġtfel":2989,"NOIT":2990,"gACIux":2991,"mus":2992,"esrev":2993,"\",\".":2994,"Ġtsrif":2995,"sniatnoc":2996,"Ġtsil":2997,"dohteM":2998,"kcatS":2999,"stluser":3000,"ea":3001,"SZ":3002,"gnem":3003,"mmoC":3004,"ĠhtdiW":3005,"retI":3006,"sedoN":3007,"eziser":3008,"Ġpot":3009,"011":3010,"laC":3011,"elgoog":3012,"esimorp":3013,"Ġdeta":3014,"ä»":3015,"olev":3016,"tooR":3017,"elacol":3018,"yL":3019,"ges":3020,"pircS":3021,"LMTHrenni":3022,"smetI":3023,"ylno":3024,"Ġ=<":3025,"]]":3026,"ahS":3027,"ytpmE":3028,"xaM":3029,"Ġgnaro":3030,"nuR":3031,"ekovni":3032,"cev":3033,"sixe":3034,"liaf":3035,"birt":3036,"Ġ23":3037,"(*":3038,"{>=":3039,"ifidom":3040,";))\"":3041,"esnopseR":3042,"sepyTporP":3043,"gnp":3044,"021":3045,"seru":3046,"<\"":3047,"tniU":3048,"iD":3049,"wa":3050,"ecilps":3051,"___":3052,"à¹":3053,"elihw":3054,"mI":3055,"rotce":3056,"elgna":3057,"leD":3058,"_=":3059,"redlohecalp":3060,"uV":3061,"nigulP":3062,"gnidaol":3063,"(!(":3064,"Ġdli":3065,"erut":3066,"FA":3067,"ene":3068,"apS":3069,"\",)":3070,"Ġtesffo":3071,"Ġseulav":3072,"wolfrevo":3073,"Ġz":3074,"maertS":3075,"EP":3076,"sgni":3077,"GV":3078,"eBot":3079,"-:":3080,"Ġdle":3081,"CIL":3082,"deR":3083,"tnerruC":3084,"pitlum":3085,"stniop":3086,"yrotsi":3087,"lh":3088,"/'(":3089,"Ġezis":3090,"eunitnoc":3091,"noitacoL":3092,"hctef":3093,"bn":3094,"ehT":3095,"Ġder":3096,"9999":3097,"Ġ))(":3098,"koob":3099,"ecne":3100,"Ġemit":3101,"MAN":3102,"sV":3103,"stes":3104,"ĠC":3105,"GA":3106,"Ġdaol":3107,",})}":3108,"////////////////":3109,"ERU":3110,"tcet":3111,"iM":3112,"Ġ)((":3113,"dirG":3114,"poP":3115,"ĠthgirypoC":3116,"srepleh":3117,"lairetam":3118,"(,\"":3119,"tla":3120,"ĠL":3121,"Ġresu":3122,"å®":3123,"rd":3124,"garD":3125,"stna":3126,"sx":3127,"Ġneeb":3128,"emaraP":3129,"Ġkcabllac":3130,"OB":3131,"Ġyna":3132,"AB":3133,",))(":3134,"\",\")":3135,"003":3136,"dIyBtnemelEteg":3137,"snoitca":3138,"\\*":3139,"Ã©":3140,"Ñĥ":3141,"rc":3142,"Ġtna":3143,"noitisnarT":3144,"vig":3145,"lbc":3146,"Ġ42":3147,"Ġuti":3148,"Cd":3149,"puS":3150,"(:)":3151,"lanret":3152,"yS":3153,"ï¼Į":3154,"Ġrehto":3155,"^[":3156,"rezi":3157,"erg":3158,"elbarugifnoc":3159,"palloc":3160,"tcurtsnoC":3161,"IU":3162,"Ġtseuq":3163,"005":3164,"bz":3165,"nednep":3166,"cric":3167,"Ġsj":3168,"muN":3169,"<>'":3170,"tuoemit":3171,"xyQBF":3172,"seires":3173,"rad":3174,"tal":3175,"Ġjbo":3176,")]\"":3177,"Ġylla":3178,"ki":3179,"tluseR":3180,"UR":3181,"Ġht":3182,"))(":3183,"Ġtegrat":3184,"etulo":3185,"tm":3186,"ĠP":3187,"Ġerof":3188,"})]":3189,"idaR":3190,"ig":3191,"Ġmeti":3192,"ocS":3193,"++;":3194,"reyalp":3195,"SM":3196,"hcuoT":3197,"cv":3198,"Ġle":3199,"ssergorp":3200,"tuoyaL":3201,"uS":3202,"})}":3203,"iceps":3204,"Âł":3205,"syeK":3206,"soi":3207,"qs":3208,"åĮ":3209,"Ġ%":3210,"troppus":3211,"#\"($":3212,"lennahc":3213,":)(":3214,"suidar":3215,"sixA":3216,";''":3217,"ĠÙİ":3218,"ydoB":3219,"diu":3220,"Ġid":3221,"txeN":3222,"äº":3223,"oS":3224,"bf":3225,"etyb":3226,"noitau":3227,"tnemmoc":3228,"gnidnep":3229,"pmI":3230,"reneG":3231,"Ġ)}":3232,"tnoziro":3233,"ecrof":3234,"nwodpord":3235,"Ð¸Ð":3236,"Ġhal":3237,"elor":3238,"tnil":3239,"acse":3240,"ĉĊĉ":3241,"rek":3242,"Lz":3243,"ruoh":3244,"neR":3245,"mooz":3246,"211":3247,"à¯":3248,"tsiLssalc":3249,"yalpsiD":3250,"itrap":3251,"Ġkadit":3252,"ĠuoY":3253,"luM":3254,"laiD":3255,"etis":3256,"wohS":3257,"ssA":3258,"cnysa":3259,"hctaw":3260,"åİ":3261,"drowssap":3262,"åĲ":3263,"tcarahc":3264,"draw":3265,"neg":3266,"df":3267,"IPA":3268,"pc":3269,"[[,]":3270,"idni":3271,"revreS":3272,"etihw":3273,"radne":3274,"Ġegassem":3275,"tor":3276,"vl":3277,"Ġgnisu":3278,"kQ":3279,"YYYY":3280,"/]":3281,",)}}":3282,"noisserpxE":3283,".\\":3284,"riF":3285,"<>\"":3286,"geta":3287,"Ġnagne":3288,"bj":3289,"laires":3290,".]\"":3291,"paC":3292,"ETA":3293,"EDO":3294,"Ġknil":3295,";(":3296,"cilbup":3297,"selif":3298,"riD":3299,"rosruc":3300,"ĠtxeT":3301,"DM":3302,">}":3303,"Ġ)__":3304,"kool":3305,"ificeps":3306,"aj":3307,"Ġ!*/(__":3308,"Ø¯":3309,"ylla":3310,"sedon":3311,"EB":3312,"ii":3313,"ebircsed":3314,"EER":3315,"Ġem":3316,"Ġllac":3317,"wh":3318,"teeh":3319,"wop":3320,"Ġotni":3321,"kcilCno":3322,"mrofsnarT":3323,"(_":3324,"tnatropmi":3325,"ĉĉĉĉĉĉĊ":3326,"drocer":3327,"mZ":3328,"eueuQ":3329,"nep":3330,"tcudorp":3331,"Ã¡":3332,"hu":3333,"ĠedoN":3334,"emitnur":3335,"repparW":3336,"ore":3337,"._`":3338,"evi":3339,"MU":3340,"EF":3341,"ĠØ§":3342,"shtnom":3343,"edoCrahc":3344,"Ġehc":3345,"Ġlru":3346,"bs":3347,"esi":3348,"tnemelpmi":3349,"ratS":3350,"loob":3351,"detcepxe":3352,"sucoF":3353,"cf":3354,"niF":3355,"ylop":3356,"emu":3357,"áŀ":3358,"wS":3359,"abgr":3360,"lave":3361,"&&]":3362,"tfos":3363,"omem":3364,"ksam":3365,"gb":3366,"golaiD":3367,"Ġssec":3368,"ssi":3369,"ficeps":3370,"toB":3371,"yrogetac":3372,"IF":3373,"etubirtsid":3374,"repleH":3375,"nerdlihC":3376,"VEL":3377,"kna":3378,"à¥":3379,"amehcs":3380,"xim":3381,"liava":3382,"eraw":3383,"seulaV":3384,"keeW":3385,"elbairav":3386,"etanidro":3387,"egarotS":3388,"esraP":3389,"çĶ":3390,"modnar":3391,"ytreporPnwOteg":3392,"snigulp":3393,"Ø³":3394,",`":3395,"porD":3396,"cnyS":3397,"Ġcitats":3398,"td":3399,"lmtH":3400,"RRA":3401,"Ġretfa":3402,"\\(":3403,"detceleS":3404,"fub":3405,"yh":3406,"ID":3407,"ij":3408,"ldnah":3409,"tib":3410,"kS":3411,"redli":3412,"rotarepo":3413,"Ø¹":3414,"à¦":3415,"701":3416,"Ġekil":3417,"yaled":3418,"ahp":3419,"sam":3420,"nigeb":3421,"reif":3422,"Vmc":3423,"tArahc":3424,"amrof":3425,"trela":3426,"ĠeeS":3427,"evoM":3428,"ORP":3429,"mle":3430,"emaNedon":3431,">\"\\":3432,"ladoM":3433,"Ġnoitisop":3434,"/..'":3435,"tcejni":3436,"marg":3437,"xiF":3438,"TX":3439,"yrtne":3440,"rellortnoC":3441,"Ġtni":3442,"Ġevita":3443,"hR":3444,"net":3445,"æĸ":3446,"elacS":3447,".)]":3448,"/=":3449,"Ġnagned":3450,"EA":3451,"ĠthgieH":3452,"#\"":3453,"Ġq":3454,"wollo":3455,"delbane":3456,"esolC":3457,"repO":3458,"taolFesrap":3459,"Ġerofeb":3460,"noitcennoc":3461,"{);":3462,"å¤":3463,"etamina":3464,"csbus":3465,"sMUQBNEL":3466,"Ġrehti":3467,"lacitrev":3468,"redrO":3469,"MMMM":3470,".))(":3471,"tcnup":3472,"ĠfOrebmem":3473,"dnammoC":3474,"ĠetatS":3475,"stluafed":3476,"HH":3477,"PU":3478,"hserfer":3479,"Ġruoy":3480,"roced":3481,"emaNyalpsid":3482,"vres":3483,"Ġees":3484,"Ġdnuof":3485,"noitacifit":3486,"ces":3487,"tnemom":3488,"Ġlu":3489,"dilavni":3490,"gACIgACIux":3491,"Ġtnetnoc":3492,"ssecca":3493,"lS":3494,"bild":3495,"siL":3496,"TP":3497,"pj":3498,"004":3499,"sci":3500,"ĠgnirtS":3501,"epacse":3502,"111":3503,"ssergorP":3504,"Ġtxen":3505,"Ġnottub":3506,"WL":3507,")))":3508,"eerT":3509,"è¯":3510,"Ġsdnetxe":3511,"ecnerefer":3512,"daolpu":3513,"ecneref":3514,"srorre":3515,"GL":3516,"215":3517,"Ġadapek":3518,"jL":3519,"av":3520,"Ġnevig":3521,"reyaL":3522,"lebab":3523,"hcatta":3524,"leh":3525,"trohS":3526,"etS":3527,"ch":3528,"=-":3529,"tnilse":3530,"rohcna":3531,"egnahCno":3532,"sE":3533,"[)":3534,"gnippa":3535,"uoR":3536,"RAP":3537,"Ġdda":3538,"evitcerid":3539,"ĠĠĠĠĠĠĠĠĊĊ":3540,"gk":3541,"ow":3542,"052":3543,"xFdc":3544,"Ġyd":3545,"emag":3546,"egakcap":3547,"erotS":3548,"pecca":3549,"611":3550,"Ġeca":3551,"yBs":3552,"DD":3553,"selytS":3554,"``":3555,"\"[__":3556,"pilc":3557,"moD":3558,"timbus":3559,"/.\",":3560,"Ġtnerap":3561,"edivorp":3562,"æĹ":3563,"ĠrorrE":3564,"rtsbus":3565,"\"=+":3566,"NaNsi":3567,"_\"(":3568,"nuF":3569,"\\|":3570,"SP":3571,"ecived":3572,"dniB":3573,"ng":3574,"yrc":3575,"nifeD":3576,"ĠtnemelE":3577,"\"[:\"":3578,"REV":3579,"Ġdetubirtsid":3580,"fOepytotorP":3581,"qj":3582,"Ġ}*":3583,"Ġ#":3584,"uti":3585,"Ġyra":3586,"etatStes":3587,"noitautcnup":3588,"EU":3589,"etulosba":3590,"tAedoCrahc":3591,"yJ":3592,"gnaL":3593,"etag":3594,"poTllorcs":3595,"Ġydaer":3596,"EERHT":3597,"Ġyrogetac":3598,"ĀĀĀĀĀĀĀĀĀĀĀĀĀĀĀĀ":3599,"xeh":3600,"ĠÙĴ":3601,"Ùĥ":3602,"ouq":3603,"Ġhctiws":3604,"daolyap":3605,"SN":3606,"daeH":3607,"dn":3608,"dnapxe":3609,"pool":3610,"retfA":3611,"erutxeT":3612,"TEG":3613,"hZ":3614,"ecapseman":3615,"LAV":3616,"æķ":3617,"TM":3618,"Ġhcae":3619,"iset":3620,"motsuC":3621,"ESNE":3622,"ipA":3623,"vaj":3624,"ĠĠĠĠĠĠĠĠĠĠĠĠĠĠĊ":3625,"ĠyarrA":3626,"Ġ))'":3627,"CS":3628,"Ġ;\"":3629,"ksaT":3630,"tnirp":3631,"knuhc":3632,"col":3633,"0001":3634,"reta":3635,"xobkcehc":3636,"tcat":3637,"Ġyp":3638,".(":3639,"zN":3640,"rabloot":3641,"noitcnuFsi":3642,"noisnetxe":3643,"....":3644,"ĠĠĠĠĠĠĠĠĠĠĠĠĠĠĠĠĠ":3645,"2121":3646,"gnirtsbus":3647,"srota":3648,"xf":3649,"redaoL":3650,"deM":3651,"Ġyt":3652,"ref":3653,"napxe":3654,"ku":3655,"edonv":3656,"{$`":3657,"Ġmele":3658,"Ġerom":3659,"{{":3660,"ytiro":3661,"EN":3662,"ipmoc":3663,"Ġrehtie":3664,"(!":3665,"pmats":3666,"Ġdlu":3667,"syadkeew":3668,"TN":3669,"vA":3670,"tsaL":3671,"Ġdeen":3672,"elur":3673,"Ġssel":3674,"\"{:":3675,"nS":3676,"IP":3677,"{[:":3678,"sz":3679,"bisiv":3680,"sdleif":3681,"draC":3682,"()}":3683,"Ġecnatsni":3684,"Ġsnoita":3685,"ESNECIL":3686,"omeR":3687,"rema":3688,"orc":3689,"biS":3690,"sserddA":3691,"sv":3692,"itnedI":3693,"iraV":3694,"elbisiV":3695,"pil":3696,"521":3697,"gnA":3698,"oF":3699,"Ġneht":3700,"Ġnoitpo":3701,"å¸":3702,"orht":3703,"Ġnoisrev":3704,"RRE":3705,"kciT":3706,"ct":3707,"sigeR":3708,"Ġ81":3709,"latnoziro":3710,"reredner":3711,"Zp":3712,"Ġkcehc":3713,"yxorp":3714,"yrtemoeg":3715,"âĶ":3716,"epocS":3717,"dedaol":3718,"EMAN":3719,"Ġ11":3720,"ereh":3721,"kcarT":3722,"edulcni":3723,"noitcelloC":3724,"redivorP":3725,"ecer":3726,"Ġ}*{":3727,"SL":3728,"revoc":3729,"rekram":3730,"viD":3731,"ssalCsah":3732,"epip":3733,"stnemelE":3734,"åİ¿":3735,"hW":3736,"sresu":3737,"hsaH":3738,"selur":3739,"yramirp":3740,"Ġeti":3741,"nimret":3742,"deen":3743,"Ġelyts":3744,"YEK":3745,",\"\":":3746,"['":3747,"lavretnI":3748,"fI":3749,"NOITI":3750,"enoz":3751,"Ġnel":3752,"OM":3753,"ĠFO":3754,"toN":3755,"loP":3756,"xirtam":3757,":)\"":3758,"mY":3759,"etalu":3760,"dexif":3761,"seg":3762,"Ġ,)\"":3763,"gaporP":3764,"Ġreht":3765,"rotcurtsnoC":3766,"hB":3767,"061":3768,",)}\"":3769,"otuA":3770,"Ġ,]'":3771,"ĠtcejbO":3772,"dnuof":3773,"SC":3774,"Ġniat":3775,"oor":3776,"Ġderiuqer":3777,"LMX":3778,"eper":3779,"rotpircseD":3780,"PO":3781,"rhx":3782,"ĠteS":3783,"aerat":3784,"=_":3785,"Ġmala":3786,"atadatem":3787,"tsoP":3788,"itna":3789,",\")":3790,"\",]\"":3791,"srep":3792,"BI":3793,"àª":3794,"iro":3795,"ĠyeK":3796,"EE":3797,"nod":3798,"TRO":3799,"lima":3800,"noissimrep":3801,";)))":3802,"JXZ":3803,"Ġpa":3804,"gM":3805,"evis":3806,"opmoc":3807,"ĠtnenopmoC":3808,"(,)":3809,"Ġeralced":3810,"Ġtxetnoc":3811,"[,}\"":3812,"jN":3813,"in":3814,"hsinif":3815,"erapmoc":3816,"ĠDI":3817,"Ġwor":3818,"CL":3819,"an":3820,"tb":3821,"rs":3822,"ĠLRU":3823,"BD":3824,":\"\\":3825,"Ùģ":3826,"rW":3827,"tcerroc":3828,"081":3829,"ved":3830,"ĠĠĊĊ":3831,"seman":3832,"!,)":3833,"nosJ":3834,"Ġxif":3835,"tk":3836,"nimda":3837,"åĬ":3838,"Ġred":3839,"\"[,]":3840,"Ġtnuoc":3841,"ph":3842,"netsil":3843,"æĺ":3844,"tinu":3845,"peed":3846,"sehctam":3847,"taolf":3848,"oJ":3849,"Ġredro":3850,"ezilamron":3851,"lacoL":3852,"Ġstnemele":3853,"emos":3854,"Ġgnin":3855,"ĠĠĠĊ":3856,"ekc":3857,"ilS":3858,"liateD":3859,"rotidE":3860,"\"==":3861,"%\":":3862,"411":3863,"PS":3864,"sdrow":3865,"erongi":3866,"sae":3867,"ĠĠĠĠĠĠĠĠĠĠĠĠĠĠĠĠĠĠĠĠĠĠĠĠĠĠĠĠĠĠĠĠĠĠĠĠĠĠĠĠ":3868,"rekcipetad":3869,"TNEM":3870,"eler":3871,"vR":3872,"Ġweiv":3873,"SSC":3874,"Ġ46":3875,"etator":3876,"xiQ":3877,"htam":3878,"Ġypoc":3879,"noiti":3880,"TXET":3881,"edoced":3882,"naiset":3883,"Ġydob":3884,"delbanE":3885,"snmuloc":3886,"GR":3887,"ae":3888,"yF":3889,"yalP":3890,"Ġri":3891,"rets":3892,"pS":3893,"gnilbiS":3894,"sgalf":3895,"gl":3896,"gnittes":3897,"tneserp":3898,"lV":3899,"FFUQ":3900,"pupop":3901,"ĠÙ":3902,"ĉĊĊ":3903,"BiO":3904,"\\:":3905,"'s":3906,"rellortnoc":3907,"ecruoseR":3908,"rulb":3909,"--(":3910,"BB":3911,"cca":3912,"Ġesuac":3913,"gnidoc":3914,"niL":3915,"emane":3916,"ooF":3917,"hparG":3918,"bolG":3919,"geS":3920,"piks":3921,"db":3922,"^^":3923,"nes":3924,"/.!":3925,"tV":3926,"aera":3927,"3333":3928,"Ġerus":3929,"wollof":3930,"apA":3931,"cepS":3932,"ĠĠĠĠĠĠĠĠĠĠĠĠĠĠĠĠĠĠĠĠĠĠĠĠĠĠ":3933,"elddi":3934,"iuq":3935,"tnoF":3936,"lim":3937,"tum":3938,"redils":3939,"ngilA":3940,"Ð²":3941,"Ġetaerc":3942,"etareneg":3943,"460":3944,"troS":3945,"noitagaporP":3946,"\\\"(":3947,"\"===":3948,"yM":3949,"skooH":3950,"elbatirw":3951,"tropxe":3952,"\\/(":3953,"Ġdra":3954,"Ġ,)'":3955,"EDON":3956,"gACIgAibc":3957,"Ġku":3958,"laitinI":3959,"rF":3960,"721":3961,"sdohtem":3962,"epahS":3963,"ĠhtaP":3964,"BFUR":3965,"LO":3966,"{]":3967,"CC":3968,"Ñı":3969,"segami":3970,"051":3971,"putes":3972,"ced":3973,"=]\"":3974,"rU":3975,"HS":3976,"mottoB":3977,",][:":3978,"aS":3979,"ftu":3980,"slobmyS":3981,"yalrevo":3982,"VE":3983,"tsriF":3984,"lenaP":3985,"Ġngi":3986,"sweiv":3987,"Ġirad":3988,"311":3989,"yz":3990,"many":3991,"ĠemiT":3992,"Ġhctam":3993,"xsj":3994,"teM":3995,"kcom":3996,"#:":3997,"Ġsutats":3998,"lamroN":3999,"foepyt":4000,"tniu":4001,"bgr":4002,"refed":4003,"Ġreg":4004,"emanresu":4005,"rP":4006,"{[":4007,"EPYT":4008,"Ġnu":4009,"tpircS":4010,"efas":4011,"iC":4012,"mrofta":4013,"elib":4014,"diov":4015,"oa":4016,"oita":4017,"mrif":4018,"xip":4019,"Ġemas":4020,"ĠesU":4021,"ĠĠĠĠĠĠĠĠĠĠĠĠĠĠĠĠĠĠĠ":4022,"ĠTU":4023,"yrotsih":4024,"/!":4025,"dered":4026,"Ġ\",\"":4027,"xC":4028,"Hd":4029,"dehcs":4030,"stni":4031,"sretemarap":4032,"ĠtnuoC":4033,"\"[(":4034,"+\"(":4035,"Ġtrop":4036,"Ù°":4037,"TR":4038,"hP":4039,"niahc":4040,"ĠllA":4041,"lluN":4042,"leR":4043,"Ġtnenopmoc":4044,"deppam":4045,"TC":4046,"rotceV":4047,"-)":4048,"ssaP":4049,"Ġtuohtiw":4050,"Ġtseuqer":4051,"ĠhtgneL":4052,"kooc":4053,"be":4054,"noitcej":4055,"yrotcaF":4056,"âĸ":4057,"mL":4058,"Ġesab":4059,"degnahC":4060,"ylnO":4061,"tw":4062,"iy":4063,"uM":4064,"sr":4065,"ãĢĤ":4066,"IR":4067,"aM":4068,"0101":4069,"mer":4070,",,,,":4071,"emaNtnerap":4072,"Ġnaht":4073,"llams":4074,"yrotcaf":4075,"{)\"":4076,"aeratxet":4077,"ngiS":4078,"ecuder":4079,"SO":4080,"ivah":4081,"DN":4082,"})})":4083,"tcarts":4084,"mp":4085,"etsni":4086,"poretni":4087,"lbis":4088,"sw":4089,"parts":4090,"eluR":4091,"Ġecaps":4092,"ä½":4093,"pmis":4094,"ecalP":4095,"Ġnmu":4096,"kcal":4097,"rec":4098,"lov":4099,"Ġetadpu":4100,"tuoemiTraelc":4101,"321":4102,"VV":4103,"Ġreff":4104,"noitar":4105,"tHI":4106,"detaerc":4107,"è¿":4108,"lauqEot":4109,"501":4110,"sedulcni":4111,"(]\"":4112,"ĠedoC":4113,"sQ":4114,"Ġgat":4115,"naelc":4116,"rud":4117,"ĊĊĊ":4118,"cb":4119,",/":4120,"nigol":4121,"Ġetal":4122,"ĠeziS":4123,"nZ":4124,"Ġ84":4125,"iderp":4126,"evael":4127,"572":4128,"eldnaH":4129,"åĮº":4130,"iws":4131,"Ġ41":4132,"^/(":4133,"hh":4134,"(||)":4135,"RF":4136,"pih":4137,"radnelac":4138,"resraP":4139,"lq":4140,"Ġnoitca":4141,"ÙİÙĳ":4142,"ok":4143,"deret":4144,"nL":4145,"ĠM":4146,"Ġseitrep":4147,"ÙĤ":4148,"gnic":4149,"senil":4150,"resworB":4151,"Ðº":4152,"los":4153,"trevnoc":4154,"DNI":4155,"Ġser":4156,"åį":4157,"Ġydaerla":4158,"elp":4159,"talf":4160,"UQBVEL":4161,"ut":4162,"tsnoC":4163,"yreuqj":4164,"Ġayn":4165,"Ġcificeps":4166,"tols":4167,"ĠĠĠĠĠĠĠĠĠĠĠĠĠĠĠĠĠĠĠĠĠĠĠĠĠĠĠĠĊ":4168,"niw":4169,"TIW":4170,"savnaC":4171,"dlihCtsrif":4172,"vJ":4173,"cd":4174,"911":4175,"-'":4176,"/..'[,'":4177,"bildts":4178,"511":4179,"sliated":4180,"sl":4181,"DL":4182,"Ġkaerb":4183,"reve":4184,"kroW":4185,"trahC":4186,"Ð»":4187,"BSZ":4188,"Kg":4189,"IM":4190,"yBstnemelEteg":4191,"YA":4192,"tnuocca":4193,",}{:":4194,"101":4195,"/\"(":4196,"ĠddA":4197,",)))":4198,"ex":4199,"æĪ":4200,"cuS":4201,"ĠyreuQ":4202,"ĠroF":4203,"GVS":4204,"sab":4205,"901":4206,"uk":4207,"ĠtsiL":4208,"Ġtniop":4209,"reht":4210,"tsoH":4211,"secruoser":4212,"ĠĠĠĠĠĠĠĠĠĠĠĠĉ":4213,"tnecrep":4214,"jM":4215,"ĠssalC":4216,"ld":4217,"trap":4218,"Ġegnahc":4219,"801":4220,"kV":4221,"resrap":4222,"bpR":4223,"div":4224,"ĉĉĉĉĉĉĉĉĉ":4225,"aerA":4226,"tnairav":4227,"deriuqeR":4228,"Ġroloc":4229,"rapes":4230,"stessa":4231,"tnemgarf":4232,"ĠtcaeR":4233,"Ġdellac":4234,"bmu":4235,"Ġepytotorp":4236,"tse":4237,"Ġdep":4238,"nys":4239,"gep":4240,"metsyS":4241,"Ġfles":4242,"340":4243,"Ġì":4244,"edaf":4245,"/!#":4246,"201":4247,"elpmoc":4248,"Ġtpecxe":4249,"esae":4250,"seic":4251,"bolb":4252,"etanidrooc":4253,"DOT":4254,";;":4255,"!,\"":4256,"nuom":4257,",}}}":4258,"#\",\"":4259,"Ġter":4260,"Ġseod":4261,"tser":4262,"nerap":4263,"Éµ":4264,"Ġesnecil":4265,"ds":4266,"meM":4267,"ylima":4268,"reredneR":4269,"rohtua":4270,"ELBA":4271,"galF":4272,";]\"":4273,"ebircsbus":4274,"etunim":4275,"Ġeer":4276,"gACIgACIgAibc":4277,";\"\"":4278,"etavitca":4279,"irtne":4280,"emas":4281,"noriv":4282,"deziomem":4283,"291":4284,"Ġgifnoc":4285,"Ġ!":4286,"Ġ51":4287,"sessalC":4288,"iI":4289,"iz":4290,",]]]'":4291,"{,}}":4292,"mil":4293,"atled":4294,"Ġyalpsid":4295,"KA":4296,"cnys":4297,"Ġ}?{":4298,"thgiew":4299,"eulb":4300,"hgiH":4301,"laer":4302,"evomeR":4303,"elbis":4304,"droceR":4305,"law":4306,"tnemugrA":4307,"NOITA":4308,"CTU":4309,"sgrA":4310,"<\"(":4311,"ODOT":4312,"\"\\,\"\\":4313,"reppU":4314,"cnysA":4315,",''":4316,"segap":4317,"Ġetubirt":4318,"eC":4319,"esnecil":4320,"QA":4321,"WT":4322,"xetrev":4323,"Ġ,][":4324,"oidar":4325,"oidua":4326,"strap":4327,"Ġai":4328,"elbavres":4329,"retpa":4330,"sd":4331,"psbn":4332,"niamod":4333,"Ġgnita":4334,"miL":4335,"eriuqeRporetni":4336,"emiTteg":4337,"/..'(":4338,"etaidem":4339,"Psi":4340,"Ġner":4341,"noisi":4342,"eci":4343,"elC":4344,"sgat":4345,"SF":4346,"fe":4347,"ĠnoisreV":4348,"åŃ":4349,"ercS":4350,"tsuj":4351,";)})":4352,"031":4353,"bmem":4354,"eliforp":4355,"tn":4356,"Ġesnopser":4357,"åĽ":4358,"rotagivan":4359,"_/":4360,"bw":4361,"erutaeF":4362,"VZ":4363,"Ġ31":4364,"{/":4365,"regetnI":4366,"timE":4367,"440":4368,"tod":4369,"æķ°":4370,"pircsa":4371,"krad":4372,"Ġtoor":4373,"[[,]]":4374,"TAD":4375,"kcip":4376,"toob":4377,"esop":4378,"detu":4379,"Ġsre":4380,"sloot":4381,"tnegA":4382,"seruta":4383,"lecnaC":4384,"dlihCevomer":4385,"IS":4386,"erutxet":4387,"deil":4388,"Ġedom":4389,"sroloc":4390,"emarfi":4391,",)\"_\"(":4392,"elacoL":4393,"ttH":4394,".'($":4395,"tj":4396,"retemarap":4397,"tnemelEtnemucod":4398,"####":4399,"eetareti":4400,"401":4401,"ytiliba":4402,"ĠÃ":4403,"Ġĉĉĉ":4404,"Ġesim":4405,"(&&]":4406,"zom":4407,"ĠdilavnI":4408,"evitaN":4409,"eteleD":4410,"redliuB":4411,"__\",":4412,"\"[=":4413,"ĠteG":4414,"fb":4415,"yloP":4416,"laiceps":4417,"\"=]":4418,"renetsiLtnevEevomer":4419,"soixa":4420,"UA":4421,"gnidaoL":4422,";]'":4423,"ĠtnevE":4424,"finu":4425,"Ġ,}{(":4426,"Ġnwod":4427,"nedneped":4428,"vlGd":4429,"noitu":4430,"elit":4431,"+\"-":4432,"Ġtsal":4433,"Ġrotceles":4434,"noitazi":4435,"ewteb":4436,"UB":4437,"buP":4438,"eulaVtluafed":4439,"gnorts":4440,"stcejbo":4441,"ĠMMMM":4442,"debm":4443,"naisetraC":4444,"thgilhgih":4445,"qq":4446,"pal":4447,"etuoR":4448,"================================":4449,"retnE":4450,"warD":4451,"Ġ;)(":4452,"éĢ":4453,"lZ":4454,"Ġlebal":4455,"ĠeW":4456,"nigirO":4457,"rB":4458,"Ġeciv":4459,"pyrc":4460,"tnemucoDrenwo":4461,"eerf":4462,"NW":4463,"711":4464,"lah":4465,"ena":4466,"xegeR":4467,"^/=":4468,"tcejbOsi":4469,"rotpircsed":4470,"ohc":4471,"(})":4472,"irep":4473,"Ġlau":4474,"xd":4475,"á»":4476,"iO":4477,"noitceriD":4478,",\"\"=":4479,"degnahc":4480,"iru":4481,"$:":4482,"};":4483,"ç»":4484,"yR":4485,"pas":4486,"arema":4487,"erusa":4488,"Hb":4489,"BX":4490,"ohspa":4491,"Ġelbat":4492,"noitcennoC":4493,"ecapS":4494,"wA":4495,"Ġmalad":4496,"ĠoN":4497,"etacerp":4498,"Ġesuaceb":4499,"CN":4500,"ĠNI":4501,"eP":4502,"TIM":4503,"601":4504,"eussi":4505,"seit":4506,"artxe":4507,"elbu":4508,"Vf":4509,"seod":4510,"mret":4511,"edoCyek":4512,"snekot":4513,"ihW":4514,"elcric":4515,"dnats":4516,"lennahC":4517,"\\\":":4518,"yla":4519,"euV":4520,"556":4521,"aF":4522,"ggard":4523,"tve":4524,"XAM":4525,"sdro":4526,"Ġsuo":4527,"nog":4528,"Ġevomer":4529,"xiferP":4530,"cifi":4531,";)`":4532,"\"+)":4533,"remit":4534,"Ġ,__":4535,"htped":4536,"eriF":4537,"neb":4538,"xdi":4539,"095":4540,"soc":4541,"tnemgarF":4542,"ahpla":4543,"noitaruD":4544,"locotorp":4545,"Ġtsuj":4546,"Ġegap":4547,"au":4548,"gen":4549,"è¡":4550,"eV":4551,"Ġtset":4552,"{)]":4553,"ĠYNA":4554,"/<}":4555,"yawla":4556,"Ġhalet":4557,"its":4558,"pttH":4559,"è®":4560,"mooZ":4561,"gnidnuoB":4562,"nerefer":4563,"300":4564,"Ġdlihc":4565,"xx":4566,"tinI":4567,"giro":4568,";)\".":4569,"Ġyreuq":4570,"guorht":4571,"seiro":4572,";`":4573,"ĉĉĊĊ":4574,"Ġevitca":4575,"tseg":4576,"âĢĵ":4577,"esrever":4578,"CF":4579,"200":4580,"egnaRdda":4581,"tegdiW":4582,"resnI":4583,"elgnis":4584,"emaNssalC":4585,"tsed":4586,"lumi":4587,"suj":4588,"[\"":4589,"sseccA":4590,"ĠkcehC":4591,"301":4592,"ecno":4593,",))})":4594,"áĢ":4595,"niB":4596,"eo":4597,"duV":4598,"mrofrep":4599,"gnidnib":4600,"tnemmoC":4601,"BCL":4602,"Ġwon":4603,"noitarip":4604,"snoci":4605,"EGA":4606,"Ġtroppus":4607,"uR":4608,"stnioP":4609,"lexip":4610,"dilaVsi":4611,"/<.":4612,"detupmoc":4613,"setubirttA":4614,"gH":4615,"tnedni":4616,"ROF":4617,",\"\"":4618,"gpj":4619,"000000":4620,"szO":4621,"etageled":4622,"miD":4623,"uqes":4624,"Ġdeificeps":4625,"sdnoc":4626,"()(":4627,"lEL":4628,"Ġeltit":4629,"etelpmoC":4630,"rruc":4631,"(?)":4632,"QBN":4633,"rednu":4634,"LG":4635,"ral":4636,"Ġegaugnal":4637,"/+":4638,"Ġ52":4639,"Ġipa":4640,"422":4641,"Ġ71":4642,"Ġstneve":4643,"412":4644,"]}":4645,"devre":4646,"egarots":4647,"fff":4648,"idnI":4649,"ĠnI":4650,"tsac":4651,"':'":4652,"Ġmo":4653,"TES":4654,"erutaef":4655,"yrtemoeG":4656,"aideM":4657,"noitani":4658,"taeper":4659,"dnegel":4660,"DNE":4661,"orci":4662,"udorP":4663,"å¼":4664,"xat":4665,"ï¿½ï¿½ï¿½ï¿½ï¿½ï¿½ï¿½ï¿½":4666,"Ġsgra":4667,"<)":4668,"Ġdlo":4669,"loseR":4670,"tnemecalp":4671,"PMOC":4672,"oCI":4673,"nosa":4674,"ĠMOD":4675,"NARRA":4676,"NGI":4677,"sbat":4678,"Ġereht":4679,"AAE":4680,"md":4681,"ĠetaerC":4682,"Ġses":4683,"amehcS":4684,"ytitne":4685,"tnetnoCtxet":4686,"uJ":4687,"dexiF":4688,"å¸Ĥ":4689,"Ġ,)}":4690,"elE":4691,"ERA":4692,"(==!":4693,"NARRAW":4694,"Ġlabolg":4695,"cnuF":4696,"ifidoM":4697,";}}":4698,"dellac":4699,"peD":4700,">)":4701,"ssel":4702,"ÑĢÐ":4703,"hcti":4704,"esuo":4705,"BCIux":4706,"Ġ'(":4707,"Ġmet":4708,"lanoitpo":4709,"Ġreniatnoc":4710,"tcelfeR":4711,"gninraw":4712,"''":4713,"rapmoc":4714,"DNOC":4715,"BSP":4716,"nial":4717,"lrtc":4718,"petS":4719,"stol":4720,"Ġpam":4721,"Ġytpme":4722,"Ġdleif":4723,"etucexe":4724,"}}}":4725,"ĠtesffO":4726,"retoof":4727,"Ġru":4728,"#'(":4729,"6666":4730,"enO":4731,"OF":4732,"PXE":4733,"\",}{:\"":4734,"[[":4735,"ffid":4736,"UU":4737,"snoitis":4738,"Ġrab":4739,"Ġerots":4740,":/":4741,"tv":4742,"ecnerefeR":4743,"ĠsepyT":4744,"kcablla":4745,"uF":4746,"potS":4747,"åľ":4748,"THGI":4749,"063":4750,"202":4751,"eulaVteg":4752,"By":4753,"Ġrev":4754,"221":4755,"811":4756,"TLU":4757,")\"+":4758,"tD":4759,"amrofni":4760,"emaNgat":4761,"tiaw":4762,"rotc":4763,"æł":4764,"noiger":4765,"<'(":4766,"ssC":4767,"hsil":4768,"FFFF":4769,"worrA":4770,"Ġ91":4771,"ytiv":4772,"Ġada":4773,"reppUot":4774,"itcA":4775,"revnoC":4776,"%'":4777,"ldnaH":4778,"neercS":4779,"Ġseitreporp":4780,"irw":4781,"elpitlum":4782,"sedoNdlihc":4783,"egde":4784,"zl":4785,"ĠsnoitpO":4786,"VA":4787,"sserp":4788,"emaNgaT":4789,"CK":4790,"ĠĠĠĠĠĠĠĠĠĊ":4791,"pR":4792,"tluafeDeriuqeRporetni":4793,"LP":4794,"Ġlmth":4795,"ezilaitini":4796,"ediV":4797,"Ġsporp":4798,"AAAAAAAAAAAAAAAA":4799,"bt":4800,"elddim":4801,"Ġll":4802,"ĠSE":4803,"à´":4804,"QH":4805,"seS":4806,"Ġesi":4807,"EUQ":4808,"itluM":4809,"desrap":4810,"Ġtnemugra":4811,"whab":4812,"nd":4813,"nwon":4814,"srenetsiL":4815,"tcartxe":4816,"reggol":4817,"esil":4818,"inU":4819,"tpircsa":4820,"reM":4821,"(:))":4822,"suidaR":4823,"euqinu":4824,"uc":4825,"\"[,\"":4826,"ERUP":4827,"Ġawhab":4828,"bis":4829,"761":4830,"cimany":4831,"mak":4832,"nY":4833,"tsixe":4834,"xiP":4835,"rbil":4836,"IA":4837,"edir":4838,"âĶĢ":4839,"GK":4840,"ĠpaM":4841,"tnes":4842,"0002":4843,"strop":4844,"JCX":4845,"ezilaires":4846,"labolG":4847,"441":4848,"Ġ***":4849,"TLUAF":4850,"jV":4851,"BFUS":4852,"edilS":4853,"à½":4854,"xu":4855,"tolp":4856,"seirtne":4857,"EZ":4858,"gv":4859,"AAC":4860,"sretemaraP":4861,"nraW":4862,"segassem":4863,"ĠetaD":4864,"Ġeetareti":4865,"pitlooT":4866,"TLUAFED":4867,"@{":4868,"MARAP":4869,"Mc":4870,"nretla":4871,"[,]\"":4872,"TSOP":4873,"Ġini":4874,"ĠroloC":4875,"ssorc":4876,"nrettaP":4877,"xSR":4878,"mbp":4879,"ÑĮ":4880,"raM":4881,"Ġyti":4882,"-\"":4883,"$=":4884,".\\\\":4885,"/<'":4886,",\"â":4887,"ĠnA":4888,"tekcos":4889,"ATAD":4890,"espalloc":4891,"noitidnoc":4892,"tcerider":4893,"462":4894,"091":4895,"CM":4896,"ytilibisiv":4897,"||)\"":4898,"./":4899,"tinU":4900,"Ġredner":4901,"tnatsnoc":4902,"-]":4903,"sdI":4904,"ĠmetI":4905,"detalsnart":4906,"noitcudorp":4907,"TNEVE":4908,"etni":4909,"Ġnmuloc":4910,"esaCreppUot":4911,"Ġdekovni":4912,"regetni":4913,"Ġ,]\"":4914,"RB":4915,"Ġerehw":4916,"ssecorP":4917,"))}":4918,"$,":4919,"QBJ":4920,"zM":4921,"à¯į":4922,"reppop":4923,"emanelif":4924,"revog":4925,"921":4926,"gnidne":4927,"tuM":4928,"yaP":4929,"givaN":4930,"RTS":4931,"ĠSA":4932,"dehcac":4933,"022":4934,"ÂłÂł":4935,"Ġdetcepxe":4936,",++":4937,"noitidda":4938,"deeps":4939,"ÛĮ":4940,"Ñĭ":4941,"moor":4942,"ytpmEsi":4943,"ESU":4944,"Ġedis":4945,"BCIgAibc":4946,"retnioP":4947,"ssen":4948,"Ġdedivorp":4949,"lub":4950,"tsesolc":4951,"noisnetxE":4952,"slortnoc":4953,"yllanif":4954,"ĠdesneciL":4955,"poon":4956,"QQ":4957,"DS":4958,"onna":4959,"Ġ33":4960,"roloCdnuorgkcab":4961,"metsys":4962,"!{":4963,"snmuloC":4964,"ĠV":4965,"\"\\:\"\\":4966,"ĠweiV":4967,"drowyek":4968,"023":4969,"timmoc":4970,"sg":4971,"emor":4972,"cnI":4973,"sesnecil":4974,"gnidocne":4975,"eniltuo":4976,"tI":4977,"Ġkutnu":4978,"#\"=":4979,"\\//":4980,"irtS":4981,"ENI":4982,"pmatsemit":4983,"lavretni":4984,"_\"":4985,"ĠsetaerC":4986,"))]":4987,"Ġ;]":4988,"$$.":4989,"WA":4990,"sdleiF":4991,"sfer":4992,"FUQJ":4993,"gnippaM":4994,"erutpac":4995,"\\*!":4996,"thgiL":4997,"ycner":4998,"!***":4999,"Ġ***!":5000,"htro":5001,",}'":5002,"saila":5003,"421":5004,"did":5005,"setyb":5006,"yfiton":5007,"llArotceleSyreuq":5008,"yfitsuj":5009,"ivorp":5010,"hJ":5011,"àº":5012,"å°":5013,"oleved":5014,"rotca":5015,"042":5016,"rus":5017,"leH":5018,"GU":5019,"\\\",\"":5020,"luf":5021,"Ġrevo":5022,"ĠlrU":5023,"hctapsiD":5024,"eziStnof":5025,"delbasiD":5026,"Ġyfi":5027,"Ġ++":5028,"YS":5029,"041":5030,"YX":5031,"etoN":5032,"piz":5033,"pw":5034,"Ġkrow":5035,"deti":5036,"Ġ>>>":5037,"partstoob":5038,"oeg":5039,"#&":5040,"Ġreswor":5041,"FD":5042,"gnaro":5043,"ĠelytS":5044,"XX":5045,"_,}":5046,"__#":5047,"531":5048,"Ġecruo":5049,"FFUQF":5050,"\\\"\\":5051,"Ġstcejbo":5052,"Ex":5053,"noitcasnart":5054,"Ð´":5055,"à¨":5056,"xFdcRHX":5057,"Ġemos":5058,"=|":5059,"nseod":5060,"Ġ--":5061,";%":5062,"_'":5063,"Ġba":5064,"gACIgACIg":5065,"emehT":5066,"ecnu":5067,"Zv":5068,"etacerped":5069,"seuq":5070,"eton":5071,"vaJ":5072,"ĠgaT":5073,"RORRE":5074,"'[(":5075,"Ġsserpxe":5076,"gnip":5077,"srenetsil":5078,"yrtnE":5079,"Ġsop":5080,"ITNARRAW":5081,"tohspa":5082,"rotaretI":5083,"mroftalp":5084,"çĶ¨":5085,"sseccuS":5086,"sta":5087,"LC":5088,"xlbc":5089,"eziseR":5090,"rpxe":5091,"ĠepyTedon":5092,"----------------------------------------------------------------":5093,"esaba":5094,"ml":5095,"Ġnia":5096,"gid":5097,"ssalCcod":5098,"MI":5099,":}":5100,"512":5101,"GXux":5102,"ecnatsid":5103,"Ġporp":5104,"nyS":5105,"roti":5106,"detalsnartnu":5107,"Ġmotsu":5108,"\\]":5109,"redroB":5110,"ft":5111,"lesuo":5112,"Ġsmarap":5113,"rotac":5114,"âĢĭ":5115,"tcatnoc":5116,"mumi":5117,"latnoziroh":5118,"Ġ<<":5119,"Ġtapa":5120,"enoZ":5121,"getaC":5122,"lanretnI":5123,"knalb":5124,"{=]":5125,"lanif":5126,"snottub":5127,":)]":5128,"ĠtratS":5129,"erofeBtresni":5130,"oitaR":5131,"eA":5132,"ruoH":5133,"tirehni":5134,"saH":5135,"Ġniam":5136,"tcartsbA":5137,"Ġ=-":5138,"__#*/":5139,"itnE":5140,"nemid":5141,"sdnuob":5142,"WS":5143,"elbaliava":5144,"Ġ,}{":5145,"tsiD":5146,"rata":5147,"ediS":5148,"Ġdezi":5149,"===]":5150,"rekciP":5151,"Ġekam":5152,"006":5153,"elbairaV":5154,"ateM":5155,"Ġrevres":5156,"ĠLMTHrenni":5157,"oTdneppa":5158,"nev":5159,"Ġtceles":5160,"girT":5161,"KO":5162,"dEL":5163,"rosruC":5164,"yol":5165,"liec":5166,"/..\"(":5167,"gnin":5168,"lexiP":5169,"roC":5170,"pecxE":5171,"eciveD":5172,"reifitnedI":5173,"\"{[:\"":5174,"ehcapa":5175,"gnu":5176,"ydobt":5177,"oA":5178,"sdnetxe":5179,"atadateM":5180,"Ġdetceles":5181,"ooG":5182,"slebal":5183,"bD":5184,"ĠyreuQj":5185,"etaler":5186,"dloh":5187,"ecnav":5188,"gs":5189,"stsixe":5190,"weiverp":5191,"sredaeH":5192,"pd":5193,"991":5194,"ĠrebmuN":5195,"iU":5196,"Ġpe":5197,"skooh":5198,"ĠĠĠĠĠĠĠĠĠĠĠĠĠĠĠĠĠĠĠĠĠ":5199,"soper":5200,"032":5201,"emoh":5202,"ugnaL":5203,"Ġxob":5204,"[\":":5205,"gN":5206,"raV":5207,"Ñĩ":5208,"fiD":5209,"by":5210,"tropweiv":5211,"reganam":5212,"yzal":5213,"ehcs":5214,"erus":5215,"à°":5216,"'d":5217,"Ġnf":5218,"lliW":5219,"iaf":5220,"rotpircseDytreporPnwOteg":5221,"|?":5222,"Ġsyek":5223,"zF":5224,"BSK":5225,"dab":5226,"Ġ\"\"":5227,"retuoR":5228,"nwodyek":5229,"tnuoM":5230,"\\?":5231,"._.":5232,"noisnemid":5233,"nommoC":5234,"nitsed":5235,",\"]":5236,"Ġesael":5237,"Ġxam":5238,"631":5239,"oper":5240,"troba":5241,"kooH":5242,"kaM":5243,"lab":5244,"tnenopm":5245,"Ġnoi":5246,"gnisae":5247,"riap":5248,"sedils":5249,"elipmoc":5250,"jA":5251,"tceted":5252,"lrt":5253,"reyalP":5254,"(===":5255,"troppuS":5256,"ĠSEITNARRAW":5257,"{()":5258,"TF":5259,"Ġnim":5260,"teN":5261,"âĶĢâĶĢ":5262,"FED":5263,"å·":5264,"121":5265,"rewol":5266,"OHTIW":5267,"931":5268,"ECA":5269,"noitagaporPpots":5270,"Ġnerdlihc":5271,"-+":5272,"ĠemaNssalc":5273,"oRHI":5274,"BFkQ":5275,"tF":5276,"elibom":5277,"lami":5278,"retemaraP":5279,"Ġdrow":5280,"detadpu":5281,"tnenopmoCI":5282,"UQBlEL":5283,"Ġrotcurtsnoc":5284,"DNIK":5285,"arts":5286,"Ġ,\"\"":5287,"TO":5288,"(-":5289,"tcepsni":5290,"ĠĠĠĠĊĠĠĠĠ":5291,"CZ":5292,"margorp":5293,",})})":5294,"dem":5295,"stnetnoc":5296,"tfihsnu":5297,"oediV":5298,"621":5299,"slauqe":5300,"\"[,":5301,"/*__":5302,"swoR":5303,"Ġneewteb":5304,"Ġyad":5305,"wodahS":5306,"ĠtfeL":5307,"mrifnoc":5308,"elbaTataD":5309,"deg":5310,"dior":5311,"Ġayna":5312,"laci":5313,"noitceS":5314,"Ġil":5315,"pupoP":5316,"sgaT":5317,"BH":5318,"tnuoma":5319,"XL":5320,"ĠnottuB":5321,"Ġ:)":5322,"Ġtuptuo":5323,"Ð¼":5324,"itu":5325,"esaeler":5326,"gnilbis":5327,"543":5328,"touq":5329,"REP":5330,"åº":5331,"arg":5332,".:":5333,"ĠsporP":5334,"ĠTUOHTIW":5335,"Ġyeht":5336,"daolpU":5337,"enecs":5338,"tneiro":5339,"(+\"":5340,"Ġ02":5341,"ecaF":5342,"tixe":5343,"tq":5344,"'re":5345,"ĠN":5346,"noitacifiton":5347,"mune":5348,"tC":5349,"7102":5350,"apO":5351,"kcaP":5352,"rots":5353,"tcudorP":5354,"ÃŃ":5355,"Ġtnemucod":5356,"Ġosla":5357,"Ð¹":5358,"{,}})":5359,"idi":5360,"ĠĠĠĠĠĠĠĠĠĠĠĠĠĠĠĠĠĠĠĠĠĠĠĠĠĠĠĠĠĠĠĠĠĠĠĠĠĠĠĠĠĠĠĠ":5361,"Ġtro":5362,"tpircsavaj":5363,"diD":5364,"dw":5365,"Ġetubirtta":5366,"vZ":5367,"emiTnoitarip":5368,",\"}":5369,"cseD":5370,"gc":5371,"Ġtnaw":5372,"noitpircseD":5373,"gnitirw":5374,"CB":5375,"cilpu":5376,"trev":5377,"ĠĠĠĠĠĠĠĠĠĠĠĠĊĊ":5378,"ekiL":5379,"krowten":5380,"Ġhcraes":5381,"esuap":5382,"tnenopmoCIRU":5383,"TAM":5384,"seireS":5385,"ekat":5386,"Ġ#//":5387,"?)\"":5388,"Ġedulcni":5389,"cexE":5390,"lairetaM":5391,"tTK":5392,"Mq":5393,"ddd":5394,"rabllorcs":5395,"remiT":5396,"etaciderp":5397,"llup":5398,"éĩ":5399,"\":)":5400,"setuor":5401,"xSS":5402,"teehs":5403,"ĠtonnaC":5404,"nas":5405,"tcejbus":5406,"GG":5407,"tcejorP":5408,"retneC":5409,"remun":5410,"lareti":5411,"&&)(":5412,"rotadilav":5413,"eY":5414,"ĠĠĠĠĉĊ":5415,"Ã¤":5416,"liub":5417,"oba":5418,"Ġhel":5419,"troper":5420,"setanidrooc":5421,"ebu":5422,"raelC":5423,"noisseS":5424,"elbatide":5425,"ĉĉĉĉĉĉĉĊ":5426,"minA":5427,"YTI":5428,"troP":5429,"Ġyr":5430,"biL":5431,"tceRtneilC":5432,"napS":5433,"sreldnah":5434,"ĠĠĠĠĠĠĠĠĠĠĠĠĠĠĠĠĠĠĠĠĠĠĠ":5435,"Ġat":5436,"dedivorp":5437,"edoNetats":5438,"RXZ":5439,"Ġ'>":5440,"Ġ///":5441,"))'":5442,"lautca":5443,"nof":5444,"aW":5445,"ffffffff":5446,"Ġtamrof":5447,"ĠehcapA":5448,"#/":5449,"924":5450,"elt":5451,"Ġpuorg":5452,"gnE":5453,"ĠesaelP":5454,"elgnA":5455,"333":5456,"ax":5457,"NUQ":5458,"/$)":5459,"Ġdelbasid":5460,"Ġ''":5461,"Ġehcac":5462,"sjlc":5463,"timbuS":5464,"dmc":5465,"dael":5466,"msa":5467,"Ġeuq":5468,"tnorf":5469,"regna":5470,"Ġowt":5471,"derahs":5472,"Ssi":5473,"ilpmoc":5474,"Ġss":5475,"Ġrts":5476,"hg":5477,"yortseD":5478,"^[(":5479,"tcepxE":5480,"gnidniB":5481,"ĠO":5482,"gACIgACIgACIg":5483,"maet":5484,"Ġegami":5485,"ĠEI":5486,"Ġë":5487,"seliF":5488,"evitim":5489,"Ġ>>":5490,"&&)\"":5491,"å¯":5492,"ETATS":5493,"Ġese":5494,"DNA":5495,"Ġtaolf":5496,"Ġaner":5497,"reli":5498,"redivorp":5499,"opmoC":5500,"ĠoT":5501,"gE":5502,"elbavresbO":5503,"008":5504,"rD":5505,"rekraM":5506,"\",\"\":\"":5507,"gib":5508,"}}\"":5509,"deriuqeRsi":5510,"xWY":5511,"pmas":5512,"norivne":5513,"Ġhala":5514,"tsen":5515,"ĠLMTH":5516,"651":5517,"Ġwodniw":5518,"ned":5519,"eroC":5520,"ecirp":5521,"noitcasnarT":5522,"Ġwol":5523,"evil":5524,"Ġretemarap":5525,"5720":5526,"enohp":5527,"\\,}":5528,"erotser":5529,"Ġmot":5530,"??":5531,"wO":5532,"zc":5533,"ERP":5534,"xetreV":5535,"MW":5536,"ssim":5537,"SAB":5538,"ä¸Ģ":5539,"+)(":5540,"-;":5541,"Ġdilavni":5542,"ĠĠĠĉ":5543,"ĠĠĠĠĠĉ":5544,"+'\"=":5545,"noitator":5546,"AE":5547,"metIteg":5548,"å±":5549,"wrehto":5550,"lug":5551,"tQ":5552,"edulc":5553,"yrtnuoc":5554,"ydaeR":5555,"842":5556,"lopretni":5557,"731":5558,"stupni":5559,"09571":5560,";))]":5561,"812":5562,"relu":5563,"cerp":5564,"xednItsal":5565,"Ġ72":5566,";)]'":5567,"431":5568,"noitpac":5569,"Ġam":5570,"taD":5571,"ziS":5572,"JHX":5573,"fOepytotorPteg":5574,"ffu":5575,"kcalb":5576,"ĠĠĠĠĠĠĠĠĠĠĠĠĠĠĠĠĠĠĠĠĠĠĠĠĠĠĠĠĠĠ":5577,"Ġdessap":5578,"$'":5579,"Ġniatbo":5580,"leehw":5581,"ĠedoM":5582,"nednepeD":5583,"DC":5584,"retta":5585,"tuptuO":5586,"===)":5587,"612":5588,"Ġelac":5589,"Ġstnemugra":5590,"dst":5591,"uqs":5592,"lati":5593,"liamE":5594,"Ġ{[":5595,"eikooc":5596,"kF":5597,"æī":5598,"raeYlluF":5599,"hallA":5600,"åĩ":5601,"rebmeM":5602,"Ġama":5603,"ylper":5604,"sledom":5605,"slabolg":5606,"atta":5607,"pg":5608,"tesatad":5609,"nak":5610,"._(":5611,"NOITIDNOC":5612,"sdnuoB":5613,"spuorg":5614,"Ġ82":5615,"Ġdesab":5616,"lceD":5617,"itam":5618,"ivaheb":5619,"egdE":5620,"831":5621,"jnem":5622,"Ġsnoissimrep":5623,"pme":5624,"strahc":5625,"yrammus":5626,"iJ":5627,"Ġkcolb":5628,"yam":5629,"ÑĤÑģ":5630,"ues":5631,"rennI":5632,"ziser":5633,".]'":5634,"ELE":5635,"derc":5636,"ytiroirp":5637,"tnegAresu":5638,"ALC":5639,"hsaD":5640,"gB":5641,"432":5642,"yno":5643,"ged":5644,"lauqEtcirts":5645,"ĠkniL":5646,"tneverP":5647,"erawtfos":5648,"sevitcerid":5649,"gnilbiStxen":5650,".\"($":5651,"yaleD":5652,"951":5653,"dedaoL":5654,"\\\":\"":5655,"sretlif":5656,"redaer":5657,"noN":5658,"dnuorgkcaB":5659,"ĠdnE":5660,"\\/":5661,"dz":5662,"dedne":5663,"ACI":5664,"ĠG":5665,"reT":5666,"hctab":5667,"\\/*":5668,"TCA":5669,"JA":5670,"Ġ))\"":5671,"ĠH":5672,"Ġnoci":5673,"yalrevO":5674,"tuf":5675,"buts":5676,"ĊĊĊĊ":5677,";)'.":5678,"esU":5679,"ENO":5680,"fnoc":5681,"eceR":5682,"Ġredaeh":5683,"etouq":5684,"ĠetadpU":5685,"RBF":5686,"Ġnigu":5687,"egaugnaL":5688,"Ġdnif":5689,"Ġralu":5690,"ĀĀĀĀĀĀĀĀĀĀĀĀĀĀĀĀĀĀĀĀĀĀĀĀĀĀĀĀĀĀĀĀ":5691,";\"\"=":5692,"etyB":5693,"yA":5694,"ä¹":5695,"Ġenifed":5696,"åĨ":5697,"redoc":5698,"aL":5699,"ngised":5700,"ltr":5701,"oV":5702,"861":5703,"Bib":5704,"meht":5705,"LOC":5706,"stnatsnoc":5707,"yticapO":5708,"[)\"":5709,"tU":5710,"eppa":5711,"raenil":5712,"*.":5713,"483":5714,"nip":5715,"deilpmi":5716,"/\":":5717,"nai":5718,"à²":5719,"timiL":5720,"xc":5721,"Ġelbacilppa":5722,"573":5723,"481":5724,"lt":5725,"sdi":5726,"581":5727,"Ġrehtehw":5728,"403":5729,"'\"":5730,"Ġwohs":5731,"Ġylp":5732,"ikiw":5733,"noitart":5734,"Ġ'\\":5735,"Ġ54":5736,"esillim":5737,"GXyx":5738,"debme":5739,"detroppus":5740,"ecafretnI":5741,"HP":5742,",)}})":5743,"ĠĠĉĊ":5744,"Ġ;}":5745,"[:?(":5746,"xiM":5747,":)}":5748,"Ġegnar":5749,"\"\\(":5750,"denifednU":5751,"231":5752,"/..\"":5753,"retti":5754,"yxorP":5755,"lrtC":5756,"tnuoccA":5757,"criC":5758,"0202":5759,",}]\"":5760,"snoitcnuf":5761,"////////////////////////////////":5762,"leS":5763,"noitpircs":5764,"cx":5765,"ĠtI":5766,"zz":5767,"ĠÙĲ":5768,"esuoMno":5769,"Ġli":5770,"JFUQJ":5771,"Ġdnoc":5772,"iN":5773,"cne":5774,"VQB":5775,"ĠRE":5776,"ØŃ":5777,"tnemges":5778,"shtap":5779,"Ġsmeti":5780,"VGZ":5781,"rabvan":5782,"trqs":5783,"Ã³":5784,"541":5785,"+=":5786,"effid":5787,"kb":5788,"YB":5789,"orez":5790,"erga":5791,"latoT":5792,"neerg":5793,"071":5794,"/.\",\"":5795,"tfeLllorcs":5796,"Ġetalpmet":5797,"hcaC":5798,"emaNgaTyBstnemelEteg":5799,"ĠsselnU":5800,"************************************************":5801,"emiTetaD":5802,"nwodporD":5803,"ohw":5804,"xoBweiv":5805,"841":5806,"131":5807,"'[,]'":5808,"rorr":5809,"Ġkcilc":5810,"hcnA":5811,"vM":5812,"nl":5813,"iB":5814,"532":5815,"491":5816,"ticil":5817,"\\\\-":5818,"ard":5819,"tJ":5820,"ytitnedi":5821,"eloR":5822,"eliT":5823,"Ġmotsuc":5824,"ico":5825,"virp":5826,"emaG":5827,"repiws":5828,"tx":5829,"kcoM":5830,"671":5831,"hsulf":5832,"Ġrre":5833,"bbub":5834,"lliF":5835,"Ġlevel":5836,"itra":5837,"/../../../..":5838,"FUQH":5839,"2323":5840,"ntB":5841,"ome":5842,"Ġwal":5843,"SISAB":5844,"ĠSNOITIDNOC":5845,"yca":5846,"dlrow":5847,"nosaer":5848,"Ġecnailpmoc":5849,"UN":5850,"noisnemiD":5851,"Ġgninrevog":5852,"bl":5853,"avaJ":5854,"922":5855,"egarotSlacol":5856,"~~":5857,"Ø©":5858,"Ð°Ð½":5859,"Ġsgnittes":5860,",'.":5861,"331":5862,"NWZ":5863,"Ġlort":5864,"Ġte":5865,"snoc":5866,"ojod":5867,"gnidnuoBteg":5868,"erocs":5869,"Ð¸Ð½":5870,"ulave":5871,"Ġreldnah":5872,"rm":5873,"AAB":5874,"=]++":5875,"gfc":5876,"sliateD":5877,"dlof":5878,"æĺ¯":5879,"evah":5880,"TNI":5881,"Ø´":5882,"lliWtnenopmoc":5883,"Ġ63":5884,"009":5885,"sreP":5886,"sreifidom":5887,"Ġresworb":5888,"tcennoC":5889,"Ġdeerga":5890,"ataDteg":5891,"822":5892,")][":5893,"{))(":5894,"nol":5895,"slanretni":5896,";)''":5897,"751":5898,"TAP":5899,"Ġ**":5900,"å½":5901,"vx":5902,"leb":5903,"daerp":5904,"()]\"":5905,"oI":5906,"!&&)":5907,"Ø¬":5908,"832":5909,"gniddaP":5910,"Ġgniwollof":5911,"dehcS":5912,"Ġtonnac":5913,"etatSesu":5914,"palloC":5915,"rom":5916,"PI":5917,"sF":5918,"ä¼":5919,"odues":5920,"retsam":5921,"saB":5922,"tuc":5923,"ç½":5924,"ĠÙı":5925,"oG":5926,"ksaM":5927,"Ġrebmem":5928,"revresbO":5929,"Ġesne":5930,"gerg":5931,"[[:":5932,"reppu":5933,"hN":5934,"TSIL":5935,"==)":5936,"erusaem":5937,"ICX":5938,"omed":5939,"Ġelpitlum":5940,".))'":5941,"622":5942,"dednapxe":5943,"Ġsnoitatimil":5944,"giB":5945,"llatsni":5946,"pleh":5947,"\",\"(":5948,"4201":5949,"etaluclac":5950,"rtxe":5951,"lanretxe":5952,"noitarepo":5953,"æĿ":5954,"gooG":5955,"Ġnoitcelloc":5956,"5102":5957,"à¸²":5958,"```":5959,"?))":5960,"Ġgno":5961,"iR":5962,"plug":5963,"Ġal":5964,"ty":5965,"itrev":5966,"oQ":5967,"detupmoC":5968,"Î±":5969,"JXY":5970,"rabedis":5971,"Ġkcab":5972,"bg":5973,"ĠegnahC":5974,"nwodesuom":5975,"drawrof":5976,"terp":5977,"refeD":5978,"dnuoF":5979,"etatSdeziomem":5980,"Ġgmi":5981,"noitagivan":5982,"daolnwod":5983,"...{":5984,"lautr":5985,"RW":5986,"999":5987,"retcarahc":5988,"rq":5989,"Ġeldnah":5990,"hx":5991,"ĠnoitisoP":5992,"å¹":5993,"Ġapa":5994,"Ġanerak":5995,"niamoD":5996,"404":5997,"741":5998,"Ġelgnis":5999,"+\"=":6000,"({)":6001,"stnenopmoC":6002,"cba":6003,"tniarts":6004,"stnatsnoC":6005,"elbats":6006,"rk":6007,"naem":6008,"tcirtS":6009,"932":6010,"snoitcA":6011,"802":6012,"Ġ×":6013,"evitis":6014,"Ġiba":6015,"nifnI":6016,"jF":6017,"Ġ)''":6018,"ĠtupnI":6019,"@/":6020,"ĠtxetnoC":6021,"thgieW":6022,";)}}":6023,"dewolla":6024,"gnl":6025,"602":6026,"sihT":6027,"@\"":6028,"ä¸Ń":6029,"reifitnedi":6030,"tnerapsnart":6031,"pZ":6032,"(||]":6033,"gnitteS":6034,"yreve":6035,"rulB":6036,";}\"":6037,"UQBtz":6038,"aC":6039,"ĉĉĉĊĊ":6040,"devi":6041,"=__":6042,"100":6043,"502":6044,"aaaa":6045,"hcated":6046,"ĠIPA":6047,"Ġyllac":6048,"RI":6049,"([":6050,"erB":6051,"citatS":6052,"âķ":6053,"wl":6054,"aperp":6055,"sdne":6056,";)}{":6057,"Ġdil":6058,"à¶":6059,"pmaxe":6060,"stirehni":6061,"kcabllaf":6062,"Ġnur":6063,"noitpecxE":6064,"Ġia":6065,"rebm":6066,"abes":6067,"Ġsdohtem":6068,"$\",\"":6069,"\",}}":6070,"uh":6071,"851":6072,"yw":6073,"yrotsiH":6074,"251":6075,"($(":6076,"tisiv":6077,"Ġwolla":6078,"seM":6079,"srebmem":6080,"402":6081,"Ġecne":6082,"-?":6083,"itini":6084,";)()}":6085,"noitanigap":6086,"NIM":6087,"txt":6088,"tsujda":6089,"723":6090,"noitacifitoN":6091,"redahS":6092,"itraP":6093,"Ġmumi":6094,"iY":6095,"Hot":6096,"devomer":6097,"941":6098,"881":6099,"hcihw":6100,"Ġlit":6101,"elggoT":6102,"Ġgniht":6103,"RES":6104,"ĠdesU":6105,"ĠevomeR":6106,"Ġunem":6107,"463":6108,"egk":6109,"erutpaC":6110,"toh":6111,"}))})":6112,"971":6113,"sh":6114,"ä»¶":6115,"yN":6116,"emanhtap":6117,"Ġevit":6118,"tahc":6119,"derrefed":6120,"gniS":6121,"laru":6122,"Ġrepparw":6123,"drowssaP":6124,"peek":6125,"jJ":6126,",})]":6127,"661":6128,"Ġtaya":6129,"stats":6130,"ĠF":6131,"tpecca":6132,"__\"":6133,"IRU":6134,"gnicaps":6135,"ylg":6136,"?)(":6137,"\\,\"\\":6138,"ynem":6139,"LOOT":6140,"xyQ":6141,"\\:?(":6142,"Ġereh":6143,"0000000000000000":6144,"çĽ":6145,"UZ":6146,"Ġretlif":6147,"PYT":6148,"revoH":6149,"nh":6150,"rpxE":6151,"rettimE":6152,";)(}":6153,"fOeulav":6154,"daetsni":6155,"[\"(":6156,"emanrid":6157,"/!#\"\\=":6158,"reffuByarrA":6159,"473":6160,"noitarugifnoc":6161,"semit":6162,"Ġnwo":6163,"lmc":6164,"LU":6165,"\"+)\"":6166,"tceriD":6167,"RATS":6168,"ĉĉĊĉĉ":6169,"Ġgnieb":6170,"EDI":6171,"\\_":6172,"uU":6173,"262":6174,"ĠÛ":6175,"Ġ:]":6176,"xSRBFUR":6177,"oiduA":6178,"evaS":6179,"PP":6180,"kooC":6181,"áº":6182,"Ġtapad":6183,"bolB":6184,"961":6185,"Sb":6186,"nk":6187,"561":6188,"iug":6189,"NAHC":6190,"yrarbil":6191,"é¡":6192,"ĠofnI":6193,"Ġren":6194,"uG":6195,"aremac":6196,"segnahC":6197,"à·":6198,"053":6199,"è¾":6200,"Ġeraw":6201,"ora":6202,"ssergorPnI":6203,"noitadilav":6204,"ylpitlum":6205,"!=]":6206,"MUN":6207,"delyts":6208,"452":6209,"niamer":6210,"FX":6211,"ĠĉĊ":6212,"ĠEHT":6213,"æľĪ":6214,"bk":6215,"ĠnocI":6216,"liba":6217,"NOITC":6218,"ĉĉĉĉĉĉĉĉĉĉ":6219,",}))(":6220,".$(":6221,"Ġdilos":6222,"Ġnaa":6223,"slaitne":6224,"erutangis":6225,"+)\"":6226,"Ġdeil":6227,"ycnerruc":6228,"az":6229,"laic":6230,"iA":6231,"gniht":6232,"tces":6233,"rotareneG":6234,"rup":6235,"UAA":6236,"seniL":6237,"ecafretni":6238,"cg":6239,"top":6240,"722":6241,"orb":6242,"Ġstluser":6243,"451":6244,"tB":6245,"AAAAA":6246,"nimreted":6247,"neew":6248,"771":6249,"nepsu":6250,"las":6251,"dnub":6252,"nehw":6253,"nosrep":6254,"...(":6255,"}'":6256,"sUUQBVEL":6257,"hV":6258,"depocs":6259,"Ġneddi":6260,"TTH":6261,"Ġaidem":6262,"niaM":6263,"\"\\\\\\":6264,"xSSBFUS":6265,"/\"=":6266,"(;":6267,"etirW":6268,"ercni":6269,"---":6270,"'\\=":6271,"ĠR":6272,"21212121":6273,"(/":6274,"tfoS":6275,"tP":6276,"Op":6277,"Nc":6278,"skUQBlEL":6279,"ĠesneffO":6280,"Ġsthgir":6281,"yC":6282,"rotcev":6283,"$[":6284,"nQ":6285,"fOepytotorPtes":6286,"341":6287,"yraniB":6288,"Ġsniatnoc":6289,"Ã¼":6290,"rC":6291,"Ġ,))":6292,"srav":6293,"spam":6294,"PAEH":6295,"tpec":6296,"baf":6297,"scit":6298,"641":6299,"Ġecalp":6300,"871":6301,"tEL":6302,"ETAD":6303,"droW":6304,"-:\"":6305,"Ġhguorht":6306,"tceRtneilCgnidnuoBteg":6307,"kl":6308,"desunu":6309,"setyB":6310,"Ġreffub":6311,"evre":6312,"iK":6313,"regnad":6314,"emitnuR":6315,"sknil":6316,"Ġravn":6317,"ital":6318,"irT":6319,"Ġkc":6320,"cilppA":6321,"vorp":6322,"........":6323,"Ġenod":6324,"etubirttAevomer":6325,"ratava":6326,"571":6327,"MMM":6328,"&&))":6329,"Ġcnuf":6330,"yarg":6331,"etaidemmI":6332,"FC":6333,";'>":6334,"Ġselif":6335,"EULAV":6336,"otoh":6337,"éĻ":6338,"/../..'":6339,"232":6340,"stluseR":6341,"seirt":6342,"emac":6343,"ĠnehW":6344,"Ġsei":6345,"mrofinu":6346,"arb":6347,"snlmx":6348,"edirrevo":6349,"snF":6350,"bab":6351,"idarg":6352,"hsilbup":6353,"evitceriD":6354,"yH":6355,"BU":6356,"hz":6357,"srorrE":6358,"Ġ,}\"":6359,"732":6360,"OS":6361,"oTevom":6362,"Ġ;)}":6363,"noitinifeD":6364,"geL":6365,"slebaL":6366,"noitarepO":6367,";)]\"":6368,"Ġnoitatnemelpmi":6369,"++(":6370,"erom":6371,"snoisnetxe":6372,"ĠĠĠĠĠĠĠĠĠĠĠĠĠĠĠĠĠĠĠĠĠĠĠĠĠĠĠĠĠĠĠĠĠĠĠĠĠĠĠĠĠĠĠĠĠĠĠĠ":6373,"ceD":6374,",'>":6375,"nalp":6376,"ĠnruteR":6377,"Ġhsah":6378,"nab":6379,"osi":6380,"tM":6381,"mU":6382,"rebiF":6383,"ĠEL":6384,"Yegap":6385,"lesuorac":6386,"=*":6387,"Îµ":6388,"AN":6389,"Ä±":6390,">=)(":6391,"ĠreniatnoC":6392,"Ġnoisserpxe":6393,"$\"":6394,"912":6395,"?()":6396,"ä¿":6397,"noitara":6398,"xednIz":6399,"een":6400,"stnerap":6401,"JB":6402,"_:":6403,"skcabllac":6404,"gnirtSoT":6405,"ĠĠĠĠĠĠĊĊ":6406,"strats":6407,"ytitnE":6408,"361":6409,"tnemgeS":6410,"{>=)":6411,"ĠkcabllaC":6412,"garf":6413,"RC":6414,";--":6415,",}{)(":6416,"pirts":6417,"902":6418,"ĠĀ":6419,"segaugnal":6420,"Î¿":6421,"teehS":6422,"ĠylnO":6423,"sum":6424,"gubeD":6425,"elpmoC":6426,"dlohser":6427,"************":6428,"gY":6429,"lk":6430,"yradnoces":6431,"};)":6432,"522":6433,"DB":6434,"seicnedneped":6435,"evaeL":6436,"Ġdetaerc":6437,")])\"":6438,"melE":6439,"derC":6440,"Ġerongi":6441,"MUQBNEL":6442,"pp":6443,"rN":6444,"dek":6445,"retnuoc":6446,"lsnart":6447,"Ġgnidda":6448,"+\".":6449,"981":6450,"æŃ":6451,"Ġ\"=":6452,"repa":6453,",])":6454,"Az":6455,"worran":6456,"uqe":6457,"len":6458,"TNEMELE":6459,"nbl":6460,"}?{":6461,"etomer":6462,"6102":6463,"esopsid":6464,"844":6465,"evres":6466,"ĠegaP":6467,"ecnuob":6468,"ĠSSC":6469,"ird":6470,"vas":6471,"542":6472,"Ġnwon":6473,"epyTatad":6474,"æį":6475,"fx":6476,"nIsi":6477,"eludehcs":6478,"+\":":6479,"liaF":6480,"dlroW":6481,"ygeta":6482,"Ġcrs":6483,"Ġcod":6484,"neewt":6485,"Fmd":6486,"Ġelbis":6487,"seluR":6488,"yps":6489,"fdp":6490,"eliforP":6491,"\\\"[":6492,"Ġ)))":6493,"RP":6494,"Ġdddd":6495,"rv":6496,"102":6497,"cl":6498,"ycph":6499,"enigne":6500,"/<;":6501,"eulaVtes":6502,"erahs":6503,"781":6504,"redneRcitats":6505,"æŀ":6506,"renroc":6507,"Ġ62":6508,"elpmas":6509,"sepyTporp":6510,"632":6511,"ĠÐµ":6512,"Xegap":6513,"ALF":6514,"LE":6515,"Ġecnerefer":6516,"Ġ22":6517,"._=":6518,"hgil":6519,"702":6520,"332":6521,"||)(":6522,"sbA":6523,"cn":6524,"iaF":6525,"Ġ>-":6526,"boj":6527,"wF":6528,"********************************************************************************************************************************":6529,"cimanyd":6530,"[?":6531,"Ġfed":6532,"\\[(":6533,"mucca":6534,"\\,'":6535,"551":6536,"serutaef":6537,"revresbo":6538,"rohcnA":6539,"emaNtneve":6540,",\">":6541,"ediH":6542,"edoCrahC":6543,"ĠtuoemiT":6544,"llAteg":6545,"Ġssap":6546,"QAA":6547,"detaler":6548,"mar":6549,"191":6550,"\\/:":6551,"Ġseman":6552,"(=!":6553,"esabatad":6554,"&;":6555,"tif":6556,"Ġledom":6557,"hA":6558,"\";":6559,"302":6560,"692":6561,"diDtnenopmoc":6562,"Ġnata":6563,"Ġol":6564,"ylimaf":6565,"Ġlat":6566,"PAM":6567,"(&&)\"":6568,"gaP":6569,"461":6570,"yfirev":6571,"ITLOOT":6572,"ogol":6573,"æĶ":6574,"noitcurts":6575,"ELES":6576,"kA":6577,"882":6578,"yZ":6579,"891":6580,"Ġ55":6581,"Ġ001":6582,"sserpxe":6583,"desolc":6584,"stceffe":6585,"siM":6586,"Ġdetroppus":6587,"luclac":6588,"uE":6589,"tZ":6590,"redlof":6591,"ycil":6592,"Ġ53":6593,"NHI":6594,",}{||":6595,"looP":6596,"ressa":6597,".>":6598,"redaeR":6599,"ytrid":6600,"DDA":6601,"Ġdedda":6602,"revopop":6603,"+][":6604,"xdI":6605,"tsap":6606,"471":6607,"neL":6608,"ooL":6609,"/..'[,]'":6610,"xiff":6611,"orciM":6612,"ĠtseuqeR":6613,"141":6614,"{,)":6615,"sdnoces":6616,"æ²":6617,"lis":6618,"æ³":6619,"007":6620,"evruc":6621,"Ġtnuom":6622,"etuniM":6623,"SNA":6624,"segnahc":6625,"(&&))":6626,"vu":6627,"pmiS":6628,"erehw":6629,"241":6630,"rucer":6631,"ĠGNI":6632,"stcejbO":6633,"stnemugrA":6634,"Ġdt":6635,"noitanitsed":6636,"dnev":6637,"\\\\\\\\":6638,"gus":6639,"\"'":6640,"xr":6641,"emarFnoitaminA":6642,"RG":6643,"devloser":6644,"Ñĸ":6645,"ngissA":6646,"UQBdEL":6647,"Ġ12":6648,"pilf":6649,"eE":6650,"tnemetatS":6651,"-)(":6652,"tcarahC":6653,"tned":6654,"pukool":6655,"elbaggard":6656,"!!=":6657,"ĠTIM":6658,"netsiL":6659,"tas":6660,"lL":6661,"nn":6662,"yY":6663,"knuhC":6664,"serP":6665,"Ġlanigiro":6666,"dnibnu":6667,"deliaf":6668,"Ġ43":6669,"Ġ,\"\\":6670,"mitpo":6671,"Ġdeda":6672,"rezimotsuc":6673,"elpmis":6674,"revi":6675,"ETEL":6676,"Ġretnec":6677,"ĠĠĠĠĠĠĠĠĠĠĉ":6678,"emulov":6679,"IC":6680,"[)(":6681,"kaeW":6682,"ĠgifnoC":6683,";)__":6684,"iH":6685,"elbanE":6686,"seludoM":6687,"lcc":6688,"rer":6689,".))\"":6690,"à§":6691,"Qs":6692,"seitreporPenifed":6693,"etar":6694,"rehtO":6695,"nigraM":6696,"{))\"":6697,"æİ":6698,"oU":6699,"Ġxiferp":6700,";]]":6701,"etihW":6702,"Ġnael":6703,"vni":6704,"Ġdnoces":6705,"ĠpoT":6706,"Ġrieht":6707,"htu":6708,"ĠlobmyS":6709,"ĠreffuB":6710,"ĠsoP":6711,"Ġ($":6712,"tek":6713,"noitinifed":6714,"tohspanS":6715,"spo":6716,"691":6717,"rew":6718,"bv":6719,"srap":6720,"secivres":6721,"SY":6722,"dneperp":6723,"681":6724,"803":6725,"TON":6726,"_,})":6727,"012":6728,"diuu":6729,"Ġetac":6730,"tep":6731,"nialp":6732,"rez":6733,"oleveD":6734,"ehW":6735,"amce":6736,"CP":6737,"Ġtcerroc":6738,"Ġesimorp":6739,"Ø°":6740,"itnehtua":6741,"laitne":6742,"Ġdaer":6743,"éĹ":6744,"sredaol":6745,"aT":6746,"dnatS":6747,"ĠtluafeD":6748,"noigeR":6749,"ĠĠĠĠĠĠĠĠĊĠĠĠĠĠĠĠĠ":6750,"yarrAot":6751,"Wam":6752,"egats":6753,"Ġke":6754,"suM":6755,"reggirT":6756,"emorhc":6757,"yI":6758,"tneidarg":6759,"Ġyrtne":6760,"gvS":6761,"Ġ83":6762,"Ġsuoiverp":6763,"duolc":6764,"etanretla":6765,"NOSJot":6766,"QBA":6767,",/$":6768,"tcatnoC":6769,"ĠibaN":6770,"ĠresU":6771,"dnal":6772,"dx":6773,"ĠnoitcnuF":6774,"ĠegasseM":6775,"owt":6776,"{$/":6777,"?\"":6778,"eduti":6779,"ecnatsiD":6780,"Ġppa":6781,"å¾":6782,"pitluM":6783,"Ġ.)":6784,"deef":6785,"\\\\\":":6786,"['(":6787,"draobyek":6788,"ä¸į":6789,"sunam":6790,";)}\"":6791,"mra":6792,"dehctam":6793,"<>/":6794,"Ġsedon":6795,"TZ":6796,"Ð·":6797,"YARRA":6798,"cel":6799,"roS":6800,"ecart":6801,"pilC":6802,"detupmoCteg":6803,"hseM":6804,"niarts":6805,"noitagivaN":6806,"Ġ73":6807,"\"(&&":6808,"Ġksa":6809,"yrogetaC":6810,"ä¸ª":6811,"DAOL":6812,"onnA":6813,"kaerB":6814,"FUQL":6815,"etaR":6816,"AAI":6817,"ĠtegraT":6818,"lacs":6819,"ç§":6820,"tesrahc":6821,"DEL":6822,"tressA":6823,"lam":6824,"akerem":6825,"çī":6826,"nimdA":6827,"{>=)(":6828,"Ġ$":6829,"Ġdaetsni":6830,"-\"+":6831,"px":6832,"VU":6833,"{,}]":6834,"tE":6835,"syarra":6836,"642":6837,"xednibat":6838,"dlob":6839,"ahplA":6840,"Ġnihtiw":6841,"dilavnI":6842,"\\\\\\":6843,"taL":6844,"lacitreV":6845,"bC":6846,"Au":6847,"nbvN":6848,"112":6849,"nid":6850,"\\+":6851,"062":6852,"TSA":6853,"}}})":6854,"iQ":6855,"212":6856,"kcits":6857,"HIg":6858,",)})(":6859,"ĠtseT":6860,"GbeW":6861,"erutuf":6862,"Ġnepo":6863,"Ġstpo":6864,"kal":6865,"tnenopmoCIRUedocne":6866,"diug":6867,"ĠĠĠĠĠĠĠĠĠĠĠĠĠĠĠĠĉ":6868,"3102":6869,";})(":6870,"lGa":6871,"stnemmoc":6872,"tnerruCteg":6873,"603":6874,"^^^^":6875,"ylana":6876,"up":6877,"qA":6878,"hsem":6879,"liart":6880,"ĠĠĠĠĠĠĠĠĠĠĠĠĠĠĠĠĠĠĊ":6881,"rotareneg":6882,"Bw":6883,"sresU":6884,"kciTtxen":6885,"{{=":6886,"9102":6887,"lup":6888,"Ġecaf":6889,"dneS":6890,"detacerped":6891,"à¤°":6892,"Ġfer":6893,".-,":6894,"dedda":6895,"tessa":6896,"})'":6897,"kcolc":6898,"ĠĠĠĠĠĠĠĠĠĠĠĠĠĠĠĠĠĠĠĠĠĠĠĠĠĠĠĠĠĠĠĠĊ":6899,"ÙĨØ§":6900,"mron":6901,"eJ":6902,"aZ":6903,"mS":6904,"222":6905,"BCd":6906,"pic":6907,"Ġtuoba":6908,"×Ļ":6909,"Ġeda":6910,",)])":6911,"BFUQ":6912,"ylimaF":6913,">/\"":6914,"diw":6915,"stesffo":6916,"gnippaMecruos":6917,"deifi":6918,"è§":6919,"TE":6920,"\\>\"":6921,"lRXY":6922,"pxeger":6923,"à¤¾":6924,"gnirtSsi":6925,"waR":6926,"epy":6927,"tcartnoc":6928,"etaDteg":6929,"SSALC":6930,"Ġelacs":6931,"Ġ\"'":6932,"èĩ":6933,"tW":6934,"ats":6935,"laW":6936,"cam":6937,"8102":6938,"raeppa":6939,"epacs":6940,"deredner":6941,"351":6942,"Ġofni":6943,"ĠeludoM":6944,"knU":6945,"muidem":6946,"252":6947,"iverP":6948,"Ġseta":6949,"âµ":6950,"ohC":6951,"dah":6952,"Ġmeht":6953,"Ġdir":6954,"Mw":6955,"seussi":6956,"alli":6957,"BCIgACIgACIgACIgACI":6958,"824":6959,"cilbuP":6960,"Ġtpircs":6961,"rettu":6962,"Ġumak":6963,"segakcap":6964,",)(}":6965,"QE":6966,"Ġ92":6967,"icossa":6968,"Ø®":6969,"eip":6970,"kci":6971,"neddiH":6972,"nigoL":6973,"Ġ))]":6974,"rotarapes":6975,"ereht":6976,"046":6977,"FE":6978,"Ġeni":6979,"æĸĩ":6980,"ahc":6981,"muS":6982,"{>":6983,"grAsiht":6984,"iwFI":6985,"THGIR":6986,"Ð¾Ð½":6987,"ffub":6988,"loop":6989,"4102":6990,"LRUgnippaMecruos":6991,"ĠĠĠĠĠĠĠĠĠĠĠĠĠĠĠĠĠĠĠĠĠĠĠĠĠĠĠĠĠĠĠĠĠĠĠĠĠĠĠĠĠĠĠĠĠĠĠĠĠĠĠĠĠĠĠĠĠĠĠĠĠĠĠĠĠĠĠĠĠĠĠĠĠĠĠĠĠĠĠĠĠĠĠĠĠĠĠĠĠĠĠĠĠĠĠĠĠĠĠĠĠĠĠĠĠĠĠĠĠĠĠĠĠĠĠĠĠĠĠĠĠĠĠĠĠĠĠĠ":6992,"jI":6993,"dliuB":6994,"Ġcil":6995,"kk":6996,"ĠW":6997,"SREV":6998,",)]\"":6999,"ewol":7000,"latnoziroH":7001,"hctiwS":7002,"enolC":7003,"rtem":7004,"edoCrahCmorf":7005,"Ġ{{=":7006,"\",)\"":7007,"devreser":7008,"dexiFot":7009,"867":7010,"seno":7011,"dekcehC":7012,"etirps":7013,"æĢ":7014,"Ġlle":7015,"iton":7016,"golb":7017,"fOeno":7018,"desucof":7019,"->":7020,"371":7021,"eraperp":7022,"dneped":7023,"bh":7024,"Ġelbaliava":7025,"ettel":7026,"QD":7027,"enilemit":7028,"htdiWtesffo":7029,"ĠegnaR":7030,"RAV":7031,"stols":7032,"æĭ":7033,"pmem":7034,"Ġntb":7035,"noissimreP":7036,"ĠtnioP":7037,"laireS":7038,"Ġxir":7039,"skcabllaC":7040,"BV":7041,"pf":7042,"zaL":7043,"Xe":7044,"yarrAd":7045,"Ġnoitcnufn":7046,"kcoL":7047,"}))(":7048,"tsaf":7049,"tcejbOnial":7050,"192":7051,"Was":7052,"Ġecno":7053,"rttAevomer":7054,"txeTetaerc":7055,"åĢ":7056,"remunE":7057,"pmetta":7058,"tcetorp":7059,"444":7060,"GN":7061,"HL":7062,"kooB":7063,"ĉĉĊĉ":7064,"sreyal":7065,"Ġedisni":7066,"&&\"":7067,"{||":7068,"HA":7069,"TUP":7070,"selba":7071,"Ġ;)\"":7072,"Ġdeni":7073,"\\;}":7074,"kam":7075,"ĠtnetnoC":7076,"sgnirts":7077,"pans":7078,"mA":7079,"Ġmottob":7080,"guls":7081,"ĠYYYY":7082,"erutc":7083,"ĠthgiR":7084,"knar":7085,"rablooT":7086,"_\":":7087,"tuoR":7088,"atleD":7089,"Ð°ÑĢ":7090,"nbmu":7091,"LLA":7092,"TD":7093,"âĢĻ":7094,"942":7095,"gninraW":7096,"791":7097,"traP":7098,"703":7099,"mpn":7100,"ert":7101,"Ġ\",":7102,"XZk":7103,"æ±":7104,"elbadaer":7105,"FK":7106,"sena":7107,"un":7108,":\"(":7109,"CAC":7110,".$.":7111,"Ġdered":7112,"laws":7113,"stropxE":7114,"MP":7115,"lianbmu":7116,"UJ":7117,"oTenil":7118,"lauqEpeed":7119,"åī":7120,"Ġ76":7121,"×ķ":7122,"amina":7123,"CR":7124,"xeT":7125,"Ġevom":7126,"xeH":7127,"lek":7128,"efaS":7129,"rub":7130,"deb":7131,"gniti":7132,"Ġsyawla":7133,"OI":7134,"ä¸Ĭ":7135,"VX":7136,"nuhc":7137,"peeD":7138,"tnecreP":7139,"orppa":7140,"oduesp":7141,";])":7142,"aB":7143,"Ġ32":7144,"CD":7145,"SK":7146,"!===":7147,"hctaB":7148,"eI":7149,"emoc":7150,"tegraTtnerruc":7151,"à¸Ļ":7152,"æĹ¶":7153,"\",}]\"":7154,"sub":7155,"cir":7156,"aK":7157,"Ġnoitpircsed":7158,"emoH":7159,";)`}":7160,"loS":7161,"Ġrid":7162,"eviecer":7163,"Ġhelo":7164,"jo":7165,"Ġkcats":7166,"puesuom":7167,"Ġpo":7168,"161":7169,"Ġ;'":7170,"neve":7171,"stset":7172,"nr":7173,"tR":7174,"DRO":7175,"laitrap":7176,"Ġ][":7177,"rog":7178,"slc":7179,"geleD":7180,"emiTnoitaripxe":7181,"Ġtuoemit":7182,"LQ":7183,"SBF":7184,"edisni":7185,"{$`(":7186,"ODFUQD":7187,"snoitid":7188,"odnu":7189,"!?(":7190,"SNART":7191,"ffx":7192,"etiniF":7193,"\\\\\"":7194,"sreyaL":7195,"VK":7196,"å®ļ":7197,"Ġgnidaol":7198,"sT":7199,"Cl":7200,"raeYlluFteg":7201,"tcaxe":7202,"sruoh":7203,"Ġmrofsnart":7204,"kd":7205,")`":7206,"yranib":7207,"ytinifnI":7208,"fas":7209,"Ġnagna":7210,"sruoH":7211,"pat":7212,"tnega":7213,"eZ":7214,"rettiwt":7215,"niaga":7216,"\",\"\",\"":7217,"jl":7218,"ekaf":7219,"RD":7220,"redliub":7221,"ssergorPnIkrow":7222,"Ġetirw":7223,"divorp":7224,"/.\"{,}":7225,"tsefi":7226,"PL":7227,"sllec":7228,"radnelaC":7229,"ix":7230,"Bic":7231,"thgilhgiH":7232,"niks":7233,"secruos":7234,"ytiruc":7235,"tpm":7236,"ili":7237,"aR":7238,"742":7239,"roppuS":7240,"pordkcab":7241,"nm":7242,"æľī":7243,"sulp":7244,"766":7245,"+\"_":7246,"MMOC":7247,"ge":7248,"tcaf":7249,"lacS":7250,"ĠdetcepxE":7251,"lO":7252,"Ġforebmem":7253,"Ġdenruter":7254,"Ġsserg":7255,"norhc":7256,"Ġir":7257,"lavE":7258,"dere":7259,"oy":7260,"stnuoc":7261,",')":7262,"Ñħ":7263,"591":7264,"Ġselyts":7265,"Ġlortnoc":7266,"enecS":7267,"Ã¶":7268,"442":7269,"dnopser":7270,"ĠĠĠĠĠĠĠĠĠĠĠĠĠĠĠĠĠĠĠĠĠĠĠĠĠĠĠ":7271,"enignE":7272,"hctaW":7273,"ybsta":7274,"saw":7275,"loV":7276,"rapeS":7277,"ãģ®":7278,"Ġua":7279,";)'>":7280,"oda":7281,"Ġhalada":7282,"Ġsucof":7283,"rotC":7284,"/<\"":7285,"rak":7286,"ovnI":7287,"YuV":7288,"322":7289,"ĠtpircS":7290,"tniopdne":7291,"eO":7292,"irter":7293,"vn":7294,"deepS":7295,"íķ":7296,"ĠTS":7297,"derrefeD":7298,"retpada":7299,"Ã§":7300,"VGd":7301,"823":7302,"SB":7303,"Ġxeg":7304,"lcni":7305,"sno":7306,"'{":7307,"nonis":7308,"htpeD":7309,"EMIT":7310,"wT":7311,"Ġredloh":7312,"coL":7313,"gnidaeh":7314,"ĠeliF":7315,"ĠesimorP":7316,"ZGI":7317,"Ġelbasid":7318,"Ġmro":7319,"elbuoD":7320,"ruS":7321,"Yg":7322,"rucco":7323,"åľ¨":7324,"thgieHretuo":7325,"xuder":7326,"AAG":7327,"dg":7328,"712":7329,"Ġmod":7330,"Åį":7331,"tneraPteg":7332,"noitpecxe":7333,"elgniS":7334,"elbuod":7335,"260":7336,"noitadilaV":7337,"Ġ,]]":7338,"ÑĪ":7339,"bisiV":7340,"ĠTEG":7341,"Ġtrap":7342,"uxlbc":7343,"hcnarb":7344,"BFUT":7345,"ytiroirP":7346,"sroloC":7347,"dh":7348,"wollA":7349,"retooF":7350,"tnuomA":7351,"evitagen":7352,"NC":7353,"[,}}":7354,"151":7355,"Ġloob":7356,"210":7357,"byB":7358,"sehcuot":7359,"rotu":7360,"ayN":7361,"csa":7362,"DILAV":7363,"rekroW":7364,"sdeen":7365,"syawla":7366,"592":7367,"sek":7368,"}{)":7369,"Ġ]]":7370,".)][":7371,"krowteN":7372,"Ġnoitcerid":7373,"oreZ":7374,",/)":7375,"Ġdiova":7376,"tneserper":7377,"edonV":7378,"1111":7379,"\\\\(":7380,"ST":7381,"\",\"â":7382,"mub":7383,"cudeR":7384,"Ġlluf":7385,"daoler":7386,"Ġgub":7387,"thgieHtesffo":7388,"ĠwoR":7389,"&'":7390,"LzlGa":7391,"nsah":7392,"ÏĦ":7393,"EDOM":7394,"YP":7395,"gab":7396,"Ġsnoitcnuf":7397,"ecirP":7398,"Ġ,)]":7399,"tiB":7400,"Ġeruta":7401,"htn":7402,"XA":7403,"SID":7404,"084":7405,"noitseuq":7406,"GOL":7407,"Ġlautca":7408,"drooC":7409,");--":7410,"903":7411,"+/":7412,"ĠlaV":7413,"072":7414,"nogyloP":7415,"092":7416,"avaj":7417,"Ãº":7418,"ETELED":7419,"Ġelgna":7420,"UQBtEL":7421,"luc":7422,"ETI":7423,"reiz":7424,"Ð±":7425,"elpu":7426,"sdnammoc":7427,"Ġnoitarud":7428,"detcennoc":7429,"rever":7430,"Ġeseht":7431,"Ġsetubirtta":7432,"^\"(":7433,"bx":7434,"_'(":7435,"nx":7436,"DU":7437,"Ġpets":7438,"stroppus":7439,"sdnoceS":7440,",)()(":7441,"sreldnaH":7442,"htnoMteg":7443,"Ġyllau":7444,"gnoL":7445,"detneverP":7446,"elbadnapxe":7447,"Ġtsa":7448,"Ġgnitsixe":7449,"htrohs":7450,"872":7451,"ĠyB":7452,"@@@@":7453,"yn":7454,"dellaC":7455,"(_,":7456,"Hdl":7457,"teseR":7458,"dim":7459,"neercslluf":7460,"ycphGd":7461,"Ġelgg":7462,"033":7463,"áŁ":7464,",]\"\",":7465,"tN":7466,"htgneLetyb":7467,"etaroced":7468,"cw":7469,"GAT":7470,"retteg":7471,"ĠNOSJ":7472,"pmc":7473,"msi":7474,"Ġevitan":7475,"cisab":7476,"riaP":7477,"æĮ":7478,"ĠSJ":7479,"CTUteg":7480,"tekcoS":7481,"spuorG":7482,"bmuht":7483,"æµ":7484,"Ġtneilc":7485,"uqS":7486,"TROPXE":7487,"Ġ}}":7488,"noitcet":7489,"/>":7490,"gmI":7491,"egral":7492,"Ġmun":7493,"noitatneiro":7494,"yVGZ":7495,"Î¹":7496,"dih":7497,"01010101":7498,"ylnodaer":7499,"BIRT":7500,"seiti":7501,"Ġag":7502,"tco":7503,"roceD":7504,"rE":7505,"082":7506,"htirog":7507,"sserP":7508,"ercs":7509,"Ġksam":7510,"312":7511,"smrof":7512,"sen":7513,"BCIgACIgACIux":7514,"didna":7515,"nettalf":7516,"redilS":7517,"oz":7518,"rrevo":7519,"crS":7520,"Ġhu":7521,"cra":7522,"ĠskcehC":7523,"GT":7524,"ERC":7525,"mah":7526,"DNU":7527,"RESU":7528,"yromem":7529,"{[,":7530,"srahc":7531,"[)'":7532,"ĠK":7533,"Ġ13":7534,"ĠĠĠĠĠĠĠĠĠĠĠĠĠĠĠĠĠĠĠĠĠĠĠĠĠ":7535,"sped":7536,"FR":7537,"nM":7538,",'ðŁ":7539,"gaTtceffe":7540,"ciremun":7541,"952":7542,"ĠĠĠĠĠĠĠĊ":7543,"goD":7544,"tcejnI":7545,"stinu":7546,"Ġtsoh":7547,"Ð¾Ð¿":7548,"ao":7549,"nru":7550,"Ġevloser":7551,"NOISREV":7552,"nogylop":7553,"752":7554,"ĠpuorG":7555,"naj":7556,"Ġdluow":7557,">>)":7558,"ire":7559,"iZ":7560,"dar":7561,"tY":7562,"%\"":7563,"evomesuom":7564,"Ġ44":7565,"emaNelif":7566,"otnI":7567,"suoiverP":7568,"è´":7569,"lI":7570,"srebmun":7571,"detros":7572,"391":7573,"Ġllec":7574,"yf":7575,"eq":7576,"erauqs":7577,"------------------------------------------------------------------------":7578,"Ġgol":7579,"pihs":7580,"elbissop":7581,"Ġsesu":7582,"kO":7583,"tropxE":7584,"Ø£":7585,"852":7586,"retpadA":7587,"tnevEhctapsid":7588,"éĿ":7589,"setalpmet":7590,"np":7591,"Ġdroc":7592,"MO":7593,"margorP":7594,"erugifnoc":7595,"kR":7596,"lqs":7597,"ssalCelggot":7598,"aD":7599,"tnevElanigiro":7600,"slobmySytreporPnwOteg":7601,"dIresu":7602,"remuN":7603,"Ġ\"'+":7604,"Ġesiwrehto":7605,"elbatsnu":7606,"633":7607,"nart":7608,"Ġtnereffid":7609,"Ġhcus":7610,"sjc":7611,"Ġdekcehc":7612,"Ġida":7613,"noitatonna":7614,"ilA":7615,"Ġeueuq":7616,"Ġdleiy":7617,"gACIgACIgACIgAibc":7618,"è¯·":7619,"etavirP":7620,"à¸²à¸":7621,"secaps":7622,"Ġiu":7623,"gam":7624,"giD":7625,"emitetad":7626,"Ð°Ðº":7627,"çĤ":7628,"VR":7629,"wB":7630,"ĠjbO":7631,"FUQN":7632,"Ġelbairav":7633,"rtp":7634,"ĠnaD":7635,"Ġxdi":7636,"kds":7637,"Nmb":7638,"tcejbOnialPsi":7639,"Ġaiv":7640,"dees":7641,"Ġ8102":7642,"à«":7643,"Ġ'\"=":7644,"ina":7645,"Ġ)--":7646,"tseR":7647,"RETNI":7648,"Ġhsa":7649,"Ġdeh":7650,"seira":7651,"zR":7652,"liavA":7653,"HIgACIux":7654,"depparw":7655,"eleD":7656,"idE":7657,"-\":":7658,"isne":7659,"tL":7660,"fr":7661,"rettel":7662,"æĸ°":7663,"QsMUQBNEL":7664,"WR":7665,"dr":7666,"draug":7667,"agabes":7668,"Ġmer":7669,"SOP":7670,"dib":7671,"xg":7672,"à¥į":7673,"è¡¨":7674,"ivaheB":7675,"Ġ69":7676,"AT":7677,"uqeS":7678,"deretlif":7679,"erusne":7680,"Ġgsm":7681,"{?":7682,"htdiWretuo":7683,"noitamrofni":7684,"Ġelbisiv":7685,"elcriC":7686,"eQ":7687,"/.!?":7688,"dnoceS":7689,"ĠehcaC":7690,"etanidrooC":7691,"dri":7692,"ï¿½ï¿½ï¿½ï¿½ï¿½ï¿½ï¿½ï¿½ï¿½ï¿½ï¿½ï¿½ï¿½ï¿½ï¿½ï¿½":7693,"gf":7694,"[_":7695,"Ġpit":7696,"lapu":7697,"ĠnekoT":7698,"\\;)(":7699,"dehsinif":7700,"847":7701,"nat":7702,"\",]}\"":7703,"elR":7704,"sjlh":7705,"gis":7706,"srohtuA":7707,"eganam":7708,"Ġdedaol":7709,"261":7710,"aq":7711,"nV":7712,"ecnavda":7713,"naR":7714,"Ġaynna":7715,"snFredneRcitats":7716,"dic":7717,"tnIU":7718,"#(":7719,"drooc":7720,"ç½®":7721,"txeTteg":7722,"054":7723,"iS":7724,"knilx":7725,"+'\"":7726,"Fmc":7727,"secidni":7728,"TY":7729,"}{)(":7730,"Ġesolc":7731,"Ġretne":7732,"Ïģ":7733,"sY":7734,"stnetnoC":7735,"Ġ93":7736,"Ġyram":7737,"yfidom":7738,"==!]":7739,"laB":7740,"xw":7741,"iIc":7742,"noitceleSteg":7743,"semarf":7744,"WOR":7745,"Ġlanoitidda":7746,"Ġluf":7747,"sdrooc":7748,"TB":7749,"503":7750,"Ġnoitacol":7751,"GNIRTS":7752,"ĠtceleS":7753,"retirw":7754,"qes":7755,";}})":7756,"Ġnoitat":7757,"deificeps":7758,"eU":7759,"gnidneP":7760,"tO":7761,"hparga":7762,"EVI":7763,"redlohecalP":7764,"amma":7765,"ĠnepO":7766,"(+)":7767,"Ġ66":7768,"ĠsteG":7769,"gnL":7770,"Ġ57":7771,"972":7772,"km":7773,"Ġ'=":7774,"WQ":7775,"ecnac":7776,".))}":7777,"Ġsm":7778,"tid":7779,"roper":7780,"wV":7781,"Ġ74":7782,"daerht":7783,",]]\"":7784,"hd":7785,"pser":7786,"åħ¥":7787,"BM":7788,"otpyrc":7789,"Ġlaitini":7790,"pmocsj":7791,"uf":7792,"ezil":7793,"nata":7794,"nik":7795,";}]":7796,"TUO":7797,"stluafeD":7798,"UG":7799,"*\"":7800,"slC":7801,"EZIS":7802,"xednIbat":7803,";)''(":7804,"hcet":7805,"Ġeriuqer":7806,"Ġhtob":7807,"\\;)}":7808,"Ġsec":7809,"Ġdeti":7810,"Ġ.`":7811,"itapmoc":7812,"ĠegamI":7813,"segasseM":7814,"daeht":7815,"Ġ04":7816,"%-":7817,"ĠxoB":7818,"==!)":7819,"yg":7820,"ln":7821,"381":7822,"è¦":7823,"noitav":7824,"tresnI":7825,"elpmiS":7826,"setunim":7827,"etsap":7828,"753":7829,"\",,":7830,"ÑĨ":7831,"Ġgra":7832,"nepOsi":7833,"ENIL":7834,"BCIgACIg":7835,"\"?)":7836,"ybstag":7837,";)][":7838,"ãĥ¼":7839,"ayn":7840,"ĠreldnaH":7841,"\\\\]":7842,"obA":7843,"ä¸º":7844,"cilpud":7845,"562":7846,"noitisopmoc":7847,"woP":7848,"ijome":7849,"ĠNOIT":7850,"OHS":7851,"ebyam":7852,"trohSshtnom":7853,"Ġ94":7854,"dnv":7855,"Ġsav":7856,"'>":7857,"htiWstrats":7858,"evaHot":7859,"ama":7860,"Ġllorcs":7861,"Ġnoitamrofni":7862,"ĠDE":7863,"Ġatada":7864,"draobhsad":7865,"è½":7866,"Ġdluoc":7867,"Ġ}=":7868,"FUQD":7869,"Ġssecca":7870,"}}]":7871,"ilf":7872,"171":7873,"dddd":7874,"terces":7875,"756":7876,"Ġwoh":7877,"863":7878,"yarrAni":7879,"wolfrevO":7880,"Ġtc":7881,"noD":7882,"tnemnorivne":7883,":\"\"?":7884,"renetsiLevomer":7885,"pttHLMX":7886,"eikooC":7887,"Ġtini":7888,"!{)":7889,"104":7890,"HFUQH":7891,"Ġgnidoc":7892,"diordna":7893,"aJ":7894,"ecnamrofrep":7895,"ĠecruoS":7896,"/!#'=":7897,"hcaEerofeb":7898,"nixim":7899,"RQ":7900,"aid":7901,"tin":7902,"TATS":7903,"tcartbus":7904,"dnahtrohs":7905,"ĠVNE":7906,"OA":7907,"lmZ":7908,"puyek":7909,"Ġmaerts":7910,"enilnI":7911,"åıĸ":7912,"yVHdl":7913,"ĠekaM":7914,"seta":7915,"Ġara":7916,"XaoRHI":7917,"stib":7918,"ETU":7919,"statS":7920,"dec":7921,"elytSdetupmoCteg":7922,"923":7923,"KCOL":7924,"hgu":7925,"noisiv":7926,"LGbeW":7927,"ifitnedi":7928,"Ð°Ð²":7929,"ngoc":7930,"(()":7931,"}}))":7932,"buB":7933,"#\":\"":7934,"aA":7935,"NX":7936,"gnissim":7937,"ï¼ļ":7938,"ĠtoN":7939,"ĠweN":7940,"ceS":7941,"FGd":7942,"271":7943,"uI":7944,"renwO":7945,"uJXd":7946,"Ġreggirt":7947,";\">":7948,"rotadilaV":7949,"nJ":7950,"Ġmrofinu":7951,"ini":7952,".)})":7953,"Å¡":7954,"864":7955,"egreM":7956,"NH":7957,"ircsbus":7958,"sB":7959,"munE":7960,"ffiD":7961,"æı":7962,"yrotcerid":7963,"esahp":7964,"=]]":7965,"rettimEtnevE":7966,"secitrev":7967,"emim":7968,"llaCssalc":7969,"352":7970,"hserfeR":7971,"evruC":7972,"ç¤":7973,"tih":7974,"neewT":7975,"Ġnosj":7976,"jam":7977,"noitidnoC":7978,"zB":7979,",]}\"":7980,"Ġemu":7981,"laretiL":7982,"æĹ¥":7983,"rorrEno":7984,"niahC":7985,"FUQP":7986,"tsej":7987,"vlGdj":7988,"Ġsrorre":7989,"043":7990,"kes":7991,"tatad":7992,"dcRHX":7993,"563":7994,"gnizis":7995,"ĠESNECIL":7996,"TRATS":7997,"Ġ,''":7998,"yzaL":7999,",_":8000,"gnippam":8001,"NWOD":8002,"idroc":8003,"lBXe":8004,"ssalCrepus":8005,"_$":8006,"ĠĠĊĠĠ":8007,"TCE":8008,"trelA":8009,"SR":8010,"[|":8011,"Ġakam":8012,"&&)]":8013,"gnitsixe":8014,"EDu":8015,"862":8016,"srttA":8017,"253":8018,"poTnigram":8019,"lumucca":8020,"Ġtim":8021,"weiverP":8022,"snoiti":8023,"ongI":8024,"\\=":8025,"\"=!":8026,"Ġarap":8027,"faS":8028,"WQB":8029,"\"\"":8030,"noitaralceD":8031,"éĥ":8032,"wolF":8033,"etatSteg":8034,"nR":8035,"oK":8036,"993":8037,"swa":8038,"ÑĢÐ¿":8039,"Ġuata":8040,"%)":8041,"rotpec":8042,"bal":8043,"yen":8044,"rehctam":8045,"della":8046,"stpO":8047,"hsuP":8048,"\\\\;":8049,"SSEC":8050,"skcit":8051,"oMsi":8052,"selbairav":8053,"xST":8054,"Ġlitnu":8055,"php":8056,"ssalCetaerc":8057,"tuoba":8058,"Ġevitaler":8059,"yP":8060,"åĳ":8061,"(==":8062,"finU":8063,"rehta":8064,"Ġnoitceles":8065,"ehcapA":8066,"tX":8067,"FB":8068,"xyRBF":8069,"ctu":8070,"setats":8071,"ggnu":8072,"emiTtrats":8073,">=)":8074,"992":8075,"nreta":8076,"enoN":8077,"rebmuNsi":8078,"Cb":8079,"ĠìĿ":8080,"Ġsredaeh":8081,"oY":8082,"é¢":8083,"htdiWxam":8084,"oognom":8085,"yarrAoT":8086,"Wdm":8087,"eurT":8088,"Ġsehctam":8089,"ĠĉĉĊ":8090,"hpargop":8091,"otohp":8092,"Ġtahw":8093,"erutcurts":8094,"Ġlacol":8095,"etiniFsi":8096,"Ġnretta":8097,"GIg":8098,"953":8099,"edocinu":8100,"962":8101,"Ġ;)'":8102,"964":8103,"(&&)]":8104,"Ġ03":8105,"\"\\,":8106,"eX":8107,"ste":8108,"è¡Į":8109,"Ø²":8110,"à¹Ī":8111,"skcolB":8112,"########":8113,"ncv":8114,"ĠeldnaH":8115,"dezilamron":8116,"pur":8117,",\"%":8118,"raw":8119,"à¼":8120,"seirogetac":8121,"Ġtsom":8122,"Ġneddih":8123,"sscs":8124,"Ġnoitces":8125,"ĠredaeH":8126,"wj":8127,"[\"=":8128,"oeG":8129,"åŁ":8130,"sixE":8131,"073":8132,"etaulave":8133,"Ġneercs":8134,"CDu":8135,"UAAFA":8136,"âĸĪ":8137,"YAL":8138,"Ġtros":8139,"stxet":8140,"Äį":8141,"uoy":8142,"tsaot":8143,"873":8144,"setuniM":8145,"}))}":8146,"\\;)\"":8147,"./$":8148,"CO":8149,"<`":8150,"ĠeniL":8151,"Ġdek":8152,"Ġnoitamina":8153,"Ġsepyt":8154,"kcehCllaCssalc":8155,"sretliF":8156,"tropmI":8157,"Fd":8158,"irf":8159,"/******/":8160,"eldnub":8161,"lamiced":8162,"evresbo":8163,"Ġgnirud":8164,"Ġyaw":8165,"342":8166,"htemos":8167,"slortnoC":8168,"<(":8169,"772":8170,"ĠretliF":8171,"verP":8172,"Ġllif":8173,"cipot":8174,"LB":8175,"Ġ})":8176,"Ġaw":8177,"ecneuqes":8178,"nyd":8179,"voc":8180,"worhT":8181,"QI":8182,"Af":8183,"zd":8184,"ĠelbaT":8185,"ĉĉĉĊĉĉĉ":8186,"rabllorcS":8187,"623":8188,"ÂłÂłÂłÂł":8189,"æĪĲ":8190,"muis":8191,"rennips":8192,"tfeLnigram":8193,"/<>'":8194,"noitaziro":8195,"slooT":8196,"UV":8197,"tceteD":8198,"Ġros":8199,"Ġsretemarap":8200,"504":8201,"Ġso":8202,"enob":8203,"noitubirt":8204,"èĥ":8205,"hab":8206,"dlihCteg":8207,"mse":8208,"Ġesrap":8209,"213":8210,"sgnitteSo":8211,"NB":8212,"nK":8213,"ĠwohS":8214,"stegrat":8215,"?)]":8216,"553":8217,"uvi":8218,"mV":8219,"181":8220,"ols":8221,"Ð¾ÑĤ":8222,"denifeD":8223,"rekrow":8224,"natsi":8225,"neref":8226,"\":\".":8227,"elpmaxE":8228,"dera":8229,"TK":8230,"ekil":8231,"noinreta":8232,"enohP":8233,"ehcS":8234,"ihp":8235,"Ð°ÑĤ":8236,"EW":8237,"Cx":8238,"dellif":8239,"____":8240,"htoom":8241,"tcelloc":8242,"-\",\"":8243,"ssas":8244,"REFF":8245,",\":":8246,"\\^[":8247,"vc":8248,"833":8249,"bma":8250,"iab":8251,"noitareti":8252,"mrofinU":8253,"seire":8254,"urtS":8255,"tratshcuot":8256,"devreseR":8257,"Ġ:\"\\":8258,"br":8259,"dnEnoitisnarT":8260,"666":8261,"emaNteg":8262,"&>":8263,"Ġpmt":8264,"Ed":8265,"àµ":8266,"nz":8267,"sgalF":8268,"devas":8269,"Ġdnammoc":8270,"dedocne":8271,"Ġderet":8272,"\"==!":8273,"\".":8274,"+(":8275,"eiv":8276,"renetsiLdda":8277,"fp":8278,"çĲ":8279,"my":8280,"tG":8281,"ecnO":8282,"dnapxE":8283,"373":8284,"emuser":8285,"tfihS":8286,"neG":8287,"0005":8288,"Ġstluafed":8289,"9002":8290,"905":8291,"Ġsworht":8292,"Ġ=*":8293,"fil":8294,"Ġepocs":8295,"evisnopser":8296,"lec":8297,"Íı":8298,",)\".":8299,"aV":8300,"eel":8301,"DDu":8302,"lanidro":8303,"ORF":8304,"ëĭ":8305,"Ġelacol":8306,"xajA":8307,"Ġrohtua":8308,"NXZ":8309,"nv":8310,"zJ":8311,"RX":8312,"despalloc":8313,",,,,,,,,":8314,"sdohteM":8315,"epacsE":8316,"Fx":8317,"892":8318,"nuor":8319,"tet":8320,"sesa":8321,"281":8322,"ãĢģ":8323,"Ð°Ð´":8324,"detsen":8325,"snottuB":8326,"ecnuobed":8327,"tig":8328,"poleved":8329,"CIux":8330,"ĠÙī":8331,"2102":8332,"lanoita":8333,"elbaremunE":8334,"redloF":8335,"nC":8336,"tiK":8337,"irU":8338,"\"+]":8339,"ÍıÍı":8340,"edulcxe":8341,",--":8342,"ortS":8343,"erideR":8344,"xatnyS":8345,"843":8346,"sq":8347,"elcitra":8348,"<.":8349,"Ġit":8350,"Ġedivorp":8351,"\")":8352,"\"[,]]":8353,"skcolb":8354,"Ġraey":8355,"Ġyticapo":8356,".})":8357,"Øµ":8358,"nsi":8359,"=>)":8360,"tropweiV":8361,",}})(":8362,"dilos":8363,"Ġhtnom":8364,"Ġferh":8365,"lumis":8366,"aH":8367,"irA":8368,"/.\"\\":8369,"paws":8370,"noitarugifnoC":8371,"Ġ]++":8372,"@'(":8373,"(}}":8374,"122":8375,"stne":8376,"Ġeso":8377,"divorP":8378,"noisicerp":8379,"cibu":8380,"hprom":8381,"segde":8382,"ĠtluseR":8383,"snekoT":8384,"xatnys":8385,"(((":8386,"Ġlanretni":8387,"hcteF":8388,"repap":8389,"oTllorcs":8390,"itaL":8391,"ada":8392,"Ġpi":8393,"segnar":8394,"<<]":8395,"Ġrenetsil":8396,"yyyy":8397,"762":8398,"epyTlanretni":8399,"rcs":8400,"Ġetelpmoc":8401,"derf":8402,"idirem":8403,"303":8404,"scUQBdEL":8405,"ROTA":8406,"804":8407,".?":8408,"orcim":8409,"ddo":8410,"tluafeDteg":8411,"tcesretni":8412,"Ġ:?":8413,";\".":8414,"noitacifi":8415,"!?":8416,"ygetartS":8417,"UC":8418,"cm":8419,"ruoc":8420,"ecalpeR":8421,"\"||)":8422,"utital":8423,"[[,]\"":8424,"Ġcsed":8425,"Ġ'>\"":8426,"gkp":8427,"PPA":8428,"Ġecapseman":8429,"ppah":8430,"eroM":8431,"DRA":8432,"UW":8433,"654":8434,"çº":8435,"+[":8436,"lemac":8437,"ĠĠĠĠĠĠĠĠĠĠĠĠĠĠĠĠĊĊ":8438,"Ġaf":8439,"caf":8440,"noitatoR":8441,"Ġetavirp":8442,"trac":8443,"ĠledoM":8444,"Ð³":8445,"Ġredi":8446,"883":8447,"srotceles":8448,"Ġyc":8449,"vJH":8450,"XB":8451,"Ġnaku":8452,"daolno":8453,"933":8454,"Ġffo":8455,"elbatidE":8456,"doirep":8457,"×Ļ×":8458,"pille":8459,"yaM":8460,"ana":8461,"nifni":8462,"=}":8463,"âĢĿ":8464,"hXZ":8465,"reffuBsi":8466,"deifidom":8467,"ytivitca":8468,"epocStoor":8469,"886":8470,"dnem":8471,"epeR":8472,"dniF":8473,"enilemiT":8474,"veD":8475,"Ġ24":8476,"GdhR":8477,"YuVnZ":8478,"sloc":8479,"lautriv":8480,"timmoC":8481,"tuohtiW":8482,"mia":8483,"kees":8484,"xCR":8485,"hcattA":8486,"etaidemmi":8487,"tcaF":8488,"tK":8489,";))(}":8490,"\"($":8491,"Ġteser":8492,"KOT":8493,"UM":8494,"noitacilppA":8495,"GALF":8496,"tpyrc":8497,"743":8498,"tceps":8499,"vh":8500,"itamotua":8501,"repuS":8502,"064":8503,"netpircs":8504,"00000":8505,"Î½":8506,"roloCredrob":8507,"ĠoD":8508,"ĠdleiF":8509,"egatnecrep":8510,"fOyad":8511,"VNE":8512,"ĉĉĉĉĉĉĉĉĊ":8513,"Ġ}{":8514,"Ġgnittes":8515,"ERUTXET":8516,"rettime":8517,"clJ":8518,"dR":8519,"Ġverp":8520,"\\\\'":8521,"tsohlacol":8522,"\\\",":8523,"nagro":8524,"detirehni":8525,"ĠĠĠĠĠĠĠĠĠĠĠĠĠĠĠĠĠĠĠĠĠĠĠĠĠĠĠĠĠĠĠĠĠĠ":8526,"FDu":8527,"refsnarT":8528,"birtnoc":8529,"edoNteg":8530,"hsalf":8531,"elbaTatad":8532,"ĠTON":8533,"464":8534,"Ġ99":8535,"\\','":8536,"Ġgvs":8537,",\"/":8538,"ä¸ĭ":8539,"ìĿ":8540,"Ġnigulp":8541,"Ġrot":8542,"esiw":8543,"Ġredlohecalp":8544,"evitimirP":8545,"Ġtib":8546,"dradnats":8547,"gua":8548,"582":8549,"Ġyltnerruc":8550,"UP":8551,"itnehtuA":8552,"aremaC":8553,"gp":8554,"tcartnoC":8555,"garF":8556,"yrtsigeR":8557,"vnE":8558,"tinUQ":8559,"mota":8560,"evieceR":8561,"æŁ":8562,"shtnoM":8563,"Ð¸Ð»":8564,"Ġgnidnib":8565,"simorp":8566,"982":8567,"odot":8568,"ĠlE":8569,"Ġ,[":8570,"etelpmocotua":8571,"Ġyrotcerid":8572,"zoM":8573,"luJ":8574,"ä¾":8575,"à¸Ń":8576,"wolle":8577,"gACIgACIgACIgACIux":8578,"Ġlatot":8579,"sICX":8580,"tceffEesu":8581,"\\'(":8582,"laF":8583,"$\",":8584,"782":8585,"noitamrof":8586,"PARW":8587,"ELIF":8588,"963":8589,"Ġdehctam":8590,"xobkcehC":8591,"ĠecnatsnI":8592,"Ġaisunam":8593,"noitatuM":8594,"ĠsmaraP":8595,";_":8596,"Ġrellort":8597,"slobmys":8598,"gniredneR":8599,"mf":8600,"Ġ'\"":8601,"Ġssc":8602,"99999999":8603,"æį®":8604,"FZ":8605,"elbatros":8606,"Ġnoitu":8607,"443":8608,"ojI":8609,"iZp":8610,"mbv":8611,"ord":8612,"mr":8613,"tooB":8614,"Ãł":8615,"IW":8616,"netpircsme":8617,"grO":8618,"fleS":8619,"+\"/":8620,"aG":8621,"yVGd":8622,"ipxe":8623,"èĩª":8624,"dnuos":8625,"Ġesop":8626,"Ġima":8627,"rps":8628,"sN":8629,"\"||]":8630,"EHT":8631,"YL":8632,"flah":8633,"Ġ95":8634,"epiws":8635,"ylanA":8636,"pnosj":8637,"marga":8638,"hk":8639,"Ġnaeloob":8640,"Ġ...":8641,"rotcaF":8642,"Ø«":8643,",\"ðŁ":8644,"505":8645,"gnitset":8646,"noitartsiger":8647,"7260":8648,"WZk":8649,"emantsoh":8650,"ĠsyeK":8651,"ĉĉĉĉĉĉĉĉĉĉĉĉĉĉĉĉ":8652,"retcarahC":8653,"Ġtimil":8654,"Ġartxe":8655,"662":8656,"atak":8657,"ezeerf":8658,")--":8659,"943":8660,"raeniL":8661,"muiseC":8662,"/)]":8663,";;;;":8664,"snixim":8665,"tab":8666,"Ġseriuqer":8667,"slacol":8668,"ettelap":8669,"HTO":8670,"åĬł":8671,"Ġdewol":8672,"Ġnoitacilppa":8673,"763":8674,"bpsj":8675,"syaD":8676,"kcilcno":8677,"BAT":8678,"nibmoc":8679,"242":8680,",\";":8681,"dnas":8682,"QJ":8683,"atni":8684,"etalsnarT":8685,"Ġevoba":8686,"zA":8687,"yroti":8688,"nez":8689,"stpircs":8690,"Xb":8691,"rodnev":8692,"mid":8693,"Ġelpmaxe":8694,"<<)":8695,"gC":8696,"irpS":8697,"Ġssecorp":8698,"ecif":8699,"owT":8700,"132":8701,"Ġtekc":8702,"draobyeK":8703,"yk":8704,"niS":8705,"åı¯":8706,"tseuqeRpttHLMX":8707,"lpmI":8708,"lsnarT":8709,"srepleH":8710,"513":8711,"533":8712,"Ġretcarahc":8713,"QBl":8714,"à®ķ":8715,"QBFUQ":8716,"ppus":8717,"FTU":8718,"pooL":8719,"goT":8720,"åŃĹ":8721,"152":8722,"IB":8723,"rn":8724,"stiB":8725,"OSI":8726,"Ġtinu":8727,"HbhZ":8728,"bildtS":8729,"yalpotua":8730,"usnoc":8731,"Ġgnu":8732,"×ķ×":8733,"RAHC":8734,"å¤§":8735,"ella":8736,"Ġpots":8737,"Ġdem":8738,"Lv":8739,"675":8740,"sehctaM":8741,"853":8742,"Ġsdleif":8743,"ycnednepeD":8744,"Ġrt":8745,"Kq":8746,"dma":8747,"secnerefer":8748,"tcirtser":8749,"fni":8750,"ĠbildtS":8751,"esael":8752,"GB":8753,"eriw":8754,"Ġepa":8755,"904":8756,"tap":8757,"Ġdetareneg":8758,"ĠsteS":8759,"Ġrega":8760,"gaTgnirtSot":8761,"nacs":8762,"ĉĉĉĉĊĊ":8763,";]++":8764,"ĠfeR":8765,"Ġei":8766,"itinas":8767,"ĠIU":8768,"noidroc":8769,":))(":8770,"srotaroced":8771,"Ġdliub":8772,"ĠelgooG":8773,"rS":8774,"Ġparw":8775,"etnI":8776,"redliuBH":8777,"{,]":8778,"Ð¾Ðº":8779,"rz":8780,"Ġ\"=+":8781,"Ġstniop":8782,"Ġ,_":8783,"$_":8784,"Ġgniniatnoc":8785,"yadot":8786,"QBAUAAFA":8787,"DR":8788,"ĠtamroF":8789,"Ġ06":8790,"elbadaeR":8791,"/..'[,]')(":8792,"PME":8793,"mR":8794,"tnevEevitan":8795,"mIc":8796,"omyno":8797,"tluafeDsi":8798,"ĠDET":8799,"ssecen":8800,"yticolev":8801,"LS":8802,"Ġ^":8803,"-\"(":8804,"huM":8805,"Ġmm":8806,"aci":8807,"ipoc":8808,"snoisnemiD":8809,"Ùī":8810,"__,":8811,"Ġelbaremune":8812,"elbaziser":8813,"irepxe":8814,"dM":8815,"-\",":8816,"733":8817,"Ġecivres":8818,"YWa":8819,"792":8820,"redahs":8821,"}})(":8822,"ĠemaNedon":8823,"pI":8824,"--;":8825,"DER":8826,"SER":8827,"lusa":8828,"noitpircsbus":8829,"Ġnoisi":8830,"+]][":8831,"mroftalP":8832,"Ġliame":8833,"NN":8834,"csbuS":8835,"Ġllits":8836,"{$=":8837,"tneraPtesffo":8838,"cnySeliF":8839,"elgnatceR":8840,"682":8841,"spets":8842,"rebme":8843,"edoNtxeTetaerc":8844,"langis":8845,"çĤ¹":8846,"evitimirp":8847,"secca":8848,"nB":8849,"yK":8850,"snoitarepo":8851,"rob":8852,"ĠĠĠĠĉĉ":8853,"detroppuS":8854,"433":8855,"dnocesillim":8856,"492":8857,"piT":8858,"âĶĢâĶĢâĶĢâĶĢ":8859,"serutaeF":8860,"<'($":8861,"656":8862,"973":8863,"å¦":8864,"secnatsni":8865,"\"\\:":8866,"Ġyreve":8867,"Ġcit":8868,"ecarT":8869,"feDsi":8870,"stseuqer":8871,"éĺ":8872,"Ð¿":8873,"Ġdnuorg":8874,"RHXqj":8875,"âĢľ":8876,"Ġsessalc":8877,"Dx":8878,"miled":8879,"tnih":8880,"segaP":8881,"icif":8882,"983":8883,"ĠSTROPXE":8884,"@\"(":8885,"etatSydaer":8886,"Ġgniv":8887,"ç®":8888,"GQ":8889,"deifidoM":8890,"313":8891,"tsetal":8892,"DZ":8893,"à¸£":8894,"seriuq":8895,"Ġdegnahc":8896,"XR":8897,"gACIgACIgACIgACIgACIgACIgACIgACIgACIgACIgACIgACIgACIgACIgACIgACI":8898,"å¯¹":8899,"\",)}":8900,"0003":8901,"_,)":8902,"TV":8903,"Ġlanret":8904,"_.]":8905,"468":8906,"ĠZ":8907,"ooz":8908,"Xn":8909,"nwoDyeK":8910,"à¹Ģ":8911,"hguorht":8912,"aka":8913,"napxE":8914,"GS":8915,"vI":8916,"odnapxe":8917,"XredliuBH":8918,"ihs":8919,"00001":8920,"-'(":8921,"Ġthgil":8922,"Ã£":8923,"Ġlobmys":8924,"Ġdevomer":8925,"sksat":8926,"lU":8927,"nwonknu":8928,"stuptuo":8929,"gAA":8930,"etagivan":8931,"Ġsegnahc":8932,"773":8933,"CJ":8934,"Ġecnatsid":8935,"sllac":8936,"emiTevitaler":8937,"HK":8938,"revoesuom":8939,"ekortS":8940,"tef":8941,"MS":8942,"dliug":8943,"hpla":8944,"FDP":8945,"Ġrenni":8946,"idarG":8947,"oferiF":8948,"IAF":8949,"FOS":8950,"yVHdlJ":8951,"KCAB":8952,"Ġeert":8953,";`}":8954,"eulaVwen":8955,"oitar":8956,"denifednUsi":8957,"stcejorp":8958,"rettamrof":8959,"tzQBF":8960,"dapek":8961,"snoitisop":8962,"Ġenolc":8963,"gnicapS":8964,"relipmoc":8965,"JHd":8966,"modnaR":8967,"Ġ\":":8968,"{/}":8969,";}{||":8970,"tnednI":8971,"__=":8972,"Ġrb":8973,"kooL":8974,"åĪĨ":8975,"tnemelEevitca":8976,"Ġnakgna":8977,"Ġyx":8978,"Ġirah":8979,"||\"":8980,"ye":8981,"æĽ":8982,"CQ":8983,"dradnatS":8984,"{)'":8985,"ecruoSatad":8986,"deknil":8987,"edoCsutats":8988,"Yh":8989,"Xtneilc":8990,"ecnalab":8991,"yolped":8992,"Ġ\">":8993,"\",\";":8994,"Ġrra":8995,"OV":8996,"ciremuN":8997,"Ġ96":8998,"deyortsed":8999,"Ġwar":9000,"repoleveD":9001,"eve":9002,"gnep":9003,"secruoseR":9004,"deno":9005,"daerps":9006,",}}))":9007,"083":9008,"etalopretni":9009,"elbareti":9010,"fOxednItsal":9011,"OG":9012,"ROLOC":9013,"Ġloc":9014,"naJ":9015,"ĠSI":9016,"vd":9017,"lanoitidda":9018,"Ûķ":9019,"Ġira":9020,"tnecca":9021,"å¿":9022,"necs":9023,"pes":9024,"\\\\()}":9025,"nurt":9026,"655":9027,"mlE":9028,"evreserp":9029,"sporPtluafed":9030,"lianbmuht":9031,"673":9032,"/\\/\\":9033,"Ġylppa":9034,"Hc":9035,"revni":9036,"åīį":9037,"lhGd":9038,"Ġlaiceps":9039,"ĠrenetsiL":9040,"LRUecruos":9041,"èĢ":9042,"pmatsemiT":9043,",}}})":9044,"Ġtrevnoc":9045,"nbc":9046,"lopretnI":9047,"ĀĀĀĀĀĀĀĀĀĀĀĀĀĀĀĀĀĀĀĀĀĀĀĀĀĀĀĀĀĀĀĀĀĀĀĀĀĀĀĀĀĀĀĀĀĀĀĀĀĀĀĀĀĀĀĀĀĀĀĀĀĀĀĀ":9048,"tellaw":9049,"retsa":9050,"FV":9051,"eueuqne":9052,"ĠDNA":9053,"643":9054,"Ġlanoitpo":9055,"detareneg":9056,"wk":9057,"nami":9058,"suB":9059,"Ġ48":9060,"DILAVNI":9061,"NEKOT":9062,"Ġ)({=":9063,"niartsnoc":9064,"rl":9065,"-{":9066,"[[,":9067,"ĠLA":9068,"ĠlebaL":9069,"llAtceles":9070,"è·":9071,"uqer":9072,"gD":9073,"583":9074,"rorriM":9075,"ecapsemaN":9076,"neS":9077,";)\"\"(":9078,"405":9079,"Ġneve":9080,"Ġsretcarahc":9081,"egakcaP":9082,"Ġ75":9083,"272":9084,"etageleD":9085,"nq":9086,"trohSsyadkeew":9087,"noitcejorp":9088,"ferP":9089,"snruter":9090,"Ġdehc":9091,"tcaxE":9092,"remA":9093,"FNOC":9094,"Wbh":9095,"lliw":9096,"scihparg":9097,"xtC":9098,"ais":9099,"Ax":9100,"])":9101,"enaP":9102,"iE":9103,"stnemges":9104,"$|":9105,"gih":9106,"tropsnart":9107,"yerg":9108,"terac":9109,"Ġdetupmoc":9110,"sis":9111,"htdiWnim":9112,"233":9113,"lausiv":9114,"etaretI":9115,"AAAAAAAAAAAAAAAAAAAAAAAAAAAAAAAA":9116,"ĠĠĠĠĠĠĠĠĉĊ":9117,"LLLL":9118,"tropeR":9119,"fael":9120,"qJ":9121,"kx":9122,"Ø±Ø§":9123,"stolS":9124,"enoD":9125,"reggoL":9126,"793":9127,"fidne":9128,"ycne":9129,"secorp":9130,"/<\"+":9131,"duVWb":9132,"reizeb":9133,".$=":9134,"slleC":9135,"dip":9136,"!!(":9137,"ĠkcilC":9138,"rdyh":9139,"straP":9140,"QskUQBlEL":9141,"shtaP":9142,"detcetorp":9143,"Ġ08":9144,"reneger":9145,"neercslluF":9146,"Ġigab":9147,"mys":9148,"Ġraelc":9149,"bN":9150,"boJ":9151,"Ġsserdda":9152,"805":9153,"erbm":9154,"453":9155,"norivnE":9156,"hte":9157,"niMsyadkeew":9158,"Ġgn":9159,"åĿ":9160,"694":9161,"huggnu":9162,"tilpS":9163,"rdda":9164,"CV":9165,"tamroFetaD":9166,"noitatonnA":9167,"\"{,\"":9168,"/****************************************************************":9169,"!:\"":9170,"mes":9171,"noitcar":9172,"llifylop":9173,"Ġswolla":9174,"hl":9175,"rednes":9176,"eslE":9177,"caM":9178,"pt":9179,"tcepsa":9180,"cisaB":9181,"\\\\|":9182,"Ġniatnoc":9183,"tnedi":9184,"604":9185,"\\>\"\\":9186,"ĠetoN":9187,"MZ":9188,"nitliub":9189,"Ġog":9190,"II":9191,"AAK":9192,"Ġswor":9193,".)']\"":9194,"Ù°Ùĳ":9195,"(&&)(":9196,"\\':'":9197,"Ġlauqe":9198,"thgieWtnof":9199,"áĥĲ":9200,"laretil":9201,"-|":9202,"Ġaj":9203,"ecneuqeS":9204,"butS":9205,"iW":9206,"elppir":9207,"saP":9208,"lluNsi":9209,"pihS":9210,"gnidnuob":9211,"etirpS":9212,"tniartsnoC":9213,"rK":9214,"Ġsdeen":9215,"revird":9216,"áĥĺ":9217,"tegraTdetaler":9218,"ĠmroF":9219,"aY":9220,"cj":9221,"gnig":9222,"\"&&)":9223,"etomeR":9224,"103":9225,"893":9226,"æĬ":9227,"Ġraga":9228,"à®¿":9229,"itnauq":9230,"ĠppA":9231,"èİ":9232,"ĠeltiT":9233,"dleiy":9234,"FW":9235,"ĠdohteM":9236,"ÉµÉµ":9237,"ÐµÑĢ":9238,"lmX":9239,"ĠsutatS":9240,"hCI":9241,"\\\\{":9242,"ĠrotceleS":9243,"repoleved":9244,"retnuoC":9245,"gACIgACIgACIux":9246,"!;":9247,"âĢĭâĢĭ":9248,"Ġetareti":9249,"âĢį":9250,"nj":9251,"+!":9252,"eueuQetadpu":9253,">}}":9254,"pb":9255,"Ġedih":9256,"sreb":9257,"ĉĉĉĉĉĉĉĉĉĉĉ":9258,"taus":9259,"txetnoCteg":9260,"Ġxel":9261,"ç¬":9262,"io":9263,"704":9264,"Ġemo":9265,"Ġsseccus":9266,"yrots":9267,"Ñİ":9268,"NOM":9269,"WOL":9270,"sseni":9271,"segnaR":9272,"HZv":9273,"tolS":9274,"geN":9275,"GP":9276,"kj":9277,"serpmoc":9278,"*\\":9279,"çł":9280,"ç¤º":9281,"åĲį":9282,"ilitu":9283,"ttorht":9284,"æ¸":9285,"[,]]":9286,",/*":9287,"Ġ10":9288,"SSIM":9289,"eli":9290,"hpylg":9291,"BUS":9292,"+'>\"":9293,",))]":9294,"kN":9295,"Ġnau":9296,"ytreporPteg":9297,"Ġaid":9298,"éĢī":9299,"GJ":9300,";)]}":9301,"nioc":9302,"ĠĠĠĠĠĠĠĠĠĠĠĠĠĠĠĠĠĠĠĠĠĠĠĠĠĠĠĠĠĠĠ":9303,"meidirem":9304,"ĠĠĠĠĠĠĠĠĠĠĠĠĠĠĠĠĠĠĠĠĠĠĠĠĠĠĠĠĠĠĠĠĠĠĠĠĠĠĠĠĠĠĠĠĠĠĠĠĠĠĠĠ":9305,"_\",":9306,"nwodkram":9307,"Ġ,')":9308,"AP":9309,"Ġ65":9310,"tcartsba":9311,"EHC":9312,"yrter":9313,"653":9314,"cte":9315,"010":9316,"tov":9317,"FFO":9318,"Ġdnes":9319,"\\;]":9320,"ssctsop":9321,"rotacidnI":9322,"!<":9323,"Ġpm":9324,"RUC":9325,"ĠÑı":9326,"tnairavni":9327,"Ġmumixam":9328,"Bx":9329,"013":9330,"Ġaya":9331,"detnuom":9332,"nob":9333,"à³":9334,"=/":9335,"KgYWa":9336,"RAM":9337,"Ġdepparw":9338,"dnopserroc":9339,"BGR":9340,"hcrare":9341,"482":9342,"ralacS":9343,"dloF":9344,"142":9345,"bitapmoc":9346,"AAM":9347,"Ġsixa":9348,"nigeB":9349,"rotacidni":9350,"evitcAsi":9351,"GIgACIux":9352,"sirapmoc":9353,"aynna":9354,"PITLOOT":9355,"Ġ\"}":9356,"Ġmets":9357,"\"{=":9358,"heb":9359,"æĻ":9360,"KK":9361,"tsisrep":9362,"FFu":9363,"slauqE":9364,"Ġ>\"":9365,"nN":9366,"Ġtneverp":9367,"Ġdeilppa":9368,"pN":9369,"ticilpxe":9370,"ireP":9371,"ceV":9372,"emaner":9373,"slaitrap":9374,"EDNI":9375,"xT":9376,"YTS":9377,"ĠneL":9378,"xySBF":9379,"Ġdelbane":9380,"BFUU":9381,"tniopdnE":9382,"bilst":9383,"liM":9384,"lak":9385,"Ġnoitarugifnoc":9386,"den":9387,"stinU":9388,"eda":9389,"llAevomer":9390,"neeB":9391,"HZ":9392,"\"{,}}":9393,"gergga":9394,"DAEH":9395,"Gct":9396,"YyV":9397,"rorrEegnaR":9398,"tnenopmoCtcartsbA":9399,"oTdda":9400,",)}{=":9401,"EQ":9402,"epiP":9403,",)}]":9404,"paMkaeW":9405,"Ġan":9406,"yFmd":9407,";)\">":9408,"yrotceriD":9409,"DELIAF":9410,"$\"(":9411,"tirW":9412,"yciloP":9413,"Ġ14":9414,"ERAWT":9415,"TT":9416,"ÐµÐ¼":9417,"ERAWTFOS":9418,",']":9419,"tnemyap":9420,"Ġruc":9421,"eellac":9422,"mumixam":9423,"neT":9424,"^/:":9425,"von":9426,"hcnu":9427,"mg":9428,"uqE":9429,"BOL":9430,"kciuq":9431,"LFUQL":9432,"Ġiagabes":9433,"VVVV":9434,"GO":9435,"muminim":9436,"âĤ":9437,"tahC":9438,"705":9439,"ylsuo":9440,"erusaeM":9441,"çİ":9442,"XQ":9443,"srid":9444,"Ġnial":9445,"%:":9446,"Ð¸ÑĤ":9447,"rettug":9448,"Ġ}>":9449,"tjQ":9450,"203":9451,"kp":9452,"sy":9453,"tropsnarT":9454,"!,]":9455,"783":9456,"ĠrtS":9457,"Ġdaeh":9458,"esopmoc":9459,"duolC":9460,"NUF":9461,"rellorcs":9462,"tcennocsid":9463,"à¹ī":9464,"Ġrehtona":9465,"0340":9466,"Ġemeht":9467,"\"(__":9468,"thgieHtneilc":9469,"esaberif":9470,"pada":9471,"VN":9472,"cilpuD":9473,"xFdcRHXux":9474,"esoognom":9475,"cimanyD":9476,"ataDevomer":9477,"ereM":9478,"à¼ĭ":9479,".][":9480,"808":9481,"å§":9482,"kM":9483,"ebircsbusnu":9484,"Ġlub":9485,"txeTesnopser":9486,"nomek":9487,"NFUQN":9488,"Ġelbane":9489,"tcirt":9490,"tuohtiw":9491,"304":9492,"ĠnigulP":9493,"porc":9494,"taC":9495,",]}{,}":9496,"fig":9497,",)})\"":9498,"cz":9499,"Ġtnemmoc":9500,"tcelfer":9501,"yenrab":9502,"683":9503,"ecilS":9504,"906":9505,"093":9506,"cihparg":9507,"NNOC":9508,"614":9509,"$_.":9510,"RETNE":9511,"htdiWtneilc":9512,"700":9513,"VED":9514,"UBF":9515,"talp":9516,"åĴ":9517,"DAER":9518,"sgnirtS":9519,"Ġdrowssap":9520,"redloH":9521,"ĠdlihC":9522,"æģ":9523,"tixE":9524,"rteM":9525,"672":9526,"elihW":9527,"Ġ**:":9528,"iG":9529,"593":9530,"icer":9531,"xyT":9532,"irO":9533,"obrev":9534,"seirtnE":9535,"GET":9536,"HTAP":9537,"ykcits":9538,"sR":9539,"KCOLB":9540,"æį®æķ°":9541,"Ġthgim":9542,"UF":9543,"472":9544,"lauqEsi":9545,"snoC":9546,"ypS":9547,"ç´":9548,"seb":9549,"elbavresbo":9550,"zZ":9551,"buod":9552,"Ġlubnatsi":9553,"884":9554,"lsh":9555,"ESAB":9556,"{\"":9557,"egarev":9558,"Ġsavnac":9559,"tsefinam":9560,"Ġdnib":9561,"rewop":9562,"åĻ":9563,"ĠsemaN":9564,"koobecaf":9565,"Ġnet":9566,"Ġtil":9567,"punaelc":9568,"Ġtnuoma":9569,"ÐµÐ´":9570,"ĠayN":9571,"per":9572,"913":9573,"RXZyB":9574,"itrepes":9575,"Ġrotareti":9576,"?((":9577,"Ġ##":9578,"53556":9579,"ç«":9580,"}})\"":9581,"GXs":9582,"reviecer":9583,"ĠakereM":9584,"bmoc":9585,"trevni":9586,"edutignol":9587,"Ùĭ":9588,"ytriD":9589,"teb":9590,"xb":9591,"seititne":9592,"ASZ":9593,"didnac":9594,"Ġgalf":9595,"BCZ":9596,"itah":9597,"ĠytreporP":9598,"ãģĹ":9599,"fOrebmun":9600,"Ġhsi":9601,"esaeleR":9602,"edutital":9603,"eug":9604,"ZI":9605,"Ġelbissop":9606,":})":9607,"lap":9608,"+\"[":9609,"detac":9610,"sys":9611,"Lu":9612,"MC":9613,"tnemyaP":9614,"seriuqer":9615,"HSU":9616,"YD":9617,"kat":9618,"é»":9619,"ytira":9620,"sdrooC":9621,"Ġlamron":9622,"ĠecivreS":9623,"Ġ,/*":9624,"çŃ":9625,"\"{(":9626,"Ġdeifi":9627,"emuloV":9628,"tnetxE":9629,"evitaleR":9630,"Ġbat":9631,"iq":9632,"sporPdeziomem":9633,"876":9634,"reD":9635,"aI":9636,"sfed":9637,"tsd":9638,"noht":9639,"roivaheb":9640,"leveLpot":9641,"oW":9642,"OJ":9643,"Ġdraob":9644,"colla":9645,"è¦ģ":9646,"refsnart":9647,"talF":9648,"metItes":9649,"rewsna":9650,"à¤ķ":9651,"çĲĨ":9652,"wN":9653,"ç±":9654,"->)":9655,"rhc":9656,"GNA":9657,"vt":9658,"CIgAibc":9659,"htirogla":9660,"800":9661,"}))\"":9662,"\",)(":9663,"esnepsu":9664,"Ġpool":9665,"Ġgnaroes":9666,"hb":9667,"Ïĥ":9668,"eerht":9669,"tpmorp":9670,"sdroceR":9671,"nbp":9672,"silaitini":9673,"srab":9674,"Ġgnippa":9675,"spi":9676,"423":9677,"à¸ĩ":9678,"JCL":9679,"Ġgnissim":9680,"Ub":9681,"663":9682,"ouQ":9683,"yrella":9684,"RXY":9685,"tceffEtsal":9686,"epyTtnemele":9687,"ox":9688,"Byc":9689,"snoitisoP":9690,"Ġyllanif":9691,"noisilloc":9692,"draobpilc":9693,"nP":9694,"rotarapmoc":9695,"haM":9696,"Ġdnuora":9697,"dellatsni":9698,"MODtcaeR":9699,"cq":9700,"peS":9701,"+\",\"":9702,"ylnOdaer":9703,"tub":9704,"yrtsiger":9705,"oidaR":9706,"tcid":9707,"Ġngissa":9708,"ä»¥":9709,"^(":9710,"tcO":9711,"\\;)\"\\":9712,"egdab":9713,"eniLteg":9714,"rorreno":9715,"#'=":9716,"Wds":9717,"ilit":9718,"sac":9719,"Ġgninnur":9720,"edoNenolc":9721,"Ġatem":9722,"oE":9723,"å¼ı":9724,"lapurD":9725,"toR":9726,"raneb":9727,"NGIS":9728,"REFFUB":9729,"500":9730,"Ġ,>":9731,"Ġnaid":9732,"Î¼":9733,"\":\"(":9734,"enap":9735,",])\"":9736,"ç¼":9737,"namu":9738,"cQ":9739,"noitatnemelpmi":9740,"gIXY":9741,"Ġme":9742,"REB":9743,"^[|":9744,"retsigeR":9745,"xiffus":9746,"inim":9747,"lavretnIraelc":9748,"rettamroF":9749,"tnatsnoC":9750,"Ġnakta":9751,"pohs":9752,"ĠsgnitteS":9753,"Ġsaila":9754,"FUQR":9755,"tlA":9756,"rbiL":9757,"celes":9758,"sdnocesillim":9759,"ataDtes":9760,"tneidarG":9761,"ÐµÐ½":9762,"à¯ģ":9763,"!(&&":9764,"Ġsel":9765,"lavretnItes":9766,"recudeR":9767,"TCELES":9768,"Ġsf":9769,"zt":9770,"Ġecrof":9771,"ETADPU":9772,"EDOC":9773,"deretsiger":9774,"PTTH":9775,"daerpS":9776,"mt":9777,"rI":9778,"daB":9779,"toof":9780,"laviuq":9781,"isop":9782,"gnisu":9783,"@\",":9784,"Ġitrepes":9785,"976":9786,"oira":9787,"FGZ":9788,"BJ":9789,"edoNV":9790,"tpeccA":9791,"Ġdedne":9792,"deppotS":9793,"ãĤĴ":9794,"tcerideR":9795,"trB":9796,"806":9797,"tniartsnoc":9798,"retsulC":9799,"Ġstnenopmoc":9800,"ĉĉĠĠ":9801,"PD":9802,"Vm":9803,"Ġsllac":9804,"nixiM":9805,"emarFnoitaminAtseuqer":9806,")]'":9807,"343":9808,"cy":9809,"693":9810,"ĠsepyTporp":9811,"344":9812,"segamI":9813,"jid":9814,"eggirt":9815,"sbaT":9816,"deteled":9817,"áµ":9818,"Ġtuoyal":9819,"oohc":9820,"dwc":9821,"sdrowyek":9822,"ï¸":9823,"LLL":9824,"414":9825,"Ġrevoh":9826,"VQBN":9827,"buH":9828,"{)))":9829,"evaelesuom":9830,"thgin":9831,"sedoc":9832,"deeF":9833,"Ġnaki":9834,"Gdh":9835,"cirbaf":9836,"Ġkram":9837,"referp":9838,"Ġtnof":9839,"iclR":9840,"uot":9841,"eruliaf":9842,"DFUQDxSSBFUS":9843,"iahc":9844,"nG":9845,"045":9846,"nah":9847,"åĬ¨":9848,"htla":9849,"dIeludom":9850,"JC":9851,"pukram":9852,"dp":9853,"HW":9854,"mcw":9855,"[]'":9856,"Ġ)\"\"":9857,"Ġula":9858,"ssUQBtEL":9859,"EFAS":9860,"Ġsresu":9861,"Ġidajnem":9862,"292":9863,"!,)(":9864,"ubrep":9865,"ateb":9866,"lanoitcnuf":9867,"rifnoc":9868,"Ġoita":9869,"eganaM":9870,"613":9871,"miced":9872,"resUteg":9873,"Ġsnaem":9874,"`[":9875,"Ġllams":9876,"ayna":9877,"sda":9878,"Ġyorts":9879,"Wdk":9880,"\\,]":9881,"ĠeludoMse":9882,"546":9883,"846":9884,"Ġgnillac":9885,"(=]":9886,"234":9887,"SD":9888,"nW":9889,"686":9890,"ngilAtxet":9891,"litnU":9892,"éĶ":9893,"pmalc":9894,"744":9895,"skniL":9896,"elddiM":9897,".}%":9898,"034":9899,"retirW":9900,"ĠROF":9901,"slobmyStamroF":9902,"gniniamer":9903,"Ytneilc":9904,"tcele":9905,"ylimaFtnof":9906,"èĬ":9907,"elytStes":9908,"Ġasa":9909,"Ġrezi":9910,"gHX":9911,"Ġnoitazi":9912,"noitpircsbuS":9913,"aE":9914,"}}}}":9915,"ppc":9916,"pag":9917,"emorhC":9918,"sem":9919,"deman":9920,"Ġaer":9921,"niW":9922,"Ġnrettap":9923,"tliub":9924,"Ġecruoser":9925,"\\^/(":9926,"ELYTS":9927,"746":9928,"edarg":9929,"IRCS":9930,"iuG":9931,"desuap":9932,"ê°":9933,"sixAy":9934,"slaitnederC":9935,"rat":9936,"tsih":9937,"Ġevas":9938,"($=":9939,"ERID":9940,"til":9941,"wc":9942,"ĠporP":9943,"TUPNI":9944,"VGb":9945,"Lc":9946,"Ġnoitaru":9947,"dulcni":9948,"GNEL":9949,"Ġcilbup":9950,"875":9951,"ãģĦ":9952,"sahP":9953,"tressAon":9954,"Ġreyal":9955,"Yv":9956,"deeN":9957,"ue":9958,"BQ":9959,"tneirO":9960,"snoitcnuF":9961,"\",][:\"":9962,"eef":9963,"Ġsrenetsil":9964,"ĠrehtehW":9965,"\\\\}":9966,"odts":9967,",}{()":9968,"sixAx":9969,"tniap":9970,"lgbew":9971,"sesu":9972,"elpitluM":9973,"gnidael":9974,"tpac":9975,"æłĩ":9976,"[__":9977,"Ġgnidocne":9978,"rebif":9979,"eslaF":9980,"Ġ652":9981,"946":9982,"ĠetuoR":9983,"tnemelELMTH":9984,"yW":9985,"MR":9986,"saE":9987,"273":9988,"413":9989,"elcyc":9990,"sedoC":9991,"xSTBFUT":9992,",}{)":9993,"tnelis":9994,"fOepyt":9995,"VP":9996,"hv":9997,"selor":9998,"ÐµÑģ":9999,"ECI":10000,"lareneg":10001,"605":10002,"807":10003,"Ġsnoitca":10004,"mooR":10005,"|)]":10006,"lisp":10007,",)}))":10008,"ĠesnopseR":10009,"tsum":10010,"ÐµÐ»":10011,"ssalCbus":10012,"ĠstnevE":10013,"Ġssergorp":10014,"rotarapeS":10015,"åĽŀ":10016,"707":10017,"sdrocer":10018,"()\"":10019,"yeKlrtc":10020,"ðŁı":10021,"Ġylluf":10022,".=":10023,"rela":10024,"rebmE":10025,"854":10026,"detadpU":10027,"reep":10028,"Ġeka":10029,"Ð°Ð¼":10030,"detelpmoc":10031,"eetaretI":10032,"ÐµÐ²":10033,"retneesuom":10034,";)}'":10035,"gnitaolf":10036,"lG":10037,"elz":10038,"rewoP":10039,"nD":10040,"snoitamina":10041,"fs":10042,"guA":10043,"åĪ°":10044,"dnarb":10045,"094":10046,"/../..'(":10047,"nT":10048,"evoba":10049,"Ġ,'.":10050,"@@@":10051,"irD":10052,"ĠerotS":10053,"POT":10054,"knir":10055,"tcA":10056,"Ġatadatem":10057,"ilitU":10058,"HTGNEL":10059,"yLv":10060,"Ġgnil":10061,"Ġ'/":10062,"XIF":10063,"/************************************************":10064,"Ġeci":10065,"FUQT":10066,"stsop":10067,"smele":10068,"\\;%":10069,"BOLG":10070,"detneverPtluafeDsi":10071,"LF":10072,"899":10073,"pmE":10074,"espalloC":10075,"Ġyaled":10076,"392":10077,"esolCno":10078,"Ġeuqinu":10079,"ROTS":10080,"txeTssc":10081,"074":10082,"Ġutaus":10083,"Ġnoitisnart":10084,"Ġrotide":10085,"uD":10086,"dis":10087,"044":10088,"rM":10089,"Ġĉĉĉĉ":10090,"diulf":10091,"orF":10092,"slaitnederc":10093,"GXuxVf":10094,"yarrAdepyT":10095,"Ġsyarra":10096,"EIV":10097,"PE":10098,"éģ":10099,"gniredner":10100,"epyTtnetnoc":10101,"vf":10102,"AY":10103,"klaw":10104,"})))":10105,"pnosJ":10106,"tessA":10107,"Ġsenil":10108,"elppa":10109,"metItsiL":10110,"Ġxeger":10111,"yhpargop":10112,"stseuqeR":10113,"obmoc":10114,"hsiniF":10115,"dniK":10116,"QS":10117,"ani":10118,"\",))":10119,"hpargarap":10120,"tHIp":10121,"NIF":10122,"ĠtneraP":10123,"ibel":10124,"aciremA":10125,"ĠedoCyek":10126,"HF":10127,"Ġlaire":10128,"sserpmoc":10129,"rih":10130,"ehs":10131,"rx":10132,"Ġemarf":10133,"uY":10134,"Cg":10135,"retad":10136,"954":10137,"htdiWenil":10138,"txeNteg":10139,"PFUQP":10140,"/**":10141,"æ¯":10142,"let":10143,"Ġtog":10144,"kcils":10145,"áĥĺáĥ":10146,"Ġtnuocca":10147,"ruQ":10148,"æĸ¹":10149,"ffuB":10150,"Å¾":10151,"citeht":10152,"maeT":10153,"Ġ05":10154,"yrtnuoC":10155,"Ġ98":10156,"sreniatnoc":10157,"seicnednepeD":10158,"tnuoMdiDtnenopmoc":10159,"TNOC":10160,"HTUA":10161,"huT":10162,"ĠhcraeS":10163,"guo":10164,";}))":10165,"åĽ¾":10166,"olleh":10167,"Ġpeek":10168,"reifidom":10169,"uu":10170,"624":10171,"emaNdohtem":10172,"stekc":10173,"htdiWredrob":10174,"Ġnoitcennoc":10175,"elbasiD":10176,"Ġij":10177,"425":10178,"ver":10179,"Ġskooh":10180,"gninnur":10181,"dlohserhT":10182,"ikim":10183,"xs":10184,"naB":10185,"Ġecalper":10186,"Ġffid":10187,",}))\"":10188,"aQ":10189,"Ġdesnecil":10190,"neeBevaHot":10191,"ĠaiD":10192,"rotarepO":10193,"sgnidnib":10194,"wg":10195,"à¤¿":10196,"Ġ,\".":10197,"23232323":10198,"elborp":10199,"hateg":10200,"974":10201,"odnek":10202,"URBF":10203,"neraP":10204,"denruter":10205,"rV":10206,"ìł":10207,"dedeen":10208,"ĠdluohS":10209,"lir":10210,"Ġstnem":10211,"ĠuneM":10212,"remotsuc":10213,"ITCA":10214,"gerggA":10215,"ggub":10216,"seuQ":10217,"selcit":10218,"Ġsuidar":10219,"\\\\)":10220,"åįķ":10221,"Ġsserp":10222,"detresni":10223,"Ġrettel":10224,"setadpU":10225,"toD":10226,"\\,\"":10227,"uL":10228,"gniv":10229,"Ġsetyb":10230,"\"=]\"":10231,"754":10232,"Ġnoitid":10233,"Xf":10234,"jY":10235,"mui":10236,"Ġhpar":10237,"Ġerew":10238,"ĠeurT":10239,"Ġedirrevo":10240,"koobecaF":10241,"gnidocnE":10242,"785":10243,"Ġmuak":10244,"ĠĠĠĠĠĠĠĠĠĠĠĠĠĠĠĠĠĠĠĠĠĠĠĠĠĠĠĠĠĠĠĠĠĠĠĠĠĠ":10245,"Ġerusne":10246,"BG":10247,"Ġkeew":10248,"reweiv":10249,"rabediS":10250,"ksed":10251,"Ġ{)":10252,"laeR":10253,"deliaF":10254,"iLu":10255,"\\**/":10256,"èĥ½":10257,"edocnE":10258,"ĠdaoL":10259,"Î»":10260,"ĠÄ":10261,"etatsydaer":10262,"rekcipetaD":10263,"\\/=":10264,"524":10265,"955":10266,"|}":10267,"Ec":10268,"sCA":10269,"+]-":10270,"decrof":10271,",][||":10272,"deredneR":10273,"tikbeW":10274,"{$(":10275,"dts":10276,"jd":10277,"/<>\"\\":10278,"poep":10279,"VFL":10280,"tseuqeRtes":10281,"derots":10282,"niP":10283,"rotareneger":10284,"IX":10285,"ãĥ³":10286,"sVHZv":10287,"ĠhctaM":10288,":'(":10289,"708":10290,"Eb":10291,"arB":10292,"attA":10293,"Ð¾Ð³":10294,"hgilhgih":10295,"ĠnF":10296,"CIT":10297,"reweiV":10298,"(,)\"":10299,"4321":10300,"allizom":10301,"snoitat":10302,"813":10303,"renem":10304,"&\"":10305,"rebmuNenil":10306,"Yl":10307,"arD":10308,"aaaaaaaa":10309,"944":10310,"Ġekat":10311,"aU":10312,"daorb":10313,"reil":10314,"TCAER":10315,"734":10316,"Ġmus":10317,"NOITCA":10318,"åĢ¼":10319,"Ġkcart":10320,"SPE":10321,"æ°":10322,"dnetnorf":10323,"stnuocca":10324,"demrof":10325,"WZtV":10326,"xM":10327,"Ġsemit":10328,"ynapmoc":10329,"lor":10330,"Ġ;))":10331,"tohspans":10332,"764":10333,"uN":10334,"etulosbA":10335,"Ġ15":10336,"Ġreta":10337,"VM":10338,"daP":10339,"ĠtA":10340,"xednIdetceles":10341,"elytScitats":10342,"dlohserht":10343,"BXb":10344,"ĠES":10345,"877":10346,"sretcarahc":10347,"ecnA":10348,".)\">":10349,"åĵ":10350,"_\"=":10351,".\\/":10352,"otog":10353,"æ¨":10354,"tsj":10355,"reludehcs":10356,"ĠMMM":10357,"iler":10358,"à¤¸":10359,"snoisrev":10360,"DOC":10361,"'m":10362,"{'":10363,"ssimsid":10364,"ĠtsriF":10365,"544":10366,"omeM":10367,"PAC":10368,"ylnOdaeR":10369,"å¦Ĥ":10370,"pleH":10371,"Ġksamtib":10372,"Ġdetaicossa":10373,"><":10374,"å»":10375,"reifi":10376,"DLI":10377,"gnilbiSsuoiverp":10378,"Ġdrocer":10379,"ria":10380,"Ġetuor":10381,"310":10382,"hes":10383,"ynA":10384,";)\"!":10385,"rettes":10386,"sehcuoT":10387,"<'=":10388,"seitiliba":10389,"sepyTatad":10390,"713":10391,"áĥĲáĥ":10392,"virP":10393,"Ġ552":10394,"/<:":10395,"ãģĻ":10396,"COD":10397,"Ġrepleh":10398,"NEM":10399,"ENIFED":10400,"Ġxelf":10401,"pmac":10402,"Ġsnmuloc":10403,"iuyal":10404,"Ġelggot":10405,"2121212121212121":10406,"pins":10407,"TG":10408,"Ġirid":10409,"ĠtpircSavaJ":10410,"eliboM":10411,"DJ":10412,"seggus":10413,"pukraM":10414,"mrifnoC":10415,"Ġtegdiw":10416,"\",\">":10417,"lod":10418,"metItnerruc":10419,"csid":10420,"iuy":10421,"gUGa":10422,"664":10423,"Ġdraw":10424,"++[":10425,"Ġrewol":10426,"EY":10427,"vgra":10428,"denepo":10429,"drowyeK":10430,"nosreP":10431,"Ġdeifidom":10432,"372":10433,"Ġaratna":10434,"rQ":10435,"relec":10436,"XEDNI":10437,"xSQ":10438,"keep":10439,"jZ":10440,"gniggard":10441,"Ġdom":10442,"oO":10443,"elbatceles":10444,"zx":10445,"tnevEhcatta":10446,"kcabllaF":10447,"garDno":10448,"egasu":10449,"yaDtxen":10450,"ytilibisiV":10451,"yrotnev":10452,"daolnwoD":10453,"Jg":10454,"Ġ002":10455,"tneraPllorcs":10456,"SX":10457,"Ġ77":10458,"egdi":10459,"yranoitc":10460,"sipa":10461,"nH":10462,"tamroFetad":10463,"Ġnialp":10464,"irF":10465,"âĸĪâĸĪ":10466,"tnurg":10467,"semiT":10468,"orC":10469,"erawtfoS":10470,"erehpS":10471,"à¸ģ":10472,"dleiFteg":10473,"lpmi":10474,"Ġala":10475,"tuoesuom":10476,"enifeD":10477,"rgetni":10478,"à¸±":10479,"zyx":10480,"523":10481,"QsI":10482,"900":10483,"?)+":10484,"rotcejni":10485,"sus":10486,"stesffO":10487,"bq":10488,";]}":10489,"TSNOC":10490,"à¤¨":10491,"yllac":10492,"TSET":10493,"tnemercni":10494,"Ġtser":10495,"ETON":10496,"mQ":10497,"\\/\\":10498,"aO":10499,"Ñį":10500,"nus":10501,"sey":10502,"ÏĢ":10503,"woleb":10504,"sppa":10505,"erG":10506,"ircsbuS":10507,"Ġ27":10508,"ĠimaK":10509,"oidu":10510,"TFEL":10511,"esiwrehto":10512,"Ġpiks":10513,".*/":10514,"nUsi":10515,"å¼Ģ":10516,"|\"(":10517,"guS":10518,"denil":10519,"696":10520,"600":10521,"naf":10522,"semaNssalc":10523,"noitartsigeR":10524,"setatS":10525,"etius":10526,"dellaCneeBevaHot":10527,"2000":10528,"rJ":10529,"ortni":10530,"sremit":10531,"nioJ":10532,"anai":10533,"Ġeerf":10534,"tamroFetaDgnol":10535,"Ġtiaw":10536,"Ġ,%":10537,"gP":10538,"esrevni":10539,"__'":10540,"divid":10541,"855":10542,";})\"":10543,"retimiled":10544,"tsujdA":10545,"nwohs":10546,"seni":10547,"senaL":10548,"*'":10549,"LTR":10550,"Ġesuom":10551,"ĠEB":10552,"Ġdrac":10553,"jbOeldnah":10554,"Ġrotarepo":10555,"âĸ«":10556,"elgooG":10557,"(&":10558,"TIT":10559,"ãĥ¼ãĥ":10560,"rahs":10561,"yradnuoB":10562,"stegdiw":10563,"YTILI":10564,"sresworb":10565,"oZ":10566,"ĠselytS":10567,"luclaC":10568,"\\|]":10569,"ngam":10570,"snoisnemid":10571,"ĠtnetnoCtxet":10572,"YTPME":10573,"enOdnif":10574,"xP":10575,"ĠedoNtnerap":10576,"795":10577,"Ġis":10578,"[}":10579,"ÑĦ":10580,"123":10581,"à®¤":10582,"Ġdedeen":10583,"EGAP":10584,"éħ":10585,"Ġsyad":10586,"htooms":10587,"Ġkiab":10588,"yod":10589,"sraey":10590,"tnemelpmI":10591,"guj":10592,"594":10593,"esaClemac":10594,"debmE":10595,"GXv":10596,"tfosorciM":10597,"suomyno":10598,"áµĴ":10599,"lW":10600,"/\\\\":10601,"SW":10602,"575":10603,"Ġoediv":10604,"ĠhtiW":10605,"ĠesaB":10606,"emiTnoitaripxE":10607,"hcuoTno":10608,"ĠseulaV":10609,"ĠrevreS":10610,"dezilaitini":10611,"tnemurts":10612,"ĠloC":10613,"794":10614,"\"{,}]":10615,"æ¡":10616,"ona":10617,"elbbub":10618,"Bg":10619,"ĠER":10620,"\\*!************************************************":10621,"noic":10622,"emaS":10623,"rosseccA":10624,"ecnaC":10625,"574":10626,"tiaW":10627,"ĠNIAM":10628,"seiceps":10629,"sredivorp":10630,"ndc":10631,"NAC":10632,"*\"(":10633,"Ġruoh":10634,"994":10635,"noitcurtsni":10636,"rj":10637,")}\"":10638,"Ġtcennoc":10639,"dnegeL":10640,"orhT":10641,"pn":10642,"ĠxdI":10643,"Ġxirtam":10644,"sIytreporp":10645,"GIFNOC":10646,"ĠdeliaF":10647,"taS":10648,"ĠU":10649,"068":10650,"daeha":10651,"eso":10652,"NAM":10653,"056":10654,"elacoLenifed":10655,"zza":10656,"licne":10657,"reifidoM":10658,"noitalu":10659,"755":10660,"ĠnmuloC":10661,"Ġas":10662,"gim":10663,"508":10664,"kciP":10665,"FmZ":10666,"BFUV":10667,"lag":10668,"Ġ\"+)":10669,"934":10670,"ĠnoitpO":10671,"noitisopmoC":10672,"Ġ821":10673,"åĻ¨":10674,"774":10675,"--\"(":10676,":?(^/":10677,"Ġregetni":10678,"362":10679,"ium":10680,"rZ":10681,"VI":10682,"ĠcnuF":10683,"Ð¾Ð»":10684,"EGNAHC":10685,"GbvN":10686,"selbairaV":10687,"FUQF":10688,"ĠpoTllorcs":10689,"zJXZ":10690,"Ġotua":10691,"elek":10692,"hF":10693,"rova":10694,"684":10695,"noitam":10696,"Dd":10697,"Ġhser":10698,"ĠxiferP":10699,"uw":10700,"nidrO":10701,"rauq":10702,"etubirttAsah":10703,"etiS":10704,"510":10705,"PPUS":10706,"uC":10707,"thgieHxam":10708,"eulB":10709,"tneC":10710,"Ġtcejorp":10711,"æŀľ":10712,"lwo":10713,"çĻ":10714,"646":10715,"ediug":10716,"pacse":10717,"Ġknuhc":10718,"thgieHenil":10719,"ie":10720,"+\"'":10721,"tnemecalP":10722,"PLEH":10723,"Ġym":10724,"metIuneM":10725,"XdvN":10726,"kcalB":10727,"Yp":10728,"laH":10729,"110":10730,"mE":10731,"Ġ85":10732,"yeKtfihs":10733,"tpircSavaJ":10734,",`}":10735,"lma":10736,"JBO":10737,"Ġstpecca":10738,"ĠredivorP":10739,"sulc":10740,"894":10741,"295":10742,";)}})":10743,"Ġdnetxe":10744,"à©":10745,"984":10746,"ekiLyarrAsi":10747,"Ġtsael":10748,"snoitidnoc":10749,"ĠllaC":10750,"rorrErepoleveD":10751,"Ġecafretni":10752,"dnehcuot":10753,",>":10754,"784":10755,"lK":10756,"ĠnO":10757,"doireP":10758,"Ġstes":10759,"ezileuq":10760,"llew":10761,"ìŀ":10762,"emiTtnerruc":10763,"noitanigaP":10764,"etacol":10765,"ÙĦÙĦØ§":10766,"OLC":10767,"Ġ215":10768,"Ġgnihctam":10769,"635":10770,"itnatsni":10771,"à¥ĩ":10772,"emoeg":10773,"Ġnoc":10774,"hsurb":10775,"bmes":10776,"lqe":10777,"024":10778,"Yz":10779,"rorriMedoC":10780,"HV":10781,"986":10782,"ĠerehT":10783,"tnemelEtnerap":10784,"eiP":10785,"Ġnaksa":10786,"cibuc":10787,"Ġ)}{":10788,"xobdnas":10789,"796":10790,"ĠÛĹ":10791,"Ġ'.":10792,"Ġnoitarepo":10793,"èµ":10794,"ORG":10795,"oga":10796,"[=]":10797,"QBAUAAFAQBAUAAFA":10798,"qeS":10799,"///":10800,".$$":10801,"æľ¬":10802,"lVHbhZ":10803,"mreted":10804,"jJXdvN":10805,"sexedni":10806,"lautriV":10807,"Ġelpmis":10808,"vB":10809,"tae":10810,"msirP":10811,"teB":10812,"Ð°Ð·":10813,"CAA":10814,"eslEemas":10815,"thgieHllorcs":10816,"woN":10817,"STL":10818,"epa":10819,"ĠeteleD":10820,"113":10821,"TXE":10822,"-}":10823,"172":10824,"yaDtsal":10825,"lanretxE":10826,"Ġ\")":10827,"Ø·":10828,"alu":10829,"ĠtresnI":10830,"=_,":10831,"noidrocca":10832,"aX":10833,"pyrcne":10834,"EVOM":10835,"retaW":10836,"esobrev":10837,"emehcs":10838,"786":10839,"cis":10840,"laj":10841,"\\\\\",\"":10842,"9991":10843,"mh":10844,"NUOC":10845,"ry":10846,"tolP":10847,"redaeHtseuqeRtes":10848,"Ġredne":10849,"LABOLG":10850,"eec":10851,"ÙĲÙĳ":10852,"rX":10853,"908":10854,"kot":10855,"nigap":10856,"Ø¡":10857,"emaNporp":10858,"YR":10859,"Ġdeman":10860,"desucoF":10861,"seripxe":10862,"pnosJkcapbew":10863,"retteG":10864,"reppoP":10865,"ç»Ħ":10866,"tnempoleved":10867,"ĠSO":10868,"tceV":10869,"ĠyaD":10870,"revopoP":10871,"è±":10872,"ĠkcolB":10873,"ngocer":10874,"wv":10875,";__":10876,"DMA":10877,"Ġrered":10878,"Ġremit":10879,"mihs":10880,"Ġnami":10881,"1102":10882,"===\"]":10883,"FGI":10884,"ZA":10885,"sriap":10886,"ĠsepyTporP":10887,"yromeM":10888,"stnof":10889,"æ·":10890,"â´":10891,",}))}":10892,"rtnoc":10893,"dniheb":10894,"yeno":10895,"warder":10896,"lGd":10897,"roh":10898,"detrats":10899,"à¸¡":10900,".+":10901,"895":10902,"dmb":10903,"383":10904,"ĠemarF":10905,"Ġniamod":10906,"yrruc":10907,",}})\"":10908,"nigulPtnevE":10909,"424":10910,"dednuor":10911,"Ġekovni":10912,"'<":10913,"Ġesaelp":10914,"noitcirts":10915,"'.":10916,"sweiV":10917,"selpmaxe":10918,"tesffOetyb":10919,"Ġgnic":10920,"nrut":10921,"dlO":10922,"refer":10923,"ylppA":10924,"etiL":10925,"kla":10926,"NIL":10927,"sserppus":10928,"kcapbeW":10929,"Ġgnis":10930,"seci":10931,"sir":10932,",}}]":10933,"Ġskrow":10934,"lanoitpO":10935,"Ġwonk":10936,"wollahs":10937,"laviuqe":10938,"ĠĠĠĠĠĠĠĠĠĠĠĠĠĠĠĠĠĠĠĠĠĠĠĠĠĠĠĠĠĠĠĠĠĠĠĠĊ":10939,"sezis":10940,"stamrof":10941,"Ġemoc":10942,"qAibc":10943,"bU":10944,"Ġ)/*":10945,"_/.":10946,"HTAM":10947,"Ġgnip":10948,"XP":10949,"nisucof":10950,"Ġetareneg":10951,"GZv":10952,"saf":10953,"now":10954,"!||)":10955,"wf":10956,"/<...":10957,"Ġoot":10958,"Ġeunitnoc":10959,"dv":10960,"975":10961,"detceleSteg":10962,"293":10963,"Äł":10964,"zf":10965,"noitacitnehtua":10966,"stnemgeS":10967,"ruot":10968,"606":10969,"FUQV":10970,",'(":10971,"706":10972,"OLF":10973,"yhp":10974,"wE":10975,"åĲİ":10976,"................":10977,"âĢĮ":10978,"wJ":10979,"874":10980,"(/)":10981,"noitatum":10982,"zVmc":10983,"||))":10984,"smrofinu":10985,"_}":10986,"Ġlmx":10987,"ecroF":10988,"Ġlli":10989,"Ġevis":10990,"keeWtsal":10991,"ĠerawtfoS":10992,"ytiruces":10993,"nwOsah":10994,"lQ":10995,"éĻ¤":10996,"Ġylev":10997,"SAH":10998,"985":10999,"400":11000,"Ġevi":11001,"tnetnocgn":11002,"ymmu":11003,"wI":11004,"Zu":11005,"Ïħ":11006,"Ġyllacitamotua":11007,"timo":11008,"ĠSELUDOM":11009,"tnemnorivnE":11010,"gICX":11011,"secidnI":11012,"llaCnyd":11013,"dets":11014,"etuca":11015,"Ġfit":11016,"ytreporPtes":11017,"oni":11018,"Ġsgalf":11019,"nX":11020,"ĠPTTH":11021,"æ¬":11022,"slennahc":11023,".}\"":11024,"Ġdeeps":11025,"ees":11026,"gnitrats":11027,"hcaer":11028,"tsom":11029,"gHA":11030,"htuao":11031,"ĠydoB":11032,"473701":11033,"ĠleveL":11034,"ETS":11035,"nara":11036,"nug":11037,"Ġlatnoziro":11038,"etatsydaerno":11039,"282":11040,"ataDmroF":11041,"76543":11042,"0102":11043,"tsriFteg":11044,"kcatShsup":11045,"Ġevitc":11046,"RV":11047,"txeTsutats":11048,"Ġpeed":11049,"Ð¾Ð²":11050,"133":11051,"stropmi":11052,"5340":11053,"BCIgACIgACIgACIg":11054,"redaoLetalpmet":11055,"emaNssalCyBstnemelEteg":11056,"dniw":11057,"ELBAT":11058,"retal":11059,"ĠnwonknU":11060,"XI":11061,"tmf":11062,"MH":11063,"fg":11064,"yrev":11065,"\"{)(":11066,"dlihCtsal":11067,"ude":11068,"493":11069,"ilfnoC":11070,"Øº":11071,"noitom":11072,"ĠNA":11073,"lxWZ":11074,"ssI":11075,"ĠraeY":11076,"Ġegrem":11077,"066":11078,"Ġbc":11079,"4343":11080,"Ġyltcerid":11081,"QBFFL":11082,"keeWtxen":11083,"ou":11084,"Ġesoht":11085,"seu":11086,"lv":11087,"_;":11088,"xqj":11089,"ETYB":11090,";))})":11091,"epyTteg":11092,"Ġ25":11093,"ujnu":11094,"zNXY":11095,",}))})":11096,"åŀ":11097,"ffe":11098,"iwS":11099,"éĿ¢":11100,"enot":11101,"dios":11102,"swodniw":11103,"Ġdd":11104,"kU":11105,"tcepsnI":11106,"(]'":11107,"tpircsepyt":11108,"dnuB":11109,"BED":11110,"REBMUN":11111,"Ġgnihtemos":11112,"DFUQDxyQBF":11113,"Ġ34":11114,"wolley":11115,"rR":11116,"685":11117,"799":11118,"lM":11119,"qqqq":11120,"xSQDFUQ":11121,"kJ":11122,"éĽ":11123,"ĠrepuS":11124,"Ġaggni":11125,"éľ":11126,"Ġ78":11127,"xFX":11128,"323":11129,"Ġdior":11130,"REM":11131,"sev":11132,"Ġrosruc":11133,"drawroF":11134,"ecapskrow":11135,"GM":11136,"Ġkooh":11137,"yaDemas":11138,"dnelb":11139,"SV":11140,"ledoMgn":11141,"223":11142,"thgieHnim":11143,"WQBJ":11144,"Ġthgirypoc":11145,"Ġslitu":11146,"ï¸ı":11147,"bwh":11148,"çľ":11149,"eulaVedon":11150,"gnab":11151,"tcejeR":11152,"Ġtresni":11153,"tog":11154,"iLv":11155,"/_":11156,"xyTBF":11157,"zY":11158,"snigulP":11159,"resahP":11160,"vE":11161,"584":11162,"elbaremunEsIytreporp":11163,"(,))":11164,"worb":11165,"terts":11166,"kI":11167,"deldnah":11168,"revloseR":11169,"ĠstnemelE":11170,"ĠtooR":11171,"à®®":11172,"182":11173,"ĠnoitcA":11174,"gnitide":11175,"Ġhguo":11176,"ÏĤ":11177,"åĩº":11178,"Ġ64":11179,"gnimit":11180,"Ġâ":11181,"xednIdnif":11182,",'\"":11183,"ĠetalpmeT":11184,"à¤®":11185,"ffa":11186,"ĠÃ©":11187,"åıĳ":11188,"NOT":11189,"ĠlleC":11190,"Ú©":11191,"hsals":11192,"Ġderedner":11193,"Ġsnoit":11194,"Ġnoiti":11195,"AIA":11196,"Ġsteg":11197,"emose":11198,".\"+":11199,"Ġdetsen":11200,"lib":11201,"ç±»":11202,"Ġdnik":11203,"nees":11204,"yradnuob":11205,"delu":11206,"tceleSno":11207,"etacifit":11208,"emusnoc":11209,"evomhcuot":11210,"ekaF":11211,"WOHS":11212,"Ġpord":11213,"euqinU":11214,"382":11215,"Ġenon":11216,"{[=":11217,"AABA":11218,"Ġ'-":11219,"FmY":11220,"tcejbuS":11221,"tnuomnU":11222,"CAE":11223,"ÑĮÐ»":11224,"detcejer":11225,"WZu":11226,"egasseMtsop":11227,"506":11228,"erapmoC":11229,"608":11230,"tuodts":11231,"Ġnrutert":11232,"Ġenimreted":11233,"sne":11234,",]++":11235,"vMXZ":11236,"dnab":11237,"966":11238,"Ġoc":11239,";)(]":11240,"sbmu":11241,"ELC":11242,"Ġynam":11243,"gal":11244,"_\"+":11245,"elbaliavA":11246,"HSUP":11247,"TMG":11248,"\\\\:":11249,"diordnA":11250,"QF":11251,"ĠTRO":11252,"nIesae":11253,"Ġ'/'":11254,"Ð°Ð»":11255,"NOITPO":11256,"Ġ56":11257,"lxWdk":11258,"610":11259,"Ġelib":11260,"sZ":11261,"lamiceD":11262,"nwonknU":11263,"å¥":11264,"rehctapsiD":11265,"sjv":11266,"elgnatcer":11267,",';":11268,"tnoc":11269,"è®¾":11270,"nut":11271,"aidep":11272,"noitcaretni":11273,"Ġhab":11274,"weiVtluafed":11275,"814":11276,"Ø±Ø¨":11277,"rib":11278,"710":11279,"zab":11280,"reit":11281,"585":11282,"gnir":11283,"/\":\"":11284,"ĠĠĠĠĠĠĉĊ":11285,"puteS":11286,"fu":11287,"sreg":11288,"ĠÐ¹":11289,"534":11290,"dezilaitinI":11291,"èİ·":11292,"ĠnitaL":11293,"stsil":11294,"xobb":11295,"162":11296,"à±":11297,"sserpyek":11298,"nIedaf":11299,"677":11300,"ðĿ":11301,"Ġtrahc":11302,"minim":11303,";)))(":11304,"sMUQBNELJFUQJ":11305,"IRP":11306,"yeKatem":11307,"834":11308,"rY":11309,"\\;'":11310,"slru":11311,"tan":11312,"roba":11313,"Ġdnuob":11314,"Ġstroppus":11315,"tnorF":11316,"Ġemane":11317,"/<>/":11318,"nevig":11319,"emaNwar":11320,"gACIgACIgACIgACIgACIg":11321,"é¡µ":11322,"eciohc":11323,"cdm":11324,"ĠevoM":11325,"lausiV":11326,"ĉĠĠĠĠ":11327,"iX":11328,"gnLtaL":11329,"AW":11330,"æľŁ":11331,"ytivitcA":11332,"CUS":11333,"idua":11334,"ĠÐ¸":11335,"rorrim":11336,"Ġ\"?":11337,"elytSteg":11338,"ä½¿":11339,"snrettaP":11340,"åĪĹ":11341,"885":11342,"IH":11343,"relipmoC":11344,"ĠelacS":11345,"snoisnetxE":11346,"fubotorp":11347,"ĠsmetI":11348,"trams":11349,"sexednI":11350,",}\"\":":11351,"åĲ¦":11352,"tiawa":11353,"dekcilc":11354,"daolerp":11355,"=])":11356,"}>":11357,"raf":11358,"geled":11359,"uK":11360,"Ġecapsetihw":11361,"rH":11362,"nehW":11363,"76666":11364,"teL":11365,"thgiRnigram":11366,"wKA":11367,"secnatsnI":11368,"cer":11369,"393":11370,"Ġatled":11371,"stcudorp":11372,"pJ":11373,"ĠeueuQ":11374,"äºº":11375,"denolc":11376,"_'=":11377,"Ġhtped":11378,"EHW":11379,"esabataD":11380,"OTORP":11381,"nalP":11382,"Ġxtc":11383,"dettamrof":11384,"delipmoc":11385,"(*)":11386,"[/":11387,"mn":11388,"866":11389,"ÉĻ":11390,"Yetalsnart":11391,"nnoc":11392,"egnahCeldnah":11393,"revloser":11394,"iiii":11395,"VGI":11396,"NOITISOP":11397,"sesaila":11398,"dnecsed":11399,"lqhparg":11400,"âķĲ":11401,"slexip":11402,"rorrEecnerefeR":11403,"qered":11404,"ÑĮÑĤ":11405,"Ã¥":11406,"mO":11407,"Ġsemarf":11408,"noitaroced":11409,"tahw":11410,"ytiC":11411,"oe":11412,"dnuoR":11413,"Ġ,.":11414,"STSIL":11415,"434":11416,"noinretauQ":11417,"ecnatsnItnenopmoc":11418,"spit":11419,"ĠĠĠĠĠĠĠĠĠĠĠĠĠĠĠĠĠĠĠĠĠĠĠĠĠĠĠĠĠ":11420,"gnissiM":11421,"MROF":11422,"derev":11423,"yub":11424,"ç¨":11425,"XU":11426,"æİ¥":11427,"æ³ķ":11428,"enilrednu":11429,"0021":11430,"Ġtnih":11431,"chx":11432,"lNmc":11433,"*.(":11434,"dnihebkool":11435,"ihpylg":11436,"skciT":11437,"tekcub":11438,"narB":11439,"Ġdaolyap":11440,"LAI":11441,"Ġlocotorp":11442,">]":11443,"pon":11444,"enalP":11445,"slitUxm":11446,"nitnoC":11447,"à®¾":11448,"csA":11449,"[/(":11450,"æĥ":11451,"lanidrO":11452,"sreyaLnepO":11453,"nwohS":11454,"ssiM":11455,"ÅŁ":11456,"*)]":11457,"Ġefas":11458,"Ġtropxeer":11459,"{$\"":11460,"Ġyramirp":11461,"dj":11462,"-----":11463,"secaf":11464,"Ġtfi":11465,"dauq":11466,"===)(":11467,"vitca":11468,"srellort":11469,"rehp":11470,"sraV":11471,"Ġez":11472,"zama":11473,"srekram":11474,"YC":11475,"wK":11476,"åĴĮ":11477,"esrevart":11478,";>'":11479,"QR":11480,"ç©":11481,"Ġyranib":11482,"edirrevO":11483,"hcraeser":11484,"tcafit":11485,"YRA":11486,"TNEMU":11487,"Ġ}][":11488,"IV":11489,"578":11490,"dnekcab":11491,"yramirP":11492,"gnitar":11493,"ĠĠĠĠĠĠĠĠĠĠĠĠĠĠĠĠĠĠĠĠĠĠĠĠĠĠĠĠĠĠĠĠĠĠĠĠĠĠĠĠĠĠ":11494,"lpt":11495,"Ġenilni":11496,"tiG":11497,"ä¼ļ":11498,"Ġ97":11499,"ecapsetihw":11500,"latipac":11501,"/\"+":11502,"81473701":11503,"_.)":11504,"\"||)\"":11505,"zP":11506,"roivaheB":11507,"ĠruoY":11508,"/))":11509,"!==!":11510,"lbd":11511,"Ġgniddap":11512,"ecnereffid":11513,"SEPYT":11514,"dnar":11515,"676":11516,"vaS":11517,"orcam":11518,"887":11519,"raet":11520,"Ġnakh":11521,"sesac":11522,"driht":11523,"Ġhibel":11524,"ecnalaB":11525,"Ġ35":11526,"ycnerruC":11527,"xiffuS":11528,"hceT":11529,"ĠdelbanE":11530,"bM":11531,"Ġsrtta":11532,"avod":11533,"èī":11534,"================================================================":11535,"Ġad":11536,"pikS":11537,"calp":11538,"ffffff":11539,"014":11540,"daolnu":11541,"skooHssc":11542,"Ġdetadpu":11543,"nahT":11544,"Ġnaidum":11545,"sedir":11546,"QM":11547,"detavitca":11548,"cD":11549,"seton":11550,"Ġetaciderp":11551,"<\"=":11552,"ruceR":11553,"tiart":11554,"735":11555,"mep":11556,"(!!":11557,"775":11558,"?'":11559,"stegraT":11560,"Ã¸":11561,"ZZ":11562,"ĠdirG":11563,"tekram":11564,"ĠreganaM":11565,"Ġpadah":11566,"tesnu":11567,"jj":11568,"/<)":11569,"Ġdewolla":11570,"rotpecretni":11571,"lusaR":11572,"rohtuA":11573,"crA":11574,"zs":11575,"gral":11576,"ck":11577,"8402":11578,"gnida":11579,"llorcSteg":11580,"lipmoc":11581,"xelF":11582,"regga":11583,"MRO":11584,"ĠtuoyaL":11585,"ÐµÑĤ":11586,"[ě":11587,"599":11588,"Ġedistuo":11589,"UT":11590,"daolyaP":11591,">=)(:":11592,"yrammuS":11593,"Ġ842":11594,"Ġamehcs":11595,"daerhT":11596,"cirtem":11597,"retuO":11598,"305":11599,"699":11600,"XF":11601,"delytS":11602,"Ġdehsi":11603,"htdiWekorts":11604,"|?.\\":11605,"ĠtneilC":11606,"lIc":11607,"uH":11608,"roFtiaw":11609,"Zul":11610,"ĠgnirtSot":11611,"GY":11612,"NOITISNART":11613,"luj":11614,"hek":11615,"Ġ])":11616,"WI":11617,"dIteg":11618,"Ġgnidnep":11619,"è°":11620,"967":11621,"ãģ«":11622,",)\"\",":11623,"notelek":11624,"eulaVtnerruc":11625,"==]":11626,"Ġtse":11627,"|?)":11628,"5656":11629,"selac":11630,"Ġ20":11631,"Ġerapmoc":11632,"oRH":11633,"Ġtcer":11634,"degrem":11635,"=!)":11636,"weks":11637,"{$\"=":11638,"Ġecived":11639,"Ġvne":11640,"reoc":11641,"('":11642,"ľì":11643,"Ġdeldnah":11644,"ä¿¡":11645,"dJ":11646,"×Ķ":11647,"éķ":11648,"ä½ľ":11649,",)}}\"":11650,"pv":11651,"oq":11652,"tsoc":11653,"SSEM":11654,"tcartxE":11655,"num":11656,"dewollA":11657,"TINI":11658,",__":11659,"DIV":11660,",\"\":\"":11661,"Ġtsniaga":11662,"ĉĉĉĊĉ":11663,"mialc":11664,"ĠĠĠĠĠĠĠĠĠĠĠĠĠĠĠĠĠĠĠĠĠĠĠĠĠĠĠĠĠĠĠĠĠĠĠ":11665,"tellaW":11666,"tuobA":11667,"595":11668,"\\*!****************************************************************":11669,"xiIc":11670,"wQ":11671,"ĠxaM":11672,"OBF":11673,"SUTATS":11674,"LCNI":11675,"GIS":11676,"å±±":11677,"erahS":11678,"ĠĠĠĠĠĠĠĠĠĠĠĠĠĠĠĠĠĠĠĠĉ":11679,"rennab":11680,"emaNeliF":11681,"ĠetubirttA":11682,"yE":11683,"Ġrehta":11684,";}{:":11685,"Ġgnidnopserroc":11686,"naisetrac":11687,"dessap":11688,"ĠstrevnoC":11689,"BichZ":11690,"birttA":11691,"ytilibis":11692,"tratStes":11693,"[)}":11694,"183":11695,"deec":11696,"634":11697,"Ġgubed":11698,"WW":11699,"ĠQ":11700,"rennuR":11701,");)":11702,"ralced":11703,"lesuoraC":11704,";)\"\"":11705,"erutangiS":11706,"pircsbus":11707,"Ġdeliaf":11708,"Ð¾ÑĢ":11709,"/`":11710,"etaDtrats":11711,"scis":11712,"stnemmoC":11713,"tnetxe":11714,"GETNI":11715,"ytitnedI":11716,"Ġ\":\"":11717,"neewteb":11718,"gnillorcs":11719,"pukooL":11720,"sbus":11721,"lanigirO":11722,"566":11723,"ynaM":11724,"Ġ)]'":11725,"724":11726,"ĠNOITCE":11727,"yLu":11728,"Ġnigiro":11729,"taepeR":11730,"setuoR":11731,"åĨħ":11732,"Äłn":11733,"Ġerif":11734,"_,\"":11735,"iled":11736,"554":11737,"TUB":11738,"ylsuoregnad":11739,"KS":11740,"ffffffffffffffff":11741,"UQBF":11742,"/../..\"(":11743,";)'!":11744,"seldnah":11745,"gnidaeH":11746,"ãĤĭ":11747,"Ġhctef":11748,"Ġemor":11749,"miS":11750,"ROC":11751,"evissap":11752,"Ġsegassem":11753,"gnat":11754,"674":11755,"rotsecna":11756,"DP":11757,"elgnairt":11758,"partstooB":11759,"vsc":11760,"Ġtaub":11761,"OO":11762,"Ġgnidulcni":11763,"WEIV":11764,"evloseR":11765,"rfi":11766,"çĶŁ":11767,"emaNnoci":11768,"_!(":11769,"etum":11770,"mis":11771,"ferH":11772,"ezilairesed":11773,"noitalsnart":11774,"pk":11775,"{>\"":11776,"<]":11777,"yLux":11778,"Îº":11779,"epor":11780,"7694":11781,"(}})":11782,"ĠevitcA":11783,"revocer":11784,"éĹ´":11785,"Gdc":11786,"%/(":11787,"DH":11788,"/<}}":11789,"åŃĺ":11790,"wb":11791,"uP":11792,"oloc":11793,"DIW":11794,"rNWY":11795,"Ġsed":11796,"${":11797,"stesatad":11798,"Ġ90":11799,"à®°":11800,"ppainu":11801,"Ã«":11802,"reludehcS":11803,"SSER":11804,"ĠwodniW":11805,"Lq":11806,"krap":11807,"Ġseludom":11808,"elzziS":11809,"ðŁĳ":11810,"nuJ":11811,"tnairaV":11812,"410":11813,"ENON":11814,"zFGb":11815,"Î·":11816,"eciton":11817,"hctaP":11818,"Ġngis":11819,"ecnon":11820,"ĠĠĠĠĠĠĠĠĠĠĠĠĠĠĠĠĠĠĠĠĠĠĠĠĠĠĠĠĠĠĠĠĠĠĠĠĠĠĠĠĠĠĠĠĠĠĠĠĠĠĠĠĠĠĠĠ":11821,"despalloC":11822,".)][||":11823,"63556":11824,"luB":11825,"rifak":11826,"Ġdamma":11827,"dmC":11828,"drazi":11829,"gniliart":11830,"dengis":11831,"enalp":11832,"-[,":11833,"oX":11834,"WayR":11835,"BR":11836,"ĠxirtaM":11837,"llaf":11838,"larulp":11839,"Bk":11840,"æ¶":11841,"TAOLF":11842,"norhcnys":11843,"evitce":11844,"ĠIP":11845,"\"}":11846,"tcapmoc":11847,"nolisp":11848,"gF":11849,"AAQ":11850,"ĠdammahuM":11851,"299":11852,"setad":11853,"wM":11854,"delbanEsi":11855,"988":11856,"dexedni":11857,"\"'(":11858,"tuogol":11859,"JHdz":11860,"sksaT":11861,"rL":11862,"Ġsliated":11863,"çłģ":11864,"etupmoC":11865,"Ġnommoc":11866,"NON":11867,"695":11868,"erutseg":11869,"htob":11870,"ĠredrO":11871,"MYS":11872,"Ud":11873,"tnenopmoCIRUedoced":11874,"YAD":11875,"obmoC":11876,"ĠgnissiM":11877,"cV":11878,"emangat":11879,"525":11880,"rojam":11881,"Ġemanresu":11882,"214":11883,"tpur":11884,"liar":11885,"edistuO":11886,"Ġsgat":11887,"retfAtresni":11888,"mcvZ":11889,"elbisiVsi":11890,"dekcol":11891,"BIRTTA":11892,"ycilop":11893,"zg":11894,"Ġsehc":11895,"wef":11896,"Ġetulo":11897,"sgnilbis":11898,"soduesp":11899,"ezitinas":11900,"depma":11901,"saer":11902,"ĠtrevnoC":11903,"manyd":11904,"snoitaler":11905,"Ġ:)(":11906,"Ġtno":11907,"314":11908,"FUQC":11909,"896":11910,"rennur":11911,"evitageN":11912,"egarevoc":11913,"ciw":11914,",)'_'(":11915,"edoceD":11916,"edu":11917,"FGb":11918,"\",}}\"":11919,"Xetalsnart":11920,"(|":11921,"5454":11922,"-\\":11923,"Ġwoleb":11924,"Ġ;)]":11925,"Ġrahc":11926,"AHS":11927,"sporPgnidnep":11928,"Ġreven":11929,"doog":11930,"elet":11931,"à¸µ":11932,"Ca":11933,"/../..\"":11934,"epacsenu":11935,"å½ĵ":11936,"Ġgolaid":11937,"yQ":11938,"{%":11939,"serper":11940,"sailA":11941,"sporPcitats":11942,"csE":11943,"dnuoS":11944,"075":11945,"ircsed":11946,"vm":11947,"Ġlavretni":11948,"æº":11949,"dnam":11950,"itim":11951,"noitazirohtuA":11952,"iba":11953,"llab":11954,"stsixE":11955,"*\"+":11956,"ĠPITLOOT":11957,"rotalumucca":11958,"538":11959,"bmoC":11960,"...[":11961,"zn":11962,"ekovnI":11963,"noitcejorP":11964,"å°ı":11965,"ÐµÑĩ":11966,"lxmY":11967,"Ġutiay":11968,"977":11969,"WP":11970,"uT":11971,"nummoc":11972,"detseuqeR":11973,"cireneg":11974,"ebuc":11975,".]]":11976,".\":":11977,"els":11978,"Ġ\".":11979,"SSECCUS":11980,"launam":11981,"erocS":11982,"114":11983,"914":11984,"099":11985,"ulcxe":11986,"199":11987,"uneMtxetnoC":11988,"|'":11989,"áĥĶ":11990,"vk":11991,"Ġres":11992,"IRT":11993,"Ãª":11994,"Ġmarg":11995,"$__":11996,"uMXaoRHI":11997,"FFx":11998,"sporPotorp":11999,"ĠLLA":12000,"Ġstrap":12001,"cilati":12002,"elpmaS":12003,"Gaj":12004,"bpRH":12005,"Ġaggnihes":12006,"gaM":12007,"swen":12008,"à®ª":12009,"tnirP":12010,"GUBED":12011,"mottoBnigram":12012,"Ġreyalp":12013,"ĠoÃ£":12014,"243":12015,"erongI":12016,"jc":12017,"duts":12018,"caer":12019,"Ġytiliba":12020,"noinu":12021,"zL":12022,"Ġlenap":12023,"lid":12024,"Ġnoisicerp":12025,"WZs":12026,"Ġnoitc":12027,"Ġdeg":12028,"ĠretnE":12029,"pmaS":12030,"noitcesretni":12031,"MV":12032,"Ġsgnirts":12033,"AU":12034,"eivom":12035,"\\`":12036,"Ġhsup":12037,"zQ":12038,"BIRTNOC":12039,"ÂĦ":12040,"TNEMMOC":12041,"rtl":12042,"Ġá»":12043,"576":12044,"deddA":12045,"vah":12046,"526":12047,"tuoy":12048,"/)(":12049,"elbaretI":12050,"erauqS":12051,"demaN":12052,".][=":12053,"mac":12054,"Ġfub":12055,"mad":12056,"cpR":12057,"roM":12058,"ĠrrA":12059,"\",}]":12060,"rekcarT":12061,"TSEUQ":12062,"redoced":12063,"tseb":12064,"snoitinifed":12065,"Ġ'#'=":12066,"ycagel":12067,"semaNytreporPnwOteg":12068,"vo":12069,"dus":12070,"enimsa":12071,"SG":12072,"pmettA":12073,"ĠgnidaoL":12074,"redneg":12075,"ĠĠĠĠĠĠĠĠĠĠĠĠĊĠĠĠĠĠĠĠĠĠĠĠĠ":12076,"Ġih":12077,"kcabdeef":12078,"GXc":12079,"yrarbiL":12080,"/\\/\\:":12081,"ML":12082,",\"?":12083,"tnevEerif":12084,"ĠyalpsiD":12085,"HIgACIgACIg":12086,"Ġseic":12087,"artxE":12088,"gnas":12089,"Ġesiw":12090,"enibmoc":12091,",])}":12092,"yfil":12093,"inud":12094,"âĢĶ":12095,"esiar":12096,"scits":12097,"ä»¶æĸĩ":12098,"VH":12099,"204":12100,"WJ":12101,"yarrAmorf":12102,"Ġlaci":12103,"nomekop":12104,"setaD":12105,"poo":12106,"âĪ":12107,"kaw":12108,"dFL":12109,"Ġladom":12110,"ytiruceS":12111,"FT":12112,"263":12113,"kw":12114,",'}":12115,"Ġdnuorgkcab":12116,"Ġsata":12117,"pmaxE":12118,"repmem":12119,"kraD":12120,"Âĥ":12121,"615":12122,"tsew":12123,"ĠrellortnoC":12124,"(!&&":12125,"IXZ":12126,"cnoc":12127,"tnemngila":12128,"BT":12129,",])(":12130,"Ġum":12131,"sexa":12132,"äºĨ":12133,"Ġ36":12134,"ĠraB":12135,"à¸¥":12136,"EGASSEM":12137,"Ġrekcip":12138,"lps":12139,"srahC":12140,"ĠsthgiR":12141,"ercnI":12142,"776":12143,"<>\"\\":12144,")''":12145,"reniatnoCtrats":12146,"detaerC":12147,"xSU":12148,":)})":12149,"geb":12150,"Ġelos":12151,"dednetxe":12152,"363":12153,"FFF":12154,"dnEtes":12155,"worg":12156,"BSZoRHI":12157,"Ġecneuqes":12158,"Ġdirg":12159,"Ġpitloot":12160,"gACIgACIgACIgACIgACIux":12161,"FN":12162,"stolSdepocs":12163,"\";)":12164,"Ġtceffe":12165,"Ġniahc":12166,"143":12167,"276":12168,"retil":12169,"Ġvan":12170,"QC":12171,"jorp":12172,"KCEHC":12173,"aidepikiw":12174,"Ġ30":12175,"tcejbOot":12176,"WZsV":12177,"Ð¸Ð²":12178,"cP":12179,"Ġ;(":12180,"giF":12181,"à¸Ĺ":12182,"EUQBF":12183,"noituloser":12184,"tuctrohs":12185,"sag":12186,"bR":12187,"Ġeciton":12188,"_\":\"":12189,"nips":12190,"474":12191,"tta":12192,"8801":12193,"sle":12194,"UO":12195,"eerF":12196,"3118":12197,"åľ°":12198,"ä¸ªä¸Ģ":12199,"193":12200,"htaPelif":12201,"æ´":12202,"UY":12203,"hpargo":12204,"ĠpxE":12205,"Wdx":12206,"detum":12207,"bB":12208,"Ġgnitac":12209,"xednImorf":12210,"HTNOM":12211,"787":12212,"æģ¯":12213,"Ġsreldnah":12214,"nihtiw":12215,"390":12216,"snigram":12217,"dog":12218,"Ġlaic":12219,"pmuj":12220,"rotsecnA":12221,"daoLno":12222,"ruP":12223,"rotcaf":12224,"Ġgnol":12225,"Ã¨":12226,"FLiw":12227,"577":12228,"cC":12229,"elffu":12230,"cificeps":12231,"Ġ,\"(":12232,"suidaRredrob":12233,"naid":12234,"fiL":12235,"[:)":12236,"ĠEPYT":12237,"nimreteD":12238,"Hf":12239,"lrUetalpmet":12240,"çĶ¨ä½¿":12241,"narg":12242,"eziSegap":12243,"586":12244,"+.":12245,"333333":12246,"llehs":12247,"mN":12248,"We":12249,"Ã¢":12250,"nella":12251,"gnissecorp":12252,"ticilpmi":12253,"ÑĭÐ½":12254,"nirt":12255,"Ġlennahc":12256,"vv":12257,"tnemetats":12258,"=+]":12259,"hctaC":12260,"tcurtS":12261,"644":12262,"kh":12263,"lX":12264,"ĠĠĠĠĠĠĠĠĠĠĠĠĠĊ":12265,"ãģŁ":12266,"cO":12267,"Ġecils":12268,"nal":12269,"deredro":12270,"\\^/":12271,"------":12272,"/********************************":12273,"Ġretsiger":12274,"rifnoC":12275,"Ġnigra":12276,"tsohg":12277,"NEPO":12278,"itsi":12279,"UQJ":12280,"rdyH":12281,"traC":12282,"353":12283,"Ġpadahret":12284,"!:)":12285,";++]'":12286,"Ġsdnoces":12287,";)})(":12288,"niard":12289,"ORTNOC":12290,"terceS":12291,"Ġskcabllac":12292,"iverb":12293,"erutxif":12294,"rcS":12295,"DFu":12296,"eripxe":12297,"bQ":12298,"sts":12299,"pr":12300,"fires":12301,"\"[]\"":12302,"*!*/":12303,"ç¡":12304,"tnevEdda":12305,"ĠllorcS":12306,"Ġtol":12307,"{$'":12308,"{))]":12309,"edoNmod":12310,"etaDnim":12311,"eziStnoF":12312,"bmurc":12313,"Cu":12314,"skram":12315,"-\"=":12316,"Ġ=%":12317,"eruces":12318,"hcneb":12319,"ĠSSE":12320,"sru":12321,"elbbuB":12322,"roloCtnerruc":12323,"zI":12324,"XXXX":12325,"htiWsdne":12326,"deerg":12327,"esruoc":12328,"eruliaF":12329,"paT":12330,"nred":12331,"tigid":12332,"wsna":12333,"esne":12334,"tnenopmoCteg":12335,"retiawa":12336,"Ġgnitaerc":12337,"Ġnoitpecxe":12338,"cB":12339,"REZ":12340,"ataDmrof":12341,"srotu":12342,"Ġut":12343,"bvJ":12344,"tsegid":12345,"rotcurtsnoCelbissop":12346,"lliks":12347,"æł¼":12348,"à¸Ķ":12349,"é«":12350,"rednU":12351,"ĠÂ":12352,"Ġ88":12353,"Ġreifitnedi":12354,"elacoLot":12355,"\\;)'":12356,"tciD":12357,"_:\"":12358,"TJ":12359,"neercSlluF":12360,"gniziS":12361,"{$}":12362,"tsisreP":12363,"oAiZp":12364,"tey":12365,"{$.":12366,"(;)":12367,"WYj":12368,"NOTTUB":12369,"mal":12370,"erup":12371,"epyTtneve":12372,"lmthx":12373,"115":12374,"eralced":12375,"2440":12376,";)_":12377,"rotidekc":12378,"1202":12379,"QsM":12380,")`}":12381,"sD":12382,"./)":12383,"hn":12384,"sporPtxen":12385,"naelC":12386,"QgA":12387,"ruT":12388,"lar":12389,"LzV":12390,"XZyB":12391,"thgieHrenni":12392,"ĠevaS":12393,":))\"":12394,"dednepsu":12395,":?(^/=":12396,"noitcesretnI":12397,"jO":12398,"COL":12399,"à®©":12400,"dB":12401,"NAR":12402,"hK":12403,"egrahc":12404,"tiF":12405,"yeKtla":12406,";};":12407,"ĠrepparW":12408,"Ġegde":12409,",)(}}":12410,"è¿Ļ":12411,"Ġward":12412,"Ġgniti":12413,"ĉĠĠ":12414,"Ġdehcac":12415,"etadilaV":12416,"retem":12417,"Bteg":12418,"noitatnemucod":12419,"tnemniatnoc":12420,"Ġdees":12421,"({":12422,"485":12423,"ĠmrofsnarT":12424,"locotorP":12425,"ĠÙĮ":12426,"Ð¸ÑĢ":12427,"rotinom":12428,"Ġalup":12429,"Ġdeilppus":12430,"BibyVHdlJ":12431,",'%":12432,"htdiWrenni":12433,"slobmyStamroFrebmuN":12434,"bJ":12435,"Ġalages":12436,"gaid":12437,"***\\":12438,"éĸ":12439,"drah":12440,"Ġ45":12441,"Ġnataubrep":12442,"***!*/":12443,"detelpmoC":12444,">-":12445,"dexim":12446,"Ð¸Ðº":12447,"XV":12448,"Ġej":12449,"odnU":12450,"METI":12451,"144":12452,"Ġyficeps":12453,"Ġdesilaitini":12454,"Ġtnemnorivne":12455,"isyw":12456,"enimsaj":12457,"htaPnigeb":12458,"EGER":12459,"nro":12460,"MORF":12461,"ĠriD":12462,"057":12463,"tuOedaf":12464,"elpuT":12465,"+\"\"=":12466,"scihparG":12467,"à¸¢":12468,"ĠselbaTataD":12469,"esahP":12470,"drawkcab":12471,"noitagaporPetaidemmI":12472,"hI":12473,"Ġsnekot":12474,"éļ":12475,"rapmoC":12476,"Xelacs":12477,"7002":12478,"Ġgninraw":12479,"514":12480,"åıĤ":12481,"Ġnara":12482,"CY":12483,"åĮĸ":12484,"desserp":12485,"Ġtnemgarf":12486,"Ġepacse":12487,".)\"]":12488,"åıĸèİ·":12489,"akahs":12490,"tekcap":12491,"egnaRetaerc":12492,")][+][":12493,"Ġdneppa":12494,"yhcrare":12495,"Ġ]}":12496,"QBNEL":12497,"tesdleif":12498,"555":12499,"ressA":12500,"**\\":12501,"sreffub":12502,"perg":12503,"knirhs":12504,"Ġstib":12505,"gJ":12506,"Ġotorp":12507,"yhP":12508,"noitcaretnI":12509,"sworht":12510,"/../../..'":12511,"áĥĶáĥ":12512,"IRAV":12513,"pillE":12514,"è¥":12515,"egasU":12516,"||)]":12517,"regetnIot":12518,"Ø¶":12519,"æĹı":12520,".*":12521,"FSO":12522,"7694924":12523,"snf":12524,"Ġyortsed":12525,"TER":12526,"ĠÅ":12527,"**!*/":12528,"BCIgACIgACIgACIgACIgACIgACIgACIgACI":12529,"Ġdetaler":12530,"274":12531,"Ġtcejbus":12532,"Ġpmet":12533,"ĠmaertS":12534,"emaNytreporp":12535,"Ġnakra":12536,"leehW":12537,"ĠesolC":12538,"Ġmodnar":12539,"stel":12540,"snocI":12541,"bpRXY":12542,"setanidrooC":12543,"snruteR":12544,"ytilibitapmoc":12545,"sopmoc":12546,"FM":12547,"urb":12548,"elosnoC":12549,"yBteg":12550,"secivreS":12551,"Ð°Ñģ":12552,"nIsI":12553,"VQBNFL":12554,"cni":12555,"goj":12556,"ĉĉĉĉĉĉĉĉĉĉĉĉ":12557,"euh":12558,"ikimed":12559,"nagna":12560,"mileD":12561,"cerP":12562,"yrellag":12563,"çŁ":12564,"Ġbew":12565,"smaerts":12566,"erofeBno":12567,"565":12568,"0440":12569,"dauQ":12570,"tnemucoDerapmoc":12571,"cnySeliFdaer":12572,"nad":12573,"unemtxetnoc":12574,"áĦ":12575,"retirc":12576,"335":12577,"qE":12578,"------------------------":12579,"sixax":12580,"FWb":12581,"Ġdesrap":12582,"KDS":12583,"æ»":12584,"Ġeud":12585,"ĠemaNgat":12586,"Ġnoisses":12587,"icsa":12588,"airA":12589,"reporp":12590,"sporPoT":12591,"uorg":12592,"Ġgniredner":12593,"Ġdetacerped":12594,"sunim":12595,"Ġmooz":12596,"tnemecalper":12597,"rbba":12598,"{,}})(":12599,"yD":12600,"nruteRrotcurtsnoCelbissop":12601,"kB":12602,"åº¦":12603,"TROP":12604,"naS":12605,"gR":12606,"noitamrofnI":12607,"sknuhc":12608,"Ø¦":12609,"snrettap":12610,"Tn":12611,"è¨":12612,"Ġdevloser":12613,"ĠgalF":12614,":(":12615,"elbatatad":12616,"etisopmoC":12617,"xdm":12618,"YXF":12619,"cih":12620,"tnemhcatta":12621,"Ġemarfi":12622,"ĠODOT":12623,"pE":12624,"ssorC":12625,"Ġyromem":12626,"BAeA":12627,"Ġgnitrats":12628,"076":12629,"Ġerawtfos":12630,"xaJ":12631,"eniltuO":12632,"Ġ!//":12633,"ledoMteg":12634,"Ġ26":12635,"mM":12636,"egaPtnerruc":12637,"scirtem":12638,"yas":12639,"Ġretteg":12640,"Ġ,\")":12641,"406":12642,"ãĥĪ":12643,"ssenkci":12644,",})))":12645,"áħ":12646,"{\":":12647,"DV":12648,"semeht":12649,"Ġ':":12650,"ycnedneped":12651,"bG":12652,"TAMROF":12653,"283":12654,"Ġaera":12655,"eciffO":12656,"Ġtceted":12657,"EVITCA":12658,"Ġelur":12659,"WN":12660,"Ġhgih":12661,"æĪ·":12662,"sal":12663,"Ġevitagen":12664,"latrop":12665,"NED":12666,"seziS":12667,"AG":12668,"bF":12669,"Ġamaga":12670,"jP":12671,"ĠÑĤ":12672,"108":12673,"adbma":12674,"+\":\"":12675,"elam":12676,"daerb":12677,"sucoFno":12678,"Ġreppu":12679,"Ġrenwo":12680,"LIAF":12681,";}{)(":12682,"Ġmroftalp":12683,"+][+!":12684,"xI":12685,"Ġyrev":12686,"yBtros":12687,"yrC":12688,"Ġdedulcni":12689,"nozama":12690,"devireD":12691,"NRET":12692,"tnetnoCteg":12693,",'/":12694,"Ġnoisnetxe":12695,"Ġshtap":12696,"}++":12697,"udeR":12698,"ÙħØ§":12699,"[[(":12700,"ygol":12701,"AMI":12702,"Ġlecnac":12703,"teehSelytS":12704,"qYXF":12705,"Ġrtta":12706,"+'>":12707,"Ġsoi":12708,"Ġstsixe":12709,"334":12710,"pmatS":12711,"lles":12712,"gifnoCteg":12713,"lw":12714,"Ġradne":12715,"lagel":12716,"=?(":12717,"-,\"":12718,"Ġila":12719,"serut":12720,"ropmet":12721,"\\\\[":12722,"726":12723,"åĲ¦æĺ¯":12724,"ĠĠĠĠĠĠĠĠĠĠĠĠĠĠĠĠĠĠĠĠĠĠĊ":12725,"Ġsaf":12726,")])]":12727,"Ġnoitanitsed":12728,"OBV":12729,"Ġmetsys":12730,"}/*":12731,"orB":12732,"hRXY":12733,"delbasiDsi":12734,"itreV":12735,"ĠdniF":12736,"laev":12737,"eba":12738,"=====":12739,"{,'":12740,",}{,":12741,"nisa":12742,"DEM":12743,"tsaoT":12744,"sruoHteg":12745,"irb":12746,"erts":12747,"uz":12748,"gnitroS":12749,"Ġtcirts":12750,"^\"":12751,"Ġtnedi":12752,"iloP":12753,"etouqkcolb":12754,"KJ":12755,"eulaVdlo":12756,".\",\"":12757,"Ġipatet":12758,"buh":12759,"TIF":12760,"epyTfOeno":12761,"sedilS":12762,"Ġretuor":12763,"pQ":12764,"Ġetihw":12765,"KV":12766,"¨×":12767,"snas":12768,"Ġstnetnoc":12769,"detseN":12770,"çķ":12771,"8002":12772,"Ġevitim":12773,"NRA":12774,"ĠtuO":12775,"ylev":12776,"]\\[":12777,"detamina":12778,"\":\";":12779,"motA":12780,"namo":12781,"sgnippa":12782,"NOITCNUF":12783,"CAAC":12784,"016":12785,"Ġ,]}":12786,"WZy":12787,"noitatneserp":12788,"ĠesehT":12789,"\\\\:?(":12790,"\\>/":12791,"snoitacifiton":12792,"025":12793,";)]]":12794,"yev":12795,"153":12796,"vnoc":12797,"ĠfOepytotorP":12798,"Ġemag":12799,"[]\"":12800,"Ġnup":12801,"(=+":12802,"yaDteg":12803,"OBMYS":12804,"bW":12805,"LMTHrennI":12806,"GNISSIM":12807,"PX":12808,"ãģ¾":12809,"yar":12810,"etaDdne":12811,"RTTA":12812,"hE":12813,"mx":12814,"wKAsCA":12815,"å®ī":12816,"terpretni":12817,"irc":12818,"8340":12819,"845":12820,"girO":12821,"Ġmv":12822,"454":12823,"TNET":12824,"lj":12825,"=$":12826,"mk":12827,"ĠERAWTFOS":12828,"poTredrob":12829,"ĠRA":12830,"ytilibatuM":12831,"tceffEtxen":12832,"evitisop":12833,"978":12834,"NWY":12835,"ilfnoCon":12836,"ytisne":12837,"umes":12838,"goTZ":12839,"LIF":12840,"Ġdelipmoc":12841,"lwar":12842,"tnemhcattA":12843,"HIgACIgAibc":12844,"tuOesae":12845,"[:\"\\":12846,"evitcani":12847,"ELTIT":12848,"elg":12849,"åħ³":12850,"ĠnwoD":12851,"[:]":12852,"NF":12853,"tFm":12854,"Bu":12855,".)\"\",":12856,"efu":12857,"etaDxam":12858,"atnirep":12859,"ĠĠĠĠĠĠĠĠĠĠĠĠĠĠĠĠĠĠĠĠĠĠĠĠĠĠĠĠĠĠĠĠĠĠĠĠĠĠĠĠĠĠĠĠĠĠ":12860,"oder":12861,"/+]":12862,"detratS":12863,"nIc":12864,"CG":12865,"bV":12866,"htiWecalper":12867,"txeTtes":12868,"Ġuka":12869,"0101010101010101":12870,"%\"(":12871,"ydeerg":12872,"reC":12873,"Ġregnol":12874,"hM":12875,"tpO":12876,"ÑĥÐº":12877,"piR":12878,"reeP":12879,"sDI":12880,"derahS":12881,"ĠOT":12882,"otni":12883,"lanimret":12884,"olcd":12885,"Ġgnihton":12886,"etaminA":12887,"ê¸":12888,"DT":12889,"Ġom":12890,"564":12891,"etatSelbadaer":12892,"tnIdaer":12893,"ECAPS":12894,"oiduolcd":12895,"tsacdaorb":12896,"nerefeR":12897,"satad":12898,"TIB":12899,"Ġ16":12900,"077":12901,"sdroW":12902,"0808":12903,"ĠhtnoM":12904,",)])])\"":12905,"gL":12906,"depyt":12907,"kalem":12908,"Ġ=|":12909,"paMecruos":12910,"-&&":12911,"enozemit":12912,",};":12913,"ĉĉĉĉĉĊĊ":12914,"Ġdexif":12915,"{:\"\\":12916,"+\".\"(":12917,"714":12918,"Ġko":12919,"Ġetucexe":12920,"596":12921,"sridV":12922,"Ġ>/":12923,"Ġden":12924,"oTsedils":12925,"205":12926,"è®¤":12927,"ĠÃł":12928,"pB":12929,"PMA":12930,"EMA":12931,"ĠteseR":12932,"eltitbus":12933,"rulBno":12934,"Ġretnuoc":12935,">>>)":12936,"Ġseipoc":12937,"REHTO":12938,"ĠrotC":12939,"xSZ":12940,"seiradnuob":12941,"rotcepsnI":12942,"bI":12943,"aminA":12944,"éĢļ":12945,"loR":12946,"Ġetyb":12947,"ĠladoM":12948,"Ġ,\"+":12949,"354":12950,"å¹´":12951,"GER":12952,"HQ":12953,"segguS":12954,"retteS":12955,"nortcele":12956,"798":12957,"etanimreted":12958,"Ġhcuot":12959,"æıĲ":12960,"Ġ\"-":12961,"one":12962,"ĠdiordnA":12963,"ĠsedoN":12964,"ytilibatuMetats":12965,",)\"\"(":12966,"ised":12967,"ĠnerdlihC":12968,"neppah":12969,"tnemucoDteg":12970,"Ġgnidael":12971,"gnisaE":12972,"Ġdm":12973,"PV":12974,"'==":12975,"stigid":12976,"LMXsi":12977,"Ġyllautca":12978,"wodniWsi":12979,"Ġtpmetta":12980,"ĠÛĮ":12981,"æĢ§":12982,"ĠÙİÙĳ":12983,"Ð¸Ð´":12984,"898":12985,"vw":12986,"Yelacs":12987,"495":12988,"bS":12989,"gnidaoLsi":12990,"ĠnaC":12991,"guB":12992,"yG":12993,"derutpac":12994,"liaT":12995,"ï¼ī":12996,"ecnaveler":12997,"bmek":12998,"nemmoc":12999,"ĠseitreporP":13000,"847412":13001,"xepa":13002,"snoitacol":13003,"xelpmoC":13004,"Ġticil":13005,"CT":13006,"dCI":13007,"laicos":13008,"ï¼Ī":13009,"=^":13010,"dnuora":13011,"457":13012,"etil":13013,"Ġgniliart":13014,"DQ":13015,"DK":13016,"QFFUQ":13017,"ĠÅį":13018,";])(":13019,"Ġgnitne":13020,"eulaVcrs":13021,"latroP":13022,"/..\",":13023,"ĠETA":13024,"sexA":13025,"DIVORP":13026,"hcterts":13027,",)])\"--\"(":13028,"((=":13029,"\\,)":13030,"slav":13031,"sridVsridV":13032,"niag":13033,"Ua":13034,"tle":13035,"nuS":13036,"Ġgninruter":13037,"cen":13038,"466":13039,"noissu":13040,"eertsj":13041,"ĠenimreteD":13042,"YALP":13043,"FUQX":13044,"eporuE":13045,"ĠesraP":13046,"dnekcaB":13047,"Ġ,`}":13048,"/;":13049,"/\\<":13050,"vlGdw":13051,"Ġgnidne":13052,"hcnarB":13053,"dekcats":13054,"wsnA":13055,"thgirb":13056,"EAA":13057,"\"\\\"":13058,"edivid":13059,"llop":13060,"yllau":13061,"195":13062,"vp":13063,"ly":13064,"noitcejni":13065,"tooRteg":13066,"gnisraP":13067,"vU":13068,"ĠJ":13069,"à¸Ħ":13070,"SWA":13071,"åı·":13072,"esilliM":13073,"736":13074,"bK":13075,"ĠEMAN":13076,"Ġlanif":13077,"sporPmod":13078,"Ġhallu":13079,"^^^^^^^^":13080,"Ġsrebmun":13081,"VRES":13082,"ihc":13083,"NV":13084,"sIesab":13085,"bE":13086,".)''":13087,"nIs":13088,"ĠngilA":13089,"citsa":13090,"NS":13091,"ammoc":13092,"sJWY":13093,"SLt":13094,"nos":13095,"dorp":13096,"noitatneirO":13097,"Ġ'+":13098,"Xak":13099,"+\">":13100,"etavitcA":13101,"sredro":13102,"elbatirW":13103,"85091":13104,"sliaf":13105,"Ġaguj":13106,"163":13107,"ĠdellaC":13108,"Ġaynah":13109,"zpm":13110,"9876543":13111,"draobhsaD":13112,"tcev":13113,"napsloc":13114,"tya":13115,"Ġimak":13116,"tnemoM":13117,"epyTesnopser":13118,"ĠeuV":13119,"Dn":13120,"ĠamehcS":13121,"noitceleStes":13122,"gACIgACIgACIgACIgAibc":13123,"etaDsi":13124,"bP":13125,"dam":13126,"ralugnA":13127,"rettam":13128,"wn":13129,"Ġ67":13130,"Ġrotpircsed":13131,"yrotisoper":13132,"ĠhsaH":13133,"sbal":13134,"HJ":13135,"raen":13136,"åįĹ":13137,"loohc":13138,"494":13139,"DLOH":13140,"Ġdradnats":13141,"sreyalp":13142,"Xtesffo":13143,"ĠsddA":13144,"tekcuB":13145,"à¸§":13146,"ZyF":13147,";)][(":13148,"WYvx":13149,"biu":13150,"Ġnoitcasnart":13151,"yarrAdepyt":13152,"reldnaHtnevE":13153,"Ġksat":13154,"uZ":13155,"sesimorp":13156,"yLvA":13157,"snoissimrep":13158,"noloc":13159,"irid":13160,"è¿ĩ":13161,"Vxu":13162,"698":13163,"ytterp":13164,"Cc":13165,"Ġesaba":13166,"éħį":13167,"ulGI":13168,"VBF":13169,",\"\"||":13170,"DFUU":13171,"lz":13172,"xn":13173,"&]":13174,"ĠsgrA":13175,"Ġroivaheb":13176,"äºİ":13177,"*)(":13178,"Ġsresworb":13179,"ĠeulaVwen":13180,"105":13181,"Û¤":13182,"nimreT":13183,"Ġezilaitini":13184,"noitcirtser":13185,"suomynona":13186,"Ġretaerg":13187,"^/,":13188,"ĠelgnA":13189,"ecnaraeppa":13190,"spac":13191,"rebmuNot":13192,"scitylana":13193,"lT":13194,"isa":13195,"xU":13196,"regetnIsi":13197,"Ġlacitrev":13198,"klahc":13199,"[|]":13200,"AQ":13201,"dV":13202,"etadpUno":13203,"cot":13204,"wU":13205,"éĩı":13206,"éĤ":13207,".)))":13208,"tcirtsiD":13209,"ydaerla":13210,"Ġwas":13211,"stceffE":13212,"'[]'":13213,"timiled":13214,"ĠredneR":13215,"Ġsnottub":13216,"tceffa":13217,"esuoMeldnah":13218,"eulaVlaitini":13219,"{\"(":13220,"redivid":13221,"ecarb":13222,"detnu":13223,"teSylsuoregnad":13224,"OFNI":13225,"gnimoc":13226,"paG":13227,"eulaVnruter":13228,"ï¸ıâ":13229,"PG":13230,"YRO":13231,"TSEUQER":13232,"kcilCeldnah":13233,"ãĤ¹":13234,"gAAI":13235,"bbep":13236,"sopeR":13237,"feResu":13238,"htnoMfOyad":13239,"tnIUdaer":13240,"535":13241,"Ġliaf":13242,"gaporp":13243,"etelpmoCno":13244,"374":13245,"thgiRgniddap":13246,"VxuK":13247,"Ġtsop":13248,"gsHI":13249,"tellub":13250,"yU":13251,"dewollasid":13252,"dno":13253,"tovip":13254,"Fsi":13255,"gQWZ":13256,"ezinekot":13257,"JV":13258,"Ġ)_":13259,"ecmy":13260,"tupnIteg":13261,";)++":13262,"noitacovni":13263,"BFUW":13264,"lleps":13265,"deueuq":13266,"sgnidniB":13267,"äºĭ":13268,"Ytesffo":13269,";)}]":13270,"Ġxd":13271,"depmalC":13272,"dracdli":13273,"ĠypoC":13274,"nagrO":13275,"lanoitanretni":13276,"sgol":13277,"ybab":13278,"eviL":13279,"515":13280,"erutcip":13281,",)\"\\":13282,"Ġtressa":13283,"mhtirogla":13284,"omE":13285,"timbuSno":13286,"gnisolc":13287,"edac":13288,"\":\"â":13289,"emaNdleif":13290,"tnarg":13291,"ÍıÍıÍıÍı":13292,"_,})(":13293,"olpxe":13294,"Ġenoz":13295,"tnapic":13296,"etadidnac":13297,"Gdu":13298,"6200":13299,"eeyol":13300,"Ġytiv":13301,"irteR":13302,"irafaS":13303,"desserpmoc":13304,"etisbew":13305,"pordkcaB":13306,"hce":13307,"Ġselbairav":13308,",)}})(":13309,"Ġ*/(":13310,"ynab":13311,"Ġseit":13312,"Ġevael":13313,"174":13314,"sseL":13315,"065":13316,"sib":13317,"||__":13318,"ĠtnemucoD":13319,"kcolnu":13320,"ĠNO":13321,"ï¿½ï¿½ï¿½ï¿½ï¿½ï¿½ï¿½ï¿½ï¿½ï¿½ï¿½ï¿½ï¿½ï¿½ï¿½ï¿½ï¿½ï¿½ï¿½ï¿½ï¿½ï¿½ï¿½ï¿½ï¿½ï¿½ï¿½ï¿½ï¿½ï¿½ï¿½ï¿½":13322,"spil":13323,"ĠmottoB":13324,"Ġ50":13325,"Ġ86":13326,"eulaVjbo":13327,"rpa":13328,"ynam":13329,"ifitnedI":13330,"Ġbd":13331,"nuj":13332,"rerrefer":13333,"ellarap":13334,"seikooc":13335,"pM":13336,"ðŁĩ":13337,"408":13338,"etalupop":13339,"esret":13340,"ĉĊĉĊĉ":13341,"?*]":13342,"Ġetadilav":13343,"edocinU":13344,"Ea":13345,"Ġrotarapmoc":13346,"stod":13347,"onom":13348,"derongi":13349,"nsa":13350,"ffi":13351,"å§ĭ":13352,"æ®":13353,"Ġayni":13354,"/?":13355,"484":13356,"sesser":13357,"Ġworra":13358,"EVQBFFL":13359,"255":13360,"imes":13361,"OE":13362,"Pteg":13363,"srellortnoc":13364,"CELES":13365,"DULCNI":13366,"secafretni":13367,"nidrooc":13368,"Ġtnes":13369,"Ġtnihsj":13370,"Äĳ":13371,"#,":13372,"ĠesaC":13373,"erawelddim":13374,"etavitcaed":13375,"èģ":13376,"seireuQ":13377,"egra":13378,"NIFED":13379,"erged":13380,"Ġstset":13381,"Ġgnitacidni":13382,"rahS":13383,"fOxednI":13384,"ä¼ł":13385,"fus":13386,"tnuomnu":13387,"gx":13388,"Ġ38":13389,"tsoPelyts":13390,"hil":13391,"Ġled":13392,"Ġnamireb":13393,"ytitnauq":13394,"roloCllif":13395,"ãģ¦":13396,"607":13397,",\"\\\\\\":13398,"888":13399,"BAA":13400,"QAAE":13401,"ĠdraC":13402,"tops":13403,"290":13404,"seireuq":13405,"EURBF":13406,"redaoLtsoPelyts":13407,"(>":13408,"ksamtib":13409,"laitraP":13410,"elca":13411,"desop":13412,"Î¯":13413,"poTtesffo":13414,"xelpmoc":13415,"Ġslobmys":13416,"remusnoC":13417,"ebutuoy":13418,"sulP":13419,"015":13420,"184":13421,"dW":13422,"faeL":13423,"æīĢ":13424,"iojI":13425,"exe":13426,"ĠsevomeR":13427,"tseggus":13428,"lH":13429,"detseuqer":13430,"etiv":13431,"selbat":13432,"_{)":13433,"krowemarf":13434,"$$(":13435,"noitpOtes":13436,"Ã´":13437,"zb":13438,"éĴ":13439,"ĠÐ°Ð½":13440,"tcaxEesraP":13441,"elbasucof":13442,"ĠmuN":13443,"308":13444,"flaH":13445,"-[,,,,,,,,,":13446,"deviecer":13447,"DES":13448,"Ġgniniamer":13449,"ìĦ":13450,"stnatsnoCxm":13451,",_,":13452,"gnitu":13453,"weiVteg":13454,"VG":13455,"THGIL":13456,"(===\"":13457,"uv":13458,"rennipS":13459,"XYw":13460,"kuh":13461,"Ġodnapxe":13462,";)}{=":13463,"Ġorez":13464,"Ġlaer":13465,"iwiI":13466,"bur":13467,"{,}]\"":13468,"ĠĠĠĠĠĠĠĠĠĠĠĠĉĊ":13469,"ecmynit":13470,"sih":13471,"enola":13472,"names":13473,"Bn":13474,"slCxiferp":13475,"ĠdilaV":13476,"Kn":13477,"ecnah":13478,"rotinoM":13479,",))'":13480,"ĠRET":13481,"ĠwoN":13482,"445":13483,"ÙĪÙĬ":13484,"âķĲâķĲ":13485,"ĠretuoR":13486,"ncvBH":13487,"035":13488,"etadilavni":13489,"415":13490,"smetIngila":13491,"lD":13492,"$`":13493,"æŁ¥":13494,"224":13495,"ĠniM":13496,"gepj":13497,"XET":13498,"æĵ":13499,"etalumis":13500,"NOL":13501,"208":13502,"draoB":13503,"ETUBIRTTA":13504,"REGETNI":13505,"è±¡":13506,"Ġotno":13507,"åŃĲ":13508,"desolC":13509,"nohtyp":13510,"strahcxepa":13511,"eetaretIteg":13512,"tsurt":13513,"liuB":13514,"etaDtes":13515,"yv":13516,",\"'":13517,"Ġ,/$":13518,"4460":13519,"+))":13520,"ytilauq":13521,"ddu":13522,"\\*!********************************":13523,"DEC":13524,"depacse":13525,"Ġakit":13526,"roporP":13527,"\"\\\\\\,\"\\\\\\":13528,"cpr":13529,"ddoneve":13530,"HTDIW":13531,"ĉĉĉĠĠ":13532,"weiVataD":13533,"Ġtilps":13534,";/$":13535,"noitalsnarT":13536,"Ã¦":13537,"egnaro":13538,"ETL":13539,"dessecorp":13540,"Ġpmatsemit":13541,"173":13542,"ĠsucoF":13543,"ffats":13544,"pinam":13545,"Ġsetaerc":13546,"Ġsekat":13547,"parwnu":13548,"redoceD":13549,"ĠnoitaruD":13550,"enots":13551,"wm":13552,"878":13553,"repparWyzaL":13554,"claC":13555,"Ġretal":13556,"ĠdnammoC":13557,",)))\"":13558,"6002":13559,"\"[[,\"":13560,"fuB":13561,"fos":13562,"lY":13563,"ĉĉĉĉĊĉĉĉĉ":13564,"ecruoSataD":13565,"å·ŀ":13566,"RUP":13567,"wp":13568,"\\\"+":13569,"315":13570,"547":13571,"rezilaireS":13572,"tfeLgniddap":13573,"ĠetatSydaer":13574,"woh":13575,"sedom":13576,"éĩį":13577,"hsalF":13578,"à®µ":13579,"MzMz":13580,"avodroc":13581,"UQBJ":13582,"ltni":13583,"Ġnwodpord":13584,"thgu":13585,"264":13586,"åķ":13587,"{)--":13588,"semaNyad":13589,"Ġelor":13590,"citehtnyS":13591,"836":13592,"oreh":13593,"jh":13594,"aisA":13595,"Qnb":13596,"XT":13597,"cM":13598,"qS":13599,"deilppa":13600,"raluger":13601,"noitseuQ":13602,"scirteM":13603,"gG":13604,"kcon":13605,"leehwesuom":13606,"dF":13607,"padA":13608,"[[:\"":13609,"Ġdu":13610,">\";":13611,"éĥ¨":13612,"mai":13613,"sar":13614,"itrA":13615,"Ġ79":13616,"YDO":13617,"gm":13618,"retaw":13619,"Ġà¯į":13620,"à¤¬":13621,"tataD":13622,"dedocnelru":13623,"[\"[":13624,"noitisoPtnemucoDerapmoc":13625,"ygetarts":13626,"åĬŁ":13627,"feRdrawrof":13628,"Ġdengis":13629,"åħĥ":13630,",)})}":13631,"regap":13632,"bef":13633,"Ġ17":13634,"egatS":13635,"parwon":13636,"Ġsselnu":13637,"USER":13638,",})}})":13639,"KRO":13640,"serg":13641,"tnemtrap":13642,"Ġ,\"}":13643,"gnidi":13644,"cip":13645,"fn":13646,"VID":13647,"Ġdid":13648,"wlHd":13649,"eulaVytreporPteg":13650,"Äģ":13651,"ynok":13652,"iverbba":13653,"srebmuN":13654,"PUORG":13655,"Ġetulosba":13656,"mlGI":13657,"Ġnoitadilav":13658,"ãģ§":13659,"xxxx":13660,"qm":13661,"å»º":13662,"à¤Ĥ":13663,",})})(":13664,"WV":13665,"\">":13666,"REPO":13667,"eRsi":13668,"okc":13669,"hcnual":13670,">>//":13671,"__\"(":13672,"ĠahaM":13673,"fv":13674,"FER":13675,"Ġ'.'":13676,"flesti":13677,"elpoep":13678,"klat":13679,"Ġtik":13680,"emaNyB":13681,"Ġ89":13682,"kcu":13683,"Ġnwonknu":13684,"ECALP":13685,"ecafretnIyreuQj":13686,"dividni":13687,"936":13688,"lekil":13689,"420":13690,"ëĭ¤":13691,"_/.\"(":13692,"ĠthgiL":13693,"áŁĴ":13694,"toH":13695,"stxetnoc":13696,"ĠsI":13697,"gj":13698,"+\"'=":13699,"mZmZ":13700,"490":13701,"ĠtsaL":13702,"mreT":13703,"EIF":13704,"Ġdim":13705,"ĠlortnoC":13706,"PH":13707,"266":13708,"dednapxE":13709,"tiKbeW":13710,"ataDresu":13711,"XM":13712,"noitpOteg":13713,"evihcra":13714,"BAeAgHA":13715,"'[]":13716,"////////////////////////////////////////////////////////////////":13717,"Ġnah":13718,"Ġnasa":13719,"×ľ":13720,"poTgniddap":13721,"Ġaynhuggnu":13722,"Ġeerht":13723,";)}{(":13724,"wols":13725,"Ġpleh":13726,"eldi":13727,"FUQZ":13728,"Ġrotac":13729,"eed":13730,"à¤µ":13731,"ĠstluafeD":13732,"dezilaires":13733,"!,))":13734,"detcennoC":13735,"$\",\")}":13736,"ecnis":13737,"ç½®è®¾":13738,"Ġseni":13739,"noitas":13740,"Ġ80":13741,"iwFK":13742,"oil":13743,"wd":13744,"ecnatsnIteg":13745,"sretrevnoc":13746,"ĠsserddA":13747,"Ġtak":13748,"ytidi":13749,"tsaLteg":13750,"FG":13751,"Ġfedfi":13752,"ehS":13753,"Ġsemarfyek":13754,"930":13755,"nwodkraM":13756,"ĠssergorP":13757,"dekram":13758,"RHXux":13759,"\\?]":13760,"YPOC":13761,"cek":13762,",)]}})":13763,"154":13764,"Ġhalai":13765,"ylluf":13766,"456":13767,"Ġ;}{":13768,"XK":13769,"egasseMrorre":13770,"epyTtnevE":13771,"epytc":13772,"rehctaM":13773,"ĠbaT":13774,"yarrAekam":13775,";}}}":13776,"Ñī":13777,"noisrevnoc":13778,"asa":13779,"ĠlmtH":13780,"616":13781,"cep":13782,".)}\"":13783,"455":13784,"kum":13785,"ODFUQDxyQBF":13786,"syarrA":13787,"945":13788,"UQBtjQ":13789,"ĠdegnahC":13790,"ĠrotidE":13791,"mT":13792,"nIteg":13793,"RAB":13794,"wC":13795,"enilno":13796,"esraPlanidrO":13797,"gd":13798,"retrauq":13799,"nerruc":13800,"paeh":13801,"muc":13802,"etinifni":13803,"Ġseires":13804,"HTEM":13805,"reward":13806,"cireneG":13807,"Ġbus":13808,"ferp":13809,"erced":13810,"àµį":13811,"Ġahpla":13812,"weR":13813,"Ġyrotsih":13814,"Ġhctapsid":13815,"redts":13816,"oleV":13817,"teserp":13818,"-::":13819,"Ġen":13820,"Ġ;\".":13821,"ĠÙį":13822,"elttorht":13823,"daR":13824,"ylf":13825,"Ġor":13826,"Ġerp":13827,"Ġtide":13828,"ĉĉĉĉĉĉĉĉĉĊ":13829,"GXsICX":13830,"retsaM":13831,"ĠĠĠĠĠĠĠĠĠĠĠĠĠĠĠĠĠĠĠĠĊĊ":13832,"QV":13833,"XS":13834,"Ġ0001":13835,"rihka":13836,"rebid":13837,"Ġwolf":13838,"lleCteg":13839,"KP":13840,"ĠxegeR":13841,"Ġelosnoc":13842,"snommoc":13843,"Ġdere":13844,"ĠÙĵ":13845,"stupnI":13846,"Ġnaig":13847,"055":13848,"yhpargopyT":13849,":&":13850,"tnemngilA":13851,"je":13852,"rtsi":13853,"ĠedoCsutats":13854,"hctarcS":13855,"åŀĭ":13856,"Ġtsi":13857,"Ġerutcurts":13858,"âĤĴ":13859,"Ġ,')(":13860,"etic":13861,"etaidemmItes":13862,"zal":13863,"emaNtnenopmoc":13864,"RID":13865,"Ġatres":13866,"0008":13867,"Ġyca":13868,"ãĤ¤":13869,"noisiver":13870,"1000":13871,"RR":13872,"Ġnalaj":13873,"raluceps":13874,"<':":13875,"ĠsuidaR":13876,"NL":13877,"dT":13878,"mdf":13879,"Ġ\"/":13880,"Ġselur":13881,"tijid":13882,";>":13883,"tsisnoc":13884,"åŁİ":13885,"ratavA":13886,"denifeDsi":13887,"Ġsetadpu":13888,"åģ":13889,"tneserP":13890,"_\",\"":13891,"hctaMot":13892,"ILC":13893,"{)}":13894,"ĠelbisiV":13895,"Ġ0000":13896,"Ġeziser":13897,"LLUN":13898,"Ġdeviecer":13899,"vb":13900,"({=":13901,"(\"":13902,"srebmeM":13903,"srotpircseDytreporPnwOteg":13904,"\",\"}":13905,"106":13906,"è¿Ķ":13907,"sdnammoC":13908,"tnecer":13909,"RHd":13910,"evreser":13911,"wAC":13912,"srotubirtnoc":13913,"vr":13914,"moeg":13915,".\"=":13916,"xQ":13917,"OBVUQBtz":13918,"435":13919,",)()":13920,"Ġrohcna":13921,"atakreb":13922,"wY":13923,"Ġeroc":13924,"RETI":13925,"Ø¹Ø§":13926,"×Ĳ":13927,"nodda":13928,"Ġ60":13929,"lrUesab":13930,"ĠrotcurtsnoC":13931,"Ġyfit":13932,"erutlu":13933,"GdjV":13934,"ĠkooH":13935,"244":13936,"ycu":13937,"yadkeew":13938,"Xc":13939,"tnemngissA":13940,"ruf":13941,"\"\\[__":13942,"tnetnoCyfitsuj":13943,"è¾ĵ":13944,"ggarD":13945,"/..!":13946,"etatSpam":13947,"gad":13948,"Ġ\"\\.":13949,"Ġderots":13950,"Ġlanretxe":13951,"GE":13952,"laicepS":13953,"Ġnakha":13954,"xSV":13955,"!!:":13956,"ima":13957,"Ġtcudorp":13958,"_-":13959,"telfael":13960,"Ġceps":13961,"BCdy":13962,"496":13963,"RFUQR":13964,"657":13965,"gof":13966,"ÑĢÐ±":13967,"XN":13968,"jQ":13969,"pl":13970,"176":13971,"Ġyrassecen":13972,"\"=\"(":13973,"Ġelcric":13974,"ĠsA":13975,"ĠemoS":13976,"dexednI":13977,"ĠtidE":13978,"Ġsedulcni":13979,"AAAE":13980,"Ġgniyra":13981,"00000000000000000000000000000000":13982,"YhB":13983,"Ġsrota":13984,"hctarcs":13985,"DOHTEM":13986,"\\\\\",":13987,"165":13988,"BAB":13989,"ĠĊĊ":13990,"sgninraw":13991,"neewteB":13992,"opeR":13993,"hcs":13994,"èĭ":13995,"096":13996,"cE":13997,"Ġiru":13998,"REDRO":13999,"stseT":14000,"rabvaN":14001,"goCIux":14002,"PMET":14003,"(-)":14004,"ĠrepleH":14005,"emarfI":14006,"åħ¨":14007,"dettimE":14008,"aot":14009,"507":14010,"skcarT":14011,"284":14012,"ĠelggoT":14013,"LT":14014,"eveirter":14015,"evaw":14016,"tniH":14017,"elbayap":14018,"206":14019,"ecapsetihW":14020,"386":14021,"pV":14022,"809":14023,"xk":14024,"mcm":14025,"esraPlanidrOhtnoMfOyad":14026,"snoitces":14027,"ralacs":14028,"ics":14029,"è·¯":14030,"Ġnoitator":14031,"Ġsecnerefer":14032,"ruof":14033,"tyacs":14034,"((&&":14035,"niv":14036,"JHc":14037,"gniward":14038,"esar":14039,"ãģ¯":14040,"frep":14041,"dethgilhgih":14042,"uoY":14043,"OSIot":14044,"ronim":14045,"dlu":14046,"yarrabus":14047,"dneirf":14048,"\":\"_":14049,"sota":14050,"itnes":14051,"(]`":14052,"Ġtnairav":14053,"REPORP":14054,"kcots":14055,"ä½į":14056,"BSf":14057,"latnoziroHsi":14058,"EVITA":14059,"enobkcaB":14060,"{\":\"":14061,"hGd":14062,",)\"%":14063,"slaitnederChtiw":14064,"noitacerp":14065,"bL":14066,"unembus":14067,"golaiDiu":14068,"LMTHrennIteSylsuoregnad":14069,"yticoleV":14070,"çĽ®":14071,"{$-":14072,"757":14073,"rexe":14074,"xednIatad":14075,"xWd":14076,"\\#":14077,"[,)":14078,"Ġ40":14079,"^|":14080,"eueuqed":14081,"snoitisnart":14082,"(+)\"":14083,"smrofsnart":14084,"Ġoda":14085,"Ġaliba":14086,"gnitidE":14087,"Ġtols":14088,"Äĥ":14089,"825":14090,"ìļ":14091,"snoitinifeD":14092,"srekraM":14093,"TNETNOC":14094,"jB":14095,"ecorp":14096,"Gbh":14097,"bT":14098,"simorP":14099,"ĠÐ½":14100,"ĠÐ²":14101,"desU":14102,"TUBIRTNOC":14103,"_()":14104,"htuAO":14105,"eldnuB":14106,";)()":14107,"çĬ":14108,"elbatum":14109,"Ġraluger":14110,"sTQDFUQ":14111,"laniF":14112,"ĠÙĨ":14113,"$!(":14114,"Ġredaol":14115,"636":14116,"etatoR":14117,"xSf":14118,"åĲĪ":14119,"ĠirafaS":14120,"cI":14121,"SH":14122,"egnella":14123,"rAwKAsCA":14124,"Ð¸Ð¼":14125,"Ã±":14126,"htlaeh":14127,"hategnem":14128,"ota":14129,"laitnederc":14130,"fOyaD":14131,"Ġ`)(":14132,"Ġredrob":14133,"SEI":14134,"Ġgnal":14135,"Ġtnu":14136,"wD":14137,"rotisiv":14138,"ĠoitaR":14139,"tnemirepxe":14140,"QBVEL":14141,"dedeec":14142,"Ġ29":14143,"tegraTtnevE":14144,"Ġuak":14145,"ĠpU":14146,"Ð¾Ð´":14147,"Ġanami":14148,"TNO":14149,"+\",\"+":14150,"Ġdl":14151,"\\*]":14152,"eppA":14153,"ĠsretemaraP":14154,"\"+\"":14155,"ĠdetceleS":14156,"026":14157,"ÂłÂłÂłÂłÂłÂłÂłÂł":14158,"%`":14159,"730":14160,"rossecorP":14161,"SEMAN":14162,"cR":14163,"VY":14164,"llib":14165,"kcah":14166,"TCEJBO":14167,"Ġcnys":14168,"hD":14169,"\":\")":14170,"_\"{,\"":14171,"ycnednepeDdda":14172,"ĠemorhC":14173,"ç¦":14174,"~~~~":14175,"ĠlatoT":14176,"lGI":14177,"426":14178,"725":14179,"oTtrevnoc":14180,"tcejbOytpmEsi":14181,"Ġlaitne":14182,"xednIwor":14183,"Ġseirtne":14184,".\",":14185,"WZyB":14186,"Ġ68":14187,"Ġsemoc":14188,"ĠpetS":14189,"Ò¯":14190,"tnemelEmod":14191,"vresbo":14192,"ĠcilbuP":14193,"rexel":14194,"987":14195,"xoferiF":14196,"486":14197,"pyrC":14198,"BNUQBtT":14199,";)\")":14200,";)\"\",":14201,"758":14202,"xR":14203,"tratSenil":14204,"dpu":14205,"iicsa":14206,"446":14207,"sO":14208,"fl":14209,"skooHporp":14210,"noitaler":14211,"Ġkcabllaf":14212,"Ġkool":14213,"VQBVFL":14214,"Ee":14215,"etacnurt":14216,"Ġlatnoziroh":14217,"dir":14218,"pirtS":14219,"nahc":14220,"tnuomnUlliWtnenopmoc":14221,"925":14222,"noitcurtsnI":14223,"ÙıÙĳ":14224,"gniziSxob":14225,"817":14226,"ron":14227,"hH":14228,"lacino":14229,"}})]":14230,"ĠSRO":14231,"stniartsnoc":14232,"evieceRlliWtnenopmoc":14233,"elbatroS":14234,"emiM":14235,"deW":14236,"æŀľå¦Ĥ":14237,"Ġeve":14238,"mrofreP":14239,"ĠELBA":14240,"Ġseh":14241,"!(!":14242,"'\"(":14243,"fz":14244,"ĠxoferiF":14245,"hcam":14246,"à®Ł":14247,"Ġ59":14248,"463847412":14249,"puorgtpo":14250,"sipaelgoog":14251,"å¤ļ":14252,"æŃ£":14253,"+\"\"(":14254,"NnbvN":14255,"mubla":14256,"ĠBD":14257,"crep":14258,"ldWY":14259,"Ġten":14260,"364":14261,"gnikcart":14262,"TCART":14263,"tsr":14264,"RUOS":14265,"gnitceles":14266,"Bm":14267,"cits":14268,"ĠsseccuS":14269,"Ġnoitidnoc":14270,"pD":14271,"Ġarac":14272,"ĠlabolG":14273,"secne":14274,"TFUQT":14275,"egnahcetatsydaerno":14276,"olu":14277,"fOtrats":14278,"semaNnoitartsigeR":14279,"llatsnI":14280,"QsUUQBVEL":14281,"lenrek":14282,"ĠdluoC":14283,"bZ":14284,"erugiF":14285,"æĽ´":14286,"sW":14287,"llamS":14288,"ropeR":14289,"356":14290,"tiH":14291,"5252":14292,"htrib":14293,"noitisoPteg":14294,"Ġerutpac":14295,"detouq":14296,"egasseMdnes":14297,"385":14298,"sfeD":14299,"GbiF":14300,"dy":14301,"tsilyalp":14302,"Ġstseuqer":14303,"remmoc":14304,"Ð¶":14305,"leva":14306,"noitalopretni":14307,"Wah":14308,"ĠGALF":14309,"Ġsruoh":14310,"à¦¾":14311,"JK":14312,"Ġud":14313,"cinoi":14314,"Xdw":14315,"skcart":14316,"teehselyts":14317,"uy":14318,"ebuC":14319,"taB":14320,"REVO":14321,"+\"^\"(":14322,"ponml":14323,"MD":14324,"sriaP":14325,"å½ķ":14326,"gT":14327,",/]":14328,"yeKno":14329,"Ġ28":14330,"IMIL":14331,"745":14332,"Ġseil":14333,"Ġ000":14334,"YBF":14335,"eeN":14336,"caj":14337,"nekoTteg":14338,"DFUS":14339,"etnara":14340,"ĠON":14341,"oTnetsil":14342,",/$)":14343,"tnuoMlliWtnenopmoc":14344,";\"(":14345,"serutxif":14346,"dner":14347,",)][=":14348,"çīĩ":14349,"setoN":14350,"æķ°åıĤ":14351,"otohP":14352,"tnerruCtes":14353,"Ġelb":14354,"ĠresworB":14355,"NRAW":14356,"sP":14357,"zU":14358,"NOITARU":14359,"gniyalp":14360,"part":14361,"Sf":14362,"naw":14363,"788":14364,"Ġ49":14365,"reves":14366,"Ġarema":14367,"476":14368,"esuaP":14369,"ated":14370,"tigiD":14371,"liaM":14372,"nolybab":14373,"emaNtsrif":14374,"resUtnerruc":14375,"à¸´":14376,"ekirts":14377,"yrotnevni":14378,"epiwS":14379,"å·²":14380,"clR":14381,"ìĿ´":14382,"ytila":14383,"revart":14384,"Ġ726":14385,"&$":14386,"ĠyficepS":14387,"å¢":14388,"hSZ":14389,"wolloF":14390,"tesffOtrats":14391,"etsaP":14392,"ĠsixA":14393,"roloCekorts":14394,"swodniW":14395,"277":14396,"Ġnettirw":14397,"desahp":14398,"NUR":14399,"Ġyli":14400,"\\[/(":14401,"evitisoP":14402,"pfm":14403,"esoohc":14404,"gK":14405,"eeb":14406,"YH":14407,"5002":14408,"236":14409,"ekiLtcejbOsi":14410,"regni":14411,"sC":14412,"weiver":14413,"Ġtcepxe":14414,"EGAMI":14415,"DSB":14416,"\"\\{:\"\\":14417,"ecm":14418,"ABGR":14419,"Ġemanelif":14420,"spetS":14421,"lFL":14422,"åĬ¡":14423,"zzalC":14424,"TROHS":14425,"èĬĤ":14426,"ĠlanoitpO":14427,"ĠpxEgeR":14428,"ÐĴ":14429,"+\"-\"+":14430,"Ġelbuod":14431,"noitaralced":14432,"xSUBFUU":14433,"gnissecorP":14434,"ylpeR":14435,"semaNhtnom":14436,"NIFNI":14437,"Õ¡":14438,"ç³":14439,"Ġnrut":14440,"potksed":14441,"797":14442,"!\"":14443,"DLEIF":14444,"drocca":14445,"ĠTUO":14446,"HCT":14447,"htron":14448,"Ġpupop":14449,"detaminA":14450,"à¥Ģ":14451,"yeKteg":14452,"550":14453,"ulavE":14454,"jR":14455,"ĠnoitacoL":14456,"ĠswodniW":14457,"///:":14458,"Ġsetac":14459,"oow":14460,"WORRA":14461,"Ġepahs":14462,"TNUOC":14463,"ĠsredaeH":14464,"å®¹":14465,"TQ":14466,"gnoM":14467,"kramkooB":14468,"CILC":14469,"dellifluf":14470,"sL":14471,"--'":14472,"xibew":14473,"samehcs":14474,"ĠÃ¡":14475,"rosnes":14476,"eerg":14477,"ĀĀĀĀĀĀĀĀĀĀĀĀĀĀĀĀĀĀĀĀĀĀĀĀĀĀĀĀĀĀĀĀĀĀĀĀĀĀĀĀĀĀĀĀĀĀĀĀĀĀĀĀĀĀĀĀĀĀĀĀĀĀĀĀĀĀĀĀĀĀĀĀĀĀĀĀĀĀĀĀĀĀĀĀĀĀĀĀĀĀĀĀĀĀĀĀĀĀĀĀĀĀĀĀĀĀĀĀĀĀĀĀĀĀĀĀĀĀĀĀĀĀĀĀĀĀĀĀ":14478,"sixay":14479,"ymmud":14480,"XD":14481,"ulf":14482,"Gdz":14483,"elppiR":14484,"emaNetubirtta":14485,"gIXZ":14486,"|))":14487,"ĠakaM":14488,"silbup":14489,"à¦°":14490,"sepahs":14491,"olpxE":14492,"eruza":14493,"ãĤ¯":14494,"ĠĠĠĠĠĠĠĠĠĠĠĠĠĠĠĠĠĠĠĠĠĠĠĠĠĠĠĠĠĠĠĠĠĠĠĠĠĠĠĠĊ":14495,"htgneLteg":14496,"306":14497,"164":14498,"mottoBredrob":14499,"æĦ":14500,"Ġshtnom":14501,"CEPS":14502,"dirgatad":14503,"tseG":14504,"dneppA":14505,"è±¡å¯¹":14506,"secapseman":14507,"ZuV":14508,"ioJ":14509,"Ġ18":14510,"EFu":14511,"UL":14512,"nJXY":14513,"puc":14514,"etatSelbatirw":14515,"ĠnuR":14516,"éľĢ":14517,"mrts":14518,"Ġresrap":14519,"uqerf":14520,"ĠtxeN":14521,"ä¸ľ":14522,"Ġqer":14523,"aga":14524,"625":14525,"nwodraet":14526,"\"(\"(":14527,"ĠĠĠĠĠĠĠĠĠĠĠĠĠĠĠĠĠĠĠĠĠĠĠĠĠĠĠĠĠĠĠĠĠĠĠĠĠĠĠĠĠĠĠĠĠĠĠĠĠĠĠĠĠĠĠĠĠĠĠĠ":14528,"Ð¾Ñģ":14529,"liferP":14530,"ĠĠĠĠĊĠĠ":14531,"YM":14532,")]]":14533,"etouQ":14534,"0006":14535,"devomeR":14536,"ESUOM":14537,"ØªØ§":14538,"FJ":14539,"ism":14540,"llaw":14541,"hcac":14542,"REN":14543,"XOB":14544,"yrT":14545,"ĠylppA":14546,"Ġlufesu":14547,"nirp":14548,"niartsnoC":14549,"Ch":14550,"uoS":14551,"Ġ,$":14552,"(})\"":14553,"tnenopmoCtcaeR":14554,"ĠadaP":14555,"Ġ'-'":14556,"116":14557,"etirova":14558,"346":14559,"NR":14560,"æľĢ":14561,"elgnairT":14562,"Ġtpecca":14563,"sevom":14564,"dekniL":14565,"ews":14566,"Ġtuc":14567,",})}}":14568,"Ġ70":14569,"CTR":14570,"revlos":14571,"ycnaf":14572,"Ġssen":14573,"Ġbaza":14574,"snoitatum":14575,"Ġdaolno":14576,"ĠezilaitinI":14577,"ĠdneS":14578,"Ġxa":14579,"Ġretniop":14580,"ica":14581,"ĠenO":14582,"tluav":14583,"rebircsbuS":14584,"eziSteg":14585,"Ġelbatirw":14586,"Ġhadus":14587,"ÑĥÐ½":14588,"815":14589,"Ġtime":14590,"laidar":14591,"254":14592,"vNGI":14593,"tnIUetirw":14594,"Ġdemrof":14595,"etaG":14596,"dettamroF":14597,"/<>/\"":14598,"nuob":14599,"ĠKCAPBEW":14600,"EO":14601,"tsefinaM":14602,"noitazirohtua":14603,"880176":14604,"renroC":14605,"dlog":14606,"715":14607,"regne":14608,"erbmon":14609,"tsartnoc":14610,"xaJhtaM":14611,"MAD":14612,"Ġkusam":14613,"Ġkrowten":14614,"tsera":14615,"reka":14616,"ĠrahC":14617,"ofnIreniatnoc":14618,"knilnu":14619,"cJ":14620,"Ġtcejni":14621,"htgneLxam":14622,":?()":14623,"PUD":14624,"01102":14625,"rorrEeldnah":14626,"evitcAteg":14627,"Qy":14628,"Ġgniog":14629,"Ġgnatnet":14630,"pudih":14631,"JNI":14632,"xyUBF":14633,"deniltuo":14634,"xof":14635,"Ġtsixe":14636,"bpjI":14637,"Ġtimbus":14638,"lluP":14639,"965":14640,"._,":14641,"Ġlairetam":14642,"tnevEetaerc":14643,"EJ":14644,"Eh":14645,"treb":14646,"far":14647,"WM":14648,"tsecna":14649,"íķĺ":14650,"nool":14651,"Ġ87":14652,"Ġ47":14653,"åħ¶":14654,"IXIP":14655,"rOlluNsi":14656,"rotS":14657,"Ġ,'>":14658,"sroc":14659,"384":14660,"Ġtnirp":14661,"')":14662,"ycq":14663,"gnitros":14664,"noitucexe":14665,"--[":14666,"Ġhtua":14667,"Ġeton":14668,"Ġstinu":14669,"emaNnoitartsiger":14670,"sloC":14671,"/\",\"":14672,"307":14673,"Ġami":14674,"trah":14675,"dk":14676,"tluafeDrO":14677,"rezilamroN":14678,"semarF":14679,"zpmL":14680,"407":14681,"tcapmoC":14682,"emaSsi":14683,"skooHeueuq":14684,"irse":14685,"Ġgnitneserper":14686,"skc":14687,"PR":14688,"âĢĭâĢĭâĢĭâĢĭ":14689,"GRA":14690,"erugif":14691,"noitucexE":14692,"UUQBVEL":14693,"èĻ":14694,")))\"":14695,"nwaps":14696,"pale":14697,"selbbep":14698,"éĵ":14699,"dekcolb":14700,"â´°":14701,"ylkcolb":14702,"\\)}":14703,"idm":14704,"qeR":14705,"etirwrevo":14706,"áŀ¶":14707,"ILPMI":14708,"FFFFFFFF":14709,"rotcennoc":14710,"itS":14711,"Ġegarots":14712,"æ²»":14713,"noitisoPtes":14714,"Ġdetrevnoc":14715,"rekcehC":14716,"NRETNI":14717,"cevt":14718,"275":14719,"<\",":14720,"qinu":14721,"rotpecretnI":14722,"GF":14723,"ytrap":14724,"xD":14725,"slexiP":14726,"llik":14727,"gnitiaw":14728,"ĠraelC":14729,"aynu":14730,"snoitatonna":14731,"?%:":14732,"DAR":14733,"ELBAIRAV":14734,"Ġtneserp":14735,"tsae":14736,"417":14737,"senal":14738,"Gbu":14739,"ĠTHGIR":14740,"\\;\"\\":14741,"(&&\"":14742,"à¤²":14743,"ETAERC":14744,"ĠhcaE":14745,"norv":14746,"789":14747,"zW":14748,"ĠksaT":14749,"=&":14750,"eff":14751,"ĠnoisserpxE":14752,"\":]":14753,"tsixE":14754,"ogoL":14755,"&)":14756,"=_,)":14757,"snoisserpxe":14758,"394":14759,"Ġ+'":14760,"eciov":14761,"ĠMORF":14762,"retadpu":14763,"sS":14764,"ĠkcatS":14765,"ataDelacol":14766,"ĠĠĠĠĠĠĠĠĠĠĠĠĠĠĠĠĠĠĠĠĠĠĠĠĠĠĠĠĠĠĠĠĠĠĠĠĠĠĠ":14767,"yVGc":14768,"\\\\\"(":14769,"æ±Ĥ":14770,"åĽŀè¿Ķ":14771,"srotadilav":14772,"Xu":14773,"ĠGVS":14774,"UNEM":14775,"Ġnra":14776,"mroN":14777,"869":14778,"snoitpOtes":14779,"fis":14780,"silloC":14781,"tsiH":14782,"366":14783,"475":14784,"317":14785,"355":14786,"(^/":14787,"YZ":14788,"xq":14789,"Ġdereggirt":14790,"Ġsezi":14791,"166":14792,"GblN":14793,"rpA":14794,"nbh":14795,"Â°":14796,"<>/\"":14797,"ĠnaelooB":14798,"edistuo":14799,"kin":14800,"elput":14801,"UQBtD":14802,"reK":14803,"CIg":14804,"Ġoof":14805,"477":14806,"nav":14807,"ä»£":14808,"sredloh":14809,"Ġtnemecalp":14810,"Xteg":14811,"ĠelbanU":14812,"semaNnoitartsigeRdesahp":14813,"dnetxE":14814,"etadpUdiDtnenopmoc":14815,"ky":14816,":\"&":14817,"BFUY":14818,"285":14819,"ĉĉĠĠĠĠ":14820,"orca":14821,")\"(":14822,"294":14823,"Ġ58":14824,"dmbp":14825,"noitceteD":14826,"Ġ`}":14827,"097":14828,"DFkQ":14829,"×ĳ":14830,"xSK":14831,"235":14832,"Ġsnoitidnoc":14833,"Ġtsac":14834,"å®ŀ":14835,"Ġyrarbil":14836,"ĠØ¯":14837,"XlR":14838,"dnenoitisnart":14839,"esreveR":14840,"OPRUP":14841,"æģ¯ä¿¡":14842,"etnaraug":14843,"cN":14844,"gnillorcS":14845,"tceffEtsrif":14846,"lacis":14847,"elffuhs":14848,"!'":14849,"seT":14850,"åĩ½":14851,"################":14852,"YK":14853,"ĠsdI":14854,"etacerpeD":14855,"ggot":14856,"tesffOYegap":14857,"gnos":14858,"yce":14859,"eka":14860,",}})}":14861,"ÑĬ":14862,"hguorhT":14863,"egnaRteg":14864,"Ð¡":14865,"Ġab":14866,"emoS":14867,"\\;))":14868,"\":\"\"?":14869,"Ġkana":14870,"SSA":14871,"ĠecniS":14872,",][(":14873,"fR":14874,"ĠtinI":14875,"Ġtxt":14876,"VGZv":14877,"äºĮ":14878,"ĠssalCrepus":14879,"WazJXZ":14880,"BiIc":14881,"nehp":14882,"tnevEmotsuC":14883,"à¸ª":14884,"\",,[,":14885,".)\"\"||":14886,"sdnocesilliM":14887,"ynit":14888,"edart":14889,"ĠdaeR":14890,"tnemelEtnerruc":14891,"tnerruCtcaeR":14892,"395":14893,"è¥¿":14894,"6904":14895,"175":14896,"rehctaw":14897,"Ġsetunim":14898,"fw":14899,"Ġii":14900,"rehpic":14901,"sispil":14902,"086":14903,"neerG":14904,"etatSrepparw":14905,"ç¼ĸ":14906,"Ġnakirebmem":14907,"HdcRHX":14908,"fV":14909,"^[:?(":14910,"rss":14911,"xV":14912,"Ġsecnatsni":14913,"zp":14914,"tuosucof":14915,"noitacitnehtuA":14916,"vRHI":14917,"Ġsretlif":14918,"htaPteg":14919,"ediw":14920,"ORD":14921,"ycageL":14922,"Ġ37":14923,"NRU":14924,"cF":14925,"465":14926,"$'[":14927,"Ġ,':":14928,"Ġyalp":14929,"ecafruS":14930,"YAA":14931,"cif":14932,"__/*__":14933,"AAAQ":14934,"Xag":14935,"WZtVGb":14936,"ADD":14937,"kC":14938,"notelgnis":14939,"897":14940,"sdoog":14941,"nocihpylg":14942,"+\")":14943,"lew":14944,"Ġredaer":14945,"cK":14946,"ezimitpo":14947,"217":14948,"PED":14949,"msaw":14950,"Ġetaluclac":14951,"Ġelohw":14952,"gO":14953,"Ġeussi":14954,"TPIRCS":14955,"=]\"]":14956,"esUnac":14957,"TNA":14958,"ĠtimiL":14959,"peeK":14960,"499":14961,"Ġerutaef":14962,"Ù¾":14963,"Ġsdnocesillim":14964,"Ġciremun":14965,"evitaerc":14966,"3002":14967,"htuos":14968,"Ġ*/{":14969,"{,}}\"":14970,"Ġdec":14971,"kadne":14972,"716":14973,"637":14974,"ĠĠĠĠĠĠĠĠĠĉ":14975,"Ġdenrevog":14976,"$\":":14977,"à®²":14978,"devres":14979,"Ġms":14980,"1440":14981,"PJ":14982,"evitcAtes":14983,"Ġ\"\"\\":14984,"ĠremiT":14985,"lait":14986,"decnavda":14987,"+)]":14988,"kramkoob":14989,"!,)\"":14990,"slevel":14991,"Ġradnelac":14992,"587":14993,"Zh":14994,"gnahc":14995,"khc":14996,"narT":14997,"CBA":14998,"Ġtagnas":14999,"Ġnosaer":15000,"daerpStcejbo":15001,"oca":15002,"noitiddA":15003,"BUP":15004,"Ġ373":15005,"æĤ":15006,"687":15007,"Ġhalu":15008,"BAL":15009,"Ġxat":15010,"elytSllif":15011,"nihtiW":15012,"Ġezilamron":15013,"ati":15014,"noitcejer":15015,"338":15016,"WdyR":15017,"sgnitteSxaja":15018,"Ġdepyt":15019,"pmu":15020,"rewarD":15021,"sIhto":15022,"byJ":15023,"909":15024,"REDLOH":15025,"ÎµÎ":15026,"dN":15027,"kcolC":15028,"ziseR":15029,"erutcurtS":15030,"KCILC":15031,"dnuoFtoN":15032,"Ġmuleb":15033,"sthgil":15034,"nretnI":15035,"Ġesrever":15036,"SAM":15037,"ibvlGdj":15038,"Fu":15039,"ket":15040,"ĠtinU":15041,"cid":15042,",))}\"":15043,"DNIB":15044,"XO":15045,"sjeroc":15046,"Ġ\";":15047,"srotac":15048,"èī²":15049,",_(":15050,"twj":15051,"&&))(":15052,"ĠTI":15053,"Ġsn":15054,"BCIuxFL":15055,"skooHlav":15056,"snoissimreP":15057,"BiK":15058,"éª":15059,"noitelpmoc":15060,";']":15061,"æĪ·çĶ¨":15062,"FUQB":15063,"865":15064,"strahC":15065,"AH":15066,"Ġedam":15067,"gnirtSOSIot":15068,"ASP":15069,"TNIOP":15070,"lej":15071,"Ylpm":15072,"Ġnoitatnemucod":15073,"ĠemaNyalpsid":15074,"ĠynA":15075,"tnetni":15076,"Ġsdi":15077,"omeD":15078,"Ġreredner":15079,"679":15080,"roloCdnuorgkcaB":15081,"tnevEteg":15082,"ÖĢ":15083,"SNtnemelEetaerc":15084,"Vmb":15085,"ĠelbanE":15086,"-=]":15087,"rredts":15088,"ara":15089,"ĠretfA":15090,"emaNtsal":15091,"sbil":15092,"enilffo":15093,"spO":15094,"Ġmuminim":15095,"tseResab":15096,"segdE":15097,"morFtes":15098,"roFlmth":15099,"selit":15100,"DENGIS":15101,"æķ°åĩ½":15102,"bwhXZ":15103,"WF":15104,"nuhC":15105,"ppord":15106,"rtP":15107,".[:":15108,"_})":15109,"Ġsekam":15110,"esnopseRteg":15111,"MRON":15112,"ĠyrotcaF":15113,"Ġmi":15114,"Ġ'_":15115,"ecnavdA":15116,"Ġslortnoc":15117,"226":15118,"630":15119,"ruoy":15120,"Ġ19":15121,"WK":15122,"elgnAtrats":15123,"ekaM":15124,";)')":15125,"Ġraf":15126,"EVOMER":15127,"eeF":15128,"UQBtTQBFUQ":15129,"Ġdaolpu":15130,"Ġmoc":15131,"æ±Ł":15132,"tnemgarFtnemucoD":15133,"gV":15134,"ĠeciloP":15135,"EGAMAD":15136,"PC":15137,"ĠgnisU":15138,"cdu":15139,"unaJ":15140,"efasnu":15141,"488":15142,"ĠsetyB":15143,"lanretnItcaer":15144,"kL":15145,"dnaB":15146,"ĠtnedicnI":15147,"520":15148,"ĠmorF":15149,"tnIetirw":15150,"835":15151,"->)\"":15152,"Ġutkaw":15153,"rorrEon":15154,"Ġgnissecorp":15155,"Uc":15156,"Ñĺ":15157,"åĭ":15158,"ĠgnidaeH":15159,"QN":15160,"vj":15161,"Ġnakata":15162,"hturt":15163,"yel":15164,"seetareti":15165,"ataDsah":15166,"tTZ":15167,"CITRAP":15168,"\\^[(":15169,"tuohtiWtcejbo":15170,"setadpu":15171,"&\"(":15172,"sulcni":15173,"Ġcisab":15174,"ìĭ":15175,"tekcoSbeW":15176,"man":15177,"Ã½":15178,"ç©º":15179,"tpurba":15180,"sporPevieceRlliWtnenopmoc":15181,"194":15182,"Ġtnil":15183,"ruoC":15184,"sK":15185,"esnepsus":15186,"bH":15187,"Ġtey":15188,"tnenopxe":15189,"Ġevitisop":15190,"trever":15191,"ytivit":15192,"============":15193,"smaet":15194,"fF":15195,"Bl":15196,"\",][,":15197,"ĠotorP":15198,"rox":15199,"åŃ¦":15200,"Jye":15201,"slitUmod":15202,"\",\"]":15203,">^[":15204,"pq":15205,",};)":15206,")}{":15207,"ukek":15208,"eruP":15209,"TROPPUS":15210,",}{||]":15211,"snoitroporP":15212,"Ġsesac":15213,"Ġnupu":15214,"iciffe":15215,"tcepsA":15216,"ĠĠĠĠĠĠĊĠĠĠĠĠĠ":15217,"dehcaC":15218,"ĠTSOP":15219,"lin":15220,"TNEMUCOD":15221,"zQBF":15222,"QK":15223,"txetnoCesu":15224,"é«ĺ":15225,"atpic":15226,"dereffub":15227,"aht":15228,"tcafitra":15229,"egua":15230,"=%":15231,"gt":15232,"etacilpud":15233,"etalume":15234,"Ġyxorp":15235,"thguac":15236,"efil":15237,"0462":15238,"noitaerc":15239,
[...]
