#version: 0.2
o n
r e
t i
e r
t h
i s
l e
i n
a r
ti on
e n
) {
a t
o r
u n
) ;
s e
Ġ Ġ
th is
s t
a l
c tion
d e
" ,
u r
r o
a n
un ction
f unction
= =
en t
) ,
g e
m e
re t
v ar
ur n
ret urn
t e
p e
: "
} ,
i f
c t
l a
u l
t y
at e
t o
c h
s s
u e
c on
t r
& &
c e
i d
( "
c o
", "
a d
ĠĠ ĠĠ
l o
] ,
' ,
c k
a me
e x
e l
ty pe
ge t
m ent
i g
i t
in g
. _
) .
a p
p ro
m p
); }
u t
0 0
) }
p a
m o
n g
" :
| |
i l
v e
v al
a b
ul l
( '
( ){
o p
== =
e w
s h
f or
e d
se t
at a
" :"
o l
n ull
e ct
; }
l i
r a
, "
t er
d o
s i
or t
h t
c a
b j
m a
re n
I n
o de
d i
de f
la ss
= "
r i
k e
Ġ n
t a
ng th
le ngth
ul t
_ _
q u
( )
val ue
R e
o f
: '
p er
u m
a s
bj ect
ab le
con st
d ata
en d
re s
Ġ c
n ame
u s
u p
le ment
Ġ 0
P ro
1 2
f i
x t
: {
1 0
al l
Ġ e
Ġ b
e s
tion s
N ame
ig ht
A A
v ent
], [
= {
Ġ a
) )
v er
is t
ex t
o w
ex p
de x
pro to
ĠĠĠĠ ĠĠĠĠ
h e
&& (
in e
te xt
> <
a ult
Ġ t
C on
b o
n ew
ke y
', '
Ġ 1
d u
Ġ s
ren t
p o
I C
! ==
] =
u ment
r or
b a
an d
A g
( );
f f
proto type
Ġ f
} }
O bject
i re
ad d
v i
s p
s c
ar g
] ;
co l
ar t
el se
: [
st r
d er
ra y
2 0
S e
o o
Ġ in
a m
tr ue
u se
" )
1 6
a ge
}, {
T y
. /
S t
def ault
p ar
Ty pe
p la
C o
re ate
ro w
" ),
( {
exp ort
il d
A r
Ġ d
j s
du le
T o
u b
\ "
qu ire
p s
( !
1 1
l l
s er
] .
z e
o ut
2 5
b u
+ +
at ch
an g
C h
p re
IC Ag
w e
E lement
op tions
id th
ĠĠ Ġ
= >
ap p
te m
Ġ m
Ġ i
n ode
D e
o t
te d
re quire
ro m
a th
an ge
c reate
al se
1 3
p ut
Ġ this
re a
2 4
} ;
di v
in d
( ),
type of
c all
ca se
f o
d ate
1 5
a tion
v o
co mp
V al
1 4
Ġ r
on e
b er
for m
ti ve
in dex
1 8
[ "
I d
in t
" );
l y
export s
ct or
) :
do w
an ce
s o
" ;
3 2
mo ve
u sh
' );
do c
T i
mo dule
" +
Ġ h
Ar ray
C lass
st y
1 9
c lass
ch e
sty le
f alse
ICAg ICAg
se le
1 7
tr i
) },
= '
c ur
< /
d is
a c
e t
p ush
Ġ w
on ent
ad er
m l
M o
3 3
Ġ o
th e
a y
l ine
vo id
S tr
f t
E r
\ \
si tion
l u
D ata
un d
( (
= [
= !
ba ck
E vent
A t
f ig
. $
: !
6 4
h i
re f
+ "
ar get
str ing
L ist
Val ue
t ent
per ty
Er ror
q ue
- -
an s
le t
9 9
un t
N ode
3 0
' ;
st ate
P o
, -
in ed
er y
c i
Str ing
we b
=> {
Ġc lass
pa rent
ti ng
ro ll
ur ce
i mp
", {
2 7
a g
Ġ p
er ror
a se
Ti me
M ath
e vent
at or
" },
, '
um ber
ig n
2 8
st art
re move
/ /
e lement
ri p
) ){
Ġ _
i m
T E
def ined
2 9
arg ument
= (
3 5
C ol
b e
res ult
2 6
m in
) ),
u re
O R
t on
w idth
E n
F i
} );
en er
3 4
or m
Ġ {
O N
E x
pa th
ut ton
ta in
doc ument
co m
3 7
L o
or d
3 6
ch ild
r ap
pla y
) );
to p
imp ort
i th
O f
ti c
ss age
>< /
rea k
argument s
d y
" ]
at tr
Ġ the
pa ck
L E
k en
": {
m b
i tem
lo ck
t s
p x
K e
of f
h as
! =
Pro perty
te st
4 4
col or
3 8
In dex
lo ad
in dow
" ).
H e
o bject
Ġ y
sp an
pla ce
St ate
he ight
a ch
un defined
+ '
co de
la b
Ġ to
b reak
) ?
Co mp
c li
O p
5 0
g ro
ce ss
Ġn ew
i ze
lo g
ti me
tri bu
T ext
con fig
. ./
a ct
Ġ st
" }
4 0
le ft
> >
, {
n o
el d
Ke y
6 6
m ap
4 8
ma x
c ted
f il
M e
A C
er s
t arget
a u
( ).
tribu te
i ma
n ext
i on
2 2
ht ml
l s
Ġ if
D ate
f a
3 9
tr y
" ===
a ss
pro ps
r c
cur rent
in put
) (
par se
a v
u i
f rom
fi le
t le
re d
st ance
Ġ is
st a
th row
la y
R E
Ġ (
l ist
l ate
si ze
5 5
re ss
s ub
n er
o d
Se le
y n
I N
web pack
00 00
[ '
Ġ -
in k
Ġ A
D E
' ).
us er
( );}
que st
vi ew
con tent
ar d
si on
ur l
up date
i z
tr ans
Ù İ
h o
B y
ca le
se l
le te
Q u
ca tion
on t
Ġ .
ti tle
] )
n e
tain er
6 7
in ter
h a
lo w
lab el
' )
4 5
Ġ re
i c
off set
+ =
6 0
or der
|| (
":{ "
Ġ me
De f
Ġ S
comp onent
w a
Q U
} ),
r u
" ],
en g
m it
i b
um n
8 0
er t
val id
u te
d d
$ {
I tem
Ch ild
" ==
' +
ex pe
mo de
] ),
W idth
4 7
p i
w indow
s li
Ġ 2
; \
Ġ g
B o
5 9
V i
con text
ri ct
c ss
sc rip
L e
g er
( _
sel f
. .
&& !
5 7
P ar
h and
},{ "
so urce
o m
ĠĠĠĠ ĠĠĠ
g in
am s
able d
A n
6 8
s u
k a
che ck
I D
ar k
qu al
U p
' :'
bo dy
' :
S T
m is
sh ow
AA AA
ty le
U n
f e
th od
y mb
ymb ol
u st
4 9
a x
ĠĠĠĠĠĠĠĠ ĠĠĠĠĠĠĠĠ
def ine
re place
Ġ function
1 00
la st
ta g
T r
S tyle
b ar
re ad
c al
ht t
Ġ M
E R
)} }
m on
ar ray
d a
Ġ =
ba se
yn c
create Element
Ġ l
Ø §
( [
c lu
fi r
ren der
C ode
6 9
k an
Qu ery
);} );
}, "
5 8
f n
f ind
at us
7 7
ff er
me ssage
Se t
._ _
sc roll
- .
B u
le m
m atch
to ken
Col or
ar i
ra g
Ġf rom
b utton
At tribute
= _
E N
=== '
);} }
j o
] );
on se
Ġst rict
app ly
Ġ de
p ort
de d
ar ch
bo x
Ġ <
Ġ{ \
o c
ar y
pa ge
) &&
po sition
s w
++ ){
8 8
S c
qu ery
( )}
, _
o bj
6 5
Comp onent
F orm
2 3
Ġ C
an t
lo se
= $
Ġb e
Ġ se
co pe
P ath
child ren
l it
en u
2 1
sele ct
Vi ew
Ch ange
dow n
te mp
ĠĠĠĠ Ġ
U R
) ||
vi ce
le d
expe ct
l er
M ode
( $
m s
c b
ad i
a ction
s rc
r ight
y a
0 4
le s
He ight
ac tive
> =
) )}
S ize
u ti
b ind
co re
i con
T e
res p
dis play
], "
so le
a ve
lo b
ext end
M ap
C li
s k
E ach
List ener
i ty
module s
N umber
a ck
);} ;
B e
T I
? "
app end
er r
A R
e c
i r
fi x
O r
n umber
Ġ '
Ġ of
} \
w n
con sole
class Name
do m
ti al
m er
S h
Mo dule
0 9
ent er
Ġ "+
ti p
ICAgICAg ICAgICAg
o urce
fil ter
] [
à ¸
j ect
co unt
],[ '
W e
8 7
ass ert
2 00
it er
i al
fo re
c l
col umn
M P
o ver
3 1
fi eld
r ame
st e
Def ault
gro up
: //
w hi
c le
g g
ting s
ch ar
ro p
O n
( /
) =>{
st ro
ter n
( ?
O ff
ra w
ch ange
;} ;
8 9
or y
po int
pa ce
cli ck
() =>{
ul d
sp lit
sta tic
to m
],[ -
li b
pro p
M L
c atch
|| "
arg s
arg in
;} }
Ġ k
ol d
e lem
ima ge
F B
Con tent
st er
5 6
he ader
E D
" >
A c
, [
sli ce
T ag
re e
res ol
for Each
A L
J S
0 6
fir st
, !
call back
ap i
par ams
A B
form at
Ġ Re
i p
le n
attr s
= \"
? (
d ay
7 9
Ġ P
Ġ 4
th en
Ġ di
ï ¿
M O
mis e
w ord
Ġ T
con tainer
r id
index Of
F F
++ )
E B
": [
wa it
ï¿ ½
r l
B lock
7 5
M M
){ "
O wn
e k
Ġ v
' ){
Ù Ĵ
hand le
mo d
gro und
re g
Ġy ang
H T
or k
] }
o k
Ġ D
j Query
resp onse
de lete
m d
me thod
Ġ $
] +
ed it
Ġ L
=[ ];
Ġ *
7 0
o g
t ro
s cope
Type s
oo g
ti es
in i
H and
po s
a i
lu gin
const ru
c y
A T
b l
],[ "
on g
v ue
Op tions
js on
Time out
In t
o uld
oo k
resol ve
4 6
it ch
w rap
Ġ ke
4 2
l ink
c at
il l
B utton
t able
Pro ps
Ð °
à ¤
st atus
C all
a h
C ase
sh ould
ti n
En d
' ]
I G
R ange
u ch
I T
Ġ "
ab el
ma in
) &&(
:[ "
} },
Ù Ħ
S er
m m
c lose
add ing
lob al
Off set
W ith
m at
) /
Ġ value
ro ot
7 8
sele cted
St art
Own Property
F or
Con text
o s
key s
Ġ null
In put
ri te
A N
mo use
a f
Ġ 5
o re
e ar
=== "
is ib
p p
to ol
id d
&& "
S E
A l
> \
b order
la h
Ġ for
: (
F unction
Ġ or
pro cess
) +
Ġ u
un c
ig in
au to
Ġ 3
AC K
ci ty
Ġ B
Ġ Error
fo c
ma ge
constru ctor
Ġ get
ow n
ab s
0 1
0 3
mode l
Ex p
In fo
op tion
an n
a wait
ig ger
jo in
0 5
Y Y
Co unt
A ll
con cat
S S
Po int
ar n
s pe
ï¿½ ï¿½
T op
b lock
f ont
g oog
Ġ on
", [
Po sition
l ang
orm al
an sition
re quest
bo t
Bu ffer
t n
D is
dis abled
in ner
P a
v m
v el
in it
op en
e ach
Con fig
Fi le
N o
s pace
Ġ \
< =
r y
Ġin stance
4 3
um er
i es
s se
$ .
9 7
to String
TE D
D U
p ri
p op
Ġn ot
' ),
U ser
A P
cle ar
de s
Me ssage
define Property
c ate
I s
ima tion
m argin
lo at
trans form
8 5
ur ation
ust om
25 5
ck er
a tive
lo ader
id er
temp late
Ġ j
U rl
if i
R ow
Re f
" },{"
g s
scrip t
le x
A M
re am
Le ft
c la
P re
4 1
di r
i e
el per
R o
Fi eld
cli ent
i x
c m
9 6
Re quest
E xt
as ync
A u
v g
â Ģ
" )}
9 0
htt ps
foc us
eng th
sh a
whi le
t d
=[ ],
W EB
(" .
={ };
s a
b r
E d
se arch
L ength
en ti
re en
n av
Ġ F
HT ML
ss ion
ow er
Ð µ
G ro
S ymbol
Ġ an
Up date
b y
Ġ and
m ark
Con tainer
(? :
sw itch
ig h
tr igger
u d
L ine
Ġd an
F rom
; },
P age
A D
p end
Ð ¾
Ù Ĳ
Ġ 8
P ACK
o me
di re
ol der
T h
th er
pe d
e qual
C a
r adi
' );}
Ġ x
if y
set tings
hi de
JS ON
po st
Ġ N
c an
] |
Ù Ĩ
Ġ pro
X G
x u
Gro up
per ties
WEB PACK
Sele ctor
_ .
] :
a k
5 2
= __
c cess
bot tom
le an
0 8
gg le
Tr ans
r un
op ts
"}, "
G E
0 7
con d
) ).
D oc
R O
tr a
ter s
m enu
|| !
fil l
I MP
th at
htt p
clu ster
mp ty
p y
6 3
Pro p
UR L
O ut
Cli ck
Ġ data
Ġ it
Ġ H
scrip tion
E qual
p t
isib le
d one
tro l
c or
p h
Ð ½
w w
9 8
\ /
p atch
pre v
DU LE
OR TED
F a
MO DULE
lo cal
ff ect
t al
) |
r t
Ġinstance of
); },
= /
at tribute
I mage
back ground
p an
5 4
L abel
"} },
To ken
rea ct
Pro mise
../ ../
" },{
l at
Event Listener
E l
s or
: :
f in
0 2
C O
me di
Ù ħ
idd en
ver sion
" !==
r ange
ĠĠĠĠĠĠĠĠ ĠĠĠ
ser t
Form at
d rop
IMP ORTED
7 2
ce s
b i
Ð ¸
7 6
al ign
He ader
, ,
U ti
] ;}
Ù Ī
Sc roll
ã ģ
T arget
st op
s cale
C ur
l ight
D O
cluster K
5 3
V er
i a
.. .
In ter
, .
s g
Ġ 10
re q
m ber
im g
m ul
Ġ [
L ay
ate d
if t
g lobal
Ġw ith
B O
8 4
Ġf alse
it s
p adding
be fore
Ġ G
lo cation
} .
de sc
pa city
Bo x
Re s
uti ls
ta il
} )
is Array
ex ec
+ (
stro y
Ġ I
sse s
te x
Ġ \"
row ser
F D
rip t
U T
ad a
); \
in stance
or igin
" ){
} /
C he
v as
o us
6 2
has OwnProperty
e p
b s
g ress
item s
sele ctor
Ġ id
= -
Ġ result
str u
Ġ 12
k it
end er
add Class
D es
), "
L O
7 4
T able
" !=
- \
L ower
)) },
s up
) *
, (
Ù ı
mon th
rap h
ul ar
Hand ler
ca che
o u
(" ./
] *
9 2
A dd
:[ {
re r
M an
B QU
5 1
ct x
" ><
Ġ type
C K
() },
m an
ma il
8 3
I H
(' .
te s
ho st
L ink
ance l
Z X
Call back
Ù Ĭ
n one
a mp
8 6
component s
en sion
in fo
)} ;
c s
ag er
Ñ Ĥ
< <
c enter
t ab
S ta
u al
value s
a st
F il
is h
Ġ con
ce ll
w ork
S ub
reg is
7 3
iz ed
g a
) ("
({ },
I con
p lugin
Ġ ma
i v
' ],
9 5
Ġ 6
c c
Z W
st ore
Lower Case
Pro to
x y
ri x
s vg
Ñ Ģ
parent Node
Che ck
ch ed
$ (
Ġ ${
A s
Ġm en
get Element
ctor y
out put
R ight
le g
Mode l
le ction
si de
to ggle
w rite
re ka
edit or
umer able
s ort
ser ver
)} ),
ch art
T t
Ġ /
to LowerCase
] ||
j e
Ġ W
$ /
Ġ }\
m i
id get
bu g
cl one
A pp
de scription
s ymbol
n ot
au th
Ġclass Name
a a
Doc ument
00 0
tr ansition
pa ss
el l
h ref
da sh
L L
M at
TI ON
Ġ U
event s
oo m
Val id
t roll
b G
at tern
In stance
ge x
S I
pro perty
que ue
s ing
op er
Ġ E
M on
var i
f low
B ase
Ġ R
n ormal
lo t
Mo d
l d
Des c
un k
a j
EN T
Ġ }
p r
Ed it
Col umn
S ource
Re g
" .
c d
Ġ as
. \
G et
8 2
o ur
s m
at ure
w arn
u D
U N
Ġ +
( `
g rid
: /
node Type
Ġ default
ti f
c ap
T O
ĠĠĠĠĠĠĠĠ Ġ
T H
ä ¸
in sert
oo t
à ®
e e
vi de
en v
ow ner
h elper
(" #
f unc
9 4
) );}
', ['
d b
', {
parse Int
su per
á ĥ
Ġb er
d rag
Ġ 7
sh ift
Ġ Ø
T he
. ","
cb i
ĠA l
c tive
we ek
)) :
li cation
\ ",
che ma
er ial
Ġ "),
Ġn ame
A x
:[ '
r an
e mit
w i
O bj
use d
Ġ key
uti l
ment s
Ġme reka
al low
A d
h idden
6 1
a sh
bu ffer
F n
"}}, [
Ġ #
C H
to uch
N O
-- --
es Module
} =
he ad
n d
c ord
FB Q
Co m
static Class
Ġh ref
require d
M enu
Re act
Ca che
sele ction
" ],["
Block ly
A I
troll er
out er
Ġ set
\ '
ck et
ar r
D ay
o ther
li c
ri be
Ġ return
() );
h older
A ction
ED IT
n um
i ve
, __
Ġ true
p se
re sh
c ustom
(' #
en umerable
S u
or g
9 3
Ġ Date
>> >
ini tial
L A
un i
pi cker
ad ow
me ta
d G
sta ck
Pa rent
ren ce
] ?
g l
AAAA AAAA
append Child
T R
f rame
M in
Ġ style
* *
Te st
)} },
p l
b n
__ (
25 6
' }
mo unt
EDIT OR
P er
e m
de stroy
s end
co py
u age
in clu
b tn
A F
9 1
pre vent
Lo ad
O ver
con tain
Ġ ti
u k
a re
__ .
web kit
M sg
H t
lay er
stro ke
Y W
Ġ '+
Te mp
ari a
',' \
Sele ct
Ser vice
T Y
d f
Ø ±
") ]),
g o
7 1
D own
; ++
Ġ Ð
|| {
W rap
ass ign
remove Class
ha sh
o pacity
={ },
Ñ ģ
8 1
: -
re ct
; )
] ){
vi ous
d raw
read y
(' ./
" ))
g ra
* (
c ent
set Timeout
:" #
exp ress
ms g
, $
] },
f la
Ġ z
Ġ Array
com m
F e
ã Ĥ
() =>
header s
de rer
a in
ta ch
fa ce
C A
f ull
[ _
== "
Y X
e v
la tive
p ol
Ġ __
or age
ff ff
cbi Ag
": ["
T it
o b
mod al
bo ard
m ary
Re quire
w ith
the me
trans late
st ream
Ġd is
== '
set Attribute
Ġ per
pa y
Res ult
( -
Mon th
add EventListener
f lex
Ġ `
Fil ter
wrap per
Ġh as
R ender
R ect
g ener
P ri
Ch ar
An d
re set
li ce
, \
ã ĥ
;} );
d uration
ann el
To ol
Sele ction
P E
s l
" );}
): (
!== '
@ @
Y ear
Op en
Par ams
ĠAl lah
Name s
h er
Tit le
L T
Po s
su ccess
F rame
() :
Cli ent
C E
Ġ O
Ġ K
Bo und
B ack
r g
Ġ V
"], "
valid ate
N a
il ity
bu ild
QU FD
H R
Ġ un
app lication
F loat
I S
f oo
Ġ do
w r
as k
al og
regis ter
o und
Ġ text
' },
ro und
By Id
Ċ ĠĠĠ
Ġ al
Ġ var
pre fix
M E
ar row
y y
Type Error
style s
an im
in st
v ate
M A
ook s
Ġ1 6
C B
Event s
tif y
ome try
Ġ Ø§
U S
Ċ Ġ
] ]
Ù ĳ
") },
0000 0000
ĉ ĉ
dis patch
an imation
origin al
et ch
M atch
s ign
n ow
le vel
ver se
Ġ1 1
n al
Ġ Object
u ted
f lo
v isible
) ","
af ter
h r
n ect
d ist
T ra
ch or
Man ager
Proto type
A E
check ed
Re sp
L i
IN G
St atus
' ;}
Re ad
Ac tive
CK EDITOR
de bug
}} ;
} ],
Uti ls
BQU N
12 8
la tion
ï¿½ï¿½ ï¿½ï¿½
ax is
in es
Op tion
attribute s
h en
to tal
day s
- =
query Selector
],[ [
m y
tic al
' >
) \
can vas
or ted
u le
s y
prevent Default
expe cted
D o
or iz
), (
);} );}
( __
} )}
inter nal
} ).
R a
du ct
Ġc reate
Ġ :
medi a
ad ata
ro ute
c f
' ./
ne ction
Ġ 24
B ar
} `
C ON
Ġ %
Ġo bject
v ider
fi re
sha pe
rag ment
tri m
g ory
u id
P O
:[ ],
s on
" ]=
Set tings
l t
] ).
Ġ ex
' },{
add ress
TE R
D ire
ĠĠĠĠĠĠĠĠ ĠĠĠĠĠĠĠ
Prop Types
ti ck
Ð¾ Ð
[ \
oo lean
ste p
a ded
Q ue
lay out
I F
k ind
) =>
ho ver
', ()=>{
") ),
: _
W indow
get Attribute
type s
la pse
Ġ J
Item s
f s
ut er
lo dash
res ource
ta tion
tin ue
Se arch
ĠRe act
Ġ module
ver t
x ml
load ing
tern al
l ing
Temp late
iter ator
Ġ TypeError
We b
A TE
s ave
" /
po inter
à ¹
pre vious
n ative
I E
Ġ q
Mo use
c ancel
$ $
DO M
] &&
Ġc all
c ard
extend s
b m
is e
tool tip
H E
Be fore
Node s
Ġit u
ame ters
QUFD Q
Me thod
F ull
C ell
comm and
R oot
h igh
( ;
oc us
Pro perties
i de
ang ular
} (
n s
z M
Ġ 20
Ġ </
sc reen
Ù ĩ
S pe
u h
Z G
Ġ 9
ð Ł
", (
M ark
a tions
} );}
lo cale
i o
b b
G e
IC B
Ġ const
\ ":
u g
+ ="
f ter
sli de
comp lete
" }}
c n
Ġ error
m x
cla sses
Key s
M ax
re ject
A S
Na N
99 99
l ong
Ġ en
() ){
w idget
list ener
] )}
di o
( <
Ġc ur
u res
: $
g t
ro uter
An imation
flo or
vide o
At tr
com mon
{ "
a W
sh adow
b rowser
Resp onse
en se
Tt BQUN
Ġ Y
P an
z m
} ;}
Ġn o
AM E
(! (
ist ory
di alog
op t
if f
p art
tr act
config ur
time out
p ub
con trol
A U
ang le
Ar g
y ear
ing s
place holder
le ase
P i
ser vice
contain s
" ></
q l
G rid
ste m
ca pe
at s
P lugin
ta sk
nav ig
all y
! !
ce p
Ġ 32
Ġm ust
A G
string ify
ro t
:" ",
bo und
K E
col lection
Ġ te
V E
k i
() ),
E ffect
al i
ord in
Bo dy
I m
ma ke
C la
ifi ed
par am
] (
v is
configur able
in line
express ion
aj ax
ve c
con tinue
Ġ la
> {
point s
sp lice
r on
Ġin i
S ha
ti fi
Le vel
at er
se cond
) [
Cur rent
pro perties
:{ "
N av
re size
__ _
' ><
le ct
set s
g raph
d ing
' &&
mer ge
a e
B l
Ġm eng
t ree
Ġke p
pass word
or s
O b
Con trol
? '
Lo g
p attern
n et
re lative
tr ack
) -
lab le
radi us
12 0
inner HTML
X T
node Name
L I
TtBQUN BO
) +"
C lose
Ġ that
to Be
Ġ at
n ya
Ax is
Ã ©
:{ },
Mo ve
en ce
sh ort
To uch
p ng
e mail
Ø ª
] /
Que ue
Ċ ĠĠĠĠĠĠĠ
B oolean
en e
T ab
we en
_ =
S cale
":" ","
Ġf a
GE T
di tion
enti fi
hand ler
Co mm
Value s
Mat rix
f r
pro ject
X C
li mit
N ext
Sta ck
de l
ww w
ma sk
)} )}
ol ute
" ].
' +'
s n
an ts
S p
f b
S B
e ffect
P la
ï ¼
E mpty
Ð° Ð
j a
p th
result s
p ha
an y
ce pt
lang uage
S to
N ew
dire ction
5 00
() ).
e mpty
Sh ow
; _
bo o
getElement ById
1 10
s d
Wrap per
S U
ro le
Child ren
' re
C reate
da k
se ction
Lay out
pro gress
(' /
mul tip
P I
=$ (
pan el
re gex
tail s
V y
D rag
3 00
ci al
enti ty
play er
A Q
ator s
m u
; ){
Sele cted
iz er
action s
st ra
U I
i os
pro mise
à ¥
Ġ* /
si z
F ocus
H o
al t
N e
\" >
Mod al
Trans form
) ||(
k u
pend ing
P ol
QUFDQ TtBQUNBO
c ar
R adi
Tr ansition
con nect
char Code
\ .
en able
Ġs u
al led
D D
[ ^
B E
Ġo bj
t mp
i i
æ ľ
}} }
si te
) ===
") );
I g
ent ry
Ver sion
drop down
class List
co un
Ġe lement
ĠRe g
Ġti dak
Ġ mo
el m
R l
}, _
Ġ par
he re
Par se
x l
g r
DE F
C T
ot tom
un ct
` ,
We ek
z y
A b
row s
Ñ ĥ
f d
j p
Ġn ode
Con troller
e q
I ter
Ã ¡
] ===
Comm and
Pro gress
u ation
sup port
import ant
se ssion
pa g
z oom
r st
Or der
Prototype Of
Ġy ou
z b
Con stru
Ġ ter
eng an
St ream
Ex pre
b le
mat erial
Ġb y
an k
u c
display Name
R ed
Ġ //
D ir
t w
helper s
com ment
] );}
à ¦
i B
R un
re m
ref e
Lo cation
Ġ Promise
ti o
file s
ser ies
=/ ^
Ġ void
(" +
A Y
ch unk
te ger
ac ti
w ard
ICAgICAgICAgICAg ICAgICAgICAgICAg
re du
Ġ >
RE E
1 12
oo oo
it able
} )),
s in
S ync
In valid
St orage
Ġ color
){ $
n b
R en
boo lean
YY YY
ĠReg Exp
ref resh
() )
cla re
me mber
name space
Ġ1 4
ension s
g i
U E
month s
for ce
rc le
F I
Expre ssion
s chema
Element s
," __
pay load
TY PE
char At
Ġ ad
Sto re
C an
á ŀ
me t
Style s
Dis play
Ø ¨
oriz ont
t ure
U M
w ay
P op
C ap
Ġin dex
c G
O P
il der
Ġb ase
}} );
ch annel
Ġ th
!== "
Ġkep ada
g en
V isible
++ ;
å İ
m t
parse Float
an chor
Ċ ĠĠĠĠĠ
10 7
ial og
," ./
S H
desc ribe
__ ["
5 12
cate gory
de lay
N AME
oper ator
in valid
O L
Ðµ Ð
D I
anim ate
u me
p orted
Ġor ang
p c
") :
get OwnProperty
en code
] ],[[
cur sor
' )}
ate s
orizont al
f c
j i
" &&
Lay er
D rop
W ork
ame ter
Ġe vent
i ce
S cope
Constru ctor
' t
0 44
12 12
C t
Ġd engan
Ġ ka
entifi er
st rict
Sh ort
ve lo
T ree
B Q
Ġ string
S C
up load
dis able
"," #
co ding
En abled
M ul
S y
unct uation
p b
de clare
g u
S w
D ialog
A fter
on Change
6 55
over flow
T ask
ĠL T
,, ,,
4 00
Pro vider
on ly
), !
Text ure
Ġs ource
å Į
Ġ le
Ġ )
s By
x s
){ _
t t
vari able
Ġt arget
in her
v a
D om
Ġ @
element s
Ġb u
abs olute
charCode At
plugin s
|| [
Ø ¯
field s
is ion
ran dom
Ġ options
M D
Inter val
] ="
s um
t urn
lo c
1 16
se d
X HR
Ġa u
Ġb o
en abled
goog le
f x
N ot
Ġi tem
Ġw indow
Ġc an
amp le
} </
doc s
(" _
L j
al am
set State
Â ł
) >
I f
C ard
Ht ml
| \
ti m
check box
er red
sub str
ver tical
U P
on Click
" ;}
Ġ path
b g
c r
re p
ann ot
P l
å ħ
Ġ self
Ro ute
== ==
i k
bo ok
H ash
Ġs er
= ["
Ġ X
exp and
H elper
inclu de
bu f
pri mary
fe rence
B A
be gin
Add ress
E E
ren derer
l ers
v node
pend en
ã Ģ
d t
Edit or
sub string
N S
B ottom
fix ed
u de
On ly
de cor
. ",
ge ometry
run time
( ()=>{
il y
Al ign
if orm
I mp
Ser ver
12 5
si c
ta rea
m al
Ù ĥ
g ment
+ ")
D iv
)} );
Ġw idth
n a
scroll Top
S ib
t en
ith ub
å ı
Ġ res
f etch
"}, [
qu o
, },
L ast
à ª
has Class
Q g
( .
y g
Ġ should
col lapse
ci es
cal c
whi te
e b
week days
g ame
Au th
Sib ling
Change d
c ing
ER R
Ġ use
user name
V G
lo aded
à ¯
H J
ra tion
' ));
B ind
ĠĠĠĠĠĠĠĠĠĠĠĠĠĠĠĠ ĠĠĠĠĠĠĠĠĠĠĠĠĠĠĠĠ
er o
me mo
}} ),
ge s
at tach
column s
error s
(' <
Fi rst
' s
Ġn umber
: `
leg ate
F x
Lo ader
tro ls
w s
P RO
l g
d r
/ ,
default s
Ġ comp
Desc ript
sub sc
t p
"} ),
d c
S li
S ort
] -
KE Y
node s
sub mit
( ["
stru ct
un it
Ùĳ Ùİ
":[ {"
or ld
TE XT
r s
rot ate
Ġ co
e a
map ped
A ss
N E
h ex
åİ ¿
S te
de red
ser ial
Ġs c
u a
Ġin put
M S
w atch
33 33
h y
exp an
bi le
wr itable
MM M
sh e
re cord
); $
Ġ pa
Ġ file
tool bar
Pro pag
( \
' ],['
__ ("./
ac cess
word s
] ={
(" \
25 0
Fi x
B U
is NaN
J son
v s
Ġa re
Sc ript
ho ur
18 0
an ya
A K
=" ";
al ert
Fa ctory
Uti l
Symbol s
:" %
d W
ect or
10 10
Ø ³
27 5
H ooks
is Function
fla gs
) <
n own
ĠØ§ ÙĦ
: #
Pan el
D B
Ġ Z
- "+
Ti ck
j q
:" \
D i
O per
d at
s b
// //
x hr
Ġ pe
de ep
Ġh and
f loat
Sha pe
id x
Ġ array
F ont
pack age
pro duct
Ù ģ
Propag ation
Ġ update
an a
Po st
L W
NO DE
by te
M T
b it
_ (
C ustom
ser v
ta ct
z one
pro xy
AP I
12 7
or ity
] {
b abel
V AL
S A
lat form
---- ----
N T
(/ \
Ġcur rent
+ ='
0 64
/ *
c ry
L F
ru les
M a
w t
de vice
11 1
Load ing
Pre fix
pi pe
spe c
Th is
fa il
Ġm in
( --
Ar gs
gra m
' )){
Ġd ari
16 0
refe rence
L a
A pi
] ],['
e val
te red
"] (
Ch art
å ¸
nd ar
g ithub
image s
V ER
mat rix
sl ider
vari ant
g y
ol id
met adata
F E
or i
=" '+
P AR
Ġb order
# #
ent ation
] ],
cale ndar
pr int
date picker
vo ke
B B
100 0
pe at
Ġ !
v c
04 3
a rea
le ar
iter ate
mark er
es cape
or ang
S n
F la
En ter
first Child
V ari
} )},
del ta
m ix
pop up
=$ .
å ®
Ð »
key Code
11 4
A ng
tex tarea
fin ish
C C
cep tion
y e
? :
Ġb ack
h c
Cla sses
+' "
", !
/ ^
Re move
Ġ 48
\", \"
Au to
ad min
) &&!
Ġw hen
p m
h l
tag s
} :
J l
k t
si ve
i le
Par ser
js x
log in
idd le
ur i
as ing
is S
ord s
A rea
dire ctive
() +
in ary
sta mp
Ù °
C AA
G ener
R I
lo ok
();} );
cli p
fir m
] },{
(" <
Ġ extends
' :{
in s
d ark
Require d
',[' ../
)? (
Ġ |
(/ ^
);} };
to Equal
Ġ state
Ġn e
10 5
S pace
N v
le ave
O S
ut f
Ġ li
she et
on ce
Lo cal
cond s
p ow
ä º
ap ter
am ily
] ))
' ||
Re source
N ormal
inter op
in ject
Ġ1 3
comp uted
s ync
b W
(); },
Ġ In
15 0
S a
w o
Ġ content
De lete
Ġs pe
Ġm atch
Ġ1 5
Tra ck
Ġ config
P ass
Ġ user
we ight
x e
mo ment
re st
Hand le
inclu des
Re gex
mis sion
Ġp unctuation
h istory
Ġf ont
ĠĠĠĠĠĠĠĠ ĠĠĠĠĠ
12 3
un g
B rowser
Ù Ĥ
tag Name
parent Name
(" /
'] ]],['
bo ol
C SS
A H
ac count
view s
ne ss
00 3
Reg is
] &&(
Ġ ?
Ġ add
F unc
Ren derer
qu i
! /
L ang
Ġh ave
rap hi
clear Timeout
ru le
":" \
=" ",
A w
Ho st
M ed
", ["
Col lection
re verse
sk ip
' ]=
E s
um b
ver y
S k
fin ally
c p
ä »
b d
con troller
rg b
"] ="
Ġ out
Up per
É µ
10 1
11 3
J o
sh ot
Lo cale
de v
mod ifi
getElement sBy
us ers
Ġre quest
document Element
fa ctory
L y
l ines
ma th
Ġs up
' ../
c I
n i
:" /
11 9
N um
Ag ent
par ser
ul ate
L S
} ));
Class Name
- (
s q
UT C
10 9
ĠĠĠĠĠĠĠĠĠĠĠĠĠĠĠĠ ĠĠĠ
C l
Ð º
C i
Ġ ch
b c
isib ility
AAAAAAAA AAAAAAAA
N z
C ancel
) ],
åĮ º
Ñ ı
n t
)) ),
S P
10 8
) ",
æ Ĺ
S ign
D uration
en tial
jp g
Point s
app ing
act er
ub le
__ =
"," \
mp le
Z m
Con st
', },
sw i
C ar
mul ti
av a
P lay
Ø ¹
|| '
le ted
S o
sm all
Descript or
);} }}
al ah
") ){
0000 00
; $
bl ur
Can vas
Ġ1 7
/ {
' ?
19 2
ai lable
at ures
a o
# !/
M ENT
} },{
set up
Ġbe en
normal ize
Radi us
s pa
as sets
ï¿½ï¿½ï¿½ï¿½ ï¿½ï¿½ï¿½ï¿½
interop Require
Re cord
Re turn
11 5
Listener s
Ġ height
k s
p res
c ro
u tion
QU F
s lot
subsc ribe
a ce
get Time
P h
à ´
ini tion
ce ive
remove EventListener
R ule
di c
10 2
Or igin
ign ore
st ar
remove Child
In i
de pth
In it
Ġ Q
M i
end ing
Ġc li
13 0
E X
an e
memo ized
z i
sa fe
place ment
Ġ ret
He ad
de code
As ync
E AA
L D
^ ^
f ragment
fa de
} ><
default Value
= +
P r
ç ļ
N D
Pla ce
' @
pub lic
` ${
V z
el p
lo ts
={ {
im um
f l
: \
N j
si an
á »
radi o
Ġ list
d x
10 4
/ >
serv able
Ġ el
u int
? [
match es
c u
con nection
do main
V V
Reg Exp
Ġ },
mb ed
Ġy our
tool s
Attribute s
N ull
) ==
c er
Ġ &
an sp
en ded
g or
lo op
si bl
ci rcle
å ¤
] ):
S chema
Un it
k g
w in
Ġd alam
ab i
ri es
gener ate
Ġ title
st d
part s
over lay
ist s
Fe ature
() &&
name s
F ragment
je ction
å Ī
$ ('#
Ġb ah
b f
Com ment
Bu ilder
Id s
redu ce
q q
("_ "),
pre ss
Ġre l
00 2
d s
t c
Ġa kan
++ ]=
la ck
Ġ all
owner Document
co s
Ġw hi
ex tra
ma tion
j ust
page s
Z oom
66 66
n ing
ute s
icon s
S x
vi ty
ver tex
M y
Ġ start
C D
M et
Arg ument
al pha
dire ct
V ector
OR T
parse d
script or
mo te
âĢ ĵ
, ["
Comp lete
â Ķ
L ight
e f
N ative
log ger
Ċ ĠĠĠĠĠĠĠĠĠĠĠ
á Ģ
11 7
ix el
| =
ĠS ymbol
;} }}
Ġdis play
U RE
!== (
stra ct
port s
Ġ ca
he el
bl ue
? !
high light
color s
am ic
so me
G lobal
k er
2 24
:" â
] !==
rg ba
% ;
Sc reen
if rame
d X
W idget
ca tions
ev t
ICAgICAg ICAg
Ġme thod
E mit
change d
Field s
yg on
Ġm argin
A v
() (
N l
z z
H igh
Ra tio
ai led
po se
ti le
Ac cess
Sli de
Ġ test
SE T
add Range
m ar
") ||
t x
mo ck
str ong
O T
pro file
A V
l ish
as c
){ '
+ /
Fix ed
/ _
10 3
)} (
ge d
++ ,
tifi cation
") +"
ti mer
y i
an i
ordin ates
g n
ren cy
Ste p
o th
S up
t abs
$ ("#
Dire ction
" ];
\": \"
Ar row
Ġ render
f er
se c
":{ },"
child Nodes
du ction
Ġ document
" ?
çļ Ħ
D el
:[ [
foo ter
Tag Name
as ure
ĠM MMM
; ;
Ġn ext
g A
Dis abled
leg end
ge st
Ġ end
Ġ vec
2 14
){ (
di m
ri de
ti t
Ð ²
Ġ time
R U
Ġ max
len d
": (
l ar
DE R
e st
as on
interopRequire Default
si tions
Co un
R u
navig ator
Ċ ĠĠĠĠĠĠĠĠĠ
Row s
is Valid
te sian
au dio
E S
}} },
ve d
Ġw as
ap a
' ))
D im
Ġ component
:' ',
Tool tip
at an
Ang le
L im
": -
36 0
str ap
=" #
c lo
token s
) ({
Ġ ta
Column s
le ss
par ameters
ch o
im ul
10 6
background Color
();} ;
iz ation
Ġme ssage
o use
Ġi mp
ol ume
ç Ķ
è ¯
Ġ1 8
R T
comp are
uni que
de st
O ne
Ini tial
Ġ val
)} )),
it or
Sy stem
us tify
tic s
' ];
ct rl
is F
Pro cess
Con nection
si a
pe g
") ?
l v
C ss
X ML
W r
Ġ line
Par ameters
tri ct
con vert
ed s
d iff
C I
Ġ De
P attern
B a
AT A
comp o
Ġ po
Ġ 64
ap shot
() -
Spe c
Ġ &&
(' ../
f li
AU LT
" ||
A p
s ched
un iform
);} });
) !==
Ġ 28
Ge ometry
Ġ ===
( ['
0000 0
R G
resource s
" ],[
59 0
Ti mer
æ ĸ
Ch annel
Header s
i ted
P S
text Content
medi ate
E V
cle an
k o
Ġ position
auth or
||{ };
c M
ci mal
Ġ Se
ent ries
exp r
ff f
g b
so cket
Bound ing
oo se
P T
ERR OR
listener s
o e
Ã Ń
Ġ Op
' );});
In ternal
multip le
ug h
is ting
å¸ Ĥ
Su ccess
=! !
"," ./
"), "
Ġ1 00
11 8
prop Types
de legate
g re
Upper Case
Ġs a
w d
ro om
ar a
; (
"+ "
v t
f ree
font Size
I AA
' });
radi ent
par ator
Z S
Desc rip
j b
:" [
12 2
En try
Ġ si
get Value
Ġw ill
an ti
. *
at ar
CO MP
A J
AB LE
co ver
il i
:' /
EN D
method s
ref s
exp i
=" +
" };
ch ain
Ġm an
cl ar
)) )
MA X
Ġ ì
In teger
Ġ code
com mit
ansp ort
umer ic
Ġ 40
Ġa c
Ġback ground
Ġ length
P art
DEF AULT
/ ><
ï¼ Į
") &&
en si
h h
Ġ 26
spe cial
Ġbah wa
file name
å Ĳ
re al
F R
ap at
\\ .
Û Į
per cent
Med ia
Mo unt
14 4
Ar r
t f
Me ta
Z E
to UpperCase
Tag s
X Y
Ġ url
L C
inter val
s ame
e asing
B AA
Ġ1 9
ta x
)} )
L en
Re size
text ure
)) ?
S l
2 20
create d
Po inter
(){ }
IN E
Ġ ÙĪ
warn ing
proto col
F OR
å į
Q Q
initial ize
W arn
me d
en coding
iterate e
AC E
B order
=== (
dist ance
ini te
de tail
w b
// \
] ",
();} }
{ {
ist ance
ed ge
Ġ 30
unt uk
(){ },
Ġs ub
Ġ 22
ĠU int
st ed
Ġ valid
Ġ arguments
re peat
F S
close st
querySelector All
ration Time
Cur sor
ac c
M j
D raw
3 20
F y
Ġ col
dy n
);} );});
z a
H our
G L
red ential
Ġ ||
cur r
Ġ2 1
Ġ Ùħ
){ }
To tal
o mp
low er
] \
.$ $
ouse l
:' #
ali as
do t
à º
al y
Pi cker
0 275
Met adata
drag g
Ġcall back
S top
Ġ ",
co ok
e ase
p le
h orizontal
ro id
sse d
last Index
nb sp
. </
Ġ untuk
6 00
R outer
200 0
à ½
12 9
ca st
U g
ib le
label s
P ixel
Ġm ap
x E
12 4
"] )(
pre view
U se
Ġk am
st orage
? -
serial ize
mo z
Fi les
=' ';
ti l
ha vi
W N
of t
ab ase
> -
le h
/ .
2 64
it al
Ġ 25
pri vate
Ġ remove
ab ort
no tify
] ||(
) +'
H ook
insert Before
' .
The me
)} )},
Ġ ","
tr l
s ent
y at
V s
Ġ us
Ñ Į
penden cies
= ()=>{
s With
p lot
EN V
h ooks
t body
con trols
Ġ tr
trans action
19 0
)) ){
S ide
14 0
ro tation
resp on
* =
Sub mit
=_ .
is Object
') ).
F T
H H
de tails
13 5
={ "
) :"
append To
M I
out line
x x
P L
Ht tp
38 4
Ġ response
w g
Ġ top
"] },
Ð ¼
L m
sli des
P ort
)) );
12 6
ge o
pop per
Ġ we
' ../../
a il
z t
! (
G raph
(" ../
Vi de
V ar
I t
ang er
FF FF
V ue
Up load
di cate
PAR AM
doc Class
Z one
P e
Ġre ad
w al
n on
p ad
ind ent
__ ){"
\" \
V e
Ġ' +'
cap ture
Ð ´
Res ol
19 9
W hi
is Empty
); _
C enter
st at
Ġ left
en um
lo y
m ory
Out put
" });
/ :
stop Propagation
ub e
Y m
2 30
Ġte lah
Par am
), {
ce il
Mat erial
Id entifier
equal s
rt l
scroll Left
)} },{
655 35
u x
view port
( \"
h at
8 00
Ġf ound
12 1
bo ot
Read y
key down
Id x
Ġ YYYY
U int
button s
M s
De vice
f lat
en s
W ill
per i
33 3
Lo aded
pri ce
pa gin
37 5
ic al
: .
sibl ing
c re
":" <
._ .
);} },
($ .
E C
P layer
IC omp
TH REE
S pan
Ġs rc
Ġ Math
di ces
PO ST
d l
and ard
s ap
al a
ax ios
. ");
Lim it
Ġp adding
ro me
A GE
] };
no op
Ġh ar
? {
c ision
vi ron
d m
a mount
13 9
' ].
Ġ format
Pop up
IComp onent
C lear
F C
IG HT
r ary
Vide o
Mark er
j u
spe ed
exec ute
D id
Ø§ ÙĦ
+ -
M C
content s
V u
is Required
la s
bl ank
un shift
Vari able
op y
co der
24 0
un ce
S VG
comp ute
__ =__
P ub
ol low
Ġspe c
v ance
Ġ 27
wa re
il er
group s
$/ ,
V l
13 6
cry p
=[ {
De lay
ST R
)} }}
state Node
Dis patch
M er
message s
B C
y t
Pro xy
reg ion
Ã ³
sha red
tic le
à °
N G
f fix
Ġpro perty
Ã ¤
âĢ ĭ
15 6
Iter ator
Ġ required
ne g
A W
Ġ check
De stroy
C e
ren a
Ġ 50
ĠT he
w p
L n
oooo oooo
J s
mi tive
ab ility
]= [
get PrototypeOf
a it
Ñ ĭ
34 5
acti vate
D F
)}} },
pi x
=[ '
UR IComponent
. "+
ul er
mo bile
; -
B tn
pro duction
Ù ī
S ave
next Sibling
V t
ver s
Pro duct
q M
v en
m ut
A TION
;} };
N ya
Nav ig
d C
Ġon ly
R h
b lob
), _
à ¨
edit able
pa use
? |
re l
Descrip tion
Ser ies
v isibility
Ġ ra
O D
Ed ge
pre cate
Ġ pre
O M
ON E
j query
B R
Bind ing
sing le
strict Equal
p ing
x ff
h s
Ac count
std lib
con firm
M ut
] }}
P ay
Ġo ver
TR I
() ||
P adding
G G
Ġi mage
"," ","
Ġ 35
)}, _
Ġ ng
Bound s
C ate
. ',
Ġ --
x a
æ Ī
ca ched
fla g
In ner
)) :(
Ġ ui
p latform
Ġb lock
O K
F in
] )){
f ul
B h
By tes
2 15
18 4
Trans action
Ġhand le
Sh adow
":" #
th ing
Ġ context
16 7
ic ro
trans parent
Co re
allow ed
ne cted
ä ½
â ĸ
={ }
13 7
man ager
Ġini tial
18 5
q t
ãĢ Ĥ
En ti
Li ke
re po
M z
To ggle
æ ĺ
all back
A j
å Ĭ
user Agent
d p
() ?
Back ground
Client Rect
J y
ing le
h is
C annot
:" +
comp ile
ex it
- \\
bound s
no te
Ñ ĩ
coun try
à ²
Full Year
(' @
set PrototypeOf
yn tax
Ġf lex
Ġ view
E lem
Ex ception
P P
F O
)} }),
[ ]
de scriptor
get Item
in voke
Action s
m iddle
er a
Do main
b ad
, }
Un defined
& #
ro ugh
] ]=
Ex pe
TO OL
00 1
;} });
quo te
"," $
N C
mouse down
") [
Un i
ro ke
nav bar
list en
la zy
S he
Ðµ Ð½
cb l
m en
We ight
tr ation
99 9
cro ss
16 8
page Y
H O
M is
Ġ up
path name
x F
AT H
qu ence
id s
et ween
z ip
De tails
)) &&
Lang uage
getElementsBy TagName
Ġr un
Ġ one
D ATA
Drop down
w heel
de g
00000000 00000000
use State
Ġ à¤
B g
Mul ti
mer a
modifi ers
a ma
u la
IN T
U i
fe ature
17 0
b ra
act ual
M ask
sc ene
option al
que s
F ill
dir name
no tation
mode ls
P ER
" ./
O i
r up
? \
re pos
Ġ parse
Ġ str
h p
24 8
I i
IG N
al tern
ang an
Inter face
expan ded
Se ction
Se ssion
' }}
viron ment
dic ator
filter s
Ġb ut
à¯ į
scroll bar
as m
dition al
clu de
on y
ac y
page X
ho me
Ġ undefined
13 4
rt ual
AB Q
32 32
Ġ Me
b t
ur al
Ġ parent
"+ (
Ver tex
ifi er
Ġ char
tin ation
Bl ur
In st
by tes
C trl
H I
Ġ ata
Ġ typeof
O w
St ar
Ġr ight
,[ {
b in
Ġ first
h ook
swi per
13 2
Component s
ffff ffff
route s
An im
} ",
13 1
a z
4 29
15 9
fin al
n var
d ent
it ter
") +
N et
Ġau to
se s
Î ±
Ob server
/ (
Ġc alled
UR I
Fn s
fo und
} },"
co ordinates
Ġe lem
Z h
13 8
-- ){
S i
X X
30 4
l on
i an
(" [
($ (
ul p
:/ \
;} ;}
Comp o
Ġ offset
] )},
Ġd ate
ut ure
` ;
S Y
al ance
P ack
sy stem
F oo
L ines
She et
Ab stract
side bar
m id
a ti
! ="
Ch unk
Error s
Ġto ken
H istory
15 2
ill ise
sq rt
whi ch
O pacity
a ting
E LE
__ ){
lu g
def erred
late d
c md
av asc
( ()=>
b ul
Ru les
Ġ page
pix el
st or
pol y
Pass word
re ader
ter min
te ct
N g
17 6
down load
18 8
37 4
memoized State
Z n
ti ces
st o
] +"
m n
Pro ject
re store
D istance
Ġ String
input s
Ġ size
a G
(? :[
) )}}
O iB
sh ip
p in
on Mouse
g ICAg
={ '
Change s
s core
å ·
re lease
||{ },
ĠĠĠĠĠĠĠĠĠĠĠĠĠĠĠĠ ĠĠĠĠĠĠĠ
c id
Ob servable
17 590
C opy
Over lay
( )}}
pe ar
redential s
To String
( ","
W R
) ]),
Q t
d ra
u do
EV ENT
Ġ app
2 34
time stamp
14 8
AA U
} )(
\\ \\
L ib
> '+'
B D
F r
Emit ter
Ġw ork
2 28
B Y
valid ator
CO L
v id
20 8
; "
g ments
avasc ript
= \'
)) &&(
' };
Ġ 33
hand lers
Sh ader
Ġf ind
44 8
Ġa ss
ph one
cap tion
dd dd
for mation
Par ameter
16 3
ST ATE
I A
=" /
U s
tri es
:" _
AN D
x c
Ġ );\
L X
D ash
(_ .
Ġ}, \
Const ants
Fi ber
local Storage
Ġ query
LI ST
Ġ ×
Ø ©
C L
way s
Comp uted
Ġ 29
i led
14 7
s qu
R p
H ide
14 3
Exp r
14 5
H over
boot strap
cf g
E mail
resh old
32 7
Ġm er
data set
+" -
d n
TI P
value Of
c x
Com mon
20 5
Ġ expected
Ġw rap
inher its
Ġ*/ \
é Ģ
]= (
Ġ used
cook ie
pagin ation
1212 1212
get Bounding
Ġn on
J v
cd Fx
li ve
à §
);} ;}
Ġ form
Result s
Ġ 34
[ (
a X
3 64
E T
g reen
g ba
)+ (
l in
Ġ child
Ð ¿
z Index
un der
"] },"
:{ '
net work
20 6
Q k
9 00
key word
á º
Cap ture
coun ter
P H
In Progress
ĠH H
par tial
ste ad
re port
An chor
B L
13 3
S iz
15 7
Ġp ri
2 35
_ "+
P RE
LF xu
precate d
Module s
ve ctor
âĶ Ģ
S D
20 4
Ġka rena
ic y
get Data
2 16
ate gy
l b
([ ^
Ex ec
Ro le
Ġdo es
å Ń
()} ;
al f
ĠT H
, };
A X
directive s
Ġ Set
con tact
Me mber
] ;}}
ter m
Ñģ ÑĤ
VAL UE
C LA
cm V
de p
Le ave
(){ $
B r
M u
25 4
Ġb utton
t b
) ();
A i
la sh
or ig
)," ./
B i
]= !
Im mediate
") &&(
Ġa yat
AR T
Ġn one
' {
x f
+' /
G ame
In sert
ĠM ap
Pro file
," \
an es
)), (
: ()=>
let ter
C F
è ¿
ex ternal
\\ \"
tip le
Animation Frame
pro vider
Mo ck
Ġ 36
2 19
! =(
d anger
Ti le
20 9
Ġf il
rep ly
S el
** **
LA G
H as
à ¶
Ġ argument
spe ct
Pla in
c z
Î ¿
Ġ option
") ])
Î µ
c N
g uid
T er
==== ====
Ġc enter
15 8
op s
Ġs olid
æ ķ
Ġ last
Al pha
17 9
TI VE
14 9
40 4
R v
', (
j t
Ġf ill
Ġse ba
Label s
dir ty
V is
s ue
= `
global s
ch at
2 38
ac cept
de tach
H idden
Run time
SI ON
st ats
navig ation
W rite
getOwnProperty Descriptor
Dire ctive
Ġf loat
Ġ props
oper ation
re direct
Argument s
component Will
Ñ ĸ
Ã ¼
fr ont
it ude
(' [
) ',
line ar
å ľ
Ġ URL
ad ing
2 39
! ='
2 27
16 5
17 8
Ġs o
V o
us p
2 18
ction s
ke t
=\" #!/
)? "
Expe cted
Ã ł
Ġ row
l n
V I
g raphi
20 17
2 26
(?: \
( ++
By te
) >=
ca mera
2 32
C al
Ċ ĉĉ
log o
) %
Ex ports
29 6
const ants
å Ľ
en c
&& ("
for ward
e red
() );}
frame s
move To
ex ample
M argin
à¸ ²
pa re
Lo gin
s r
() )},
Âł Âł
Ġc or
Oper ation
19 1
({ "
clar ation
\", \
` );
20 1
ĠTH REE
remove Attribute
j avascript
st able
16 9
Ġc l
Date Time
Ġ args
spa cing
) >>
k nown
as a
j adi
_ \
Ġ ab
per form
17 7
)} ).
'], '
") ).
Re ference
w hen
/ ></
à ·
at u
inher it
c ut
m or
Cl one
M g
Pre vent
Del ta
":[ ],"
offset Width
x D
'],[' ../
t l
Ġb tn
Z V
Ac ti
C TION
x p
(" :
Ġre g
"} ],"
" [
second ary
t u
QU E
ir ror
() (),
e mbed
MO DE
ck e
19 4
ext ensions
Gener ator
Check ed
+" /
P ers
dis pose
event Name
B inary
path s
14 6
gor ies
re siz
un ted
] <<
Se gment
_ ,
d id
2 25
yi eld
Y ou
E A
' );}}
ho to
j ustify
Col lapse
Off ense
ent s
resolve d
2 10
ap er
y b
l z
);} ).
Lo c
[" \
cur rency
aa aa
mo ji
ĠØ ¨
A bs
map s
F t
ha ve
Ġvalue s
F LAG
20 3
24 5
], {
tri b
', \
15 4
] ],[
16 6
à¤ ¾
Ġ field
z A
U U
car ousel
å °
7 00
multip ly
y pe
Tr igger
Ġ tag
" \
17 5
byte Length
14 2
Ġ2 3
' ]);
14 1
},{" ./
Char Code
t cbiAg
Ġ ar
. ";
Ġr gba
K C
b lack
h ot
N on
2 33
sp y
getBounding ClientRect
Ġ change
e le
ra m
37 3
Sn apshot
to H
18 9
Re ader
pi ck
pre dicate
up per
TOOL TIP
De bug
M ain
update d
Sta tic
Ġ show
data Type
f amily
}; \
Ġmen y
S ched
s oft
ì Ŀ
Ð° Ð½
State ment
() [
P ress
; ","
AR R
und le
AC T
id entifier
B J
N i
', [
":" â
20 15
l ng
A mount
am i
20 7
S ER
Y n
M IN
Ġ root
M AP
] },{"
66 7
Ä ±
ad o
bind ing
re ason
Ġn ormal
g ulp
look up
u uid
Ġf n
Ġ prop
2 29
10 24
set Value
n function
) $/
G V
qui res
des ign
âĶĢ âĶĢ
define Properties
D ATE
Ġ transform
chart s
Ø Ń
pri ority
gener ator
HE AP
* \
S pa
30 8
n arrow
:" \\
calc ulate
De pth
28 8
G o
Ct or
ver ify
15 5
R C
g ray
2 36
const ant
Ġin ter
A RE
m g
Su per
f un
Enti ty
u an
parent s
vis it
pop over
P t
match ed
language s
Ġ sh
Ġ/ >
2 11
E ng
je cted
ren dered
J h
ex tract
s ol
O W
Ġkam u
M ix
st ri
x d
], '
æľ Ī
H orizontal
pro gram
), '
re lated
22 2
ĠM a
l int
; </
() )}
Au dio
D b
"," -
mouse up
T P
H Q
16 4
"/ ><
C or
penden cy
W orld
Ġ =>
offset Height
oog le
U t
b en
b ub
st ub
Po ol
Ġ else
C y
à¤ °
P UT
20 20
Me sh
} ):
LE D
Hand lers
Ref lect
u ff
()} ),
å ¼
li cate
Spe ed
17 4
d ig
Le g
an dom
t ween
Callback s
dragg able
S O
A e
] )?
r r
20 2
R ate
Ġman u
× Ļ
M v
A O
d H
Color s
link s
Def inition
Z C
ser ve
Ġt able
= ((
(), "
k r
lib rary
A h
C lo
pre pend
av atar
V xu
=== !
Ġ load
Car tesian
ad just
18 7
jo b
se gment
g h
pa ir
{ ...
SI ZE
Fa ctor
t xt
Ġ label
18 6
Ext ension
LE TE
Ra w
C alled
Q L
XC J
S vg
Tool bar
è ¡
Ø ¬
Cate gory
di an
C AC
',' #
current Target
di a
Ġ operator
me asure
,- .
;} },
Lo ck
u A
Ġ log
Reg ion
4 28
(" ^
V node
ob server
Pri ce
Ġ 38
close d
h elp
decor ate
/ ${
foc used
Ġ 39
25 2
z h
on es
Ġ\ '
Ġs ign
Ġin stead
u mp
)> -
in v
$ ('.
]) &&
k b
b ab
ELE MENT
ĠN abi
(` ${
K G
t ap
C b
qu ot
altern ate
Ġ 37
I P
A o
des tination
Ġ ref
P res
un bind
Ġm ul
Ø ´
expi rationTime
Sw itch
scope d
x v
c ls
Ġ ap
Ġl ink
con dition
b old
Ġ keys
w orld
S rc
) <<
ARR AY
Ġbo dy
Ġ old
f ab
lay ers
mp t
cl js
CLA SS
Default s
velo per
Ġp ada
Prevent ed
expan do
to Array
U V
å ¹
ss ible
eng ine
dyn amic
m all
S end
"} ],
const ra
B reak
al s
//// ////
w B
style d
ext ension
re mote
Render Fns
ç »
Ġ Is
r ate
Ass ign
Ġ select
oo d
Å į
] ));
is Def
r x
, ...
cur ity
19 8
Ġd apat
] ];
c rea
cell s
Z H
Warn ing
)} ))}
g B
Object s
> ","
D iff
vi ded
sched ule
let te
Y i
R i
19 6
in teger
[ $
C ook
Ġ column
up licate
* /
ai k
> .
CO DE
ut ter
User s
Ġ ada
L at
back drop
Ċ ĠĠĠĠĠĠĠĠĠĠĠĠĠĠĠ
valid ation
6 27
Ġmo re
v olume
"/ ></
&&( !
F amily
pla in
Ġ We
d Array
Hour s
Group s
i ting
2 37
ä ¹
line To
lend ar
in al
Navig ation
ba h
Se conds
High light
do jo
constru ct
medi um
su bject
W ord
ready State
1010 1010
fl ush
Whi te
Ġ console
F ound
D t
() ===
Ġ expression
ce d
F ailed
F A
> ',
t or
u ate
)/ ,
7 68
Ġmanu sia
get Date
Ver tical
Ġa fter
Q AA
com ments
l and
tit ude
SE LE
15 3
-------- --------
Ġb ag
v r
get All
g ICAgICAgICAgICAg
Ġ ÙĦ
g reg
é ĩ
Ġan y
" ],[[
Con stra
ar m
Im g
V k
fin ity
17 3
b ed
S trict
from CharCode
ch a
__ ,__
m r
Ï Ħ
,,,, ,,,,
06 2
(' _
__ );
Ġ Ñģ
de cimal
an ner
Ġ process
]) [
F AI
de mo
Ġme m
J t
callback s
M ar
to Fixed
24 9
Plain Object
S um
å ±
Ġdi re
n n
y s
dd d
cur ve
deep Equal
remove Attr
f it
hl js
({ '
Ġg lobal
Fa il
def inition
hour s
ma y
," _
char acter
effect s
p df
b atch
n c
is In
H g
se parator
Ġ Number
Fla g
",{ "
Z l
set ting
touch es
Ġus ing
ceive d
Z t
+' </
è ®
original Event
havi or
Ã º
ti s
24 6
outer Height
30 6
on load
Foo ter
Do uble
ZX J
status Code
Ġ version
24 4
ag raph
TI ME
C am
æ ²
s lots
W F
get Computed
B w
u v
U L
ce i
-- ;)
So cket
+" </
is o
( ...
ĠĠĠĠĠĠĠĠĠĠĠĠĠĠĠĠ Ġ
head ing
b ig
G r
P ending
sup ported
] ==
p ull
"> '+
> )}
.$ .
lic it
Ġme mber
n pm
"] );
iter al
var s
or th
44 4
pub lish
con f
Ad apter
20 16
Fa ce
Er r
fe atures
offset s
if est
component Did
q r
ro l
ori entation
ar an
ï¿½ï¿½ï¿½ï¿½ï¿½ï¿½ï¿½ï¿½ ï¿½ï¿½ï¿½ï¿½ï¿½ï¿½ï¿½ï¿½
bo unce
Ġf e
Con tact
el lo
C S
× ķ
g radient
AL L
main ing
key board
te am
f old
Ġ params
20 18
"] ),
)} };
effect Tag
sw al
Ġ define
u th
Ġe mpty
B I
b id
n el
Cli p
r n
([ \
D R
mouse move
2 99
ct ure
a w
P ag
ren ces
zi er
:' <
imp le
Ã ¶
get FullYear
26 0
e mp
F u
bu il
Ġ. ..
Ġma ke
ri ver
P C
Op ts
tra ce
M t
'), '
H i
Un known
+" '
> ,
w here
32 8
r d
is Open
Ø§ ÙĨ
2 12
30 7
Ġme mp
ci p
Î ¹
Ġ Component
k n
}, '
Ġ temp
Ġ ").
?" ":
D at
Ġ expand
get Current
create Text
member s
â µ
user Id
ð Ŀ
u f
Ex pi
if ic
read able
19 5
/ **
cal led
N UM
"> \
cre ment
Z a
Ġ ë
st age
Sl ider
} (),
Co ord
ke ep
=" [
T ri
N A
k l
comp ress
M apping
l ision
7 48
> ';
D Y
Ġ html
> /
B v
support s
16 1
inst all
, ,"
15 1
Per cent
' m
un do
SI TION
Ġ div
sn ap
N y
Valid ation
G R
Ġ Ùģ
g ui
å º
Ġsu per
g ly
um bn
Ġa g
TR AN
super Class
Message s
h n
19 7
Constra int
=' <
D T
Ġf unc
next Tick
new Value
ann ya
umbn ail
fli p
E L
Ø °
> ",
22 3
(? !
:/ ^
l igh
one Of
Ġ ',
Ġ align
to JSON
B ook
Ġser ver
24 7
B F
fa ces
=' +
Ca lendar
av ailable
time s
z s
Def erred
B atch
tw itter
p Z
2 17
J i
sp rite
E F
time line
Ġs cale
top ic
Pre vious
Ġ ÙĬ
/ @
In to
Ġ lo
C ls
encode URIComponent
IT Y
in side
D S
Re set
ĠĠĠĠĠĠĠĠĠĠĠĠĠĠĠĠ ĠĠĠĠĠĠĠĠĠĠĠ
Ġad alah
Ġcli ent
30 9
second s
Place holder
la p
__ ("
Ġimp ort
che me
Pol ygon
or ting
Mo re
Mo bile
D a
un its
L P
," $
Ad min
E e
il ing
CE SS
get Parent
Ġo leh
Attr s
getOwnProperty Symbols
command s
ar c
ta h
ans w
AN G
;} );}
service s
Ã §
len t
[ ]+
29 5
pol ate
20 19
à¥ į
:" -
Ġm ark
L ong
is String
] ||"
/ +
{ }
)( ?:
2 13
p ly
- '+
outer Width
X F
Ġr ange
Ġ 44
G AA
f uture
unk nown
f g
Ġ jQuery
si mple
. ":"
Ġ4 2
S hi
Z v
H y
NO T
AT OR
} ))}
Ġ" '+
ad ap
Ð ±
De ep
u DE
){ !
f p
ĠÐ ¿
/ =
Ġin it
à µ
end or
Ġa ga
ĠA pp
is m
Ġ output
Ġi con
à «
y o
illise conds
Ġm at
wrap ped
ch rome
iter able
Event Emitter
en sor
ĠT his
start Time
Ġf etch
ma g
Mer ge
se ed
p u
get Month
c mp
35 0
57 6
; --
get UTC
Al low
Ow ner
Pri ority
æ ł
in ce
à¸ Ļ
Ġg ener
max Width
full screen
s ur
in ya
} ))
I DE
) ((
Ass ert
w c
(); \
yn amic
S cal
Ġsup ported
de pendencies
ques tion
H ex
STR ING
ICAgICAg ICB
J j
pre pare
n y
return s
AF AAU
Tr ue
Pub lic
Content s
f ri
al k
64 0
US ER
Lay ers
Red uc
O UT
Button s
pre cision
å Ĩ
Ð ³
Ï ģ
DE LETE
) ];
() *
li ze
]) &&(
Ġ ro
Y g
-- )
G u
ex ists
sin on
(' ../../
VAL ID
or ter
':' \
D C
k k
x b
default Props
ĠW M
r f
Ġ No
Ð¾Ð ²
'); },
p hi
}/ ></
á Ł
B ig
ver tices
Ġth an
, \"
Ġ selected
0 12
F z
po t
un ded
Ġ defined
n it
V j
== (
âĢ Ļ
Ġ he
ith er
} "
ats by
33 6
is sue
}); \
file Name
create Class
cei ver
) );};
c ting
el li
Y S
tick y
Z ero
template s
Ñ Ī
w y
ma ster
' <
se q
=/ \
P U
sum mary
On ce
me sh
dispatch Event
K F
Ref resh
o i
Sa fe
C R
Coun ter
Eng ine
?! ./
toggle Class
se ct
De tail
O k
o a
Re st
b X
19 3
Ġ err
] });
tab Index
H ome
27 8
F k
Ġl ang
Name space
B its
ba sic
A k
Sc ene
Net work
C r
) &
C N
RO W
m ad
pl us
Ġ RE
25 7
. ');}
25 9
Con trols
=' #
pa st
pol ygon
18 3
tra it
30 5
Ġa x
Ġin valid
Ġs p
de ps
Ġ 45
th umb
Ġin st
cor ner
"> {
sha re
margin Top
AD D
ran k
], !
an ch
(){ };
tri cs
Pre v
' :['
def er
," "],
æ Ŀ
fa ke
() ):
ri c
y m
mo re
g c
remove Listener
25 3
To Array
è ¾
Ġa ction
un stable
25 8
ath er
bu ilder
Ġal ready
cry pt
Ġt ab
Ġ throw
source s
the ad
Å ¡
Valid ator
Ġ"), _
Ġbe fore
static RenderFns
h d
"," +
A m
] ],["
I o
f older
Ġ order
' \
Ñ ħ
]|| {
Str ategy
margin Left
Ġ exp
Fla gs
16 2
Ro tation
T a
E Q
ST ART
&& _
" )}}
over ride
Pol y
pe t
In line
L INE
Pro gram
c ret
Fil ters
L ng
on s
sk in
con nected
Ġitem s
- %
B t
ari ty
p ret
)|| "
Ġn ow
al ways
( \\
| [
I R
on Error
i ca
f u
Y e
St ats
ut or
U Int
te cted
in a
^^ ^^
) !=
pi e
mission s
"] ],
FOR M
s lug
T W
loader s
oriz ation
Ġde lete
Call Check
36 8
in Array
c lock
di tions
un used
Block s
} ){
months Short
b S
velo p
b inary
o Settings
Ġ 80
Mis sing
er ies
17 2
internal s
Y y
F s
ri ber
AAAAAAAAAAAAAAAA AAAAAAAAAAAAAAAA
Token s
U r
,_ (
Transition End
F ire
char s
ĠC K
ka h
()} },
Ġhas n
min ute
ct ual
Ġo ther
W atch
35 7
re load
33 0
get Selection
toH ave
ari es
siz ing
Ġ com
f y
neg ative
Ci rcle
le e
De cor
un ch
4 50
V ud
Tr ansport
27 0
ä¸ Ģ
class CallCheck
Al ert
26 5
it a
Ðµ ÑĢ
Ġ 96
g ges
J n
é Ļ
} ();
Pre view
[ [
al let
]) /
68 8
æ ī
co ords
Ġp r
);}} );}
Cur ve
fe ed
B N
I e
, });
ar ator
M AA
x n
A y
32 9
Ġ 60
Ġ 47
Min utes
U ri
Ġc ustom
Ġ len
in dices
Q R
co me
* !
E t
am d
br anch
å ¯
Ð° ÑĢ
n umeric
% ",
Pa ir
z ero
ne eds
Con tain
Ġc annot
is PlainObject
Imp ort
); (
Ġwhi ch
o se
end point
}), "
c g
C RE
dat abase
Imp l
collapse d
client X
getComputed Style
respon sive
vi rtual
Ġ exports
v nd
ta ke
view Box
k h
mon y
FF ER
ro ad
host name
çĶ ¨
I l
in f
T S
27 9
30 3
get Text
d en
b its
ad apter
clo ud
Scroll bar
Ġst a
Z p
S ingle
N r
Ġ children
dG lv
:[ ]}
. "),
}/ ><
}} }}
z o
LA Y
Tool s
and id
+ ",
: ",
Ġb rowser
36 5
bG L
F older
L iteral
date time
20 14
wi ki
CO MM
Work er
Ġm y
No tification
Exp and
ci rc
st re
tw o
mis s
17 1
T AG
h u
In finity
T ween
×ķ ×
Edit able
sa mple
uni code
En um
mer id
Q i
Ġsc roll
> &
sp inner
ordin al
ag ent
Ġe s
De claration
UN D
x i
Ġexpand able
,[ ],"
ie m
custom izer
] \\
S W
S qu
Method s
ĠØ ¹
Ġa v
} )=>{
Ġata u
Q o
Over flow
tri c
24 3
') [
key up
Ġma y
decor ators
Sel f
constra int
I M
Day s
)|| !
04 30
Ġcon tain
es lint
m k
)} .
ut c
8 64
f as
is ed
an aly
AN GE
hi r
el ls
s v
Z T
] }),
b k
js comp
Ġ case
Ġd ay
Part s
er ve
b H
Match es
then tic
=' #!/
LO G
g it
ame l
34 4
$/ .
Ġ !==
b at
28 0
Ġn av
O e
before Each
graph y
lar ge
N t
:' +
ir d
-- ;
n l
$ (".
up le
-- ,
I p
Z y
]; \
tick s
R y
el low
Ġ qu
st rip
} >{
b re
v ing
ä ¼
){ },
/ "+
li ed
QU nit
ani ti
(' +
Ġ$ .
ce l
ine ss
Ð° ÑĤ
AFAAU ABQ
Ġ Function
26 8
18 1
add Listener
n th
; !
', },{
Ġm on
work InProgress
fi xt
N one
struct ure
g ai
P M
tab index
uD C
&&! (
En v
Bu ild
35 2
) ==='
24 2
pa ste
18 2
J e
ne ed
Ġ open
f A
Lo op
> ');
66 6
Ġbu ild
40 1
View port
Û ķ
[" +
Ġla in
Ġm is
P lease
] ',
h ar
Ġf ailed
35 9
} ","
g d
border Color
un gg
get State
ul ator
regex p
pse udo
IH tcbiAg
=" <
B it
B z
able s
Con nect
Ġ ge
gu ard
mon g
!== -
Page s
3 12
Ch ain
ser ted
min utes
col s
Ð ·
æ ±
Î ½
ĠRe f
id entity
n u
26 9
:{ };
Ġ"+ (
icro soft
E val
Ġma ka
as set
," -
b us
", ()=>{
char set
B s
Ct x
[ ];
Cam era
ab c
q e
Sh ift
B ER
Cook ie
uD D
Ġ main
CON T
Ġfil ter
Ġpar ameter
B lob
" );}}
D ig
Ġcor rect
fil tered
Ġc ap
S lots
En umerable
Time line
A a
' ):
35 5
K i
Month s
P R
uh an
i kan
j ava
(){ _
v ation
Q s
Ù ĭ
Regis try
Y T
fi ce
css Text
an ima
Es cape
XHR cdFx
] );}}
finish ed
q a
Ġ try
s at
c v
Z e
48 0
Ä į
] },"
Path s
Ġx ml
St andard
áĥ Ĳ
50 9
json p
fil led
U e
ub ic
in te
Pri mitive
9999 9999
)/ (
4 68
++ ;}
no tification
+' )
L G
min Width
n v
æĹ ¥
k y
k ata
Ġ group
w as
on error
Ġt sd
po ol
Ġp en
Dim ensions
ens ure
$ _
ĠD is
4 69
ed ges
] )),
D ot
29 0
34 0
active Element
object s
p tr
h an
WR AP
je st
sec ret
':{ '
áĥ ĺ
cbiAg ICAgICAgICAgICAg
z en
N U
g x
Com mit
TEXT URE
ad ded
Ġ arr
R pb
Ser ial
ph ase
s ql
49 6
Ġ JSON
j an
V S
â ķ
Check box
start sWith
à¸² à¸
Ġ count
))} },
Spa cing
r m
å ĩ
T ex
Se cond
is Buffer
_ [
ctrl Key
B ub
it ory
ev en
32 6
tr ansport
Un iform
Ñ Ĩ
con ver
si tive
65 6
match er
offset Parent
ĠCK EDITOR
ta ched
22 1
Ġ 255
23 1
iv en
po graphy
AAAA A
b log
a wa
+" .
J u
Key Down
Ph one
Ġ post
w x
At tach
Ġmen jadi
Ġ 31
E P
vi e
\/ \/
sign ature
Ġc lear
) "
variable s
Ġse arch
í ķ
N h
45 6
% ,
VER SION
pro vide
\ -
With out
Ġd at
ini tions
sd k
Y t
Http Request
Char acter
28 6
O C
Q C
U G
)) ||
amp les
Ø ®
Ġ ID
26 7
] >
)* (
ĠF loat
to ast
vid ers
æ µ
ST AT
sc ss
27 7
mod ified
Reduc er
wr iter
ap pear
;} ).
le tion
] ==='
LO CK
Í ı
lu ster
im an
IN TER
37 8
touch start
Ġ cache
Ġw arn
s olid
L t
f allback
e very
æ Ń
g C
D IS
ordin ate
Ti p
}/ >
37 0
4 64
Ġ mode
ICAg IH
iv u
28 9
e moji
3 99
let on
Ġhar mony
29 7
? .
Ġ translate
S py
Íı Íı
+ =(
v b
Ġ du
per son
R t
f lu
à ¼
d k
() '],['../
Ġ Range
L CB
Log ger
l c
p n
[^ \
Dir ty
Ġa ctive
) ]=
U SE
Q e
g ing
inter face
a ws
get Name
38 8
34 8
36 9
cor rect
:" ðŁ
S lot
ä¸ Ń
local s
33 8
å ¾
h it
ak Map
cate gories
cryp to
L l
"/ >
I O
tr an
client Width
Ġ Ð½
è ĩ
(' \
package s
code d
oooooooo oooooooo
L Y
ater n
squ are
Ġst ore
El m
is Active
C ells
"} },"
',' ðŁ
al an
and roid
ĠM us
æ ³
T wo
)&& "
Ġspec ified
{ \
] &
Pan e
Ġ container
Ġresult s
29 8
script en
Ġ cell
Q E
state s
F l
mi me
n X
en cy
28 7
" );});
do uble
il la
Sup ported
ç Ľ
06 27
Ġa k
Un its
Ex port
In dent
Ø ²
> (
co v
g atsby
Head ing
ifi cation
Re place
client Height
Ġbo x
Trans late
Ġw rite
Ġ role
O t
A ST
SELE CT
", },
S K
line Width
o st
Ġp i
33 4
mouse over
/ \
Ġs ome
34 9
@@ @@
26 6
ad vance
40 8
sc al
(( (
di on
40 5
ZG V
IC A
p g
ne sted
60 9
" ../
O O
| (
å ½
,[ [
() &&(
S ur
Ġor igin
scroll To
target s
ĠÐ ²
29 1
Se quence
this Arg
Sp lit
D one
36 7
20 13
End point
60 8
LO AD
{ $
client Y
à¸ Ń
// #
Ġin t
el i
Set ting
S lice
pre ad
A z
bu ff
Ġ apa
U B
ase s
K AA
Th row
atern ion
Be gin
à¹ Ī
P ORT
s ist
imp l
Read able
task s
{ -
34 7
I B
Pri vate
AAAA AA
Ġ resolve
Ġ ");
P ATH
x C
We bGL
' )?
St roke
38 9
Key board
merid iem
}} (
n ed
Date Format
æķ °
33 9
Ġe ither
Trans fer
su me
);} );};
Mod ified
fa st
29 4
Ex it
dash board
{ _
get Child
relative Time
Ġc lose
x link
q s
get ter
Z SB
S imple
range s
ra in
28 5
ĠØ ª
p en
W t
} >
Ġst atus
instance of
; &
cor dion
)), "
' );};
ä ¿
De legate
cbl x
read only
a red
response Text
=$ ('#
ang kan
ui te
38 5
50 5
l k
37 6
;}, _
Or g
DO WN
){ $.
is Default
Ġ' "+
Sp rite
root Scope
K EN
internal Type
ĠĠĠĠ ĠĠ
Array Buffer
ob serve
Ġ http
80 8
M d
F j
Ba sic
39 7
"] ').
ma c
on d
( ",
tifi cations
u FF
long itude
ĠA n
Ġpro mise
.. ..
] <
R andom
ãģ ®
Ġto ol
={ }),
Ã £
free ze
res ume
Ġ ==
al u
37 9
Ġpar a
] ._
weekdays Short
}/ {
30 1
Ġf s
mix ins
è ´
P latform
3 15
i od
ra tio
Str u
mo oth
=[ ]
related Target
Ġ 56
am mad
Pag in
se p
æ Ķ
r ing
t ur
o id
File Sync
A bo
ç ī
ab out
":" +
COL OR
", _
p ur
perform ance
ungg uh
IN DE
Ġ 00
Ġ model
Ġ https
S tri
De v
Z M
i ps
sc r
pe ct
form s
normal ized
Full screen
Render ing
G t
ire ct
is Re
25 1
= \
Helper s
er al
)); },
W a
use Effect
(" @
M ay
Ġin her
' ></
ex isting
Ġreg is
oper ations
vo ice
50 4
h b
Ġ Ch
Ġm end
con tract
weekdays Min
av ing
); __
O F
35 8
();} };
Ġn um
la titude
fla sh
act ers
X e
es m
ver age
=== -
p id
o v
em scripten
Ġ Con
LE N
":" /
sw ap
Equal s
; \\
F etch
% =
Ġ à®
test s
c art
resiz able
d z
Ġ Data
p hoto
68 6
Pack age
select All
En coding
) ({},
/ '+
String s
Ġsta tic
par s
æ ĭ
ç §
add r
r b
isF inite
eval uate
Ġ/ *
Exp an
__ ,
K T
| $
},{ }],
Ġ Î
Fe atures
D A
){ }}
P X
R IGHT
velo city
o ci
1 0000
redu x
sort able
e g
> ";
b ut
] :[
Ð ¹
Ð¸ Ð½
uh ammad
AF E
}}, [
ca de
Config uration
ex ist
N umeric
late st
D Q
f m
Aj ax
In dicator
l is
ag ram
))} ;
selector s
N ow
mix in
30 2
Update s
m apping
get Node
per ti
B S
Ġa ccess
B ad
() /
7 45
pa lette
update Queue
ĠI f
ar ticle
G en
Ġcli ck
Ġsu ccess
day Of
ste ps
vis ion
peri od
imp lement
], \
Ġ vi
||[ ],
) );}}
selected Index
Ġo pacity
Ġm x
A li
Ġ ,
Q n
compo sition
answ er
Format ter
mul ate
n ight
v ated
B X
Ġ point
35 4
swi pe
co ord
(" -
s ti
__ ,"
Resource s
be zier
') +'
auto complete
createText Node
D ynamic
33 7
K a
ur o
Û Ĺ
"," .
Ġc la
HT TP
Ã ¥
En tries
= ({
oc used
Co ords
font Weight
od d
Ï ĥ
Po sitions
block s
local host
native Event
00 8
Ċ ĠĠĠĠĠĠĠĠĠĠĠĠĠ
Ġ Buffer
b as
k in
sub tract
um an
Ġ require
op tim
m c
Ġ api
E CT
. ');
= ${
App lication
j w
E g
mb re
data Source
Ġevent s
format ter
D P
": _
Ġb aik
key words
Update d
= ()=>
40 9
change s
El se
] +=
dat at
C U
Dire ctory
n r
Range s
H older
+=' <
output s
end s
Ġp ol
37 7
M irror
Ġ attribute
IS O
I y
34 6
k w
| \\
:' %
,{ },
FI LE
te ction
Line ar
",[ ["
J a
67 8
LL LL
l an
Ġb ar
gre y
auto play
AR D
enti ties
bit mask
is Number
(){ "
++ ];
may be
": !
B ra
da h
3 13
> ").
rip ple
Ġ template
then ti
content Type
d if
Link s
é Ĺ
V a
emit ter
Ġb ind
su ffix
Mul tiple
li er
, },{
57 8
on click
x A
P ush
Re lative
à¹ Ģ
}, },
)) )}
text Align
Ġs w
p aper
scroll Height
end if
v n
Ġ 256
B G
h ind
l w
55 6
Sup port
s ass
33 5
å Ł
ĠRef lect
z n
v L
=[ ].
27 2
) );});
T abs
P A
mouse leave
Iter ate
b x
Ġ 49
ur se
20 12
OR Y
40 6
|| _
if e
Ġ move
Ġwrap per
f on
Record s
à ³
M n
at om
)) +
200 9
é ¡
50 8
scrip ts
Éµ Éµ
? _
get Context
s ig
){ $(
Scal ar
28 4
âĢ Ŀ
" @
link ed
>'+' <
Code s
IN VALID
]) *
wal let
Ġg o
P y
64 8
usp ense
lastIndex Of
acti vity
le af
Ùĳ Ù°
B T
C redentials
t m
v endor
à¹ Ĵ
G radient
B us
ari o
elem s
pa used
! ./
Q y
Red irect
Ġbag i
De pendency
Image s
remove d
di ct
TO KEN
J U
'); $
B ACK
z r
ex clude
In ject
è¯ ·
IN D
P SB
38 0
uD F
Ġp art
K S
Ġc al
\" );\
ç ½
th read
so und
70 7
Ġe t
( ^
Mix in
+" *
Ġ User
si cs
04 35
Be en
Ġst roke
H a
RG B
b one
e mber
Ġ um
pay ment
3 32
24 1
velop ment
x B
', "
Iterate e
\" >\
is Undefined
b h
p f
))} ),
ë ĭ
44 0
ar ge
Ø§ Ø±
") )}
h int
b les
s yn
ti ce
ren ame
Ġ Int
me mory
]} },
Ġd a
") ],
ili ties
", -
Ġ });\
mo us
(), !
35 6
V olume
ĠS T
U u
fo x
xml ns
sign al
) :[
S yntax
z d
();} );});
function s
×Ļ ×
38 7
Pol icy
Ġhand ler
Se parator
work er
par ameter
ay a
handle Obj
fli ct
ãĥ ¼
ar p
st and
z on
v d
pan e
method Name
yy yy
B UT
+' .
(); $
g m
Tra ce
status Text
ce ssed
æ İ
ca ret
h Y
})( \\
S ho
modifi er
ĠĠĠĠĠĠĠĠĠĠĠĠĠĠĠĠ ĠĠĠĠĠĠĠĠĠĠĠĠĠĠĠ
", '
en queue
Ġ HTML
en o
Ġde l
Ø £
K t
g ap
Ġh ash
memoized Props
acc um
s ender
A ri
Z i
Time s
p d
h alf
);}, _
")} ;
bar s
Ġ_ .
../../ ../
I I
Ġ export
AR Y
List Item
} },{"
P ower
Ġst ream
mouse enter
E M
Ġ Un
ta ck
ca use
w ise
xu ICAgICAgICAgICAg
V n
dim ension
Mo z
Ġ web
:' [
bo se
Ġ{ {
c rop
R F
g al
BU FFER
Ġ ant
max Height
sa mp
48 8
S M
Ġdi r
inter polate
& (
={ };}
An notation
tribu tion
=/^ (?:
T s
T LE
Ġb ound
4 16
39 8
||[ ]).
c wd
=' "+
Ġau th
Ġ header
Ġ aria
scroll er
Qu o
D an
LE FT
cal lee
= .
z er
ser ved
ro ss
Ex act
Ġwhi le
all ery
U o
U m
Ġ âĢ
and box
shift Key
Expi rationTime
26 2
we et
Ġi a
; ','
ä¸ Ĭ
IF wi
INDE X
Ġag ar
Ġ12 8
: \"
La zy
ĉĉ ĉĉ
Ø µ
C luster
)} :
Ġ[ \
Ġs ame
de c
L ON
Al t
def s
') );}
G l
40 3
~ ~
ith m
K SB
00 7
50 7
Ã «
read Only
Request s
RE D
Y o
f z
navig ate
res sed
F low
70 8
(! !
c L
remove Data
Ġ prev
LO B
Ġse g
67 9
destroy ed
save d
")} ),
"] },{
AA C
Ġ fi
N V
," @
Re port
p kg
P in
ZG Vy
K ind
Me asure
, /^
sh ader
( +
à¤ ¿
buil tin
la m
byte Offset
name d
LO W
Con dition
de tect
al th
St ub
un subscribe
J k
AA Q
Su ffix
isDefault Prevented
ph p
thenti cation
AC s
enc il
Ġf ocus
no ta
Th reshold
DE V
\/ \
Ġ trans
Ġli ke
current Time
ex ception
af ari
b el
regis tration
Ġ copy
SC RI
æ ŀ
RT L
border Width
Coun try
w h
34 3
39 5
27 6
38 6
remove All
g if
mo tion
b alance
VV VV
Ð¾ ÑĢ
b undle
00 5
ci on
Sh own
Ġf ull
la tions
11 11
Ġse su
(" :"
j n
D r
o ct
H B
(" $
in tah
State s
mis es
po ssible
module Id
I Q
55 5
Ġ\" ./
percent age
Mut ation
te l
G a
gra de
| [^
}` ,
re maining
TE G
27 4
u o
Con tract
Ġ local
Ġdi a
Ġseba gai
arg v
(' -
40 7
Ġpro vided
ive d
Ġ apply
99 8
ch r
RO M
code s
scroll Parent
Offset s
get Property
Sub sc
88 8
in variant
Ġelement s
qui ck
hand led
In dices
36 6
f ollow
% }.
Ġwith out
s ure
th rough
Ġ validate
64 5
Ġ transition
Mark up
App ly
Ċ ĠĠĠĠĠĠĠĠĠĠĠĠĠĠĠĠĠĠĠ
de limit
3 10
Un til
font Family
B n
ĠU se
Ġstyle s
W S
jq XHR
"," \\
s is
g w
pl an
Fin ish
)} });
anti ty
EN TER
Ġse perti
)) /
se gments
Ġs ave
Man y
Ġ ver
Ġp attern
Radi o
li ke
on Close
d h
or dered
= `${
current Item
is i
M ON
| -
comp iler
Con firm
à¹Ģ à¸
Z D
ur ing
andid ate
Ġd b
64 7
V U
mis sing
T x
last Effect
Ġin to
Ġsource URL
set Item
K y
s ticky
Ùĳ ÙĲ
Ġ pos
config ure
W hen
K o
(/^ \
é ĺ
> "+
} )).
Ġs pan
mouse out
q n
W I
TION S
57 5
;; ;;
é ĥ
Pi pe
R S
)) |
X ml
in dicator
g Y
+" _
f Vxu
W E
use s
De cimal
an notation
44 3
Ġ sel
[ -
Bu ff
X t
à¥ ĩ
inter sect
Ð¾Ð »
Ġser vice
IN PUT
Ġ opts
V Node
âĢ į
O G
set Data
P ref
Ġ 58
se ek
AP P
Ġ To
R n
ke mon
bound ing
pa ren
De pendencies
clear Interval
ad ditional
C UR
4 32
Ac cept
} );};
Ġp ub
4 14
f ra
] !=
Touch es
No te
ed u
Ch at
to day
Ġ Web
29 3
N w
A Z
ensi ty
L anes
Se p
x Axis
Y LE
th umbnail
Read Only
IC K
ÐµÐ ´
project s
Ġse k
op le
st andard
max imum
ts d
tes ting
Ġde precated
57 9
] ^
47 5
E a
+" \
xy z
',' .
Ren dered
Ñ İ
toString Tag
xu ICB
Ġd one
I TE
Rect angle
O l
Ġp lugin
Abstract Component
4 60
=" _
] ;};
":" {
po sitions
39 6
Ġ St
Down load
c amel
w ind
') +
à¹ ī
Sub scription
Ġin fo
([ {
ran ch
gu ild
Ġsup port
Se gments
U l
as ul
y Axis
: %
the tic
26 3
bi h
V w
"}, [_
}) =>
temp t
get Line
Get ter
sy s
+' \
F ind
re lation
), $
39 0
Time stamp
d ater
request AnimationFrame
à¼ ĭ
è §
Menu Item
h one
graphi cs
80 9
To Props
partial s
st ory
J an
Ġ ]
K D
:" .
Ġ pass
Ð¸ ÑĤ
M iddle
S pread
get Default
T w
H Builder
Ġ ()
set Interval
OR E
Ġ async
Place ment
Function s
dir s
99 7
(/ *!
Q c
min imum
Ġa ctual
64 9
ru st
pro mpt
f v
set Style
c js
c pp
Return s
fire base
e th
al le
do ut
+ ":
min i
I j
al lo
__ [
c ti
0 17
l ined
G B
te ch
__ (/*!
id ent
sor ted
state change
B rt
E i
e y
l r
View er
=$ ("#
W ait
AFAAUABQ AFAAUABQ
mer ica
i ana
sub Class
00 4
Or d
r ink
clone Node
G raphi
áĥĲ áĥ
O ri
12121212 12121212
29 2
sub scription
44 7
regis try
[ {
comp arator
data Types
b p
69 6
Ex tra
Ġ Ke
g utter
37 2
ction ary
C M
LL L
HBuilder X
ener ator
3232 3232
Ġp op
CON F
AA A
_ '+
sp b
||[ ];
for med
H N
Def ined
u ting
59 2
ä¸ į
C g
FAI LED
[ ++
Ġ 68
Ġh ari
Mod ifier
3 16
tic les
I u
Ġ_ =
no Assert
mo unted
Ġ doc
Ġm d
60 1
å ĳ
ad s
Ġ24 8
q i
Ġd ddd
47 9
T T
D er
refe rences
} |
th reshold
v h
"; __
ma j
UN S
Ġbu ffer
re quires
p ower
à¤ ¨
3 14
br and
read cr
X R
Json p
æĸ °
"," /
Abs olute
]) ).
64 6
}); },
dragg ing
3 19
x o
p unctuation
Y a
id up
De p
} );});
") ||"
previous Sibling
Bound ary
"); },
() ],
50 6
=' [
Â Ħ
j c
80 7
Index es
Per iod
Ġto tal
39 4
LE NG
æ Ģ
(' "
å ī
Ġme mb
Ġb i
Ġ files
F o
! +
man age
un a
toHave Been
Ġ 55
t z
long DateFormat
(_ ,
UT F
à¹Ĵ à¹Ĵ
do y
sn apshot
80 5
ki an
Ġ ")
add To
ST YLE
co in
[] ]+
45 8
MM MM
bu at
cep ts
Leg end
Ġn a
O FF
white space
W OR
rup al
En vironment
I X
Ġka um
attach Event
Â ĥ
g ICAgICAgICAg
Ðµ ÑĤ
Ġs ur
mark down
Ti m
69 7
se g
f rag
Ð°Ð ²
ĠP lease
D uplicate
K K
SU C
node Value
Ø «
termin ate
in vert
b an
SP ACE
Cal c
-- -
ĠRe ference
Ġ jo
SU B
vis ual
:" "},
R ot
V m
' d
Ġ pointer
nota tions
4 25
Type dArray
4 30
Ġ previous
t un
line Height
An aly
is Null
compo se
59 7
ãĢ ģ
symbol s
87 5
Clo ud
Ġw r
Ġ json
no v
Ï Ģ
58 7
% ;\
next Day
call s
getElementsBy ClassName
leg al
clip board
meta Key
"," _
ch ai
TE N
D g
x z
prop Name
um my
H P
Ġber iman
l tr
v w
BA SE
bad ge
Regis ter
Ġe mail
Ġt ent
gly ph
C n
(" *
> '
b ur
Ġ Co
Ig no
Ġit s
" ))},
CH AR
Comp are
LENG TH
s umer
TE ST
Ex ample
key frames
sy m
G A
O ld
45 7
ac cent
åħ ¥
q b
R m
(" |
N N
47 7
lock ed
G F
u led
) ]
Ġ Ùĥ
Ġ5 12
Ex ternal
æ Ļ
sli ck
[ \\
V h
al loc
Ġ arg
H elp
Oper ator
st s
For ce
') ||
Å ¾
V B
N n
Date picker
> );}
s XG
lic ense
Ġ er
mor ph
I ON
lay ui
o red
ow l
ob servable
V AR
Ġ Text
tim ers
Ġ op
) >>>
date Format
', _
th on
[ ])[
re ceiver
col lision
className s
flat ten
J ul
I a
to do
ur s
ĠY ou
Event Plugin
Ext ent
67 2
Sho uld
Ġ 57
MP TY
x h
B LOCK
select able
Ge o
si lent
ï ¸
Ġpro ject
Ġs amp
LT S
'; \
b etween
++ ],
G LOB
r ad
Ġb reak
Ġ letter
f ar
,[ -
Ġe ase
3 24
Av ailable
Regis tration
s aniti
, ","
Route s
sp read
un ia
00 9
FI X
ony mous
à® ¿
77 8
R oom
Ġav ailable
po lation
s ul
"), (
\ ":[
mi kian
ous ly
min Height
Is Enumerable
FB R
TI TLE
que lize
Ġ selector
") (
5 24
N s
Ġb en
Ġst ack
Ù ĵ
componentDid Mount
z c
set Request
instance s
Ġs y
view er
I L
32 1
sh op
={} ){
M ATH
3 000
k ing
Ġ"+ "
45 9
59 8
fa iled
=$ ('<
ng content
expi res
v l
Q B
X P
get ah
39 2
Ġc b
AB AA
AN CE
) \\
U J
par ti
Side bar
:` ${
toHaveBeen Called
();} },
pre f
Ġs en
Ġ mod
C at
ĠM MM
æĸ ĩ
ri des
fill Style
Te am
v ol
E H
Fe ed
< '
Key word
Ex ists
call y
Ġan imation
49 8
Ġ Ar
é ¢
ti d
View s
Ġj ustify
)}} )},
g ers
,_ =
S ol
HE LP
Ġ variable
W i
web gl
Ã£ o
49 7
se en
ra il
Stop ped
4 66
pe ek
27 3
' ][
\" ></
## ##
28 1
fa ctor
cd n
TE S
Ne g
5 40
ur ls
o ve
44 9
Initial ized
Ġd id
An ce
sm art
4 55
,{ "
d st
Ġn ative
æ ı
p O
] "===
si ble
e ve
j uk
ensi tive
Ġimp lement
er arch
Uni que
è ĥ
V F
) ==="
Ġfa il
pri mitive
Ġo b
Q G
)| (
as pect
Instance s
par agraph
rot tle
get B
ver bose
04 38
+ .
Ġp un
'] (
DEF INE
Ty pography
(){ $(
AK w
49 5
R Y
} ))},
c H
u dio
Î »
Ġsc reen
Ġremove d
Ġ ve
\ ":{
(" ");
rid ge
Ġde scriptor
i ck
Vi rtual
last Child
68 9
3 18
+ )?
Ġ rotate
]| \
99 6
Ġ4 1
I r
sched uler
ZX h
Ad just
Ġs k
Ġdis abled
parent Element
60 7
ligh ted
4 26
[ ],
44 5
pa int
string s
Ġy ear
force d
Ġme la
K Tt
Ġd it
Pay ment
P G
&&( (
38 3
lit eral
å Ģ
F IN
y es
()} );
Ġac count
K n
Ġmon th
be ta
)} ));
org an
> ");
Ġ attrs
GLOB AL
}` );
same Else
or a
graphi c
s cheme
(); _
Ġto uch
For ward
f mt
ĠS er
0 15
um bs
Const ant
ready statechange
ç º
re co
P x
on Touch
99 5
Ġre lative
ro les
39 3
Ġ js
default View
re qu
get Next
Ċ ĉ
il on
config uration
in verse
32 3
bu cket
' :[
Jo in
]) ||
æĺ ¯
be hind
P ad
es ome
h adap
Ï ħ
Plugin s
f w
component Instance
65 4
static Style
Ġs cope
Ġ Form
D ark
Ġh igh
Un mount
r and
I Z
last Day
scrip tions
Ġ absolute
c X
," "),
Re ceive
id ing
._ $
qq qq
< _
ret ry
pp ing
line Number
d v
current Value
TO P
E mbed
MO VE
clean up
g ICAgICAgICAgICAgICAgICAgICAgICAg
]} },{"
AT CH
channel s
siz es
h al
DE D
ffff ff
ret ch
Ã ª
er ts
W in
ĠR asul
on Drag
contain ers
k ar
um i
00 6
cbl xu
has Attribute
), [
bind ings
full y
Pagin ation
O ct
ook up
ark an
ĠD ia
we st
type Of
margin Right
Q a
Ï Ĥ
ĠÐ ´
67 6
number Of
ma W
æ °
à¸ ģ
!== !
ab ilities
60 5
post css
Compo sition
Pay load
ÐµÐ º
Target s
374 18
A UT
t return
) ])
Ġb a
Ġ expect
man ifest
Var s
pe er
, ['
ĠM uhammad
ĠRange Error
Pop over
U a
SUC CESS
uniform s
/ ",
D rupal
ï¼ ļ
Ú ©
80 6
in spect
V IE
e i
Re mote
99 2
58 6
I jo
dis miss
x FF
Format Symbols
or n
=' _
":" ./
Ġne ed
Õ ¡
File Name
h sl
5 36
O ther
68 7
60 6
Ġcl one
q c
ÂłÂł ÂłÂł
h am
__ ||
webpack Jsonp
As set
inner Width
3 25
([ ],
() +"
Ġant ara
hand les
Ġ };\
Z z
('_ '),
IC E
47 8
48 6
ĠD OM
ip pet
]) |
Char s
d D
ava Script
Ġ ul
L ow
é Ŀ
32 2
cept or
ca ped
ed iting
start Date
:{ }};
Ġ4 3
W n
Ġd rop
ue s
h old
4 37
Abo ut
áĥ Ķ
Tick s
":" _
Ġ def
Ġh idden
Ġm ener
custom er
pres erve
+ \
Ġmul tiple
Pr ism
last Week
Se g
'> ;}
Que s
p k
ve red
0 16
Ġsc ript
b C
Ġst ep
; $.
Ġ attr
W ater
"," â
set Property
")} },
Ag greg
);}); },
P n
gr unt
Z U
48 9
mong oose
H ref
ICAg IG
V O
V ec
D n
M U
Ġp eng
mark up
kan nya
Ġm enu
0 10
Ġpa ssed
3 11
s yntax
Ġsa w
next Week
Ġse cond
comp leted
W allet
one y
:! !
c redentials
mo st
3 17
RE AD
æ ¸
record s
g z
48 5
red raw
Ð¾Ð ´
(". "+
V R
å¤ §
de req
Ġ address
Ġcreate d
(" ../../
: __
d river
Ġ Time
gener ated
Ġerror s
CON ST
Wr iter
ab e
Ð°Ð »
00 02
A q
47 0
Ġ command
F alse
Ġ exec
define Locale
27 1
E AC
Ġ ut
si m
Web kit
58 9
graph ql
OR M
)- (
: </
li p
same Day
4 38
La tin
ata kan
å ¿
l j
ri bed
G RO
ca m
e ql
l m
ĠÐ º
F rag
Ġ shadow
find One
A DER
åľ ¨
ĠK ami
gor ithm
Me mo
67 5
Code Mirror
)} ))},
post s
R z
setRequest Header
com b
Ġg ame
6 50
P ie
C md
b all
r al
at ur
_ /
Ġw ant
V isibility
48 7
ç ®
Ġj u
get Field
pack et
Pattern s
ĠĠĠĠĠĠĠĠĠĠĠĠĠĠĠĠ ĠĠĠĠĠ
Ġe qual
Ġf rame
is on
è Ģ
57 7
re cur
cy cle
Lat Lng
n an
Sta mp
# ","#
59 4
( ','
Ext ensions
Ġorigin al
bul let
ti er
", \
pri v
A merica
F old
ĠV ue
de bounce
Ġcur sor
); "
77 6
} )}}
Variable s
F h
Ġpro perties
push Stack
UP DATE
Allow ed
Shi p
get User
) ._
57 0
ak er
road cast
Q W
66 9
y ing
28 2
K H
à¸ ±
:" <
ps ilon
A sc
x r
55 9
" )):
An y
19 99
Request ed
US H
:" {
app le
12 34
ĠMe reka
G n
Ġkam i
pro jection
@@ @
h v
"} ).
go to
tra iling
clu ded
66 8
look behind
à¤ ķ
aaaa aaaa
g ICAgICAg
inner Height
){ __
SU PP
icon Name
G T
èĩ ª
28 3
à® ķ
G i
ap is
Ġ4 6
> ','
fe e
handle Change
Ġs mall
ur un
stru ction
Com ments
Rl ci
ver ted
focus in
TI AL
26 1
107 37418
ãģ Ħ
(" --
F UN
per sist
> '+
J z
4 24
39 1
> `
alt Key
TYPE S
S core
Î ¼
open ed
âĶĢâĶĢ âĶĢâĶĢ
)) )},
' ?'
bu atan
Ad ded
ire d
K it
di ri
ĠC ar
Ġ Be
Y E
R M
current Page
Ġde sc
6 25
Origin al
V C
æ Ľ
Ġd if
M ac
Ġm u
mu dian
I MA
C re
(), '
n es
se quence
59 5
âĢ Į
Ġnav ig
b um
ex act
Id entity
k ed
Me mory
CH E
c w
P lot
F U
response Type
0 13
F lat
Ġa cc
on Select
Ġ5 3
ic s
Ġi mg
Ġk er
Man age
S yn
Sp here
(/ [
Ġt mp
ar ter
)=>{ "
e o
H n
is Equal
();} });
dim ensions
M icrosoft
flu id
LIST S
58 4
Task s
min Date
Ġg iven
M r
Pri mary
property IsEnumerable
V r
e at
Ø ¡
æ Ĭ
AA g
Ġ core
Create d
Ġxml ns
)? |
z le
Ã ¨
',' ./
4 20
s id
77 7
A pr
S m
raw Name
G oogle
Fr ont
æ į
or ph
Q X
M B
Font Size
Ġ entry
Ro und
ait u
429 49
66 0
Q r
O a
Ġb ottom
Ġkep ad
account s
T F
u Li
me s
us ing
à¸ £
u lation
J ob
Ġg l
Set up
st dout
ðŁ ı
Ġ allow
trans fer
initial ized
spe cies
ii ii
58 8
X HJ
g ue
Ġre cord
CONF IG
regis tered
ĠX ML
tra verse
Sum mary
P AGE
Pl ane
34 2
={ ()=>
E qu
, `
En able
n w
," ");
Ġata s
Whi le
sign ed
Y s
XC Is
Collapse d
ff e
} [
ing ga
67 7
ç Ĳ
ac cordion
tifi cate
"} .
phi con
dep loy
======== ========
+ ","+
P g
89 6
decor ation
Ġp ort
Vari ant
J O
G U
ce ler
Ġview Box
Access or
ðĿ Ĳ
Ġ Test
044 2
y ellow
j j
rup t
H int
H ub
com bo
p bm
;} (
Dispatch er
+ ";
ä¸ ª
33 1
99 1
en vironment
55 8
," ").
UN T
touch end
is Visible
Ne ed
b box
66 5
0 11
Ġ settings
Ġs end
M EN
get Selected
Ġj i
g ate
ç ł
SH OW
Ġ password
Ġd rag
Ġ ÑĤ
47 6
æĪ Ĳ
xy XG
top Level
20 48
a ir
(' ');
sc an
Li te
J r
â ´
Data Table
vent ory
S ome
al len
ex tr
Ù į
58 5
Ù Į
'},{ '
Star ted
) <=
60 4
à ©
AC TION
68 5
Ġass ert
Descript ors
bub ble
S r
'} ).
l h
from Index
ti ps
à¸ ĩ
W o
s x
Ġ IN
ac ute
Ph ase
88 9
contain ment
() >
ê °
69 8
f ol
n z
Ñ Ħ
ZX R
Ġcal c
Ġb ers
re c
Ġ$ (
ÐµÐ »
de pend
O BJ
," <
Valid ate
Si te
Ġobject s
45 45
(! _
) (),
Out er
By b
br ush
s andbox
c ce
Di ct
35 3
59 6
Pers on
"}} ),
} ;};
pro viders
l bn
Resol ver
Ġwhi te
] ==="
Ä ĥ
on readystatechange
47 4
ease In
50 3
Ġ Image
34 34
Ġf in
Full Screen
S wi
T n
Ġ ctx
Ġ }}
t re
æľ ī
X N
ra ft
} -
Ġ utils
con sume
R le
b w
inject or
! --
o j
Ġ File
stroke Width
And roid
offset Top
Date s
12 00
Comp leted
Ġ 70
] )(
resol ution
ĠT uhan
d j
ĠA PI
Comp iler
sh allow
} );}}
re le
Ġ* \
=" "+
55 7
on ed
mar ket
' :"
event Type
run ning
fi ber
et ter
Z s
Ġ play
Ġs ymbol
Ġ" .
u to
++ }
/* .
i te
":" -
element Type
B k
ext ent
044 0
ve s
Vis ual
R k
Ġst op
49 0
]= -
IT H
. ','
); )
Sli des
Out side
Ġt wo
Sha re
m illiseconds
è ¦
C ach
LC J
M G
format s
M w
ãģ Ĺ
` );}
str ument
f an
ĠI t
Ord inal
Ġ Name
veloper Error
E MPTY
spe ctor
Ġ Le
array s
Cur rency
={ });
=/^ \
Ġc ss
**** ****
inner Text
CH ANGE
y r
O zs
Q m
é ģ
69 5
38 1
W U
Ġ enter
Y C
345 67
BU G
Ġy aitu
a ctor
Par tial
Fa ke
' ;}}
;} },{
un ity
do va
Ġ prefix
ĠA d
$ =
0000000000000000 0000000000000000
Be havior
();} );}
touch move
Ġb l
ç Ĥ
m uted
å® ļ
Context Menu
QU FF
return Value
XHR cd
number s
is Enabled
V x
e lect
}, [
DO C
X a
R el
to k
S G
F L
Window s
47 2
b lend
jq x
æ Ł
'}, '
N ONE
j r
x html
Re al
à¯ ģ
U A
Ġ ";
E di
am l
R s
max Date
Bub ble
} _
N b
Ġax ios
Ġp ula
Z r
uti li
K r
re ci
K AI
F ri
u pa
id a
our s
',' -
Se q
is Loading
Ġj e
',' $
)} ):
FB O
' ===
scoped Slots
C LO
G ra
re search
Ġtype s
set Start
Dim ension
36 3
=" ${
work space
K w
css Hooks
)}} (
æ Į
Ġs ure
e ded
(/ %
W l
20 11
à ±
80 4
Ġ +=
Ġm sg
F lex
e X
? ?
P Y
cm F
Ġaga ma
un load
comp any
STAT US
Q ur
Ali as
get Style
get Type
tim ing
n once
ag ger
\" ><
- ]+
Ġte t
Ġ Ä
end Date
36 2
Re peat
is Un
J ax
p to
re v
V M
start Container
Uti li
elli ps
," \\
fe b
old Value
M BO
NUM BER
in crement
Ġmer ge
É Ļ
cI i
Acti vity
awa iter
× ¨
` )
at o
Q w
ç İ
Z j
ward s
Ġ ce
QUE ST
8 35
le ading
Ġo c
A f
iz ard
B alance
"] ["
scale X
car tesian
)) ).
J G
tr ig
} '
Å Ł
Ġ0 1
=[ [
version s
G ui
Î ·
Ġtext ure
mut ation
TRI BU
troll ers
margin Bottom
get First
page Size
ĠArray Buffer
s f
å Ĵ
Ġf oo
Ġs pace
cid ent
, ,[
] ].
F ree
VIE W
m ust
At trib
Ġ2 00
TH E
widget s
y d
ç «
X r
ĠØ ³
4 67
is Disabled
UM ENT
Ĥ ¬
Ġse h
base Url
gener al
Nv bn
sp in
Q D
Ġ vo
Z o
React DOM
h ello
;} ());
Ø ·
' ]}
con n
mx Utils
. \"
T hi
=" -
Ñ į
(( ?:
é ķ
fon ts
J C
rip ts
am b
PRO TO
([ [
B LE
Mo ment
5 33
H AS
Mo unted
")]) ]),
fi ci
post Message
star ting
i um
M AR
Ð¾ Ð½
E mber
Y j
Ġis Object
Auth orization
Ġe ach
pass ive
Se cret
Ã ¸
4 27
\. ?|
Y z
me ss
Ġ PropTypes
; },{"./
n h
] ").
b z
Ance stor
Ġin line
ug ht
× Ķ
insert After
f ac
face book
< (
RE N
ma s
Ġg oog
ig ure
Dat abase
th ree
ï¸ ı
fire Event
is ti
4 18
rol lable
Ġcon nection
Ġle bih
gges tions
gA e
g IH
' }},
Re p
: \/\/
crea se
throw s
property Name
h ow
Ġ comment
de li
å± ±
dis connect
sup press
Ġber kata
PO SITION
7 88
iter ia
de coder
P DF
Fe b
pseudo s
sibl ings
thentic ated
Com bo
10101010 10101010
Resp on
Con flict
Ġm us
anim ated
m v
t an
Document Position
ä» ¶
pending Props
10 88
with out
N k
S L
se curity
C ity
,_ ,
Ð¾ ÑĤ
S im
s To
Ġ Ð¸
Inner HTML
ð ŀ
R D
({ _
sub title
g IG
resol ver
Of fice
Y r
ts lib
4 34
Th read
E w
5 000
,_ .
Ġse e
RE SS
ĠMa ha
Ġ10 24
tag name
Ġ Event
front end
O U
ro zen
M en
& =
Qu aternion
à¤ ¸
:[ ]},
cla mp
3333 33
get Id
5 44
li de
D AY
0 14
fir man
un ya
camel Case
()} },{
(. *
proto Props
log y
Siz ing
Ġtet api
de sk
K u
a pe
AI L
g as
' })
delimit er
80 1
Ġg oogle
Sign ature
ul lah
ĠâĢ ľ
Tra cker
å Ŀ
I k
Ġnormal ize
show n
aj a
White space
has Own
&& $
ACs AKw
M AN
Ð Ł
655 36
;} )(
si um
":" ",
Out line
Ġv m
mark ers
Sk ip
Ġ_ (
ĠM at
Re lation
Ġ then
el t
Ġse orang
p z
87 9
4 35
Ġv is
Ġbe cause
Ġ })
W heel
render ing
le y
o auth
er rer
ck s
Inter section
Option al
Ġdi ri
offset X
40 2
57 1
fixt ure
g host
usp ended
," .
16 77
_ $
Z Z
T ap
âĢĭ âĢĭ
":[ [
Ġ level
(" {
W ID
cho ice
Ġm b
ul o
file Path
ãĥ ³
Propagation Stopped
Ġter hadap
Ġg en
è¡ Į
B p
5 11
Ġthe re
Ö Ģ
min im
es c
4 11
//////// ////////
Ġw here
} <
w ire
Co ordinates
m ui
)) );}
ng Model
I w
+ ((
ul ated
T ON
__ ;
anima tions
Set ter
si e
Icon s
ser if
Ã ´
St at
ar ti
j l
cryp ted
S ame
? ","
key press
Index Of
Car ousel
Bl ue
Ġ dom
n m
," ../
ance stor
w ill
de terminate
under line
65 65
Ġd iff
F LO
product s
L u
offset Y
static Props
)/ .
69 4
border Radius
component Name
N p
Re lease
Ġc ar
B at
j d
?" ":"
Ġ queue
&& -
gest ure
C ent
m irror
Siz es
ken do
chunk s
B c
ee ded
W y
ra ise
f X
pre load
fade In
ç ľ
ĠReference Error
Def ine
b led
Ġb etween
reg enerator
format ted
J K
Pr int
j spb
Ġm t
â ĥ
leg acy
Ġp an
Ġg ot
data sets
H r
Ġc i
com ing
x cbiAg
Ġsw itch
("^ "+
con v
Y AA
ab br
ä ¾
red it
b on
Attach ment
TRAN SITION
g ot
FF F
Proto col
Ġper buatan
maj or
()} )
' )),
xu ICAgICAg
O c
X I
am ma
k ge
and a
214 748
" &&(
v y
la x
'); \
Ġex ist
su k
set End
='# '
le ep
50 2
ph er
Ġre place
S ound
C art
c ance
ur a
H D
ç ¤
79 7
DE N
CONT RO
on Load
__ $
] :{};
S orting
q o
: ","
Ġs ang
fe rent
form Data
Ġun der
G O
"> '+'
u FD
set ter
Igno re
ec tive
} ',
Ġp l
X n
V T
TEG ER
å ĵ
S ample
Ġh al
wal k
ext ended
CAA C
> );}}
SS AGE
Q z
è ½
200 7
k m
re ater
) "},{"
in serted
}) [
s mooth
Ġmemp er
5 35
te ar
readable State
v js
k c
Ð ¡
Or Callback
ch ron
Ori entation
) "+
M l
b ir
In voke
Ġ List
D if
5 16
ZX I
DI R
4 10
padding Right
t v
Ä ģ
Ġd unia
=[ ];}
89 7
R W
E I
Ġ off
Un do
34 1
||" ",
Y G
Ġ 72
Ð¾Ð º
E u
Bu cket
loy ee
Ġre quires
om an
Ġs ort
,,,,,,,, ,[-
Ġn i
oot strap
Ġt ree
res ses
V K
) _
)}, "
! ");
Ð Ĵ
O m
ry pto
scale Y
Ġs um
} ]}
danger ously
F w
Book mark
4 99
AC TIVE
p v
no tes
ä¸ ĭ
en ame
Ġseh ingga
AH gAe
de precated
al ity
åĪ Ĩ
TRAN S
F b
sh im
el s
oo ds
ma le
Pers ist
Ġ Constructor
5 25
ĠR d
Th an
at kan
Ġa z
38 2
é Ľ
tri angle
star ted
F allback
P atch
ra ting
77 5
u C
ku kan
)) *
0 55
Ġ transparent
\\ \
au d
Ġ (!
Ġcon trol
Ġmis sing
mp a
v ZH
ZX Mv
4 13
ï¿½ï¿½ï¿½ï¿½ï¿½ï¿½ï¿½ï¿½ï¿½ï¿½ï¿½ï¿½ï¿½ï¿½ï¿½ï¿½ ï¿½ï¿½ï¿½ï¿½ï¿½ï¿½ï¿½ï¿½ï¿½ï¿½ï¿½ï¿½ï¿½ï¿½ï¿½ï¿½
B j
de velopment
b lem
ç Ļ
L H
.$ {
T C
G ap
Style Sheet
ud ent
(" "+
]= '
6 64
` .
) ":"
ZW N
Su bject
ĠØ§ÙĦ ÙĦ
Constructor Return
Ġ Node
min us
L IN
g p
y ui
Ġkey word
}), (
L ookup
M k
4 12
begin Path
àµ į
cover age
Ġr u
u dd
be e
_ :
Emit ted
W W
Sched uler
getOwnProperty Names
77 9
'] ['
uro pe
Qu ad
ital ic
] )}}
Port al
sha ka
is c
J w
g ender
" ',
Ġ ("+
acti vated
(" "),
s ca
out ube
Par sing
Y u
Ġ ÙĤ
h w
=" \
ul se
à¸ ¡
window s
Q ix
') &&
E m
b v
log out
Ġs chema
get Scroll
44 6
md c
)!== -
COMM ENT
Ġ here
42949 67
Ġan ak
j ul
and s
M x
89 8
Pa ste
Ġre set
Input s
Ġ Te
ali ases
"] ],"
ap pro
flo ating
Ġak hir
Ã ¢
48 4
5 37
tra st
saniti ze
Op t
75 4
()}, _
+=" <
áĥĶ áĥ
B lack
R R
u fe
Ari a
padding Left
Run ner
J un
date s
Ġass ign
By Name
F lo
Trans lation
pres entation
Ġben ar
'} );}
{ };
c j
09 4
St re
æĹ ¶
ve al
] :"
Ġseg ala
Ġ 65
feed back
Ñģ Ðº
ab stract
dis allowed
Ġ{ \\
s al
å ¥
}} ).
æ ´
Ġinitial ised
Ġde vice
Ġ layout
Ne sted
09 3
g row
Ġp res
y u
template Url
] +'
XY q
app ings
x k
45 3
E asing
g J
;}); __
Ġ Pro
0 24
IN TEGER
un set
Ġt d
m ped
ct ype
% ',
E q
] ","
ec ma
possible ConstructorReturn
ãĤ Ĵ
ama zon
list s
Ġ react
illise cond
(' :
to a
Ùĳ Ùı
Ġe st
55 2
68 4
Ð½ Ð¾
B b
in active
+ _
36 1
Lib rary
Ġover flow
pro v
m w
end ak
v v
la in
de leted
} ${
read FileSync
g rep
MON TH
87 8
val s
Ġ video
e u
", },{
der n
v Li
i ces
Ġm s
Ġh ost
ma ti
Process ing
T ru
p or
' /
qu ad
||" ").
Ġgener ate
con t
Ġ5 4
margin s
P W
D u
Ġ il
}` ;
J q
F XYq
to Object
è ¥
6666 67
ex peri
T U
ĠĠĠĠĠĠĠĠĠĠĠĠĠĠĠĠĠĠĠĠĠĠĠĠĠĠĠĠĠĠĠĠ ĠĠĠ
in o
pi v
b anner
Ġ constructor
]| [
57 4
00 01
ke leton
ild card
ME SSAGE
Ġ track
à¸ ¥
Inter action
), \
` \
Over ride
X o
)), !
pl ural
ma h
,[ ],
Der ived
||{ }).
h ue
ç ¬
compare DocumentPosition
Ġ application
() <
Ã ½
se udo
à¸ µ
inst alled
45 4
O o
A IN
end ant
() ==
Ġ5 1
j y
An ima
fade Out
Ġ placeholder
ap ps
49 4
d w
v Y
R r
Ġ selection
field Name
SY MBO
a rer
sto red
n ers
F it
V b
Ġin formation
X i
U b
s In
prefix Cls
find Index
60 2
slides To
> ').
AA AB
Ġse mu
Uni code
gener ic
dom Node
ĠÐ ¼
Name d
bu y
alle l
T uple
UR N
Ġ lu
Q ui
i am
C ED
":[ -
Ġg rid
C Y
Ġ components
G y
Ġnode s
get Config
Con nected
create Range
Ø¨ Ø±
padding Top
Ġ Lo
ĠP er
div ider
qual ity
L r
Av atar
Ġ limit
ĠG e
g gest
Ġde s
* -
} :{
arch ive
E o
Vu Y
Expan ded
ffffffff ffffffff
50 1
A re
RE S
20 10
99 0
D c
current Color
80 3
Bind ings
)( ?
oneOf Type
row n
\\ /
Qk FB
week day
ðŀ ¤
Ġcon nect
Mul tip
Ġdo t
66 2
); $(
}) ","$
Ġju ga
W ords
)? '
Compo site
si mp
=" .
}} (),
attach ment
Style d
c Im
fn s
Ø º
: ',
=' /
getah ui
59 1
bound ary
Au g
ri ve
): !
gICAgICAgICAgICAg ICAg
get Hours
TE NT
s lash
dom Props
with Credentials
37 1
initial Value
ag greg
s uite
();} ).
Rot ate
ĠC O
sh ell
(" %
ed y
di gest
T d
Ġ Module
n at
+" ]
Bu f
ĠB oolean
Event Handler
Ġb umi
]+ /
stack ed
ĠØ ±
]; },
g f
V dirs
AHgAe AB
Ax es
on Focus
W b
Number s
ifi ers
fail ure
st retch
E y
44 1
block quote
Ġpar ameters
/ #
U sed
erarch y
asm ine
ax es
ex amples
k v
* .
m ute
M h
ori ent
j it
V c
GRO UP
C Q
Ġf ollow
()} }),
rea ch
4 19
ti ka
De coder
de serialize
>'+' </
P z
Ġca ched
r p
XC I
, $.
T G
k au
to Locale
è ī
Ġ ./
Ġ5 2
k B
set Option
T ABLE
67 0
on Before
70 5
064 4
:/ \.
æ ģ
(" ;
QU FBQ
09 2
y lon
":" ^
Pa use
w v
ease Out
next Props
x axis
Ġab out
token ize
J d
to Integer
;} ),(
Ques tion
row Index
translate Y
FLO AT
Se curity
get Content
4 15
é Ķ
is XML
Qu eries
N u
Ġ loaded
4 39
Ġp t
get Day
J Q
Subsc riber
Back drop
L U
47 3
":[" "],"
Fail ure
Â °
Vdirs Vdirs
Ġs ingle
é »
æ ¡
s tit
F g
+ ?
P ure
field set
ITE M
border Top
35 1
SD K
>> >=
K l
co st
Sp inner
source Map
è ·
error Message
on Blur
M Q
Ġe ffect
S Q
T D
- _
ch i
li cations
gra tion
ðŁ ĩ
ma cro
Frame s
Pro jection
Î ¯
z u
OP EN
Anim ate
Con sumer
F ocused
an o
} ],"
ur len
:' .
next Effect
ĠV ector
(! $
me ter
Command s
M b
DI RE
move s
'] ++;
j ax
Ch rome
Ġdis patch
Ð¾Ð ¼
E mp
Ġt an
right ness
cho ol
48 1
Ġ" ${
w l
P LAY
åĲ į
fab ric
Ġ ri
U v
Ġal i
ap r
j st
ref errer
"=== (
FI L
ĠF S
]) ]),
T u
se m
ĠÐ ·
mat ter
Ar c
Pl us
'+ (
datat able
rect angle
\":{ \"
cbiAg ICB
æĹ ı
mouse wheel
4 33
h m
uni app
70 3
Iter able
P RI
Ġcla sses
Ġ )\
; _.
inter action
à¤ ®
OR DER
allen ge
å »
} )}},
() ));
8 37
y cle
`, `
man ual
To ast
Ġ raw
&&! !
in ing
ux V
L g
align ment
or tions
end sWith
int ro
Ġ Type
sele cting
code Point
poly fill
ho le
H alf
piv ot
ãģ Ļ
))} (
Ġde mikian
f inite
RE QUEST
() !==
Ġ let
re do
pol icy
7 87
80 2
po kemon
ç ¨
e qu
J D
C P
V p
translate X
get Iteratee
Vy Y
ve y
Al lah
dyn Call
F X
áĥĺ áĥ
ON T
Ste ps
N AL
t pl
sol ver
h k
+" -"+
6 11
ra se
replace With
me trics
E G
qu antity
queue d
AM D
DE BUG
ard s
OP ER
user Data
Ġ Ro
th ird
En code
set Text
"] [
re ceive
il ls
Q b
Stru ct
) ','
new s
99 4
," /
Nv bG
ag a
U k
type script
Col s
Per mission
cu ssion
Mut ability
6 37
K b
Ġb es
mix ed
def initions
ĠD o
en ing
N X
]* \
d g
")) ),
(" '
s z
comp iled
u kan
do ts
90 8
D l
,' $
IE LD
Ġ 66
AC AA
Mark ers
K uxV
cbiAg ICAgICAg
ICAgICAgICAgICAgICAgICAgICAgICAg ICAgICAgICAgICAgICAgICAgICAgICAg
}} };
De code
47 1
Û ¤
Ġinher ited
M m
Ġset Timeout
à® ¾
Ġst ar
'../../ ../
use Ref
Me trics
g allery
a ke
Ġ location
Set InnerHTML
% {
. ");}
( :
Number FormatSymbols
index ed
{ '
Ġ collection
ID s
Close d
( ${
5 13
ER O
48 2
dire ctory
Ġf la
XX XX
",[ _
65 3
ACsAKw Ar
Ċ ĊĠ
Ġ fields
46 2
Open Layers
index es
)? [
H Y
åį Ĺ
bm N
sk ew
T A
Par ti
line Start
\ \"
rele vance
capture d
} )}),
Ġ headers
6 38
ip ple
5 28
get Option
Cla zz
B etween
request s
60 3
get Component
v p
ra ction
= ++
year s
pro tected
tif act
ç Ń
"} )),
Resol ve
Ø ¶
"} },{"
st one
clo sing
on Update
B ranch
Õ ¥
Ġh anya
67 4
sa W
start Angle
Effect s
||! (
ge red
L ive
Ġex ists
äº º
=" "
int l
ar ing
Ġcl js
ĠMus li
get Model
state Mutability
: ()=>{
cs v
Ġthe me
Ġ parsed
s en
pa ger
V X
($ $
5 20
ch alk
ut able
ne ar
Ġp ad
== -
B ul
A tom
Ġka fir
]||{ },
readcr umb
å· ŀ
R b
c ube
Ġi alah
Ã³ n
67 1
[ ];}
;} ),
);} }};
Ma ster
with in
Ġ 75
us age
55 4
Con sole
8 113
Ġ layer
Ġ ÛĹ
5 15
H l
("# "+
æ ĥ
I z
L z
Track s
6 16
") +(
)) ):
ç ´
57 2
clar ations
context menu
import s
so cial
log s
67 3
]* ?
+' -
ver ter
Ġse ssion
raw l
Scroll ing
Ġmatch es
L M
Ġ 63
æ º
Neg ative
Del im
pageY Offset
044 1
E le
me an
C ube
w k
I ss
template Loader
=[ ]),
Ġter se
S N
Ġdire ction
214748 364
ĠN ew
l ator
å® ī
AT TR
u di
ph y
$ ('
termin al
Ro aX
Clear Timeout
Õ¡ Õ
Ġ... </
from Array
quo ted
? ",
V P
Ġ 79
on Complete
ÐµÐ½ Ð¸
tr unc
BUT TON
');} );});
PO INT
è µ
Ġs al
F W
t ml
"] )
Ø§ Ùħ
78 5
b and
x m
urlen coded
Ġex isting
y c
BO X
zM zM
' ])
con s
decode URIComponent
] );});
:" $
Ġ He
ĠC he
handle Click
lo o
Ġ Po
OBJ ECT
is Horizontal
Ġb in
el y
ÍıÍı ÍıÍı
mo vie
Align ment
);});} );});
fill Color
,' ');
Mon itor
Pixel s
Nav bar
", $
}} )
M X
trans lation
mb ali
max Length
G S
getProperty Value
à¤ Ĥ
Ġd on
Sc r
OS F
ĠB ase
æ ¯
Ġ points
;} .
gre edy
N W
order s
u B
Match er
EAA Q
} ];
69 0
Service s
Ġre q
uff le
P hy
/ ./
an onymous
do es
re jected
Event Type
åı ¯
(" __
il le
Re verse
im ana
"] },{"
4 17
Remove d
Ġmeng h
97 6
te e
C atch
au g
E h
Ġsen diri
("./ _
start Offset
get In
Sort able
à¸ §
Pe er
: _.
current Element
F wi
WID TH
Fla sh
FAI L
al one
Pi ck
ag ing
writable State
Edi ting
gges tion
at os
wait For
S mall
å ¦
!= -
" );};
); $.
Ġ allowed
ma gn
subsc riber
0 37
jQuery Interface
69 2
34567 89
+" \"
=> ({
IH N
Ġ ');
m q
Î º
if def
sub menu
CO UNT
Sha red
è¡ ¨
m illisecond
getOwnProperty Descriptors
M ED
6 24
Ġse d
y l
oooooooooooooooo oooooooooooooooo
set Date
Ġ 88
à® °
Ġon Click
Ġ En
pro d
dayOf Month
b or
);} },{
Test s
] :(
p w
gICAg ICB
il t
form ance
p ic
issue s
6 39
] ();
Ġ 90
S lash
no tifications
` <
$/ ;
Ġpro vide
=== _
c andidate
lo ur
ĠÐ ±
P D
ç ¡
Ġ loading
Pri v
6 10
}} )},
7 50
æ ·
ì ł
J W
(?: \\
col le
") ?"
set Selection
",[ ],
ma tic
AR N
__[ \"
as an
vers ation
Ġb g
de queue
Ġ editor
get Input
part ment
59 3
YX Rl
i en
Ter m
Ä ł
] ['
Ġupdate d
={ (
5 48
H it
è Ĭ
c ml
L IGHT
("-- ")]),
Parse Exact
X l
45 1
å §
v u
58 3
b roadcast
g able
short cut
Ag Q
E Y
=/ [
S q
forward Ref
ĠWe akMap
Squ ared
implement ation
the ta
RE GE
5 65
o ice
:{ }},
åŃ Ĺ
un ion
Ġ extend
Ġ Or
Ġd raw
ì Ĺ
vZH Vs
Un safe
align Items
Ġ changed
Ġa wait
shape s
th rottle
B f
J b
hy dr
if at
S PE
dGlv bi
k dW
:" "}
æ ¶
(?:[ ^
={ }));
Q l
(" )
type dArray
requ ency
delta Y
aG lz
Ġal t
cur ry
in c
CA LE
Ġ router
ungguh nya
Re pos
H ello
RE ACT
Ġthe m
c ab
Ġcon vert
p is
sh i
: $.
Serial izer
++ );
Tt BQU
get P
Squ are
Sta ge
Ġ 85
re strict
G b
t one
(/ <
," &
64 4
]) +
cket s
6 57
Ġ Element
);$ ('#
77 0
à¥ Ģ
| ^
") ||(
ital ize
ì ļ
Cla mped
u ally
` ).
min or
R X
") ===
un mount
u Ly
Ġmo ment
ĠA dd
md W
r pc
F igure
IG Z
7 15
as in
il li
8 57
Receive Props
In formation
lo city
Exec ution
j asmine
à¸ Ķ
L b
I h
j v
Co uld
/** \
e ff
day Names
isArray Like
lab s
comp ressed
I frame
data grid
time zone
à® ¤
Ġ chart
4 36
C lean
25 25
] ]}
book mark
' &&!
C w
();} }}
ãģ «
Spe cial
Ġ docClass
09 6
wy si
. '+
D y
d bl
el come
Le ss
é ĸ
ci i
Ġ Mo
us a
Registration Names
T ail
k ZX
xu Ly
prop Hooks
[]+ [])[
à¦ ¾
sec ure
I b
play ers
ca s
D s
Y our
" ../../
ç ±
ç Ł
M ag
") >-
U y
Re co
ĠU SE
draw er
ba z
zt BQU
Ġc ancel
P V
po sed
ym ce
ci a
4 22
Ġ que
sh rink
XML HttpRequest
C c
], },
N m
Ġs vg
Tr y
D og
vi te
w an
' ],[
' )(
"," ðŁ
) $/,
Ġ webpack
L TE
IE S
0 39
H ot
eng er
': _
( ({
x g
mx Constants
i ed
") &&!
in er
opt group
Ġl ong
? /
: +
Q A
MI SS
Ġconfig uration
Ġ1 12
er tion
49 2
CRE ATE
Graphi cs
; ",
/ ',
Ġl ight
7 18
Percent age
S V
]/ ,
get Root
AT TRIBU
p ure
56 1
pi cture
gui de
M illiseconds
ju mp
=( _
ol l
ä¸ º
Un expected
if ec
áŁ Ĵ
) ]}
or ange
ÐµÐ ¼
pattern s
C OR
Ġ down
Ġ route
end a
---------------- ----------------
Ð°Ð º
night ly
_ ){
44 2
am u
lo cations
Back end
si mulate
dom Element
5 14
J p
Co mb
ÑĢ Ð¸
EX P
ro unded
Ġ Ã
handle Mouse
Le af
co urse
back end
200 8
ãģ Ł
make Array
78 4
si h
T m
Ġ For
åŁ İ
æ ¨
7 14
}; },
Ġ ÙĨ
Ġ "]
Ġdi ber
68 3
s co
a N
b ro
E b
ĠL a
Ġco uld
md x
6 12
col on
- ${
read Int
is Date
) </
In te
i or
reg ular
h j
Process or
d on
holder s
imp licit
tear down
å Ļ
j peg
)); \
Co ordinate
!! (
Ordinal Parse
56 2
ck o
s late
Ġthe y
u F
7 04
Data Source
Ed ges
á Ħ
ĠS c
se qu
lu ck
isEmpty Object
Imp lement
7 89
box Sizing
T AB
F ar
Ġme mory
in validate
no Conflict
=" __
Auth or
ui Dialog
Q H
fir mation
pol l
dig it
inher ited
) ^
(" ="
i j
âĸ Ī
Ġ \\
even odd
J g
il ter
get Cell
per mission
be st
190 58
m and
C ross
éĢ ī
]? \
pa ble
++ ])
Ġser ta
namespace s
k at
O x
RE F
Leg acy
6 32
ĠDis trict
B IT
49 3
Pl an
Ã ±
Ve locity
46 3
6 36
get Document
)}} ]),
. ,
is Shown
? ',
Destroy ed
justify Content
5 10
Ġ eng
Ġde scription
[" [
Ġdi per
5 30
is Window
P u
Array s
\\ \",
dangerously SetInnerHTML
69 1
q w
L N
AA B
mon itor
get View
' )},
PL ACE
comp act
isDef ined
Ġ ol
(? =
me tric
at ter
88 7
Ġr adi
Ġline ar
];} }}
current User
p al
Math Jax
stroke Style
de activate
Tr an
gre es
fixt ures
80 80
ĠC SS
Web pack
ê ¸
her o
fd m
à¦ °
Ġta ke
á ħ
(" ("
C u
ĠMus a
æľ Ł
context s
data Index
tin ymce
El li
Ci rc
' ;};
Ġ ></
20 21
lapse d
5 34
45 2
Ġm ix
L V
q x
Ġ At
default Prevented
Assign ment
_ ;
99 3
$ &
PRE FIX
RE G
S F
K Q
Ġke h
:" '
Run ning
8 24
Ġ àª
pe s
to c
y B
componentWill Mount
× Ĳ
Ð¾Ð ±
Ce sium
; /
w u
ri ting
fi c
port al
get By
)=== -
XC Ig
un wrap
ca ya
!+ []+
ape x
analy tics
Background Color
Ġme dia
high lighted
comb ine
react Internal
n f
P tr
Sched uled
bu gg
] ').
78 6
id le
to ur
ati ble
(_ ){
BQ W
UR ATION
',' /
? $
e ast
Day Of
79 8
y outube
Ġn et
scroll ing
havi our
U D
Par agraph
Ġ Fi
78 1
Che cker
ĠXML HttpRequest
Un der
Ġ DE
æ ¬
ĠD i
é Ĥ
98 4
Ġ channel
\\ \":
ì Ħ
Bo ard
C G
ra f
58 2
R Q
), __
W A
cn t
H u
Lo go
Pres ent
77 4
Middle ware
FORM AT
Ċ ĠĠĠĠĠĠĠĠĠĠĠĠĠĠĠĠĠĠĠĠĠĠĠ
get Position
tr in
)} </
LFxu ICAgICAgICAgICAg
Ġto ggle
77 2
wrapper State
,, ,"
Z ml
U sing
z Y
S b
U w
ign ored
Ġregis ter
ì ŀ
09 8
transition end
64 3
Sur face
04 32
conver ters
',{ '
mark ed
Dig it
cb n
to Match
Ġh ati
Ġ task
Â Ļ
cbiAg ICAgICAgICAgICAgICAgICAgICAgICAg
ing er
sca yt
Ġ í
Ġex ample
` }
ub y
t vec
An sw
t ar
un escape
are st
={ ...
Ġj ust
") );}
Format ted
Click ed
Re ceived
desk top
P b
à¤ ²
(), {
Â ļ
Ø ¦
scal ar
Error Message
; ">
K h
pre set
"), !
sc i
Ġ 59
r is
ib ility
dayOfMonth OrdinalParse
èĥ ½
Man ifest
Normal s
P c
get Instance
"} },{
, #
focus able
48 3
K g
Ġk o
EN S
anya k
67 1088
% "),
process ing
Ġin sert
Ġseba ga
accum ulator
à® ®
]) ],
sort By
SH ORT
F IELD
é «
it ten
I W
DD A
first Name
Z u
Zn VuY
55 3
ab bre
src Value
SCRI PT
Re q
Ġlang uage
Ġad ded
CON TENT
9 87
è ¨
der r
46 1
5 32
O AA
Ġh a
," +
Ġre gex
H M
man y
bo th
O s
selection Start
ĠĠĠĠĠĠĠĠĠĠĠĠĠĠĠĠ ĠĠĠĠĠĠĠĠĠ
} \\
Selector s
RE T
Ġreturn ed
Ġ6 1
Ġis Array
jst ree
(" >
p at
Ġ{ ","
Ġ/ **
lap sible
Ġla gi
col lect
m di
z w
Ġ' ${
Siz zle
i ra
per missions
j k
umn ya
C rea
l p
V W
it ab
HELP URL
merge d
Pop per
57 3
ĠF e
ly ph
no ck
d RegistrationNames
:" (
Ð½ Ð¸
Ġv isible
sin ce
5 47
ti ca
Ġs n
04 1
VAR I
Ġterse but
In cident
"}},[ _
Ð¾Ð ³
es ting
l anes
Dash board
O ps
å ŀ
IN FO
set Position
YW x
Ġcontain s
sub array
active Index
con trollers
Data Type
J avaScript
ge om
P s
=$ ('.
pres sed
V d
]), "
cip ant
PRO PER
20 110
A sia
module Name
IGN ED
à¥ ĭ
da ting
Nv dX
get Length
V H
appear ance
m B
5 27
ic ense
() )&&
n x
Ġ1 60
Ver tices
Table s
ut ation
66 1
. ")}
A SE
lex er
v ron
$ ","
', $
im mediate
c ri
Pre cision
Ġaga in
)( _
() )){
65 2
× ľ
), _=
inter faces
å¹ ´
Ù ¾
66 3
0 25
B undle
()} )},
Ġal so
40 96
Ġ complete
col l
registration Name
Ġ Ex
q L
get Size
6 29
Or Default
à¸ Ĺ
SUPP ORT
se e
es caped
5 68
Vz L
container Info
ste ms
=$ ("<
current Index
play ing
Wr itable
theme s
69 3
RE SU
Def initions
Ġ param
) },{
ISO String
componentWill Unmount
V J
Mi me
n p
fe rences
Dig its
read UInt
NvdX Jj
M Y
RG BA
month Names
_ ":"
pay able
di vide
no Error
r v
Ġre du
current Slide
' }),
P j
n D
Ġpr int
Wrap ped
locale Data
Ġby tes
Q p
Active Class
convert To
Ċ ĠĠĠĠĠĠĠĠĠĠĠĠĠĠĠĠĠĠĠĠĠĠĠĠĠĠĠĠĠĠĠĠ
)})} )
oper a
Ð» Ð¸
clu des
queue Hooks
poly line
+"/ "+
g X
Comp lex
);$ ("#
up lex
eX Bl
pair s
B d
() ];
7 36
5 18
je las
ĠN AME
ac ity
ak tu
\":[ \"
çĲ Ĩ
get Last
ç ©
\\\", \\\"
] )}),
u ped
time Stamp
k ut
Re ply
AB C
:[ ]},{
m ig
ld H
Th rough
Ã ¦
node Index
N F
T l
style sheet
xu XG
O j
Form Data
56 3
padding Bottom
89 5
up dater
49 1
Ġh elp
Us age
Ġ rows
Ġ 62
Ġme ta
iterate es
Ø§ Ø¹
is IE
cor dova
Ċĉĉ ĉĉ
er ved
com ma
c cl
W s
Ġto String
(/ [\
section s
Ġmethod s
() :(
state ment
88 5
gly phicon
()} )}
Cach ed
Mod ify
Ġh ide
Jo i
en ces
J H
no s
leaf let
={ _
Ġpub lic
# "+
re w
is a
create Event
( \'
border Bottom
:[ ]};
U X
R ipple
"] ||
set Immediate
Ġ Button
ä» ¥
v f
m ce
Ġ timeout
:{ $
CH I
ãĤ ĭ
Quo te
Ġ push
valid ators
Ġin clude
">'+' <
)) ||(
64 2
" <
7 12
f oot
() ",
Org an
Ġ Ãł
);} ),"./
8 33
un til
hi m
Stri p
xv YW
ĠRasul ullah
wa ve
assert Equals
LE S
T X
Ter min
dG F
, });}
7 22
d uplicate
MA IN
Ġac ti
)[ ^
oth Is
$ ,"
te ctor
Ġ$ $
SYMBO L
vi a
"] ',
à® ©
curr Pos
B IND
P ED
T K
te lah
Q x
Mark down
to Number
k ap
Ġt t
Ġmend apat
ĠN e
ung an
R AD
Sc ripts
encode d
88 4
send Message
T en
S un
); -
è ĭ
Ġ reference
é ħ
In s
))} )),
Pub lish
064 5
;} )();
":" ðŁ
click ed
(" &
optim ize
Z Y
! (!
File name
has er
79 2
dic ators
)) [
85 4
=" {
w D
ĠD an
z f
Ġoc cur
phase dRegistrationNames
s pot
H el
c um
State ToProps
FIN ITY
buil t
ect ors
5 17
è ģ
7 57
} ]
Ġaz ab
use Context
Ġen code
mod ify
0 36
åĬ ł
" ?"
Per missions
apex charts
, +
79 3
User name
at t
BO DY
à¥ ģ
: ${
DEFAULT S
Ġra sul
Ġchar acter
I x
fol io
I iB
hp cy
5 26
];} );
Ġsu atu
Z b
Ġ resource
K s
Ġ 99
M F
Zh ci
cl oned
MEN U
M W
ui b
Index ed
ni ck
un link
Fin al
: <
C s
su ggest
Ġ attributes
åī į
attribute Name
Ġt u
transform s
Ġh idup
5 50
be havior
out lined
re view
cep ted
"}} },
Ġcan vas
offset Left
Ġ der
get Range
# \
` `
Ġ trigger
(" \\
ad os
cor s
on Submit
Err noError
set Options
Ñ ĺ
A MP
y axis
V D
function al
With in
Ġre ct
amazon aws
on ical
97 1
UR CE
str ategy
ÙĬ ÙĪ
^ =
tin y
00 26
={ [
Ġc lean
AR G
V v
dom Utils
ĠDe veloperError
Ð ¶
> );};
AAAAAAAAAAAAAAAAAAAAAAAAAAAAAAAA AAAAAAAAAAAAAAAAAAAAAAAAAAAAAAAA
l f
'; },
+" ."+
Prop ortions
ab rupt
> "),
T b
Gener ic
x or
ke h
changed Touches
de pendency
g ood
áŀ ¶
Ġchar acters
Info s
Ġj alan
t k
AC H
L mp
has Data
mut ations
;} }}}
ME M
w ater
ĠÄ ĳ
ç ¼
tin a
Ġtent ang
E v
90 7
List s
5 29
v XG
Ġ util
ĠS h
dig its
6 20
anima ting
get Key
aspect Ratio
Ð°Ð ¹
Z ERO
FB QUE
ãģ ¾
Ġname s
9 68
g AA
as y
ZXJ z
Data set
get Token
')} )
val Hooks
new Val
C LI
, /
pro j
Re po
li te
f h
is Ready
As sets
lu de
Water Mark
B ot
E c
() ]=
pipe s
mode s
n orth
X Hg
u FE
Ð°Ð ´
../../ ../../
ER Y
Ġ tex
Ġpart s
à¸ ´
stre ams
åı ĸ
R B
58 1
ajax Settings
m icro
CL ICK
TE MP
Col lision
Ġan im
er ature
Ġdi rect
repos itory
N B
table s
k p
Ġin ner
i co
Mode ls
tf oot
in determinate
64 1
Ġon ce
Ġ proto
ang ing
ç½ ®
Ġ 448
× ŀ
cc c
M c
H h
frame work
mb da
me m
focus out
elect ron
:" @
tis tics
ti les
Ġin side
Q T
get X
Pol ice
re vision
Q Y
æ² »
ĠG et
,{ '
Ġi m
Dis able
Ġreturn s
is Mounted
ang ent
u u
Ġw ait
In spector
componentWill ReceiveProps
")} (
5 38
Ġf inal
fo g
R pc
wi de
-- ;){
200 6
Ġdi alog
- >
on KeyDown
li hat
] ]);
Ġmember ikan
W ed
tal k
R ew
")) &&
h ZGVy
urun kan
] ?(
lo rer
trin sic
ou th
ure d
ä¸ ľ
the re
N L
Feed back
stroke Color
Buff ers
n Äł
Ġ 98
æ± Ł
block ly
ti a
ss r
Cate gories
os en
Ġ express
5 49
Draw er
S TE
() &&!
DI V
W ildcard
Ġpro duct
w m
Ġp lease
K X
createElement NS
Ġ transaction
radi al
first Effect
e ch
w ar
h ance
ca ught
6 22
a head
ĠØ ¯
1 00000000
FIL TER
ation al
'] ){
ĠF ROM
> );
K W
ĠA ST
I V
6 17
Content Type
[\ ]
Ġmen getahui
s un
qu eries
b ing
TH OD
I TER
Ġ package
6 26
Ġ ],\
C AL
Ġthe ir
> "+"
watch er
set From
Map s
ãĥ Ī
={ `
7 13
pl ane
8 40
is Selected
" &&!
Pair s
y k
I c
ul lable
ud c
",{" _
at ype
Tri angle
} ]},{
ter y
al lax
ci te
last Name
la unch
ult ure
pres ent
ol lar
()} ).
Ġ1 92
Ġchange s
wa iting
à¸ ¢
4 65
Bu g
G reen
P m
ol ong
P ur
P hoto
ĠP age
è İ
} "],
]= _
add on
Ur ls
Ġsesu atu
Format s
d HJ
Ġs wt
Anim ated
(?! \
Without Properties
Ġ Message
Ġ 76
B AR
Ġwarn ing
Con vert
Ġsang at
A live
)}}}, [
},{" ../
Pa used
M p
in ser
Text Field
79 0
isNull Or
as se
I AI
Def s
Ap pear
ku asa
la k
A ge
track s
æ Ħ
set Current
é ļ
Capture d
Ġdif ferent
IN I
. +
mo ving
Ġdoes n
({ ...
ĠS u
æ Ĥ
Thi ck
Y l
document Mode
Ġdat ang
G g
^^^^ ^^^^
mo s
â´ °
so uth
D ist
=/ <
listen To
list Item
Swi pe
tr ap
F ee
Member s
to ISOString
={ }.
IN FINITY
06 3
Red u
Svg Icon
Ma ke
C lock
â Ħ
is tic
q y
ch oose
delta X
()} )),
g old
æľ ¬
er tificate
ac cepts
object Spread
run ner
IMA GE
:% ?
Ġen vironment
å¼ Ģ
':' #
Ġ red
Ġ users
ao Data
kl mn
te ams
can Use
g an
Ġf r
S X
70 2
Base line
li es
Q h
Ġre ject
V f
Not Found
he ap
Ġ own
Ġ- >
Stru cture
PA SS
× ĳ
P seudo
Z F
Ò ¯
ta s
Ġ 67
start Of
re vert
b ang
? ((
to s
B id
touch ed
celer ation
advance d
si cal
wheel Delta
RO P
run s
Ab ort
Mod ifiers
z ed
68 2
.$ =
N TI
]+ (
R AN
al bum
AL PH
è¥ ¿
str m
06 31
y ri
å ķ
Ġin voke
") ("
style Sheet
J c
() )),
U x
ul u
( ',
col group
S uspense
componentDid Update
[' +
Ġde stroy
land s
M H
6 14
V ectors
ABLE D
AP E
is RTL
); !
ldH Vy
t var
L s
get Response
up un
U C
ç ķ
) ");
); _.
d ense
à¸ Ħ
lib s
spe ll
de veloper
Ġd uration
M id
os ing
CON NE
5 99
is Node
set Active
Track ing
\" ;\
Ġde code
h ala
)+ ")
common js
SO URCE
B ootstrap
ãģ ¦
B P
r ng
AUT H
v x
object WithoutProperties
à¤ ¬
ac le
× ©
input Value
ĠC ustom
Resol ution
lo ose
Ge st
Ġme t
&& /
pro mises
Ì ģ
Ġs aja
parent Id
draw ing
6 15
web site
I AE
t YX
Ġ put
Ġcomp are
Re cur
Dire ct
cy an
ë ¡
bW Vud
W AA
inter section
R g
point ment
Search Params
5 39
p ts
ç ¥
tem ber
Ġwith in
u X
ORM AL
Lmp z
col span
Ġ Ã©
"} ),"
serial ized
base line
Ã °
sub scriptions
an notations
bound aries
of fice
Ġsp lit
H b
06 25
Ang ular
Ġe mit
inter polation
fil er
20 28
un lock
":" ")+
CHE CK
Ġ ing
Se ts
Ext end
w AA
Ð Ŀ
Ġ Color
K Vxu
add Child
xx xx
5 64
RT C
k x
) =='
9 09
G it
× ª
vertical Align
dat um
De c
f ly
Chart s
locale s
Ġsemu a
5 60
LE V
E O
E urope
6 80
ao Columns
mime Type
Ġ Õ
U z
â Ļ
e mulate
LE R
Ø§ Øª
__ __
de e
ÙĬ ÙĨ
": ((
Ġ listener
te or
S at
pop ulate
YX Nz
Au thenticated
get Path
cross Domain
cip ta
ì ĭ
à§ į
d ummy
Con ditions
Ġr andom
Ġpol y
Per Page
us pend
decimal s
s ong
:: -
Ġw ord
hi cle
play list
D x
Re store
auth orization
block ed
ĠCar tesian
çł ģ
type d
co ordinate
on Key
get Active
on al
":" $
ti e
end Time
ME THOD
VVVV VVVV
Ġset up
Ð°Ð ·
Ġis sue
ATTRIBU TE
9 38
stru ctions
å¼ ı
abbre vi
Cap tion
klmn op
fig ure
], (
allo on
T g
(? :"+
V Q
tri bs
() |
)) :"
s uspense
ig he
Â »
m fp
o op
Ġen coding
"," @
DE P
Ċĉĉ ĉ
ker nel
6 99
F ore
st derr
reco gn
åĴ Į
um l
e W
âķ Ĳ
remove Item
border Left
H A
Å Ĥ
Bl ank
e j
q K
Ca ret
d ont
77 1
>"," </
å° ı
Scr atch
æ »
Post Loader
>)} </
stri ke
cook ies
Ġ upload
] "]=
"; (
id o
7 67
add Dependency
De tection
Ġin ternal
au ge
Sign al
css Class
Ðº Ð°
SH A
Z g
ri eve
}/ ${
Enti ties
7 69
- $
Source s
DOM Node
exec Command
à® ª
i u
eb ut
F d
Second ary
query Params
ant t
Ñ ī
start X
Ijo i
Link ed
dX Ju
ç ³
style PostLoader
Ġ iterator
content Window
ĠĠĠĠĠĠĠĠ ĠĠ
Ġw aktu
kdW xl
é ľ
ĠP M
:{ }}
* _
buff ers
Ġ Û
z l
< \/
par ty
8 18
F c
Ġd t
AN T
ãĤ ¹
'} ],
E SC
ir s
vari ants
di ag
Co st
Ġbu f
HE AD
88 2
ìĿ ´
P ull
H W
term ine
k ony
ch k
Ġde bug
; __
ng If
Un able
u L
raphi c
Ġx s
ai kan
ëĭ ¤
RE MOVE
Event Target
Ref s
($ ('#
Å «
0 18
å ²
ref lect
F f
Ġh o
Scroll Top
j ac
d an
k ill
+ $/
Matches Selector
Ġbe ing
vers al
d ur
> "],
Ä ħ
Ġ7 1
ifec ycle
Ġb oolean
sp r
py thon
5 19
ì Ľ
schema s
Ú ¯
AW S
20 29
LEN BQU
=_ (
Week days
A spect
Ġw a
Pack et
F G
55 1
ss l
Ke ep
20 100
w hat
;}} );}
Ġre ceived
React Component
cla im
b ri
> ]*
ress ion
ong oose
j g
cd k
Comp letion
Ġs erial
?[ ]:
ĠB lob
Ġ'+ (
ta k
in set
6 13
th ick
ava il
D w
ja kan
")]) ],
Ġr gb
:[ .
1677 72
FFFF FF
v an
Ġ ÑĢ
+' _
j h
* ((
date Time
lo cate
e tag
S R
75 2
"), {
çĤ ¹
Content Loaded
78 3
ãģ ¯
on line
U h
Ġb anyak
K nown
_ );
obj Value
D X
old Vnode
xu ICAgICAgICAgICAgICAgICAgICAgICAg
Resol ved
MAR K
8 28
tween s
K Y
track ing
h ard
Ġp h
mut able
S AFE
6 35
Ġ !=
Into View
(){ $.
89 3
J B
gi an
m sie
close Path
t uple
We akMap
Bad ge
N AV
Ġax is
Col le
K R
Ġw orld
pipe line
get S
7 27
nat ural
[" _
E XT
"]= (
Sta tics
g oods
isS ame
matrix World
," %
)} )(
K c
V g
Drag ging
man tic
led by
F q
x w
Ġd ig
" ";
064 6
Min us
:' ';
P k
æ ĵ
() ?"
: ((
Ġke mbali
78 2
az ure
tra de
Ġm al
G C
ad or
'] },
l ify
From String
spa wn
si r
åĪ °
0000 000
st ors
Fil tered
") :"
co d
tion al
use Callback
fire fox
con trast
tran sitions
,[ ]),
ä½ ľ
dc lo
space s
)== (
bab ylon
":[ ]},{"
11 99
Widget s
Ġun it
Highlight Rules
Î ¬
Ð½ Ð°
5 45
6 18
y ou
App end
buff ered
sn ippet
6 34
o mit
0 38
st encil
SI LON
66 67
Con verter
Ġ On
}}, _
) `
0 19
ĠK a
/ ","
65 1
ci pher
Th umb
ong o
(' $
vi o
after Each
5 22
cI ix
ch ine
||{ });
su d
Bv cn
]+ $/
he alth
ve mber
)) ))
j ar
ul filled
State From
get Index
Ġco ok
pre cation
Ġ player
Oper ations
Ġ à¦
Zv cm
get Minutes
ç ¾
ka X
Un named
level s
Ġpro gress
P w
k d
ĠL ink
Ġum at
v ault
orig Type
() ||(
Ġde tails
Ġke tika
S AA
N d
la ps
U ID
c C
end Angle
Sched ule
Ġo ur
bub bled
f H
qu arter
Immediate Propagation
\ ',
is PropagationStopped
Rh dG
er c
draw Image
he art
",""," ","","
9 60
From Element
æĸ ¹
now rap
ty p
ig bee
Ø Į
on Re
Ġre al
dra ft
Ġdi m
start Index
AR ROW
B AB
79 6
& ":(
79 5
new line
', };
ai ting
q d
+=" \
UN IT
Ġsub mit
D p
ĠL ay
[ --
row se
ighe st
write UInt
ĠM ode
ĠU I
Ġber buat
Ġh am
Ġin teger
16 384
}), {
end Container
7 37
e h
y Q
Y w
(( [
3333 3333
e E
Ġid x
native Element
Ġsy stem
Ġ parseInt
Ġ deferred
fan cy
Bat tle
' )}}
E sc
77 3
fa v
INTER NAL
F N
Mouse Down
Ï Į
ĠIs lam
YX Ig
HE IGHT
D M
);} }}}
ĠS o
To g
Ġbu kan
Tex tarea
6666 7
åľ °
Ġchar set
à¸ ª
æ ¹
L AB
',' +
(); )
ra ce
array Of
unya i
ĠChe ck
CA w
x hc
ĠP e
7 19
J X
w asm
å ĭ
Pipe line
Ġ 89
à¤ µ
G ate
ĠM on
no tice
B W
+ `
)} _
g le
Rl X
} ))),
"), \
or gs
Ġto o
oper ators
abc def
7 28
Ġ` "+
D h
6 28
Z w
Ġ site
åı ĳ
n uniform
connect or
Thick ness
B in
07 2
,' _
Decor ator
on Start
0 48
ç¤ º
}} ]),
Bo ol
De mo
Ġa ir
sta ff
(){ '
d it
$ ("
access Token
Cor ner
Ġ Ùĩ
R UN
H L
middle ware
9 28
de claration
po sitive
() ?(
m f
OP TIONS
n K
ZG l
\ ")
V A
t cG
Ðµ Ñģ
for ma
éĻ ¤
spec ular
root Node
âĸ ģ
ch ip
Ï Ĩ
stop ImmediatePropagation
Tim ing
par allel
handle Error
in jection
ver b
Key words
è¦ ģ
ãĤ ¤
mis sive
dclo udio
Ġ/ >\
70 1
R x
9 47
_ ","
R c
panel s
5 69
ãģ §
W ARN
dif ference
5 67
ĠÐ½ Ð°
font Style
ip t
([ ]);
Ġ Default
") +")
google apis
close On
v bm
in verted
g ar
Custom er
oo led
S s
pref erred
read ing
ng Class
',' <
respon d
Ġhar ta
inv Cluster
ar ison
Document Fragment
(){ (
7 10
Ġh ooks
jelas kan
Te ch
Ġ chunk
pret ty
is Integer
arrow s
Ġc ubic
is ta
6 19
Ġs lot
0 47
format Date
Di ctionary
9 14
,! !
h bW
sur face
Pro mpt
() :"
Ġ place
04 34
d td
Ġal ert
resolve With
åĩ º
pe dia
10 23
lab or
ma k
=[ ]}
Ġ áĥ
4 31
N eeded
FOR E
B x
Ġfin ish
get Width
à »
Ġ side
() ))
([^ \
85 2
7 44
light s
}} ><
ä½ ¿
la mbda
" ;}}
force Update
}} });
The re
Ġ( _
ĠM y
ĠM an
"} ]},{
mouse Down
Ġex tra
ç ¦
ion ic
() +'
Ġ variant
pro ce
è Ļ
li a
m C
85 3
Set Timeout
u cs
Template s
Y b
ya h
J T
Ġ payload
Ġ modal
F Q
] )):
":" %
B H
add Event
à® Ł
UNS IGNED
In verse
Ti les
j wt
fo ur
BO T
Ġen abled
w id
68 1
Ġmemp unyai
In side
con trib
:' ./
hi j
q p
Normal izer
00 03
â Ĥ¬
8 48
FUN CTION
Ġmember i
SER V
a ff
éĺ ³
ABAA EAAQ
out side
}) );}
re start
O y
k f
pe ople
ě [
las tic
ch er
Ġrun ning
Ġmener angkan
+ ":"+
js xs
, };}
inf inite
Ġc ard
S ent
V N
scr atch
7 20
du mp
AA c
T CH
Z c
g lob
ag o
ĠS tyle
R VS
over write
Play ing
Ex isting
L etter
f ld
Ġ commit
Ġke c
at able
ti ll
. "},{
__); __
G Y
ur us
Doc s
CONTRO LS
N ORMAL
EP SILON
Ġakhir at
Th umbnail
Å Ļ
'] ).
Map per
Ġw idget
get Target
.* ?
w all
set Selected
Î ³
se mi
Ġm ar
9 44
X b
]+ \
n B
O g
object Mode
": ()=>
Ġg u
(); $('#
sele c
React Current
G row
Re try
Õ «
vis itor
Ġcli p
Ġ angle
Ġtemp at
íķ ĺ
èĩª æ²»
87 2
class names
ĠS a
break points
ar ound
KAA K
Ġy e
Ġ 73
Touch able
Ġ 74
Ġimplement ed
ì §
é ĵ
Ġf ree
ĠA c
R j
c XG
Ġ JS
Web Kit
Ġ columns
8 25
Ġ Comp
) $
k ZW
min Y
"," ../
Ġcorrect ly
ok it
ou gh
K er
Re siz
in ventory
Ġse conds
))} );
Ġc ate
fri ca
ori te
created At
,' __
"," *
Pres sed
it ation
Ġb ad
get Row
as n
åį ķ
ZG F
bub bles
unique Id
=' ';}
M IT
Q v
\/ ?
Ġdefault s
à¹ ĳ
8 55
Ġ login
Buffer Geometry
ON ENT
X S
8 26
36 00
è¾ ĵ
[ ].
Ġh ow
Man ip
Ġat tempt
Ġen able
Fin der
sh ips
:' _
89 4
ph en
mm ar
à¤ ¤
card s
h on
r um
inline Code
13 107
5 42
},{ '
9 67
U Y
7 47
0 45
ĠC li
ass erts
IAA g
en a
] >>>
){$ ('#
CHI LD
M K
04 6
Ġ 69
H c
H s
UN K
){ };
Fa de
Ã µ
BY TES
Ñ Ĭ
ik mat
current Style
w f
Ġm r
pageX Offset
Ġke ben
XY Z
Inter ceptor
spe ctive
b ility
ti ent
ur ut
Ġp ixel
cap italize
CODE S
Ð½ Ñĭ
get Event
next Element
J P
Re ason
Ġ edit
QU I
'> "+
09 0
sc rollable
Ġh i
/ [
Ġh uk
SE CON
ma suk
p Y
XCIs XG
D URATION
q g
Ċ ĊĠĠĠ
comp letion
Drag gable
D K
fir med
Lock ed
F un
Tr ig
* (){
Iter ation
Un ary
' |
10737418 23
Ġan other
(? =\
], _
n T
es ri
RO OT
fore ign
?{ }:
N c
af fix
Ġ+ \
neg ate
": '
Ġh ook
Z A
Ġes cape
SA MP
ä¸ ī
Ġ vertical
dn Vl
09 7
c ubic
p itch
à¸ ļ
OR S
s an
200 5
Ġbo th
write Int
bra him
sc lude
Q j
Ġtool bar
Ġse m
Source Index
Ġ/ ></
w cm
,' "
ra c
Ġdo main
], \"
RESU LT
d ar
264 0
inter active
apa che
() ==='
rest ri
å ¡
to gg
v Ly
File Path
context Menu
tun juk
Î¿ Ïħ
Ġs m
in vo
Ġ 97
5 66
Ġ common
ĠMusli min
Ġji ka
($ ,
Ġmem ba
}, (
Ġ owner
L ANG
ass oci
q B
Ġeng kau
å¹ ³
b rightness
9999 99
j un
handle Event
Ġsign ature
data Transfer
87 4
79 4
:// /./
elli pse
i Display
Ġ ';
dd manager
Q f
Match ing
Ġpe tunjuk
pro cessed
88 3
Ġf lo
)===' [
M R
str al
N Y
ì Ĭ
; },{}],
Work space
") >=
linked in
Ġs in
Full Name
con ditions
O X
May be
M f
&&( <
Ġb it
Comp act
IF T
get ters
85 1
tr on
case s
ĠP USH
slidesTo Show
p lied
> ';}
Ġsuccess fully
h ub
))} },{
Valid ity
typedArray Tags
on Press
åı ·
b ill
cho ices
Cancel led
Ð°Ð ¼
({ });
Ro les
k al
67 67
ch ase
Move s
sto ck
kr atos
Ġa ctions
4 21
Pixel Ratio
Ñĥ Ð½
anti ate
yy y
Ġ locale
exists Sync
]+ )/
Back bone
jsonp Callback
Ġw hat
Ġmark er
Ġle ss
Ġg r
(" ?
S cheme
C TED
Anima tions
13107 36
||" ";
ang les
a kan
);}} },
Ġ geometry
NE W
}} }),
RO LL
T L
æ ®
samp les
di jit
H C
ur an
props Data
O d
0 28
label ledby
cm Nl
inter cept
on Enter
w C
lib c
min X
Ä ĵ
Po sitive
T B
) ";
ra tic
àª ¾
reverse d
264 2
0 27
Mouse Event
DateTime Patterns
7 17
break point
Ch oice
De ps
api Key
mer ce
is UTC
Bi as
ĠMat rix
m h
vel y
L arge
HE ADER
tin u
Ġ\' '+
E f
re pe
Ġb ul
Ġfollow ing
0 35
common s
G h
å ģ
Ġi e
an no
0 29
ĠS ub
9 89
Ġday s
9 75
ĠE ng
W h
mp uan
DOM ContentLoaded
Pa ren
te le
as cii
cryp tion
â´° âµ
s low
åĬ Ł
)( \\
(" ").
)) (
finished Work
No v
w A
ĠS y
MO D
0 26
8 34
è ª
r il
ĠN ot
i h
a verage
s mi
sp here
Repos itory
Finish ed
8 58
% ]
? ("
mu sic
8 32
Form Group
B old
H S
] ["
le ad
Ad vance
a co
Derived StateFrom
e ye
Acti vate
No tifications
no mbre
H uman
bG Fz
get ById
]; "
ĠT h
")]), _
4 23
Fl ush
bir th
GL ctx
} ]},
y ang
Î Ń
onMouse Down
compress or
ĠD oc
` ;}
multi line
uni q
s ch
Ġh elper
ID DEN
max Y
se ll
09 1
H d
helper Proportions
5 80
Ġ >=
+' <
' >\
Ġpro xy
G c
J m
Ġ lower
easeIn Out
} )};
F ROM
ah kan
N f
i ro
ê ³
tifi er
Ġ week
) ('
mpa ign
J I
ë ¥
u z
Z Q
(), _
CON TEXT
] ][
AR CH
Ñĥ ÑĤ
'] ;}
}} </
7 24
topLevel Type
Ġh ex
J Y
Ġper intah
me tal
i ent
Ġ 77
&& '
Post s
new State
int ent
88 6
ĠW indow
äº Į
ab a
98 6
full Width
VARI ABLE
Persist ent
n A
ĠP a
dG hpcy
Chunk s
Mapping URL
Strict Equal
L ate
à¤ Ł
Ġpri vate
"> &
Ġy a
Short cut
con version
q f
Ø§ Ø¨
Ġbes ar
ldHVy bi
Text Input
9 17
Comp at
get Max
B m
D river
comp osing
Answ er
ãĥ «
pos able
Connect or
vel te
comp lex
5 46
Ġl alu
Cre ator
Object URL
get Uint
DOC UMENT
S ING
S RC
Ġk ed
5 23
Ã§ Ã£o
has Focus
In serted
qu aternion
Ġr ule
Move d
8 16
tri p
Button Text
Z k
P AT
); ++
COL UM
Ġe val
Image Data
Ġ Bo
32323232 32323232
Ġa mount
äº Ĩ
($ ("#
Web Socket
a an
s ensor
track er
=! (
Â ¯
Z SA
LE AN
]+ )\
OFF SET
. âĢĿ
9 29
] ],"
matches Selector
Z Index
X Object
M icro
attr Handle
', ],
clu sive
ment al
Exec ute
ÑĢ Ð°
Start Time
s afari
Ġe very
']= '
R ank
0 57
"] };
c ca
c ure
getAttribute Node
Ġ rendered
Ver ify
O VER
Ð°Ð ¿
col lapsible
Ġnumber s
22 22
Reg ular
E z
| "+
Ġw in
th y
pos al
un register
Pl ural
' ==
) "),
rol led
Zh bH
9 37
Ġdire ctive
Ġ Token
è Ī
Ġ ct
Ġ" \\
( (!
slides Per
To do
ee e
. ".
HE RE
Ġfa ce
hs la
Ġs it
ĠRe quest
å¤ ©
throw Error
isNullOr Undefined
i me
Â ģ
I OS
Æ °
æį ®
S orted
over rides
ÐµÐ ²
base State
E ls
))}, _
o h
ng On
D ROP
Document s
V Y
new Data
thentic ate
TY PED
F ollow
Ġp x
qqqq qqqq
cur acy
Mime Type
SER VER
:[ ["
Ġl ines
ged In
è Ĥ
() )?
Product s
Ġke mudian
8 12
). ","
Ġd uring
Ä Ļ
get Label
tin t
E j
bus iness
PO SI
sk y
àª °
ph rase
Ġro unded
initial State
Con f
=' '
7 66
Ġ Ñĥ
T c
FO UND
:" ".
Ġnavig ator
< >
is True
Ma il
pi ent
åĽ ¾
W d
( ("
de t
base Path
ver ity
0 34
8 17
q unit
on Input
get Window
\" .
ä¼ ļ
ĠIn c
M AT
6 33
7 26
mo v
Context s
Ġ â
Ġd istance
Ċ ĠĠĠĠĠĠĠĠĠĠĠĠĠĠĠĠĠ
ud GV
åħ ¶
ĠC an
L in
Ä Ł
Ġe m
bas ename
an si
= ><
Ġ 95
è £
E very
15 00
Ġy et
75 3
à¤ ¹
,' %
ĠA ll
Ġ Vi
}} },"
)&&! (
De tector
9 69
Sn ap
URE S
Cesium Math
K I
]|| [],
={ <
Gener al
Dat atype
p B
U F
x X
div id
enum s
ta ined
à £
V q
fail s
0 33
0 59
w izard
cI l
Ġ 87
Request AnimationFrame
default Checked
rep orter
List ening
X Fx
Ġ` '+
âĥ Ŀ
IG H
user Name
"], {
GAA G
go v
O u
cbiAg ICAgICAgICAg
6 58
Ġ env
Sy s
=" {{
al g
pie ce
Ġsamp ai
a de
Ġ12 0
is N
7 34
æ £
à® ²
Z f
}} }},
Ġse ction
à§ Ń
ts x
iso Week
U id
outer HTML
1212121212121212 1212121212121212
pos it
ëĭ Ī
dW U
+ $
UNS AFE
S uspended
front matter
th es
To day
re di
md l
] ];}
ê¸ °
ay at
Ġtab index
S ENS
a le
7 58
0 67
[" __
çĶ Ł
Ġc atch
line End
Ð Ĳ
ÉµÉµ element
8 44
ga W
Ġb el
ho use
order By
Ġbound s
8 36
; ":"â
Fa st
14 14
Ġ1 44
U W
,"./ _
AC CESS
Ġmus yri
is Mobile
sc en
Ġs atu
scroll Width
S olid
ma ss
Ab br
Ġsel alu
6 59
")} );
start Y
+') ');
ER S
âķĲ âķĲ
éĢ ļ
h el
un supported
Ġ8 4
intah kan
Code Point
Descrip tions
is New
get Tag
AD AA
Clo sing
76 2
Ġ4 00
"," [
ĠF ire
U TE
Pa lette
Ġ operation
HTML Element
Ġ Proxy
ck editor
Ġ Value
:{ ...
V L
go To
Ð ŀ
} &
)< (
m il
rx js
Ã ¬
åĻ ¨
map per
Ġ loop
044 3
set Content
un safe
is Element
el u
+ )\
j Y
f ed
du k
Ġme mer
exp licit
re veal
S g
al lation
"; _
Ġa ku
remove Event
bra ce
4294967 295
C k
\\. |[^
0 66
YX R
b la
","- ","
ï »
J f
04 2
end Offset
P ut
up loader
Ð½ Ñı
Ġ Code
Ġmat erial
Ġs uch
ha i
I ST
å ¢
"],[ ,,"
à¸ «
G X
R d
:{ _
)} )).
]); },
æĪ ĳ
6 30
F m
))} ))}
roll up
Ä Ľ
86 1
is Hidden
base Rest
è °
CUR RE
), -
re y
! \
Ġ 78
:' \
Cor rect
ĠB ig
012 3456789
ĠS VG
* $/
THE ME
ol or
]= \"
C AP
) =="
R N
S QL
Ġ fixed
Ġ10 2
0 32
L oose
W IN
che vron
LCJ zb
UU ID
7 06
, ()=>{
ĠL ine
à¸ ķ
Z ip
sha ke
is k
Ú Ĩ
Ġby te
Hand ling
qu ill
ÙĪ ÙĦ
B and
/** /*.
h E
warn ings
In crement
"} ]}
se quelize
)) <
u ator
ti cker
ca o
Top ic
This Initialized
Se par
ka W
ë Ĭ
la ce
Ġdat abase
\ ",[
Q jt
g K
Ġ8 3
able Tags
U c
AJ Q
æ³ ķ
"," %
L d
is Block
D d
ab b
9 26
Ġ firman
(' %
AC U
)=> ({
() ',
ä¿ ¡
;} }};
Fi xt
w ic
åĨ ħ
+ ',
< -
ãĤ ¯
,[" \
hs v
is ted
pixel s
Sh arp
client s
on Scroll
web ix
Ø³ Øª
Ġ< =
core js
YW Nr
à« į
7 29
U K
90 2
Ġle ast
W c
attr Name
hover State
y x
)+" \
em bah
8 15
Ġfor ce
] &&!
h dG
13 13
Ġsk ip
ĠS k
prov ince
Z O
av g
ka head
sum able
detach Event
Clip board
a side
Config s
)=> (
Ri ch
] :{},
in dicators
=$ $
Ġth rough
ĠI S
'); $('#
à¹Ĵà¹Ĵ à¹Ĵà¹Ĵ
th i
n S
Ġmo ck
Ġme mo
n P
Con t
ACsAKwAr ACsAKwAr
]+ ?
Utili ties
Ġti mer
default Options
needs Context
+" %
R w
":{ }},"
R oo
Ġ ent
fir ing
get Y
create DocumentFragment
'] ").
KT Util
Ġnet work
cance lable
y aml
ex cel
I v
client Id
Des k
tr ust
Contain s
)$/ .
Radi ans
è Ĳ
Gest ure
full Path
:/ [
o x
[ ]).
+" &
IC ON
Ġname d
ctor s
up on
+'/ '+
Ġkepad anya
Ġper son
ĠSe e
+" _"+
m V
7 38
Date Picker
Õ ¸
E k
)} ))
Constraint s
F p
Ġh ad
int s
IC By
Ġh our
Z N
Ter ms
< %=
9 36
G reater
Ġpro gram
= ",
dis placement
H f
f all
Ġc y
Buffer Attribute
C ANCE
=" ".
.$ $.
selected Item
[]+[])[ +
M UL
Ġsource MappingURL
æŃ £
U AA
," (\\
Ġk u
:' "
Ġh istory
Ġmessage s
09 5
88 1
error Handler
delegate Type
Ġf lat
'); $(
author ized
he at
Ġ ang
T M
P TION
D G
Ġbe gin
start Node
éĹ ´
iter ation
bid i
L c
å ĸ
ga in
X B
Valid ators
dbl click
qu a
ĠØ ´
]],[ ,,"
QU ERY
h oriz
æĹı èĩªæ²»
LA TE
à¸ °
"); _
Level s
Ġcap ital
> ;
n ah
time picker
I AC
ann ing
FFFF FFFF
\ .\
am an
get Height
ALPH A
PAR TIAL
Ġ mouse
Ġm iddle
W ITH
è¾ĵ åħ¥
() \
(), (
moz illa
Y A
t g
CLO SE
Ġ Par
æİ ¥
Ġ room
lang Dir
Ġ ['
c In
response s
9 58
Ġx hr
k lass
al gorithm
åĬ ¨
Î ®
Ġ\ "),\
]/ .
Ġoccur red
ĠN av
(/ (
O h
Global s
97 4
Spec ifier
cret e
E psilon
assert ThisInitialized
We st
é Ĵ
LIN K
real m
Ġse bel
entifi ers
Ġout line
Dep loy
G EN
slice d
Ġdire ctory
Ġinher it
Ð Ķ
Ġkeben aran
07 4
KF wi
max length
n orm
]* =
q h
R gb
? "+
ar ang
":{ }}}
set UTC
im ize
") ?(
Tri m
} @
7 56
Ġw atch
Decor ation
=" "),
88 88
æı Ĳ
TRI STATE
st udent
W X
H ar
Sol ver
* ,\
re ceived
", .
Pl umb
Q d
text Color
à® µ
}} ],
TER N
:' -
r k
] )};
") :(
or tion
ps um
ĠW ork
Ġ( \
QUFF Q
u j
jo g
": $
W H
process or
"] ){
Ġdis able
P f
7 99
get Class
G w
Ġd d
7 16
Y H
ur uh
Holder s
Watch er
M V
"); $
pur ple
E PS
æł ¼
media Type
Ġbo ol
HJ v
Au thentication
Graph QL
di e
me try
]||{ };
Ġ ')
Min ute
get Point
7 49
à¤ ľ
, ##
R f
ri ch
9 12
event Data
å £
8 50
Event Name
) (!
ä½¿ çĶ¨
to graphic
55 296
Ġsu dah
vZHVs ZXMv
J x
scroll Element
widget Name
arn ya
Dif ference
Data Types
call Count
ĠC a
z g
"," âĸģ
p ink
Z CB
||' ';
clean Data
Top Level
"} ]},{"
at tached
9 25
sp ark
Ġvi a
high WaterMark
pro c
ch an
G s
] &&"
G MT
I so
j f
MO USE
0 77
å· ²
char ge
emulate TransitionEnd
r w
observer s
er i
K Sx
C rypto
re at
:" ^
A st
Ġs ched
}} )}
8 68
r bugg
ri ed
BQ V
9 06
IC T
ĠY ang
Ġch ain
S ql
à¤ ª
(" }
( #
ve tica
ãģ Į
altern ative
(" ")}
document ation
Me tric
background Image
gA o
Re view
base URL
ra s
organ ization
Match ed
TIME OUT
ĠI E
7 25
":" (
Cap ability
7 65
Ġ ','
t we
ellips is
ãģ ª
87 6
); },"
('../../ ../
K B
la tin
Ġsc ene
un e
te t
H IDDEN
get Object
play back
Ġfunction s
Ġdel ta
]) ])
is Touch
Ġinst all
0 78
8 10
) "},
å¤ ±
200 1
7 35
> )
ĠI con
FR AG
e AA
Ġp y
Ġde lay
wal ker
Ġham ba
Ä «
on Resize
user Info
"} )}
Project s
- /
O TE
ĠØ ®
di agram
ĠY ah
a q
av el
ST RE
control led
FE TCH
è ¶
pe m
OPER ATOR
get Body
set Size
Ġ/ ><
ĠC tor
__ );\
Table Cell
Source Map
Ã ĩ
st ride
);} ),
ĠS YS
8 59
s B
>{ {
á ¸
Ġ ot
or ary
bul k
89 1
bn Q
iv ot
Ġ rea
Ġtool tip
ri m
Bounding Box
ë ¦
Ġ checked
Ġinst alled
abi la
TE X
we ather
à¤ ¯
NO WN
! ",
POSI TIVE
O B
Device s
start s
Ex ist
move d
9 64
IMP ORT
| [\
I jp
7 55
au thentication
vide os
ya W
as is
P haser
iz ing
get Or
bounding Box
gICAgICAgICAg ICB
local ize
c redit
s chool
à¹ĳ à¹ĳ
C d
lat lng
7 30
Jan u
max X
Inject or
)}} )}
isValid Element
) \/
Ġa m
Ġstatic Class
Ext ensi
' ","
W x
per spective
Ġ* *
Y mx
jac ent
ques tions
session Storage
)&&( !
Ġsi mple
ê ²
wire frame
Ġsi apa
J J
s po
(); $(
ĠĠĠĠĠĠĠĠ ĠĠĠĠ
èī ²
clone ableTags
Ch oose
gr ad
hydr ate
Ġj a
K m
u y
cr iteria
N ER
Def er
S amp
Ġ ting
TRI M
Ġspe ed
w esome
Re c
',' @
96 1
S IGN
ĠM ed
__ :
79 1
pri me
U d
og raphic
Med ium
Re ci
Ġmax imum
ĠSer vice
col Span
ĠA b
++ )(
Ġ8 2
over view
er as
n cc
à¯ Ī
access or
S ince
I AN
c up
BO O
desc ribed
magn itude
> '),
Ġ extension
8 66
ĠSer ver
st ers
Ġap abila
9 49
Sh ell
hy dra
No tify
ãģ ¨
inter pret
Inter polate
Navig ator
fri end
g amma
AT T
Ġ entity
slide Count
Form Item
,}, },
Y c
Ġo s
- +
9 35
aik at
mk dir
ful filled
Directive s
Ġjo int
9 57
Order s
N x
sh arp
off line
YE AR
Call s
9 27
; ":"
red I
cancel led
Ġ iterable
(){ $('#
Ġset ting
Ġk al
de clarations
Ġget ter
Ġpres ent
cap t
B lend
xu ICAgIH
Ġ abs
.... ....
til de
ĠI ter
Ġex act
ĠT able
TRI BUT
Ġmeng ing
ĠÐ¿ ÑĢ
é ¦
li ca
o B
answ ers
bra cket
Sh op
,' ').
ch mark
ci o
q m
',' _
ti vity
Ġ2 24
Z d
lu k
ĠI brahim
trunc ate
b es
l un
ro s
" }};
n umer
Over rides
7 32
Ġe e
H w
('. '+
pro vided
ch es
Su ggestions
(; ;){
Key down
abcdef g
ang i
06 28
s ans
] =="
(); $("#
8 67
iz r
75 1
mag ic
m oney
stre et
Ġ look
// /
é ł
') ===
K J
AA E
ent a
comm unity
9 88
u tions
ter ms
co er
IN SER
"] :
C ut
Ġtoken s
constraint s
=" ===
Ġ Group
Mis c
Account s
] );};
pla cer
QUFBQ TtBQU
l Y
;} );};
ele vation
q cy
stroke Line
æĪ ·
Ġ8 6
={ }}
js Plumb
ç± »
"}} )],
q rst
]) \
lo ss
=' ',
sheet s
V BO
M ui
FBR UE
Data View
à¹ Į
Ra ting
("(" )]),
0 56
try Entries
own Keys
;;;; ;;;;
9 05
K V
Ġ Input
P IN
rop y
(` /
SELECT OR
P v
collection s
Ġdi e
setAttribute NS
F Y
FU LL
L k
Ġmeng atakan
t weet
BE FORE
Ar ticle
HO ST
7 11
COMP ONENT
Constru ct
K d
ĠM AX
xu ICAgICAgICB
28 57
Ġw ould
attach ments
(") ")]),
Vis itor
++]; )
Ġo e
Ġne eds
cs rf
18 75
Comp ile
g j
87 3
8 27
type String
A SS
}", ,,,"
ç ģ
replace ment
Yi eld
pass port
Ġdo uble
M ach
Ġst orage
=$ ('
ST ORE
h f
line cap
ex change
get Title
(; ;)
Ġ head
; $(
E U
M orph
final ize
redu cer
is s
get Base
Ġ1 19
Ġ execute
trigger Handler
to ler
Ġ arrow
St able
s Sort
ce ipt
ator y
state ments
mb ly
out let
éĩ ĳ
Ġf l
+ )/
g D
Ġw ay
bu mp
éĥ ¨
,,,,,,,, ,,,,,,,,
9 66
)+ _
In strument
public Key
, }),
}` ).
)( [
iv a
064 8
P aper
Public Key
0 22
Re jection
();} });}
Ġ8 1
13 10
S pot
Ġ shape
sh am
current Node
Char acters
Ġstyle d
stand alone
a C
An notations
R ing
L ex
H z
') ]
E p
E moji
menu item
ren d
7 64
St encil
St ory
Draw ing
=[ ]);
} )):
g ree
E ST
Ġ listeners
Border Color
No tes
}; $.
syn thetic
WOR D
Ġl on
rust um
Ġwork s
ti ap
Play list
Number Of
] ])
Ð¸ ÑĢ
ada an
Ġsebaga imana
ik ut
ZX N
è ±
Ġlang it
si x
loo kahead
éĩ į
Over view
9 48
â Ī
Frame buffer
ik uti
PRO CED
8 56
Vt ZW
');} });
in struction
has is
C LE
Ġ ["
j B
)? /
æķ° æį®
Analy tics
scroll Y
Br and
à¹ ģ
CON TRIBUT
ma i
ĠĠĠĠĠĠĠĠĠĠĠĠĠĠĠĠ ĠĠĠĠĠĠĠĠĠĠĠĠĠ
me o
"] ).
Ap pro
ĠM en
S ig
We ak
C W
9 59
89 0
Ġ 92
ab ove
ç¡ ®
xvYW Rlci
:/ (^
get Children
ip her
X s
C US
v or
write FileSync
d ration
J N
c ers
Ax ios
);}} ;}
Ġ Header
Qui ck
8 38
flex Direction
(" //
gro uped
' :[{
ng cc
red Mul
q v
ĠS p
overflow Y
get Options
Des ign
op f
Pi cture
car a
# __
à ¾
ff ee
sk ill
getResponse Header
Ġup per
P URE
ãĤ ĵ
è¿ Ļ
åŃ ¦
conver ter
Ġmin utes
Ġex ception
n or
get Container
Mo dern
ap on
"," :
Ġ 91
IC LE
pag ing
Sw g
on Success
ca re
Ġ Key
IH sg
K k
pZ i
8 13
src Element
q z
check out
9 77
ex cluded
Ġm ongoose
Parse d
child ExpirationTime
Inst all
Un supported
b ank
Sw ap
> ${
K p
ITER ATOR
bG U
768 4
T ur
ĠC e
l ife
upa kan
so ck
ĠS pe
fire store
j x
Ð ļ
vue tify
() );};
e mo
Top o
au x
SE CRE
spe eds
âĸ ĳ
Pro viders
! ","
áĢ º
Ġy yyy
target Id
ellips oid
b ol
data Priv
$ \
C f
":" "},{"
Ġ` %
G N
åħ ³
+ |
P d
LE VE
7 59
Ġinitial ize
"); __
9 53
Â «
ï ½
() ']]],['
IH Jl
borderTop Width
(". ");
ne cting
âĢ ¦
v ZGV
," ",
Q F
] ":
Ġke s
MA SK
stor ies
0 49
Ġa e
Ġs ans
Show ing
á ¹
tim ate
' '
Ð Ĺ
M SI
intersect s
w z
ICAg IF
"} )},
k ZV
new Obj
li m
D lg
u dy
contact s
sw ing
ca mp
Open ed
QU AL
component Options
an j
d art
Ġ opt
åŃ ĺ
MS G
Ġread y
su ggestions
Pref ilter
ãĤ ·
)}), (
component Normalizer
8 42
in ting
q k
Ù Ĺ
aaaaaaaa aaaaaaaa
is Comment
Strict Regex
Ġin te
"], (
in y
C p
9 45
auto focus
f ew
for k
(); },_
ÂłÂłÂłÂł ÂłÂłÂłÂł
multiply By
Se e
). \
in to
= <
. `
Be zier
AK AC
Ci Ag
Â ¤
let ters
Aggreg ation
,' /
(){ !
' ';}
Ġz ero
Ġ\" "+
ĠØ§ÙĦ Ø³
la ma
Y es
Ġwe re
SECRE T
ARE A
97 3
36 36
K f
Di ag
spec ified
'@ /
get Native
:"â ī
% "
("," ),
RET URN
9 78
import Default
mask ed
scroll IntoView
unique Sort
X d
fin der
Stack Trace
Ca st
Pro cessed
Ġma sk
G x
áĥ Ŀ
j m
; },{"
R A
YT Player
STRE AM
un ary
al ph
I tal
to Throw
h g
5 31
re comm
is tr
F oot
R tl
clone Element
on message
Ġhar us
err y
à¸ ·
è Į
dm Fy
Ġ1 50
è į
CONTRIBUT OR
dp Div
u ZW
apply Matrix
s il
r uby
?( <
Bh Y
æµ ·
sub s
ING S
ks ana
ĠĠĠĠĠĠĠĠĠĠĠĠĠĠĠĠĠĠĠĠĠĠĠĠĠĠĠĠĠĠĠĠ ĠĠĠĠĠĠĠ
B M
Channel s
co very
material s
9 04
] !=='
98 3
Div ider
Ġon click
Ġpar ser
type Identifier
CONT AIN
ti r
scope Id
8 80
k ely
f rozen
if fi
NU LL
96 2
d nd
Ġat tach
Ġa rea
Ġd en
3333 3
ï¼ ģ
D f
H k
) :{
content editable
cb s
g wt
K z
89 2
Ker nel
Ġm uk
"] ("
pack ed
Ġad ditional
C rop
get Seconds
ta pe
Zm F
9 16
9 34
I Y
be low
E J
regenerator Runtime
9 80
get Page
Ġthe se
__ ",
Ġp latform
Ð°Ð ±
z oo
Ġ\" \\
; <
get Initial
âĢĭâĢĭ âĢĭâĢĭ
æ ¢
v in
8 19
m Data
Ġ View
wiki pedia
po ster
(". "),
is Error
Aspect Ratio
Desk top
âĶĢâĶĢâĶĢâĶĢ âĶĢâĶĢâĶĢâĶĢ
Ġb lob
finally Loc
Ð ĺ
Â ¦
Ġc lo
Ġs ol
8 77
d HR
re mpuan
M AC
F ja
T oo
light box
E ast
B AD
åŃ Ĳ
ey J
wp ck
Ã© s
Ġg raph
TI ES
8 45
åĲ İ
J ldHVybi
Ġis NaN
å¤ ļ
T f
; },"
be at
xu XHRcdFx
di ctionary
R oll
set Time
ce mber
}} },{
book s
create Comment
0 75
300 2
ncc wpck
-- ;}
Ġcall ing
); ","
W ay
prop Value
Ġc rea
9 33
toLocale String
0 85
layout s
"] )("
Respon sive
utor ial
Out let
un expected
7 33
isti ne
i ch
96 3
æł ĩ
Webpack Plugin
ty pography
q N
25 47
exec ution
5 21
| _
Ċ ĠĠĠĠĠĠĠĠĠĠĠĠĠĠĠĠĠĠĠĠĠĠĠĠĠĠĠ
],[ {
Ġmer upakan
Int l
('./ _
Me ss
Child Context
){$ ("#
C ALL
è ı
)( \
G D
r h
De leted
mo val
In clude
default Message
element Ref
Ġmen j
ue l
b alloon
&& $.
zone Offset
mo m
7 09
Ġ ~
global Eval
)} );}
DR AW
R ay
æ ¥
o Ag
,' ']]],['
project Id
=[ ["
noop ener
ed i
bg Color
und ay
"], _
rag ma
get File
ĠP ri
abcdefg hij
g antt
up grade
transition Duration
T urn
sing leton
Ð° Ñģ
Transition ing
Flat ten
ï¼ ī
Scroll er
Format ting
X L
` ,{
gr ab
Ġde p
ï¼ Ī
2 0000
G lyph
X c
f Sx
ĠP ass
find All
g un
mx Event
WEB GL
dra in
)|| ["
IDE NTI
data Point
N orth
Se quelize
mouse Up
Bra cket
klmnop qrst
go ing
U CH
event Types
or tools
å ł
98 1
åĮ Ĺ
AA CD
pos y
Render Target
& :
Y U
Lo cations
Iss ue
) ');
ç Ħ
ĠMa ka
)} )}),
table t
ment o
called With
pa ssed
match ing
7 40
Ġ low
, ~
BOO LEAN
, }=
In v
W EE
fra c
8 65
use Memo
ĠA M
9 18
jo bs
Ġwr ong
Ġter jadi
() ==="
Ġb r
[]]+ (!!
COLUM N
browser s
Ġ Class
à¦ ¿
Poly fill
ĠN UM
Width s
Q S
+" `
Ġg ra
",[ ],"
Ġsa ma
sign up
Ġc r
open ing
utili ties
d F
c ue
'} },{
Ġ Item
Ġ username
Parent s
c ert
comp atible
Pa int
EAA A
get Column
:"- ",
å¯ ¹
t float
O WN
Z B
Ġw ho
re cent
row Span
se x
es ungguhnya
Be arer
q j
}, \
LE T
C AAAA
is te
ar tifact
removeAll Listeners
ëĭĪ ëĭ¤
pos x
;} ),"./
inte gration
è ¢
Ġsuper Class
Hand les
0 58
05 2
Ġpo ssible
Months Parse
M aj
Â Ĥ
ven ue
In tro
E K
Ġau dio
replace State
Ext ended
/ ?
12 07
)) +"
get Center
C x
*( \
Ġde v
L R
', ()=>
0 88
pe ctive
){ .
Ġme lihat
Ġj angan
k J
get Offset
Inter active
click able
(){ $("#
Auto complete
[" *
. "},"
row span
}` );}
h x
Ġ 93
Organ ization
åĬ ¡
Ġf ragment
D on
scale s
a led
b able
F P
set Color
Drop Down
weekdays ParseExact
token izer
$ $.
0 60
ĠYah udi
6666 6666
f unct
0 23
h q
bG V
Feb ru
S aving
Ġ textarea
0 68
grid Options
u vs
thick ness
At Index
8 29
en crypt
en crypted
En ded
radi x
e psilon
AKAC gAo
ĠJ o
unique ID
8 22
get DerivedStateFrom
tr ac
Transform s
P as
j dGlvbi
e lapsed
ãģ ķ
Ġ join
Jo int
9 15
å ĥ
)=> (<
si red
C TR
å¦ Ĥ
le arn
C X
G W
Ġse telah
at al
8 000
56 25
ç Ĭ
s keleton
7 60
10 80
lo re
trig gered
ë¡ ľ
F inite
g ri
B UI
array Buffer
Ġke ba
Ġpro vider
sor ting
is Custom
e missive
=[" $
=> (
({ \
n Dan
pro du
8 69
9 55
Ġ refresh
D W
f k
de partment
E W
TO GG
Gate way
O H
auto Focus
Ġspec ify
Read only
WOR K
described by
last Modified
fici ent
handle Submit
16 00
Ġad min
Y x
user id
D ON
R ad
ĠRe ad
ar s
æ ļ
hi erarchy
K v
push State
ID ATE
CANCE L
]);} }}
0 50
get Re
Ġfla g
Mark s
_ &&
get Random
Dis miss
aW Yg
fill Opacity
starting Index
r z
ame t
ĠReact DOM
Ġte tap
LOAD ING
data Table
":{}}} ],["
Ġ1 10
T one
Ð¾Ð ¹
fVxu XG
g ni
* ",
abcdefghij klmnopqrst
M N
ĠN aN
ai lab
)) -
ĠØ Ń
is Symbol
Ġa mal
called Once
Shape s
getP ooled
AL IGN
em y
G d
ãģ ĭ
Ġname space
åħ ¨
C fg
7 80
Frag Color
n ice
AF TER
":" ")+(
ut a
LAB EL
Big Integer
Se ed
Ġab ove
Ġ mount
si ty
type ahead
ui Hash
9 01
9 85
US D
(?:\ .\
has Content
11 00
)) ?(
")) ||
SH IFT
]) )}
format ting
6 23
0 21
&& <
Ä ĩ
ĠØ ¬
X hr
é« ĺ
0 87
Ġmat rix
DateTime Symbols
vi con
canUse DOM
enti fy
alloc Unsafe
T k
has Value
inter ceptor
ensi tivity
there um
ID Ag
Inter polation
Save d
l isting
Ġo k
upload s
Ġpan el
Ø§ Ø¯
m appings
Text ures
O V
Qu ality
seq Id
cent ered
utc Offset
Redu ce
Lo gs
98 2
Curve To
From Node
on End
Syn thetic
ol ate
9 39
] >=
Max imum
ĠT O
å» º
05 4
Éµ ngcc
se par
can onical
par allax
content Editable
ah an
User Id
Ġfe ature
pen ame
Ġ3 00
L f
do ub
In active
Ġsup plied
]) );}
e ting
0 131
ch allenge
Ġi r
;}; _
ten sor
A ir
v k
gate way
Ġ "}
In struction
EventListener s
Ġ10 7
ĠF oo
åĪ Ĺ
Des tination
* ?
scroll X
ĠA nd
G Q
get Host
Ð¸ Ð¹
à§ ĩ
Ġcon tinue
x vc
bG F
(' |
di es
Ð¾ Ñģ
){ _.
In variant
æ Ĵ
Ġs ince
havi ors
static s
', });
à´ ¿
Ġmen ge
7 46
Multip lier
W HI
cti vity
ti k
":" \"
selection End
âĥĿ âĥĿ
8 14
Ġs lice
D rain
Ġp u
Compo ser
po d
Ġe mp
ãĥ ĥ
Ġ les
Ġe a
th ers
+' :
ret rieve
Ġp end
9 32
gICAgICAgICAgICAg ICAgICAgICAg
' ",
Ġ{ "
fb W
9 24
h or
ill is
Ġ$ =
at k
fr m
n Table
× ł
ĠT a
i lation
Ġf older
iter ations
n vec
Re con
ST AR
)? \
ship ping
F raction
X H
device s
dayOf Year
pa que
Diff use
meridiem Parse
åĽ ŀ
text ures
R ST
orth and
Ġ unique
En coder
get Cursor
() );});
J F
vo te
8 47
":" &
an do
Ġ12 3
connection s
De precated
Ġre lease
mark s
Line Number
=[ ...
G p
Ø§ ÛĮ
Ġst d
44 44
+= `
U j
get Local
æĭ ©
str Test
last Need
à§Ń à§Ń
com merce
L Q
target Inst
Phy sics
XC Ip
drag start
Ġc x
"), _
Contain ers
)}}, _
"}, (
Pro mises
LW xvYWRlci
eno op
ont able
context Types
ç ¢
}} ();
éĩ ı
con sent
AND IDATE
port folio
Ġsesu ai
QUFDQ TtBQUN
> )}}
.$ _
68 75
pa s
add Command
-- >
circ ular
. "},
+' ">'+
Ġt x
19 98
S en
fancy box
10 48
|| -
Ġmela kukan
bG VzL
cla zz
ĠC ard
Box es
ta i
æĺ Ł
9 65
ICAg IC
: $(
é ¾
56 320
ka i
V ENT
97 2
âĶ Ĥ
() ):(
à® ¯
0 40
9 52
; ").
Ġse bab
Be haviour
é ª
fill Rect
06 1
E cho
'] +'\
crea tive
flex box
ha ir
w ell
Ġ ctor
Ġs ifat
ĠLay out
Ġdrop down
sp ring
dis cussion
log ical
AKACgAo AKACgAo
Ī ĺ
trans actions
IN ED
":" [
Ġ able
',}, },
doc Elem
oft ware
C ubic
w riting
åĲ Ī
éĢī æĭ©
normal s
Clamped Array
ĠP op
getUTC FullYear
namespace URI
page Number
Ġs yn
compo site
qual ified
group Id
gl ify
' [
in voice
DOM Property
12 65
ÐµÐ½ ÑĤ
set Transform
progress bar
get Start
9 79
Ġ1 11
ld s
çĽ ®
08 6
per f
phy sics
read File
K x
Close st
YX J
trigger Event
On Change
utili ty
Element Child
Data URL
Ġbind ing
cipta kan
Di agram
FO CUS
call er
W hat
ìĿ ¼
m ing
ZXJz aW
dG Vy
pre d
9 50
671088 63
Z P
is Static
ke s
squ id
Jv b
9 19
W k
Ass ertion
0 69
Ġ rename
+=" </
"> ${
cre ator
kuasa an
cp u
html For
R q
),{ },{
iz ers
g id
à· Ĭ
Tru thy
l ider
æĪĲ åĬŁ
vio let
iz ations
Cook ies
pars enoop
v j
z k
Regis tered
] <=
Dispatch ToProps
G RE
è Ĺ
76 1
)) )),
Comp any
; ;){
distance To
à¸ ¸
TO M
interopRequire Wildcard
n if
Ġor ig
);} }});
return ed
quo tes
Form Control
]],[ ,,,,,,,,,[-
H U
Ġj q
Apr il
\" ]
Ġin vo
Year s
IC AL
æģ ¯
9 54
08 3
arti st
c annot
k sa
on Open
ä» £
Ġp ending
, );
IS H
proto buf
od b
Ġmeng ikuti
);} )
Error Code
off er
gra ve
D k
P ATCH
Con tinue
if a
Ġf o
ĠD UP
=/ [\
T Z
Ä Ĺ
bat tery
',' [
() )}}
mx Graph
n ex
IC ATION
5 43
Ġif rame
Ġtime s
at trib
9 40
QUFDQ Sx
Gu ard
ï» ¿
A frica
ç ı
Al tern
era ka
03 00
Ġp or
&& _.
]* )
);} );}}
IC h
cep tions
9 11
C AN
Ġ Point
Ġ tags
spy On
Q I
G P
æ° ´
do ctype
STAT IC
EVENT S
tin ya
CLI ENT
original Position
Text Node
su ggestion
)|| [];
Ġan chor
http Request
ì ķ
W u
NAME S
li able
Ġs ent
topic s
:"â Ī
v end
Mode s
Bar s
6 21
get Pixel
Ġti l
fold ing
Face t
DIS ABLED
TR Y
request ed
cross Origin
__ )=>{"
n il
prev State
J BQ
BY TE
Ã Ĳ
ìĿ Ħ
ac i
Re lay
a Data
SC ROLL
ĠDoc ument
w ab
PO P
)} \
log ging
sha de
à¹ Ħ
shadow Root
;} );});
ĠB l
type Name
Th en
× ¤
en coder
J R
19 00
A sse
sh uffle
Ġy i
de cl
Se ek
W aiting
] :{
n Tr
(); $.
ĠH ome
=" $
table Name
")) :(
éķ ĩ
Min imum
on ts
åĢ ¼
$ )/
) !=='
Ġke adaan
ç ²
Ġf low
dis connected
ç µ
In ser
Ġk i
Ġh y
M aker
Z q
200 2
Ġl t
' %
s X
0 30
child Node
DEP TH
delegate Count
"); $("#
in formation
try s
g v
ne ver
Ġ 94
9 13
S mooth
initial izer
serial izer
8 99
(" (^
loc ator
b ridge
= ":
room s
Ġre size
Ġinter face
+ "+
cap su
ê° Ģ
Par ticle
))} </
:' @
is File
Y V
S uite
={ ()=>{
c D
cla ssed
Ġ"] )),(
isUn def
9 30
on Cancel
ĠC reate
()} };
T p
velo pe
TO UCH
Match ers
IG F
$ |
vZGV fbW
e charts
Icon Button
tr ansp
Ġ ffffffff
Ġ12 5
"," "),
W m
á Ĩ
J A
Ð¸ÑĤ ÑĮ
ce eded
Elli ps
Ġin finite
DayOf Week
Ġ resolved
Ġh over
aa a
get Url
C ertificate
Ġ DEFAULT
+ \-
Ġs lide
Ġk now
Ġkepad amu
adi tional
tr ad
9 41
ZW xl
Al ready
Ð ľ
'); _
Extensi ble
']+'\ ';
Ġno op
n of
temp ts
);} },_
toHaveBeenCalled With
O z
Ġ28 8
Ð¸ Ð»
'] ||
wysi html
ailab ility
)} }}),
UNK NOWN
Ġend point
U tc
exp o
Key Press
([ +-
comp at
bit map
m ult
TOGG LE
ub er
lo ut
éĿ ¢
æŁ ¥
Ġ5 00
=/^ (
N P
Mo tion
äº İ
")) ){
ãģ Ĩ
> }
,' +'
Ġt urn
Ġma u
8 49
format ters
ĠB ack
Trans actions
à¸ Ī
by Id
Ġ lib
ĠÐ ³
Ġber firman
');} };
Ġmet adata
0 99
am bi
im u
fn Get
ir y
æĽ ´
ual i
Dis tribution
Ġn eraka
app Id
C nt
is Root
handle Input
Iterator Prototype
> |
u AA
Ġn abi
0 20
Query Params
- '
delay ed
Context Types
on a
EE EE
Ġdit urunkan
L h
. <
il s
en force
Ġmeng er
Ã¡ n
à³ į
ĠC ANDIDATE
pro tect
exp onent
Y B
ler p
9 46
Ġ unknown
way at
Å Ľ
Sp ans
_ ${
s leep
Component Update
" '+
Ġdi la
Ġ ),
% ]{
æŀ ľ
ti g
Ġfa ctory
"," <
T V
Ġ ue
":" ")+"
Ġv ol
áŀ ĺ
Il legal
Ch ip
At tached
B IN
Ð¾Ð ¿
Ġ Select
create Context
axis X
ĠJ U
_ ["
dis trict
Int ensity
n am
}," ./
INSER T
ĠForm Data
));} );}
DIRE CTION
pr ise
t te
{ __
Id le
3434 3434
Ġd iter
Path Seg
. ]
Th ree
Graphi c
Ġi psum
ĠS chema
W z
qu id
", ['
mx graph
e gg
root Element
è® ¾
'] },{
Ð¸ Ñģ
T OR
State Change
Ì Ģ
F CK
Utili ty
- ".
Ġap pear
lower case
X h
Card s
) ").
TW O
dev tools
=" \\
readcr umbs
QUFBQTtBQU FBO
model Value
kdWxl cy
XF xu
Ġ Content
~~ (
publish ed
Weekdays Parse
clipboard Data
L w
is Native
i y
po ch
con versation
assert Equal
vo cab
Ġp at
Ġ OR
de crypt
bi as
Oper a
Mutation Observer
expression s
trig gers
ãģ ĵ
LEV BQU
], },{
an u
back up
HI DE
multiply Scalar
Sep tember
Tab Index
is Numeric
Check s
Form s
ĠC or
K j
ÙĪ ÙĨ
++ ),
') !==-
l us
è ²
Ġe i
6565 6565
7 39
Ġsed ang
ew idth
" '
un pack
ĠB a
Y h
Ġbe low
Ġcurrent ly
Respon der
m int
() )}),
);});} );}
Css Class
gle w
trans lator
deg ree
v B
val Is
Ġ ")+"
Ġw allet
Display ed
dispatch Config
Ġt s
parti tion
} {
Ġne g
W V
Ċ ĠĠĠĠĠĠĠĠĠĠĠĠĠĠĠĠĠĠĠĠĠĠĠĠĠĠĠĠĠĠĠ
ow m
kar ma
,' .
ĠA uth
ĠP ol
SE CTION
U HN
par ticle
9 56
under score
Vnode Queue
VdirsVdirs VdirsVdirs
Min Max
é £
":[ ["
Coun ty
get Color
Ġcon tact
åŀ ĭ
len s
8 39
h ad
ç Ī
b al
b lo
Î ´
getUTC Month
N H
ance stors
"] ={
th umbs
ID B
is View
k ha
Key frame
ðŁ ĳ
pin ned
L TR
+") "),
rr rr
Ġn t
Ó ©
re jection
4545 4545
. `,
/ ;
de ad
é ©
08 2
() ","
åĽ Ľ
Ġd olor
on ential
Ġcur r
P B
æ Ĳ
B log
') );});
05 3
Ġno te
resiz er
:" :"
ä½ ł
upper case
Ġ3 20
eng ar
j YW
"} (
Ġm any
ten ant
G utter
E ar
Is In
ĠN OT
Late st
n in
Bit map
update Value
(/ &
L v
æ² ³
ìĽ Ķ
or acle
,_ (),
recur sive
;} ();
vi m
is First
Ġz a
7 21
N Q
7 42
Ð°Ð ³
Ġex tract
)) !==
auth ors
Ġpe rempuan
E st
pan ts
Ġmatch ing
S f
Uniform s
ToString Tag
IC trl
## #
ab ic
at tribs
/^ (
07 6
")}, _
è Ħ
s now
Ġdo sa
}/ ,
Ġ tra
ĠT er
FRAG MENT
Ġ logger
P ivot
se orang
Ġ Ti
on Show
Ġc m
"," "]
onMouse Move
Ġ10 4
Ġe ven
'] +')');
datat ype
ĠM in
u tr
Ġter masuk
ot one
|| ((
ĠG MT
:/ [\
ãģ ı
toler ance
al sy
CT OR
] ("
Ġg ulp
b D
P SI
Ġd ah
T esting
ztBQU VBO
o y
');} ).
Ġ HTTP
selection s
(){$ ('.
æ¶ Ī
ffe cted
06 33
apply To
] ++;
87 0
component Id
error Code
, })
k BAA
Warn ings
installed Modules
(' {
drag on
++ ]);
Sm art
K O
Ġ download
|| $
document s
s j
})} );
"] ');
stop ped
(' :'
Ġ ÏĦ
AB I
) ];}
W f
u Ijo
Ġ Search
g E
áŀ Ģ
Display Name
lat Lng
Z x
fore ground
a AA
åħ ĥ
ìĹ Ĳ
a D
E ven
G IN
:! (
);}}); },
sd p
\\\": \\\"
X p
aggreg ate
base Get
B q
Ġclear Timeout
andid ates
Fil led
get Dom
tinu ous
9 22
pro pag
form ula
IM G
mati cally
Th u
ĠJ e
y ZX
cl r
. #
bind Key
Ġmener ima
Ġ ((
al ready
flow ing
ket ch
åĽ ½
Ġt body
in strument
ER IC
ure lia
AFAAUABQAFAAUABQ AFAAUABQAFAAUABQ
small talk
ligh ter
id ak
anchor s
ch apter
] =='
s Type
le H
full Name
onMouse Up
ol er
Manage ment
() );},
Al gorithm
Ġg t
Ġs ay
Co ver
] ');
à¦ ¨
Ġka umnya
Redirect s
Ġmeng u
Fixt ure
Ġ tri
trans lations
() %
Ġ definition
box es
get Items
Ġmen jelaskan
Progress Bar
Ù ĸ
for um
tern et
timer Id
H p
55 55
L IS
Ġ ]\
de termine
07 1
S an
G allery
}, \"
);}; _
âĸĪ âĸĪ
Ġre port
uIjo z
M ER
X u
æ ¼
Ġ fix
men us
! ');
ig o
before Send
prop Fix
Ġmal aikat
So cial
8 11
i w
In tent
event Manager
Ġmer asa
U f
Bo unce
process Data
Row Index
Ref ine
ĠRe turn
ĠØ £
ho vered
il legal
ãĥ¼ ãĥ
inst antiate
IH t
H V
) ]);
ë ı
min ta
clip Path
Equ ation
LEVE L
Ġre ply
PAT TERN
borderLeft Width
Ġ short
Parsing Node
Fy Z
Ġr t
Ġn s
% ","
' ]),
U uid
j aran
quo ise
Ġstring s
manage ment
Flo or
PROCED URES
b q
05 1
:" ";
dis p
): -
Exp lorer
Ġ1 36
Ġre peat
ST ACK
Red o
Br ush
åº ¦
H AND
M q
,[ ,,"
No vember
B ridge
æĢ §
Ġ Ñĩ
8 46
Ġseba gian
ener gy
à± į
Up grade
Ġover ride
% )
Ġre p
get Source
Ġm i
í Ĭ
08 4
ä¸Ģ ä¸ª
(" </
Ġ& :
Custom Event
ing To
(' ');}
Bz UHN
j ak
clu sion
ADD RESS
5 41
ri er
D v
k z
MAN Y
Õ ¶
is Boolean
=$ (".
à¨ °
Ġac cept
H QUF
bus y
ta W
ro red
M ID
E ase
Ġsup ports
8 60
G f
áº £
PU BL
S v
Ġ xt
dG hl
Dispatch es
m icrosoft
urn a
á ģ
out dent
Ġf t
ĠM ar
Exp ired
ĠR outer
Ġ 384
WARN ING
Ġ10 3
rt c
\\.|[^ \\\\
Ġma ti
FAIL URE
P K
Ġ amet
cla red
emit Event
ĠP r
Log ical
j en
W here
{ (
v bG
; ',
Ijp b
H m
Data Grid
getTime zoneOffset
Brt Begin
B Z
Ġsamp ler
T or
le ng
Y f
Hy dr
AA D
Ġ24 0
ty pename
1010101010101010 1010101010101010
áŀ ļ
ç» Ħ
Ġ× Ķ
ÙĬ Ø©
æĹ ł
Ve ga
87 1
Ġpro file
Ð¿ ÑĢ
si tes
onMouse Leave
ja wab
C V
create Position
ATT ACH
toBe Defined
',' ','
Q O
Stack ed
P F
P ac
Po d
xs rf
y ZW
Ġke kuasaan
(" ",
no m
Response Headers
Ġrequest s
scrollbar Width
Ġno referrer
pointer Type
Dom Util
attrs Map
à¸ ¹
first Day
L DE
ta wesome
he ther
FUN C
S d
07 3
text box
CH ANG
focus Node
DON OR
0 79
item Id
BzUHN Qc
location Name
9 20
Ġsome thing
× ¢
bel ong
å ³
par ticles
drop pable
Ġn y
Sk in
sy stems
Local Storage
F ACT
LT F
Ð ¢
Ġs ync
set Element
Ġex ternal
dataset Index
e ps
++ ;}}
w ks
from Right
min ator
Child Nodes
instance Of
ç ¿
data Field
\" ],\"
lu id
Qu antity
total Time
isF ocused
stru ctor
code c
Ġpro per
is Over
X f
N M
J M
EX PORT
/ );
is Group
Gener ate
P p
build ing
tran sclude
INI TIAL
y z
app Name
' &&(
]=[ ];
UB LE
al er
ĠS ha
pro mis
> :
getB Box
S ender
au gment
Å ĳ
L K
b ird
Ð°Ð½ Ð¸
J ava
dG l
H K
is Multi
ver ti
C j
some thing
" ;};
al ing
In vo
ME T
NE XT
d type
"," ");
RE SET
al so
Strip ped
ABAAEAAQ ABAAEAAQ
;} }});
Ġ âĢĵ
un juk
c ame
string To
è¿ ĩ
Log out
F sd
ĠĠĠĠĠĠĠĠĠĠĠĠĠĠĠĠĠĠĠĠĠĠĠĠĠĠĠĠĠĠĠĠ ĠĠĠĠĠĠĠĠĠĠĠ
8 23
Ac cum
15 15
Cap abilities
no me
CD ATA
bas is
l ane
} ;}}
Up loader
Jh Y
F K
Log ic
B anner
create Node
uFD F
ÍıÍıÍıÍı ÍıÍıÍıÍı
Fk ZXI
g q
) ].
Termin al
read dir
Ġ ht
Ġe le
)) ]),
I Fn
un uh
ge ome
åĮ ĸ
Nav Link
Ġh is
,$ $
ver ified
l B
sc atter
line Style
Ġser ies
position Abs
Ġse di
], $
Ġ ignore
sw f
BQUN BO
Ġd x
Ġmen ya
ĠJ avaScript
Ï į
vis ited
is Dirty
æĺ İ
set Is
isS up
0 89
? %
C m
Re maining
(". ")]),
){ {
twe ener
Y d
Ġp ow
Ã ħ
'}} ><
OL DER
. ]+
! ',
create Error
y our
at tempt
Ġa jax
Â ¥
is D
(( _
Dis posable
IN IT
Ġb ot
bGFz cz
SS ION
+' `
( ;++
è¯ ķ
8 30
analy sis
Prop Type
type Descriptions
Ø§ Ø¡
Â ·
is Async
REGE X
W T
Ġb lack
Query String
é Ł
that Returns
L B
border Right
)}} (),
,[ (
+ |\
LA ST
watch ers
Te le
IH Ro
Ġmonth s
S z
å½ ķ
Ġme an
Ġg i
template Object
]] ]]
ann ed
KEY S
Ġcomp uted
r q
ç ĭ
yui test
Ġal pha
C MD
li me
to Date
G ray
gener ation
Cy cle
è´ ¥
J E
el f
H x
b A
Ac cordion
do s
]; )
import Star
âĢ ľ
Ġmemp ero
! </
\" /><
f requency
Ġ outer
mouse Move
å Ĥ
= %
}, $
transition End
ãĤ Į
8 63
ch osen
ÑĢ Ñĥ
à¦ ¬
g BAA
Ġy t
getUTC Date
] ?"
udGV ud
S ED
line join
Mach ine
k ule
text Style
Ġ ::
ĠMode l
Ġpo sitive
");} ),"./
ĠO b
Implement ation
Ġsa fe
col laps
Ġc c
Ġ 250
Ġi i
L p
19 70
cer tificate
+" ="+
8 20
Ġì ŀ
] ()
Ng Module
Dot s
toBe Truthy
Zm Zm
******** ********
Bu ilt
debug ID
inserted VnodeQueue
__ :[]}
ëĬ Ķ
0 65
:_ ,
a A
stop s
Ġmatch ed
} ','
g is
p bn
current View
âĢį âĻ
(); !
ok u
i ka
oooooooooooooooooooooooooooooooo oooooooooooooooooooooooooooooooo
b F
Ġtest s
Ġs pa
HR pb
Break point
Ã ĳ
w off
àº ²
u w
u cy
Ġh ours
target Touches
is Con
Ġh it
extr as
ĠV EH
E TH
Mut ations
ifa ces
on Hide
con ditional
ÙĪ Ø±
SE S
/^ \
Change Event
ct r
Ġs till
Ġ35 2
ri ck
Un ion
of s
ãĥ ©
NE T
Ġmul ti
ÑĨ Ð¸
]? [
Ġ entries
=" ";}
k st
F ONT
LFxu ICAgICAgICAgICAgICAgICAgICAgICAg
ST D
ĠVEH ICLE
ĠS up
R ANGE
'] :
Ġvalid ation
ãĢĤ ","
update s
]={ }),
Ġde pth
Ġsave d
Ġv node
b readcrumb
e ager
Ġcolor s
scale d
w yg
æľ Ģ
S qr
jo int
Ġsal at
h uman
Ġ round
is A
S ti
Ġ forEach
Ġg a
=[ ['
Ġca mera
D j
client Left
ar ak
SE ARCH
ci le
ah al
is Collapsed
å¤± è´¥
Ġo g
ĠC ON
m us
css Classes
à½ Ĥ
Ġdirect ly
par a
En dian
é¡ µ
Ġ ;
allo cate
ca ke
,' <
ĠRE ACT
CURRE NT
s velte
ch ant
Ġauth or
IN ST
F QU
"," "]],"
ĠB ani
co lour
Ġk elu
ç® ¡
SENS OR
A yat
lat n
Aw esome
BOT TOM
+" ").
isRe served
olong an
," ")
,' ');}
found ation
'); $('.
N R
valid ated
äº Ķ
Ġdis ebut
Ð ĳ
Add r
private Key
Ġe mbed
Ġ10 1
+' &
SET T
Node Type
()} }}
Zt Ll
button Text
e z
DI ST
JS X
è «
S ensor
AUT O
Ġsa at
du x
M AL
work flow
() ({},
' )};
g k
decode d
Ar ch
Ġ EventEmitter
di ce
de precate
Ġis Function
] "==
Ġ ze
* )
ERR NO
9 70
w M
MSI E
W all
Ġi o
áĥĿ áĥ
Â º
) ]},
ĠM enu
Ġd ue
Ġ vector
× Ĺ
æ ½
AR GET
shadow Offset
Ġ ext
h bG
emp loyee
eli au
pa red
Ġal ways
H j
M al
+") ",
Pers pective
mit er
Generator Function
F ulfilled
L ife
=" %
="# "
De pend
eventName space
add Button
prev Object
v z
{ $(
Pro filer
De tect
Ø ¸
ACU AJQ
up al
Ġcook ie
On Click
') ==='
oct okit
move ment
Text Track
Brt End
Connection s
face t
Y D
get String
request Options
pre views
jo y
v X
ĠZ e
M appings
de leg
Ġ10 6
dateFormat Item
R J
CHANG ED
Ġ verify
css Number
);}} );};
weight s
Expe ct
"] }
Q J
Byte Array
S ensitive
g ran
Line String
æĹıèĩªæ²» åİ¿
is Primitive
ãĤ Ĭ
PROPER TY
v db
ë ³
ex e
un ified
SC AL
Touchable Opacity
iffi th
REGE XP
"} );}
n k
Ġs orted
NE L
||" "===
tmp l
J ECT
}` }
full name
Ġu v
ë ĵ
})} },{
B oo
u ifaces
S outh
W C
W w
ack bar
memo ize
QUFDQ Ts
ha ti
167772 16
//////////////// ////////////////
get Block
Ġn ikmat
ĠCli ent
on Composition
lv l
Ġ ken
vari ation
DD D
N I
ph an
os pace
next State
Play back
HI R
ate g
current State
Ġkec uali
m un
Ġp atch
+ ","
T mp
)} )):
P ow
ç ĥ
getData set
ang g
Ġm l
]],[ \"
super class
): _
ti cket
ìĭ ľ
Handle bars
b K
Ġ1 76
Object Id
r B
Ġre direct
Ðº Ð¸
Rp Y
æĸĩ ä»¶
enti ment
clo sure
Ġ/** \
add resses
iam at
Ġ trim
]} ).
"] ],[
Ġal tern
)(?: \\
Ġmo st
Py thon
Ġde leted
cess ary
css Props
E OF
å ¨
a urelia
at tack
compress ible
L ane
frag ments
` )}
ne igh
ign e
Q M
be red
bar Width
# /
8 62
tin ct
æĶ ¯
ha k
dr upal
scope s
();} );});});
gre ater
LW NvbG
uFD CF
ZhbH Vl
L et
à¸ ŀ
gr iffith
+'. '+
] ]),
ãĤ ¢
" |
on Add
o Event
v ant
}} )}(
Type Name
wr itten
: ?
&&" "!==
allow Null
om i
ç³ »
Tra iling
h ist
Cent ral
FI RST
=( ()=>{
Ċĉĉ ĉĉĉĉ
scroll spy
sp d
lu ZGV
$$ $
g I
Ġv a
ck ed
É Ľ
(" +(
Ġ/* #__
rid ay
M ip
Nvbn Rl
or te
get Map
Hy dration
)}} )
c is
n pc
è· ¯
S ticky
Access Token
ĠV e
Ġ ),\
D z
" {
)? )?
Ex change
ĠD B
N ON
rea ction
H IGH
q I
da mage
Gui de
ge y
po site
/^ (?:
] )}},
on touchstart
&&( _
ç¨ ĭ
e ver
b rown
de select
chron ous
Ġse cara
ben ar
)== -
("," )]),
set Line
onMouse Enter
Mac ro
E ui
item Style
f Yy
ta ge
T ensor
, }}
V sd
d get
Ïĥ ÏĦ
cG U
9 23
c E
Q K
t bl
AU AF
overflow X
6 31
dis cord
Un handled
Space s
le tions
] ';}
bat tle
ĠR ed
900 7
p luck
S ty
Ġma g
SI DE
10 25
Ġin ject
foo d
Ġg reater
b V
RE PLACE
d BQU
pa bles
Â £
b is
App le
ce D
Ï ī
ĠS ign
Ġd y
W p
domain s
keep Alive
str start
Ġcate gory
dH ls
20 180
O DE
=" "}
find ById
sort Order
B RE
Ġo u
Font Family
AA AE
d ag
ksana kan
CH AN
Ġru les
or x
G k
ç ħ
ro uting
replace Child
Ġb ur
D en
Ġw ell
* [
Cla mp
y M
IE CB
Ġ modules
?" #
active Class
ie ve
HAS H
Ġ( ${
AS H
Ass oci
Ġpri mary
un an
Uni q
get Scale
Ġre ason
ì ľ
view Date
de ck
9 31
th ru
mm utable
Ġmusyri k
æī Ģ
à® ³
on Progress
toH ex
mon ic
L TI
ac f
Ġ Ext
Co in
R ng
Ġ variables
Ġdu a
0 31
i Phone
display ed
S ing
capsu lation
Ġv t
[ ]);
emp hasis
Aug ust
Key Up
"], },
Y k
':' ')+
Ġd ash
Ġà¤ ķ
/ ';
MAA w
is Not
({ },{
] ';
Ġse seorang
} ;});
Ġke ep
AH OO
Men us
bind Type
b B
Version s
M ATCH
data View
20 22
?' ':
Ġvalid ator
Bus iness
H old
s lo
image Url
work s
d as
Ġacc um
YX Rh
V BQ
co ffee
END ING
c red
S j
] -=
Ġ ed
b T
assign ment
ON G
Back ward
m z
Ġen sure
ESC APE
a fe
en av
ĠLa zy
; },{
50 50
Pure Component
=/ (
men tion
); --
se ctor
cur Op
Fire fox
8 43
7 23
al ive
ì ĸ
);} ));
AA k
Ġd yn
à¸ Ĥ
Ġs ample
,{ });
dispatch Listeners
HO OK
| {
AC Q
:[ ,
Ġme di
idup an
200 3
]^ =
, ",
},{"./ _
)+ ((
~ /
en ting
() ._
b et
Ġ48 0
jsx FileName
gICAgICAgICAgICAg ICAgICAg
mo cha
Regex p
d apat
X g
ti st
Abo ve
327 68
H ave
CA TEG
t B
function Name
wr ong
ĠC opy
Re active
ly ing
url ParsingNode
tifi ed
Ø§Ø¹ Ø©
C andidate
get Snapshot
Ġout side
ĠP i
Some thing
; {
\\. )*
HO ME
"," ",
Stre ams
end points
"}} );
06 39
re liable
ff d
Suspended Time
)? -
+' "></
tt p
Ġdiber i
vers enum
RE QUI
ĠS w
Touch ed
is Zero
ac curacy
ut us
_ ),
g pu
is Deep
coun tries
çī ĩ
Mer ged
è ³
capt cha
Ġse s
* \\
? <
) !
w oman
stri pe
Ġk t
Ġ prototype
F v
b rowse
Tim ers
V Z
Ġsek ali
Ġ10 5
à¶ »
decor ator
G I
ĠW HERE
native Max
L icense
Ð¸ Ð¼
vo tes
pol ar
Spec ular
u Y
Ġ >\
amb da
Ġm ut
resiz ing
ra h
WIN DO
Ġ1 15
+=' </
h ari
T N
get Bounds
($ ){
DEF INED
Before Update
214748364 7
Con firmation
]) ||(
Ġ ss
de a
C QUF
)) )){
urs day
ç ·
Found ation
on Remove
le f
READ Y
week s
Out lined
il de
Ġcomp ile
override MimeType
async To
7 63
M oney
Sa les
Poly mer
stroke Dash
sem ver
Or dered
d E
,{ _
?" -
Con sumable
(); (
depend ent
å Ķ
By Key
"; },
ru d
ÙĦ Ùī
local Name
})=> (<
"!== (
prepend To
Q q
T pl
m ic
04 31
Token izer
And Events
i len
data source
," [
an Object
Ġa mp
h Z
D L
et api
base Is
Ġz oom
19 50
SCRI PTION
cancel AnimationFrame
Scroll Left
g ad
Ġcon dition
web socket
20 200
300 1
Ġma kan
Border Width
ad y
16 05
re main
= #
animation end
at erial
ab r
Ġsebel um
ãĤ ¿
drag ged
SAMP LE
", -.
=\" "+
tool tips
LFxu ICB
kh luk
AB w
anchor Node
Ġ Query
EB U
in visible
Ġpub lish
(' ^
com bin
mess enger
Ġb t
ĠG raph
Ġ ];\
Ġp ull
P AY
pre sets
ft p
match ers
Op tim
][ _
ICAgICAgICAgICAg ICAgICAg
Advance d
` !
Ġ Invalid
is Type
re connect
Last Index
Count s
get Visible
er gy
Lazy Wrapper
C ulture
) ').
cce eded
ĠA ND
à¤ Ĺ
Ġper cent
y f
Ġhuk um
tr aditional
with Stripped
In Month
Custom Data
19 48
H v
ed a
24 24
o ber
}} )),
eW xl
return Fiber
Â ©
u FB
Ġmin ute
YW dl
ÙĦ Ø§
Ġk ita
Ġlon ger
ĠP lugin
ti po
Role Size
ìĿ ĺ
F ac
siz ed
is Server
$ ,
=' .
AUAF ABQ
exp orted
Ġm ata
accum ulate
j z
da e
YW N
={ $
YW Js
ì§ Ģ
= ("
He alth
cli pping
ÙĪ Ø§
Ġma upun
Samp ler
l loc
d ue
Ġma k
l ig
c ff
ĠD rop
åı £
Com ma
20 97
@ \
transition To
Ġbase d
gui des
asyncTo Generator
Cla use
ãĥ ª
multi select
crea tion
é¢ ĺ
md griffith
IF I
an cy
story book
s able
":[ [[
ii i
b idden
ICBy ZXR
à· Ĵ
re dis
," ")),
ma chine
over lap
å® ģ
un ix
ĠD ay
C br
vi ties
on Destroy
xu IC
context ual
Ã ¹
) :'
A ctual
cat alog
ci Ã³n
chunk Size
åį Ī
() !=
Ġ append
bi o
Compact NumberFormatSymbols
Ti er
Ġ edge
ç© º
å ĺ
is Last
S al
ĠĠĠĠĠĠĠĠ ĠĠĠĠĠĠ
' }};
up s
:"â Ĭ
ì ĺ
Ġal am
>"," <
(/ [^
Bul let
D raft
get Previous
":" @
CUR RY
yQ SA
)} ;}
sk u
AA AC
Pro j
ĠRe sp
ge cko
sliced ToArray
&& {
ç ª
set Hours
æ ħ
Ġcomp ute
sta tistics
Ġ lookup
before Destroy
s On
Ġcon tract
Ins ensitive
æĺŁ æľŁ
))} }),
EAA E
h px
DE ST
config s
b rawl
Ġ ').
o z
Ġ20 8
åĳ ¨
` ),
current ly
PI XI
divid ual
first ElementChild
O v
W g
nes day
] ");
áŀ ĵ
Pro ce
Ġper formance
get Raw
set ReadOnly
Double Click
ä¿ Ŀ
Delim iter
parse Date
((?: \\
G ithub
image Data
Table Row
is PrototypeOf
Transform er
view Model
is Arguments
pointer s
Su ggestion
amb il
P or
on After
embed ded
String To
sa le
è ĳ
C ENT
j ah
ri e
m art
Add resses
Ġre lated
+- ]?\
tw img
æĿ ¥
K A
á ł
un def
& =-
Ġ engine
di ction
08 1
ĠE VENT
Ġsur ga
priv acy
min ify
Ġregis tered
12 345
, ++
J L
/> ").
B rawl
Ġpa sti
ÐµÐ ¹
Ġse lain
9 10
Y q
se k
tool box
Ad ap
áº ¡
ZX Nz
================ ================
SS SS
RI TE
Ġrender ing
7 43
in vite
)) ):(
) ":
log ic
my sql
compo ser
Ġu int
sli b
Object Type
Ġspec ific
') ]),
Ġ Open
App lications
I q
,' \
", ,,[
ed d
content Document
Ġh endak
IMP LE
è ¼
in an
à° °
Ċ ĠĠ
box Shadow
auth ority
Timeout Id
IH RoaX
re cover
Ġali as
Ġkey up
I ng
k ir
on Ex
ZX It
toMatch Snapshot
l ift
('@ /
ĠB rowser
Ġbase Is
å· ¥
REN CE
Ġp hone
]; _
Ã ²
f id
text Node
]} )}
Trans parent
min Length
| ~
ist an
× ĵ
isXML Doc
Ġw ords
Ġx e
Ġb atch
: \\
Ùĩ Ø±
åĪ ł
G M
Ro uting
coer ce
: |
cap s
ØŃ Ø¯
Ġ Tr
G UI
Ġre mote
jy ut
);}, '
SP ON
client Top
Light s
ff b
mdx Type
Text Color
li ck
ues day
ri ces
ãģ į
isArray Buffer
* (?:
Y PE
});} };
CL ONE
set Values
Or ig
h C
Â ²
Ġre verse
")} ).
? !!
new Child
è Ĵ
or ies
Ġmx Point
n ature
Ġe q
',' ');
20 26
Î½ Î±
Ġ12 7
Ymx l
ch t
X V
set View
Text Area
High lighted
ĠB ar
Pie ce
") ==="
Ġmen ing
8 601
æľ º
Ġle ading
un queued
ĠData View
W ire
y w
_ ();
Ġter dapat
ur at
ut down
)}; _.
+ ~
t ty
CO LO
Ġ{ }
GA TIVE
u sta
19 47
N ear
base For
fill Text
à¦ ķ
plugin Name
Cr iteria
åĵ ģ
gra ms
Ġsedi kit
Buff ered
," "]
Z Tog
set tle
diff use
TOOL S
Ġh er
")} },{
sta ur
åı °
Gener ated
Ġ1 14
Ġk h
anno unce
To Class
] "),
val u
F HIR
jyut ping
ÐµÐ½ ÑĮ
Ġv el
et ched
ç ĸ
19 85
è ©
Ġ' ),
Ġmempero leh
dig o
L on
Â į
2547 40
]= $
Wr ong
N Z
l or
"); "
à¥ Ĥ
pro blem
le ader
ap kan
AA w
Rel ated
TER S
s tick
), _.
h z
us u
:[ ];
Ex peri
transform Origin
Ag o
ol lo
Ġcon troller
Ex tract
ÙĬ Ø±
sc anner
ke ts
Ġspe cial
ul ty
Stri pe
la d
+") ");
view Container
server s
region s
hZGVy L
Ġ Container
al asan
reci pe
Multi Polygon
("," );
199 254740
Re cent
m fe
Battle Moves
a ster
Re stri
à« ĩ
le cted
ac ion
', `
Q P
T z
set Default
ajax Setup
:[ -
panel Title
ink an
Collection s
reference d
at nya
' }});
temp erature
Ġper nah
fra ction
);}} );});
: ++
bW F
$ "+
inner Radius
target Element
co at
Y O
Ġbe havior
$$ [$
V UE
Ġse tiap
M ass
Ġ State
Up dating
Ġ Post
In jection
ç ĳ
f ish
getAll ResponseHeaders
qu am
}) \
Group Name
'), {
screen X
La unch
non payable
ĠA ss
Ġ Index
NA TIVE
Ġf allback
On line
Ġdi ke
in cip
pro t
215 8
pbm Rle
Ġ utf
b il
end Of
LO CAL
Ġmen eg
u FFFF
)+" </
|| (!
ut ors
ant d
(.* ?
x j
bi tr
æĪ ĸ
is Vertical
=> !
Janu ary
Å ¥
25 00
Mu sic
? `
');} },
ly phicon
Ġmen ye
Q V
Ġk itab
Ġcomp o
M TI
){$ ('.
f S
Se gs
p q
ä¼ ł
Ġid entifier
compress ion
pin ch
N AM
block Size
}` )
($ ('.
mi le
();} );};
reci pient
Ġl ater
F J
ĠC i
morph Targets
I Frame
Ġa a
map StateToProps
Mon day
i Len
Ġta k
ob served
p ada
F av
8 191
can Play
data Grid
à® ±
C AD
no Data
S unday
Ïģ Î¹
get Parameter
ci pants
ji kan
," "):
create From
AA I
stit ute
æ ¦
current Queue
str Symbols
s T
ctor Parameters
IG V
Ġt ween
Le ading
à¸µ à¹Ī
Û ļ
current Date
Vi a
show ing
outer Radius
G H
set Cursor
dis count
Ġ };
access ibility
ecma Version
D V
path To
vi meo
Pre dicate
B K
Õ¥ Õ
Period s
ĠS ource
(/ \/
ë ł
æľ į
Ġis Valid
FB T
Ro ugh
CO LL
) ';
9007 199254740
no b
Consumable Array
drag Start
1234 56
isObject Like
é¡ ¹
Flo ating
COLO UR
Co urse
cance led
mo l
options OrCallback
constra in
AUAFABQ AUAFABQ
Bu y
SS R
parent Vnode
T un
tin el
ICAg ID
sa les
Ã ľ
éħ į
çĶ¨ æĪ·
>',' <
214748364 8
Le ap
r aries
test Case
O A
u Z
LA SS
]); \
L ml
auto Play
M TE
ãĢ Ģ
COMP ARE
Api Client
+ /,
(" (
Modern izr
)){ _
# $
B ro
W P
h un
do cker
C z
M ust
p j
T re
9 42
child ContextTypes
è¯· è¾ĵåħ¥
utr al
on Next
B readcrumb
ent e
Ġpe ople
VER T
à¤ ¦
Ġ groups
Ġ Modal
Ġ Block
la ting
ãĤ ¦
is Destroyed
set Title
SVG PathSeg
/^ [
LA SH
Ġdir inya
ini ti
30 30
au thenticate
maW xl
is Extensible
en hance
ut ters
et s
y ect
(/ ([
> "
è® ¤
end um
é º
àº Ļ
x N
AF c
slide Up
#### ####
is End
Re ject
rbugg yQSA
T xt
v ator
Ã¡ r
p ulse
ĠC ur
is L
])} )),
å¯ Ĩ
Off line
Ġkey down
Nj Y
[]+ !!
ĠS W
ai Display
g una
all Day
AAAA B
ĠI a
get ClientRect
in ted
drag end
(), [
C Z
D AT
I K
Tree Node
Sub tree
Force Update
to Int
s entiment
ĠD esc
);} )(
âĢ Ķ
åĪł éĻ¤
pointer Id
Ð £
max Size
Ġcontent s
u ck
Focus able
fi red
% ':
O ffer
åĲ Į
ANG LE
) +'"
) !=="
gg ing
igh ting
sl iding
F mt
Domain s
S ensitivity
(? :(
event Handler
M uhammad
Sign ed
ac cepted
Ġwork InProgress
Input Value
OL D
Ġ' '
VI DE
... ",
handle Close
to ConsumableArray
back ward
EPS G
|| ("
cbiAgICAgICAgICAgICAg ICB
Animation End
ç¼ ĸ
Shi m
fa vicon
is Arr
Ġ tip
re con
à¸Ń à¸ĩ
P AN
lower Case
u AB
da ily
s ZW
screen Y
Ġr x
Cla im
Ġkeh idupan
Ġdi ba
Content Editable
[]]+(!! []+[])[+
s ult
ĠA B
+ )
request Id
b U
group By
)); _
Back up
gri ty
))} )}
we ak
R P
c ork
ë¥ ¼
={ `${
200 4
d q
P references
oi ces
Ġd in
S lug
FB QU
Maj or
D m
S CALE
& $
Ġc ross
Ġso cket
() *(
Ġa go
ç Į
Spe ll
script ors
Ġ renderer
us r
12 05
=!! (
Ġ shared
is RegExp
reg Exp
rap pe
; ,
delimit ers
dojo x
H ow
ĠG o
al o
Ġin dent
men tions
A ct
b und
array Map
N q
b ordered
Spe cs
n ls
)? {
A mp
Ġtent u
; ":"\
"; \
=' __
Ne eds
ĠL icense
if ted
() "},{"
ĠIter ator
FR AM
NE GATIVE
Ġpe mb
qu are
Ġe v
ç ¶
CONTRO L
c B
De precation
Ġdiber ikan
ABC DEF
h itch
w elcome
re ction
Ġm il
M ute
Per f
Ġ ++
4 000
()} (
]} )),
CA SE
open vdb
tra its
dy b
("| ")+")
B ones
isS top
g Q
Per formance
C ENTER
COMM AND
Ð ł
branch es
D LE
input mask
g mail
babel Helpers
O Auth
get Layout
7 41
ç Ĺ
c O
axis Y
sat uration
len ding
Ġne sted
æĹ¶ éĹ´
EBU FFER
Ġber ada
") },{
è Ń
áŀ Ł
mis c
:/^ (
((?:\\ \\.|[^\\\\
ĠH tml
e ba
get List
Ġc md
h bs
x Scale
ref low
find DOMNode
D vt
n Allah
Ġ }),
k j
co ur
root s
Ne arest
to wn
Ġfl ush
mi ted
T v
y arn
ĠIs rail
b cd
add Field
Ġ ur
al im
s Q
ACUAJQ Al
cI iB
deli very
; '
:' (
)&& ("
has Children
pre process
aria Label
Ġrun time
Mo vie
FD B
ST OR
hover able
VALUE S
ç§ °
F onts
);} ),(
UT CH
===' '){
")) &&(
__ */
R vc
ari an
Ital ic
à¸ Ľ
Weight s
Inject able
dG V
': (
FI ER
AL SE
warn ed
ÑģÑĤ ÑĢ
Hel vetica
16 80
Ġcon nected
OR D
ĠK itab
node Is
J ump
Initial ize
Ġmay be
parti cipant
T oler
In ventory
event Bus
; ');
ac l
]} ],
C v
Con sent
]| =
Ġked ua
REN DER
create Buffer
plain text
LOG IC
]. [
test Element
Check Box
') >-
;} ;};
" %
add Back
f j
Log gedIn
C redential
h wb
Ġcom b
F M
work ing
O SE
S Z
ber apa
itor ies
12 64
]+ ",
MD Aw
c A
De veloperError
(/ (\
V ATE
Ġd ark
Ġfile name
componentWill Update
à¸²à¸ £
(":" )]),
Ġm ight
day light
Nv bX
16 16
G j
Y v
To Hex
measure Text
06 00
device PixelRatio
lin eno
w oo
ss a
Ġ[ _
Par ty
Ġst andard
T ARGET
M ini
() )&&(
','ðŁ ĺ
get Trans
ar ded
TEMP LATE
Ġre ader
pointer Events
)), {
||! !
HE X
Ġv ue
wrap All
write File
f inger
Type Checker
Æ° á»
In her
âĸĳ âĸĳ
sign In
g te
Ġtime stamp
b ow
% {-
0 70
should ComponentUpdate
template Cache
:[]} },
debug ger
i er
Øª ÙĪ
ï¿½ï¿½ï¿½ï¿½ï¿½ï¿½ï¿½ï¿½ï¿½ï¿½ï¿½ï¿½ï¿½ï¿½ï¿½ï¿½ï¿½ï¿½ï¿½ï¿½ï¿½ï¿½ï¿½ï¿½ï¿½ï¿½ï¿½ï¿½ï¿½ï¿½ï¿½ï¿½ ï¿½ï¿½ï¿½ï¿½ï¿½ï¿½ï¿½ï¿½ï¿½ï¿½ï¿½ï¿½ï¿½ï¿½ï¿½ï¿½ï¿½ï¿½ï¿½ï¿½ï¿½ï¿½ï¿½ï¿½ï¿½ï¿½ï¿½ï¿½ï¿½ï¿½ï¿½ï¿½
":" \\
)|| {
[]]+ ([
const s
ma vg
spr int
y Scale
Mask ed
ĠH ttp
un selecting
bj s
P SE
=/^ [
M arch
y sheet
Ġ fire
global Data
Sta tion
Ġmenjadi kan
Ġt slib
,}, });
ĠE t
Ġyear s
red Sqr
Ġì ł
code mirror
æº Ĳ
throw If
imul ated
X y
Ġh ak
);}} ).
rot ated
ĠS tack
ger i
rough ness
la g
is Local
åķ Ĩ
Week s
cf b
Ġbl ur
get El
(){ });
);} ;};
+" <
c redential
Ke kule
un pipe
â´°âµ Ļ
Acti vated
âĤ¬ âĤ¬
ARG UMENT
Ġ kan
×ķ× ª
C op
le ting
G as
Ġ1 30
(); "
set To
mon o
request Url
N J
ĠSYS RES
sp ar
ind entation
($ ('<
tra sh
Ġti le
MO TOR
multi Select
ICAgICAgICAg IH
session Id
.âĢĿ ","
ÙĴ Ùĵ
U Q
ro bot
Ġma sa
set Transition
l te
Con ditional
=> (<
no script
b toa
Î ¸
LIS TEN
U Z
gl tf
ÙĤ ÙĬ
20 190
set Header
Pac ific
AD MIN
car ry
(! _.
Ġte am
x Lj
Moz illa
Crea tion
} )?
Set State
=$ ("
> ');}
å® ĥ
Û ĩ
}} .
27 27
")} )},
Ġ10 9
Ġz ip
matcher Out
T ue
get Query
ĠAc count
L ab
close Button
New s
Expan sion
node Id
Ġb old
get Total
ĠA s
QUFFQ TtBQUNBO
F lip
xu ICAgIG
) '],['../
base Power
Scroll Bar
_ ("
Ùİ ","
Ö Ĥ
Ġd ynamic
ĠP ers
j grid
Ġ1 13
get Image
create VNode
Scope d
isS trict
Ãª n
Sc rollable
ç®¡ çĲĨ
Mouse Move
inner Ref
)} }};
"> ';
Pro duction
9 03
IG lu
slide To
FRAM EBUFFER
Ġti ck
Pass ive
ro d
ĠD engan
Ġma khluk
SO CK
S aniti
áĥ ¡
gal kan
å® ¹
06 29
w E
Ġbe st
35 35
D ummy
max Value
=_ ,
AL LOW
Fire base
Y LON
c W
Ã Ł
For Of
Play ers
der s
Ġ ).
re mo
12 80
l x
Â ±
scroll Speed
Ġ Field
Ġmemer intahkan
Vj dG
T rip
ro gate
Ti cker
st an
Lim its
XXXX XXXX
parse JSON
)} )}}
]) <
Ġ[ ,
Ġì Ŀ
33 55
RE SPON
][ \
() )};
persist ent
Th at
ad v
oper and
]), (
boo st
UTCH ours
co ol
./ ,
Border Box
)) ],
ĠT HE
K q
wysi wyg
is su
top Left
thes is
re voke
ne tes
Ġ12 6
ud ge
)} )};
X E
be an
^ (
line Color
combo box
>"+" <
1 00000
MED IA
hc md
20 170
;}} },
next Page
éĶ Ļ
h li
Ø§ Ø³
ul ti
cap tions
Ġ Login
. %
Ġp ur
E lect
sor ter
s alt
G v
d A
ame s
19 49
recur se
Ġb ook
in p
è ĵ
fe c
P at
ÙĬ ÙĦ
S id
v ak
g IC
"}, _
object Id
AL OG
B Box
Ġh app
T j
is ter
Con version
ff c
RAN DOM
Subsc ribe
Ġ Editor
desc endant
ed Updates
func s
Ġbutton s
so Far
uber netes
res erved
Ġg lyphicon
à¤ ı
Ġd ist
h its
0 100
it le
t I
Û İ
wrapper El
mag enta
has Next
set Document
Ġstar ted
Decimal s
lo k
+' :'+
W elcome
Ġ counter
Ã ĺ
+ [
k ti
needs Update
y h
PO INTER
I ce
Ġs ensor
create ObjectURL
ZG lz
e be
Ġs ug
Code c
thumbnail s
ĠB N
URL SearchParams
n ction
è ħ
EAA G
BLE ND
Ġ Option
siz er
æĶ ¹
>> =
read As
MS Pointer
query String
row Data
77 77
ca mpaign
Ġh u
V ol
Ġ ({
ty ping
Jun e
ra sh
lu Z
before Create
Ġp kg
({ },"
ĠA pa
cn M
12 14
inser tion
st mt
Ġ" )}
No tice
g iven
lazy load
Ġtan pa
prev Props
months Parse
Tran sitions
],[ .
0 80
Y P
)} )}},
à¤ ¶
No op
W j
é ½
lit tle
Sh rink
Ġfa de
OP TION
7 31
g auge
Ġre st
EN SE
series Index
B ank
text Decoration
'} )}
à´ ķ
() =="
ĠK r
J V
y p
bo to
Ġ10 8
max Zoom
ICAgICAgICAg IF
, ((
fire With
sto res
get Meta
mu ka
èĢ ħ
Y AHOO
to pe
);} ;});
% );
åı¯ ä»¥
/ %
... ","
éķ ¿
}, !
zz z
Ð¾Ð ¶
b E
\ [
blocked On
COMP LETE
Ã ī
ci e
', [_
is Match
CU ST
ĠM ark
Ġ prevent
c q
} );});}
Ġmuk min
ĠIn i
remove From
Ġ concat
Ġmeny embah
B er
W Q
U H
({ }),
+" }
) !=(
vi z
Ġp ower
to Contain
Ġmen ciptakan
anchor Offset
," '
ÙĨ ÙĪ
Recur sive
und a
Ġpa s
)|| '
s uspend
ol i
Base d
Ġ}) \
arg a
Ġstatic RenderFns
LO CALE
y an
acti vation
linear Gradient
Lex er
F our
ian Date
um bu
ĠT ab
Ã Ī
width s
xD QUFD
Ï ĩ
ge ther
]) \\
hy phen
In cludes
] (),
Check out
NO P
g G
de grees
is Before
;}; $
\. [
unmount Component
"] &&
Ġpar ti
o res
p unch
ready Wait
åĪ ¶
fa cade
is Transitioning
Ġa o
9 375
v Z
(! $.
',[' $
sol ution
D H
69 444
getDerivedStateFrom Props
çĶ º
AF AA
++ ])){
t ension
}} @
Ġfil tered
Ġk edu
Å ł
Ġ Standard
Ġb eliau
ar is
Cap acity
Jl c
Re pe
And Update
Ġun a
Tru sted
vend ors
Panel s
)}} )),
ben arnya
X z
SCAL LS
))} ).
Ġca st
Ġde tected
params OrCallback
Mar ket
Ġradi us
d ro
("^ ("+
));} };
B V
Î¿ ÏĤ
error Callback
Ġke se
," ")}
item Size
il tin
Select able
recogn ized
Circ ular
(){ }}
Ġx link
è º
Embed ded
Inter pol
ud fff
,"\\ $&
ç» ĵ
Ġclose d
', $.
TH ER
Browser Env
overlay s
Ġ Ver
ti con
åħ Ń
and ing
copy right
k Z
Ġ1 18
is Immediate
Wr apping
BO ARD
Ġinter val
Ġ tin
is or
wrap Map
Me teor
]|| []).
active Tab
Over lap
FE RENCE
áĥĺáĥ ¡
Ġpri mitive
Ø ¤
on change
);} .
Ġ1 40
Ġbi la
check er
) '
ST OP
select Node
did Warn
([ -
und s
=' \
limit s
D N
Ġ modifier
G LTF
key Name
}; _.
à½ ĸ
Con v
n Se
vi es
Image Sharp
Syntax Error
add Item
Ġimage s
ç Ŀ
Mo ving
]) &&!
Ġpar tial
', -
po ke
Peer Connection
months ParseExact
endak i
n j
li h
char acters
T AL
Ġ ")),
Ġb ug
multip lier
persist ence
VER TEX
atur day
9007199254740 991
ĠE e
Hi erarchy
s Y
ap an
Ġflo or
ot or
},{ \"
Ġw t
child Val
sw agger
Al ways
cond ense
ä» ĸ
Ar rows
um in
ch dir
Ġh ome
("# ")]),
par k
set Visible
async Factory
Ap ps
ar ticles
Re mark
o Table
in coming
pi ed
DO UBLE
Ġgener ated
in trinsic
Ġma sih
Re load
led ge
',' --
transition ing
ĠS afari
nextElement Sibling
Ð± ÑĢ
W Script
);}; $
Ġw i
en umber
('. ');
li k
yy lloc
> .</
,' \\
ĠG u
At t
g od
Ã ¿
delta Time
] }};
new Node
] ):(
n ullable
"}} },"
:[ ^
(){$ (".
updated At
')} </
8 41
Ġc ent
f ps
å½ ĵ
finish Node
"> {{
K P
d P
Move ment
bre w
is PM
Http Codes
MAAw ADAA
g us
N SU
uv w
b R
grid Row
U DO
Ġb us
ass er
Iteratee Call
color picker
ĠO o
Red raw
Big Number
å Ħ
pre fer
um flex
By Index
UN I
:/ (
åį ģ
() );}}
Ġci rc
ĠMa ke
ht m
1 000000
range Count
mail to
composition end
+ (?:\.\
is ub
id u
"] )({
)}} },{
h B
m j
; "),
18 44
p X
p on
æ³ ¨
Ġdah ulu
K an
æ ¤
ĠW r
func tio
Ġpop up
di ms
I J
Ġ adi
dH lw
dash array
&= ~
Ġbl ue
Z J
c rc
Ġ ('+
ĠE X
);$ ('.
F H
intercept ors
new Date
has Error
Ġex peri
Sh allow
Ġtry ing
ATTACH MENT
Ġ4 16
Break s
Ġ ],
ĠT etapi
mal ink
]] ],[[
PASS WORD
é Į
Ġbers ama
Id entifiers
lin ux
X Axis
ç ¯
Ċ ĊĠĠĠĠĠ
åİ Ł
I on
FBQ y
React Mount
touch Start
G ain
s C
DEV TOOLS
n import
+ )|
A ctor
get Top
å· Ŀ
Cat alog
check Offset
re mark
$ ",
9 21
col ate
response Headers
ad b
áĥ ķ
appro x
p ill
c HJ
ÖĢ Õ
(' --
)/ ;
Navig ate
Ġass oci
q cz
sub type
] ]:
v ml
expect s
Ġme asure
F light
Ġde ep
ãĤ ī
Ġl g
array Each
La titude
ä½ į
Ġbah kan
pe l
iv ing
ld m
trans pose
å ´
W Y
EN TI
")} )),
í ĺ
Ġse gment
\\ ]|
Nl bG
end ants
a es
G z
s la
");} });
% \
à³ Ĩ
keys In
j us
Font Color
UN DEFINED
Comp ute
p bs
chain able
)} `
< <=
Ġe u
ir on
s ay
W K
du re
c fe
Fil ler
Jul y
\" }.
ber t
ĠR un
Toler ance
o Init
12 75
!== _
To Point
entity Type
ë¦ ¬
c les
Ġsi ksa
| #
se ag
Ri wayat
Ġ1 80
æĥ ħ
Ag A
place s
dGlv bn
Ġre maining
-"+ (
edu cation
Ġsu bject
:[" #
weekdays Parse
Cre ators
Ġp c
Ð² Ð°
Ġb ranch
df d
T J
b Y
14 56
ãģ Ĥ
] ";
() >=
as kan
gICAgICAg IH
o q
to gram
L it
Ġpro blem
W ave
Ġ__ _
Sn ippet
,' ')
region al
% &
Ġpri ce
SPE C
=[ ]},
x ffff
qu iz
new Index
;},{" @
Ġ parseFloat
cI ik
UV W
ap o
isArrayLike Object
Text Content
Web Inspector
ĠÐ »
} ):(
Ac celeration
Ġ routes
on Delete
men ub
sign in
[" @@
sec te
PROPER TIES
b ones
Ġl ar
Ġk ar
ud f
Ġper form
e per
get Stack
=\" #
R L
LE X
letter Spacing
sh o
ne monic
Bounding Sphere
rad ar
F V
Ġb inary
ĉĉ ĉ
e cho
W al
au di
W v
m ine
in crease
\ ':
al ist
qual ifier
bounding Sphere
||" *
cover line
}, __
Ġ library
Ġf av
X k
Render able
Ġ job
root Url
Ġ protocol
safe String
vi des
x L
x P
class operations
sta che
Î ²
× §
I UM
ur is
00 04
d up
S keleton
check s
min Value
pre release
start Value
ok t
aj ib
get Param
ĠU t
Clean up
reduce Right
Rep orter
Y Axis
id ad
to Element
12 23
Event Handlers
menu Item
}} "
Ġun til
ment e
key vault
AA AD
round ing
tweener s
ä¸ »
ĠFi r
Ġ propTypes
dW x
à ¬
("{ ")]),
At Time
Po ssible
",[" [
bn u
æĤ ¨
U O
dialog s
fil ls
Ġa ct
Prefix es
Un wind
Header Name
man ent
]| $
æ ¾
S pr
P df
Char set
Ġmem ili
Ġp lot
ta ma
Ġn is
(?: (?:
Ġfail s
Spec ific
au i
IN S
Long itude
á Ī
Ġse par
ji an
int en
I AQ
Ã Ĩ
Ø³ Ø¨
child Count
Ad ditional
d rive
special Easing
=- (
If Needed
G AC
func ti
Poly line
Property Name
Overflow ing
lo s
DE CI
u glify
za X
CAC HE
\/\ *
i OS
á» į
sched uled
U q
new Pos
register Language
ar ah
w ho
Ġses ungguhnya
ê µ
mark o
VVVVVVVV VVVVVVVV
a H
V ED
Ġw s
w Q
start At
M or
s uspended
local ization
CLE AR
[ ,
se mantic
] >>
]) -
ĠS ET
render To
[^ >]*
(! ("
] ]){
is Paused
("} ")]),
Arrow Down
original Element
ab orted
fi k
Y p
x V
ĠT ra
getNode From
K AC
P itch
');} }}
In d
9 51
12 66
(" "):
Ad jacent
")) );
Ġfr ont
au h
Be low
á» Ļ
cached ClearTimeout
04 37
z render
Ġbul an
ë §
b mp
Measure ment
Ġlink s
d ri
attr Hooks
eb ab
t LS
Re ceiver
13 33
E QUAL
ĠS to
13 00
PRO VI
isStop ped
ĸ åĮº
18 00
','ðŁ ĳ
su med
insert At
ĠS n
Ġ` ,
Ġ Arguments
post al
exec utor
sequ ent
Element Ref
h ls
font Color
pol ling
Url Tree
cI j
ĠA e
P N
TR UE
Ġpe m
iB AA
P al
lo ud
Normal ized
cached SetTimeout
on Create
LX N
Ġil mu
CATEG ORY
ÙĲ Ùĳ
å·ŀ å¸Ĥ
"," "],["
LON G
l na
game s
Ġpath s
IR ON
Ġmen jawab
Memo ized
Ġh alf
9 43
] ||!
Ġ GET
OR IZ
DIRE CT
ĠP t
Throw n
on Pointer
how Many
f arm
Ġc rypto
æ ¿
o A
to Key
Ġmenger jakan
subscriber s
Ġ rotation
cbiAgICAgICAgICAgICAg ICAgICAg
)} (),
ABCDEF G
L AR
go al
st ation
seag reen
step per
FR AME
ĠSy stem
ud C
G m
cbiAg ICAgIH
Response s
mak sud
k E
B el
ĠSW AP
photo s
ri a
() },{
Duplicate s
20 160
å® ¶
ĠD es
re ward
is ation
vertex Shader
Ġb alance
and y
= ","
is After
Ġvis it
< $
i q
F uture
))} )},
Dis cussion
ac d
s we
:"â Ĩ
ä¿ ®
toHaveBeenCalled Times
D J
j et
8 21
Margin s
W O
)+ ",
))} ));
global Alpha
Ñĥ Ð»
+" ("+
(/^ [
h bn
! `
gold en
Ellips oid
f al
fragment Shader
Ġfe atures
EB AQ
]||" ").
Vs ZW
Dis k
M Z
focus Offset
user content
source Index
8 31
') ||(
Un load
OR w
"} )
;}; __
}) ],
f act
HO UR
gue ss
[ `
ĠA ction
bj og
PUBL IC
Ġ Chart
ER A
min Size
& ");
áĢ ¬
i ush
à½ Ł
try Loc
fe male
é Ń
ab ar
Z igbee
relation ship
IDENTI FIER
S ong
gr ant
add Method
Ġon Change
fig caption
async Iterator
getElementsBy Name
to Primitive
uvw xyz
t span
' />
Mouse Up
text s
Â §
de scriptors
}` ;}
Ġex it
z zy
13 37
slide Down
b ower
(); $('.
(' *
element Id
,! (
[ ]}
ip hone
Ġ ðŁ
lar um
s For
Ġb ang
r j
R V
Û Ļ
on Ready
tab Size
Ġ# \
SECON D
Te X
10 19
con cept
dar ken
Dom Event
iner tia
la ki
]= !(
_ )
Â İ
({ __
En umer
clone Deep
; ";
hy per
AI g
)!= -
æī ĭ
iz able
]|| '
t zm
tt f
})} )
= ?
bon us
file path
Ġ12 1
Ġ1 16
s ontable
Scal ing
Ġauto matically
ag ia
Ð¾Ð ·
AD Q
grid Column
without Suffix
LENBQU Ms
sp lash
map box
SUPP ORTED
m Fy
pa rency
dire cted
minim ize
CAA A
get Set
last Call
();} );},
ĠO e
ç½ ĳ
ac ted
X Q
handle bars
s Search
100 1
cd f
curve s
ĠH al
EX TEN
Ó Ļ
Ġ Command
Message Type
Ġà¤ ®
Ġf uture
am ond
]) ","
Ã¡ s
Mz I
ĠH ash
Sc an
isImmediate PropagationStopped
vi ation
selec tee
f rappe
Star ting
G ue
AC g
Pt g
illi on
L ambda
') &&!
æ ©
Hand led
d CB
Ġh ot
Gro und
is Common
QU OTE
prop Key
W izard
f light
Contact s
pixel Ratio
()} });
' #
FI LL
Ġb id
On Error
b P
un select
ÙĬ Ø³
&& ++
MUL TI
J EC
> ))}</
get Header
ber ry
clear Rect
ĠS i
Ġ} \\
sp ans
aW R
ab il
"] ],["
LINE AR
iDisplay Start
;} ),"
ish ed
web p
cap acity
Ġ× Ĳ
Z I
, }).
se cs
Selection s
è½ ½
Parti cipant
Y Q
":" ?
Ñĥ Ð¼
|\ [
ic an
Y F
inter pol
(){ }},
label Position
Elli pse
Ġà¤ ¸
In Out
ang o
K CB
è Ľ
For Value
sp line
Dis connect
ul la
PO S
G ER
n float
AB A
BUI LD
B en
Ġ Parse
Se c
Strict Mode
Ġs wi
(){ __
Pres entation
la mat
Nav Item
ë °
Ġc ara
ur y
ä» ¬
bab ly
(/^ (
kk kk
set User
09 30
Par a
Control led
Ġm m
? %;
arg er
))} :
wB X
â ī
group ing
Febru ary
* ="
SING LE
Ġde cor
à² °
QR ST
Id ent
ru it
áŀ Ķ
gu an
CTR L
+' -'+
be en
exp lo
pointer down
mut ate
V el
Ġ Tag
un selectable
Ġo m
] );});}
x Pos
z igbee
$/ ,"
s Width
invCluster Size
He ap
=' \\
max imize
à´ ¨
O I
To gg
select start
do g
aud it
]; (
H am
text Baseline
babylon js
N K
Character istic
å¸ ¸
Ġin variant
array Like
Group Id
Jv dW
ENV IRON
RE L
API Request
s ider
Ġpo ol
SY SCALLS
NUM ERIC
is Dark
ĠG rid
_ =!
O E
ub G
Ġ qui
Unwind Safe
Ġl arge
SI TE
Formatted Message
mo ut
ir l
Ġu a
Fi bG
count s
;}, '
Comb in
> ):
view To
12 04
?" \
Start Index
dra ining
pre c
Ġv olume
ç¬ ¦
enu h
unjuk kan
host s
c iler
app lied
ĠM t
monthNames Short
} +
file Id
Ren ame
Validation Error
get JSON
: ;
ĠA S
cl ub
shortcut s
Ġ1 32
add Attribute
Ry YW
GG GG
ĠQ e
add Error
14 29
Bv bm
, ()=>
hash change
full Screen
pe ts
Position To
L ater
Or Tools
Th ursday
ab ric
+'" ');
]] ];
éĩ Į
30 44
S lo
çº §
l bl
rea ctions
ä¿¡ æģ¯
service Name
ateg ies
Y ellow
Ġ mousedown
sty lize
Re ferences
ĠMe kah
Ġb n
Ä± n
co res
]= +
var ying
Ut bG
Ġj an
drag over
Ġ ÏĢ
up les
Pol l
ow s
ach er
F larum
De cember
Transition Duration
}} )],
Ð°Ð ¶
primitive s
Ġst ats
param types
ĠST ATE
Trig gers
×Ļ× Ŀ
if ies
ë Ĥ
("/ ");
PSE UDO
z x
ced il
11 79
]), !
f V
Nl c
Qt Y
ĠL i
X m
cy B
ĠK EY
o D
scal ing
Config ur
oth Index
å° Ķ
baseGet Tag
is On
(< ><
a si
z L
Ġ Qu
Ġb uk
find By
Ġdep loy
ve hicle
pZi Ao
A ws
Pie ces
f B
w ood
Zp bG
la be
env Map
is Browser
é Ħ
Ġwrap ped
Dis posed
slot Scope
LOG IN
à§ ģ
è¿ Ľ
CHAN NEL
Ġra h
R H
ase d
Rl c
W B
Ġ12 4
Ġcomp leted
s YXNz
a void
('/ ',
z p
respon ding
PH P
ss ian
(' &
Ġstate ment
I VE
Ġ Bu
Ġf un
List FormatSymbols
v cm
{ $('#
JS Events
en is
spa cer
B ag
SETT INGS
o Classes
æ¸ ħ
:[ ['
Ġ1 000
Ġde st
k D
Ġ% >
Node List
ha W
ati bility
A DED
æ± Ĥ
F riday
} #
":[ {
CS V
IC S
Ġli kely
CI L
Ð¸ÑĤ Ðµ
Ġc er
Ã¤ n
class Prefix
y ZGVy
parent Elm
ä¹ ĭ
c AA
j sp
ump ad
}"," \\
ĠS ans
Ġc at
ĠHTML Element
mon go
p ony
ĠP en
Ġin correct
+" >
Ùħ Ø¨Ø±
render Item
D QUF
co upon
åı Ĥ
person al
title s
Ġfinish ed
Ġsub sc
Ġr s
ĠP re
m ur
local ity
fin ance
Ġg olongan
00 05
ml ink
Pre set
à° Ĥ
ca y
"} )(
ĠĠĠĠĠĠĠĠĠĠĠĠĠĠĠĠĠĠĠĠĠĠĠĠĠĠĠĠĠĠĠĠ Ġ
v ince
bl k
XHRcd H
X w
Start Vnode
)}), [
DE S
set Max
cent ral
ä¹ ¡
trans formed
is IterateeCall
æľ ª
P Q
/ "),
Ġmen urut
c ms
ajax Prefilter
à· Ģ
ax y
Ġor gan
ĠY e
éĥ ½
[^ \\
RU FBR
Pag ing
t Z
ç ĵ
])} );
from Element
tyle d
CUST OM
Ġ20 19
ro ck
li est
Re t
W D
or row
RE CT
?' <
à´ ¾
session s
18 45
ĠO F
cur CSS
& ~
W M
on Item
vi le
") !==-
parent Window
ENVIRON MENT
isS imulated
te k
Ġis String
set Filters
Ġserial ize
get Zoom
] ','
S afari
ME TA
x J
li e
x ls
é ¼
ĠR t
P ARE
con firmed
column Index
ÐµÐ ³
10 11
page Index
Reduc ers
is Pure
Cur r
ĠG lobal
Ari al
strike through
n exports
Ġ County
Ã ĥ
set Up
k Y
K U
ç £
æĻ Ĥ
ìĦ ľ
]"," [
q C
pick r
Font Style
z dG
To Number
clu ding
)$/ ;
is Absolute
un handled
Co verage
replace All
get Viewport
ir th
Ġpa ir
TR IG
áº ¿
pri m
ol ive
aa Sorting
Appear ance
Be st
)(?: \
cancel Button
Manage d
Ġs ungguh
abbrevi ation
Ġrename d
àª ¨
ë ª
dispatch Instances
cent roid
çĻ »
x M
Ġst at
wn d
åĬ Ľ
uk ul
\/\ //
Ġsel uruh
bullet s
è ĸ
Base Url
incip al
j dGlv
ĠI e
d ad
ED GE
Ġma cam
p JS
p fx
Ġs ql
Ho use
C ipher
ar um
to po
Ġg ood
\. ?\
Ġ che
prev All
Inter sect
Ġcalc ulate
ng Module
cy I
Section s
20 70
pb X
slidesTo Scroll
Ġ ":"
Emp loyee
" "
ar ri
Sta tistics
calc ulated
IAA I
flat Map
(" ".
(" ")},
c data
),! (
Ġre ceive
£ áĥ
Selection Change
Ġ uri
Ġle ave
DR AG
css Module
Co lour
16 10
X Sw
Re tri
ali ce
Ð¾ ÑģÑĤ
white Space
ACAA IAAg
Ġj spb
$ (_
b pm
11 14
ne st
todo s
Ġq e
lu Zy
K HR
current Year
$$ ,$
not Found
Ġ× ľ
bo ts
Ġma suk
device Id
ke in
base Stats
K N
T Q
Frame work
get Table
15 18
stand ing
Ob serv
F requency
isSup ported
ĠP RO
Ã© e
Ð¾Ð³ Ð¾
dnVl LWxvYWRlci
Z R
Vo ice
ÐµÐ ·
Ð¸ Ñİ
åº Ķ
. ';
M ig
HEAP F
onTouch Start
ali k
Ap pointment
é Ĩ
S IG
inclu ded
v ill
S low
è Ķ
{ $.
column Count
E ACE
] :'
Le arn
é ®
ti an
ĠI mp
Ġset an
css Position
Ġman age
de m
Ġv s
* =-
OiB cIm
Reco gn
i cies
is Input
Ġe tc
nos tic
ane ous
Height s
with draw
PROVI DER
Re v
", /\
KG go
pre filters
))} ))},
Vis it
- ]*
get Call
Jy b
Ø ¥
Ġ37 2
}, ],
flow s
8 192
experi mental
o on
Ġne ver
res erve
Ġme ma
(_ ),
NAME SPACE
f di
ĠResp onse
add Point
+" \\
b cb
ĠG B
Ġuse s
m ip
cc cc
W q
Ġd il
EN O
AN IMA
Rough ness
set Status
Ġmela ksanakan
e motion
={ })[
YW R
E FF
max Wait
75 28
G lob
é į
K M
14 86
raw Value
Access ors
E AE
Ġ und
Ġ Ú©
i VB
scroll Sensitivity
Ġmap StateToProps
div ision
Lo gging
render s
Start Date
err no
active Target
k C
RE PE
l igne
() ]:
se o
Ġi z
list box
Serial ize
WebGL Renderer
* )?
i add
__ )=>{
By ZX
":(( __
Tw itter
G q
S LI
Z Sk
abbrevi ated
TO DO
H lw
he ure
O Q
object Proto
QRST UVW
=[ {"
[ ${
ĠB i
e of
è ľ
insert Node
ÙĨ Ø¯
Ġconst ant
Arrow Up
ĠisObject Like
I AL
<< (
T AI
or o
ABCDEFG HI
sub Vectors
con firmation
y ml
or ch
im mutable
so s
key Of
P en
mong odb
B Icon
ap pointment
Ġc ity
Ġpo ur
o Language
12 06
Å ¼
," "]},"
Font Awesome
RU FB
getDefault Props
access ible
k on
time Scale
04 33
RE CE
çī ¹
_ (?:
iVB ORw
ĠBl ue
Oct ober
à¦ ®
/# /
Wed nesday
Form ula
!==' '){
:"â ĭ
pre fetch
M ai
SERV ICE
o ta
(` <
&&" [
æ¬ ¡
Ġ angular
RE SH
create HTML
ĠC t
11 98
') ||'
hE Ug
ìļ Ķ
{ $$
Pro d
Ġw hether
([ ]),
)) ===
AAAA NSU
}, });
arch i
reco very
JK LM
fic ulty
rect s
CON DU
)})} )}
% ','
internal Instance
Ġf it
Phone Number
Server s
);} )();
J UI
=/ ([
r nd
Ġnode Name
Ġma de
Bub bled
ÑĤ Ð¸
hasOwn Prop
])} )):
KGgo AAAANSU
er ing
th ous
uFF EF
Ġ quote
"} ));
light en
Ġz one
B ill
button Element
drop Down
need Readable
reactInternal Memoized
Ġ* =
(( ?
mu x
ca e
listener Count
sc rolled
start Pos
j id
set Mode
de sired
è Ĩ
", '<
() ||!
Ġpoly fill
T uesday
Ġ Version
mov able
* $
Ġg it
e ol
Trans lator
Ġ cells
OR K
server less
Event Names
mx Resources
") ==
prefix es
"); \
RO T
editor s
@@@@ @
Git Hub
is sor
Ġ12 2
p ragma
t j
ìĬ ¤
E vt
':' <
KGgoAAAANSU hEUg
get Global
Ag ain
expi ration
]] (
Ġformat ted
add Element
ðĿ Ķ
Ġfla gs
Ġrah mat
get Int
QRSTUVW XYZ
. '
Ġ{ };\
S aturday
'), _
Ġ elm
Language s
M ongo
Ġapp lied
Ċ Ċ
er u
ce an
ĠO t
Ln Z
g M
â ģ
current Month
PL Y
- ",
Comp arator
pbmRle C
ÛĮ ÙĨ
or al
]} },{
toa str
() )||
line View
09 15
xx x
064 7
ĠN t
res is
check For
âĸ Ĵ
LIGHT S
dispatch er
, \\\"
();} },{
bind Buffer
Ġci rcle
çľ ĭ
L IT
new Props
\' ><
( )}}},
F Z
Ġh r
ĠA ctive
A verage
F ALSE
Face book
By Type
ĠJU MP
ist ant
à¦ ²
å® ŀ
bs TransitionEnd
Obj ective
se verity
Ġ press
Ġs kin
short Desc
di ameter
("=" )]),
multiplyBy Scalar
dis k
]], ,,[
z B
ing atan
View Model
cmp n
L isting
zz le
ver ification
current Path
)), _
parse HTML
íķ ľ
Combo Box
end Tag
redu cers
Phy sical
ab at
text Status
:'/ ',
U HJ
"] )),(
inte grity
x q
data Points
" ','
sprint f
':' ','
S CHE
Ġpixel s
c ad
define Method
Bvcn Qg
Ġdila kukan
K en
re order
I U
is Dragging
emit ted
Drop zone
Regex Token
Need Update
> _
Field Value
S TEN
] ]},
scrollbar s
data Value
React EventListener
} ||
Decor ators
Ġkey press
Ġcap ture
d lg
Ġ( -
Ġad apter
q sa
ĠO S
)=== !
ĠG ener
a cos
cancel Bubble
Ġfi ber
func Name
. "},{"
Ġst ored
ĠT t
geo json
PROTO TYPE
drop zone
Ex tr
Unique Id
L q
pointer over
yb S
)} ><
Ġt urun
short Code
o gg
owner ID
N gb
Jo bs
() ))}
Ġ question
en umer
dG Vt
;} ));
any alah
CONDU IT
Input Group
Max Width
Ġpi ck
get text
bill ing
skew X
JKLM NOP
Ġpi pe
secte tur
Ð°ÑĤ ÑĮ
minim al
> ";}
18 48
._ =
head line
Fri end
Ã Ŀ
__ ("../
parser s
D Z
)) ));
Ne igh
ĠÐ½ Ðµ
source Root
P USH
ĠS imple
is olate
extract Events
åħ ¬
R SA
ZX Ig
vc HRpb
Ċ ĊĠĠĠĠĠĠĠ
last Rendered
in structions
last Char
src set
ì ĥ
Ġcontain ing
:" +(
,' &
V ert
Ġ FB
Ġte ch
Property Descriptor
Ġ}), \
ba g
Private Key
seek ing
â Ŀ
Con versation
Ġdi ti
MED IUM
Ġ pages
cor ners
vo s
ï¿½ \
Time Picker
A VE
Pin ned
Ġb ert
Ġ1 35
Lo rem
([ ].
submit ted
DECI MAL
+' "]').
Anima ting
h ighest
de b
from JSON
ĠA u
S amples
)})} );
áŀ ı
à¶ ±
tre es
g F
create DOM
measure ment
ca sh
pagin ate
Ġplugin s
data Labels
ĠAr ab
| "+"
aG Ug
"} ]},
be a
Ġse quence
set Offset
Ġ1 17
AD OW
j mp
& ":"?
Ã ĸ
le ap
shadow Map
state Params
')? '
is ReadOnly
follow ing
Color Picker
element or
R eli
contract s
Ġexpect s
re lay
& -
Ġcall s
Ġi k
pointer out
Ġbe berapa
}} );}
Type d
style Element
is TypedArray
TO TAL
ĠD t
) ["
× ¡
= &
view Value
\/ (\
input Type
Ã ģ
[ \"
samp ler
mo ke
||{ }),
sig ma
pre Filter
RhdG lj
ĠLazy Wrapper
show Error
EM AIL
pre fs
Ġ{ }\
init Event
AV wBX
l BQU
}, };
O Y
X J
ĠW orld
(), $
Ġ< !--
erarch ical
A pa
)&&( (
é¾ Ļ
Bvbm Vud
h ZG
]} )},
New lines
abcdefghijklmnopqrst uvwxyz
")+" </
an Mv
":" .
mx Shape
ra ve
getNodeFrom Instance
G uid
} %
last Update
inst agram
Pol ling
D ur
'} ]},{
Ġindex Of
íĬ ¸
y Pos
country Code
Vo id
"), $
ĠG it
? |\
match Indexes
Ġnormal ized
iva lent
ari os
tah ui
bb bb
'), $
ĠF ound
Ġm ana
åĮ ħ
Ġp ie
flex Grow
xv ci
Ġtan ah
di al
o Features
Da mage
(' âĢ
Ġh orizontal
model Name
Dim s
H AL
r at
la W
ass oc
ĠS yn
Ġalign ment
MAAwADAA MAAwADAA
\" ;
int ensity
fill Rule
});} ).
must Use
)) +(
a S
Prop Name
dom Manip
áĢ Ķ
]={ });
REPE AT
C Ag
Av Ly
Ø¬ Ùħ
ABCDEFGHI JKLMNOP
X v
z ones
T q
B one
bo keh
Shader Chunk
a ca
container Width
leave Cb
get Uniform
));} });
inclu sive
Ym Fja
in Range
Ġ Context
un signed
ä¹ ī
à¹ ĥ
ìŀ Ĳ
ĠKa rena
RE EN
raw Data
b ff
app Config
w q
Re moval
Ġme me
ì Ĩ
is Standard
js coverage
De st
inst ant
Co s
dev kit
Ġwork er
gue sts
to Json
set Show
Ġread only
A LE
f Y
CU BE
re define
---- -
Ġredu ce
00 10
Ġ license
ĠI bnu
reach able
+=' \
b un
f ur
Ġel it
G J
f q
ĠH ost
:\" \\
ik ir
ignore Case
PRO JECT
List View
g H
GE O
quad ratic
en i
ĠT itle
Ġan aly
F ACE
Analy sis
lo st
center X
o Data
Click Handler
progress Bar
ex clusive
= (!
CONTAIN ER
si des
og raph
stre ngth
ra ised
I ZE
ren ch
äº ¤
Pending Time
X D
Ð Ľ
data Series
Ġbel um
à¨ ¾
cork ed
EE E
ba gai
is ot
is Success
get Inst
nos tics
æ §
")) ?
Ġversion s
is es
ĠM utation
lex ive
Ù ķ
ĠV AL
me js
dD og
transport s
end Value
Ġme d
2158 592
àµ ģ
To Remove
node Ops
è¯ ¯
,' -
j Q
& \
() )}},
14 00
pb md
e mb
)} },"
(); ){
De leg
Be ing
L is
ë ©
ID I
F ly
public Path
us an
ĠP DF
a E
do ck
x dW
ak si
sup p
," #
à´ °
Ã© r
al erts
," ","
+" //
ĠL t
è§ £
/ ).
get Layer
Ã¡ l
ç Ĩ
Scroll View
Big Int
Ġ ignored
to ber
(' ')
èİ ·
PRO DU
n id
ĠD a
Sub scriptions
Â ¸
ad ler
Layout Effect
Ġ) <
Relation ship
Touch Move
=[ ])).
ĠM S
D uplex
ZW Qg
Sp in
G Vy
ed ron
all s
- ?\
Ġ Up
i Pad
:" ./
top Drag
Line Width
. ")},
format Message
Ġpad ahal
Ã¶ r
327 67
ç ¸
ĠN O
By ZW
touch cancel
NT Q
oth Value
Out dent
Ġnew Obj
):[ ];
p un
auto Complete
AF w
' /><
||{ __
(". ").
ben chmark
ance led
Request Id
Bra ce
Ġn u
]), {
temp orary
dir runs
c ust
Ġchar s
Ġitu lah
)? !
' "
. '):
mb ient
Ġ[ ];\
R PC
get C
Re jected
Mouse Over
gg a
ĠT YPE
la ku
z ation
l ifecycle
css Float
E OL
Dis pose
Ġnavig ation
SECON DS
SU FB
Ba sics
LO ADED
Sy m
)})} (
g P
gICAgICAgICAgICAgICAgICAgICAgICAg ICAg
ãģ¾ ãģĻ
ĠØ «
Back space
tc cl
Ġ1 39
before unload
Ġz t
',{ "
h pp
ret ain
update Data
publish er
an other
Ġres erved
request Headers
Asse mbly
active Date
str y
ĠM ah
Ġmark up
set Month
Ġinput s
style Name
LCJ maWxl
IH R
spec ific
is Cur
S J
]|| [];
Ġhand lers
Ġh anyalah
compo sed
):( <
BIT S
Ġre jected
ti ed
12 02
ĠU e
ãĤ «
s Name
get New
AH Q
] ={};
An onymous
sp i
Error Response
"] }),
PS J
/ "
Ġ1 52
ctor ies
Ġ ps
ul us
=( $
ung kin
i as
Ġr ate
spe ak
Exec utor
, *
Ã ŀ
77 44
G K
key Down
Ġm orph
Return Value
]) ===
ĠO per
ebab kan
å§ ĭ
Ġinstalled Modules
ĠG oogle
Ġu id
(): &#
c F
w j
sum mer
") !=-
, %
Ġk ind
multip art
array buffer
Input Label
Rp bm
sl int
Modifier State
67 08
ĠG ame
Acti vation
line Dash
Ġre v
sound s
Ġn h
' ;});
add RegexToken
z v
tribu ted
assign ed
De tached
Ġme ans
host Parent
('/ ');
w J
Ar tifact
alah an
;};} ),"./
H F
ul kan
cache URL
argument Types
10 28
* \/
": ",
p XG
Ġme le
Jo hn
e fa
ĠA sync
Re served
q A
| \.
text field
ON LY
Ð» Ñı
At las
pro x
ne arest
re o
op codes
ĠB B
Îµ Î¹
ÑĥÐ½ Ð´
R K
amel Case
' -'
') &&(
Ġ Template
12 50
Ġma th
e ther
ĠX e
RU LE
Vz Ijpb
f am
key stroke
13 56
NvdXJj ZXMv
^ \
18 57
f en
Ġ Id
Ġ Path
de al
Ġdo jo
Ġit self
pr istine
)!== !
Ġneg ative
18 49
() =='
ire ction
ĠSup port
-- }
sub script
q ty
,' ../
Ġhas OwnProperty
lis ted
Ùķ ÙĲ
26 00
../../ ../../../
Ġmen unjukkan
THE FT
I mmutable
"] });
copy Array
Io ss
æ ª
"} ):
à· ĥ
active Item
sci ence
is Loaded
notify With
Office OM
"); $(
ĠF ace
ĠR a
j KF
(/ (^
ip ad
6666 66
Ġreg ion
staur ant
Th rottle
X j
+"* \\
VIDE O
C PP
P ada
Ġth ree
ĠS yntax
up loaded
à¦ ¸
æĭ ī
Y ul
v ZG
{ !
con sumer
months Regex
% %
j dX
ç ¹
() )).
x ed
ĠT ree
ĠO leh
came lize
to o
ĠKe mudian
C J
c U
å Ĺ
or ing
Ġa i
+' "]
,[ ]);
12 24
Ġmemba wa
AY S
ĠG enerator
: ({
mock s
add Handler
Ð¼ Ð°
Obj s
phone Number
Lj E
Brawl Lib
Arrow Right
temp ting
à« ĭ
er ative
YX RpY
S in
s it
Ġfa ke
inf late
Case s
âµ ī
ub m
in progress
con tained
borderBottom Width
Ġ Product
Ġre generator
obj s
fav orite
q Y
value Min
Path Segment
callback Context
ĠK iamat
O dd
Comp iled
()} </
oo ser
attach To
PRO P
nof ollow
M zM
89 89
get Fold
ful fill
åĨ Ļ
TRANS FORM
(! ((
get Client
S LASH
Ġde cimal
search bar
Solid ity
Re sume
l O
;} );},
W L
4294967 296
mo on
parent Val
_ ]+
gra mmar
éľ Ģ
STEN CIL
Week day
ZS Z
| <
b XG
IN LINE
10 14
\" ","
ãĥ ķ
CONNE CT
ve st
Ġb ro
'] );}
,$ =
ABCDEFGHIJKLMNOP QRSTUVWXYZ
h id
use Capture
op ener
CA E
get Number
x type
tra in
":{ }}
20 150
à² ¿
Ġ Config
Ġt anda
ap ollo
n In
W RITE
app lications
den o
WHI TE
a un
Replace State
f re
cbiAg ICAgICAgICB
)+" ="+
car on
Ġla zy
rep res
" "+
20 130
Ġ Î±
19 87
inst allation
Ġbrowser s
is List
He art
e lastic
mp o
vue x
D AA
Ġ defineProperty
UJ BQ
z dHls
Ġne geri
screen shot
ĠC B
âĢ ¢
=( <
ZXh wb
Pla ces
Ġmatch er
no logy
10 12
TI F
Å Ħ
is Non
RU FD
bid der
native Min
serialize Binary
job Title
* +
è ¤
as ures
event Emitter
Ġ' ;}
Reli able
ĠS E
á» ĩ
", },"
Ã© n
C bs
')) ){
in ci
animation Duration
æĵ į
SE SSION
En ergy
t BQU
stat uses
ar cs
}), _
ther mo
t utorial
F LOW
slot ted
Ġbuk ti
render Target
response Body
LI MIT
ssr Context
is Body
ä¸ ļ
AI AA
TR A
avatar s
æĮ ĩ
u les
Ġ mouseup
time Zone
Comm unity
ed ited
time Format
T rap
è ŀ
'} );});
ĠCustom Event
LCJmaWxl Ijoi
a ac
Mix ed
Ġm id
Ġid entity
Sh Åį
:( \
Is HTML
:{ [
yd CB
dash ed
à® ļ
Virtual Dom
i to
MI X
ight s
add ons
Ġfile Name
p bi
Type Id
Code words
ç¬ ¬
id entifi
get End
Ġtr ansport
RO UND
OP S
tt l
onTouch End
make Styles
Order ID
hel met
Ġflat ten
Z K
ear th
ÐµÐ½Ð¸ Ñı
YX Rpb
a F
Scroll Position
github usercontent
ul arity
log Error
flat pickr
get Message
te al
() ),"
:" :
Ġdyn Call
\ "),
19 20
I AB
Ġ6 00
Expi ration
create SvgIcon
ib m
åº ı
($ ('
lo be
AL T
AN Y
IGN sYXNz
Ġs ound
0 456
ce ed
," "+
Sc en
Ġ models
ĠWindow s
t angent
Ġg ive
Ġpa hala
DIS PLAY
Ġ ")]),
In f
Ġ roll
æ ĳ
ta X
Detector Ref
Ġ );
sp ine
min length
2020 2020
Aggreg ator
Pas sed
set Attr
Ġo d
V endor
T ilde
._ __
query string
Lj I
ind igo
')] (_
DE SC
ĠÛ ļ
M uted
' ||(
log ged
Y N
ent uk
qu it
Re order
ĠRe source
. ")]),
w ed
on Data
ĠNo te
Ġad just
Ã »
De clarations
Ġ loader
Â ª
C q
k ubernetes
');} );}
WA IT
Ġn umeric
ĠA DD
recomm ended
Ġ ren
bah an
def ines
å¿ ħ
geome tries
gridOptions Wrapper
X K
Ġadi pis
av en
13 42
Ġar ound
âĸ ĵ
Î ĳ
ri tical
ag g
()} ))},
Ð¾Ð» ÑĮ
11 10
.$ (
}) ();
([ ["
P ing
Sup ply
pur chase
t ls
dl Yn
è ķ
column Number
"] }},
nvar ying
ReactCurrent Owner
include Instance
Meta Data
B vc
T int
i Col
Ġse ek
>{ }<
H q
L IC
A bb
ĠAb stract
] }}}
fa at
Resiz able
Ġb ig
qqqqqqqq qqqqqqqq
ba c
Ġ ÑĦ
Label Text
00 20
Ġupdate s
que e
an ak
get Module
sk ills
(" "===
Pres ence
tab Id
get Buffer
Out Of
u E
Ref lexive
ãĥ Ń
ab lish
Ġb enda
Observer s
EXTEN SION
u q
ç ĺ
Ġen um
to oth
ĠS ur
Ġper ingatan
AS K
k ari
relative Path
Nj c
zMzM zMzM
JS Compiler
ĠWork er
Ġ vertex
text Input
D q
pro ve
ci r
Man ual
}: ${
` #
pending Context
10 15
g R
if Conditions
rotate X
HEAP U
00 07
co lo
kan lah
' ll
Pa st
Ref lection
'],' %
= ',
à° ¿
creative commons
":{" $
Menu Items
Ġrecord s
j is
ĠD alam
NvbnRl bn
is Playing
Un ited
ang ents
un de
No thing
")} }),
Ġst ub
d ns
m BAA
exp ose
ĠA bu
sur vey
H ighest
Bubbled Event
Debug ger
search Terms
is Show
In trinsic
pan ic
671088 64
z or
Token Type
Pri me
Ti ps
feature Type
cm yk
Ø± Ø¨
create Component
D IG
10 49
Se mi
Key Codes
+" ["+
Ġ Stream
b Sort
z dGF
)) <<
bo b
d B
te in
Ġa f
P reference
no Clone
ak u
' ve
w hole
]=[ ]),
center Y
":()=> (
t Y
Z Sx
xp bm
]| [\
n Vl
v C
J ustify
æľį åĬ¡
à¹ ĩ
ĠH ar
Ġs yntax
Ġla ki
*/ \
m peg
Ġ labels
Ġ}} </
ĠH o
datetime picker
Ġad anya
- [
re ports
æ ĩ
(',' );
Ġbo leh
Arrow Left
åĲį ç§°
)} }}}
Touch Start
Scheduled Root
Up dater
Ġag ent
w br
ad ar
Or ang
äº ĭ
In k
p C
'} ];
dm Vy
Ïģ Î±
/ ";
al as
')} );
L mx
:{ }});
+" ";
ç ĩ
Rle H
end Index
Ġcrea ting
NvdXJjZXMv anMv
dlYn BhY
+" ]",
dayNames Short
source Span
j alan
scroll Bar
resolve s
ĠDis cord
Ġdata set
TR ACT
MIN US
+=" &
Y K
:" {{
redirect To
Ġmul tip
])( [
S ch
ĠA uto
qu ar
scen ario
(' ?
laW do
':' &
"}} ><
11 30
sa WI
US ED
stro k
Route Handler
Ċĉĉĉĉ ĉ
n Type
)}, [
{ \\
17 44
y ar
ad ditions
Quo tes
ë ²
] "],"
Ġ1 68
=" ',
Sk ill
\ `
}), !
Ġ Status
ĠM B
Per Block
store Name
X q
Radi al
å¹ ¿
timeout Id
p ap
Ġinitial ized
ICAgICAgICAgICAg ICB
âĶ ľ
C redit
"); (
!+[]+ !+
sub tree
ç Ģ
En tered
pl anes
à¯ ĩ
F alsy
ĠRe sult
Ġconfig ure
po i
gICAgICAg IG
set Translate
Ġco s
sub set
Component Name
H ard
200 80
: ("
sc ala
Del i
Ve hicle
Ġ1 53
By ID
VI SI
Yn V
update State
wi LCB
ĠM ain
h mac
mo tor
b J
is Set
Ġq t
encode URI
lo ye
st agger
UL AR
Tra de
Ġf ew
getTrans formed
11 35
ÐµÐº ÑĥÐ½Ð´
'], {
é ¹
get Location
N pm
React Element
la i
Re veal
Scroll Y
do or
ĠB t
service Worker
f rustum
Ġg reen
Group ing
fri ction
+ ';
B on
uf act
< !
slide Track
xhr Fields
At tempt
Ġst rip
con tin
AFc AVwBX
make Map
Stre ngth
y Offset
(/ \.
ĠFoo ter
std in
Expi res
ĠØ§ÙĦØ³ Ø§Ø¹Ø©
() ({
a B
DE SCRIPTION
åĲ ¦
DE G
L J
Iu L
n H
Ġ Ñħ
Ġ answer
ä½ ĵ
6 0000
me k
ĠC H
Ġj t
tc XG
)^ (
pres ence
}/> );
propag ate
), _(
12 13
qr code
E CD
callback Name
Ġc n
): ((
Re ach
d in
pop state
Sub menu
Ġ optional
open xml
15 80
" -
=" ");
De grees
clear Immediate
chart Area
browser ify
rer ror
ordin ator
Q N
SS S
html Parser
elem Data
)+ ","
Ġre cur
b O
ta m
g utters
T ax
Ġs pread
," ")},
X x
Text s
å° Ĩ
end Point
Bus y
Ġse lama
LO ADER
ĠCh rome
ex emp
In finite
A vg
pa tient
Rule Set
e ce
;} :
ç±» åŀĭ
ve t
") ),"
account Id
, `${
"} ]},"
Ġv en
AS CI
me ga
from String
parent Locale
cG x
Ġ Ð¾ÑĤ
ĠN et
equals Epsilon
pl ant
b N
j sh
Ex po
çº ¿
:/^ \
\\. |
H OLDER
nick name
Õ ½
__ /
ccl xu
Y zM
create Store
cache Key
å±± åĮº
prefix er
on Render
en capsulation
ba a
\" ./
+" ",
ĠFile Reader
on success
ra tions
ãģ £
f ficient
L Z
OPER ATION
c T
on Init
Ã´ ng
is Instance
10 30
ã Ħ
ti lt
get Days
ZW F
cG Vy
AT URE
gra vity
w O
dis card
;} },_
? )/
in spector
)) &&!
prop ortion
Parameter i
value Type
D ensity
ZW Q
Ġhtml For
x pc
Ġcl r
:" ","
Ġl iteral
expan sion
Ġ1 84
6 000
start Position
B AE
Rew ard
a U
é ¥
\\\\ \\\\
','ðŁ Ĵ
g U
__ ),
With Default
aw esome
Ġp lan
ĠG r
=( -
ab f
Ma ka
')) );
æ¨ ¡
Bound aries
IC R
Ġ preview
Page Size
)] (_
SD L
am er
Ð°Ð¿ ÑĢ
Ġ Update
w YX
run e
Ġexp licit
ĠV ER
issu er
àª ķ
Ġ1 37
fri ends
c and
openxml formats
ï¼ Ł
AAAAAAAAAAAAAAAAAAAAAAAAAAAAAAAAAAAAAAAAAAAAAAAAAAAAAAAAAAAAAAAA AAAAAAAAAAAAAAAAAAAAAAAAAAAAAAAAAAAAAAAAAAAAAAAAAAAAAAAAAAAAAAAA
S ORT
class com
L x
get Tip
ST ORY
PO LY
Ġ1 33
Ġi man
u lative
Ġcon t
luck ysheet
Ġ defineProperties
||{ })[
au ci
Mat rices
Ġca ke
Ġregex p
IC I
]. $
,[ ["
mouse X
getSnapshot BeforeUpdate
r hs
get Public
Card Body
çİ °
COMP I
eAA e
promis ify
get Tile
ĠCO MM
"!== '
Ġsched ule
Po le
to w
hydr ated
ur u
Ġrequest ed
30 59
be haviors
19 83
imp orted
yy text
rid den
28 22
sl id
Ġ iteratee
EX CE
¿ ","
gICAgICAgICAgICAgICAg ICB
LO OSE
Sto ck
10 40
Is Im
compare To
à´ µ
un read
Ġ1 70
n M
]} ]}
author ize
" ||!
(' >
Ġs ah
We ather
E lastic
tx n
Ii wic
al arm
],[ ],[
border Dash
On Load
Game pad
D rive
Touch End
F rozen
C ue
ve e
Str ong
G Fu
P q
è ļ
prop FullName
deserialize Binary
S or
ĠM n
ĠF t
v G
Ġa void
sub mission
bezier CurveTo
"] ({
. ')
set Styles
Ġnow rap
move Cursor
é ¤
attach Listener
b Q
Ġd r
Free ze
du otone
ĠBig Number
19 97
and er
") },"
Ġimplement ation
Ġ\ `
dev tool
w dX
(' ',
ĠF a
path Params
X HQ
con flict
})} }),
DIS MISS
ĠAd min
> "},
um id
Jl bn
Car tographic
z j
Ġpro du
Co er
ng Zone
Ġm alam
COLL AP
la v
AN TS
LO C
def late
r ss
To Data
site Id
first Row
U vs
Ġ1 42
sn iff
is Text
Val s
can play
{ \"
_ ?
jq Grid
Con tr
Ġ1 54
æĵį ä½ľ
List en
Es caped
Rh d
lin der
Ġb isa
Vertex Attrib
VARIABLE S
Ġregenerator Runtime
Context ual
éĶĻ è¯¯
p ul
ex cept
=_ ;
... </
Ori ent
Ġfail ure
("- ")[
Ġ calendar
18 55
tribu tions
)}} ).
Ġv an
Inte gration
C as
Ġt en
container Cache
post Dispatch
Ġc u
IC Ap
cr atch
o ge
ev s
current Frame
collaps ing
Fill Color
? #
Ġd ag
On Hover
From Time
B la
d ensity
++ ]<<
")]) ])]),
IB M
V en
fa f
lat er
è® ¡
FACT ORY
is sion
df c
zt BQUN
Loc ator
l hs
","./ _
Ġn af
===" "){
Ġdi maksud
scrollbar Y
PL AT
||{ },{
getChild Context
ster n
G auge
156 25
In structions
Ġ} ","
í Ļ
body Parser
selected Items
69 69
Lat n
rom an
Or Transport
AD I
WINDO W
Aria Label
ç į
10 16
is Authenticated
}} \
Ġs ig
Ġover lay
comb ined
","","",""," ","","","","
R Z
Ġwarn ings
redI Sub
N or
Å ³
Ġsub scription
MD B
Ġ Expected
pro posal
Ch oices
]] ],
Ø§ÙĦ Ø£
clean Up
spread sheet
(_ (
transform er
ĠH a
pro yect
m Len
") ),(
background Clip
batch edUpdates
Ġf ar
key gen
AB g
L ifecycle
parse Error
j or
n ut
Ġ ON
Work flow
"] )},
ĠW ord
O q
ar range
("; ")]),
ĠMed ia
p ug
GEN ER
interop Default
e G
keyCode s
Me an
[ ...
mar s
for d
man ip
T ube
]* )\
á» ĳ
pipes Count
z cG
å «
Ġr n
PRO FILE
w dGlvbn
at tribution
s Data
e ss
Bo b
199 64
Ġsearch Data
im al
Ġ' %
H ue
ĠA ccess
n C
le c
ng x
ĠIs lands
ren cies
post Finder
Ġmen c
SELE CTED
ç Ĵ
v aW
getClientRect s
clear Selection
) .__
Ġspe ll
AE S
on abort
on Upload
}; _
sal ary
> \\
BRE AK
Add ing
isN il
Ġ Er
áŀ Ħ
Ì ¸
Ġ EB
ca ster
;}} ;}
get Values
Un signed
"/ >\
"] *
radi i
pres ents
Îµ Î¯
Ġber do
Ġtop Level
ul is
ãĥ³ ãĥ
Format Token
ic m
Ġtranslate Y
is Directory
Å ĭ
ca ches
cb c
Â µ
parse Number
lazy Load
Te ster
ab da
, \\
]} )
ÐµÐ½Ð¸ Ðµ
n void
Nj cml
Ġmem buat
re cv
is p
(" `
Vertex Buffer
37 42
[\ ]{
playback Rate
Ġjangan lah
PRO CESS
Member Expression
CB C
yZX NvdXJjZXMvanMv
create Server
sol ve
) \"
"} ];
form Control
ran i
MS FT
Ġ ty
ar ithm
file List
err Msg
bg color
Arch ive
uFE FF
è Ŀ
Ċ ĠĠĠĠ
cancel Token
cd c
è ¸
re ceipt
cmF uc
al Light
00000000 0000
:"/ ",
0 66667
re ve
start Tag
RE Q
Sign In
") )}),
wa ul
H ARD
a I
AC TI
)) \
un ordered
19 45
assert True
xD QUF
. \\
table Data
sing ular
Ġber arti
&& ["
spe cs
Ġpa use
ver ts
äº ¬
:' '}
25 92
rootNode ID
12 29
User Agent
Depend ent
has popup
Ġta hun
vis ory
() )/
Expre ss
accept Data
Ġdefault Value
1111 1111
Ġre store
Ġredu cer
get s
es ti
vi p
04 39
| (?:
St udent
param Name
2525 2525
20 140
He re
ä» »
viron ments
n module
/ },
ë ¶
&& __
input Element
D alam
pie ces
In voice
18 58
Ra il
adjust ed
onDrag Start
ACUAJQAl ACUAJQAl
è ¹
En coded
i Row
ĠÎ ¼
Ke mudian
l iding
w ss
vari ance
val or
lk dG
root Dir
white list
Ġc p
ZW lna
pro tection
__ )
() ||"
ĠK B
Jv cm
Ctor String
Ġ modified
Wa hai
Pro vince
Of Week
Status Bar
})) [
Ti cket
U tf
Ġno thing
))} };
M DE
Ùħ Ø§
18 47
rotate Y
çī ©
base ToString
Ġblock s
J Z
× ĺ
from Points
Temp erature
Ty ping
:" ),
frame buffer
Ġproper ly
è®¾ ç½®
a is
Ġ resp
. "
on Drop
per c
he t
To Bytes
Ver ification
createDOM Factory
]) !=
'] ={
x Offset
query Command
id ence
ðĿĲ Ģ
set FullYear
inter n
ST AND
catch Loc
}- ${
ãģĹ ãģ¦
Ġextend Statics
":{" _
temp ted
Ġ12 9
zy me
f bjs
v K
on Message
Ġi on
]) =>{
Ġ' '}
ĠP ub
dater ange
çŃ ī
(/ \\
Ġta kut
no on
info s
æŀ Ĺ
â Ĩ
us uf
:' '},
kn ex
Ġget Default
slide show
ê ·
c ator
el le
20 30
z OiB
Ġ Ag
Ar n
Â ¼
âĢ ĺ
ĠV t
à¾ ³
sty lers
+' ">
ima g
W G
H G
e js
line Cap
s ketch
Ġw ent
Ġcon firm
ĠAnd roid
lih ara
f atal
User Info
bah agia
equal Func
Ġmo bile
åĿ Ģ
Col on
:" "}},
Comp arison
ĠG L
à¥ĩ à¤Ĥ
ngOn Destroy
{ $("#
f Q
n const
Open ing
Ġfil ters
ci ties
Ġcon trols
_ ]*
Ġ });
Ġs q
ĠOr ang
Saving Adjust
ch ips
çĽ ¸
Thi rd
ent o
get Frame
take Count
M TY
", $.
× ¦
MISS ING
a Y
à¶ ´
Ġda mage
spe ech
cbi Aq
weight kg
la tile
19 93
60 48
border s
LA Es
100 8
SC REEN
k bd
+" $
ane se
; )(
cap abilities
AI A
Import s
optim ized
; ");
on Exit
deploy ment
egg Groups
Û Ī
Ġpa ste
mit ted
] </
k as
exp ired
Ġ Options
link Id
)? _
sk i
next Text
daylight SavingAdjust
member ship
remove Style
mm ing
Hel met
s ms
h T
ç ŀ
Ġe qu
base Flatten
æŃ ¤
\ ')
__ ';
woo commerce
e asy
re placer
Ġc js
CO UN
Igno red
á ī
12 08
gr p
mi um
s lds
20 120
Ġl n
ZH Ro
J um
de structor
',' !
Active Element
re z
]||{ }).
V sb
b I
J ust
ss ib
should Update
Fold Mode
is X
," ".
Ġservice s
H X
il io
pr ism
o lation
") !==
q BAA
up t
30 57
game pad
å¸ ĥ
node js
Aggreg ate
ure r
ÑĤ Ð°
) "},"
$ :
U LL
Ġ Profile
eg ret
ma cam
buffered Request
strokeLine cap
Ġv p
ori an
ĠEng ine
mouse Y
implement s
CA TION
]/ ;
on close
ag ers
ud ents
UN IF
") >
Leap Year
w N
ff a
merge Options
Z Tt
cb m
-- )(
ri k
default Token
comp arison
start Point
star s
Step per
Ã Ĺ
Vu ZGVy
ACAAIAAg ACAAIAAg
G LE
(/ "/
trap BubbledEvent
Rhd GE
s A
clock wise
restri ctions
} )/
Variable Declaration
isIn line
val ign
max Depth
au thenticated
: -.
RESPON SE
internal Value
Ġanim ate
navigate To
Z Sh
ap s
Ġv isibility
sap Ui
C lu
ê Ŀ
Ø± Ø¯
æ Ĩ
Sub title
ĠAdd ress
'] ]]];
DI ALOG
Ã¼ n
start Row
min Zoom
Ġ' {
éĻ Ĳ
group Name
âĢ İ
modal s
ag i
bl ink
Re vision
Ġme l
ĠS te
Scroll X
Â ´
ba idu
Ġk ata
ĠT ask
à· ı
Ġ lock
() )+
getItem Index
DI O
co ef
BE GIN
st k
current X
CE LL
ĠF r
vak ata
data Tables
Ġs alah
AB c
Is Array
Ġn n
\" +
(( ()=>
draw Month
iDisplay Length
W as
Al bum
row Count
Ġun its
dm Fsd
éĢ ±
loye es
count down
se y
'] });
Desc endant
K Z
pre loader
ĠA udio
Ġ edges
Ġ× ŀ
isF uture
àª ²
)?" &":"?
artifact s
__ ){'
Ġ" %
(' '+
M J
at ang
Label Position
Ġmeneg askan
Re m
Ġ1 49
and ung
ber g
D ONE
m cm
Ġun e
ÉµÉµelement Start
% ':['
op code
J pc
ãģ Ľ
æĢ ģ
ÉµÉµelement End
Ġ2 20
R yb
rip tion
Comp ar
coordinate System
ath s
event Key
man a
St and
res Index
bind Texture
Ġpa gin
ä¾ ĭ
:' $
ĠS H
zigbee Model
ui tes
ss h
/ \.
x FC
Ns YXNz
Ġba sic
c ron
j am
Ġm apping
Ã ļ
19 90
B as
spec ifier
State ful
Ġa st
");} };
éģ ĵ
Batch ing
11 70
Ġus age
Ġp aling
Ð² ÐµÑĢ
Pin ged
Ġditer angkan
o BAA
get Form
getah uan
P ic
", };
enter Cb
Exp onential
target Position
sn ake
COMP RESS
L CA
Ġpre pare
pro files
D ie
day Periods
; ::
å ©
Ġhelper s
p A
deli m
Ġkey Code
Member ship
% ]:
Ġmening galkan
Ġ plain
Ġì ķ
Static Query
re ls
get Format
User Data
ÏĦ Îµ
à¾³ à¼ĭ
è ¬
Ġp b
mess aging
N OR
Ġ Project
([ _
per malink
arg o
i C
i ge
Delay ed
orch id
Inter pret
Î ł
height m
request Body
f req
Ġs pot
PRO PS
editor Ui
éĹ ¨
() <=
ĠY our
cce ed
ch en
se gs
Ġ Log
sc all
Di gest
HP TRIM
dr ill
,}, },{
sil ver
per Page
error Msg
bi la
register Component
Ġpop per
? \"
ĠØ µ
Ġyi eld
(" !
Ñģ Ñı
le ctor
:' {
Ġconst ra
has Move
g W
Ġs core
ĠP O
hide Modal
close Text
Calc ulator
sal mon
à¸² à¸Ļ
Ġ uni
as ar
Ġis n
pointer up
er os
Element Type
àª µ
togg ler
y Lj
í ĥ
SH ADOW
dot env
IHRo ZSB
Readable Stream
get App
lan ation
R FC
be f
spe ction
Set Value
Select All
Ġbar ang
GU ICtrl
con tinuous
we ave
Ġ Mock
j C
row Height
)|| _
NC Y
" </
si mul
NAM IC
oth ers
Cal cu
baseFor Own
× Ľ
get Prop
Ġc ater
ĠO Auth
input Props
Ġmember s
Ġd ur
bul ma
To Add
URL s
Ġmer ged
ë Ĳ
Ġ structure
h D
Ġ latest
onTouch Move
menu Items
ĠJ a
ri o
';} },
search Params
Ġsymbol s
on Move
con tr
bur ger
â ľ
inject ables
A TI
=_ [
id entify
ĠL B
pre ferences
da f
ip ment
Ġz alim
ene ss
is Map
show Modal
" #
315 36
Te e
Rp dm
ne utral
Ġra tio
Y UI
log Level
c Y
18 50
Instrument ation
lazyload RouteHandler
p ine
ĠMusli m
Ġjan ji
13 08
Ġsi mp
'../../ ../../
å° ±
26 67
Ġ share
=== $
U AAU
g lass
Ġ1 41
In vite
)); (
Ġco ords
Ġt w
Vu Z
ĠPass word
A head
Al g
Ho les
Pe ople
tent uan
à½ ²
on i
ð ĳ
is Running
Min or
background Position
Ġas set
Ġ Right
é ŀ
her oku
preferred Doc
ma ker
100 2
");} },
Ġhigh light
xp Yi
tr ay
INTERNAL S
Jl bC
show Label
Backdrop Click
e thereum
Value Change
Ġz i
Ñĥ ÑĢ
Â ı
get Axis
ĠØ§ÙĦ ÙĨ
gg g
{ --
anj ut
outer most
Cal lable
; !(
Wrapper s
Persist ence
){ ++
b Z
ĠP l
auto Height
B ut
10 17
Ġh n
Ġse mp
SA VE
f cf
å® Į
% "},
tex Parameteri
Ġn b
Ġde legate
Q AC
"){ _
class v
ITE MS
Ġsebaga inya
! ";
L MT
\\ ]
)? (?:
freeze Object
Ġe ar
random BattleMoves
à³ ģ
6767 6767
D bl
de posit
Ġconfig ured
Roo ts
0 101
Ġde pendencies
19 92
' !==
" "===
> ":
m K
NvbX BvbmVud
Ġp in
Ġ ")},
ĠÙħ ÙĨ
v I
B asis
a abb
ĠB er
Constraint Solver
0 161
LAR GE
U ME
g ht
âķĲâķĲ âķĲâķĲ
IN F
à¤ ħ
iso tope
stral ia
Ġb alasan
à¯ Ĩ
Ġ States
Ġnew Value
md f
un zip
original Size
(; (
') ],
å± ŀ
Scrollbar s
re member
è »
atom ic
redI Add
Pro tection
ĠT OP
Ġj ah
ä¸į èĥ½
H ist
i D
Ġinstance s
Ã¤ r
åŁİ åĮº
ca a
native On
b ell
for tawesome
document IsHTML
':' &#
ph on
Vo te
j ss
value To
Ġ1 38
MD C
":" ";
__ ('
Ġme minta
IHtcbiAg ICB
Ġn ama
removeAll Ranges
H ero
do Scroll
AS wB
P SA
To ur
na ma
Ġ Settings
Ġ1 31
Define Property
pro g
load Data
fullscreen change
RUN TIME
vertex Attrib
al go
++ :
Component Tree
current Parent
{ "+
PV wi
fdi hc
Ġc re
à« Ģ
b ull
Þ ¦
ti cally
min Filter
044 7
ĠReturn s
Ġ iter
ĠW in
at ural
Number Format
é Ĳ
oper ate
",[" $
ca f
Fail ures
re k
be b
And Remove
to x
on Completed
Ġmin imum
z level
P ENDING
ct a
Test Case
% ";
Ġin spect
BO OK
am un
child List
Ro unded
il ar
pur ge
ce a
Ġfi red
è Ł
:" "+
STOR AGE
rendered Component
\" /
h ol
app y
Ġy y
ĠF ilter
Ġfoo ter
14 28
Source Node
pan es
prod Invariant
i O
call Hook
bm V
âĢį ðŁ
é Ĭ
on o
getTip Element
" >=
Ã Ħ
Web Extension
ç °
product Id
x ds
)); )
pdf js
get Error
Ġcater waul
num s
mon ospace
bb b
Calc ulate
Ġ ["+
load Image
VzIjpb In
jo hn
ĠH B
Þ ª
={ })),
first DayOfWeek
bn M
Ø¨ Ùĩ
à· Ķ
ret u
to DataURL
uni cation
! ../../../../
(? :'+
ãģ ¤
ZGV m
bG lu
FBQ Tt
End Of
h ur
q Q
React Class
âĢĭâĢĭâĢĭâĢĭ âĢĭâĢĭâĢĭâĢĭ
Ġin cluded
))} }}
Ġch o
ar abic
tak wa
Ġdi te
gu y
ster day
File System
:"â ª
STE M
S ENT
e S
ĠH t
Ġ1 34
Or ange
Sto ps
in x
cc d
ç» ı
ĠI B
Ġë °
Ġmenya mp
Ques tions
} ]);
é ¸
data Controller
provided In
B ROW
In Range
:/\. (
time Picker
dp ZHRo
th an
base Unary
) :[],
[" !
Spe ech
Ġstar ting
Ho vered
confirm Button
IGZ yb
Bub bles
S oft
Ġb undle
iush rn
Ex cel
AS M
+' "><
G ood
rup ted
Y M
qu an
Ġget All
bG l
i ties
Ġ shift
",""," ",
d O
ĠW hen
f Sk
([ \\
PAR T
g zip
et urn
filter able
lic able
add Data
'; $
Ð¸ Ð´
":" "}
=' -
page Count
number Format
be haviour
Ġfin ally
s ensitive
ter angan
remove Node
Ċ ĠĠĠĠĠĠĠĠĠĠĠĠĠĠĠĠĠĠĠĠĠ
vol ution
Ġ unicode
new End
create El
base d
Ø³Ø¨ Øª
18 18
thread s
ð ¤
source Type
é ¬
fn Callback
The ta
Ġmenging kari
') },{
Ġ checkbox
wi ce
source Position
mouse Drag
19 80
Ġ"," ;\
æŃ ¦
') >=
rea ctive
base Assign
message Id
n op
cb d
K SA
ANIMA TION
Ġ Blockly
Roo ms
Normal ize
z Q
']]],[' _
Zp bm
Ġemit ter
Ġe slint
w H
a way
Ali ases
n N
Ġ Âł
default Config
(... ):
d ollar
}} ]},"
\\ ":
x ED
in n
&&! _
setFrom Matrix
tn cm
à½ Ķ
icon Class
User Name
(; !
mu lation
De cl
De velop
comm end
t uniform
Ġswi per
Ġk ur
h bm
]) <<
19 89
uD B
previous Value
en ai
tag ged
':[{ '
t ps
ĠV ari
ÃŃ t
drop ped
Ġcol span
EN CE
c us
Sub Menu
á ĭ
M CE
N ld
Ġs z
fo v
bG VtZW
æĶ ¶
: (_
tur quoise
C AT
200 70
PRO G
Ġm utation
ĠDe veloper
set Error
Ġn eeded
Ġno tification
_ ",
Sh ifted
=" ."+
* ^
set Page
Ġa ge
k q
render Children
add Layer
start up
]+ ")
coun ty
ata s
dash Wrapper
| '+
sh tml
Zl bn
U AL
} |[
)> (
();} }};
Ġre lation
Ġse cure
Namespace s
Z mx
g ql
(? :'
'| '
r ift
container Element
Ġ20 4
set Map
js dom
167772 15
ab d
ĠSc roll
}); $
] !=="
OR YX
Q AAAA
Ġi p
X O
toLocale LowerCase
:' "',
Asc ending
topLevel Types
" _
group Size
AS C
Pro du
ĠS ungguh
cm Vz
site Metadata
Forward Ref
Ġ30 4
outer Cache
reliable Margin
16 09
mig ration
exemp lar
V ML
data Filter
res a
ba e
ĠN ative
YX Vsd
Ġto day
Ġa jaran
subsc ribed
11 13
ĠĠĠĠĠĠĠĠĠĠĠĠĠĠĠĠĠĠĠĠĠĠĠĠĠĠĠĠĠĠĠĠ ĠĠĠĠĠ
() ]},
ÑĤ Ð¾
QU FBO
â ħ
le aving
ajax Transport
=$ $.
less Than
Ġ stringify
tr avel
en emy
ICAgICAgICAg IG
Av ailability
ca c
ac b
E Z
on Un
cy A
] ++,
aud ara
L AT
inter rupt
custom ize
D ra
Ġm ig
with Args
ani me
spa tial
"] }}],
Ġ expr
ĠO ne
Theme Provider
at ob
clo sable
?( \
Ġcon sectetur
w av
x T
entifi c
ĠIs a
on Done
Offset Y
Drag Drop
kZX guan
get Ranges
let s
57 28
key Event
dd b
} ]},{"
sa ma
ĠisArray Like
is Length
cor n
YWNr Z
view Port
spect rum
Ġid s
ÐµÐ» ÑĮ
local ized
Ġdisebut kan
}, },{
next Node
]} (
ĠV ec
gue st
ida de
Spe cies
[' _
fe ren
Local ization
cla mation
Jy ZW
u er
Ġ× ĳ
æ² ¡
Deploy ment
': \
Ġcallback s
ä¸Ĭ ä¼ł
ĠD O
?' ':'
A round
sprite s
b up
Ġt n
();} },_
áĢ ±
uri er
à¨ ¸
slash es
Ġ By
u ss
ho isted
IH Rv
å¾ ·
ãģĻ ãĤĭ
INTER VAL
Recon ciler
t ZW
Un authorized
DY NAMIC
çľ ģ
PLAT FORM
Ġ commands
ci an
Ã Ļ
gi ck
è ł
Ġ Team
") &&"
Ñı Ð±ÑĢ
stit ution
Type Annotation
> }</
Ġy ak
Ð¸ Ðº
_ ('
Active XObject
={ }},
snap Elements
Field Name
mark As
RE SOURCE
çŁ ¥
W alk
Min Width
Ġy n
_ {
å µ
set Disabled
dis tinct
06 34
'){ $
slidesPer View
exp ire
}\ ./,
=/ (\
POINT S
< .
') )}
Spr ing
j uni
})} ).
ĠMutation Observer
is Stream
)){ $
top Blur
éĹ ®
> "}
();} );});}
window Width
Exp licit
));} }}
Ġelement Type
Pre pare
home page
Line Color
super script
AC COUNT
slate gray
bpm n
P ager
/> ,
BAB YLON
is T
Function Name
w Y
Mo st
om y
, $(
to t
Me ter
total Pages
Ġin cludes
'> {
b ors
next All
Ġst re
Ġ Box
(' ').
à¸ Ĭ
sh utdown
clear fix
([^ :
Zml s
clear coat
Ġke k
Õ¸ ÖĤ
X M
Ġde bounce
ĠG t
||' ',
boxSizing Reliable
Ġst age
Add on
kata an
Ġlar angan
Ġch oose
)) >
ĠY a
à« ģ
A no
a J
arr Length
min ant
"} ))
crop per
get Group
set Width
12 49
Ġdefault Props
dW UtbG
PER I
3355 44
Ġ Properties
TEXT AREA
am t
ci ones
Lin ux
mo o
;} )
url Params
à° ¾
} .${
Lo st
Ġse benarnya
equ iv
áĥĲáĥ ł
åıĸ æ¶Ī
at ta
bu kti
Web site
No tation
args Index
Ġ1 59
main Window
=" @
| }
Ti po
Ġdiff use
To k
create APIRequest
isReserved Tag
current Step
Az ure
fx show
Â ¨
100 4
è¯ ģ
scrollbar X
à± ģ
15 04
sp ital
ĠP ada
||" [
calendar s
l st
Ġ Control
Ġ Transform
End points
áĥ £áĥ
WAA W
xds oft
Ġmeny atakan
long MonthsParse
()} )})
(( $
Ġ× ©
Ñĸ Ð½
feb ru
Pinged Time
be am
){$ (".
k Q
Tit les
00000000000000000000000000000000 0000000000000000
Table t
Ship Country
\" },\"
cn Vl
DOC TYPE
From Array
)})} )},
à½ ¦
M æľĪ
15 36
ĠJ t
get Mode
); /
Mg PSB
normal Map
Ad s
ip pets
Clo sure
"+" <
"}, ":
Fi ZW
A DE
update Position
||{ }
"/ ,
aX Zl
to StrictEqual
"] (-
,{ $
Ġ ")+
ĠY t
fe ather
Ġz n
original Page
19 60
Expan do
ab ylon
Ñĸ Ð»
Captured Update
Colle ctor
p ct
pointer move
Ġ" ];
boundaries Element
onRe jected
Ġf ri
gr and
ad j
,,,, ,,[
FORMAT S
M illis
17 33
external Id
18 59
ĠW rap
ĠE S
Build ing
slate blue
Shadow s
Ġexp orted
ìļ ©
Ġ40 4
ol f
26 57
En cryption
Ġun iform
gICAgICAgICAgICAgICAgICAgICAgICAg ICAgICAgICAgICAg
ĠS ta
handle Focus
Ġu uid
åĲ ĳ
urn al
fo am
Ġk on
poly mer
mon aco
response Fields
Radi i
K Åį
Ġc lon
Image Url
IHt cblx
Ii wi
Ġ placement
tr uth
iz za
Ġ Try
Ġmin s
Ġ Position
ìĸ ´
Se cure
Ġmo tor
sta ke
10 13
o C
ï¸ı ",
ĠÐ¸ Ð·
mC SB
id ian
," )
Person al
Time zone
100 9
":" "},
lected Light
Ġfe ed
ar anya
ĠD at
Known Symbol
spark line
Ã ĵ
empty Function
Len s
áº Ń
ent ang
Ġw hole
Ġkeba ikan
n export
; "><
__ ,{"
ti tem
});} });
Ġter min
ZV wi
mod ulo
Card Header
ug i
v q
á Ĭ
is Key
IC sg
object Tag
Oi Ax
ud G
Router Link
): &#
SY STEM
n R
12 88
dHR v
Z L
Ġ viewport
ol ia
ps y
update Matrix
Client s
File Input
drag enter
Ġ ERROR
is Full
an cial
transform Response
Ġr and
to long
ĠK n
,' ./
extend Statics
âĢ ı
orig Name
',}, '
=/ [^
A TED
ĠSyn thetic
h dC
Ġ sibling
(/ .*
( \\.
d T
Ġs py
z lib
has il
Offset X
grid Lines
çĽ ´
p H
12 3456789
commit s
åı ĺ
is De
to Index
con current
before Enter
shadow Color
deep StrictEqual
. "],
] ]||
:" ")+"
àª ¸
Ġnis caya
ä¸ İ
Ã¡ ng
Order By
? &
| \\.
10 26
Ġst ri
a L
wa h
"])( _
Ġtr ig
]* ?\
tim ated
E ff
comp ilation
Ġ33 6
ĠCan vas
me ters
ut m
Ġdisplay ed
S am
Â Ĳ
Ġs om
Zhci B
:/(^ |[^
s Table
At tack
Tool Tip
need le
d Y
Exp onent
Ġpen getahuan
onKey Up
Ġì Ĺ
) "},{
axis Label
j ud
=[ ^
Ġ Mobile
20 60
(( ()=>{
Order Date
Ġditi mpa
match Media
ret ur
Ġse cret
BD FDB
Ġdes tination
* )(
f db
ka XY
transition Classes
prefix ed
Ð¸Ð½ ÑĥÑĤ
a T
from Object
Call Expression
is Index
window Height
bro ken
à¸ ³
M CA
Ġse ed
Ġor i
11 38
Ġx a
SP AN
Ġbag a
b readcrumbs
we red
Ġbu ilder
NE ED
Ġcomponent Did
hint s
t L
è ĺ
Add endum
LCJmaWxlIjoi Li
Ġ adding
ear liest
post Data
bad ah
getTransformed By
M ARY
use LayoutEffect
Ġk nown
)} }}},
");} );});
success Callback
ĠQ t
IF Y
Initial izer
conver ted
â ŀ
ĠW t
ĠS ELE
Ġk ali
cd b
experi ence
3232323232323232 3232323232323232
to Theme
11 18
socket s
ãĢĤ </
draw Year
ST RI
arn ing
serialized Name
å¸Ĥ è¾
getUniform Location
)+' </
b iff
ĠD I
Implement ed
set Enabled
ðĿĲ ģ
por trait
. )","
Ġ&& \
m J
d U
Ġ2 16
ĠK t
re views
ip c
AE g
QUFDQTtBQUNBO ztBQUVBO
Ġreg ular
ce DY
], };
Ġbu ilt
Ġdalam nya
Shi pping
:"ðŁ ĩ
Ġcon f
{ };}
Ġ1 58
EN ABLE
Ship Name
tra il
Sp line
:"â ĩ
> `;
selected Month
primary Key
squid pony
qu ir
create Ref
ĠN B
é ī
Ïĥ Î·
Cookie Name
Ġ1 56
network s
à² ¨
H er
K L
on type
Ġ1 45
ĠY n
x Q
x R
Ġget OwnProperty
Con trollers
current Text
Ġì Ħ
eff ective
Ã ¯
SE PAR
Relative Time
L abe
end Row
å¤ į
LE TED
å¸Ĥè¾ ĸåĮº
f C
Q Sx
ãĤ Ń
r no
de precation
à¤ ¡
j I
"); $(".
ĠB ook
. `);
b right
11 12
con sequent
sp ort
Zh dWx
\":{\" _
] ))},
à¦ Ł
VzIjpbIn dlYnBhY
row Id
Pl anes
é ĭ
parse FromString
is Constant
Ġde structure
zd HJ
chain Id
ç» Ł
Ġob server
Õ¥ ÖĢ
Ġ OpenLayers
handle Blur
WEE KD
Are as
u ffff
Ġb ub
valid ity
=` <
umid ity
ĠS C
Execution Environment
ĠX t
Border s
åĪĹ è¡¨
LE dBQU
exemplar City
n arr
r sa
Tr ident
ed f
]] )}
) ]).
] }});
on Finish
le ans
Ġt un
Lj M
dif fs
experi ment
Me reka
Ġ% {
Nz cy
s lack
9999 9
f D
10 18
OR A
Ġat tack
r fc
tor ch
w I
") =="
Mat ter
high charts
Ġmus uh
get Canvas
remove Property
ĠAn imation
set Props
"] ||[]).
tr ight
Button Click
ran e
uuid v
labe led
toTheme Property
r df
up dating
Ġh ub
M gr
S END
elli p
n is
node Util
child Lanes
ĠR i
cer pt
f P
Rl ZmF
Inher it
:` /
am al
Ship Address
z N
d ba
âĥĿâĥĿ âĥĿâĥĿ
SH ARE
m Ver
To Show
set Index
target Start
Cap s
nK PX
Ġf lip
Lj A
AH g
Ġdirective s
data Show
Bo th
dayOf Week
ot lin
Call ing
æķ Ī
un yi
parent Component
Ġca used
get Extension
get Selector
Overlay s
value OrDefault
10 65
Ġc redentials
Ġs ap
new Name
Vu ZC
room Id
12 79
re play
K Sk
From Object
new Width
create Super
Ġre pos
Pointer s
AC L
active Menu
desc ending
RTC PeerConnection
[" _"+
ĠA p
column Width
data s
iz zle
PLACE HOLDER
get Template
," ../../
Next Tick
Ġ2 15
Ð ķ
Ġmenyamp aikan
Ġ1 66
sco res
post format
\. ]+
={} ))[
[ ]},
ad as
Ø§ Ø¦
expected Type
Ġ ":
Ġau thentication
Ġp enuh
shadow Blur
Mag ic
UNIF ORM
H Z
per m
prev Text
little Endian
erative Handle
ab it
AC C
ad f
ĠS ize
n E
AA PL
t ui
Me m
Ġke ing
un matched
ìł ķ
Ð» Ð°
12 16
Ġ1 43
current Y
Length s
** /
track ed
adap ters
Or th
,[ _(
}}} },"
):" ";
à¨ µ
c Q
Y OU
MMM d
g T
k le
In flu
s ung
RE MO
ĠM i
G host
!== ["
rs Combo
An ti
ZWxl Y
£ ¼
Property Value
Line Height
Ġm una
fl arum
un tain
Ġman ager
Ġper iod
") ||!
æ¯ Ķ
é ¯
ad c
Sa le
is Event
get Sub
Ġk r
H or
k YXRh
t q
Record ing
sist ent
new Element
28 77
Ã İ
20 40
f name
OAA O
? /,
o Item
get Editor
), },
search ing
WI LL
":[ ]},"
èĬ Ĥ
G Z
ë ¬
pre pared
æ· »
Ġ abort
OUT PUT
s ink
x FB
Ġ geo
n I
ĠD ialog
text Field
Lj U
Ġ' );}
v P
ì ¹
y cz
wa res
Ġret ry
mo dern
é Ī
gr al
ì Īĺ
bottom Right
ZX M
Eng lish
çĻ ½
Ġmakan an
a af
Ġru mah
); ){
inject Styles
Did Change
)) &&"
http Backend
Ġ1 61
/ $
s L
ĠA pi
An no
'){ _
Ġth ink
it an
vi r
friend ly
From Point
th in
Ġd Ã©
View Container
stat Sync
[' /
owner Id
Normal Completion
ç® Ĺ
x FFFF
33 99
n able
Ġber hala
A ware
LW J
th under
Contain ing
shim s
Interceptor Manager
LE G
ec d
get Status
re pl
ut ama
Ġwork ing
Gra vity
èĻ Ł
]);} };
ASCI I
DE LAY
Ġ tem
Ġis tri
W J
p wd
an tial
serialize Array
r trim
Ġb ra
LO OK
folder s
Ġting gi
A way
ut up
18 46
old End
file Input
||( _
];} },
Ġw ah
global This
ecma script
LE CTION
add FormatToken
ha el
touch Object
Expression Statement
=()=> (<
get ModifierState
06 23
);$ (".
o J
sd ag
relation ships
ìĬ µ
C AR
a os
en velope
N AO
set Th
Private Field
Ġim mediate
G ran
-- );
user ID
sy scall
GET SAMPLE
àª ¿
f und
m ir
10 38
pointer capture
Ġsw ap
phy sical
on Row
+ ','+
lang Code
Desc ribe
áŀ »
Cancel lation
Ġlist en
tile set
getUTC Day
cod ings
0 103
ĠV B
="# "+
pe ti
Ġon Submit
zoom Out
"] &&(
EN UM
ãĤ ¸
bm Ft
:{" ^
d de
k A
\\. \\
be au
current Pos
ĠTuhan mu
Wal ker
get Hash
ts config
/ ,"
KC kge
Lj Q
un ge
Hand sontable
x FE
ĠA R
ãĥ ¬
ãģ ł
Ð°ÑĤ Ð¸
Ġ 000
Ġmo unted
));} ).
Vertex Array
AAAA AQ
Column Index
Ġmemb unuh
"] ;});__
set Description
Ġw on
struct uring
, }},
con necting
ER C
erc ise
' ")]),
item Data
mount Component
P Z
i Pod
hi te
Out bound
} $/
Ġcap tion
check Int
Ġber upa
)> =(
Ġ ê°
selected Date
10 21
Action Creators
ITH UB
Ġ "===
Ġan Object
PRE SS
ĠL im
ĠI P
Ñĸ Ð²
bo y
ĠÎ º
E uler
') =='
Ġ very
IN CL
ASwB LAEs
Ġf ore
Ùħ Ø§Ø±
++]) &&!
ED T
ĠT idak
flo od
we ex
Gu arded
cis co
old Ch
ligh ting
Since Last
i ti
cy k
cmV m
x path
(), __
(/ ,
Click Event
æ® µ
Error Handler
pop ulation
{ }}
ĠA V
] ?"":"
j um
Queue d
REE T
ÐµÐ ¿
f F
last Row
get Html
Qu art
capture StackTrace
= ','
? _.
# .*
h Li
ĠG i
Ñı Ð½
U AGE
fil m
E AD
ĠW i
200 60
usa ha
Î £
make Test
Regex es
i Q
convert PositionTo
ë Ŀ
Ġgo ing
) [\
inter actions
N BQ
RE ST
asc ending
- =(
ĠD ATA
YYYY å¹´
Ġ-- >\
19 46
close Modal
Ġ Transaction
Ġper tama
Ġ Only
local Var
æĪĳ ä»¬
Ġ Collection
get Icon
game Object
ë ŀ
'] *
SELE CTION
__ =(
iterator NormalCompletion
Fore ign
natural Width
Ã į
å¾ Ĺ
+" ']
ima gick
Over write
Recogn izer
Scale d
ĠApp le
Ð¼ Ð°ÑĢ
re build
Map Cache
feature d
Multi Select
|$ )
æĮ ģ
n J
ste el
||" #
y OiB
Ġcon ditions
don ut
a K
Ġs r
Ġch at
30 92
}), "./
ĠB it
wa ves
moveTo Element
} )|
To Be
imp in
ori tes
v at
qu er
new Dep
base Texture
war ded
d vt
"," ").
g PSB
Ġde clare
Vs ZWN
d ol
n q
=" ?
On Focus
pay pal
Ġ1 51
S il
to JS
gl Get
Imp erativeHandle
ĠZ t
MODE L
un checked
Su cceeded
As String
P ot
Ġde sign
ĠC r
comp ound
Dropdown Item
search Text
Two Phase
Ġshow n
de crement
ãĥ Ĺ
à¸²à¸ ĩ
à¹ĳà¹ĳ à¹ĳà¹ĳ
ne y
")) )
Ġen ough
Quo ted
Ġmuna fik
a res
Ġac cepts
} ></
ĠA ku
S ab
asa an
PRI VATE
Ñĥ Ð±
+") ";
dat alist
EX IST
s Info
def a
update Offset
Gra mmar
X U
P ts
lu x
component Type
Ġde velopment
+" |"+
) ])},
g Z
active Trigger
})} )},
Ġ1 91
Get ters
as p
da kan
AB S
Pro blem
'] };
aug ht
17 00
àª Ĥ
() +(
Ġy o
Ġl ife
FF IX
:[{ "
reject With
set Tag
() -(
plot Options
or ters
li L
TER AL
Ġallow s
? +
Ġ virtual
Ġor g
parser Options
o Model
ĠG en
',' ../
Stre et
c J
get Relative
12 28
To Load
"]= !
MEM BER
__ ||(
Ġ Ù¾
quire r
() ]}
Inter actions
auto Hide
Ġz u
)) >-
yb rid
Ġje las
use Reducer
ha xor
atom s
forma tions
(". ")[
] ]+
12 25
c st
Math ML
BROW SER
Ġ logo
Ġ defer
Ġn en
tile Size
TI L
()} _
Ġber takwa
tx id
á» ĭ
Ġlog ged
ReactCurrent Dispatcher
ĠURL SearchParams
ambi ent
ðĿ ķ
a P
p Id
Ġh rs
Oc cur
set Height
byte Array
get Milliseconds
it ers
Text Box
Ġs lug
add New
Function Expression
||[ ])).
get Settings
File List
parent Data
dG h
a V
map DispatchToProps
ma sing
fe f
di h
parse rerror
ĠZ one
` :
á» ĥ
element Path
Ġaga inst
tab Bar
ð ł
bo ur
Audio Context
Con trast
}," ~
c div
Ġ pack
ig en
foo bar
12 30
get Own
è¿ Ķ
im gs
ĠY usuf
PL UG
Se verity
"> ','<
Submit ted
Ġ ctrl
Ġg n
Z To
get Styles
æĹ Ĺ
meridiem Hour
SCHE MA
G ot
j ed
ĠN as
Ġmeng ambil
ADD ING
12 11
Ġ{ ','
vs code
restri cted
" ?(
z q
ãĥ ŀ
b iz
ð ¡
ben ch
use UTC
pe x
newDep Ids
red dit
Ġqu is
X W
cur ly
Ġapa kah
Bra ckets
Ġbur uk
YW xz
weekdays Regex
L ook
(' `
DROP DOWN
Ġ legend
() )},_
bo ss
update Status
stroke Opacity
mx Client
custom Class
METHOD S
é ²
tick Format
H ORIZ
Root Node
bra ckets
mp u
radi ans
th s
') \
asse mb
get Transaction
mp lY
Ġtranslate X
ret ty
c P
before Show
ĠV o
ab et
Ġde tect
Ġke ma
la w
ENTI TY
12 19
File Size
bind Events
R ong
Trans formation
is Present
Ġ` +`
OP T
Se mantic
Weak Set
Ġb et
create New
Oi An
(' "+
next ScheduledRoot
ri al
'+' \
à° ¨
uD FFF
Log Level
bind To
f dd
o Control
il ters
Ġm n
Y J
é °
s Im
Į Ģ
ss or
Oper ators
l L
p late
. ")
-- \
CON N
, :
k P
add le
Ġth ose
é ±
en cryption
onDrag End
g res
ĠD own
ĠEng kau
"), __
Ġd n
JO IN
st udy
line Join
selected Year
Ġright s
Ġ resources
22 00
ce e
\" `
100 3
selected Value
TR ACK
GU ID
ĠP hone
IHtcbiAg ICAgICAg
12 32
Ġ: \
POP UP
D ia
Y Z
c andidates
{ /
Ġe vt
hc HB
release s
c S
Ġo a
target Node
right s
search able
To Use
v atar
Ġ Ð¾Ð±
Ġd s
qu anti
} ]};
pa inter
CON FI
Ġ comments
pre p
18 08
Key Code
x Z
Ġmod ify
12 60
ãĤ Ĥ
MMM Ed
ZWlna HQ
use Value
Qu an
]) *\
z ing
Ġat om
Built In
200 90
ffffffffffffffff ffffffffffffffff
Vz c
ud nVl
SS L
struct s
get ClassName
SU M
Ġ27 2
debounce d
:{ __
?% !
qu ux
user info
çĬ ¶
webkit TransitionEnd
ĠJ ika
y v
Work ers
ĠTe ch
BIN ARY
uk um
package Name
to Raw
Pagin ate
ĠAd am
use Selector
i tion
+' ?
FIX ED
CONNE CTION
O J
fil ing
LA IN
æ° ¸
Multip ly
12 18
áĢ Ģ
Fore ground
(?: ^
B un
y al
min ified
Ġ20 20
) ().
l G
Ġhigh er
Ġq a
Asc ii
_ `
10 74
,}, '
skip ped
narr ators
é §
au ssian
) :{};
Ġd uplicate
)|| [],
create js
cell Index
Scope s
on Search
"] ;}
Ġ# #
()} ));
FF E
cap an
AR I
Scene JS
. ');}}
un listen
å¿ ĥ
Ġhas Own
ãĥ ģ
åľ° åĿĢ
AKACgAoAKACgAo AKACgAoAKACgAo
\/ |
part ner
BB B
à½ ĺ
like s
cile Transaction
]| \\
Ġat t
re wind
Ġ à´
react Root
flat Options
setTh rew
Ġc mp
cloned RuleSet
Menu Button
ar ine
te er
co ordinator
col Idx
create Instance
ref lection
sco pables
Ġre co
WF w
exit Code
Trig gered
Ø¬Ùħ Ø¹
jan u
at las
Ġcomb ine
] '){
m X
Û Ĩ
]* )/
* ',
eng ah
en ate
Table Name
S esungguhnya
Ġ construct
Ðµ Ñĩ
Ġpl us
10 29
event Listeners
/ },{
n Bits
)}, !
wrapper s
SVG Element
get Core
="'+ (
Ġb s
mer o
ÑĢ ÐµÐ´
Ġmend usta
Ġ ÑģÑĤ
create Binding
áŀ ĳ
655 33
]) <=
block UI
GR AM
fi ve
26 84
') !==
Ġku at
){ }};
Empty String
æĿ ¡
c ulture
12 87
av y
c R
mand atory
Ï İ
Rect s
bb f
&& $(
Ġ" ],[
SY NC
strokeLine join
de cision
' ';
re mes
10 50
word press
+ ,
ĠE mber
áŀ ·
set In
.$ ,
Ġno tify
throw n
touch Events
tor rent
)]) ]),
Ġis Number
XC IuL
appro ve
getChild Count
ta iled
Ġz zzz
ĠJ B
mouse Event
Ð¸ Ð·
})} )),
Rle HQ
Host Instance
(' \\
12 27
we i
iv ative
Ġlo ve
sid enav
chunk Id
IDE NT
is Vue
});} );});
short MonthsParse
éĽ Ĩ
Ro boto
åŁ º
Ġeffect s
P J
ch ord
Ġk l
De bounce
Ġd ar
Hy per
C PU
]=[ ];}
Ġwah yu
data Adapter
St mt
064 1
:/^ [
b db
ĠA ng
class arm
Event Prefix
Ġse curity
ãĤ £
SH ADER
Tab Bar
dest Elements
hash tags
bucket s
]- (
ARE ST
response XML
áº ¥
web view
() &&"
PR INT
k ok
Ġ1 46
gra des
HJ l
t gl
rows View
gni tion
HAL F
s BAA
Ac c
$ .$
wrap Inner
pull s
4 194
T el
FB Ry
mod s
Render buffer
MD A
Ä Ĳ
", ()=>
Or Update
]=[ ],
Ġro bot
ĠCopy right
ig ation
delegate Target
à½ ´
s and
ĠP eng
Ġclick ed
ICAgICAgICAgICAgICAgICAgICAgICAgICAgICAgICAgICAgICAgICAgICAgICAg ICAgICAgICAgICAgICAgICAgICAgICAgICAgICAgICAgICAgICAgICAgICAgICAg
h cn
AU DIO
Î¹ Îº
. "}
å¥ ½
y j
on timeout
le ter
ne q
ob serv
ĠO P
g ist
set Class
]? \\
Inter cept
Sn ackbar
stri ped
Ġset ter
ĠK o
get Direction
uD DF
ãĤ µ
pret tier
g am
class PrivateField
Quad ratic
[...]
