{
  "version": "1.0",
  "truncation": null,
  "padding": null,
  "added_tokens": [
    {
      "id": 0,
      "content": "<|endoftext|>",
      "single_word": false,
      "lstrip": false,
      "rstrip": false,
      "normalized": true,
      "special": true
    }
  ],
  "normalizer": null,
  "pre_tokenizer": {
    "type": "ByteLevel",
    "add_prefix_space": false,
    "trim_offsets": true,
    "use_regex": true
  },
  "post_processor": {
    "type": "ByteLevel",
    "add_prefix_space": true,
    "trim_offsets": false,
    "use_regex": true
  },
  "decoder": {
    "type": "ByteLevel",
    "add_prefix_space": true,
    "trim_offsets": true,
    "use_regex": true
  },
  "model": {
    "type": "BPE",
    "dropout": null,
    "unk_token": null,
    "continuing_subword_prefix": "",
    "end_of_word_suffix": "",
    "fuse_unk": false,
    "byte_fallback": false,
    "ignore_merges": false,
    "vocab": {
      "<|endoftext|>": 0,
      "!": 1,
      "\"": 2,
      "#": 3,
      "$": 4,
      "%": 5,
      "&": 6,
      "'": 7,
      "(": 8,
      ")": 9,
      "*": 10,
      "+": 11,
      ",": 12,
      "-": 13,
      ".": 14,
      "/": 15,
      "0": 16,
      "1": 17,
      "2": 18,
      "3": 19,
      "4": 20,
      "5": 21,
      "6": 22,
      "7": 23,
      "8": 24,
      "9": 25,
      ":": 26,
      ";": 27,
      "<": 28,
      "=": 29,
      ">": 30,
      "?": 31,
      "@": 32,
      "A": 33,
      "B": 34,
      "C": 35,
      "D": 36,
      "E": 37,
      "F": 38,
      "G": 39,
      "H": 40,
      "I": 41,
      "J": 42,
      "K": 43,
      "L": 44,
      "M": 45,
      "N": 46,
      "O": 47,
      "P": 48,
      "Q": 49,
      "R": 50,
      "S": 51,
      "T": 52,
      "U": 53,
      "V": 54,
      "W": 55,
      "X": 56,
      "Y": 57,
      "Z": 58,
      "[": 59,
      "\\": 60,
      "]": 61,
      "^": 62,
      "_": 63,
      "`": 64,
      "a": 65,
      "b": 66,
      "c": 67,
      "d": 68,
      "e": 69,
      "f": 70,
      "g": 71,
      "h": 72,
      "i": 73,
      "j": 74,
      "k": 75,
      "l": 76,
      "m": 77,
      "n": 78,
      "o": 79,
      "p": 80,
      "q": 81,
      "r": 82,
      "s": 83,
      "t": 84,
      "u": 85,
      "v": 86,
      "w": 87,
      "x": 88,
      "y": 89,
      "z": 90,
      "{": 91,
      "|": 92,
      "}": 93,
      "~": 94,
      "¡": 95,
      "¢": 96,
      "£": 97,
      "¤": 98,
      "¥": 99,
      "¦": 100,
      "§": 101,
      "¨": 102,
      "©": 103,
      "ª": 104,
      "«": 105,
      "¬": 106,
      "®": 107,
      "¯": 108,
      "°": 109,
      "±": 110,
      "²": 111,
      "³": 112,
      "´": 113,
      "µ": 114,
      "¶": 115,
      "·": 116,
      "¸": 117,
      "¹": 118,
      "º": 119,
      "»": 120,
      "¼": 121,
      "½": 122,
      "¾": 123,
      "¿": 124,
      "À": 125,
      "Á": 126,
      "Â": 127,
      "Ã": 128,
      "Ä": 129,
      "Å": 130,
      "Æ": 131,
      "Ç": 132,
      "È": 133,
      "É": 134,
      "Ê": 135,
      "Ë": 136,
      "Ì": 137,
      "Í": 138,
      "Î": 139,
      "Ï": 140,
      "Ð": 141,
      "Ñ": 142,
      "Ò": 143,
      "Ó": 144,
      "Ô": 145,
      "Õ": 146,
      "Ö": 147,
      "×": 148,
      "Ø": 149,
      "Ù": 150,
      "Ú": 151,
      "Û": 152,
      "Ü": 153,
      "Ý": 154,
      "Þ": 155,
      "ß": 156,
      "à": 157,
      "á": 158,
      "â": 159,
      "ã": 160,
      "ä": 161,
      "å": 162,
      "æ": 163,
      "ç": 164,
      "è": 165,
      "é": 166,
      "ê": 167,
      "ë": 168,
      "ì": 169,
      "í": 170,
      "î": 171,
      "ï": 172,
      "ð": 173,
      "ñ": 174,
      "ò": 175,
      "ó": 176,
      "ô": 177,
      "õ": 178,
      "ö": 179,
      "÷": 180,
      "ø": 181,
      "ù": 182,
      "ú": 183,
      "û": 184,
      "ü": 185,
      "ý": 186,
      "þ": 187,
      "ÿ": 188,
      "Ā": 189,
      "ā": 190,
      "Ă": 191,
      "ă": 192,
      "Ą": 193,
      "ą": 194,
      "Ć": 195,
      "ć": 196,
      "Ĉ": 197,
      "ĉ": 198,
      "Ċ": 199,
      "ċ": 200,
      "Č": 201,
      "č": 202,
      "Ď": 203,
      "ď": 204,
      "Đ": 205,
      "đ": 206,
      "Ē": 207,
      "ē": 208,
      "Ĕ": 209,
      "ĕ": 210,
      "Ė": 211,
      "ė": 212,
      "Ę": 213,
      "ę": 214,
      "Ě": 215,
      "ě": 216,
      "Ĝ": 217,
      "ĝ": 218,
      "Ğ": 219,
      "ğ": 220,
      "Ġ": 221,
      "ġ": 222,
      "Ģ": 223,
      "ģ": 224,
      "Ĥ": 225,
      "ĥ": 226,
      "Ħ": 227,
      "ħ": 228,
      "Ĩ": 229,
      "ĩ": 230,
      "Ī": 231,
      "ī": 232,
      "Ĭ": 233,
      "ĭ": 234,
      "Į": 235,
      "į": 236,
      "İ": 237,
      "ı": 238,
      "Ĳ": 239,
      "ĳ": 240,
      "Ĵ": 241,
      "ĵ": 242,
      "Ķ": 243,
      "ķ": 244,
      "ĸ": 245,
      "Ĺ": 246,
      "ĺ": 247,
      "Ļ": 248,
      "ļ": 249,
      "Ľ": 250,
      "ľ": 251,
      "Ŀ": 252,
      "ŀ": 253,
      "Ł": 254,
      "ł": 255,
      "Ń": 256,
      "on": 257,
      "re": 258,
      "ti": 259,
      "er": 260,
      "th": 261,
      "is": 262,
      "le": 263,
      "in": 264,
      "ar": 265,
      "tion": 266,
      "en": 267,
      "){": 268,
      "at": 269,
      "or": 270,
      "un": 271,
      ");": 272,
      "se": 273,
      "ĠĠ": 274,
      "this": 275,
      "st": 276,
      "al": 277,
      "ction": 278,
      "de": 279,
      "\",": 280,
      "ur": 281,
      "ro": 282,
      "an": 283,
      "unction": 284,
      "function": 285,
      "==": 286,
      "ent": 287,
      "),": 288,
      "ge": 289,
      "me": 290,
      "ret": 291,
      "var": 292,
      "urn": 293,
      "return": 294,
      "te": 295,
      "pe": 296,
      ":\"": 297,
      "},": 298,
      "if": 299,
      "ct": 300,
      "la": 301,
      "ul": 302,
      "ty": 303,
      "ate": 304,
      "to": 305,
      "ch": 306,
      "ss": 307,
      "ue": 308,
      "con": 309,
      "tr": 310,
      "&&": 311,
      "ce": 312,
      "id": 313,
      "(\"": 314,
      "co": 315,
      "\",\"": 316,
      "ad": 317,
      "ĠĠĠĠ": 318,
      "lo": 319,
      "],": 320,
      "',": 321,
      "ck": 322,
      "ame": 323,
      "ex": 324,
      "el": 325,
      "type": 326,
      "get": 327,
      "ment": 328,
      "ig": 329,
      "it": 330,
      "ing": 331,
      "._": 332,
      ").": 333,
      "ap": 334,
      "pro": 335,
      "mp": 336,
      ");}": 337,
      "ut": 338,
      "00": 339,
      ")}": 340,
      "pa": 341,
      "mo": 342,
      "ng": 343,
      "\":": 344,
      "||": 345,
      "il": 346,
      "ve": 347,
      "val": 348,
      "ab": 349,
      "ull": 350,
      "('": 351,
      "(){": 352,
      "op": 353,
      "===": 354,
      "ew": 355,
      "sh": 356,
      "for": 357,
      "ed": 358,
      "set": 359,
      "ata": 360,
      "\":\"": 361,
      "ol": 362,
      "null": 363,
      "ect": 364,
      ";}": 365,
      "li": 366,
      "ra": 367,
      ",\"": 368,
      "ter": 369,
      "do": 370,
      "si": 371,
      "ort": 372,
      "ht": 373,
      "ca": 374,
      "bj": 375,
      "ma": 376,
      "ren": 377,
      "In": 378,
      "ode": 379,
      "di": 380,
      "def": 381,
      "lass": 382,
      "=\"": 383,
      "ri": 384,
      "ke": 385,
      "Ġn": 386,
      "ta": 387,
      "ngth": 388,
      "length": 389,
      "ult": 390,
      "__": 391,
      "qu": 392,
      "()": 393,
      "value": 394,
      "Re": 395,
      "of": 396,
      ":'": 397,
      "per": 398,
      "um": 399,
      "as": 400,
      "bject": 401,
      "able": 402,
      "const": 403,
      "data": 404,
      "end": 405,
      "res": 406,
      "Ġc": 407,
      "name": 408,
      "us": 409,
      "up": 410,
      "lement": 411,
      "Ġ0": 412,
      "Pro": 413,
      "12": 414,
      "fi": 415,
      "xt": 416,
      ":{": 417,
      "10": 418,
      "all": 419,
      "Ġe": 420,
      "Ġb": 421,
      "es": 422,
      "tions": 423,
      "Name": 424,
      "ight": 425,
      "AA": 426,
      "vent": 427,
      "],[": 428,
      "={": 429,
      "Ġa": 430,
      "))": 431,
      "ver": 432,
      "ist": 433,
      "ext": 434,
      "ow": 435,
      "exp": 436,
      "dex": 437,
      "proto": 438,
      "ĠĠĠĠĠĠĠĠ": 439,
      "he": 440,
      "&&(": 441,
      "ine": 442,
      "text": 443,
      "><": 444,
      "ault": 445,
      "Ġt": 446,
      "Con": 447,
      "bo": 448,
      "new": 449,
      "key": 450,
      "','": 451,
      "Ġ1": 452,
      "du": 453,
      "Ġs": 454,
      "rent": 455,
      "po": 456,
      "IC": 457,
      "!==": 458,
      "]=": 459,
      "ument": 460,
      "ror": 461,
      "ba": 462,
      "and": 463,
      "Ag": 464,
      "();": 465,
      "ff": 466,
      "prototype": 467,
      "Ġf": 468,
      "}}": 469,
      "Object": 470,
      "ire": 471,
      "add": 472,
      "vi": 473,
      "sp": 474,
      "sc": 475,
      "arg": 476,
      "];": 477,
      "col": 478,
      "art": 479,
      "else": 480,
      ":[": 481,
      "str": 482,
      "der": 483,
      "ray": 484,
      "20": 485,
      "Se": 486,
      "oo": 487,
      "Ġin": 488,
      "am": 489,
      "true": 490,
      "use": 491,
      "\")": 492,
      "16": 493,
      "age": 494,
      "},{": 495,
      "Ty": 496,
      "./": 497,
      "St": 498,
      "default": 499,
      "par": 500,
      "Type": 501,
      "pla": 502,
      "Co": 503,
      "reate": 504,
      "row": 505,
      "\"),": 506,
      "({": 507,
      "export": 508,
      "ild": 509,
      "Ar": 510,
      "Ġd": 511,
      "js": 512,
      "dule": 513,
      "To": 514,
      "ub": 515,
      "\\\"": 516,
      "quire": 517,
      "ps": 518,
      "(!": 519,
      "11": 520,
      "ll": 521,
      "ser": 522,
      "].": 523,
      "ze": 524,
      "out": 525,
      "25": 526,
      "bu": 527,
      "++": 528,
      "atch": 529,
      "ang": 530,
      "Ch": 531,
      "pre": 532,
      "ICAg": 533,
      "we": 534,
      "Element": 535,
      "options": 536,
      "idth": 537,
      "ĠĠĠ": 538,
      "=>": 539,
      "app": 540,
      "tem": 541,
      "Ġm": 542,
      "Ġi": 543,
      "node": 544,
      "De": 545,
      "ot": 546,
      "ted": 547,
      "require": 548,
      "rom": 549,
      "ath": 550,
      "ange": 551,
      "create": 552,
      "alse": 553,
      "13": 554,
      "put": 555,
      "Ġthis": 556,
      "rea": 557,
      "24": 558,
      "};": 559,
      "div": 560,
      "ind": 561,
      "(),": 562,
      "typeof": 563,
      "call": 564,
      "case": 565,
      "fo": 566,
      "date": 567,
      "15": 568,
      "ation": 569,
      "vo": 570,
      "comp": 571,
      "Val": 572,
      "14": 573,
      "Ġr": 574,
      "one": 575,
      "ber": 576,
      "form": 577,
      "tive": 578,
      "index": 579,
      "18": 580,
      "[\"": 581,
      "Id": 582,
      "int": 583,
      "\");": 584,
      "ly": 585,
      "exports": 586,
      "ctor": 587,
      "):": 588,
      "dow": 589,
      "ance": 590,
      "so": 591,
      "\";": 592,
      "32": 593,
      "move": 594,
      "ush": 595,
      "');": 596,
      "doc": 597,
      "Ti": 598,
      "module": 599,
      "\"+": 600,
      "Ġh": 601,
      "Array": 602,
      "Class": 603,
      "sty": 604,
      "19": 605,
      "class": 606,
      "che": 607,
      "style": 608,
      "false": 609,
      "ICAgICAg": 610,
      "sele": 611,
      "17": 612,
      "tri": 613,
      ")},": 614,
      "='": 615,
      "cur": 616,
      "</": 617,
      "dis": 618,
      "ac": 619,
      "et": 620,
      "push": 621,
      "Ġw": 622,
      "onent": 623,
      "ader": 624,
      "ml": 625,
      "Mo": 626,
      "33": 627,
      "Ġo": 628,
      "the": 629,
      "ay": 630,
      "line": 631,
      "void": 632,
      "Str": 633,
      "ft": 634,
      "Er": 635,
      "\\\\": 636,
      "sition": 637,
      "lu": 638,
      "Data": 639,
      "und": 640,
      "((": 641,
      "=[": 642,
      "=!": 643,
      "back": 644,
      "Event": 645,
      "At": 646,
      "fig": 647,
      ".$": 648,
      ":!": 649,
      "64": 650,
      "hi": 651,
      "ref": 652,
      "+\"": 653,
      "arget": 654,
      "string": 655,
      "List": 656,
      "Value": 657,
      "tent": 658,
      "perty": 659,
      "Error": 660,
      "que": 661,
      "--": 662,
      "ans": 663,
      "let": 664,
      "99": 665,
      "unt": 666,
      "Node": 667,
      "30": 668,
      "';": 669,
      "state": 670,
      "Po": 671,
      ",-": 672,
      "ined": 673,
      "ery": 674,
      "ci": 675,
      "String": 676,
      "web": 677,
      "=>{": 678,
      "Ġclass": 679,
      "parent": 680,
      "ting": 681,
      "roll": 682,
      "urce": 683,
      "imp": 684,
      "\",{": 685,
      "27": 686,
      "ag": 687,
      "Ġp": 688,
      "error": 689,
      "ase": 690,
      "Time": 691,
      "Math": 692,
      "event": 693,
      "ator": 694,
      "\"},": 695,
      ",'": 696,
      "umber": 697,
      "ign": 698,
      "28": 699,
      "start": 700,
      "remove": 701,
      "//": 702,
      "element": 703,
      "rip": 704,
      ")){": 705,
      "Ġ_": 706,
      "im": 707,
      "TE": 708,
      "defined": 709,
      "29": 710,
      "argument": 711,
      "=(": 712,
      "35": 713,
      "Col": 714,
      "be": 715,
      "result": 716,
      "26": 717,
      "min": 718,
      ")),": 719,
      "ure": 720,
      "OR": 721,
      "ton": 722,
      "width": 723,
      "En": 724,
      "Fi": 725,
      "});": 726,
      "ener": 727,
      "34": 728,
      "orm": 729,
      "Ġ{": 730,
      "ON": 731,
      "Ex": 732,
      "path": 733,
      "utton": 734,
      "tain": 735,
      "document": 736,
      "com": 737,
      "37": 738,
      "Lo": 739,
      "ord": 740,
      "36": 741,
      "child": 742,
      "rap": 743,
      "play": 744,
      "));": 745,
      "top": 746,
      "import": 747,
      "ith": 748,
      "Of": 749,
      "tic": 750,
      "ssage": 751,
      "></": 752,
      "reak": 753,
      "arguments": 754,
      "dy": 755,
      "\"]": 756,
      "attr": 757,
      "Ġthe": 758,
      "pack": 759,
      "LE": 760,
      "ken": 761,
      "\":{": 762,
      "mb": 763,
      "item": 764,
      "lock": 765,
      "ts": 766,
      "px": 767,
      "Ke": 768,
      "off": 769,
      "has": 770,
      "!=": 771,
      "Property": 772,
      "test": 773,
      "44": 774,
      "color": 775,
      "38": 776,
      "Index": 777,
      "load": 778,
      "indow": 779,
      "\").": 780,
      "He": 781,
      "object": 782,
      "Ġy": 783,
      "span": 784,
      "place": 785,
      "State": 786,
      "height": 787,
      "ach": 788,
      "undefined": 789,
      "+'": 790,
      "code": 791,
      "lab": 792,
      "Ġto": 793,
      "break": 794,
      ")?": 795,
      "Comp": 796,
      "cli": 797,
      "Op": 798,
      "50": 799,
      "gro": 800,
      "cess": 801,
      "Ġnew": 802,
      "ize": 803,
      "log": 804,
      "time": 805,
      "tribu": 806,
      "Text": 807,
      "config": 808,
      "../": 809,
      "act": 810,
      "Ġst": 811,
      "\"}": 812,
      "40": 813,
      "left": 814,
      ">>": 815,
      ",{": 816,
      "no": 817,
      "eld": 818,
      "Key": 819,
      "66": 820,
      "map": 821,
      "48": 822,
      "max": 823,
      "cted": 824,
      "fil": 825,
      "Me": 826,
      "AC": 827,
      "ers": 828,
      "target": 829,
      "au": 830,
      "().": 831,
      "tribute": 832,
      "ima": 833,
      "next": 834,
      "ion": 835,
      "22": 836,
      "html": 837,
      "ls": 838,
      "Ġif": 839,
      "Date": 840,
      "fa": 841,
      "39": 842,
      "try": 843,
      "\"===": 844,
      "ass": 845,
      "props": 846,
      "rc": 847,
      "current": 848,
      "input": 849,
      ")(": 850,
      "parse": 851,
      "av": 852,
      "ui": 853,
      "from": 854,
      "file": 855,
      "tle": 856,
      "red": 857,
      "stance": 858,
      "Ġis": 859,
      "sta": 860,
      "throw": 861,
      "lay": 862,
      "RE": 863,
      "Ġ(": 864,
      "list": 865,
      "late": 866,
      "size": 867,
      "55": 868,
      "ress": 869,
      "sub": 870,
      "ner": 871,
      "od": 872,
      "Sele": 873,
      "yn": 874,
      "IN": 875,
      "webpack": 876,
      "0000": 877,
      "['": 878,
      "Ġ-": 879,
      "ink": 880,
      "ĠA": 881,
      "DE": 882,
      "').": 883,
      "user": 884,
      "();}": 885,
      "quest": 886,
      "view": 887,
      "content": 888,
      "ard": 889,
      "sion": 890,
      "url": 891,
      "update": 892,
      "iz": 893,
      "trans": 894,
      "Ùİ": 895,
      "ho": 896,
      "By": 897,
      "cale": 898,
      "sel": 899,
      "lete": 900,
      "Qu": 901,
      "cation": 902,
      "ont": 903,
      "Ġ.": 904,
      "title": 905,
      "])": 906,
      "ne": 907,
      "tainer": 908,
      "67": 909,
      "inter": 910,
      "ha": 911,
      "low": 912,
      "label": 913,
      "')": 914,
      "45": 915,
      "Ġre": 916,
      "ic": 917,
      "offset": 918,
      "+=": 919,
      "60": 920,
      "order": 921,
      "||(": 922,
      "\":{\"": 923,
      "Ġme": 924,
      "Def": 925,
      "ĠS": 926,
      "component": 927,
      "wa": 928,
      "QU": 929,
      "}),": 930,
      "ru": 931,
      "\"],": 932,
      "eng": 933,
      "mit": 934,
      "ib": 935,
      "umn": 936,
      "80": 937,
      "ert": 938,
      "valid": 939,
      "ute": 940,
      "dd": 941,
      "${": 942,
      "Item": 943,
      "Child": 944,
      "\"==": 945,
      "'+": 946,
      "expe": 947,
      "mode": 948,
      "]),": 949,
      "Width": 950,
      "47": 951,
      "pi": 952,
      "window": 953,
      "sli": 954,
      "Ġ2": 955,
      ";\\": 956,
      "Ġg": 957,
      "Bo": 958,
      "59": 959,
      "Vi": 960,
      "context": 961,
      "rict": 962,
      "css": 963,
      "scrip": 964,
      "Le": 965,
      "ger": 966,
      "(_": 967,
      "self": 968,
      "..": 969,
      "&&!": 970,
      "57": 971,
      "Par": 972,
      "hand": 973,
      "},{\"": 974,
      "source": 975,
      "om": 976,
      "ĠĠĠĠĠĠĠ": 977,
      "gin": 978,
      "ams": 979,
      "abled": 980,
      "An": 981,
      "68": 982,
      "su": 983,
      "ka": 984,
      "check": 985,
      "ID": 986,
      "ark": 987,
      "qual": 988,
      "Up": 989,
      "':'": 990,
      "body": 991,
      "':": 992,
      "ST": 993,
      "mis": 994,
      "show": 995,
      "AAAA": 996,
      "tyle": 997,
      "Un": 998,
      "fe": 999,
      "thod": 1000,
      "ymb": 1001,
      "ymbol": 1002,
      "ust": 1003,
      "49": 1004,
      "ax": 1005,
      "ĠĠĠĠĠĠĠĠĠĠĠĠĠĠĠĠ": 1006,
      "define": 1007,
      "replace": 1008,
      "Ġfunction": 1009,
      "100": 1010,
      "last": 1011,
      "tag": 1012,
      "Tr": 1013,
      "Style": 1014,
      "bar": 1015,
      "read": 1016,
      "cal": 1017,
      "htt": 1018,
      "ĠM": 1019,
      "ER": 1020,
      ")}}": 1021,
      "mon": 1022,
      "array": 1023,
      "da": 1024,
      "Ġ=": 1025,
      "base": 1026,
      "ync": 1027,
      "createElement": 1028,
      "Ġl": 1029,
      "Ø§": 1030,
      "([": 1031,
      "clu": 1032,
      "fir": 1033,
      "render": 1034,
      "Code": 1035,
      "69": 1036,
      "kan": 1037,
      "Query": 1038,
      ");});": 1039,
      "},\"": 1040,
      "58": 1041,
      "fn": 1042,
      "find": 1043,
      "atus": 1044,
      "77": 1045,
      "ffer": 1046,
      "message": 1047,
      "Set": 1048,
      ".__": 1049,
      "scroll": 1050,
      "-.": 1051,
      "Bu": 1052,
      "lem": 1053,
      "match": 1054,
      "token": 1055,
      "Color": 1056,
      "ari": 1057,
      "rag": 1058,
      "Ġfrom": 1059,
      "button": 1060,
      "Attribute": 1061,
      "=_": 1062,
      "EN": 1063,
      "==='": 1064,
      ");}}": 1065,
      "jo": 1066,
      "]);": 1067,
      "onse": 1068,
      "Ġstrict": 1069,
      "apply": 1070,
      "Ġde": 1071,
      "port": 1072,
      "ded": 1073,
      "arch": 1074,
      "box": 1075,
      "Ġ<": 1076,
      "Ġ{\\": 1077,
      "oc": 1078,
      "ary": 1079,
      "page": 1080,
      ")&&": 1081,
      "position": 1082,
      "sw": 1083,
      "++){": 1084,
      "88": 1085,
      "Sc": 1086,
      "query": 1087,
      "()}": 1088,
      ",_": 1089,
      "obj": 1090,
      "65": 1091,
      "Component": 1092,
      "Form": 1093,
      "23": 1094,
      "ĠC": 1095,
      "ant": 1096,
      "lose": 1097,
      "=$": 1098,
      "Ġbe": 1099,
      "Ġse": 1100,
      "cope": 1101,
      "Path": 1102,
      "children": 1103,
      "lit": 1104,
      "enu": 1105,
      "21": 1106,
      "select": 1107,
      "View": 1108,
      "Change": 1109,
      "down": 1110,
      "temp": 1111,
      "ĠĠĠĠĠ": 1112,
      "UR": 1113,
      ")||": 1114,
      "vice": 1115,
      "led": 1116,
      "expect": 1117,
      "ler": 1118,
      "Mode": 1119,
      "($": 1120,
      "ms": 1121,
      "cb": 1122,
      "adi": 1123,
      "action": 1124,
      "src": 1125,
      "right": 1126,
      "ya": 1127,
      "04": 1128,
      "les": 1129,
      "Height": 1130,
      "active": 1131,
      ">=": 1132,
      "))}": 1133,
      "Size": 1134,
      "uti": 1135,
      "bind": 1136,
      "core": 1137,
      "icon": 1138,
      "Te": 1139,
      "resp": 1140,
      "display": 1141,
      "],\"": 1142,
      "sole": 1143,
      "ave": 1144,
      "lob": 1145,
      "extend": 1146,
      "Map": 1147,
      "Cli": 1148,
      "sk": 1149,
      "Each": 1150,
      "Listener": 1151,
      "ity": 1152,
      "modules": 1153,
      "Number": 1154,
      "ack": 1155,
      ");};": 1156,
      "Be": 1157,
      "TI": 1158,
      "?\"": 1159,
      "append": 1160,
      "err": 1161,
      "AR": 1162,
      "ec": 1163,
      "ir": 1164,
      "fix": 1165,
      "Or": 1166,
      "number": 1167,
      "Ġ'": 1168,
      "Ġof": 1169,
      "}\\": 1170,
      "wn": 1171,
      "console": 1172,
      "className": 1173,
      "dom": 1174,
      "tial": 1175,
      "mer": 1176,
      "Sh": 1177,
      "Module": 1178,
      "09": 1179,
      "enter": 1180,
      "Ġ\"+": 1181,
      "tip": 1182,
      "ICAgICAgICAgICAg": 1183,
      "ource": 1184,
      "filter": 1185,
      "][": 1186,
      "à¸": 1187,
      "ject": 1188,
      "count": 1189,
      "],['": 1190,
      "We": 1191,
      "87": 1192,
      "assert": 1193,
      "200": 1194,
      "iter": 1195,
      "ial": 1196,
      "fore": 1197,
      "cl": 1198,
      "column": 1199,
      "MP": 1200,
      "over": 1201,
      "31": 1202,
      "field": 1203,
      "rame": 1204,
      "ste": 1205,
      "Default": 1206,
      "group": 1207,
      "://": 1208,
      "whi": 1209,
      "cle": 1210,
      "gg": 1211,
      "tings": 1212,
      "char": 1213,
      "rop": 1214,
      "On": 1215,
      "(/": 1216,
      ")=>{": 1217,
      "stro": 1218,
      "tern": 1219,
      "(?": 1220,
      "Off": 1221,
      "raw": 1222,
      "change": 1223,
      ";};": 1224,
      "89": 1225,
      "ory": 1226,
      "point": 1227,
      "pace": 1228,
      "click": 1229,
      "()=>{": 1230,
      "uld": 1231,
      "split": 1232,
      "static": 1233,
      "tom": 1234,
      "],[-": 1235,
      "lib": 1236,
      "prop": 1237,
      "ML": 1238,
      "catch": 1239,
      "||\"": 1240,
      "args": 1241,
      "argin": 1242,
      ";}}": 1243,
      "Ġk": 1244,
      "old": 1245,
      "elem": 1246,
      "image": 1247,
      "FB": 1248,
      "Content": 1249,
      "ster": 1250,
      "56": 1251,
      "header": 1252,
      "ED": 1253,
      "\">": 1254,
      "Ac": 1255,
      ",[": 1256,
      "slice": 1257,
      "Tag": 1258,
      "ree": 1259,
      "resol": 1260,
      "forEach": 1261,
      "AL": 1262,
      "JS": 1263,
      "06": 1264,
      "first": 1265,
      ",!": 1266,
      "callback": 1267,
      "api": 1268,
      "params": 1269,
      "AB": 1270,
      "format": 1271,
      "ĠRe": 1272,
      "ip": 1273,
      "len": 1274,
      "attrs": 1275,
      "=\\\"": 1276,
      "?(": 1277,
      "day": 1278,
      "79": 1279,
      "ĠP": 1280,
      "Ġ4": 1281,
      "then": 1282,
      "Ġdi": 1283,
      "ï¿": 1284,
      "MO": 1285,
      "mise": 1286,
      "word": 1287,
      "ĠT": 1288,
      "container": 1289,
      "rid": 1290,
      "indexOf": 1291,
      "FF": 1292,
      "++)": 1293,
      "EB": 1294,
      "\":[": 1295,
      "wait": 1296,
      "ï¿½": 1297,
      "rl": 1298,
      "Block": 1299,
      "75": 1300,
      "MM": 1301,
      "){\"": 1302,
      "Own": 1303,
      "ek": 1304,
      "Ġv": 1305,
      "'){": 1306,
      "ÙĴ": 1307,
      "handle": 1308,
      "mod": 1309,
      "ground": 1310,
      "reg": 1311,
      "Ġyang": 1312,
      "HT": 1313,
      "ork": 1314,
      "]}": 1315,
      "ok": 1316,
      "ĠD": 1317,
      "jQuery": 1318,
      "response": 1319,
      "delete": 1320,
      "md": 1321,
      "method": 1322,
      "Ġ$": 1323,
      "]+": 1324,
      "edit": 1325,
      "ĠL": 1326,
      "=[];": 1327,
      "Ġ*": 1328,
      "70": 1329,
      "og": 1330,
      "tro": 1331,
      "scope": 1332,
      "Types": 1333,
      "oog": 1334,
      "ties": 1335,
      "ini": 1336,
      "Hand": 1337,
      "pos": 1338,
      "ai": 1339,
      "lugin": 1340,
      "constru": 1341,
      "cy": 1342,
      "AT": 1343,
      "bl": 1344,
      "],[\"": 1345,
      "ong": 1346,
      "vue": 1347,
      "Options": 1348,
      "json": 1349,
      "Timeout": 1350,
      "Int": 1351,
      "ould": 1352,
      "ook": 1353,
      "resolve": 1354,
      "46": 1355,
      "itch": 1356,
      "wrap": 1357,
      "Ġke": 1358,
      "42": 1359,
      "link": 1360,
      "cat": 1361,
      "ill": 1362,
      "Button": 1363,
      "table": 1364,
      "Props": 1365,
      "Ð°": 1366,
      "à¤": 1367,
      "status": 1368,
      "Call": 1369,
      "ah": 1370,
      "Case": 1371,
      "should": 1372,
      "tin": 1373,
      "End": 1374,
      "']": 1375,
      "IG": 1376,
      "Range": 1377,
      "uch": 1378,
      "IT": 1379,
      "Ġ\"": 1380,
      "abel": 1381,
      "main": 1382,
      ")&&(": 1383,
      ":[\"": 1384,
      "}},": 1385,
      "ÙĦ": 1386,
      "Ser": 1387,
      "mm": 1388,
      "close": 1389,
      "adding": 1390,
      "lobal": 1391,
      "Offset": 1392,
      "With": 1393,
      "mat": 1394,
      ")/": 1395,
      "Ġvalue": 1396,
      "root": 1397,
      "78": 1398,
      "selected": 1399,
      "Start": 1400,
      "OwnProperty": 1401,
      "For": 1402,
      "Context": 1403,
      "os": 1404,
      "keys": 1405,
      "Ġnull": 1406,
      "Input": 1407,
      "rite": 1408,
      "AN": 1409,
      "mouse": 1410,
      "af": 1411,
      "Ġ5": 1412,
      "ore": 1413,
      "ear": 1414,
      "===\"": 1415,
      "isib": 1416,
      "pp": 1417,
      "tool": 1418,
      "idd": 1419,
      "&&\"": 1420,
      "SE": 1421,
      "Al": 1422,
      ">\\": 1423,
      "border": 1424,
      "lah": 1425,
      "Ġfor": 1426,
      ":(": 1427,
      "Function": 1428,
      "Ġor": 1429,
      "process": 1430,
      ")+": 1431,
      "Ġu": 1432,
      "unc": 1433,
      "igin": 1434,
      "auto": 1435,
      "Ġ3": 1436,
      "ACK": 1437,
      "city": 1438,
      "ĠB": 1439,
      "ĠError": 1440,
      "foc": 1441,
      "mage": 1442,
      "constructor": 1443,
      "Ġget": 1444,
      "own": 1445,
      "abs": 1446,
      "01": 1447,
      "03": 1448,
      "model": 1449,
      "Exp": 1450,
      "Info": 1451,
      "option": 1452,
      "ann": 1453,
      "await": 1454,
      "igger": 1455,
      "join": 1456,
      "05": 1457,
      "YY": 1458,
      "Count": 1459,
      "All": 1460,
      "concat": 1461,
      "SS": 1462,
      "Point": 1463,
      "arn": 1464,
      "spe": 1465,
      "ï¿½ï¿½": 1466,
      "Top": 1467,
      "block": 1468,
      "font": 1469,
      "goog": 1470,
      "Ġon": 1471,
      "\",[": 1472,
      "Position": 1473,
      "lang": 1474,
      "ormal": 1475,
      "ansition": 1476,
      "request": 1477,
      "bot": 1478,
      "Buffer": 1479,
      "tn": 1480,
      "Dis": 1481,
      "disabled": 1482,
      "inner": 1483,
      "Pa": 1484,
      "vm": 1485,
      "vel": 1486,
      "init": 1487,
      "open": 1488,
      "each": 1489,
      "Config": 1490,
      "File": 1491,
      "No": 1492,
      "space": 1493,
      "Ġ\\": 1494,
      "<=": 1495,
      "ry": 1496,
      "Ġinstance": 1497,
      "43": 1498,
      "umer": 1499,
      "ies": 1500,
      "sse": 1501,
      "$.": 1502,
      "97": 1503,
      "toString": 1504,
      "TED": 1505,
      "DU": 1506,
      "pri": 1507,
      "pop": 1508,
      "Ġnot": 1509,
      "'),": 1510,
      "User": 1511,
      "AP": 1512,
      "clear": 1513,
      "des": 1514,
      "Message": 1515,
      "defineProperty": 1516,
      "cate": 1517,
      "Is": 1518,
      "imation": 1519,
      "margin": 1520,
      "loat": 1521,
      "transform": 1522,
      "85": 1523,
      "uration": 1524,
      "ustom": 1525,
      "255": 1526,
      "cker": 1527,
      "ative": 1528,
      "loader": 1529,
      "ider": 1530,
      "template": 1531,
      "Ġj": 1532,
      "Url": 1533,
      "ifi": 1534,
      "Row": 1535,
      "Ref": 1536,
      "\"},{\"": 1537,
      "gs": 1538,
      "script": 1539,
      "lex": 1540,
      "AM": 1541,
      "ream": 1542,
      "Left": 1543,
      "cla": 1544,
      "Pre": 1545,
      "41": 1546,
      "dir": 1547,
      "ie": 1548,
      "elper": 1549,
      "Ro": 1550,
      "Field": 1551,
      "client": 1552,
      "ix": 1553,
      "cm": 1554,
      "96": 1555,
      "Request": 1556,
      "Ext": 1557,
      "async": 1558,
      "Au": 1559,
      "vg": 1560,
      "âĢ": 1561,
      "\")}": 1562,
      "90": 1563,
      "https": 1564,
      "focus": 1565,
      "ength": 1566,
      "sha": 1567,
      "while": 1568,
      "td": 1569,
      "=[],": 1570,
      "WEB": 1571,
      "(\".": 1572,
      "={};": 1573,
      "sa": 1574,
      "br": 1575,
      "Ed": 1576,
      "search": 1577,
      "Length": 1578,
      "enti": 1579,
      "reen": 1580,
      "nav": 1581,
      "ĠF": 1582,
      "HTML": 1583,
      "ssion": 1584,
      "ower": 1585,
      "Ðµ": 1586,
      "Gro": 1587,
      "Symbol": 1588,
      "Ġan": 1589,
      "Update": 1590,
      "by": 1591,
      "Ġand": 1592,
      "mark": 1593,
      "Container": 1594,
      "(?:": 1595,
      "switch": 1596,
      "igh": 1597,
      "trigger": 1598,
      "ud": 1599,
      "Line": 1600,
      "Ġdan": 1601,
      "From": 1602,
      ";},": 1603,
      "Page": 1604,
      "AD": 1605,
      "pend": 1606,
      "Ð¾": 1607,
      "ÙĲ": 1608,
      "Ġ8": 1609,
      "PACK": 1610,
      "ome": 1611,
      "dire": 1612,
      "older": 1613,
      "Th": 1614,
      "ther": 1615,
      "ped": 1616,
      "equal": 1617,
      "Ca": 1618,
      "radi": 1619,
      "');}": 1620,
      "Ġx": 1621,
      "ify": 1622,
      "settings": 1623,
      "hide": 1624,
      "JSON": 1625,
      "post": 1626,
      "ĠN": 1627,
      "can": 1628,
      "]|": 1629,
      "ÙĨ": 1630,
      "Ġpro": 1631,
      "XG": 1632,
      "xu": 1633,
      "Group": 1634,
      "perties": 1635,
      "WEBPACK": 1636,
      "Selector": 1637,
      "_.": 1638,
      "]:": 1639,
      "ak": 1640,
      "52": 1641,
      "=__": 1642,
      "ccess": 1643,
      "bottom": 1644,
      "lean": 1645,
      "08": 1646,
      "ggle": 1647,
      "Trans": 1648,
      "run": 1649,
      "opts": 1650,
      "\"},\"": 1651,
      "GE": 1652,
      "07": 1653,
      "cond": 1654,
      ")).": 1655,
      "Doc": 1656,
      "RO": 1657,
      "tra": 1658,
      "ters": 1659,
      "menu": 1660,
      "||!": 1661,
      "fill": 1662,
      "IMP": 1663,
      "that": 1664,
      "http": 1665,
      "cluster": 1666,
      "mpty": 1667,
      "py": 1668,
      "63": 1669,
      "Prop": 1670,
      "URL": 1671,
      "Out": 1672,
      "Click": 1673,
      "Ġdata": 1674,
      "Ġit": 1675,
      "ĠH": 1676,
      "scription": 1677,
      "Equal": 1678,
      "pt": 1679,
      "isible": 1680,
      "done": 1681,
      "trol": 1682,
      "cor": 1683,
      "ph": 1684,
      "Ð½": 1685,
      "ww": 1686,
      "98": 1687,
      "\\/": 1688,
      "patch": 1689,
      "prev": 1690,
      "DULE": 1691,
      "ORTED": 1692,
      "Fa": 1693,
      "MODULE": 1694,
      "local": 1695,
      "ffect": 1696,
      "tal": 1697,
      ")|": 1698,
      "rt": 1699,
      "Ġinstanceof": 1700,
      ");},": 1701,
      "=/": 1702,
      "attribute": 1703,
      "Image": 1704,
      "background": 1705,
      "pan": 1706,
      "54": 1707,
      "Label": 1708,
      "\"}},": 1709,
      "Token": 1710,
      "react": 1711,
      "Promise": 1712,
      "../../": 1713,
      "\"},{": 1714,
      "lat": 1715,
      "EventListener": 1716,
      "El": 1717,
      "sor": 1718,
      "::": 1719,
      "fin": 1720,
      "02": 1721,
      "CO": 1722,
      "medi": 1723,
      "Ùħ": 1724,
      "idden": 1725,
      "version": 1726,
      "\"!==": 1727,
      "range": 1728,
      "ĠĠĠĠĠĠĠĠĠĠĠ": 1729,
      "sert": 1730,
      "Format": 1731,
      "drop": 1732,
      "IMPORTED": 1733,
      "72": 1734,
      "ces": 1735,
      "bi": 1736,
      "Ð¸": 1737,
      "76": 1738,
      "align": 1739,
      "Header": 1740,
      ",,": 1741,
      "Uti": 1742,
      "];}": 1743,
      "ÙĪ": 1744,
      "Scroll": 1745,
      "ãģ": 1746,
      "Target": 1747,
      "stop": 1748,
      "scale": 1749,
      "Cur": 1750,
      "light": 1751,
      "DO": 1752,
      "clusterK": 1753,
      "53": 1754,
      "Ver": 1755,
      "ia": 1756,
      "...": 1757,
      "Inter": 1758,
      ",.": 1759,
      "sg": 1760,
      "Ġ10": 1761,
      "req": 1762,
      "mber": 1763,
      "img": 1764,
      "mul": 1765,
      "Ġ[": 1766,
      "Lay": 1767,
      "ated": 1768,
      "ift": 1769,
      "global": 1770,
      "Ġwith": 1771,
      "BO": 1772,
      "84": 1773,
      "Ġfalse": 1774,
      "its": 1775,
      "padding": 1776,
      "before": 1777,
      "ĠG": 1778,
      "location": 1779,
      "}.": 1780,
      "desc": 1781,
      "pacity": 1782,
      "Box": 1783,
      "Res": 1784,
      "utils": 1785,
      "tail": 1786,
      "})": 1787,
      "isArray": 1788,
      "exec": 1789,
      "+(": 1790,
      "stroy": 1791,
      "ĠI": 1792,
      "sses": 1793,
      "tex": 1794,
      "Ġ\\\"": 1795,
      "rowser": 1796,
      "FD": 1797,
      "ript": 1798,
      "UT": 1799,
      "ada": 1800,
      ");\\": 1801,
      "instance": 1802,
      "origin": 1803,
      "\"){": 1804,
      "}/": 1805,
      "Che": 1806,
      "vas": 1807,
      "ous": 1808,
      "62": 1809,
      "hasOwnProperty": 1810,
      "ep": 1811,
      "bs": 1812,
      "gress": 1813,
      "items": 1814,
      "selector": 1815,
      "Ġid": 1816,
      "=-": 1817,
      "Ġresult": 1818,
      "stru": 1819,
      "Ġ12": 1820,
      "kit": 1821,
      "ender": 1822,
      "addClass": 1823,
      "Des": 1824,
      "),\"": 1825,
      "LO": 1826,
      "74": 1827,
      "Table": 1828,
      "\"!=": 1829,
      "-\\": 1830,
      "Lower": 1831,
      "))},": 1832,
      "sup": 1833,
      ")*": 1834,
      ",(": 1835,
      "Ùı": 1836,
      "month": 1837,
      "raph": 1838,
      "ular": 1839,
      "Handler": 1840,
      "cache": 1841,
      "ou": 1842,
      "(\"./": 1843,
      "]*": 1844,
      "92": 1845,
      "Add": 1846,
      ":[{": 1847,
      "rer": 1848,
      "Man": 1849,
      "BQU": 1850,
      "51": 1851,
      "ctx": 1852,
      "\"><": 1853,
      "Ġtype": 1854,
      "CK": 1855,
      "()},": 1856,
      "man": 1857,
      "mail": 1858,
      "83": 1859,
      "IH": 1860,
      "('.": 1861,
      "tes": 1862,
      "host": 1863,
      "Link": 1864,
      "ancel": 1865,
      "ZX": 1866,
      "Callback": 1867,
      "ÙĬ": 1868,
      "none": 1869,
      "amp": 1870,
      "86": 1871,
      "components": 1872,
      "ension": 1873,
      "info": 1874,
      ")};": 1875,
      "cs": 1876,
      "ager": 1877,
      "ÑĤ": 1878,
      "<<": 1879,
      "center": 1880,
      "tab": 1881,
      "Sta": 1882,
      "ual": 1883,
      "values": 1884,
      "ast": 1885,
      "Fil": 1886,
      "ish": 1887,
      "Ġcon": 1888,
      "cell": 1889,
      "work": 1890,
      "Sub": 1891,
      "regis": 1892,
      "73": 1893,
      "ized": 1894,
      "ga": 1895,
      ")(\"": 1896,
      "({},": 1897,
      "Icon": 1898,
      "plugin": 1899,
      "Ġma": 1900,
      "iv": 1901,
      "'],": 1902,
      "95": 1903,
      "Ġ6": 1904,
      "cc": 1905,
      "ZW": 1906,
      "store": 1907,
      "LowerCase": 1908,
      "Proto": 1909,
      "xy": 1910,
      "rix": 1911,
      "svg": 1912,
      "ÑĢ": 1913,
      "parentNode": 1914,
      "Check": 1915,
      "ched": 1916,
      "$(": 1917,
      "Ġ${": 1918,
      "As": 1919,
      "Ġmen": 1920,
      "getElement": 1921,
      "ctory": 1922,
      "output": 1923,
      "Right": 1924,
      "leg": 1925,
      "Model": 1926,
      "lection": 1927,
      "side": 1928,
      "toggle": 1929,
      "write": 1930,
      "reka": 1931,
      "editor": 1932,
      "umerable": 1933,
      "sort": 1934,
      "server": 1935,
      ")}),": 1936,
      "chart": 1937,
      "Tt": 1938,
      "Ġ/": 1939,
      "toLowerCase": 1940,
      "]||": 1941,
      "je": 1942,
      "ĠW": 1943,
      "$/": 1944,
      "Ġ}\\": 1945,
      "mi": 1946,
      "idget": 1947,
      "bug": 1948,
      "clone": 1949,
      "App": 1950,
      "description": 1951,
      "symbol": 1952,
      "not": 1953,
      "auth": 1954,
      "ĠclassName": 1955,
      "aa": 1956,
      "Document": 1957,
      "000": 1958,
      "transition": 1959,
      "pass": 1960,
      "ell": 1961,
      "href": 1962,
      "dash": 1963,
      "LL": 1964,
      "Mat": 1965,
      "TION": 1966,
      "ĠU": 1967,
      "events": 1968,
      "oom": 1969,
      "Valid": 1970,
      "troll": 1971,
      "bG": 1972,
      "attern": 1973,
      "Instance": 1974,
      "gex": 1975,
      "SI": 1976,
      "property": 1977,
      "queue": 1978,
      "sing": 1979,
      "oper": 1980,
      "ĠE": 1981,
      "Mon": 1982,
      "vari": 1983,
      "flow": 1984,
      "Base": 1985,
      "ĠR": 1986,
      "normal": 1987,
      "lot": 1988,
      "Mod": 1989,
      "ld": 1990,
      "Desc": 1991,
      "unk": 1992,
      "aj": 1993,
      "ENT": 1994,
      "Ġ}": 1995,
      "pr": 1996,
      "Edit": 1997,
      "Column": 1998,
      "Source": 1999,
      "Reg": 2000,
      "\".": 2001,
      "cd": 2002,
      "Ġas": 2003,
      ".\\": 2004,
      "Get": 2005,
      "82": 2006,
      "our": 2007,
      "sm": 2008,
      "ature": 2009,
      "warn": 2010,
      "uD": 2011,
      "UN": 2012,
      "Ġ+": 2013,
      "(`": 2014,
      "grid": 2015,
      ":/": 2016,
      "nodeType": 2017,
      "Ġdefault": 2018,
      "tif": 2019,
      "cap": 2020,
      "TO": 2021,
      "ĠĠĠĠĠĠĠĠĠ": 2022,
      "TH": 2023,
      "ä¸": 2024,
      "insert": 2025,
      "oot": 2026,
      "à®": 2027,
      "ee": 2028,
      "vide": 2029,
      "env": 2030,
      "owner": 2031,
      "helper": 2032,
      "(\"#": 2033,
      "func": 2034,
      "94": 2035,
      "));}": 2036,
      "',['": 2037,
      "db": 2038,
      "',{": 2039,
      "parseInt": 2040,
      "super": 2041,
      "áĥ": 2042,
      "Ġber": 2043,
      "drag": 2044,
      "Ġ7": 2045,
      "shift": 2046,
      "ĠØ": 2047,
      "The": 2048,
      ".\",\"": 2049,
      "cbi": 2050,
      "ĠAl": 2051,
      "ctive": 2052,
      "week": 2053,
      ")):": 2054,
      "lication": 2055,
      "\\\",": 2056,
      "chema": 2057,
      "erial": 2058,
      "Ġ\"),": 2059,
      "Ġname": 2060,
      "Ax": 2061,
      ":['": 2062,
      "ran": 2063,
      "emit": 2064,
      "wi": 2065,
      "Obj": 2066,
      "used": 2067,
      "Ġkey": 2068,
      "util": 2069,
      "ments": 2070,
      "Ġmereka": 2071,
      "allow": 2072,
      "Ad": 2073,
      "hidden": 2074,
      "61": 2075,
      "ash": 2076,
      "buffer": 2077,
      "Fn": 2078,
      "\"}},[": 2079,
      "Ġ#": 2080,
      "CH": 2081,
      "touch": 2082,
      "NO": 2083,
      "----": 2084,
      "esModule": 2085,
      "}=": 2086,
      "head": 2087,
      "nd": 2088,
      "cord": 2089,
      "FBQ": 2090,
      "Com": 2091,
      "staticClass": 2092,
      "Ġhref": 2093,
      "required": 2094,
      "Menu": 2095,
      "React": 2096,
      "Cache": 2097,
      "selection": 2098,
      "\"],[\"": 2099,
      "Blockly": 2100,
      "AI": 2101,
      "troller": 2102,
      "outer": 2103,
      "Ġset": 2104,
      "\\'": 2105,
      "cket": 2106,
      "arr": 2107,
      "Day": 2108,
      "other": 2109,
      "lic": 2110,
      "ribe": 2111,
      "Ġreturn": 2112,
      "());": 2113,
      "holder": 2114,
      "Action": 2115,
      "EDIT": 2116,
      "num": 2117,
      "ive": 2118,
      ",__": 2119,
      "Ġtrue": 2120,
      "pse": 2121,
      "resh": 2122,
      "custom": 2123,
      "('#": 2124,
      "enumerable": 2125,
      "Su": 2126,
      "org": 2127,
      "93": 2128,
      "ĠDate": 2129,
      ">>>": 2130,
      "initial": 2131,
      "LA": 2132,
      "uni": 2133,
      "picker": 2134,
      "adow": 2135,
      "meta": 2136,
      "dG": 2137,
      "stack": 2138,
      "Parent": 2139,
      "rence": 2140,
      "]?": 2141,
      "gl": 2142,
      "AAAAAAAA": 2143,
      "appendChild": 2144,
      "TR": 2145,
      "frame": 2146,
      "Min": 2147,
      "Ġstyle": 2148,
      "**": 2149,
      "Test": 2150,
      ")}},": 2151,
      "pl": 2152,
      "bn": 2153,
      "__(": 2154,
      "256": 2155,
      "'}": 2156,
      "mount": 2157,
      "EDITOR": 2158,
      "Per": 2159,
      "em": 2160,
      "destroy": 2161,
      "send": 2162,
      "copy": 2163,
      "uage": 2164,
      "inclu": 2165,
      "btn": 2166,
      "AF": 2167,
      "91": 2168,
      "prevent": 2169,
      "Load": 2170,
      "Over": 2171,
      "contain": 2172,
      "Ġti": 2173,
      "uk": 2174,
      "are": 2175,
      "__.": 2176,
      "webkit": 2177,
      "Msg": 2178,
      "Ht": 2179,
      "layer": 2180,
      "stroke": 2181,
      "YW": 2182,
      "Ġ'+": 2183,
      "Temp": 2184,
      "aria": 2185,
      "','\\": 2186,
      "Select": 2187,
      "Service": 2188,
      "TY": 2189,
      "df": 2190,
      "Ø±": 2191,
      "\")]),": 2192,
      "go": 2193,
      "71": 2194,
      "Down": 2195,
      ";++": 2196,
      "ĠÐ": 2197,
      "||{": 2198,
      "Wrap": 2199,
      "assign": 2200,
      "removeClass": 2201,
      "hash": 2202,
      "opacity": 2203,
      "={},": 2204,
      "Ñģ": 2205,
      "81": 2206,
      ":-": 2207,
      "rect": 2208,
      ";)": 2209,
      "]){": 2210,
      "vious": 2211,
      "draw": 2212,
      "ready": 2213,
      "('./": 2214,
      "\"))": 2215,
      "gra": 2216,
      "*(": 2217,
      "cent": 2218,
      "setTimeout": 2219,
      ":\"#": 2220,
      "express": 2221,
      "msg": 2222,
      ",$": 2223,
      "]},": 2224,
      "fla": 2225,
      "Ġz": 2226,
      "ĠArray": 2227,
      "comm": 2228,
      "Fe": 2229,
      "ãĤ": 2230,
      "()=>": 2231,
      "headers": 2232,
      "derer": 2233,
      "ain": 2234,
      "tach": 2235,
      "face": 2236,
      "CA": 2237,
      "full": 2238,
      "[_": 2239,
      "==\"": 2240,
      "YX": 2241,
      "ev": 2242,
      "lative": 2243,
      "pol": 2244,
      "Ġ__": 2245,
      "orage": 2246,
      "ffff": 2247,
      "cbiAg": 2248,
      "\":[\"": 2249,
      "Tit": 2250,
      "ob": 2251,
      "modal": 2252,
      "board": 2253,
      "mary": 2254,
      "Require": 2255,
      "with": 2256,
      "theme": 2257,
      "translate": 2258,
      "stream": 2259,
      "Ġdis": 2260,
      "=='": 2261,
      "setAttribute": 2262,
      "Ġper": 2263,
      "pay": 2264,
      "Result": 2265,
      "(-": 2266,
      "Month": 2267,
      "addEventListener": 2268,
      "flex": 2269,
      "Ġ`": 2270,
      "Filter": 2271,
      "wrapper": 2272,
      "Ġhas": 2273,
      "Render": 2274,
      "Rect": 2275,
      "gener": 2276,
      "Pri": 2277,
      "Char": 2278,
      "And": 2279,
      "reset": 2280,
      "lice": 2281,
      ",\\": 2282,
      "ãĥ": 2283,
      ";});": 2284,
      "duration": 2285,
      "annel": 2286,
      "Tool": 2287,
      "Selection": 2288,
      "PE": 2289,
      "sl": 2290,
      "\");}": 2291,
      "):(": 2292,
      "!=='": 2293,
      "@@": 2294,
      "Year": 2295,
      "Open": 2296,
      "Params": 2297,
      "ĠAllah": 2298,
      "Names": 2299,
      "her": 2300,
      "Title": 2301,
      "LT": 2302,
      "Pos": 2303,
      "success": 2304,
      "Frame": 2305,
      "():": 2306,
      "Client": 2307,
      "CE": 2308,
      "ĠO": 2309,
      "ĠK": 2310,
      "Bound": 2311,
      "Back": 2312,
      "rg": 2313,
      "ĠV": 2314,
      "\"],\"": 2315,
      "validate": 2316,
      "Na": 2317,
      "ility": 2318,
      "build": 2319,
      "QUFD": 2320,
      "HR": 2321,
      "Ġun": 2322,
      "application": 2323,
      "Float": 2324,
      "IS": 2325,
      "foo": 2326,
      "Ġdo": 2327,
      "wr": 2328,
      "ask": 2329,
      "alog": 2330,
      "register": 2331,
      "ound": 2332,
      "Ġtext": 2333,
      "'},": 2334,
      "round": 2335,
      "ById": 2336,
      "ĊĠĠĠ": 2337,
      "Ġal": 2338,
      "Ġvar": 2339,
      "prefix": 2340,
      "ME": 2341,
      "arrow": 2342,
      "yy": 2343,
      "TypeError": 2344,
      "styles": 2345,
      "anim": 2346,
      "inst": 2347,
      "vate": 2348,
      "MA": 2349,
      "ooks": 2350,
      "Ġ16": 2351,
      "CB": 2352,
      "Events": 2353,
      "tify": 2354,
      "ometry": 2355,
      "ĠØ§": 2356,
      "US": 2357,
      "ĊĠ": 2358,
      "]]": 2359,
      "Ùĳ": 2360,
      "\")},": 2361,
      "00000000": 2362,
      "ĉĉ": 2363,
      "dispatch": 2364,
      "animation": 2365,
      "original": 2366,
      "etch": 2367,
      "Match": 2368,
      "sign": 2369,
      "now": 2370,
      "level": 2371,
      "verse": 2372,
      "Ġ11": 2373,
      "nal": 2374,
      "ĠObject": 2375,
      "uted": 2376,
      "flo": 2377,
      "visible": 2378,
      ")\",\"": 2379,
      "after": 2380,
      "hr": 2381,
      "nect": 2382,
      "dist": 2383,
      "Tra": 2384,
      "chor": 2385,
      "Manager": 2386,
      "Prototype": 2387,
      "AE": 2388,
      "checked": 2389,
      "Resp": 2390,
      "Li": 2391,
      "ING": 2392,
      "Status": 2393,
      "';}": 2394,
      "Read": 2395,
      "Active": 2396,
      "CKEDITOR": 2397,
      "debug": 2398,
      "}};": 2399,
      "}],": 2400,
      "Utils": 2401,
      "BQUN": 2402,
      "128": 2403,
      "lation": 2404,
      "ï¿½ï¿½ï¿½ï¿½": 2405,
      "axis": 2406,
      "ines": 2407,
      "Option": 2408,
      "attributes": 2409,
      "hen": 2410,
      "total": 2411,
      "days": 2412,
      "-=": 2413,
      "querySelector": 2414,
      "],[[": 2415,
      "my": 2416,
      "tical": 2417,
      "'>": 2418,
      ")\\": 2419,
      "canvas": 2420,
      "orted": 2421,
      "ule": 2422,
      "sy": 2423,
      "preventDefault": 2424,
      "expected": 2425,
      "Do": 2426,
      "oriz": 2427,
      "),(": 2428,
      ");});}": 2429,
      "(__": 2430,
      "})}": 2431,
      "internal": 2432,
      "}).": 2433,
      "Ra": 2434,
      "duct": 2435,
      "Ġcreate": 2436,
      "Ġ:": 2437,
      "media": 2438,
      "adata": 2439,
      "route": 2440,
      "cf": 2441,
      "'./": 2442,
      "nection": 2443,
      "Ġ24": 2444,
      "Bar": 2445,
      "}`": 2446,
      "CON": 2447,
      "Ġ%": 2448,
      "Ġobject": 2449,
      "vider": 2450,
      "fire": 2451,
      "shape": 2452,
      "ragment": 2453,
      "trim": 2454,
      "gory": 2455,
      "uid": 2456,
      "PO": 2457,
      ":[],": 2458,
      "son": 2459,
      "\"]=": 2460,
      "Settings": 2461,
      "lt": 2462,
      "]).": 2463,
      "Ġex": 2464,
      "'},{": 2465,
      "address": 2466,
      "TER": 2467,
      "Dire": 2468,
      "ĠĠĠĠĠĠĠĠĠĠĠĠĠĠĠ": 2469,
      "PropTypes": 2470,
      "tick": 2471,
      "Ð¾Ð": 2472,
      "[\\": 2473,
      "oolean": 2474,
      "step": 2475,
      "aded": 2476,
      "Que": 2477,
      "layout": 2478,
      "IF": 2479,
      "kind": 2480,
      ")=>": 2481,
      "hover": 2482,
      "',()=>{": 2483,
      "\")),": 2484,
      ":_": 2485,
      "Window": 2486,
      "getAttribute": 2487,
      "types": 2488,
      "lapse": 2489,
      "ĠJ": 2490,
      "Items": 2491,
      "fs": 2492,
      "uter": 2493,
      "lodash": 2494,
      "resource": 2495,
      "tation": 2496,
      "tinue": 2497,
      "Search": 2498,
      "ĠReact": 2499,
      "Ġmodule": 2500,
      "vert": 2501,
      "xml": 2502,
      "loading": 2503,
      "ternal": 2504,
      "ling": 2505,
      "Template": 2506,
      "iterator": 2507,
      "ĠTypeError": 2508,
      "Web": 2509,
      "ATE": 2510,
      "save": 2511,
      "\"/": 2512,
      "pointer": 2513,
      "à¹": 2514,
      "previous": 2515,
      "native": 2516,
      "IE": 2517,
      "Ġq": 2518,
      "Mouse": 2519,
      "cancel": 2520,
      "$$": 2521,
      "DOM": 2522,
      "]&&": 2523,
      "Ġcall": 2524,
      "card": 2525,
      "extends": 2526,
      "bm": 2527,
      "ise": 2528,
      "tooltip": 2529,
      "HE": 2530,
      "Before": 2531,
      "Nodes": 2532,
      "Ġitu": 2533,
      "ameters": 2534,
      "QUFDQ": 2535,
      "Method": 2536,
      "Full": 2537,
      "Cell": 2538,
      "command": 2539,
      "Root": 2540,
      "high": 2541,
      "(;": 2542,
      "ocus": 2543,
      "Properties": 2544,
      "ide": 2545,
      "angular": 2546,
      "}(": 2547,
      "ns": 2548,
      "zM": 2549,
      "Ġ20": 2550,
      "Ġ</": 2551,
      "screen": 2552,
      "Ùĩ": 2553,
      "Spe": 2554,
      "uh": 2555,
      "ZG": 2556,
      "Ġ9": 2557,
      "ðŁ": 2558,
      "\",(": 2559,
      "Mark": 2560,
      "ations": 2561,
      "});}": 2562,
      "locale": 2563,
      "io": 2564,
      "bb": 2565,
      "Ge": 2566,
      "ICB": 2567,
      "Ġconst": 2568,
      "\\\":": 2569,
      "ug": 2570,
      "+=\"": 2571,
      "fter": 2572,
      "slide": 2573,
      "complete": 2574,
      "\"}}": 2575,
      "cn": 2576,
      "Ġerror": 2577,
      "mx": 2578,
      "classes": 2579,
      "Keys": 2580,
      "Max": 2581,
      "reject": 2582,
      "AS": 2583,
      "NaN": 2584,
      "9999": 2585,
      "long": 2586,
      "Ġen": 2587,
      "()){": 2588,
      "widget": 2589,
      "listener": 2590,
      "])}": 2591,
      "dio": 2592,
      "(<": 2593,
      "Ġcur": 2594,
      "ures": 2595,
      ":$": 2596,
      "gt": 2597,
      "router": 2598,
      "Animation": 2599,
      "floor": 2600,
      "video": 2601,
      "Attr": 2602,
      "common": 2603,
      "{\"": 2604,
      "aW": 2605,
      "shadow": 2606,
      "browser": 2607,
      "Response": 2608,
      "ense": 2609,
      "TtBQUN": 2610,
      "ĠY": 2611,
      "Pan": 2612,
      "zm": 2613,
      "};}": 2614,
      "Ġno": 2615,
      "AME": 2616,
      "(!(": 2617,
      "istory": 2618,
      "dialog": 2619,
      "opt": 2620,
      "iff": 2621,
      "part": 2622,
      "tract": 2623,
      "configur": 2624,
      "timeout": 2625,
      "pub": 2626,
      "control": 2627,
      "AU": 2628,
      "angle": 2629,
      "Arg": 2630,
      "year": 2631,
      "ings": 2632,
      "placeholder": 2633,
      "lease": 2634,
      "Pi": 2635,
      "service": 2636,
      "contains": 2637,
      "\"></": 2638,
      "ql": 2639,
      "Grid": 2640,
      "stem": 2641,
      "cape": 2642,
      "ats": 2643,
      "Plugin": 2644,
      "task": 2645,
      "navig": 2646,
      "ally": 2647,
      "!!": 2648,
      "cep": 2649,
      "Ġ32": 2650,
      "Ġmust": 2651,
      "AG": 2652,
      "stringify": 2653,
      "rot": 2654,
      ":\"\",": 2655,
      "bound": 2656,
      "KE": 2657,
      "collection": 2658,
      "Ġte": 2659,
      "VE": 2660,
      "ki": 2661,
      "()),": 2662,
      "Effect": 2663,
      "ali": 2664,
      "ordin": 2665,
      "Body": 2666,
      "Im": 2667,
      "make": 2668,
      "Cla": 2669,
      "ified": 2670,
      "param": 2671,
      "](": 2672,
      "vis": 2673,
      "configurable": 2674,
      "inline": 2675,
      "expression": 2676,
      "ajax": 2677,
      "vec": 2678,
      "continue": 2679,
      "Ġla": 2680,
      ">{": 2681,
      "points": 2682,
      "splice": 2683,
      "ron": 2684,
      "Ġini": 2685,
      "Sha": 2686,
      "tifi": 2687,
      "Level": 2688,
      "ater": 2689,
      "second": 2690,
      ")[": 2691,
      "Current": 2692,
      "properties": 2693,
      ":{\"": 2694,
      "Nav": 2695,
      "resize": 2696,
      "___": 2697,
      "'><": 2698,
      "lect": 2699,
      "sets": 2700,
      "graph": 2701,
      "ding": 2702,
      "'&&": 2703,
      "merge": 2704,
      "ae": 2705,
      "Bl": 2706,
      "Ġmeng": 2707,
      "tree": 2708,
      "Ġkep": 2709,
      "password": 2710,
      "ors": 2711,
      "Ob": 2712,
      "Control": 2713,
      "?'": 2714,
      "Log": 2715,
      "pattern": 2716,
      "net": 2717,
      "relative": 2718,
      "track": 2719,
      ")-": 2720,
      "lable": 2721,
      "radius": 2722,
      "120": 2723,
      "innerHTML": 2724,
      "XT": 2725,
      "nodeName": 2726,
      "LI": 2727,
      "TtBQUNBO": 2728,
      ")+\"": 2729,
      "Close": 2730,
      "Ġthat": 2731,
      "toBe": 2732,
      "Ġat": 2733,
      "nya": 2734,
      "Axis": 2735,
      "Ã©": 2736,
      ":{},": 2737,
      "Move": 2738,
      "ence": 2739,
      "short": 2740,
      "Touch": 2741,
      "png": 2742,
      "email": 2743,
      "Øª": 2744,
      "]/": 2745,
      "Queue": 2746,
      "ĊĠĠĠĠĠĠĠ": 2747,
      "Boolean": 2748,
      "ene": 2749,
      "Tab": 2750,
      "ween": 2751,
      "_=": 2752,
      "Scale": 2753,
      "\":\"\",\"": 2754,
      "Ġfa": 2755,
      "GET": 2756,
      "dition": 2757,
      "entifi": 2758,
      "handler": 2759,
      "Comm": 2760,
      "Values": 2761,
      "Matrix": 2762,
      "fr": 2763,
      "project": 2764,
      "XC": 2765,
      "limit": 2766,
      "Next": 2767,
      "Stack": 2768,
      "del": 2769,
      "www": 2770,
      "mask": 2771,
      ")})}": 2772,
      "olute": 2773,
      "\"].": 2774,
      "'+'": 2775,
      "sn": 2776,
      "ants": 2777,
      "Sp": 2778,
      "fb": 2779,
      "SB": 2780,
      "effect": 2781,
      "Pla": 2782,
      "ï¼": 2783,
      "Empty": 2784,
      "Ð°Ð": 2785,
      "ja": 2786,
      "pth": 2787,
      "results": 2788,
      "pha": 2789,
      "any": 2790,
      "cept": 2791,
      "language": 2792,
      "Sto": 2793,
      "New": 2794,
      "direction": 2795,
      "500": 2796,
      "()).": 2797,
      "empty": 2798,
      "Show": 2799,
      ";_": 2800,
      "boo": 2801,
      "getElementById": 2802,
      "110": 2803,
      "sd": 2804,
      "Wrapper": 2805,
      "SU": 2806,
      "role": 2807,
      "Children": 2808,
      "'re": 2809,
      "Create": 2810,
      "dak": 2811,
      "section": 2812,
      "Layout": 2813,
      "progress": 2814,
      "('/": 2815,
      "multip": 2816,
      "PI": 2817,
      "=$(": 2818,
      "panel": 2819,
      "regex": 2820,
      "tails": 2821,
      "Vy": 2822,
      "Drag": 2823,
      "300": 2824,
      "cial": 2825,
      "entity": 2826,
      "player": 2827,
      "AQ": 2828,
      "ators": 2829,
      "mu": 2830,
      ";){": 2831,
      "Selected": 2832,
      "izer": 2833,
      "actions": 2834,
      "stra": 2835,
      "UI": 2836,
      "ios": 2837,
      "promise": 2838,
      "à¥": 2839,
      "Ġ*/": 2840,
      "siz": 2841,
      "Focus": 2842,
      "Ho": 2843,
      "alt": 2844,
      "Ne": 2845,
      "\\\">": 2846,
      "Modal": 2847,
      "Transform": 2848,
      ")||(": 2849,
      "ku": 2850,
      "pending": 2851,
      "Pol": 2852,
      "QUFDQTtBQUNBO": 2853,
      "car": 2854,
      "Radi": 2855,
      "Transition": 2856,
      "connect": 2857,
      "charCode": 2858,
      "\\.": 2859,
      "enable": 2860,
      "Ġsu": 2861,
      "alled": 2862,
      "DD": 2863,
      "[^": 2864,
      "BE": 2865,
      "Ġobj": 2866,
      "tmp": 2867,
      "ii": 2868,
      "æľ": 2869,
      "}}}": 2870,
      "site": 2871,
      ")===": 2872,
      "\"));": 2873,
      "Ig": 2874,
      "entry": 2875,
      "Version": 2876,
      "dropdown": 2877,
      "classList": 2878,
      "coun": 2879,
      "Ġelement": 2880,
      "ĠReg": 2881,
      "Ġtidak": 2882,
      "Ġmo": 2883,
      "elm": 2884,
      "Rl": 2885,
      "},_": 2886,
      "Ġpar": 2887,
      "here": 2888,
      "Parse": 2889,
      "xl": 2890,
      "gr": 2891,
      "DEF": 2892,
      "CT": 2893,
      "ottom": 2894,
      "unct": 2895,
      "`,": 2896,
      "Week": 2897,
      "zy": 2898,
      "Ab": 2899,
      "rows": 2900,
      "Ñĥ": 2901,
      "fd": 2902,
      "jp": 2903,
      "Ġnode": 2904,
      "Controller": 2905,
      "eq": 2906,
      "Iter": 2907,
      "Ã¡": 2908,
      "]===": 2909,
      "Command": 2910,
      "Progress": 2911,
      "uation": 2912,
      "support": 2913,
      "important": 2914,
      "session": 2915,
      "pag": 2916,
      "zoom": 2917,
      "rst": 2918,
      "Order": 2919,
      "PrototypeOf": 2920,
      "Ġyou": 2921,
      "zb": 2922,
      "Constru": 2923,
      "Ġter": 2924,
      "engan": 2925,
      "Stream": 2926,
      "Expre": 2927,
      "ble": 2928,
      "material": 2929,
      "Ġby": 2930,
      "ank": 2931,
      "uc": 2932,
      "displayName": 2933,
      "Red": 2934,
      "Ġ//": 2935,
      "Dir": 2936,
      "tw": 2937,
      "helpers": 2938,
      "comment": 2939,
      "]);}": 2940,
      "à¦": 2941,
      "iB": 2942,
      "Run": 2943,
      "rem": 2944,
      "refe": 2945,
      "Location": 2946,
      "ĠPromise": 2947,
      "tio": 2948,
      "files": 2949,
      "series": 2950,
      "=/^": 2951,
      "Ġvoid": 2952,
      "(\"+": 2953,
      "AY": 2954,
      "chunk": 2955,
      "teger": 2956,
      "acti": 2957,
      "ward": 2958,
      "ICAgICAgICAgICAgICAgICAgICAgICAg": 2959,
      "redu": 2960,
      "Ġ>": 2961,
      "REE": 2962,
      "112": 2963,
      "oooo": 2964,
      "itable": 2965,
      "})),": 2966,
      "sin": 2967,
      "Sync": 2968,
      "Invalid": 2969,
      "Storage": 2970,
      "Ġcolor": 2971,
      "){$": 2972,
      "nb": 2973,
      "Ren": 2974,
      "boolean": 2975,
      "YYYY": 2976,
      "ĠRegExp": 2977,
      "refresh": 2978,
      "())": 2979,
      "clare": 2980,
      "member": 2981,
      "namespace": 2982,
      "Ġ14": 2983,
      "ensions": 2984,
      "gi": 2985,
      "UE": 2986,
      "months": 2987,
      "force": 2988,
      "rcle": 2989,
      "FI": 2990,
      "Expression": 2991,
      "schema": 2992,
      "Elements": 2993,
      ",\"__": 2994,
      "payload": 2995,
      "TYPE": 2996,
      "charAt": 2997,
      "Ġad": 2998,
      "Store": 2999,
      "Can": 3000,
      "áŀ": 3001,
      "met": 3002,
      "Styles": 3003,
      "Display": 3004,
      "Ø¨": 3005,
      "orizont": 3006,
      "ture": 3007,
      "UM": 3008,
      "way": 3009,
      "Pop": 3010,
      "Cap": 3011,
      "Ġindex": 3012,
      "cG": 3013,
      "OP": 3014,
      "ilder": 3015,
      "Ġbase": 3016,
      "}});": 3017,
      "channel": 3018,
      "Ġth": 3019,
      "!==\"": 3020,
      "Ġkepada": 3021,
      "gen": 3022,
      "Visible": 3023,
      "++;": 3024,
      "åİ": 3025,
      "mt": 3026,
      "parseFloat": 3027,
      "anchor": 3028,
      "ĊĠĠĠĠĠ": 3029,
      "107": 3030,
      "ialog": 3031,
      ",\"./": 3032,
      "SH": 3033,
      "describe": 3034,
      "__[\"": 3035,
      "512": 3036,
      "category": 3037,
      "delay": 3038,
      "NAME": 3039,
      "operator": 3040,
      "invalid": 3041,
      "OL": 3042,
      "ÐµÐ": 3043,
      "DI": 3044,
      "animate": 3045,
      "ume": 3046,
      "ported": 3047,
      "Ġorang": 3048,
      "pc": 3049,
      "\"):": 3050,
      "getOwnProperty": 3051,
      "encode": 3052,
      "]],[[": 3053,
      "cursor": 3054,
      "')}": 3055,
      "ates": 3056,
      "orizontal": 3057,
      "fc": 3058,
      "ji": 3059,
      "\"&&": 3060,
      "Layer": 3061,
      "Drop": 3062,
      "Work": 3063,
      "ameter": 3064,
      "Ġevent": 3065,
      "ice": 3066,
      "Scope": 3067,
      "Constructor": 3068,
      "'t": 3069,
      "044": 3070,
      "1212": 3071,
      "Ct": 3072,
      "Ġdengan": 3073,
      "Ġka": 3074,
      "entifier": 3075,
      "strict": 3076,
      "Short": 3077,
      "velo": 3078,
      "Tree": 3079,
      "BQ": 3080,
      "Ġstring": 3081,
      "SC": 3082,
      "upload": 3083,
      "disable": 3084,
      "\",\"#": 3085,
      "coding": 3086,
      "Enabled": 3087,
      "Mul": 3088,
      "Sy": 3089,
      "unctuation": 3090,
      "pb": 3091,
      "declare": 3092,
      "gu": 3093,
      "Sw": 3094,
      "Dialog": 3095,
      "After": 3096,
      "onChange": 3097,
      "655": 3098,
      "overflow": 3099,
      "Task": 3100,
      "ĠLT": 3101,
      ",,,,": 3102,
      "400": 3103,
      "Provider": 3104,
      "only": 3105,
      "),!": 3106,
      "Texture": 3107,
      "Ġsource": 3108,
      "åĮ": 3109,
      "Ġle": 3110,
      "Ġ)": 3111,
      "sBy": 3112,
      "xs": 3113,
      "){_": 3114,
      "tt": 3115,
      "variable": 3116,
      "Ġtarget": 3117,
      "inher": 3118,
      "va": 3119,
      "Dom": 3120,
      "Ġ@": 3121,
      "elements": 3122,
      "Ġbu": 3123,
      "absolute": 3124,
      "charCodeAt": 3125,
      "plugins": 3126,
      "||[": 3127,
      "Ø¯": 3128,
      "fields": 3129,
      "ision": 3130,
      "random": 3131,
      "Ġoptions": 3132,
      "MD": 3133,
      "Interval": 3134,
      "]=\"": 3135,
      "sum": 3136,
      "turn": 3137,
      "loc": 3138,
      "116": 3139,
      "sed": 3140,
      "XHR": 3141,
      "Ġau": 3142,
      "Ġbo": 3143,
      "enabled": 3144,
      "google": 3145,
      "fx": 3146,
      "Not": 3147,
      "Ġitem": 3148,
      "Ġwindow": 3149,
      "Ġcan": 3150,
      "ample": 3151,
      "}</": 3152,
      "docs": 3153,
      "(\"_": 3154,
      "Lj": 3155,
      "alam": 3156,
      "setState": 3157,
      "Âł": 3158,
      ")>": 3159,
      "If": 3160,
      "Card": 3161,
      "Html": 3162,
      "|\\": 3163,
      "tim": 3164,
      "checkbox": 3165,
      "erred": 3166,
      "substr": 3167,
      "vertical": 3168,
      "UP": 3169,
      "onClick": 3170,
      "\";}": 3171,
      "Ġpath": 3172,
      "bg": 3173,
      "cr": 3174,
      "rep": 3175,
      "annot": 3176,
      "Pl": 3177,
      "åħ": 3178,
      "Ġself": 3179,
      "Route": 3180,
      "====": 3181,
      "ik": 3182,
      "book": 3183,
      "Hash": 3184,
      "Ġser": 3185,
      "=[\"": 3186,
      "ĠX": 3187,
      "expand": 3188,
      "Helper": 3189,
      "include": 3190,
      "buf": 3191,
      "primary": 3192,
      "ference": 3193,
      "BA": 3194,
      "begin": 3195,
      "Address": 3196,
      "EE": 3197,
      "renderer": 3198,
      "lers": 3199,
      "vnode": 3200,
      "penden": 3201,
      "ãĢ": 3202,
      "dt": 3203,
      "Editor": 3204,
      "substring": 3205,
      "NS": 3206,
      "Bottom": 3207,
      "fixed": 3208,
      "ude": 3209,
      "Only": 3210,
      "decor": 3211,
      ".\",": 3212,
      "geometry": 3213,
      "runtime": 3214,
      "(()=>{": 3215,
      "ily": 3216,
      "Align": 3217,
      "iform": 3218,
      "Imp": 3219,
      "Server": 3220,
      "125": 3221,
      "sic": 3222,
      "tarea": 3223,
      "mal": 3224,
      "Ùĥ": 3225,
      "gment": 3226,
      "+\")": 3227,
      "Div": 3228,
      ")});": 3229,
      "Ġwidth": 3230,
      "na": 3231,
      "scrollTop": 3232,
      "Sib": 3233,
      "ten": 3234,
      "ithub": 3235,
      "åı": 3236,
      "Ġres": 3237,
      "fetch": 3238,
      "\"},[": 3239,
      "quo": 3240,
      ",},": 3241,
      "Last": 3242,
      "àª": 3243,
      "hasClass": 3244,
      "Qg": 3245,
      "(.": 3246,
      "yg": 3247,
      "Ġshould": 3248,
      "collapse": 3249,
      "cies": 3250,
      "calc": 3251,
      "white": 3252,
      "eb": 3253,
      "weekdays": 3254,
      "game": 3255,
      "Auth": 3256,
      "Sibling": 3257,
      "Changed": 3258,
      "cing": 3259,
      "ERR": 3260,
      "Ġuse": 3261,
      "username": 3262,
      "VG": 3263,
      "loaded": 3264,
      "à¯": 3265,
      "HJ": 3266,
      "ration": 3267,
      "'));": 3268,
      "Bind": 3269,
      "ĠĠĠĠĠĠĠĠĠĠĠĠĠĠĠĠĠĠĠĠĠĠĠĠĠĠĠĠĠĠĠĠ": 3270,
      "ero": 3271,
      "memo": 3272,
      "}}),": 3273,
      "ges": 3274,
      "attach": 3275,
      "columns": 3276,
      "errors": 3277,
      "('<": 3278,
      "First": 3279,
      "'s": 3280,
      "Ġnumber": 3281,
      ":`": 3282,
      "legate": 3283,
      "Fx": 3284,
      "Loader": 3285,
      "trols": 3286,
      "ws": 3287,
      "PRO": 3288,
      "lg": 3289,
      "dr": 3290,
      "/,": 3291,
      "defaults": 3292,
      "Ġcomp": 3293,
      "Descript": 3294,
      "subsc": 3295,
      "tp": 3296,
      "\"}),": 3297,
      "dc": 3298,
      "Sli": 3299,
      "Sort": 3300,
      "]-": 3301,
      "KEY": 3302,
      "nodes": 3303,
      "submit": 3304,
      "([\"": 3305,
      "struct": 3306,
      "unit": 3307,
      "ÙĳÙİ": 3308,
      "\":[{\"": 3309,
      "orld": 3310,
      "TEXT": 3311,
      "rs": 3312,
      "rotate": 3313,
      "Ġco": 3314,
      "ea": 3315,
      "mapped": 3316,
      "Ass": 3317,
      "NE": 3318,
      "hex": 3319,
      "åİ¿": 3320,
      "Ste": 3321,
      "dered": 3322,
      "serial": 3323,
      "Ġsc": 3324,
      "ua": 3325,
      "Ġinput": 3326,
      "MS": 3327,
      "watch": 3328,
      "3333": 3329,
      "hy": 3330,
      "expan": 3331,
      "bile": 3332,
      "writable": 3333,
      "MMM": 3334,
      "she": 3335,
      "record": 3336,
      ");$": 3337,
      "Ġpa": 3338,
      "Ġfile": 3339,
      "toolbar": 3340,
      "Propag": 3341,
      "(\\": 3342,
      "'],['": 3343,
      "__(\"./": 3344,
      "access": 3345,
      "words": 3346,
      "]={": 3347,
      "(\"\\": 3348,
      "250": 3349,
      "Fix": 3350,
      "BU": 3351,
      "isNaN": 3352,
      "Json": 3353,
      "vs": 3354,
      "Ġare": 3355,
      "Script": 3356,
      "hour": 3357,
      "180": 3358,
      "anya": 3359,
      "AK": 3360,
      "=\"\";": 3361,
      "alert": 3362,
      "Factory": 3363,
      "Util": 3364,
      "Symbols": 3365,
      ":\"%": 3366,
      "dW": 3367,
      "ector": 3368,
      "1010": 3369,
      "Ø³": 3370,
      "275": 3371,
      "Hooks": 3372,
      "isFunction": 3373,
      "flags": 3374,
      ")<": 3375,
      "nown": 3376,
      "ĠØ§ÙĦ": 3377,
      ":#": 3378,
      "Panel": 3379,
      "DB": 3380,
      "ĠZ": 3381,
      "-\"+": 3382,
      "Tick": 3383,
      "jq": 3384,
      ":\"\\": 3385,
      "Di": 3386,
      "Oper": 3387,
      "dat": 3388,
      "sb": 3389,
      "////": 3390,
      "xhr": 3391,
      "Ġpe": 3392,
      "deep": 3393,
      "Ġhand": 3394,
      "float": 3395,
      "Shape": 3396,
      "idx": 3397,
      "Ġarray": 3398,
      "Font": 3399,
      "package": 3400,
      "product": 3401,
      "Ùģ": 3402,
      "Propagation": 3403,
      "Ġupdate": 3404,
      "ana": 3405,
      "Post": 3406,
      "LW": 3407,
      "NODE": 3408,
      "byte": 3409,
      "MT": 3410,
      "bit": 3411,
      "_(": 3412,
      "Custom": 3413,
      "serv": 3414,
      "tact": 3415,
      "zone": 3416,
      "proxy": 3417,
      "API": 3418,
      "127": 3419,
      "ority": 3420,
      "]{": 3421,
      "babel": 3422,
      "VAL": 3423,
      "SA": 3424,
      "latform": 3425,
      "--------": 3426,
      "NT": 3427,
      "(/\\": 3428,
      "Ġcurrent": 3429,
      "+='": 3430,
      "064": 3431,
      "/*": 3432,
      "cry": 3433,
      "LF": 3434,
      "rules": 3435,
      "Ma": 3436,
      "wt": 3437,
      "device": 3438,
      "111": 3439,
      "Loading": 3440,
      "Prefix": 3441,
      "pipe": 3442,
      "spec": 3443,
      "This": 3444,
      "fail": 3445,
      "Ġmin": 3446,
      "(--": 3447,
      "Args": 3448,
      "gram": 3449,
      "')){": 3450,
      "Ġdari": 3451,
      "160": 3452,
      "reference": 3453,
      "La": 3454,
      "Api": 3455,
      "]],['": 3456,
      "eval": 3457,
      "tered": 3458,
      "\"](": 3459,
      "Chart": 3460,
      "å¸": 3461,
      "ndar": 3462,
      "github": 3463,
      "images": 3464,
      "VER": 3465,
      "matrix": 3466,
      "slider": 3467,
      "variant": 3468,
      "gy": 3469,
      "olid": 3470,
      "metadata": 3471,
      "FE": 3472,
      "ori": 3473,
      "=\"'+": 3474,
      "PAR": 3475,
      "Ġborder": 3476,
      "##": 3477,
      "entation": 3478,
      "]],": 3479,
      "calendar": 3480,
      "print": 3481,
      "datepicker": 3482,
      "voke": 3483,
      "BB": 3484,
      "1000": 3485,
      "peat": 3486,
      "Ġ!": 3487,
      "vc": 3488,
      "043": 3489,
      "area": 3490,
      "lear": 3491,
      "iterate": 3492,
      "marker": 3493,
      "escape": 3494,
      "orang": 3495,
      "Sn": 3496,
      "Fla": 3497,
      "Enter": 3498,
      "firstChild": 3499,
      "Vari": 3500,
      "})},": 3501,
      "delta": 3502,
      "mix": 3503,
      "popup": 3504,
      "=$.": 3505,
      "å®": 3506,
      "Ð»": 3507,
      "keyCode": 3508,
      "114": 3509,
      "Ang": 3510,
      "textarea": 3511,
      "finish": 3512,
      "CC": 3513,
      "ception": 3514,
      "ye": 3515,
      "?:": 3516,
      "Ġback": 3517,
      "hc": 3518,
      "Classes": 3519,
      "+'\"": 3520,
      "\",!": 3521,
      "/^": 3522,
      "Remove": 3523,
      "Ġ48": 3524,
      "\\\",\\\"": 3525,
      "Auto": 3526,
      "admin": 3527,
      ")&&!": 3528,
      "Ġwhen": 3529,
      "pm": 3530,
      "hl": 3531,
      "tags": 3532,
      "}:": 3533,
      "Jl": 3534,
      "kt": 3535,
      "sive": 3536,
      "ile": 3537,
      "Parser": 3538,
      "jsx": 3539,
      "login": 3540,
      "iddle": 3541,
      "uri": 3542,
      "asing": 3543,
      "isS": 3544,
      "ords": 3545,
      "Area": 3546,
      "directive": 3547,
      "()+": 3548,
      "inary": 3549,
      "stamp": 3550,
      "Ù°": 3551,
      "CAA": 3552,
      "Gener": 3553,
      "RI": 3554,
      "look": 3555,
      "();});": 3556,
      "clip": 3557,
      "firm": 3558,
      "]},{": 3559,
      "(\"<": 3560,
      "Ġextends": 3561,
      "':{": 3562,
      "ins": 3563,
      "dark": 3564,
      "Required": 3565,
      "',['../": 3566,
      ")?(": 3567,
      "Ġ|": 3568,
      "(/^": 3569,
      ");}};": 3570,
      "toEqual": 3571,
      "Ġstate": 3572,
      "Ġne": 3573,
      "105": 3574,
      "Space": 3575,
      "Nv": 3576,
      "leave": 3577,
      "OS": 3578,
      "utf": 3579,
      "Ġli": 3580,
      "sheet": 3581,
      "once": 3582,
      "Local": 3583,
      "conds": 3584,
      "pow": 3585,
      "äº": 3586,
      "apter": 3587,
      "amily": 3588,
      "]))": 3589,
      "'||": 3590,
      "Resource": 3591,
      "Normal": 3592,
      "interop": 3593,
      "inject": 3594,
      "Ġ13": 3595,
      "computed": 3596,
      "sync": 3597,
      "bW": 3598,
      "();},": 3599,
      "ĠIn": 3600,
      "150": 3601,
      "Sa": 3602,
      "wo": 3603,
      "Ġcontent": 3604,
      "Delete": 3605,
      "Ġspe": 3606,
      "Ġmatch": 3607,
      "Ġ15": 3608,
      "Track": 3609,
      "Ġconfig": 3610,
      "Pass": 3611,
      "Ġuser": 3612,
      "weight": 3613,
      "xe": 3614,
      "moment": 3615,
      "rest": 3616,
      "Handle": 3617,
      "includes": 3618,
      "Regex": 3619,
      "mission": 3620,
      "Ġpunctuation": 3621,
      "history": 3622,
      "Ġfont": 3623,
      "ĠĠĠĠĠĠĠĠĠĠĠĠĠ": 3624,
      "123": 3625,
      "ung": 3626,
      "Browser": 3627,
      "ÙĤ": 3628,
      "tagName": 3629,
      "parentName": 3630,
      "(\"/": 3631,
      "']]],['": 3632,
      "bool": 3633,
      "CSS": 3634,
      "AH": 3635,
      "account": 3636,
      "views": 3637,
      "ness": 3638,
      "003": 3639,
      "Regis": 3640,
      "]&&(": 3641,
      "Ġ?": 3642,
      "Ġadd": 3643,
      "Func": 3644,
      "Renderer": 3645,
      "qui": 3646,
      "!/": 3647,
      "Lang": 3648,
      "Ġhave": 3649,
      "raphi": 3650,
      "clearTimeout": 3651,
      "rule": 3652,
      "\":\"\\": 3653,
      "=\"\",": 3654,
      "Aw": 3655,
      "Host": 3656,
      "Med": 3657,
      "\",[\"": 3658,
      "Collection": 3659,
      "reverse": 3660,
      "skip": 3661,
      "']=": 3662,
      "Es": 3663,
      "umb": 3664,
      "very": 3665,
      "Sk": 3666,
      "finally": 3667,
      "cp": 3668,
      "ä»": 3669,
      "bd": 3670,
      "controller": 3671,
      "rgb": 3672,
      "\"]=\"": 3673,
      "Ġout": 3674,
      "Upper": 3675,
      "Éµ": 3676,
      "101": 3677,
      "113": 3678,
      "Jo": 3679,
      "shot": 3680,
      "Locale": 3681,
      "dev": 3682,
      "modifi": 3683,
      "getElementsBy": 3684,
      "users": 3685,
      "Ġrequest": 3686,
      "documentElement": 3687,
      "factory": 3688,
      "Ly": 3689,
      "lines": 3690,
      "math": 3691,
      "Ġsup": 3692,
      "'../": 3693,
      "cI": 3694,
      "ni": 3695,
      ":\"/": 3696,
      "119": 3697,
      "Num": 3698,
      "Agent": 3699,
      "parser": 3700,
      "ulate": 3701,
      "LS": 3702,
      "}));": 3703,
      "ClassName": 3704,
      "-(": 3705,
      "sq": 3706,
      "UTC": 3707,
      "109": 3708,
      "ĠĠĠĠĠĠĠĠĠĠĠĠĠĠĠĠĠĠĠ": 3709,
      "Cl": 3710,
      "Ðº": 3711,
      "Ci": 3712,
      "Ġch": 3713,
      "bc": 3714,
      "isibility": 3715,
      "AAAAAAAAAAAAAAAA": 3716,
      "Nz": 3717,
      "Cancel": 3718,
      ")],": 3719,
      "åĮº": 3720,
      "Ñı": 3721,
      "nt": 3722,
      "))),": 3723,
      "SP": 3724,
      "108": 3725,
      ")\",": 3726,
      "æĹ": 3727,
      "Sign": 3728,
      "Duration": 3729,
      "ential": 3730,
      "jpg": 3731,
      "Points": 3732,
      "apping": 3733,
      "acter": 3734,
      "uble": 3735,
      "__=": 3736,
      "\",\"\\": 3737,
      "mple": 3738,
      "Zm": 3739,
      "Const": 3740,
      "',},": 3741,
      "swi": 3742,
      "Car": 3743,
      "multi": 3744,
      "ava": 3745,
      "Play": 3746,
      "Ø¹": 3747,
      "||'": 3748,
      "leted": 3749,
      "So": 3750,
      "small": 3751,
      "Descriptor": 3752,
      ");}}}": 3753,
      "alah": 3754,
      "\")){": 3755,
      "000000": 3756,
      ";$": 3757,
      "blur": 3758,
      "Canvas": 3759,
      "Ġ17": 3760,
      "/{": 3761,
      "'?": 3762,
      "192": 3763,
      "ailable": 3764,
      "atures": 3765,
      "ao": 3766,
      "#!/": 3767,
      "MENT": 3768,
      "}},{": 3769,
      "setup": 3770,
      "Ġbeen": 3771,
      "normalize": 3772,
      "Radius": 3773,
      "spa": 3774,
      "assets": 3775,
      "ï¿½ï¿½ï¿½ï¿½ï¿½ï¿½ï¿½ï¿½": 3776,
      "interopRequire": 3777,
      "Record": 3778,
      "Return": 3779,
      "115": 3780,
      "Listeners": 3781,
      "Ġheight": 3782,
      "ks": 3783,
      "pres": 3784,
      "cro": 3785,
      "ution": 3786,
      "QUF": 3787,
      "slot": 3788,
      "subscribe": 3789,
      "ace": 3790,
      "getTime": 3791,
      "Ph": 3792,
      "à´": 3793,
      "inition": 3794,
      "ceive": 3795,
      "removeEventListener": 3796,
      "Rule": 3797,
      "dic": 3798,
      "102": 3799,
      "Origin": 3800,
      "ignore": 3801,
      "star": 3802,
      "removeChild": 3803,
      "Ini": 3804,
      "depth": 3805,
      "Init": 3806,
      "ĠQ": 3807,
      "Mi": 3808,
      "ending": 3809,
      "Ġcli": 3810,
      "130": 3811,
      "EX": 3812,
      "ane": 3813,
      "memoized": 3814,
      "zi": 3815,
      "safe": 3816,
      "placement": 3817,
      "Ġret": 3818,
      "Head": 3819,
      "decode": 3820,
      "Async": 3821,
      "EAA": 3822,
      "LD": 3823,
      "^^": 3824,
      "fragment": 3825,
      "fade": 3826,
      "}><": 3827,
      "defaultValue": 3828,
      "=+": 3829,
      "Pr": 3830,
      "çļ": 3831,
      "ND": 3832,
      "Place": 3833,
      "'@": 3834,
      "public": 3835,
      "`${": 3836,
      "Vz": 3837,
      "elp": 3838,
      "lots": 3839,
      "={{": 3840,
      "imum": 3841,
      "fl": 3842,
      ":\\": 3843,
      "Nj": 3844,
      "sian": 3845,
      "á»": 3846,
      "radio": 3847,
      "Ġlist": 3848,
      "dx": 3849,
      "104": 3850,
      "/>": 3851,
      "servable": 3852,
      "Ġel": 3853,
      "uint": 3854,
      "?[": 3855,
      "matches": 3856,
      "cu": 3857,
      "connection": 3858,
      "domain": 3859,
      "VV": 3860,
      "RegExp": 3861,
      "Ġ},": 3862,
      "mbed": 3863,
      "Ġyour": 3864,
      "tools": 3865,
      "Attributes": 3866,
      "Null": 3867,
      ")==": 3868,
      "cer": 3869,
      "Ġ&": 3870,
      "ansp": 3871,
      "ended": 3872,
      "gor": 3873,
      "loop": 3874,
      "sibl": 3875,
      "circle": 3876,
      "å¤": 3877,
      "]):": 3878,
      "Schema": 3879,
      "Unit": 3880,
      "kg": 3881,
      "win": 3882,
      "Ġdalam": 3883,
      "abi": 3884,
      "ries": 3885,
      "generate": 3886,
      "Ġtitle": 3887,
      "std": 3888,
      "parts": 3889,
      "overlay": 3890,
      "ists": 3891,
      "Feature": 3892,
      "()&&": 3893,
      "names": 3894,
      "Fragment": 3895,
      "jection": 3896,
      "åĪ": 3897,
      "$('#": 3898,
      "Ġbah": 3899,
      "bf": 3900,
      "Comment": 3901,
      "Builder": 3902,
      "Ids": 3903,
      "reduce": 3904,
      "qq": 3905,
      "(\"_\"),": 3906,
      "press": 3907,
      "Ġrel": 3908,
      "002": 3909,
      "ds": 3910,
      "tc": 3911,
      "Ġakan": 3912,
      "++]=": 3913,
      "lack": 3914,
      "Ġall": 3915,
      "ownerDocument": 3916,
      "cos": 3917,
      "Ġwhi": 3918,
      "extra": 3919,
      "mation": 3920,
      "just": 3921,
      "pages": 3922,
      "Zoom": 3923,
      "6666": 3924,
      "ning": 3925,
      "utes": 3926,
      "icons": 3927,
      "Sx": 3928,
      "vity": 3929,
      "vertex": 3930,
      "My": 3931,
      "Ġstart": 3932,
      "CD": 3933,
      "Met": 3934,
      "Argument": 3935,
      "alpha": 3936,
      "direct": 3937,
      "Vector": 3938,
      "ORT": 3939,
      "parsed": 3940,
      "scriptor": 3941,
      "mote": 3942,
      "âĢĵ": 3943,
      ",[\"": 3944,
      "Complete": 3945,
      "âĶ": 3946,
      "Light": 3947,
      "ef": 3948,
      "Native": 3949,
      "logger": 3950,
      "ĊĠĠĠĠĠĠĠĠĠĠĠ": 3951,
      "áĢ": 3952,
      "117": 3953,
      "ixel": 3954,
      "|=": 3955,
      "ĠSymbol": 3956,
      ";}}}": 3957,
      "Ġdisplay": 3958,
      "URE": 3959,
      "!==(": 3960,
      "stract": 3961,
      "ports": 3962,
      "Ġca": 3963,
      "heel": 3964,
      "blue": 3965,
      "?!": 3966,
      "highlight": 3967,
      "colors": 3968,
      "amic": 3969,
      "some": 3970,
      "Global": 3971,
      "ker": 3972,
      "224": 3973,
      ":\"â": 3974,
      "]!==": 3975,
      "rgba": 3976,
      "%;": 3977,
      "Screen": 3978,
      "iframe": 3979,
      "dX": 3980,
      "Widget": 3981,
      "cations": 3982,
      "evt": 3983,
      "ICAgICAgICAg": 3984,
      "Ġmethod": 3985,
      "Emit": 3986,
      "changed": 3987,
      "Fields": 3988,
      "ygon": 3989,
      "Ġmargin": 3990,
      "Av": 3991,
      "()(": 3992,
      "Nl": 3993,
      "zz": 3994,
      "High": 3995,
      "Ratio": 3996,
      "ailed": 3997,
      "pose": 3998,
      "tile": 3999,
      "Access": 4000,
      "Slide": 4001,
      "Ġtest": 4002,
      "SET": 4003,
      "addRange": 4004,
      "mar": 4005,
      "\")||": 4006,
      "tx": 4007,
      "mock": 4008,
      "strong": 4009,
      "OT": 4010,
      "profile": 4011,
      "AV": 4012,
      "lish": 4013,
      "asc": 4014,
      "){'": 4015,
      "+/": 4016,
      "Fixed": 4017,
      "/_": 4018,
      "103": 4019,
      ")}(": 4020,
      "ged": 4021,
      "++,": 4022,
      "tification": 4023,
      "\")+\"": 4024,
      "timer": 4025,
      "yi": 4026,
      "ani": 4027,
      "ordinates": 4028,
      "gn": 4029,
      "rency": 4030,
      "Step": 4031,
      "oth": 4032,
      "Sup": 4033,
      "tabs": 4034,
      "$(\"#": 4035,
      "Direction": 4036,
      "\"];": 4037,
      "\\\":\\\"": 4038,
      "Arrow": 4039,
      "Ġrender": 4040,
      "fer": 4041,
      "sec": 4042,
      "\":{},\"": 4043,
      "childNodes": 4044,
      "duction": 4045,
      "Ġdocument": 4046,
      "\"?": 4047,
      "çļĦ": 4048,
      "Del": 4049,
      ":[[": 4050,
      "footer": 4051,
      "TagName": 4052,
      "asure": 4053,
      "ĠMMMM": 4054,
      ";;": 4055,
      "Ġnext": 4056,
      "gA": 4057,
      "Disabled": 4058,
      "legend": 4059,
      "gest": 4060,
      "Ġend": 4061,
      "Ġvec": 4062,
      "214": 4063,
      "){(": 4064,
      "dim": 4065,
      "ride": 4066,
      "tit": 4067,
      "Ð²": 4068,
      "Ġtime": 4069,
      "RU": 4070,
      "Ġmax": 4071,
      "lend": 4072,
      "\":(": 4073,
      "lar": 4074,
      "DER": 4075,
      "est": 4076,
      "ason": 4077,
      "interopRequireDefault": 4078,
      "sitions": 4079,
      "Coun": 4080,
      "Ru": 4081,
      "navigator": 4082,
      "ĊĠĠĠĠĠĠĠĠĠ": 4083,
      "Rows": 4084,
      "isValid": 4085,
      "tesian": 4086,
      "audio": 4087,
      "ES": 4088,
      "}}},": 4089,
      "ved": 4090,
      "Ġwas": 4091,
      "apa": 4092,
      "'))": 4093,
      "Dim": 4094,
      "Ġcomponent": 4095,
      ":'',": 4096,
      "Tooltip": 4097,
      "atan": 4098,
      "Angle": 4099,
      "Lim": 4100,
      "\":-": 4101,
      "360": 4102,
      "strap": 4103,
      "=\"#": 4104,
      "clo": 4105,
      "tokens": 4106,
      ")({": 4107,
      "Ġta": 4108,
      "Columns": 4109,
      "less": 4110,
      "parameters": 4111,
      "cho": 4112,
      "imul": 4113,
      "106": 4114,
      "backgroundColor": 4115,
      "();};": 4116,
      "ization": 4117,
      "Ġmessage": 4118,
      "ouse": 4119,
      "Ġimp": 4120,
      "olume": 4121,
      "çĶ": 4122,
      "è¯": 4123,
      "Ġ18": 4124,
      "RT": 4125,
      "compare": 4126,
      "unique": 4127,
      "dest": 4128,
      "One": 4129,
      "Initial": 4130,
      "Ġval": 4131,
      ")})),": 4132,
      "itor": 4133,
      "System": 4134,
      "ustify": 4135,
      "tics": 4136,
      "'];": 4137,
      "ctrl": 4138,
      "isF": 4139,
      "Process": 4140,
      "Connection": 4141,
      "sia": 4142,
      "peg": 4143,
      "\")?": 4144,
      "lv": 4145,
      "Css": 4146,
      "XML": 4147,
      "Wr": 4148,
      "Ġline": 4149,
      "Parameters": 4150,
      "trict": 4151,
      "convert": 4152,
      "eds": 4153,
      "diff": 4154,
      "CI": 4155,
      "ĠDe": 4156,
      "Pattern": 4157,
      "Ba": 4158,
      "ATA": 4159,
      "compo": 4160,
      "Ġpo": 4161,
      "Ġ64": 4162,
      "apshot": 4163,
      "()-": 4164,
      "Spec": 4165,
      "Ġ&&": 4166,
      "('../": 4167,
      "fli": 4168,
      "AULT": 4169,
      "\"||": 4170,
      "Ap": 4171,
      "sched": 4172,
      "uniform": 4173,
      ");}});": 4174,
      ")!==": 4175,
      "Ġ28": 4176,
      "Geometry": 4177,
      "Ġ===": 4178,
      "(['": 4179,
      "00000": 4180,
      "RG": 4181,
      "resources": 4182,
      "\"],[": 4183,
      "590": 4184,
      "Timer": 4185,
      "æĸ": 4186,
      "Channel": 4187,
      "Headers": 4188,
      "ited": 4189,
      "PS": 4190,
      "textContent": 4191,
      "mediate": 4192,
      "EV": 4193,
      "clean": 4194,
      "ko": 4195,
      "Ġposition": 4196,
      "author": 4197,
      "||{};": 4198,
      "cM": 4199,
      "cimal": 4200,
      "ĠSe": 4201,
      "entries": 4202,
      "expr": 4203,
      "fff": 4204,
      "gb": 4205,
      "socket": 4206,
      "Bounding": 4207,
      "oose": 4208,
      "PT": 4209,
      "ERROR": 4210,
      "listeners": 4211,
      "oe": 4212,
      "ÃŃ": 4213,
      "ĠOp": 4214,
      "');});": 4215,
      "Internal": 4216,
      "multiple": 4217,
      "ugh": 4218,
      "isting": 4219,
      "å¸Ĥ": 4220,
      "Success": 4221,
      "=!!": 4222,
      "\",\"./": 4223,
      "\"),\"": 4224,
      "Ġ100": 4225,
      "118": 4226,
      "propTypes": 4227,
      "delegate": 4228,
      "gre": 4229,
      "UpperCase": 4230,
      "Ġsa": 4231,
      "wd": 4232,
      "room": 4233,
      "ara": 4234,
      ";(": 4235,
      "\"+\"": 4236,
      "vt": 4237,
      "free": 4238,
      "fontSize": 4239,
      "IAA": 4240,
      "'});": 4241,
      "radient": 4242,
      "parator": 4243,
      "ZS": 4244,
      "Descrip": 4245,
      "jb": 4246,
      ":\"[": 4247,
      "122": 4248,
      "Entry": 4249,
      "Ġsi": 4250,
      "getValue": 4251,
      "Ġwill": 4252,
      "anti": 4253,
      ".*": 4254,
      "atar": 4255,
      "COMP": 4256,
      "AJ": 4257,
      "ABLE": 4258,
      "cover": 4259,
      "ili": 4260,
      ":'/": 4261,
      "END": 4262,
      "methods": 4263,
      "refs": 4264,
      "expi": 4265,
      "=\"+": 4266,
      "\"};": 4267,
      "chain": 4268,
      "Ġman": 4269,
      "clar": 4270,
      ")))": 4271,
      "MAX": 4272,
      "Ġì": 4273,
      "Integer": 4274,
      "Ġcode": 4275,
      "commit": 4276,
      "ansport": 4277,
      "umeric": 4278,
      "Ġ40": 4279,
      "Ġac": 4280,
      "Ġbackground": 4281,
      "Ġlength": 4282,
      "Part": 4283,
      "DEFAULT": 4284,
      "/><": 4285,
      "ï¼Į": 4286,
      "\")&&": 4287,
      "ensi": 4288,
      "hh": 4289,
      "Ġ26": 4290,
      "special": 4291,
      "Ġbahwa": 4292,
      "filename": 4293,
      "åĲ": 4294,
      "real": 4295,
      "FR": 4296,
      "apat": 4297,
      "\\\\.": 4298,
      "ÛĮ": 4299,
      "percent": 4300,
      "Media": 4301,
      "Mount": 4302,
      "144": 4303,
      "Arr": 4304,
      "tf": 4305,
      "Meta": 4306,
      "ZE": 4307,
      "toUpperCase": 4308,
      "Tags": 4309,
      "XY": 4310,
      "Ġurl": 4311,
      "LC": 4312,
      "interval": 4313,
      "same": 4314,
      "easing": 4315,
      "BAA": 4316,
      "Ġ19": 4317,
      "tax": 4318,
      ")})": 4319,
      "Len": 4320,
      "Resize": 4321,
      "texture": 4322,
      "))?": 4323,
      "Sl": 4324,
      "220": 4325,
      "created": 4326,
      "Pointer": 4327,
      "(){}": 4328,
      "INE": 4329,
      "ĠÙĪ": 4330,
      "warning": 4331,
      "protocol": 4332,
      "FOR": 4333,
      "åį": 4334,
      "QQ": 4335,
      "initialize": 4336,
      "Warn": 4337,
      "med": 4338,
      "encoding": 4339,
      "iteratee": 4340,
      "ACE": 4341,
      "Border": 4342,
      "===(": 4343,
      "distance": 4344,
      "inite": 4345,
      "detail": 4346,
      "wb": 4347,
      "//\\": 4348,
      "]\",": 4349,
      "();}}": 4350,
      "{{": 4351,
      "istance": 4352,
      "edge": 4353,
      "Ġ30": 4354,
      "untuk": 4355,
      "(){},": 4356,
      "Ġsub": 4357,
      "Ġ22": 4358,
      "ĠUint": 4359,
      "sted": 4360,
      "Ġvalid": 4361,
      "Ġarguments": 4362,
      "repeat": 4363,
      "FS": 4364,
      "closest": 4365,
      "querySelectorAll": 4366,
      "rationTime": 4367,
      "Cursor": 4368,
      "acc": 4369,
      "Mj": 4370,
      "Draw": 4371,
      "320": 4372,
      "Fy": 4373,
      "Ġcol": 4374,
      "dyn": 4375,
      ");});});": 4376,
      "za": 4377,
      "Hour": 4378,
      "GL": 4379,
      "redential": 4380,
      "Ġ||": 4381,
      "curr": 4382,
      "Ġ21": 4383,
      "ĠÙħ": 4384,
      "){}": 4385,
      "Total": 4386,
      "omp": 4387,
      "lower": 4388,
      "]\\": 4389,
      ".$$": 4390,
      "ousel": 4391,
      ":'#": 4392,
      "alias": 4393,
      "dot": 4394,
      "àº": 4395,
      "aly": 4396,
      "Picker": 4397,
      "0275": 4398,
      "Metadata": 4399,
      "dragg": 4400,
      "Ġcallback": 4401,
      "Stop": 4402,
      "Ġ\",": 4403,
      "cook": 4404,
      "ease": 4405,
      "ple": 4406,
      "horizontal": 4407,
      "roid": 4408,
      "ssed": 4409,
      "lastIndex": 4410,
      "nbsp": 4411,
      ".</": 4412,
      "Ġuntuk": 4413,
      "600": 4414,
      "Router": 4415,
      "2000": 4416,
      "à½": 4417,
      "129": 4418,
      "cast": 4419,
      "Ug": 4420,
      "ible": 4421,
      "labels": 4422,
      "Pixel": 4423,
      "Ġmap": 4424,
      "xE": 4425,
      "124": 4426,
      "\"])(": 4427,
      "preview": 4428,
      "Use": 4429,
      "Ġkam": 4430,
      "storage": 4431,
      "?-": 4432,
      "serialize": 4433,
      "moz": 4434,
      "Files": 4435,
      "='';": 4436,
      "til": 4437,
      "havi": 4438,
      "WN": 4439,
      "oft": 4440,
      "abase": 4441,
      ">-": 4442,
      "leh": 4443,
      "/.": 4444,
      "264": 4445,
      "ital": 4446,
      "Ġ25": 4447,
      "private": 4448,
      "Ġremove": 4449,
      "abort": 4450,
      "notify": 4451,
      "]||(": 4452,
      ")+'": 4453,
      "Hook": 4454,
      "insertBefore": 4455,
      "'.": 4456,
      "Theme": 4457,
      ")})},": 4458,
      "Ġ\",\"": 4459,
      "trl": 4460,
      "sent": 4461,
      "yat": 4462,
      "Vs": 4463,
      "Ġus": 4464,
      "ÑĮ": 4465,
      "pendencies": 4466,
      "=()=>{": 4467,
      "sWith": 4468,
      "plot": 4469,
      "ENV": 4470,
      "hooks": 4471,
      "tbody": 4472,
      "controls": 4473,
      "Ġtr": 4474,
      "transaction": 4475,
      "190": 4476,
      "))){": 4477,
      "Side": 4478,
      "140": 4479,
      "rotation": 4480,
      "respon": 4481,
      "*=": 4482,
      "Submit": 4483,
      "=_.": 4484,
      "isObject": 4485,
      "')).": 4486,
      "FT": 4487,
      "HH": 4488,
      "details": 4489,
      "135": 4490,
      "={\"": 4491,
      "):\"": 4492,
      "appendTo": 4493,
      "MI": 4494,
      "outline": 4495,
      "xx": 4496,
      "PL": 4497,
      "Http": 4498,
      "384": 4499,
      "Ġresponse": 4500,
      "wg": 4501,
      "Ġtop": 4502,
      "\"]},": 4503,
      "Ð¼": 4504,
      "Lm": 4505,
      "slides": 4506,
      "Port": 4507,
      ")));": 4508,
      "126": 4509,
      "geo": 4510,
      "popper": 4511,
      "Ġwe": 4512,
      "'../../": 4513,
      "ail": 4514,
      "zt": 4515,
      "!(": 4516,
      "Graph": 4517,
      "(\"../": 4518,
      "Vide": 4519,
      "Var": 4520,
      "It": 4521,
      "anger": 4522,
      "FFFF": 4523,
      "Vue": 4524,
      "Upload": 4525,
      "dicate": 4526,
      "PARAM": 4527,
      "docClass": 4528,
      "Zone": 4529,
      "Pe": 4530,
      "Ġread": 4531,
      "wal": 4532,
      "non": 4533,
      "pad": 4534,
      "indent": 4535,
      "__){\"": 4536,
      "\\\"\\": 4537,
      "Ve": 4538,
      "Ġ'+'": 4539,
      "capture": 4540,
      "Ð´": 4541,
      "Resol": 4542,
      "199": 4543,
      "Whi": 4544,
      "isEmpty": 4545,
      ");_": 4546,
      "Center": 4547,
      "stat": 4548,
      "Ġleft": 4549,
      "enum": 4550,
      "loy": 4551,
      "mory": 4552,
      "Output": 4553,
      "\"});": 4554,
      "/:": 4555,
      "stopPropagation": 4556,
      "ube": 4557,
      "Ym": 4558,
      "230": 4559,
      "Ġtelah": 4560,
      "Param": 4561,
      "),{": 4562,
      "ceil": 4563,
      "Material": 4564,
      "Identifier": 4565,
      "equals": 4566,
      "rtl": 4567,
      "scrollLeft": 4568,
      ")}},{": 4569,
      "65535": 4570,
      "ux": 4571,
      "viewport": 4572,
      "(\\\"": 4573,
      "hat": 4574,
      "800": 4575,
      "Ġfound": 4576,
      "121": 4577,
      "boot": 4578,
      "Ready": 4579,
      "keydown": 4580,
      "Idx": 4581,
      "ĠYYYY": 4582,
      "Uint": 4583,
      "buttons": 4584,
      "Ms": 4585,
      "Device": 4586,
      "flat": 4587,
      "ens": 4588,
      "Will": 4589,
      "peri": 4590,
      "333": 4591,
      "Loaded": 4592,
      "price": 4593,
      "pagin": 4594,
      "375": 4595,
      "ical": 4596,
      ":.": 4597,
      "sibling": 4598,
      "cre": 4599,
      "\":\"<": 4600,
      "._.": 4601,
      ");}},": 4602,
      "($.": 4603,
      "EC": 4604,
      "Player": 4605,
      "IComp": 4606,
      "THREE": 4607,
      "Span": 4608,
      "Ġsrc": 4609,
      "ĠMath": 4610,
      "dices": 4611,
      "POST": 4612,
      "dl": 4613,
      "andard": 4614,
      "sap": 4615,
      "ala": 4616,
      "axios": 4617,
      ".\");": 4618,
      "Limit": 4619,
      "Ġpadding": 4620,
      "rome": 4621,
      "AGE": 4622,
      "]};": 4623,
      "noop": 4624,
      "Ġhar": 4625,
      "?{": 4626,
      "cision": 4627,
      "viron": 4628,
      "dm": 4629,
      "amount": 4630,
      "139": 4631,
      "'].": 4632,
      "Ġformat": 4633,
      "Popup": 4634,
      "IComponent": 4635,
      "Clear": 4636,
      "FC": 4637,
      "IGHT": 4638,
      "rary": 4639,
      "Video": 4640,
      "Marker": 4641,
      "ju": 4642,
      "speed": 4643,
      "execute": 4644,
      "Did": 4645,
      "Ø§ÙĦ": 4646,
      "+-": 4647,
      "MC": 4648,
      "contents": 4649,
      "Vu": 4650,
      "isRequired": 4651,
      "las": 4652,
      "blank": 4653,
      "unshift": 4654,
      "Variable": 4655,
      "opy": 4656,
      "coder": 4657,
      "240": 4658,
      "unce": 4659,
      "SVG": 4660,
      "compute": 4661,
      "__=__": 4662,
      "Pub": 4663,
      "ollow": 4664,
      "Ġspec": 4665,
      "vance": 4666,
      "Ġ27": 4667,
      "ware": 4668,
      "iler": 4669,
      "groups": 4670,
      "$/,": 4671,
      "Vl": 4672,
      "136": 4673,
      "cryp": 4674,
      "=[{": 4675,
      "Delay": 4676,
      "STR": 4677,
      ")}}}": 4678,
      "stateNode": 4679,
      "Dispatch": 4680,
      "Mer": 4681,
      "messages": 4682,
      "BC": 4683,
      "yt": 4684,
      "Proxy": 4685,
      "region": 4686,
      "Ã³": 4687,
      "shared": 4688,
      "ticle": 4689,
      "à°": 4690,
      "NG": 4691,
      "ffix": 4692,
      "Ġproperty": 4693,
      "Ã¤": 4694,
      "âĢĭ": 4695,
      "156": 4696,
      "Iterator": 4697,
      "Ġrequired": 4698,
      "neg": 4699,
      "AW": 4700,
      "Ġcheck": 4701,
      "Destroy": 4702,
      "Ce": 4703,
      "rena": 4704,
      "Ġ50": 4705,
      "ĠThe": 4706,
      "wp": 4707,
      "Ln": 4708,
      "oooooooo": 4709,
      "Js": 4710,
      "mitive": 4711,
      "ability": 4712,
      "]=[": 4713,
      "getPrototypeOf": 4714,
      "ait": 4715,
      "Ñĭ": 4716,
      "345": 4717,
      "activate": 4718,
      "DF": 4719,
      ")}}},": 4720,
      "pix": 4721,
      "=['": 4722,
      "URIComponent": 4723,
      ".\"+": 4724,
      "uler": 4725,
      "mobile": 4726,
      ";-": 4727,
      "Btn": 4728,
      "production": 4729,
      "Ùī": 4730,
      "Save": 4731,
      "nextSibling": 4732,
      "Vt": 4733,
      "vers": 4734,
      "Product": 4735,
      "qM": 4736,
      "ven": 4737,
      "mut": 4738,
      "ATION": 4739,
      ";}};": 4740,
      "Nya": 4741,
      "Navig": 4742,
      "dC": 4743,
      "Ġonly": 4744,
      "Rh": 4745,
      "blob": 4746,
      "),_": 4747,
      "à¨": 4748,
      "editable": 4749,
      "pause": 4750,
      "?|": 4751,
      "rel": 4752,
      "Description": 4753,
      "Series": 4754,
      "visibility": 4755,
      "Ġra": 4756,
      "OD": 4757,
      "Edge": 4758,
      "precate": 4759,
      "Ġpre": 4760,
      "OM": 4761,
      "ONE": 4762,
      "jquery": 4763,
      "BR": 4764,
      "Binding": 4765,
      "single": 4766,
      "strictEqual": 4767,
      "ping": 4768,
      "xff": 4769,
      "hs": 4770,
      "Account": 4771,
      "stdlib": 4772,
      "confirm": 4773,
      "Mut": 4774,
      "]}}": 4775,
      "Pay": 4776,
      "Ġover": 4777,
      "TRI": 4778,
      "()||": 4779,
      "Padding": 4780,
      "GG": 4781,
      "Ġimage": 4782,
      "\",\"\",\"": 4783,
      "Ġ35": 4784,
      ")},_": 4785,
      "Ġng": 4786,
      "Bounds": 4787,
      "Cate": 4788,
      ".',": 4789,
      "Ġ--": 4790,
      "xa": 4791,
      "æĪ": 4792,
      "cached": 4793,
      "flag": 4794,
      "Inner": 4795,
      ")):(": 4796,
      "Ġui": 4797,
      "platform": 4798,
      "Ġblock": 4799,
      "OK": 4800,
      "Fin": 4801,
      "])){": 4802,
      "ful": 4803,
      "Bh": 4804,
      "Bytes": 4805,
      "215": 4806,
      "184": 4807,
      "Transaction": 4808,
      "Ġhandle": 4809,
      "Shadow": 4810,
      "\":\"#": 4811,
      "thing": 4812,
      "Ġcontext": 4813,
      "167": 4814,
      "icro": 4815,
      "transparent": 4816,
      "Core": 4817,
      "allowed": 4818,
      "nected": 4819,
      "ä½": 4820,
      "âĸ": 4821,
      "={}": 4822,
      "137": 4823,
      "manager": 4824,
      "Ġinitial": 4825,
      "185": 4826,
      "qt": 4827,
      "ãĢĤ": 4828,
      "Enti": 4829,
      "Like": 4830,
      "repo": 4831,
      "Mz": 4832,
      "Toggle": 4833,
      "æĺ": 4834,
      "allback": 4835,
      "Aj": 4836,
      "åĬ": 4837,
      "userAgent": 4838,
      "dp": 4839,
      "()?": 4840,
      "Background": 4841,
      "ClientRect": 4842,
      "Jy": 4843,
      "ingle": 4844,
      "his": 4845,
      "Cannot": 4846,
      ":\"+": 4847,
      "compile": 4848,
      "exit": 4849,
      "-\\\\": 4850,
      "bounds": 4851,
      "note": 4852,
      "Ñĩ": 4853,
      "country": 4854,
      "à²": 4855,
      "FullYear": 4856,
      "('@": 4857,
      "setPrototypeOf": 4858,
      "yntax": 4859,
      "Ġflex": 4860,
      "Ġview": 4861,
      "Elem": 4862,
      "Exception": 4863,
      "PP": 4864,
      "FO": 4865,
      ")}}),": 4866,
      "[]": 4867,
      "descriptor": 4868,
      "getItem": 4869,
      "invoke": 4870,
      "Actions": 4871,
      "middle": 4872,
      "era": 4873,
      "Domain": 4874,
      "bad": 4875,
      ",}": 4876,
      "Undefined": 4877,
      "&#": 4878,
      "rough": 4879,
      "]]=": 4880,
      "Expe": 4881,
      "TOOL": 4882,
      "001": 4883,
      ";}});": 4884,
      "quote": 4885,
      "\",\"$": 4886,
      "NC": 4887,
      "mousedown": 4888,
      "\")[": 4889,
      "Uni": 4890,
      "roke": 4891,
      "navbar": 4892,
      "listen": 4893,
      "lazy": 4894,
      "She": 4895,
      "ÐµÐ½": 4896,
      "cbl": 4897,
      "men": 4898,
      "Weight": 4899,
      "tration": 4900,
      "999": 4901,
      "cross": 4902,
      "168": 4903,
      "pageY": 4904,
      "HO": 4905,
      "Mis": 4906,
      "Ġup": 4907,
      "pathname": 4908,
      "xF": 4909,
      "ATH": 4910,
      "quence": 4911,
      "ids": 4912,
      "etween": 4913,
      "zip": 4914,
      "Details": 4915,
      "))&&": 4916,
      "Language": 4917,
      "getElementsByTagName": 4918,
      "Ġrun": 4919,
      "Ġone": 4920,
      "DATA": 4921,
      "Dropdown": 4922,
      "wheel": 4923,
      "deg": 4924,
      "0000000000000000": 4925,
      "useState": 4926,
      "Ġà¤": 4927,
      "Bg": 4928,
      "Multi": 4929,
      "mera": 4930,
      "modifiers": 4931,
      "ama": 4932,
      "ula": 4933,
      "INT": 4934,
      "Ui": 4935,
      "feature": 4936,
      "170": 4937,
      "bra": 4938,
      "actual": 4939,
      "Mask": 4940,
      "scene": 4941,
      "optional": 4942,
      "ques": 4943,
      "Fill": 4944,
      "dirname": 4945,
      "notation": 4946,
      "models": 4947,
      "PER": 4948,
      "\"./": 4949,
      "Oi": 4950,
      "rup": 4951,
      "?\\": 4952,
      "repos": 4953,
      "Ġparse": 4954,
      "Ġstr": 4955,
      "hp": 4956,
      "248": 4957,
      "Ii": 4958,
      "IGN": 4959,
      "altern": 4960,
      "angan": 4961,
      "Interface": 4962,
      "expanded": 4963,
      "Section": 4964,
      "Session": 4965,
      "'}}": 4966,
      "vironment": 4967,
      "dicator": 4968,
      "filters": 4969,
      "Ġbut": 4970,
      "à¯į": 4971,
      "scrollbar": 4972,
      "asm": 4973,
      "ditional": 4974,
      "clude": 4975,
      "ony": 4976,
      "acy": 4977,
      "pageX": 4978,
      "home": 4979,
      "Ġundefined": 4980,
      "134": 4981,
      "rtual": 4982,
      "ABQ": 4983,
      "3232": 4984,
      "ĠMe": 4985,
      "bt": 4986,
      "ural": 4987,
      "Ġparent": 4988,
      "\"+(": 4989,
      "Vertex": 4990,
      "ifier": 4991,
      "Ġchar": 4992,
      "tination": 4993,
      "Blur": 4994,
      "Inst": 4995,
      "bytes": 4996,
      "Ctrl": 4997,
      "HI": 4998,
      "Ġata": 4999,
      "Ġtypeof": 5000,
      "Ow": 5001,
      "Star": 5002,
      "Ġright": 5003,
      ",[{": 5004,
      "bin": 5005,
      "Ġfirst": 5006,
      "hook": 5007,
      "swiper": 5008,
      "132": 5009,
      "Components": 5010,
      "ffffffff": 5011,
      "routes": 5012,
      "Anim": 5013,
      "}\",": 5014,
      "131": 5015,
      "az": 5016,
      "429": 5017,
      "159": 5018,
      "final": 5019,
      "nvar": 5020,
      "dent": 5021,
      "itter": 5022,
      "\")+": 5023,
      "Net": 5024,
      "Ġauto": 5025,
      "ses": 5026,
      "Î±": 5027,
      "Observer": 5028,
      "/(": 5029,
      "Ġcalled": 5030,
      "URI": 5031,
      "Fns": 5032,
      "found": 5033,
      "}},\"": 5034,
      "coordinates": 5035,
      "Ġelem": 5036,
      "Zh": 5037,
      "138": 5038,
      "--){": 5039,
      "Si": 5040,
      "XX": 5041,
      "304": 5042,
      "lon": 5043,
      "ian": 5044,
      "(\"[": 5045,
      "($(": 5046,
      "ulp": 5047,
      ":/\\": 5048,
      ";};}": 5049,
      "Compo": 5050,
      "Ġoffset": 5051,
      "])},": 5052,
      "Ġdate": 5053,
      "uture": 5054,
      "`;": 5055,
      "SY": 5056,
      "alance": 5057,
      "Pack": 5058,
      "system": 5059,
      "Foo": 5060,
      "Lines": 5061,
      "Sheet": 5062,
      "Abstract": 5063,
      "sidebar": 5064,
      "mid": 5065,
      "ati": 5066,
      "!=\"": 5067,
      "Chunk": 5068,
      "Errors": 5069,
      "Ġtoken": 5070,
      "History": 5071,
      "152": 5072,
      "illise": 5073,
      "sqrt": 5074,
      "which": 5075,
      "Opacity": 5076,
      "ating": 5077,
      "ELE": 5078,
      "__){": 5079,
      "lug": 5080,
      "deferred": 5081,
      "lated": 5082,
      "cmd": 5083,
      "avasc": 5084,
      "(()=>": 5085,
      "bul": 5086,
      "Rules": 5087,
      "Ġpage": 5088,
      "pixel": 5089,
      "stor": 5090,
      "poly": 5091,
      "Password": 5092,
      "reader": 5093,
      "termin": 5094,
      "tect": 5095,
      "Ng": 5096,
      "176": 5097,
      "download": 5098,
      "188": 5099,
      "374": 5100,
      "memoizedState": 5101,
      "Zn": 5102,
      "tices": 5103,
      "sto": 5104,
      "]+\"": 5105,
      "mn": 5106,
      "Project": 5107,
      "restore": 5108,
      "Distance": 5109,
      "ĠString": 5110,
      "inputs": 5111,
      "Ġsize": 5112,
      "aG": 5113,
      "(?:[": 5114,
      "))}}": 5115,
      "OiB": 5116,
      "ship": 5117,
      "pin": 5118,
      "onMouse": 5119,
      "gICAg": 5120,
      "={'": 5121,
      "Changes": 5122,
      "score": 5123,
      "å·": 5124,
      "release": 5125,
      "||{},": 5126,
      "ĠĠĠĠĠĠĠĠĠĠĠĠĠĠĠĠĠĠĠĠĠĠĠ": 5127,
      "cid": 5128,
      "Observable": 5129,
      "17590": 5130,
      "Copy": 5131,
      "Overlay": 5132,
      "()}}": 5133,
      "pear": 5134,
      "redentials": 5135,
      "ToString": 5136,
      "(\",\"": 5137,
      "WR": 5138,
      ")]),": 5139,
      "Qt": 5140,
      "dra": 5141,
      "udo": 5142,
      "EVENT": 5143,
      "Ġapp": 5144,
      "234": 5145,
      "timestamp": 5146,
      "148": 5147,
      "AAU": 5148,
      "})(": 5149,
      "\\\\\\\\": 5150,
      "Lib": 5151,
      ">'+'": 5152,
      "BD": 5153,
      "Fr": 5154,
      "Emitter": 5155,
      "Ġwork": 5156,
      "228": 5157,
      "BY": 5158,
      "validator": 5159,
      "COL": 5160,
      "vid": 5161,
      "208": 5162,
      ";\"": 5163,
      "gments": 5164,
      "avascript": 5165,
      "=\\'": 5166,
      "))&&(": 5167,
      "'};": 5168,
      "Ġ33": 5169,
      "handlers": 5170,
      "Shader": 5171,
      "Ġfind": 5172,
      "448": 5173,
      "Ġass": 5174,
      "phone": 5175,
      "caption": 5176,
      "dddd": 5177,
      "formation": 5178,
      "Parameter": 5179,
      "163": 5180,
      "STATE": 5181,
      "IA": 5182,
      "=\"/": 5183,
      "Us": 5184,
      "tries": 5185,
      ":\"_": 5186,
      "AND": 5187,
      "xc": 5188,
      "Ġ);\\": 5189,
      "LX": 5190,
      "Dash": 5191,
      "(_.": 5192,
      "Ġ},\\": 5193,
      "Constants": 5194,
      "Fiber": 5195,
      "localStorage": 5196,
      "Ġquery": 5197,
      "LIST": 5198,
      "Ġ×": 5199,
      "Ø©": 5200,
      "CL": 5201,
      "ways": 5202,
      "Computed": 5203,
      "Ġ29": 5204,
      "iled": 5205,
      "147": 5206,
      "squ": 5207,
      "Rp": 5208,
      "Hide": 5209,
      "143": 5210,
      "Expr": 5211,
      "145": 5212,
      "Hover": 5213,
      "bootstrap": 5214,
      "cfg": 5215,
      "Email": 5216,
      "reshold": 5217,
      "327": 5218,
      "Ġmer": 5219,
      "dataset": 5220,
      "+\"-": 5221,
      "dn": 5222,
      "TIP": 5223,
      "valueOf": 5224,
      "cx": 5225,
      "Common": 5226,
      "205": 5227,
      "Ġexpected": 5228,
      "Ġwrap": 5229,
      "inherits": 5230,
      "Ġ*/\\": 5231,
      "éĢ": 5232,
      "]=(": 5233,
      "Ġused": 5234,
      "cookie": 5235,
      "pagination": 5236,
      "12121212": 5237,
      "getBounding": 5238,
      "Ġnon": 5239,
      "Jv": 5240,
      "cdFx": 5241,
      "live": 5242,
      "à§": 5243,
      ");};}": 5244,
      "Ġform": 5245,
      "Results": 5246,
      "Ġ34": 5247,
      "[(": 5248,
      "aX": 5249,
      "364": 5250,
      "ET": 5251,
      "green": 5252,
      "gba": 5253,
      ")+(": 5254,
      "lin": 5255,
      "Ġchild": 5256,
      "Ð¿": 5257,
      "zIndex": 5258,
      "under": 5259,
      "\"]},\"": 5260,
      ":{'": 5261,
      "network": 5262,
      "206": 5263,
      "Qk": 5264,
      "900": 5265,
      "keyword": 5266,
      "áº": 5267,
      "Capture": 5268,
      "counter": 5269,
      "PH": 5270,
      "InProgress": 5271,
      "ĠHH": 5272,
      "partial": 5273,
      "stead": 5274,
      "report": 5275,
      "Anchor": 5276,
      "BL": 5277,
      "133": 5278,
      "Siz": 5279,
      "157": 5280,
      "Ġpri": 5281,
      "235": 5282,
      "_\"+": 5283,
      "PRE": 5284,
      "LFxu": 5285,
      "precated": 5286,
      "Modules": 5287,
      "vector": 5288,
      "âĶĢ": 5289,
      "SD": 5290,
      "204": 5291,
      "Ġkarena": 5292,
      "icy": 5293,
      "getData": 5294,
      "216": 5295,
      "ategy": 5296,
      "lb": 5297,
      "([^": 5298,
      "Exec": 5299,
      "Role": 5300,
      "Ġdoes": 5301,
      "åŃ": 5302,
      "()};": 5303,
      "alf": 5304,
      "ĠTH": 5305,
      ",};": 5306,
      "AX": 5307,
      "directives": 5308,
      "ĠSet": 5309,
      "contact": 5310,
      "Member": 5311,
      "];}}": 5312,
      "term": 5313,
      "ÑģÑĤ": 5314,
      "VALUE": 5315,
      "CLA": 5316,
      "cmV": 5317,
      "dep": 5318,
      "Leave": 5319,
      "(){$": 5320,
      "Br": 5321,
      "Mu": 5322,
      "254": 5323,
      "Ġbutton": 5324,
      "tb": 5325,
      ")();": 5326,
      "Ai": 5327,
      "lash": 5328,
      "orig": 5329,
      "),\"./": 5330,
      "Bi": 5331,
      "]=!": 5332,
      "Immediate": 5333,
      "\")&&(": 5334,
      "Ġayat": 5335,
      "ART": 5336,
      "Ġnone": 5337,
      "'{": 5338,
      "xf": 5339,
      "+'/": 5340,
      "Game": 5341,
      "Insert": 5342,
      "ĠMap": 5343,
      "Profile": 5344,
      ",\"\\": 5345,
      "anes": 5346,
      ")),(": 5347,
      ":()=>": 5348,
      "letter": 5349,
      "CF": 5350,
      "è¿": 5351,
      "external": 5352,
      "\\\\\\\"": 5353,
      "tiple": 5354,
      "AnimationFrame": 5355,
      "provider": 5356,
      "Mock": 5357,
      "Ġ36": 5358,
      "219": 5359,
      "!=(": 5360,
      "danger": 5361,
      "Tile": 5362,
      "209": 5363,
      "Ġfil": 5364,
      "reply": 5365,
      "Sel": 5366,
      "****": 5367,
      "LAG": 5368,
      "Has": 5369,
      "à¶": 5370,
      "Ġargument": 5371,
      "spect": 5372,
      "Plain": 5373,
      "cz": 5374,
      "Î¿": 5375,
      "Ġoption": 5376,
      "\")])": 5377,
      "Îµ": 5378,
      "cN": 5379,
      "guid": 5380,
      "Ter": 5381,
      "========": 5382,
      "Ġcenter": 5383,
      "158": 5384,
      "ops": 5385,
      "Ġsolid": 5386,
      "æķ": 5387,
      "Ġlast": 5388,
      "Alpha": 5389,
      "179": 5390,
      "TIVE": 5391,
      "149": 5392,
      "404": 5393,
      "Rv": 5394,
      "',(": 5395,
      "jt": 5396,
      "Ġfill": 5397,
      "Ġseba": 5398,
      "Labels": 5399,
      "dirty": 5400,
      "Vis": 5401,
      "sue": 5402,
      "=`": 5403,
      "globals": 5404,
      "chat": 5405,
      "238": 5406,
      "accept": 5407,
      "detach": 5408,
      "Hidden": 5409,
      "Runtime": 5410,
      "SION": 5411,
      "stats": 5412,
      "navigation": 5413,
      "Write": 5414,
      "getOwnPropertyDescriptor": 5415,
      "Directive": 5416,
      "Ġfloat": 5417,
      "Ġprops": 5418,
      "operation": 5419,
      "redirect": 5420,
      "Arguments": 5421,
      "componentWill": 5422,
      "Ñĸ": 5423,
      "Ã¼": 5424,
      "front": 5425,
      "itude": 5426,
      "('[": 5427,
      ")',": 5428,
      "linear": 5429,
      "åľ": 5430,
      "ĠURL": 5431,
      "ading": 5432,
      "239": 5433,
      "!='": 5434,
      "227": 5435,
      "165": 5436,
      "178": 5437,
      "Ġso": 5438,
      "Vo": 5439,
      "usp": 5440,
      "218": 5441,
      "ctions": 5442,
      "ket": 5443,
      "=\\\"#!/": 5444,
      ")?\"": 5445,
      "Expected": 5446,
      "Ãł": 5447,
      "Ġrow": 5448,
      "ln": 5449,
      "VI": 5450,
      "graphi": 5451,
      "2017": 5452,
      "226": 5453,
      "(?:\\": 5454,
      "(++": 5455,
      "Byte": 5456,
      ")>=": 5457,
      "camera": 5458,
      "232": 5459,
      "Cal": 5460,
      "Ċĉĉ": 5461,
      "logo": 5462,
      ")%": 5463,
      "Exports": 5464,
      "296": 5465,
      "constants": 5466,
      "åĽ": 5467,
      "enc": 5468,
      "&&(\"": 5469,
      "forward": 5470,
      "ered": 5471,
      "());}": 5472,
      "frames": 5473,
      "moveTo": 5474,
      "example": 5475,
      "Margin": 5476,
      "à¸²": 5477,
      "pare": 5478,
      "Login": 5479,
      "sr": 5480,
      "())},": 5481,
      "ÂłÂł": 5482,
      "Ġcor": 5483,
      "Operation": 5484,
      "191": 5485,
      "({\"": 5486,
      "claration": 5487,
      "\\\",\\": 5488,
      "`);": 5489,
      "201": 5490,
      "ĠTHREE": 5491,
      "removeAttribute": 5492,
      "javascript": 5493,
      "stable": 5494,
      "169": 5495,
      "Ġcl": 5496,
      "DateTime": 5497,
      "Ġargs": 5498,
      "spacing": 5499,
      ")>>": 5500,
      "known": 5501,
      "asa": 5502,
      "jadi": 5503,
      "_\\": 5504,
      "Ġab": 5505,
      "perform": 5506,
      "177": 5507,
      ")}).": 5508,
      "'],'": 5509,
      "\")).": 5510,
      "Reference": 5511,
      "when": 5512,
      "/></": 5513,
      "à·": 5514,
      "atu": 5515,
      "inherit": 5516,
      "cut": 5517,
      "mor": 5518,
      "Clone": 5519,
      "Mg": 5520,
      "Prevent": 5521,
      "Delta": 5522,
      "\":[],\"": 5523,
      "offsetWidth": 5524,
      "xD": 5525,
      "'],['../": 5526,
      "tl": 5527,
      "Ġbtn": 5528,
      "ZV": 5529,
      "Acti": 5530,
      "CTION": 5531,
      "xp": 5532,
      "(\":": 5533,
      "Ġreg": 5534,
      "\"}],\"": 5535,
      "\"[": 5536,
      "secondary": 5537,
      "tu": 5538,
      "QUE": 5539,
      "irror": 5540,
      "()(),": 5541,
      "embed": 5542,
      "MODE": 5543,
      "cke": 5544,
      "194": 5545,
      "extensions": 5546,
      "Generator": 5547,
      "Checked": 5548,
      "+\"/": 5549,
      "Pers": 5550,
      "dispose": 5551,
      "eventName": 5552,
      "Binary": 5553,
      "paths": 5554,
      "146": 5555,
      "gories": 5556,
      "resiz": 5557,
      "unted": 5558,
      "]<<": 5559,
      "Segment": 5560,
      "_,": 5561,
      "did": 5562,
      "225": 5563,
      "yield": 5564,
      "You": 5565,
      "EA": 5566,
      "');}}": 5567,
      "hoto": 5568,
      "justify": 5569,
      "Collapse": 5570,
      "Offense": 5571,
      "ents": 5572,
      "resolved": 5573,
      "210": 5574,
      "aper": 5575,
      "yb": 5576,
      "lz": 5577,
      ");}).": 5578,
      "Loc": 5579,
      "[\"\\": 5580,
      "currency": 5581,
      "aaaa": 5582,
      "moji": 5583,
      "ĠØ¨": 5584,
      "Abs": 5585,
      "maps": 5586,
      "Ft": 5587,
      "have": 5588,
      "Ġvalues": 5589,
      "FLAG": 5590,
      "203": 5591,
      "245": 5592,
      "],{": 5593,
      "trib": 5594,
      "',\\": 5595,
      "154": 5596,
      "]],[": 5597,
      "166": 5598,
      "à¤¾": 5599,
      "Ġfield": 5600,
      "zA": 5601,
      "UU": 5602,
      "carousel": 5603,
      "å°": 5604,
      "700": 5605,
      "multiply": 5606,
      "ype": 5607,
      "Trigger": 5608,
      "Ġtag": 5609,
      "\"\\": 5610,
      "175": 5611,
      "byteLength": 5612,
      "142": 5613,
      "Ġ23": 5614,
      "']);": 5615,
      "141": 5616,
      "},{\"./": 5617,
      "CharCode": 5618,
      "tcbiAg": 5619,
      "Ġar": 5620,
      ".\";": 5621,
      "Ġrgba": 5622,
      "KC": 5623,
      "black": 5624,
      "hot": 5625,
      "Non": 5626,
      "233": 5627,
      "spy": 5628,
      "getBoundingClientRect": 5629,
      "Ġchange": 5630,
      "ele": 5631,
      "ram": 5632,
      "373": 5633,
      "Snapshot": 5634,
      "toH": 5635,
      "189": 5636,
      "Reader": 5637,
      "pick": 5638,
      "predicate": 5639,
      "upper": 5640,
      "TOOLTIP": 5641,
      "Debug": 5642,
      "Main": 5643,
      "updated": 5644,
      "Static": 5645,
      "Ġshow": 5646,
      "dataType": 5647,
      "family": 5648,
      "};\\": 5649,
      "Ġmeny": 5650,
      "Sched": 5651,
      "soft": 5652,
      "ìĿ": 5653,
      "Ð°Ð½": 5654,
      "Statement": 5655,
      "()[": 5656,
      "Press": 5657,
      ";\",\"": 5658,
      "ARR": 5659,
      "undle": 5660,
      "ACT": 5661,
      "identifier": 5662,
      "BJ": 5663,
      "Ni": 5664,
      "',[": 5665,
      "\":\"â": 5666,
      "2015": 5667,
      "lng": 5668,
      "Amount": 5669,
      "ami": 5670,
      "207": 5671,
      "SER": 5672,
      "Yn": 5673,
      "MIN": 5674,
      "Ġroot": 5675,
      "MAP": 5676,
      "]},{\"": 5677,
      "667": 5678,
      "Ä±": 5679,
      "ado": 5680,
      "binding": 5681,
      "reason": 5682,
      "Ġnormal": 5683,
      "gulp": 5684,
      "lookup": 5685,
      "uuid": 5686,
      "Ġfn": 5687,
      "Ġprop": 5688,
      "229": 5689,
      "1024": 5690,
      "setValue": 5691,
      "nfunction": 5692,
      ")$/": 5693,
      "GV": 5694,
      "quires": 5695,
      "design": 5696,
      "âĶĢâĶĢ": 5697,
      "defineProperties": 5698,
      "DATE": 5699,
      "Ġtransform": 5700,
      "charts": 5701,
      "ØŃ": 5702,
      "priority": 5703,
      "generator": 5704,
      "HEAP": 5705,
      "*\\": 5706,
      "Spa": 5707,
      "308": 5708,
      "narrow": 5709,
      ":\"\\\\": 5710,
      "calculate": 5711,
      "Depth": 5712,
      "288": 5713,
      "Go": 5714,
      "Ctor": 5715,
      "verify": 5716,
      "155": 5717,
      "RC": 5718,
      "gray": 5719,
      "236": 5720,
      "constant": 5721,
      "Ġinter": 5722,
      "ARE": 5723,
      "mg": 5724,
      "Super": 5725,
      "fun": 5726,
      "Entity": 5727,
      "uan": 5728,
      "parents": 5729,
      "visit": 5730,
      "popover": 5731,
      "Pt": 5732,
      "matched": 5733,
      "languages": 5734,
      "Ġsh": 5735,
      "Ġ/>": 5736,
      "211": 5737,
      "Eng": 5738,
      "jected": 5739,
      "rendered": 5740,
      "Jh": 5741,
      "extract": 5742,
      "sol": 5743,
      "OW": 5744,
      "Ġkamu": 5745,
      "Mix": 5746,
      "stri": 5747,
      "xd": 5748,
      "],'": 5749,
      "æľĪ": 5750,
      "Horizontal": 5751,
      "program": 5752,
      "),'": 5753,
      "related": 5754,
      "222": 5755,
      "ĠMa": 5756,
      "lint": 5757,
      ";</": 5758,
      "())}": 5759,
      "Audio": 5760,
      "Db": 5761,
      "\",\"-": 5762,
      "mouseup": 5763,
      "TP": 5764,
      "HQ": 5765,
      "164": 5766,
      "\"/><": 5767,
      "Cor": 5768,
      "pendency": 5769,
      "World": 5770,
      "Ġ=>": 5771,
      "offsetHeight": 5772,
      "oogle": 5773,
      "Ut": 5774,
      "ben": 5775,
      "bub": 5776,
      "stub": 5777,
      "Pool": 5778,
      "Ġelse": 5779,
      "Cy": 5780,
      "à¤°": 5781,
      "PUT": 5782,
      "2020": 5783,
      "Mesh": 5784,
      "}):": 5785,
      "LED": 5786,
      "Handlers": 5787,
      "Reflect": 5788,
      "uff": 5789,
      "()}),": 5790,
      "å¼": 5791,
      "licate": 5792,
      "Speed": 5793,
      "174": 5794,
      "dig": 5795,
      "Leg": 5796,
      "andom": 5797,
      "tween": 5798,
      "Callbacks": 5799,
      "draggable": 5800,
      "SO": 5801,
      "Ae": 5802,
      "])?": 5803,
      "rr": 5804,
      "202": 5805,
      "Rate": 5806,
      "Ġmanu": 5807,
      "×Ļ": 5808,
      "Mv": 5809,
      "AO": 5810,
      "dH": 5811,
      "Colors": 5812,
      "links": 5813,
      "Definition": 5814,
      "ZC": 5815,
      "serve": 5816,
      "Ġtable": 5817,
      "=((": 5818,
      "(),\"": 5819,
      "kr": 5820,
      "library": 5821,
      "Ah": 5822,
      "Clo": 5823,
      "prepend": 5824,
      "avatar": 5825,
      "Vxu": 5826,
      "===!": 5827,
      "Ġload": 5828,
      "Cartesian": 5829,
      "adjust": 5830,
      "187": 5831,
      "job": 5832,
      "segment": 5833,
      "gh": 5834,
      "pair": 5835,
      "{...": 5836,
      "SIZE": 5837,
      "Factor": 5838,
      "txt": 5839,
      "Ġlabel": 5840,
      "186": 5841,
      "Extension": 5842,
      "LETE": 5843,
      "Raw": 5844,
      "Called": 5845,
      "QL": 5846,
      "XCJ": 5847,
      "Svg": 5848,
      "Toolbar": 5849,
      "è¡": 5850,
      "Ø¬": 5851,
      "Category": 5852,
      "dian": 5853,
      "CAC": 5854,
      "','#": 5855,
      "currentTarget": 5856,
      "dia": 5857,
      "Ġoperator": 5858,
      "measure": 5859,
      ",-.": 5860,
      ";}},": 5861,
      "Lock": 5862,
      "uA": 5863,
      "Ġlog": 5864,
      "Region": 5865,
      "428": 5866,
      "(\"^": 5867,
      "Vnode": 5868,
      "observer": 5869,
      "Price": 5870,
      "Ġ38": 5871,
      "closed": 5872,
      "help": 5873,
      "decorate": 5874,
      "/${": 5875,
      "focused": 5876,
      "Ġ39": 5877,
      "252": 5878,
      "zh": 5879,
      "ones": 5880,
      "Ġ\\'": 5881,
      "Ġsign": 5882,
      "Ġinstead": 5883,
      "ump": 5884,
      ")>-": 5885,
      "inv": 5886,
      "$('.": 5887,
      "])&&": 5888,
      "kb": 5889,
      "bab": 5890,
      "ELEMENT": 5891,
      "ĠNabi": 5892,
      "(`${": 5893,
      "KG": 5894,
      "tap": 5895,
      "Cb": 5896,
      "quot": 5897,
      "alternate": 5898,
      "Ġ37": 5899,
      "IP": 5900,
      "Ao": 5901,
      "destination": 5902,
      "Ġref": 5903,
      "Pres": 5904,
      "unbind": 5905,
      "Ġmul": 5906,
      "Ø´": 5907,
      "expirationTime": 5908,
      "Switch": 5909,
      "scoped": 5910,
      "xv": 5911,
      "cls": 5912,
      "Ġap": 5913,
      "Ġlink": 5914,
      "condition": 5915,
      "bold": 5916,
      "Ġkeys": 5917,
      "world": 5918,
      "Src": 5919,
      ")<<": 5920,
      "ARRAY": 5921,
      "Ġbody": 5922,
      "Ġold": 5923,
      "fab": 5924,
      "layers": 5925,
      "mpt": 5926,
      "cljs": 5927,
      "CLASS": 5928,
      "Defaults": 5929,
      "veloper": 5930,
      "Ġpada": 5931,
      "Prevented": 5932,
      "expando": 5933,
      "toArray": 5934,
      "UV": 5935,
      "å¹": 5936,
      "ssible": 5937,
      "engine": 5938,
      "dynamic": 5939,
      "mall": 5940,
      "Send": 5941,
      "\"}],": 5942,
      "constra": 5943,
      "Break": 5944,
      "als": 5945,
      "////////": 5946,
      "wB": 5947,
      "styled": 5948,
      "extension": 5949,
      "remote": 5950,
      "RenderFns": 5951,
      "ç»": 5952,
      "ĠIs": 5953,
      "rate": 5954,
      "Assign": 5955,
      "Ġselect": 5956,
      "ood": 5957,
      "Åį": 5958,
      "]));": 5959,
      "isDef": 5960,
      "rx": 5961,
      ",...": 5962,
      "curity": 5963,
      "198": 5964,
      "Ġdapat": 5965,
      "]];": 5966,
      "crea": 5967,
      "cells": 5968,
      "ZH": 5969,
      "Warning": 5970,
      ")}))}": 5971,
      "gB": 5972,
      "Objects": 5973,
      ">\",\"": 5974,
      "Diff": 5975,
      "vided": 5976,
      "schedule": 5977,
      "lette": 5978,
      "Yi": 5979,
      "Ri": 5980,
      "196": 5981,
      "integer": 5982,
      "[$": 5983,
      "Cook": 5984,
      "Ġcolumn": 5985,
      "uplicate": 5986,
      "*/": 5987,
      "aik": 5988,
      ">.": 5989,
      "CODE": 5990,
      "utter": 5991,
      "Users": 5992,
      "Ġada": 5993,
      "Lat": 5994,
      "backdrop": 5995,
      "ĊĠĠĠĠĠĠĠĠĠĠĠĠĠĠĠ": 5996,
      "validation": 5997,
      "627": 5998,
      "Ġmore": 5999,
      "volume": 6000,
      "\"/></": 6001,
      "&&(!": 6002,
      "Family": 6003,
      "plain": 6004,
      "ĠWe": 6005,
      "dArray": 6006,
      "Hours": 6007,
      "Groups": 6008,
      "iting": 6009,
      "237": 6010,
      "ä¹": 6011,
      "lineTo": 6012,
      "lendar": 6013,
      "inal": 6014,
      "Navigation": 6015,
      "bah": 6016,
      "Seconds": 6017,
      "Highlight": 6018,
      "dojo": 6019,
      "construct": 6020,
      "medium": 6021,
      "subject": 6022,
      "Word": 6023,
      "readyState": 6024,
      "10101010": 6025,
      "flush": 6026,
      "White": 6027,
      "Ġconsole": 6028,
      "Found": 6029,
      "Dt": 6030,
      "()===": 6031,
      "Ġexpression": 6032,
      "ced": 6033,
      "Failed": 6034,
      "FA": 6035,
      ">',": 6036,
      "tor": 6037,
      "uate": 6038,
      ")/,": 6039,
      "768": 6040,
      "Ġmanusia": 6041,
      "getDate": 6042,
      "Vertical": 6043,
      "Ġafter": 6044,
      "QAA": 6045,
      "comments": 6046,
      "land": 6047,
      "titude": 6048,
      "SELE": 6049,
      "153": 6050,
      "----------------": 6051,
      "Ġbag": 6052,
      "vr": 6053,
      "getAll": 6054,
      "gICAgICAgICAgICAg": 6055,
      "ĠÙĦ": 6056,
      "greg": 6057,
      "éĩ": 6058,
      "Ġany": 6059,
      "\"],[[": 6060,
      "Constra": 6061,
      "arm": 6062,
      "Img": 6063,
      "Vk": 6064,
      "finity": 6065,
      "173": 6066,
      "bed": 6067,
      "Strict": 6068,
      "fromCharCode": 6069,
      "cha": 6070,
      "__,__": 6071,
      "mr": 6072,
      "ÏĦ": 6073,
      ",,,,,,,,": 6074,
      "062": 6075,
      "('_": 6076,
      "__);": 6077,
      "ĠÑģ": 6078,
      "decimal": 6079,
      "anner": 6080,
      "Ġprocess": 6081,
      "])[": 6082,
      "FAI": 6083,
      "demo": 6084,
      "Ġmem": 6085,
      "Jt": 6086,
      "callbacks": 6087,
      "Mar": 6088,
      "toFixed": 6089,
      "249": 6090,
      "PlainObject": 6091,
      "Sum": 6092,
      "å±": 6093,
      "Ġdire": 6094,
      "nn": 6095,
      "ys": 6096,
      "ddd": 6097,
      "curve": 6098,
      "deepEqual": 6099,
      "removeAttr": 6100,
      "fit": 6101,
      "hljs": 6102,
      "({'": 6103,
      "Ġglobal": 6104,
      "Fail": 6105,
      "definition": 6106,
      "hours": 6107,
      "may": 6108,
      ",\"_": 6109,
      "character": 6110,
      "effects": 6111,
      "pdf": 6112,
      "batch": 6113,
      "nc": 6114,
      "isIn": 6115,
      "Hg": 6116,
      "separator": 6117,
      "ĠNumber": 6118,
      "Flag": 6119,
      "\",{\"": 6120,
      "Zl": 6121,
      "setting": 6122,
      "touches": 6123,
      "Ġusing": 6124,
      "ceived": 6125,
      "Zt": 6126,
      "+'</": 6127,
      "è®": 6128,
      "originalEvent": 6129,
      "havior": 6130,
      "Ãº": 6131,
      "tis": 6132,
      "246": 6133,
      "outerHeight": 6134,
      "306": 6135,
      "onload": 6136,
      "Footer": 6137,
      "Double": 6138,
      "ZXJ": 6139,
      "statusCode": 6140,
      "Ġversion": 6141,
      "244": 6142,
      "agraph": 6143,
      "TIME": 6144,
      "Cam": 6145,
      "æ²": 6146,
      "slots": 6147,
      "WF": 6148,
      "getComputed": 6149,
      "Bw": 6150,
      "uv": 6151,
      "UL": 6152,
      "cei": 6153,
      "--;)": 6154,
      "Socket": 6155,
      "+\"</": 6156,
      "iso": 6157,
      "(...": 6158,
      "ĠĠĠĠĠĠĠĠĠĠĠĠĠĠĠĠĠ": 6159,
      "heading": 6160,
      "big": 6161,
      "Gr": 6162,
      "Pending": 6163,
      "supported": 6164,
      "]==": 6165,
      "pull": 6166,
      "\">'+": 6167,
      ">)}": 6168,
      ".$.": 6169,
      "licit": 6170,
      "Ġmember": 6171,
      "npm": 6172,
      "\"]);": 6173,
      "iteral": 6174,
      "vars": 6175,
      "orth": 6176,
      "444": 6177,
      "publish": 6178,
      "conf": 6179,
      "Adapter": 6180,
      "2016": 6181,
      "Face": 6182,
      "Err": 6183,
      "features": 6184,
      "offsets": 6185,
      "ifest": 6186,
      "componentDid": 6187,
      "qr": 6188,
      "rol": 6189,
      "orientation": 6190,
      "aran": 6191,
      "ï¿½ï¿½ï¿½ï¿½ï¿½ï¿½ï¿½ï¿½ï¿½ï¿½ï¿½ï¿½ï¿½ï¿½ï¿½ï¿½": 6192,
      "bounce": 6193,
      "Ġfe": 6194,
      "Contact": 6195,
      "ello": 6196,
      "CS": 6197,
      "×ķ": 6198,
      "gradient": 6199,
      "ALL": 6200,
      "maining": 6201,
      "keyboard": 6202,
      "team": 6203,
      "fold": 6204,
      "Ġparams": 6205,
      "2018": 6206,
      "\"]),": 6207,
      ")}};": 6208,
      "effectTag": 6209,
      "swal": 6210,
      "Ġdefine": 6211,
      "uth": 6212,
      "Ġempty": 6213,
      "BI": 6214,
      "bid": 6215,
      "nel": 6216,
      "Clip": 6217,
      "rn": 6218,
      "([\\": 6219,
      "DR": 6220,
      "mousemove": 6221,
      "299": 6222,
      "cture": 6223,
      "aw": 6224,
      "Pag": 6225,
      "rences": 6226,
      "zier": 6227,
      ":'<": 6228,
      "imple": 6229,
      "Ã¶": 6230,
      "getFullYear": 6231,
      "260": 6232,
      "emp": 6233,
      "Fu": 6234,
      "buil": 6235,
      "Ġ...": 6236,
      "Ġmake": 6237,
      "river": 6238,
      "PC": 6239,
      "Opts": 6240,
      "trace": 6241,
      "Mt": 6242,
      "'),'": 6243,
      "Hi": 6244,
      "Unknown": 6245,
      "+\"'": 6246,
      ">,": 6247,
      "where": 6248,
      "328": 6249,
      "rd": 6250,
      "isOpen": 6251,
      "Ø§ÙĨ": 6252,
      "212": 6253,
      "307": 6254,
      "Ġmemp": 6255,
      "cip": 6256,
      "Î¹": 6257,
      "ĠComponent": 6258,
      "kn": 6259,
      "},'": 6260,
      "Ġtemp": 6261,
      "Ġ\").": 6262,
      "?\"\":": 6263,
      "Dat": 6264,
      "Ġexpand": 6265,
      "getCurrent": 6266,
      "createText": 6267,
      "members": 6268,
      "âµ": 6269,
      "userId": 6270,
      "ðĿ": 6271,
      "uf": 6272,
      "Expi": 6273,
      "ific": 6274,
      "readable": 6275,
      "195": 6276,
      "/**": 6277,
      "called": 6278,
      "NUM": 6279,
      "\">\\": 6280,
      "crement": 6281,
      "Za": 6282,
      "Ġë": 6283,
      "stage": 6284,
      "Slider": 6285,
      "}(),": 6286,
      "Coord": 6287,
      "keep": 6288,
      "=\"[": 6289,
      "Tri": 6290,
      "NA": 6291,
      "kl": 6292,
      "compress": 6293,
      "Mapping": 6294,
      "lision": 6295,
      "748": 6296,
      ">';": 6297,
      "DY": 6298,
      "Ġhtml": 6299,
      ">/": 6300,
      "Bv": 6301,
      "supports": 6302,
      "161": 6303,
      "install": 6304,
      ",,\"": 6305,
      "151": 6306,
      "Percent": 6307,
      "'m": 6308,
      "undo": 6309,
      "SITION": 6310,
      "Ġdiv": 6311,
      "snap": 6312,
      "Ny": 6313,
      "Validation": 6314,
      "GR": 6315,
      "ĠÙģ": 6316,
      "gui": 6317,
      "åº": 6318,
      "Ġsuper": 6319,
      "gly": 6320,
      "umbn": 6321,
      "Ġag": 6322,
      "TRAN": 6323,
      "superClass": 6324,
      "Messages": 6325,
      "hn": 6326,
      "197": 6327,
      "Constraint": 6328,
      "='<": 6329,
      "DT": 6330,
      "Ġfunc": 6331,
      "nextTick": 6332,
      "newValue": 6333,
      "annya": 6334,
      "umbnail": 6335,
      "flip": 6336,
      "EL": 6337,
      "Ø°": 6338,
      ">\",": 6339,
      "223": 6340,
      "(?!": 6341,
      ":/^": 6342,
      "ligh": 6343,
      "oneOf": 6344,
      "Ġ',": 6345,
      "Ġalign": 6346,
      "toJSON": 6347,
      "Book": 6348,
      "Ġserver": 6349,
      "247": 6350,
      "BF": 6351,
      "faces": 6352,
      "='+": 6353,
      "Calendar": 6354,
      "available": 6355,
      "times": 6356,
      "zs": 6357,
      "Deferred": 6358,
      "Batch": 6359,
      "twitter": 6360,
      "pZ": 6361,
      "217": 6362,
      "Ji": 6363,
      "sprite": 6364,
      "EF": 6365,
      "timeline": 6366,
      "Ġscale": 6367,
      "topic": 6368,
      "Previous": 6369,
      "ĠÙĬ": 6370,
      "/@": 6371,
      "Into": 6372,
      "Ġlo": 6373,
      "Cls": 6374,
      "encodeURIComponent": 6375,
      "ITY": 6376,
      "inside": 6377,
      "DS": 6378,
      "Reset": 6379,
      "ĠĠĠĠĠĠĠĠĠĠĠĠĠĠĠĠĠĠĠĠĠĠĠĠĠĠĠ": 6380,
      "Ġadalah": 6381,
      "Ġclient": 6382,
      "309": 6383,
      "seconds": 6384,
      "Placeholder": 6385,
      "lap": 6386,
      "__(\"": 6387,
      "Ġimport": 6388,
      "cheme": 6389,
      "Polygon": 6390,
      "orting": 6391,
      "More": 6392,
      "Mobile": 6393,
      "Da": 6394,
      "units": 6395,
      "LP": 6396,
      ",\"$": 6397,
      "Admin": 6398,
      "Ee": 6399,
      "iling": 6400,
      "CESS": 6401,
      "getParent": 6402,
      "Ġoleh": 6403,
      "Attrs": 6404,
      "getOwnPropertySymbols": 6405,
      "commands": 6406,
      "arc": 6407,
      "tah": 6408,
      "answ": 6409,
      "ANG": 6410,
      ";});}": 6411,
      "services": 6412,
      "Ã§": 6413,
      "lent": 6414,
      "[]+": 6415,
      "295": 6416,
      "polate": 6417,
      "2019": 6418,
      "à¥į": 6419,
      ":\"-": 6420,
      "Ġmark": 6421,
      "Long": 6422,
      "isString": 6423,
      "]||\"": 6424,
      "/+": 6425,
      "{}": 6426,
      ")(?:": 6427,
      "213": 6428,
      "ply": 6429,
      "-'+": 6430,
      "outerWidth": 6431,
      "XF": 6432,
      "Ġrange": 6433,
      "Ġ44": 6434,
      "GAA": 6435,
      "future": 6436,
      "unknown": 6437,
      "fg": 6438,
      "ĠjQuery": 6439,
      "simple": 6440,
      ".\":\"": 6441,
      "Ġ42": 6442,
      "Shi": 6443,
      "Zv": 6444,
      "Hy": 6445,
      "NOT": 6446,
      "ATOR": 6447,
      "}))}": 6448,
      "Ġ\"'+": 6449,
      "adap": 6450,
      "Ð±": 6451,
      "Deep": 6452,
      "uDE": 6453,
      "){!": 6454,
      "fp": 6455,
      "ĠÐ¿": 6456,
      "/=": 6457,
      "Ġinit": 6458,
      "àµ": 6459,
      "endor": 6460,
      "Ġaga": 6461,
      "ĠApp": 6462,
      "ism": 6463,
      "Ġoutput": 6464,
      "Ġicon": 6465,
      "à«": 6466,
      "yo": 6467,
      "illiseconds": 6468,
      "Ġmat": 6469,
      "wrapped": 6470,
      "chrome": 6471,
      "iterable": 6472,
      "EventEmitter": 6473,
      "ensor": 6474,
      "ĠThis": 6475,
      "startTime": 6476,
      "Ġfetch": 6477,
      "mag": 6478,
      "Merge": 6479,
      "seed": 6480,
      "pu": 6481,
      "getMonth": 6482,
      "cmp": 6483,
      "350": 6484,
      "576": 6485,
      ";--": 6486,
      "getUTC": 6487,
      "Allow": 6488,
      "Owner": 6489,
      "Priority": 6490,
      "æł": 6491,
      "ince": 6492,
      "à¸Ļ": 6493,
      "Ġgener": 6494,
      "maxWidth": 6495,
      "fullscreen": 6496,
      "sur": 6497,
      "inya": 6498,
      "}))": 6499,
      "IDE": 6500,
      ")((": 6501,
      "Assert": 6502,
      "wc": 6503,
      "();\\": 6504,
      "ynamic": 6505,
      "Scal": 6506,
      "Ġsupported": 6507,
      "dependencies": 6508,
      "question": 6509,
      "Hex": 6510,
      "STRING": 6511,
      "ICAgICAgICB": 6512,
      "Jj": 6513,
      "prepare": 6514,
      "ny": 6515,
      "returns": 6516,
      "AFAAU": 6517,
      "True": 6518,
      "Public": 6519,
      "Contents": 6520,
      "fri": 6521,
      "alk": 6522,
      "640": 6523,
      "USER": 6524,
      "Layers": 6525,
      "Reduc": 6526,
      "OUT": 6527,
      "Buttons": 6528,
      "precision": 6529,
      "åĨ": 6530,
      "Ð³": 6531,
      "Ïģ": 6532,
      "DELETE": 6533,
      ")];": 6534,
      "()*": 6535,
      "lize": 6536,
      "])&&(": 6537,
      "Ġro": 6538,
      "Yg": 6539,
      "--)": 6540,
      "Gu": 6541,
      "exists": 6542,
      "sinon": 6543,
      "('../../": 6544,
      "VALID": 6545,
      "orter": 6546,
      "':'\\": 6547,
      "DC": 6548,
      "kk": 6549,
      "xb": 6550,
      "defaultProps": 6551,
      "ĠWM": 6552,
      "rf": 6553,
      "ĠNo": 6554,
      "Ð¾Ð²": 6555,
      "');},": 6556,
      "phi": 6557,
      "}/></": 6558,
      "áŁ": 6559,
      "Big": 6560,
      "vertices": 6561,
      "Ġthan": 6562,
      ",\\\"": 6563,
      "Ġselected": 6564,
      "012": 6565,
      "Fz": 6566,
      "pot": 6567,
      "unded": 6568,
      "Ġdefined": 6569,
      "nit": 6570,
      "Vj": 6571,
      "==(": 6572,
      "âĢĻ": 6573,
      "Ġhe": 6574,
      "ither": 6575,
      "}\"": 6576,
      "atsby": 6577,
      "336": 6578,
      "issue": 6579,
      "});\\": 6580,
      "fileName": 6581,
      "createClass": 6582,
      "ceiver": 6583,
      "));};": 6584,
      "cting": 6585,
      "elli": 6586,
      "YS": 6587,
      "ticky": 6588,
      "Zero": 6589,
      "templates": 6590,
      "ÑĪ": 6591,
      "wy": 6592,
      "master": 6593,
      "'<": 6594,
      "seq": 6595,
      "=/\\": 6596,
      "PU": 6597,
      "summary": 6598,
      "Once": 6599,
      "mesh": 6600,
      "dispatchEvent": 6601,
      "KF": 6602,
      "Refresh": 6603,
      "oi": 6604,
      "Safe": 6605,
      "CR": 6606,
      "Counter": 6607,
      "Engine": 6608,
      "?!./": 6609,
      "toggleClass": 6610,
      "sect": 6611,
      "Detail": 6612,
      "Ok": 6613,
      "oa": 6614,
      "Rest": 6615,
      "bX": 6616,
      "193": 6617,
      "Ġerr": 6618,
      "]});": 6619,
      "tabIndex": 6620,
      "Home": 6621,
      "278": 6622,
      "Fk": 6623,
      "Ġlang": 6624,
      "Namespace": 6625,
      "Bits": 6626,
      "basic": 6627,
      "Ak": 6628,
      "Scene": 6629,
      "Network": 6630,
      "Cr": 6631,
      ")&": 6632,
      "CN": 6633,
      "ROW": 6634,
      "mad": 6635,
      "plus": 6636,
      "ĠRE": 6637,
      "257": 6638,
      ".');}": 6639,
      "259": 6640,
      "Controls": 6641,
      "='#": 6642,
      "past": 6643,
      "polygon": 6644,
      "183": 6645,
      "trait": 6646,
      "305": 6647,
      "Ġax": 6648,
      "Ġinvalid": 6649,
      "Ġsp": 6650,
      "deps": 6651,
      "Ġ45": 6652,
      "thumb": 6653,
      "Ġinst": 6654,
      "corner": 6655,
      "\">{": 6656,
      "share": 6657,
      "marginTop": 6658,
      "ADD": 6659,
      "rank": 6660,
      "],!": 6661,
      "anch": 6662,
      "(){};": 6663,
      "trics": 6664,
      "Prev": 6665,
      "':['": 6666,
      "defer": 6667,
      ",\"\"],": 6668,
      "æĿ": 6669,
      "fake": 6670,
      "()):": 6671,
      "ric": 6672,
      "ym": 6673,
      "more": 6674,
      "gc": 6675,
      "removeListener": 6676,
      "253": 6677,
      "ToArray": 6678,
      "è¾": 6679,
      "Ġaction": 6680,
      "unstable": 6681,
      "258": 6682,
      "ather": 6683,
      "builder": 6684,
      "Ġalready": 6685,
      "crypt": 6686,
      "Ġtab": 6687,
      "Ġthrow": 6688,
      "sources": 6689,
      "thead": 6690,
      "Å¡": 6691,
      "Validator": 6692,
      "Ġ\"),_": 6693,
      "Ġbefore": 6694,
      "staticRenderFns": 6695,
      "hd": 6696,
      "\",\"+": 6697,
      "Am": 6698,
      "]],[\"": 6699,
      "Io": 6700,
      "folder": 6701,
      "Ġorder": 6702,
      "'\\": 6703,
      "Ñħ": 6704,
      "]||{": 6705,
      "Strategy": 6706,
      "marginLeft": 6707,
      "Ġexp": 6708,
      "Flags": 6709,
      "162": 6710,
      "Rotation": 6711,
      "Ta": 6712,
      "EQ": 6713,
      "START": 6714,
      "&&_": 6715,
      "\")}}": 6716,
      "override": 6717,
      "Poly": 6718,
      "pet": 6719,
      "Inline": 6720,
      "LINE": 6721,
      "Program": 6722,
      "cret": 6723,
      "Filters": 6724,
      "Lng": 6725,
      "ons": 6726,
      "skin": 6727,
      "connected": 6728,
      "Ġitems": 6729,
      "-%": 6730,
      "Bt": 6731,
      "arity": 6732,
      "pret": 6733,
      ")||\"": 6734,
      "Ġnow": 6735,
      "always": 6736,
      "(\\\\": 6737,
      "|[": 6738,
      "IR": 6739,
      "onError": 6740,
      "ica": 6741,
      "fu": 6742,
      "Ye": 6743,
      "Stats": 6744,
      "utor": 6745,
      "UInt": 6746,
      "tected": 6747,
      "ina": 6748,
      "^^^^": 6749,
      ")!=": 6750,
      "pie": 6751,
      "missions": 6752,
      "\"]],": 6753,
      "FORM": 6754,
      "slug": 6755,
      "TW": 6756,
      "loaders": 6757,
      "orization": 6758,
      "Ġdelete": 6759,
      "CallCheck": 6760,
      "368": 6761,
      "inArray": 6762,
      "clock": 6763,
      "ditions": 6764,
      "unused": 6765,
      "Blocks": 6766,
      "}){": 6767,
      "monthsShort": 6768,
      "bS": 6769,
      "velop": 6770,
      "binary": 6771,
      "oSettings": 6772,
      "Ġ80": 6773,
      "Missing": 6774,
      "eries": 6775,
      "172": 6776,
      "internals": 6777,
      "Yy": 6778,
      "Fs": 6779,
      "riber": 6780,
      "AAAAAAAAAAAAAAAAAAAAAAAAAAAAAAAA": 6781,
      "Tokens": 6782,
      "Ur": 6783,
      ",_(": 6784,
      "TransitionEnd": 6785,
      "Fire": 6786,
      "chars": 6787,
      "ĠCK": 6788,
      "kah": 6789,
      "()}},": 6790,
      "Ġhasn": 6791,
      "minute": 6792,
      "ctual": 6793,
      "Ġother": 6794,
      "Watch": 6795,
      "357": 6796,
      "reload": 6797,
      "330": 6798,
      "getSelection": 6799,
      "toHave": 6800,
      "aries": 6801,
      "sizing": 6802,
      "Ġcom": 6803,
      "fy": 6804,
      "negative": 6805,
      "Circle": 6806,
      "lee": 6807,
      "Decor": 6808,
      "unch": 6809,
      "450": 6810,
      "Vud": 6811,
      "Transport": 6812,
      "270": 6813,
      "ä¸Ģ": 6814,
      "classCallCheck": 6815,
      "Alert": 6816,
      "265": 6817,
      "ita": 6818,
      "ÐµÑĢ": 6819,
      "Ġ96": 6820,
      "gges": 6821,
      "Jn": 6822,
      "éĻ": 6823,
      "}();": 6824,
      "Preview": 6825,
      "[[": 6826,
      "allet": 6827,
      "])/": 6828,
      "688": 6829,
      "æī": 6830,
      "coords": 6831,
      "Ġpr": 6832,
      ");}});}": 6833,
      "Curve": 6834,
      "feed": 6835,
      "BN": 6836,
      "Ie": 6837,
      ",});": 6838,
      "arator": 6839,
      "MAA": 6840,
      "xn": 6841,
      "Ay": 6842,
      "329": 6843,
      "Ġ60": 6844,
      "Ġ47": 6845,
      "Minutes": 6846,
      "Uri": 6847,
      "Ġcustom": 6848,
      "Ġlen": 6849,
      "indices": 6850,
      "QR": 6851,
      "come": 6852,
      "*!": 6853,
      "Et": 6854,
      "amd": 6855,
      "branch": 6856,
      "å¯": 6857,
      "Ð°ÑĢ": 6858,
      "numeric": 6859,
      "%\",": 6860,
      "Pair": 6861,
      "zero": 6862,
      "needs": 6863,
      "Contain": 6864,
      "Ġcannot": 6865,
      "isPlainObject": 6866,
      "Import": 6867,
      ");(": 6868,
      "Ġwhich": 6869,
      "ose": 6870,
      "endpoint": 6871,
      "}),\"": 6872,
      "cg": 6873,
      "CRE": 6874,
      "database": 6875,
      "Impl": 6876,
      "collapsed": 6877,
      "clientX": 6878,
      "getComputedStyle": 6879,
      "responsive": 6880,
      "virtual": 6881,
      "Ġexports": 6882,
      "vnd": 6883,
      "take": 6884,
      "viewBox": 6885,
      "kh": 6886,
      "mony": 6887,
      "FFER": 6888,
      "road": 6889,
      "hostname": 6890,
      "çĶ¨": 6891,
      "Il": 6892,
      "inf": 6893,
      "TS": 6894,
      "279": 6895,
      "303": 6896,
      "getText": 6897,
      "den": 6898,
      "bits": 6899,
      "adapter": 6900,
      "cloud": 6901,
      "Scrollbar": 6902,
      "Ġsta": 6903,
      "Zp": 6904,
      "Single": 6905,
      "Nr": 6906,
      "Ġchildren": 6907,
      "dGlv": 6908,
      ":[]}": 6909,
      ".\"),": 6910,
      "}/><": 6911,
      "}}}}": 6912,
      "zo": 6913,
      "LAY": 6914,
      "Tools": 6915,
      "andid": 6916,
      "+\",": 6917,
      ":\",": 6918,
      "Ġbrowser": 6919,
      "365": 6920,
      "bGL": 6921,
      "Folder": 6922,
      "Literal": 6923,
      "datetime": 6924,
      "2014": 6925,
      "wiki": 6926,
      "COMM": 6927,
      "Worker": 6928,
      "Ġmy": 6929,
      "Notification": 6930,
      "Expand": 6931,
      "circ": 6932,
      "stre": 6933,
      "two": 6934,
      "miss": 6935,
      "171": 6936,
      "TAG": 6937,
      "hu": 6938,
      "Infinity": 6939,
      "Tween": 6940,
      "×ķ×": 6941,
      "Editable": 6942,
      "sample": 6943,
      "unicode": 6944,
      "Enum": 6945,
      "merid": 6946,
      "Qi": 6947,
      "Ġscroll": 6948,
      ">&": 6949,
      "spinner": 6950,
      "ordinal": 6951,
      "agent": 6952,
      "Ġes": 6953,
      "Declaration": 6954,
      "UND": 6955,
      "xi": 6956,
      "Ġexpandable": 6957,
      ",[],\"": 6958,
      "iem": 6959,
      "customizer": 6960,
      "]\\\\": 6961,
      "SW": 6962,
      "Squ": 6963,
      "Methods": 6964,
      "ĠØ¹": 6965,
      "Ġav": 6966,
      "})=>{": 6967,
      "Ġatau": 6968,
      "Qo": 6969,
      "Overflow": 6970,
      "tric": 6971,
      "243": 6972,
      "')[": 6973,
      "keyup": 6974,
      "Ġmay": 6975,
      "decorators": 6976,
      "Self": 6977,
      "constraint": 6978,
      "IM": 6979,
      "Days": 6980,
      ")||!": 6981,
      "0430": 6982,
      "Ġcontain": 6983,
      "eslint": 6984,
      "mk": 6985,
      ")}.": 6986,
      "utc": 6987,
      "864": 6988,
      "fas": 6989,
      "ised": 6990,
      "analy": 6991,
      "ANGE": 6992,
      "hir": 6993,
      "ells": 6994,
      "sv": 6995,
      "ZT": 6996,
      "]}),": 6997,
      "bk": 6998,
      "jscomp": 6999,
      "Ġcase": 7000,
      "Ġday": 7001,
      "Parts": 7002,
      "erve": 7003,
      "bH": 7004,
      "Matches": 7005,
      "thentic": 7006,
      "='#!/": 7007,
      "LOG": 7008,
      "git": 7009,
      "amel": 7010,
      "344": 7011,
      "$/.": 7012,
      "Ġ!==": 7013,
      "bat": 7014,
      "280": 7015,
      "Ġnav": 7016,
      "Oe": 7017,
      "beforeEach": 7018,
      "graphy": 7019,
      "large": 7020,
      "Nt": 7021,
      ":'+": 7022,
      "ird": 7023,
      "--;": 7024,
      "nl": 7025,
      "$(\".": 7026,
      "uple": 7027,
      "--,": 7028,
      "Ip": 7029,
      "Zy": 7030,
      "];\\": 7031,
      "ticks": 7032,
      "Ry": 7033,
      "ellow": 7034,
      "Ġqu": 7035,
      "strip": 7036,
      "}>{": 7037,
      "bre": 7038,
      "ving": 7039,
      "ä¼": 7040,
      "){},": 7041,
      "/\"+": 7042,
      "lied": 7043,
      "QUnit": 7044,
      "aniti": 7045,
      "('+": 7046,
      "Ġ$.": 7047,
      "cel": 7048,
      "iness": 7049,
      "Ð°ÑĤ": 7050,
      "AFAAUABQ": 7051,
      "ĠFunction": 7052,
      "268": 7053,
      "181": 7054,
      "addListener": 7055,
      "nth": 7056,
      ";!": 7057,
      "',},{": 7058,
      "Ġmon": 7059,
      "workInProgress": 7060,
      "fixt": 7061,
      "None": 7062,
      "structure": 7063,
      "gai": 7064,
      "PM": 7065,
      "tabindex": 7066,
      "uDC": 7067,
      "&&!(": 7068,
      "Env": 7069,
      "Build": 7070,
      "352": 7071,
      ")==='": 7072,
      "242": 7073,
      "paste": 7074,
      "182": 7075,
      "Je": 7076,
      "need": 7077,
      "Ġopen": 7078,
      "fA": 7079,
      "Loop": 7080,
      ">');": 7081,
      "666": 7082,
      "Ġbuild": 7083,
      "401": 7084,
      "Viewport": 7085,
      "Ûķ": 7086,
      "[\"+": 7087,
      "Ġlain": 7088,
      "Ġmis": 7089,
      "Please": 7090,
      "]',": 7091,
      "har": 7092,
      "Ġfailed": 7093,
      "359": 7094,
      "}\",\"": 7095,
      "gd": 7096,
      "borderColor": 7097,
      "ungg": 7098,
      "getState": 7099,
      "ulator": 7100,
      "regexp": 7101,
      "pseudo": 7102,
      "IHtcbiAg": 7103,
      "=\"<": 7104,
      "Bit": 7105,
      "Bz": 7106,
      "ables": 7107,
      "Connect": 7108,
      "Ġge": 7109,
      "guard": 7110,
      "mong": 7111,
      "!==-": 7112,
      "Pages": 7113,
      "312": 7114,
      "Chain": 7115,
      "serted": 7116,
      "minutes": 7117,
      "cols": 7118,
      "Ð·": 7119,
      "æ±": 7120,
      "Î½": 7121,
      "ĠRef": 7122,
      "identity": 7123,
      "nu": 7124,
      "269": 7125,
      ":{};": 7126,
      "Ġ\"+(": 7127,
      "icrosoft": 7128,
      "Eval": 7129,
      "Ġmaka": 7130,
      "asset": 7131,
      ",\"-": 7132,
      "bus": 7133,
      "\",()=>{": 7134,
      "charset": 7135,
      "Bs": 7136,
      "Ctx": 7137,
      "[];": 7138,
      "Camera": 7139,
      "abc": 7140,
      "qe": 7141,
      "Shift": 7142,
      "BER": 7143,
      "Cookie": 7144,
      "uDD": 7145,
      "Ġmain": 7146,
      "CONT": 7147,
      "Ġfilter": 7148,
      "Ġparameter": 7149,
      "Blob": 7150,
      "\");}}": 7151,
      "Dig": 7152,
      "Ġcorrect": 7153,
      "filtered": 7154,
      "Ġcap": 7155,
      "Slots": 7156,
      "Enumerable": 7157,
      "Timeline": 7158,
      "Aa": 7159,
      "'):": 7160,
      "355": 7161,
      "Ki": 7162,
      "Months": 7163,
      "PR": 7164,
      "uhan": 7165,
      "ikan": 7166,
      "java": 7167,
      "(){_": 7168,
      "vation": 7169,
      "Qs": 7170,
      "Ùĭ": 7171,
      "Registry": 7172,
      "YT": 7173,
      "fice": 7174,
      "cssText": 7175,
      "anima": 7176,
      "Escape": 7177,
      "XHRcdFx": 7178,
      "]);}}": 7179,
      "finished": 7180,
      "qa": 7181,
      "Ġtry": 7182,
      "sat": 7183,
      "cv": 7184,
      "Ze": 7185,
      "480": 7186,
      "Äį": 7187,
      "]},\"": 7188,
      "Paths": 7189,
      "Ġxml": 7190,
      "Standard": 7191,
      "áĥĲ": 7192,
      "509": 7193,
      "jsonp": 7194,
      "filled": 7195,
      "Ue": 7196,
      "ubic": 7197,
      "inte": 7198,
      "Primitive": 7199,
      "99999999": 7200,
      ")/(": 7201,
      "468": 7202,
      "++;}": 7203,
      "notification": 7204,
      "+')": 7205,
      "LG": 7206,
      "minWidth": 7207,
      "nv": 7208,
      "æĹ¥": 7209,
      "ky": 7210,
      "kata": 7211,
      "Ġgroup": 7212,
      "was": 7213,
      "onerror": 7214,
      "Ġtsd": 7215,
      "pool": 7216,
      "Ġpen": 7217,
      "Dimensions": 7218,
      "ensure": 7219,
      "$_": 7220,
      "ĠDis": 7221,
      "469": 7222,
      "edges": 7223,
      "])),": 7224,
      "Dot": 7225,
      "290": 7226,
      "340": 7227,
      "activeElement": 7228,
      "objects": 7229,
      "ptr": 7230,
      "han": 7231,
      "WRAP": 7232,
      "jest": 7233,
      "secret": 7234,
      "':{'": 7235,
      "áĥĺ": 7236,
      "cbiAgICAgICAgICAgICAg": 7237,
      "zen": 7238,
      "NU": 7239,
      "gx": 7240,
      "Commit": 7241,
      "TEXTURE": 7242,
      "added": 7243,
      "Ġarr": 7244,
      "Rpb": 7245,
      "Serial": 7246,
      "phase": 7247,
      "sql": 7248,
      "496": 7249,
      "ĠJSON": 7250,
      "jan": 7251,
      "VS": 7252,
      "âķ": 7253,
      "Checkbox": 7254,
      "startsWith": 7255,
      "à¸²à¸": 7256,
      "Ġcount": 7257,
      "))}},": 7258,
      "Spacing": 7259,
      "rm": 7260,
      "åĩ": 7261,
      "Tex": 7262,
      "Second": 7263,
      "isBuffer": 7264,
      "_[": 7265,
      "ctrlKey": 7266,
      "Bub": 7267,
      "itory": 7268,
      "even": 7269,
      "326": 7270,
      "transport": 7271,
      "Uniform": 7272,
      "ÑĨ": 7273,
      "conver": 7274,
      "sitive": 7275,
      "656": 7276,
      "matcher": 7277,
      "offsetParent": 7278,
      "ĠCKEDITOR": 7279,
      "tached": 7280,
      "221": 7281,
      "Ġ255": 7282,
      "231": 7283,
      "iven": 7284,
      "pography": 7285,
      "AAAAA": 7286,
      "blog": 7287,
      "awa": 7288,
      "+\".": 7289,
      "Ju": 7290,
      "KeyDown": 7291,
      "Phone": 7292,
      "Ġpost": 7293,
      "wx": 7294,
      "Attach": 7295,
      "Ġmenjadi": 7296,
      "Ġ31": 7297,
      "EP": 7298,
      "vie": 7299,
      "\\/\\/": 7300,
      "signature": 7301,
      "Ġclear": 7302,
      ")\"": 7303,
      "variables": 7304,
      "Ġsearch": 7305,
      "íķ": 7306,
      "Nh": 7307,
      "456": 7308,
      "%,": 7309,
      "VERSION": 7310,
      "provide": 7311,
      "\\-": 7312,
      "Without": 7313,
      "Ġdat": 7314,
      "initions": 7315,
      "sdk": 7316,
      "Yt": 7317,
      "HttpRequest": 7318,
      "Character": 7319,
      "286": 7320,
      "OC": 7321,
      "QC": 7322,
      "UG": 7323,
      "))||": 7324,
      "amples": 7325,
      "Ø®": 7326,
      "ĠID": 7327,
      "267": 7328,
      "]>": 7329,
      ")*(": 7330,
      "ĠFloat": 7331,
      "toast": 7332,
      "viders": 7333,
      "æµ": 7334,
      "STAT": 7335,
      "scss": 7336,
      "277": 7337,
      "modified": 7338,
      "Reducer": 7339,
      "writer": 7340,
      "appear": 7341,
      ";}).": 7342,
      "letion": 7343,
      "]==='": 7344,
      "LOCK": 7345,
      "Íı": 7346,
      "luster": 7347,
      "iman": 7348,
      "INTER": 7349,
      "378": 7350,
      "touchstart": 7351,
      "Ġcache": 7352,
      "Ġwarn": 7353,
      "solid": 7354,
      "Lt": 7355,
      "fallback": 7356,
      "every": 7357,
      "æŃ": 7358,
      "gC": 7359,
      "DIS": 7360,
      "ordinate": 7361,
      "Tip": 7362,
      "}/>": 7363,
      "370": 7364,
      "464": 7365,
      "Ġmode": 7366,
      "ICAgIH": 7367,
      "ivu": 7368,
      "289": 7369,
      "emoji": 7370,
      "399": 7371,
      "leton": 7372,
      "Ġharmony": 7373,
      "297": 7374,
      "?.": 7375,
      "Ġtranslate": 7376,
      "Spy": 7377,
      "ÍıÍı": 7378,
      "+=(": 7379,
      "vb": 7380,
      "Ġdu": 7381,
      "person": 7382,
      "Rt": 7383,
      "flu": 7384,
      "à¼": 7385,
      "dk": 7386,
      "()'],['../": 7387,
      "ĠRange": 7388,
      "LCB": 7389,
      "Logger": 7390,
      "lc": 7391,
      "pn": 7392,
      "[^\\": 7393,
      "Dirty": 7394,
      "Ġactive": 7395,
      ")]=": 7396,
      "USE": 7397,
      "Qe": 7398,
      "ging": 7399,
      "interface": 7400,
      "aws": 7401,
      "getName": 7402,
      "388": 7403,
      "348": 7404,
      "369": 7405,
      "correct": 7406,
      ":\"ðŁ": 7407,
      "Slot": 7408,
      "ä¸Ń": 7409,
      "locals": 7410,
      "338": 7411,
      "å¾": 7412,
      "hit": 7413,
      "akMap": 7414,
      "categories": 7415,
      "crypto": 7416,
      "Ll": 7417,
      "\"/>": 7418,
      "IO": 7419,
      "tran": 7420,
      "clientWidth": 7421,
      "ĠÐ½": 7422,
      "èĩ": 7423,
      "('\\": 7424,
      "packages": 7425,
      "coded": 7426,
      "oooooooooooooooo": 7427,
      "LY": 7428,
      "atern": 7429,
      "square": 7430,
      "Ġstore": 7431,
      "Elm": 7432,
      "isActive": 7433,
      "Cells": 7434,
      "\"}},\"": 7435,
      "','ðŁ": 7436,
      "alan": 7437,
      "android": 7438,
      "ĠMus": 7439,
      "æ³": 7440,
      "Two": 7441,
      ")&&\"": 7442,
      "Ġspecified": 7443,
      "{\\": 7444,
      "]&": 7445,
      "Pane": 7446,
      "Ġcontainer": 7447,
      "Ġresults": 7448,
      "298": 7449,
      "scripten": 7450,
      "Ġcell": 7451,
      "QE": 7452,
      "states": 7453,
      "Fl": 7454,
      "mime": 7455,
      "nX": 7456,
      "ency": 7457,
      "287": 7458,
      "\");});": 7459,
      "double": 7460,
      "illa": 7461,
      "Supported": 7462,
      "çĽ": 7463,
      "0627": 7464,
      "Ġak": 7465,
      "Units": 7466,
      "Export": 7467,
      "Indent": 7468,
      "Ø²": 7469,
      ">(": 7470,
      "cov": 7471,
      "gatsby": 7472,
      "Heading": 7473,
      "ification": 7474,
      "Replace": 7475,
      "clientHeight": 7476,
      "Ġbox": 7477,
      "Translate": 7478,
      "Ġwrite": 7479,
      "Ġrole": 7480,
      "Ot": 7481,
      "AST": 7482,
      "SELECT": 7483,
      "\",},": 7484,
      "SK": 7485,
      "lineWidth": 7486,
      "ost": 7487,
      "Ġpi": 7488,
      "334": 7489,
      "mouseover": 7490,
      "/\\": 7491,
      "Ġsome": 7492,
      "349": 7493,
      "@@@@": 7494,
      "266": 7495,
      "advance": 7496,
      "408": 7497,
      "scal": 7498,
      "(((": 7499,
      "dion": 7500,
      "405": 7501,
      "ZGV": 7502,
      "ICA": 7503,
      "pg": 7504,
      "nested": 7505,
      "609": 7506,
      "\"../": 7507,
      "OO": 7508,
      "|(": 7509,
      "å½": 7510,
      ",[[": 7511,
      "()&&(": 7512,
      "Sur": 7513,
      "Ġorigin": 7514,
      "scrollTo": 7515,
      "targets": 7516,
      "ĠÐ²": 7517,
      "291": 7518,
      "Sequence": 7519,
      "thisArg": 7520,
      "Split": 7521,
      "Done": 7522,
      "367": 7523,
      "2013": 7524,
      "Endpoint": 7525,
      "608": 7526,
      "LOAD": 7527,
      "{$": 7528,
      "clientY": 7529,
      "à¸Ń": 7530,
      "//#": 7531,
      "Ġint": 7532,
      "eli": 7533,
      "Setting": 7534,
      "Slice": 7535,
      "pread": 7536,
      "Az": 7537,
      "buff": 7538,
      "Ġapa": 7539,
      "UB": 7540,
      "ases": 7541,
      "KAA": 7542,
      "Throw": 7543,
      "aternion": 7544,
      "Begin": 7545,
      "à¹Ī": 7546,
      "PORT": 7547,
      "sist": 7548,
      "impl": 7549,
      "Readable": 7550,
      "tasks": 7551,
      "{-": 7552,
      "347": 7553,
      "IB": 7554,
      "Private": 7555,
      "AAAAAA": 7556,
      "Ġresolve": 7557,
      "Ġ\");": 7558,
      "PATH": 7559,
      "xC": 7560,
      "WebGL": 7561,
      "')?": 7562,
      "Stroke": 7563,
      "389": 7564,
      "Keyboard": 7565,
      "meridiem": 7566,
      "}}(": 7567,
      "ned": 7568,
      "DateFormat": 7569,
      "æķ°": 7570,
      "339": 7571,
      "Ġeither": 7572,
      "Transfer": 7573,
      "sume": 7574,
      ");});};": 7575,
      "Modified": 7576,
      "fast": 7577,
      "294": 7578,
      "Exit": 7579,
      "dashboard": 7580,
      "{_": 7581,
      "getChild": 7582,
      "relativeTime": 7583,
      "Ġclose": 7584,
      "xlink": 7585,
      "qs": 7586,
      "getter": 7587,
      "ZSB": 7588,
      "Simple": 7589,
      "ranges": 7590,
      "rain": 7591,
      "285": 7592,
      "ĠØª": 7593,
      "pen": 7594,
      "Wt": 7595,
      "}>": 7596,
      "Ġstatus": 7597,
      "instanceof": 7598,
      ";&": 7599,
      "cordion": 7600,
      ")),\"": 7601,
      "');};": 7602,
      "ä¿": 7603,
      "Delegate": 7604,
      "cblx": 7605,
      "readonly": 7606,
      "ared": 7607,
      "responseText": 7608,
      "=$('#": 7609,
      "angkan": 7610,
      "uite": 7611,
      "385": 7612,
      "505": 7613,
      "lk": 7614,
      "376": 7615,
      ";},_": 7616,
      "Org": 7617,
      "DOWN": 7618,
      "){$.": 7619,
      "isDefault": 7620,
      "Ġ'\"+": 7621,
      "Sprite": 7622,
      "rootScope": 7623,
      "KEN": 7624,
      "internalType": 7625,
      "ĠĠĠĠĠĠ": 7626,
      "ArrayBuffer": 7627,
      "observe": 7628,
      "Ġhttp": 7629,
      "808": 7630,
      "Md": 7631,
      "Fj": 7632,
      "Basic": 7633,
      "397": 7634,
      "\"]').": 7635,
      "mac": 7636,
      "ond": 7637,
      "(\",": 7638,
      "tifications": 7639,
      "uFF": 7640,
      "longitude": 7641,
      "ĠAn": 7642,
      "Ġpromise": 7643,
      "....": 7644,
      "]<": 7645,
      "Random": 7646,
      "ãģ®": 7647,
      "Ġtool": 7648,
      "={}),": 7649,
      "Ã£": 7650,
      "freeze": 7651,
      "resume": 7652,
      "Ġ==": 7653,
      "alu": 7654,
      "379": 7655,
      "Ġpara": 7656,
      "]._": 7657,
      "weekdaysShort": 7658,
      "}/{": 7659,
      "301": 7660,
      "Ġfs": 7661,
      "mixins": 7662,
      "è´": 7663,
      "Platform": 7664,
      "315": 7665,
      "iod": 7666,
      "ratio": 7667,
      "Stru": 7668,
      "mooth": 7669,
      "=[]": 7670,
      "relatedTarget": 7671,
      "Ġ56": 7672,
      "ammad": 7673,
      "Pagin": 7674,
      "sep": 7675,
      "æĶ": 7676,
      "ring": 7677,
      "tur": 7678,
      "oid": 7679,
      "FileSync": 7680,
      "Abo": 7681,
      "çī": 7682,
      "about": 7683,
      "\":\"+": 7684,
      "COLOR": 7685,
      "\",_": 7686,
      "pur": 7687,
      "performance": 7688,
      "ungguh": 7689,
      "INDE": 7690,
      "Ġ00": 7691,
      "Ġmodel": 7692,
      "Ġhttps": 7693,
      "Stri": 7694,
      "Dev": 7695,
      "ZM": 7696,
      "ips": 7697,
      "scr": 7698,
      "pect": 7699,
      "forms": 7700,
      "normalized": 7701,
      "Fullscreen": 7702,
      "Rendering": 7703,
      "Gt": 7704,
      "irect": 7705,
      "isRe": 7706,
      "251": 7707,
      "=\\": 7708,
      "Helpers": 7709,
      "eral": 7710,
      "));},": 7711,
      "Wa": 7712,
      "useEffect": 7713,
      "(\"@": 7714,
      "May": 7715,
      "Ġinher": 7716,
      "'></": 7717,
      "existing": 7718,
      "Ġregis": 7719,
      "operations": 7720,
      "voice": 7721,
      "504": 7722,
      "hb": 7723,
      "ĠCh": 7724,
      "Ġmend": 7725,
      "contract": 7726,
      "weekdaysMin": 7727,
      "aving": 7728,
      ");__": 7729,
      "OF": 7730,
      "358": 7731,
      "();}};": 7732,
      "Ġnum": 7733,
      "latitude": 7734,
      "flash": 7735,
      "acters": 7736,
      "Xe": 7737,
      "esm": 7738,
      "verage": 7739,
      "===-": 7740,
      "pid": 7741,
      "ov": 7742,
      "emscripten": 7743,
      "ĠCon": 7744,
      "LEN": 7745,
      "\":\"/": 7746,
      "swap": 7747,
      "Equals": 7748,
      ";\\\\": 7749,
      "Fetch": 7750,
      "%=": 7751,
      "Ġà®": 7752,
      "tests": 7753,
      "cart": 7754,
      "resizable": 7755,
      "dz": 7756,
      "ĠData": 7757,
      "photo": 7758,
      "686": 7759,
      "Package": 7760,
      "selectAll": 7761,
      "Encoding": 7762,
      ")({},": 7763,
      "/'+": 7764,
      "Strings": 7765,
      "Ġstatic": 7766,
      "pars": 7767,
      "æĭ": 7768,
      "ç§": 7769,
      "addr": 7770,
      "rb": 7771,
      "isFinite": 7772,
      "evaluate": 7773,
      "Ġ/*": 7774,
      "Expan": 7775,
      "__,": 7776,
      "KT": 7777,
      "|$": 7778,
      "},{}],": 7779,
      "ĠÎ": 7780,
      "Features": 7781,
      "DA": 7782,
      "){}}": 7783,
      "PX": 7784,
      "RIGHT": 7785,
      "velocity": 7786,
      "oci": 7787,
      "10000": 7788,
      "redux": 7789,
      "sortable": 7790,
      "eg": 7791,
      ">\";": 7792,
      "but": 7793,
      "]:[": 7794,
      "Ð¹": 7795,
      "Ð¸Ð½": 7796,
      "uhammad": 7797,
      "AFE": 7798,
      "}},[": 7799,
      "cade": 7800,
      "Configuration": 7801,
      "exist": 7802,
      "Numeric": 7803,
      "latest": 7804,
      "DQ": 7805,
      "fm": 7806,
      "Ajax": 7807,
      "Indicator": 7808,
      "lis": 7809,
      "agram": 7810,
      "))};": 7811,
      "selectors": 7812,
      "Now": 7813,
      "mixin": 7814,
      "302": 7815,
      "Updates": 7816,
      "mapping": 7817,
      "getNode": 7818,
      "perti": 7819,
      "BS": 7820,
      "Ġaccess": 7821,
      "Bad": 7822,
      "()/": 7823,
      "745": 7824,
      "palette": 7825,
      "updateQueue": 7826,
      "ĠIf": 7827,
      "article": 7828,
      "Gen": 7829,
      "Ġclick": 7830,
      "Ġsuccess": 7831,
      "dayOf": 7832,
      "steps": 7833,
      "vision": 7834,
      "period": 7835,
      "implement": 7836,
      "],\\": 7837,
      "Ġvi": 7838,
      "||[],": 7839,
      "));}}": 7840,
      "selectedIndex": 7841,
      "Ġopacity": 7842,
      "Ġmx": 7843,
      "Ali": 7844,
      "Ġ,": 7845,
      "Qn": 7846,
      "composition": 7847,
      "answer": 7848,
      "Formatter": 7849,
      "mulate": 7850,
      "night": 7851,
      "vated": 7852,
      "BX": 7853,
      "Ġpoint": 7854,
      "354": 7855,
      "swipe": 7856,
      "coord": 7857,
      "(\"-": 7858,
      "sti": 7859,
      "__,\"": 7860,
      "Resources": 7861,
      "bezier": 7862,
      "')+'": 7863,
      "autocomplete": 7864,
      "createTextNode": 7865,
      "Dynamic": 7866,
      "337": 7867,
      "Ka": 7868,
      "uro": 7869,
      "ÛĹ": 7870,
      "\",\".": 7871,
      "Ġcla": 7872,
      "HTTP": 7873,
      "Ã¥": 7874,
      "Entries": 7875,
      "=({": 7876,
      "ocused": 7877,
      "Coords": 7878,
      "fontWeight": 7879,
      "odd": 7880,
      "Ïĥ": 7881,
      "Positions": 7882,
      "blocks": 7883,
      "localhost": 7884,
      "nativeEvent": 7885,
      "008": 7886,
      "ĊĠĠĠĠĠĠĠĠĠĠĠĠĠ": 7887,
      "ĠBuffer": 7888,
      "bas": 7889,
      "kin": 7890,
      "subtract": 7891,
      "uman": 7892,
      "Ġrequire": 7893,
      "optim": 7894,
      "mc": 7895,
      "Ġapi": 7896,
      "ECT": 7897,
      ".');": 7898,
      "=${": 7899,
      "Application": 7900,
      "jw": 7901,
      "Eg": 7902,
      "mbre": 7903,
      "dataSource": 7904,
      "Ġevents": 7905,
      "formatter": 7906,
      "DP": 7907,
      "\":_": 7908,
      "Ġbaik": 7909,
      "keywords": 7910,
      "Updated": 7911,
      "=()=>": 7912,
      "409": 7913,
      "changes": 7914,
      "Else": 7915,
      "]+=": 7916,
      "datat": 7917,
      "CU": 7918,
      "Directory": 7919,
      "nr": 7920,
      "Ranges": 7921,
      "Holder": 7922,
      "+='<": 7923,
      "outputs": 7924,
      "ends": 7925,
      "Ġpol": 7926,
      "377": 7927,
      "Mirror": 7928,
      "Ġattribute": 7929,
      "ISO": 7930,
      "Iy": 7931,
      "346": 7932,
      "kw": 7933,
      "|\\\\": 7934,
      ":'%": 7935,
      ",{},": 7936,
      "FILE": 7937,
      "tection": 7938,
      "Linear": 7939,
      "\",[[\"": 7940,
      "Ja": 7941,
      "678": 7942,
      "LLLL": 7943,
      "lan": 7944,
      "Ġbar": 7945,
      "grey": 7946,
      "autoplay": 7947,
      "ARD": 7948,
      "entities": 7949,
      "bitmask": 7950,
      "isNumber": 7951,
      "(){\"": 7952,
      "++];": 7953,
      "maybe": 7954,
      "\":!": 7955,
      "Bra": 7956,
      "dah": 7957,
      "313": 7958,
      ">\").": 7959,
      "ripple": 7960,
      "Ġtemplate": 7961,
      "thenti": 7962,
      "contentType": 7963,
      "dif": 7964,
      "Links": 7965,
      "éĹ": 7966,
      "Va": 7967,
      "emitter": 7968,
      "Ġbind": 7969,
      "suffix": 7970,
      "Multiple": 7971,
      "lier": 7972,
      ",},{": 7973,
      "578": 7974,
      "onclick": 7975,
      "xA": 7976,
      "Push": 7977,
      "Relative": 7978,
      "à¹Ģ": 7979,
      "},},": 7980,
      ")))}": 7981,
      "textAlign": 7982,
      "Ġsw": 7983,
      "paper": 7984,
      "scrollHeight": 7985,
      "endif": 7986,
      "vn": 7987,
      "Ġ256": 7988,
      "BG": 7989,
      "hind": 7990,
      "lw": 7991,
      "556": 7992,
      "Support": 7993,
      "sass": 7994,
      "335": 7995,
      "åŁ": 7996,
      "ĠReflect": 7997,
      "zn": 7998,
      "vL": 7999,
      "=[].": 8000,
      "272": 8001,
      "));});": 8002,
      "Tabs": 8003,
      "PA": 8004,
      "mouseleave": 8005,
      "Iterate": 8006,
      "bx": 8007,
      "Ġ49": 8008,
      "urse": 8009,
      "2012": 8010,
      "ORY": 8011,
      "406": 8012,
      "||_": 8013,
      "ife": 8014,
      "Ġmove": 8015,
      "Ġwrapper": 8016,
      "fon": 8017,
      "Records": 8018,
      "à³": 8019,
      "Mn": 8020,
      "atom": 8021,
      "))+": 8022,
      "2009": 8023,
      "é¡": 8024,
      "508": 8025,
      "scripts": 8026,
      "ÉµÉµ": 8027,
      "?_": 8028,
      "getContext": 8029,
      "sig": 8030,
      "){$(": 8031,
      "Scalar": 8032,
      "284": 8033,
      "âĢĿ": 8034,
      "\"@": 8035,
      "linked": 8036,
      ">'+'<": 8037,
      "Codes": 8038,
      "INVALID": 8039,
      "])*": 8040,
      "wallet": 8041,
      "Ġgo": 8042,
      "Py": 8043,
      "648": 8044,
      "uspense": 8045,
      "lastIndexOf": 8046,
      "activity": 8047,
      "leaf": 8048,
      "ÙĳÙ°": 8049,
      "BT": 8050,
      "Credentials": 8051,
      "tm": 8052,
      "vendor": 8053,
      "à¹Ĵ": 8054,
      "Gradient": 8055,
      "Bus": 8056,
      "ario": 8057,
      "elems": 8058,
      "paused": 8059,
      "!./": 8060,
      "Qy": 8061,
      "Redirect": 8062,
      "Ġbagi": 8063,
      "Dependency": 8064,
      "Images": 8065,
      "removed": 8066,
      "dict": 8067,
      "TOKEN": 8068,
      "JU": 8069,
      "');$": 8070,
      "BACK": 8071,
      "zr": 8072,
      "exclude": 8073,
      "Inject": 8074,
      "è¯·": 8075,
      "IND": 8076,
      "PSB": 8077,
      "380": 8078,
      "uDF": 8079,
      "Ġpart": 8080,
      "KS": 8081,
      "Ġcal": 8082,
      "\\\");\\": 8083,
      "ç½": 8084,
      "thread": 8085,
      "sound": 8086,
      "707": 8087,
      "Ġet": 8088,
      "(^": 8089,
      "Mixin": 8090,
      "+\"*": 8091,
      "ĠUser": 8092,
      "sics": 8093,
      "0435": 8094,
      "Been": 8095,
      "Ġstroke": 8096,
      "Ha": 8097,
      "RGB": 8098,
      "bone": 8099,
      "ember": 8100,
      "Ġum": 8101,
      "payment": 8102,
      "332": 8103,
      "241": 8104,
      "velopment": 8105,
      "xB": 8106,
      "',\"": 8107,
      "Iteratee": 8108,
      "\\\">\\": 8109,
      "isUndefined": 8110,
      "bh": 8111,
      "pf": 8112,
      "))}),": 8113,
      "ëĭ": 8114,
      "440": 8115,
      "arge": 8116,
      "Ø§Ø±": 8117,
      "\"))}": 8118,
      "hint": 8119,
      "bles": 8120,
      "syn": 8121,
      "tice": 8122,
      "rename": 8123,
      "ĠInt": 8124,
      "memory": 8125,
      "]}},": 8126,
      "Ġda": 8127,
      "\")],": 8128,
      "ilities": 8129,
      "\",-": 8130,
      "Ġ});\\": 8131,
      "mous": 8132,
      "(),!": 8133,
      "356": 8134,
      "Volume": 8135,
      "ĠST": 8136,
      "Uu": 8137,
      "fox": 8138,
      "xmlns": 8139,
      "signal": 8140,
      "):[": 8141,
      "Syntax": 8142,
      "zd": 8143,
      "();});});": 8144,
      "functions": 8145,
      "×Ļ×": 8146,
      "387": 8147,
      "Policy": 8148,
      "Ġhandler": 8149,
      "Separator": 8150,
      "worker": 8151,
      "parameter": 8152,
      "aya": 8153,
      "handleObj": 8154,
      "flict": 8155,
      "ãĥ¼": 8156,
      "arp": 8157,
      "stand": 8158,
      "zon": 8159,
      "vd": 8160,
      "pane": 8161,
      "methodName": 8162,
      "yyyy": 8163,
      "BUT": 8164,
      "+'.": 8165,
      "();$": 8166,
      "gm": 8167,
      "Trace": 8168,
      "statusText": 8169,
      "cessed": 8170,
      "æİ": 8171,
      "caret": 8172,
      "hY": 8173,
      "})(\\\\": 8174,
      "Sho": 8175,
      "modifier": 8176,
      "ĠĠĠĠĠĠĠĠĠĠĠĠĠĠĠĠĠĠĠĠĠĠĠĠĠĠĠĠĠĠĠ": 8177,
      "\",'": 8178,
      "enqueue": 8179,
      "ĠHTML": 8180,
      "eno": 8181,
      "Ġdel": 8182,
      "Ø£": 8183,
      "Kt": 8184,
      "gap": 8185,
      "Ġhash": 8186,
      "memoizedProps": 8187,
      "accum": 8188,
      "sender": 8189,
      "Ari": 8190,
      "Zi": 8191,
      "Times": 8192,
      "pd": 8193,
      "half": 8194,
      ");},_": 8195,
      "\")};": 8196,
      "bars": 8197,
      "Ġ_.": 8198,
      "../../../": 8199,
      "II": 8200,
      "Ġexport": 8201,
      "ARY": 8202,
      "ListItem": 8203,
      "}},{\"": 8204,
      "Power": 8205,
      "Ġstream": 8206,
      "mouseenter": 8207,
      "EM": 8208,
      "ĠUn": 8209,
      "tack": 8210,
      "cause": 8211,
      "wise": 8212,
      "xuICAgICAgICAgICAg": 8213,
      "Vn": 8214,
      "dimension": 8215,
      "Moz": 8216,
      "Ġweb": 8217,
      ":'[": 8218,
      "bose": 8219,
      "Ġ{{": 8220,
      "crop": 8221,
      "RF": 8222,
      "gal": 8223,
      "BUFFER": 8224,
      "Ġant": 8225,
      "maxHeight": 8226,
      "samp": 8227,
      "488": 8228,
      "SM": 8229,
      "Ġdir": 8230,
      "interpolate": 8231,
      "&(": 8232,
      "={};}": 8233,
      "Annotation": 8234,
      "tribution": 8235,
      "=/^(?:": 8236,
      "Ts": 8237,
      "TLE": 8238,
      "Ġbound": 8239,
      "416": 8240,
      "398": 8241,
      "||[]).": 8242,
      "cwd": 8243,
      "='\"+": 8244,
      "Ġauth": 8245,
      "Ġheader": 8246,
      "Ġaria": 8247,
      "scroller": 8248,
      "Quo": 8249,
      "Dan": 8250,
      "LEFT": 8251,
      "callee": 8252,
      "=.": 8253,
      "zer": 8254,
      "served": 8255,
      "ross": 8256,
      "Exact": 8257,
      "Ġwhile": 8258,
      "allery": 8259,
      "Uo": 8260,
      "Um": 8261,
      "ĠâĢ": 8262,
      "andbox": 8263,
      "shiftKey": 8264,
      "ExpirationTime": 8265,
      "262": 8266,
      "weet": 8267,
      "Ġia": 8268,
      ";','": 8269,
      "ä¸Ĭ": 8270,
      "IFwi": 8271,
      "INDEX": 8272,
      "Ġagar": 8273,
      "Ġ128": 8274,
      ":\\\"": 8275,
      "Lazy": 8276,
      "ĉĉĉĉ": 8277,
      "Øµ": 8278,
      "Cluster": 8279,
      ")}:": 8280,
      "Ġ[\\": 8281,
      "Ġsame": 8282,
      "dec": 8283,
      "LON": 8284,
      "Alt": 8285,
      "defs": 8286,
      "'));}": 8287,
      "Gl": 8288,
      "403": 8289,
      "~~": 8290,
      "ithm": 8291,
      "KSB": 8292,
      "007": 8293,
      "507": 8294,
      "Ã«": 8295,
      "readOnly": 8296,
      "Requests": 8297,
      "RED": 8298,
      "Yo": 8299,
      "fz": 8300,
      "navigate": 8301,
      "ressed": 8302,
      "Flow": 8303,
      "708": 8304,
      "(!!": 8305,
      "cL": 8306,
      "removeData": 8307,
      "Ġprev": 8308,
      "LOB": 8309,
      "Ġseg": 8310,
      "679": 8311,
      "destroyed": 8312,
      "saved": 8313,
      "\")}),": 8314,
      "\"]},{": 8315,
      "AAC": 8316,
      "Ġfi": 8317,
      "NV": 8318,
      ",\"@": 8319,
      "Report": 8320,
      "pkg": 8321,
      "Pin": 8322,
      "ZGVy": 8323,
      "Kind": 8324,
      "Measure": 8325,
      ",/^": 8326,
      "shader": 8327,
      "(+": 8328,
      "à¤¿": 8329,
      "builtin": 8330,
      "lam": 8331,
      "byteOffset": 8332,
      "named": 8333,
      "LOW": 8334,
      "Condition": 8335,
      "detect": 8336,
      "alth": 8337,
      "Stub": 8338,
      "unsubscribe": 8339,
      "Jk": 8340,
      "AAQ": 8341,
      "Suffix": 8342,
      "isDefaultPrevented": 8343,
      "php": 8344,
      "thentication": 8345,
      "ACs": 8346,
      "encil": 8347,
      "Ġfocus": 8348,
      "nota": 8349,
      "Threshold": 8350,
      "DEV": 8351,
      "\\/\\": 8352,
      "Ġtrans": 8353,
      "Ġlike": 8354,
      "currentTime": 8355,
      "exception": 8356,
      "afari": 8357,
      "bel": 8358,
      "registration": 8359,
      "Ġcopy": 8360,
      "SCRI": 8361,
      "æŀ": 8362,
      "RTL": 8363,
      "borderWidth": 8364,
      "Country": 8365,
      "wh": 8366,
      "343": 8367,
      "395": 8368,
      "276": 8369,
      "386": 8370,
      "removeAll": 8371,
      "gif": 8372,
      "motion": 8373,
      "balance": 8374,
      "VVVV": 8375,
      "Ð¾ÑĢ": 8376,
      "bundle": 8377,
      "005": 8378,
      "cion": 8379,
      "Shown": 8380,
      "Ġfull": 8381,
      "lations": 8382,
      "1111": 8383,
      "Ġsesu": 8384,
      "(\":\"": 8385,
      "jn": 8386,
      "Dr": 8387,
      "oct": 8388,
      "HB": 8389,
      "(\"$": 8390,
      "intah": 8391,
      "States": 8392,
      "mises": 8393,
      "possible": 8394,
      "moduleId": 8395,
      "IQ": 8396,
      "555": 8397,
      "Ġ\\\"./": 8398,
      "percentage": 8399,
      "Mutation": 8400,
      "tel": 8401,
      "Ga": 8402,
      "grade": 8403,
      "|[^": 8404,
      "}`,": 8405,
      "remaining": 8406,
      "TEG": 8407,
      "274": 8408,
      "uo": 8409,
      "Contract": 8410,
      "Ġlocal": 8411,
      "Ġdia": 8412,
      "Ġsebagai": 8413,
      "argv": 8414,
      "('-": 8415,
      "407": 8416,
      "Ġprovided": 8417,
      "ived": 8418,
      "Ġapply": 8419,
      "998": 8420,
      "chr": 8421,
      "ROM": 8422,
      "codes": 8423,
      "scrollParent": 8424,
      "Offsets": 8425,
      "getProperty": 8426,
      "Subsc": 8427,
      "888": 8428,
      "invariant": 8429,
      "Ġelements": 8430,
      "quick": 8431,
      "handled": 8432,
      "Indices": 8433,
      "366": 8434,
      "follow": 8435,
      "%}.": 8436,
      "Ġwithout": 8437,
      "sure": 8438,
      "through": 8439,
      "Ġvalidate": 8440,
      "645": 8441,
      "Ġtransition": 8442,
      "Markup": 8443,
      "Apply": 8444,
      "ĊĠĠĠĠĠĠĠĠĠĠĠĠĠĠĠĠĠĠĠ": 8445,
      "delimit": 8446,
      "310": 8447,
      "Until": 8448,
      "fontFamily": 8449,
      "Bn": 8450,
      "ĠUse": 8451,
      "Ġstyles": 8452,
      "WS": 8453,
      "jqXHR": 8454,
      "\",\"\\\\": 8455,
      "sis": 8456,
      "gw": 8457,
      "plan": 8458,
      "Finish": 8459,
      ")}});": 8460,
      "antity": 8461,
      "ENTER": 8462,
      "Ġseperti": 8463,
      "))/": 8464,
      "segments": 8465,
      "Ġsave": 8466,
      "Many": 8467,
      "Ġver": 8468,
      "Ġpattern": 8469,
      "Radio": 8470,
      "like": 8471,
      "onClose": 8472,
      "dh": 8473,
      "ordered": 8474,
      "=`${": 8475,
      "currentItem": 8476,
      "isi": 8477,
      "MON": 8478,
      "|-": 8479,
      "compiler": 8480,
      "Confirm": 8481,
      "à¹Ģà¸": 8482,
      "ZD": 8483,
      "uring": 8484,
      "andidate": 8485,
      "Ġdb": 8486,
      "647": 8487,
      "VU": 8488,
      "missing": 8489,
      "Tx": 8490,
      "lastEffect": 8491,
      "Ġinto": 8492,
      "ĠsourceURL": 8493,
      "setItem": 8494,
      "Ky": 8495,
      "sticky": 8496,
      "ÙĳÙĲ": 8497,
      "Ġpos": 8498,
      "configure": 8499,
      "When": 8500,
      "Ko": 8501,
      "(/^\\": 8502,
      "éĺ": 8503,
      ">\"+": 8504,
      "})).": 8505,
      "Ġspan": 8506,
      "mouseout": 8507,
      "qn": 8508,
      "WI": 8509,
      "TIONS": 8510,
      "575": 8511,
      ";;;;": 8512,
      "éĥ": 8513,
      "Pipe": 8514,
      "RS": 8515,
      "))|": 8516,
      "Xml": 8517,
      "indicator": 8518,
      "gY": 8519,
      "+\"_": 8520,
      "fVxu": 8521,
      "WE": 8522,
      "uses": 8523,
      "Decimal": 8524,
      "annotation": 8525,
      "443": 8526,
      "Ġsel": 8527,
      "[-": 8528,
      "Buff": 8529,
      "Xt": 8530,
      "à¥ĩ": 8531,
      "intersect": 8532,
      "Ð¾Ð»": 8533,
      "Ġservice": 8534,
      "INPUT": 8535,
      "Ġopts": 8536,
      "VNode": 8537,
      "âĢį": 8538,
      "OG": 8539,
      "setData": 8540,
      "Pref": 8541,
      "Ġ58": 8542,
      "seek": 8543,
      "APP": 8544,
      "ĠTo": 8545,
      "Rn": 8546,
      "kemon": 8547,
      "bounding": 8548,
      "paren": 8549,
      "Dependencies": 8550,
      "clearInterval": 8551,
      "additional": 8552,
      "CUR": 8553,
      "432": 8554,
      "Accept": 8555,
      "});};": 8556,
      "Ġpub": 8557,
      "414": 8558,
      "fra": 8559,
      "]!=": 8560,
      "Touches": 8561,
      "Note": 8562,
      "edu": 8563,
      "Chat": 8564,
      "today": 8565,
      "ĠWeb": 8566,
      "293": 8567,
      "Nw": 8568,
      "AZ": 8569,
      "ensity": 8570,
      "Lanes": 8571,
      "Sep": 8572,
      "xAxis": 8573,
      "YLE": 8574,
      "thumbnail": 8575,
      "ReadOnly": 8576,
      "ICK": 8577,
      "ÐµÐ´": 8578,
      "projects": 8579,
      "Ġsek": 8580,
      "ople": 8581,
      "standard": 8582,
      "maximum": 8583,
      "tsd": 8584,
      "testing": 8585,
      "Ġdeprecated": 8586,
      "579": 8587,
      "]^": 8588,
      "475": 8589,
      "Ea": 8590,
      "+\"\\": 8591,
      "xyz": 8592,
      "','.": 8593,
      "Rendered": 8594,
      "Ñİ": 8595,
      "toStringTag": 8596,
      "xuICB": 8597,
      "Ġdone": 8598,
      "ITE": 8599,
      "Rectangle": 8600,
      "Ol": 8601,
      "Ġplugin": 8602,
      "AbstractComponent": 8603,
      "460": 8604,
      "=\"_": 8605,
      "];};": 8606,
      "\":\"{": 8607,
      "positions": 8608,
      "396": 8609,
      "ĠSt": 8610,
      "Download": 8611,
      "camel": 8612,
      "wind": 8613,
      "')+": 8614,
      "à¹ī": 8615,
      "Subscription": 8616,
      "Ġinfo": 8617,
      "([{": 8618,
      "ranch": 8619,
      "guild": 8620,
      "Ġsupport": 8621,
      "Segments": 8622,
      "Ul": 8623,
      "asul": 8624,
      "yAxis": 8625,
      ":%": 8626,
      "thetic": 8627,
      "263": 8628,
      "bih": 8629,
      "Vw": 8630,
      "\"},[_": 8631,
      "})=>": 8632,
      "tempt": 8633,
      "getLine": 8634,
      "Getter": 8635,
      "sys": 8636,
      "+'\\": 8637,
      "Find": 8638,
      "relation": 8639,
      "),$": 8640,
      "390": 8641,
      "Timestamp": 8642,
      "dater": 8643,
      "requestAnimationFrame": 8644,
      "à¼ĭ": 8645,
      "è§": 8646,
      "MenuItem": 8647,
      "hone": 8648,
      "graphics": 8649,
      "809": 8650,
      "ToProps": 8651,
      "partials": 8652,
      "story": 8653,
      "Jan": 8654,
      "Ġ]": 8655,
      "KD": 8656,
      ":\".": 8657,
      "Ġpass": 8658,
      "Ð¸ÑĤ": 8659,
      "Middle": 8660,
      "Spread": 8661,
      "getDefault": 8662,
      "Tw": 8663,
      "HBuilder": 8664,
      "Ġ()": 8665,
      "setInterval": 8666,
      "ORE": 8667,
      "Ġasync": 8668,
      "Placement": 8669,
      "Functions": 8670,
      "dirs": 8671,
      "997": 8672,
      "(/*!": 8673,
      "Qc": 8674,
      "minimum": 8675,
      "Ġactual": 8676,
      "649": 8677,
      "rust": 8678,
      "prompt": 8679,
      "fv": 8680,
      "setStyle": 8681,
      "cjs": 8682,
      "cpp": 8683,
      "Returns": 8684,
      "firebase": 8685,
      "eth": 8686,
      "alle": 8687,
      "dout": 8688,
      "+\":": 8689,
      "mini": 8690,
      "Ij": 8691,
      "allo": 8692,
      "__[": 8693,
      "cti": 8694,
      "017": 8695,
      "lined": 8696,
      "GB": 8697,
      "tech": 8698,
      "__(/*!": 8699,
      "ident": 8700,
      "sorted": 8701,
      "statechange": 8702,
      "Brt": 8703,
      "Ei": 8704,
      "ey": 8705,
      "lr": 8706,
      "Viewer": 8707,
      "=$(\"#": 8708,
      "Wait": 8709,
      "AFAAUABQAFAAUABQ": 8710,
      "merica": 8711,
      "iana": 8712,
      "subClass": 8713,
      "004": 8714,
      "Ord": 8715,
      "rink": 8716,
      "cloneNode": 8717,
      "Graphi": 8718,
      "áĥĲáĥ": 8719,
      "Ori": 8720,
      "1212121212121212": 8721,
      "292": 8722,
      "subscription": 8723,
      "447": 8724,
      "registry": 8725,
      "[{": 8726,
      "comparator": 8727,
      "dataTypes": 8728,
      "bp": 8729,
      "696": 8730,
      "Extra": 8731,
      "ĠKe": 8732,
      "gutter": 8733,
      "372": 8734,
      "ctionary": 8735,
      "CM": 8736,
      "LLL": 8737,
      "HBuilderX": 8738,
      "enerator": 8739,
      "32323232": 8740,
      "Ġpop": 8741,
      "CONF": 8742,
      "AAA": 8743,
      "_'+": 8744,
      "spb": 8745,
      "||[];": 8746,
      "formed": 8747,
      "HN": 8748,
      "Defined": 8749,
      "uting": 8750,
      "592": 8751,
      "ä¸į": 8752,
      "Cg": 8753,
      "FAILED": 8754,
      "[++": 8755,
      "Ġ68": 8756,
      "Ġhari": 8757,
      "Modifier": 8758,
      "316": 8759,
      "ticles": 8760,
      "Iu": 8761,
      "Ġ_=": 8762,
      "noAssert": 8763,
      "mounted": 8764,
      "Ġdoc": 8765,
      "Ġmd": 8766,
      "601": 8767,
      "åĳ": 8768,
      "ads": 8769,
      "Ġ248": 8770,
      "qi": 8771,
      "Ġdddd": 8772,
      "479": 8773,
      "TT": 8774,
      "Der": 8775,
      "references": 8776,
      "}|": 8777,
      "threshold": 8778,
      "vh": 8779,
      "\";__": 8780,
      "maj": 8781,
      "UNS": 8782,
      "Ġbuffer": 8783,
      "requires": 8784,
      "power": 8785,
      "à¤¨": 8786,
      "314": 8787,
      "brand": 8788,
      "readcr": 8789,
      "XR": 8790,
      "Jsonp": 8791,
      "æĸ°": 8792,
      "\",\"/": 8793,
      "Absolute": 8794,
      "])).": 8795,
      "646": 8796,
      "});},": 8797,
      "dragging": 8798,
      "319": 8799,
      "xo": 8800,
      "punctuation": 8801,
      "Ya": 8802,
      "idup": 8803,
      "Dep": 8804,
      "});});": 8805,
      "\")||\"": 8806,
      "previousSibling": 8807,
      "Boundary": 8808,
      "\");},": 8809,
      "()],": 8810,
      "506": 8811,
      "='[": 8812,
      "ÂĦ": 8813,
      "jc": 8814,
      "807": 8815,
      "Indexes": 8816,
      "Period": 8817,
      "Ġtotal": 8818,
      "394": 8819,
      "LENG": 8820,
      "æĢ": 8821,
      "('\"": 8822,
      "åī": 8823,
      "Ġmemb": 8824,
      "Ġbi": 8825,
      "Ġfiles": 8826,
      "Fo": 8827,
      "!+": 8828,
      "manage": 8829,
      "una": 8830,
      "toHaveBeen": 8831,
      "Ġ55": 8832,
      "tz": 8833,
      "longDateFormat": 8834,
      "(_,": 8835,
      "UTF": 8836,
      "à¹Ĵà¹Ĵ": 8837,
      "doy": 8838,
      "snapshot": 8839,
      "805": 8840,
      "kian": 8841,
      "Ġ\")": 8842,
      "addTo": 8843,
      "STYLE": 8844,
      "coin": 8845,
      "[]]+": 8846,
      "458": 8847,
      "MMMM": 8848,
      "buat": 8849,
      "cepts": 8850,
      "Legend": 8851,
      "Ġna": 8852,
      "OFF": 8853,
      "whitespace": 8854,
      "WOR": 8855,
      "rupal": 8856,
      "Environment": 8857,
      "IX": 8858,
      "Ġkaum": 8859,
      "attachEvent": 8860,
      "Âĥ": 8861,
      "gICAgICAgICAg": 8862,
      "ÐµÑĤ": 8863,
      "Ġsur": 8864,
      "markdown": 8865,
      "Tim": 8866,
      "697": 8867,
      "seg": 8868,
      "frag": 8869,
      "Ð°Ð²": 8870,
      "ĠPlease": 8871,
      "Duplicate": 8872,
      "KK": 8873,
      "SUC": 8874,
      "nodeValue": 8875,
      "Ø«": 8876,
      "terminate": 8877,
      "invert": 8878,
      "ban": 8879,
      "SPACE": 8880,
      "Calc": 8881,
      "---": 8882,
      "ĠReference": 8883,
      "Ġjo": 8884,
      "SUB": 8885,
      "visual": 8886,
      ":\"\"},": 8887,
      "Rot": 8888,
      "Vm": 8889,
      "'d": 8890,
      "Ġpointer": 8891,
      "notations": 8892,
      "425": 8893,
      "TypedArray": 8894,
      "430": 8895,
      "Ġprevious": 8896,
      "tun": 8897,
      "lineHeight": 8898,
      "Analy": 8899,
      "isNull": 8900,
      "compose": 8901,
      "597": 8902,
      "ãĢģ": 8903,
      "symbols": 8904,
      "875": 8905,
      "Cloud": 8906,
      "Ġwr": 8907,
      "Ġjson": 8908,
      "nov": 8909,
      "ÏĢ": 8910,
      "587": 8911,
      "%;\\": 8912,
      "nextDay": 8913,
      "calls": 8914,
      "getElementsByClassName": 8915,
      "legal": 8916,
      "clipboard": 8917,
      "metaKey": 8918,
      "\",\"_": 8919,
      "chai": 8920,
      "TEN": 8921,
      "Dg": 8922,
      "xz": 8923,
      "propName": 8924,
      "ummy": 8925,
      "HP": 8926,
      "Ġberiman": 8927,
      "ltr": 8928,
      "vw": 8929,
      "BASE": 8930,
      "badge": 8931,
      "Register": 8932,
      "Ġemail": 8933,
      "Ġtent": 8934,
      "glyph": 8935,
      "Cn": 8936,
      "(\"*": 8937,
      ">'": 8938,
      "bur": 8939,
      "ĠCo": 8940,
      "Igno": 8941,
      "Ġits": 8942,
      "\"))},": 8943,
      "CHAR": 8944,
      "Compare": 8945,
      "LENGTH": 8946,
      "sumer": 8947,
      "TEST": 8948,
      "Example": 8949,
      "keyframes": 8950,
      "sym": 8951,
      "GA": 8952,
      "Old": 8953,
      "457": 8954,
      "accent": 8955,
      "åħ¥": 8956,
      "qb": 8957,
      "Rm": 8958,
      "(\"|": 8959,
      "NN": 8960,
      "477": 8961,
      "locked": 8962,
      "GF": 8963,
      "uled": 8964,
      ")]": 8965,
      "ĠÙĥ": 8966,
      "Ġ512": 8967,
      "External": 8968,
      "æĻ": 8969,
      "slick": 8970,
      "[\\\\": 8971,
      "Vh": 8972,
      "alloc": 8973,
      "Ġarg": 8974,
      "Help": 8975,
      "Operator": 8976,
      "sts": 8977,
      "Force": 8978,
      "')||": 8979,
      "Å¾": 8980,
      "VB": 8981,
      "Nn": 8982,
      "Datepicker": 8983,
      ">);}": 8984,
      "sXG": 8985,
      "license": 8986,
      "Ġer": 8987,
      "morph": 8988,
      "ION": 8989,
      "layui": 8990,
      "ored": 8991,
      "owl": 8992,
      "observable": 8993,
      "VAR": 8994,
      "ĠText": 8995,
      "timers": 8996,
      "Ġop": 8997,
      ")>>>": 8998,
      "dateFormat": 8999,
      "',_": 9000,
      "thon": 9001,
      "[])[": 9002,
      "receiver": 9003,
      "collision": 9004,
      "classNames": 9005,
      "flatten": 9006,
      "Jul": 9007,
      "Ia": 9008,
      "todo": 9009,
      "urs": 9010,
      "ĠYou": 9011,
      "EventPlugin": 9012,
      "Extent": 9013,
      "672": 9014,
      "Should": 9015,
      "Ġ57": 9016,
      "MPTY": 9017,
      "xh": 9018,
      "BLOCK": 9019,
      "selectable": 9020,
      "Geo": 9021,
      "silent": 9022,
      "ï¸": 9023,
      "Ġproject": 9024,
      "Ġsamp": 9025,
      "LTS": 9026,
      "';\\": 9027,
      "between": 9028,
      "++],": 9029,
      "GLOB": 9030,
      "rad": 9031,
      "Ġbreak": 9032,
      "Ġletter": 9033,
      "far": 9034,
      ",[-": 9035,
      "Ġease": 9036,
      "324": 9037,
      "Available": 9038,
      "Registration": 9039,
      "saniti": 9040,
      ",\",\"": 9041,
      "Routes": 9042,
      "spread": 9043,
      "unia": 9044,
      "009": 9045,
      "FIX": 9046,
      "onymous": 9047,
      "à®¿": 9048,
      "778": 9049,
      "Room": 9050,
      "Ġavailable": 9051,
      "polation": 9052,
      "sul": 9053,
      "\"),(": 9054,
      "\\\":[": 9055,
      "mikian": 9056,
      "ously": 9057,
      "minHeight": 9058,
      "IsEnumerable": 9059,
      "FBR": 9060,
      "TITLE": 9061,
      "quelize": 9062,
      "Ġselector": 9063,
      "\")(": 9064,
      "524": 9065,
      "Ns": 9066,
      "Ġben": 9067,
      "Ġstack": 9068,
      "Ùĵ": 9069,
      "componentDidMount": 9070,
      "zc": 9071,
      "setRequest": 9072,
      "instances": 9073,
      "Ġsy": 9074,
      "viewer": 9075,
      "IL": 9076,
      "321": 9077,
      "shop": 9078,
      "={}){": 9079,
      "MATH": 9080,
      "3000": 9081,
      "king": 9082,
      "Ġ\"+\"": 9083,
      "459": 9084,
      "598": 9085,
      "failed": 9086,
      "=$('<": 9087,
      "ngcontent": 9088,
      "expires": 9089,
      "vl": 9090,
      "QB": 9091,
      "XP": 9092,
      "getah": 9093,
      "392": 9094,
      "Ġcb": 9095,
      "ABAA": 9096,
      "ANCE": 9097,
      ")\\\\": 9098,
      "UJ": 9099,
      "parti": 9100,
      "Sidebar": 9101,
      ":`${": 9102,
      "toHaveBeenCalled": 9103,
      "();}},": 9104,
      "pref": 9105,
      "Ġsen": 9106,
      "Ġmod": 9107,
      "Cat": 9108,
      "ĠMMM": 9109,
      "æĸĩ": 9110,
      "rides": 9111,
      "fillStyle": 9112,
      "Team": 9113,
      "vol": 9114,
      "EH": 9115,
      "Feed": 9116,
      "<'": 9117,
      "Keyword": 9118,
      "Exists": 9119,
      "cally": 9120,
      "Ġanimation": 9121,
      "498": 9122,
      "ĠAr": 9123,
      "é¢": 9124,
      "tid": 9125,
      "Views": 9126,
      "Ġjustify": 9127,
      ")}})},": 9128,
      "gers": 9129,
      ",_=": 9130,
      "Sol": 9131,
      "HELP": 9132,
      "Ġvariable": 9133,
      "Wi": 9134,
      "webgl": 9135,
      "Ã£o": 9136,
      "497": 9137,
      "seen": 9138,
      "rail": 9139,
      "Stopped": 9140,
      "466": 9141,
      "peek": 9142,
      "273": 9143,
      "'][": 9144,
      "\\\"></": 9145,
      "####": 9146,
      "281": 9147,
      "factor": 9148,
      "cdn": 9149,
      "TES": 9150,
      "Neg": 9151,
      "540": 9152,
      "urls": 9153,
      "ove": 9154,
      "449": 9155,
      "Initialized": 9156,
      "Ġdid": 9157,
      "Ance": 9158,
      "smart": 9159,
      "455": 9160,
      ",{\"": 9161,
      "dst": 9162,
      "Ġnative": 9163,
      "æı": 9164,
      "pO": 9165,
      "]\"===": 9166,
      "sible": 9167,
      "eve": 9168,
      "juk": 9169,
      "ensitive": 9170,
      "Ġimplement": 9171,
      "erarch": 9172,
      "Unique": 9173,
      "èĥ": 9174,
      "VF": 9175,
      ")===\"": 9176,
      "Ġfail": 9177,
      "primitive": 9178,
      "Ġob": 9179,
      "QG": 9180,
      ")|(": 9181,
      "aspect": 9182,
      "Instances": 9183,
      "paragraph": 9184,
      "rottle": 9185,
      "getB": 9186,
      "verbose": 9187,
      "0438": 9188,
      "+.": 9189,
      "Ġpun": 9190,
      "'](": 9191,
      "DEFINE": 9192,
      "Typography": 9193,
      "(){$(": 9194,
      "AKw": 9195,
      "495": 9196,
      "RY": 9197,
      "}))},": 9198,
      "cH": 9199,
      "udio": 9200,
      "Î»": 9201,
      "Ġscreen": 9202,
      "Ġremoved": 9203,
      "Ġve": 9204,
      "\\\":{": 9205,
      "(\"\");": 9206,
      "ridge": 9207,
      "Ġdescriptor": 9208,
      "ick": 9209,
      "Virtual": 9210,
      "lastChild": 9211,
      "689": 9212,
      "318": 9213,
      "+)?": 9214,
      "Ġrotate": 9215,
      "]|\\": 9216,
      "996": 9217,
      "Ġ41": 9218,
      "Ir": 9219,
      "scheduler": 9220,
      "ZXh": 9221,
      "Adjust": 9222,
      "Ġsk": 9223,
      "Ġdisabled": 9224,
      "parentElement": 9225,
      "607": 9226,
      "lighted": 9227,
      "426": 9228,
      "[],": 9229,
      "445": 9230,
      "paint": 9231,
      "strings": 9232,
      "Ġyear": 9233,
      "forced": 9234,
      "Ġmela": 9235,
      "KTt": 9236,
      "Ġdit": 9237,
      "Payment": 9238,
      "PG": 9239,
      "&&((": 9240,
      "383": 9241,
      "literal": 9242,
      "åĢ": 9243,
      "FIN": 9244,
      "yes": 9245,
      "()});": 9246,
      "Ġaccount": 9247,
      "Kn": 9248,
      "Ġmonth": 9249,
      "beta": 9250,
      ")}));": 9251,
      "organ": 9252,
      ">\");": 9253,
      "Ġattrs": 9254,
      "GLOBAL": 9255,
      "}`);": 9256,
      "sameElse": 9257,
      "ora": 9258,
      "graphic": 9259,
      "scheme": 9260,
      "();_": 9261,
      "Ġtouch": 9262,
      "Forward": 9263,
      "fmt": 9264,
      "ĠSer": 9265,
      "015": 9266,
      "umbs": 9267,
      "Constant": 9268,
      "readystatechange": 9269,
      "çº": 9270,
      "reco": 9271,
      "Px": 9272,
      "onTouch": 9273,
      "995": 9274,
      "Ġrelative": 9275,
      "roles": 9276,
      "393": 9277,
      "Ġjs": 9278,
      "defaultView": 9279,
      "requ": 9280,
      "getNext": 9281,
      "Ċĉ": 9282,
      "ilon": 9283,
      "configuration": 9284,
      "inverse": 9285,
      "323": 9286,
      "bucket": 9287,
      "':[": 9288,
      "Join": 9289,
      "])||": 9290,
      "æĺ¯": 9291,
      "behind": 9292,
      "Pad": 9293,
      "esome": 9294,
      "hadap": 9295,
      "Ïħ": 9296,
      "Plugins": 9297,
      "fw": 9298,
      "componentInstance": 9299,
      "654": 9300,
      "staticStyle": 9301,
      "Ġscope": 9302,
      "ĠForm": 9303,
      "Dark": 9304,
      "Ġhigh": 9305,
      "Unmount": 9306,
      "rand": 9307,
      "IZ": 9308,
      "lastDay": 9309,
      "scriptions": 9310,
      "Ġabsolute": 9311,
      "cX": 9312,
      ",\"\"),": 9313,
      "Receive": 9314,
      "iding": 9315,
      "._$": 9316,
      "qqqq": 9317,
      "<_": 9318,
      "retry": 9319,
      "pping": 9320,
      "lineNumber": 9321,
      "dv": 9322,
      "currentValue": 9323,
      "TOP": 9324,
      "Embed": 9325,
      "MOVE": 9326,
      "cleanup": 9327,
      "gICAgICAgICAgICAgICAgICAgICAgICAg": 9328,
      "]}},{\"": 9329,
      "ATCH": 9330,
      "channels": 9331,
      "sizes": 9332,
      "hal": 9333,
      "DED": 9334,
      "ffffff": 9335,
      "retch": 9336,
      "Ãª": 9337,
      "erts": 9338,
      "Win": 9339,
      "ĠRasul": 9340,
      "onDrag": 9341,
      "containers": 9342,
      "kar": 9343,
      "umi": 9344,
      "006": 9345,
      "cblxu": 9346,
      "hasAttribute": 9347,
      "),[": 9348,
      "bindings": 9349,
      "fully": 9350,
      "Pagination": 9351,
      "Oct": 9352,
      "ookup": 9353,
      "arkan": 9354,
      "ĠDia": 9355,
      "west": 9356,
      "typeOf": 9357,
      "marginRight": 9358,
      "Qa": 9359,
      "ÏĤ": 9360,
      "ĠÐ´": 9361,
      "676": 9362,
      "numberOf": 9363,
      "maW": 9364,
      "æ°": 9365,
      "à¸ģ": 9366,
      "!==!": 9367,
      "abilities": 9368,
      "605": 9369,
      "postcss": 9370,
      "Composition": 9371,
      "Payload": 9372,
      "ÐµÐº": 9373,
      "Targets": 9374,
      "37418": 9375,
      "AUT": 9376,
      "treturn": 9377,
      ")])": 9378,
      "Ġba": 9379,
      "Ġexpect": 9380,
      "manifest": 9381,
      "Vars": 9382,
      "peer": 9383,
      ",['": 9384,
      "ĠMuhammad": 9385,
      "ĠRangeError": 9386,
      "Popover": 9387,
      "Ua": 9388,
      "SUCCESS": 9389,
      "uniforms": 9390,
      "/\",": 9391,
      "Drupal": 9392,
      "ï¼ļ": 9393,
      "Ú©": 9394,
      "806": 9395,
      "inspect": 9396,
      "VIE": 9397,
      "ei": 9398,
      "Remote": 9399,
      "992": 9400,
      "586": 9401,
      "Ijo": 9402,
      "dismiss": 9403,
      "xFF": 9404,
      "FormatSymbols": 9405,
      "orn": 9406,
      "='_": 9407,
      "\":\"./": 9408,
      "Ġneed": 9409,
      "Õ¡": 9410,
      "FileName": 9411,
      "hsl": 9412,
      "536": 9413,
      "Other": 9414,
      "687": 9415,
      "606": 9416,
      "Ġclone": 9417,
      "qc": 9418,
      "ÂłÂłÂłÂł": 9419,
      "ham": 9420,
      "__||": 9421,
      "webpackJsonp": 9422,
      "Asset": 9423,
      "innerWidth": 9424,
      "325": 9425,
      "([],": 9426,
      "()+\"": 9427,
      "Ġantara": 9428,
      "handles": 9429,
      "Ġ};\\": 9430,
      "Zz": 9431,
      "('_'),": 9432,
      "ICE": 9433,
      "478": 9434,
      "486": 9435,
      "ĠDOM": 9436,
      "ippet": 9437,
      "])|": 9438,
      "Chars": 9439,
      "dD": 9440,
      "avaScript": 9441,
      "Ġul": 9442,
      "Low": 9443,
      "éĿ": 9444,
      "322": 9445,
      "ceptor": 9446,
      "caped": 9447,
      "editing": 9448,
      "startDate": 9449,
      ":{}};": 9450,
      "Ġ43": 9451,
      "Wn": 9452,
      "Ġdrop": 9453,
      "ues": 9454,
      "hold": 9455,
      "437": 9456,
      "About": 9457,
      "áĥĶ": 9458,
      "Ticks": 9459,
      "\":\"_": 9460,
      "Ġdef": 9461,
      "Ġhidden": 9462,
      "Ġmener": 9463,
      "customer": 9464,
      "preserve": 9465,
      "+\\": 9466,
      "Ġmultiple": 9467,
      "Prism": 9468,
      "lastWeek": 9469,
      "Seg": 9470,
      "'>;}": 9471,
      "Ques": 9472,
      "pk": 9473,
      "vered": 9474,
      "016": 9475,
      "Ġscript": 9476,
      "bC": 9477,
      "Ġstep": 9478,
      ";$.": 9479,
      "Ġattr": 9480,
      "Water": 9481,
      "\",\"â": 9482,
      "setProperty": 9483,
      "\")}},": 9484,
      "Aggreg": 9485,
      ");});},": 9486,
      "Pn": 9487,
      "grunt": 9488,
      "ZU": 9489,
      "489": 9490,
      "mongoose": 9491,
      "Href": 9492,
      "ICAgIG": 9493,
      "VO": 9494,
      "Vec": 9495,
      "Dn": 9496,
      "MU": 9497,
      "Ġpeng": 9498,
      "markup": 9499,
      "kannya": 9500,
      "Ġmenu": 9501,
      "010": 9502,
      "Ġpassed": 9503,
      "311": 9504,
      "syntax": 9505,
      "Ġsaw": 9506,
      "nextWeek": 9507,
      "Ġsecond": 9508,
      "completed": 9509,
      "Wallet": 9510,
      "oney": 9511,
      ":!!": 9512,
      "credentials": 9513,
      "most": 9514,
      "317": 9515,
      "READ": 9516,
      "æ¸": 9517,
      "records": 9518,
      "gz": 9519,
      "485": 9520,
      "redraw": 9521,
      "Ð¾Ð´": 9522,
      "(\".\"+": 9523,
      "VR": 9524,
      "å¤§": 9525,
      "dereq": 9526,
      "Ġaddress": 9527,
      "Ġcreated": 9528,
      "(\"../../": 9529,
      ":__": 9530,
      "driver": 9531,
      "ĠTime": 9532,
      "generated": 9533,
      "Ġerrors": 9534,
      "CONST": 9535,
      "Writer": 9536,
      "abe": 9537,
      "Ð°Ð»": 9538,
      "0002": 9539,
      "Aq": 9540,
      "470": 9541,
      "Ġcommand": 9542,
      "False": 9543,
      "Ġexec": 9544,
      "defineLocale": 9545,
      "271": 9546,
      "EAC": 9547,
      "Ġut": 9548,
      "sim": 9549,
      "Webkit": 9550,
      "589": 9551,
      "graphql": 9552,
      "ORM": 9553,
      ")-(": 9554,
      ":</": 9555,
      "lip": 9556,
      "sameDay": 9557,
      "438": 9558,
      "Latin": 9559,
      "atakan": 9560,
      "å¿": 9561,
      "lj": 9562,
      "ribed": 9563,
      "GRO": 9564,
      "cam": 9565,
      "eql": 9566,
      "lm": 9567,
      "ĠÐº": 9568,
      "Frag": 9569,
      "Ġshadow": 9570,
      "findOne": 9571,
      "ADER": 9572,
      "åľ¨": 9573,
      "ĠKami": 9574,
      "gorithm": 9575,
      "Memo": 9576,
      "675": 9577,
      "CodeMirror": 9578,
      ")}))},": 9579,
      "posts": 9580,
      "Rz": 9581,
      "setRequestHeader": 9582,
      "comb": 9583,
      "Ġgame": 9584,
      "650": 9585,
      "Pie": 9586,
      "Cmd": 9587,
      "ball": 9588,
      "ral": 9589,
      "atur": 9590,
      "_/": 9591,
      "Ġwant": 9592,
      "Visibility": 9593,
      "487": 9594,
      "ç®": 9595,
      "Ġju": 9596,
      "getField": 9597,
      "packet": 9598,
      "Patterns": 9599,
      "ĠĠĠĠĠĠĠĠĠĠĠĠĠĠĠĠĠĠĠĠĠ": 9600,
      "Ġequal": 9601,
      "Ġframe": 9602,
      "ison": 9603,
      "èĢ": 9604,
      "577": 9605,
      "recur": 9606,
      "cycle": 9607,
      "LatLng": 9608,
      "nan": 9609,
      "Stamp": 9610,
      "#\",\"#": 9611,
      "594": 9612,
      "(','": 9613,
      "Extensions": 9614,
      "Ġoriginal": 9615,
      "bullet": 9616,
      "tier": 9617,
      "\",\\": 9618,
      "priv": 9619,
      "America": 9620,
      "Fold": 9621,
      "ĠVue": 9622,
      "debounce": 9623,
      "Ġcursor": 9624,
      ");\"": 9625,
      "776": 9626,
      "})}}": 9627,
      "Variables": 9628,
      "Fh": 9629,
      "Ġproperties": 9630,
      "pushStack": 9631,
      "UPDATE": 9632,
      "Allowed": 9633,
      "Ship": 9634,
      "getUser": 9635,
      ")._": 9636,
      "570": 9637,
      "aker": 9638,
      "roadcast": 9639,
      "QW": 9640,
      "669": 9641,
      "ying": 9642,
      "282": 9643,
      "KH": 9644,
      "à¸±": 9645,
      ":\"<": 9646,
      "psilon": 9647,
      "Asc": 9648,
      "xr": 9649,
      "559": 9650,
      "\")):": 9651,
      "Any": 9652,
      "1999": 9653,
      "Requested": 9654,
      "USH": 9655,
      ":\"{": 9656,
      "apple": 9657,
      "1234": 9658,
      "ĠMereka": 9659,
      "Gn": 9660,
      "Ġkami": 9661,
      "projection": 9662,
      "@@@": 9663,
      "hv": 9664,
      "\"}).": 9665,
      "goto": 9666,
      "trailing": 9667,
      "cluded": 9668,
      "668": 9669,
      "lookbehind": 9670,
      "à¤ķ": 9671,
      "aaaaaaaa": 9672,
      "gICAgICAg": 9673,
      "innerHeight": 9674,
      "){__": 9675,
      "SUPP": 9676,
      "iconName": 9677,
      "GT": 9678,
      "èĩª": 9679,
      "283": 9680,
      "à®ķ": 9681,
      "Gi": 9682,
      "apis": 9683,
      "Ġ46": 9684,
      ">','": 9685,
      "fee": 9686,
      "handleChange": 9687,
      "Ġsmall": 9688,
      "urun": 9689,
      "struction": 9690,
      "Comments": 9691,
      "Rlci": 9692,
      "verted": 9693,
      "focusin": 9694,
      "TIAL": 9695,
      "261": 9696,
      "10737418": 9697,
      "ãģĦ": 9698,
      "(\"--": 9699,
      "FUN": 9700,
      "persist": 9701,
      ">'+": 9702,
      "Jz": 9703,
      "424": 9704,
      "391": 9705,
      ">`": 9706,
      "altKey": 9707,
      "TYPES": 9708,
      "Score": 9709,
      "Î¼": 9710,
      "opened": 9711,
      "âĶĢâĶĢâĶĢâĶĢ": 9712,
      ")))},": 9713,
      "'?'": 9714,
      "buatan": 9715,
      "Added": 9716,
      "ired": 9717,
      "Kit": 9718,
      "diri": 9719,
      "ĠCar": 9720,
      "ĠBe": 9721,
      "YE": 9722,
      "RM": 9723,
      "currentPage": 9724,
      "Ġdesc": 9725,
      "625": 9726,
      "Original": 9727,
      "VC": 9728,
      "æĽ": 9729,
      "Ġdif": 9730,
      "Mac": 9731,
      "Ġmu": 9732,
      "mudian": 9733,
      "IMA": 9734,
      "Cre": 9735,
      "(),'": 9736,
      "nes": 9737,
      "sequence": 9738,
      "595": 9739,
      "âĢĮ": 9740,
      "Ġnavig": 9741,
      "bum": 9742,
      "exact": 9743,
      "Identity": 9744,
      "ked": 9745,
      "Memory": 9746,
      "CHE": 9747,
      "cw": 9748,
      "Plot": 9749,
      "FU": 9750,
      "responseType": 9751,
      "013": 9752,
      "Flat": 9753,
      "Ġacc": 9754,
      "onSelect": 9755,
      "Ġ53": 9756,
      "ics": 9757,
      "Ġimg": 9758,
      "Ġker": 9759,
      "Manage": 9760,
      "Syn": 9761,
      "Sphere": 9762,
      "(/[": 9763,
      "Ġtmp": 9764,
      "arter": 9765,
      ")=>{\"": 9766,
      "eo": 9767,
      "Hn": 9768,
      "isEqual": 9769,
      "();}});": 9770,
      "dimensions": 9771,
      "Microsoft": 9772,
      "fluid": 9773,
      "LISTS": 9774,
      "584": 9775,
      "Tasks": 9776,
      "minDate": 9777,
      "Ġgiven": 9778,
      "Mr": 9779,
      "Primary": 9780,
      "propertyIsEnumerable": 9781,
      "Vr": 9782,
      "eat": 9783,
      "Ø¡": 9784,
      "æĬ": 9785,
      "AAg": 9786,
      "Ġcore": 9787,
      "Created": 9788,
      "Ġxmlns": 9789,
      ")?|": 9790,
      "zle": 9791,
      "Ã¨": 9792,
      "','./": 9793,
      "420": 9794,
      "sid": 9795,
      "777": 9796,
      "Apr": 9797,
      "Sm": 9798,
      "rawName": 9799,
      "Google": 9800,
      "Front": 9801,
      "æį": 9802,
      "orph": 9803,
      "QX": 9804,
      "MB": 9805,
      "FontSize": 9806,
[...]
