#version: 0.2
Ġ Ġ
ĠĠ ĠĠ
ĠĠĠĠ ĠĠĠĠ
0 0
ĠĠ Ġ
- -
Ġ 3
Ġ $
Ġ 00
Ċ ĠĠĠ
-- --
Ġ 0
Ġ %
m o
i n
mo v
ĠĠĠĠĠĠĠĠ ĠĠĠĠĠĠĠĠ
1 0
* *
e s
Ġ a
ĠĠĠĠ ĠĠĠ
e a
o r
% %
a l
= =
t e
Ġ 1
8 0
Ġ ;
Ġ s
Ġ c
r e
f f
Ġ p
---- ----
d d
ĠĠĠĠ Ġ
Ġ d
m m
o n
Ġ 5
Ġ t
e n
ĉ ĉ
o p
Ġ 2
Ġ 4
e d
Ċ Ġ
Ġ (
** **
Ġ b
e r
s t
, %
Ġ f
e c
Ġ r
e b
ea x
u s
Ċ ĠĠĠĠĠĠĠ
; ;
%% %%
m p
80 10
x mm
Ġ '
i t
1 2
Ġ [
( %
a t
l d
l o
r a
Ġ <
== ==
Ġ mov
s e
Ġ m
a dd
00 00
us h
Ġ =
1 1
al l
ĠĠĠĠĠĠĠĠ ĠĠĠĠĠ
Ġ i
a r
Ċ ĠĠĠĠĠĠĠĠ
' :
O R
Ċ Ċ
Ġ D
l e
1 6
d e
Ġ F
a n
-------- --------
Ġt h
t r
, $
Ġ n
s i
Ġ3 2
Ġ3 4
in t
eb p
Ġ P
Ġ S
Ġ 8
d i
ĠĠĠĠ ĠĠ
p ush
) ,
**** ****
Ċ ĉ
ĠĠĠĠĠĠĠĠĠĠĠĠĠĠĠĠ ĠĠĠ
e t
Ġ3 6
Ġ3 3
1 3
00 0
1 4
Ġ A
u n
Ġ e
Ġ 7
Ġ -
c all
Ġ C
1 5
te r
3 2
Ġ E
Ġ o
Ġth e
Ġ #
m e
re t
ed x
Ġa dd
Ġ w
2 0
n op
r o
6 4
%%%% %%%%
l ea
c h
u b
es p
O N
i on
Ġ5 8
I N
c k
Ġ in
u t
;; ;;
u l
8 3
s p
Ġ 6
ĠĠĠĠĠĠĠĠ Ġ
Ġ v
8 9
es i
] ,
Ġ .
) ,%
ĠĠĠĠĠĠĠĠ ĠĠ
OR D
es s
l a
Ġ +
) ;
W ORD
2 4
==== ====
in g
Ġ *
r i
Ġ R
u r
eb x
Ġ 10
T R
Ġ h
Ġ L
Ġ ff
8 5
Ġ3 9
0 1
Ġt o
Ġ _
Ġ ,
en t
Ġa r
A T
i c
d b
2 5
# #
r c
/ /
4 0
1 7
Ġ T
A L
p op
t a
i g
y te
Ġar g
in e
1 9
Ġ "
Ġ B
ĊĠĠĠĠĠĠĠĠ ĠĠĠĠĠĠĠ
ec x
i s
0 2
Ġ M
r ess
e x
or d
D E
a s
e l
S T
5 5
x or
3 0
1 8
ed i
F F
Ġ :
Ġ l
9 0
a me
z e
a d
Ġ4 5
ff ff
c t
Ġ ld
Ġ j
Ġ3 5
Ġ U
d w
E R
Ġ xmm
Ġi f
es t
Ċ ĠĠĠĠ
a x
an d
Ġo f
R E
******** ********
Ġ3 8
u m
n d
s ub
p e
c on
. .
ec t
Ġ3 7
6 0
---------------- ----------------
E N
r b
6 8
2 8
u p
3 4
c mp
ĉĉ ĉĉ
i d
i l
v e
t y
h t
S E
O P
o w
A D
en d
c e
de f
2 9
d x
5 6
Ġ I
o t
2 7
5 0
al se
- >
r int
Ġ {
i le
Ġd b
Ġf or
4 8
o l
2 3
%%%%%%%% %%%%%%%%
ĠF alse
b yte
ĠĠĠĠĠĠĠĠĠĠĠĠĠĠĠĠ ĠĠĠĠĠĠĠĠĠĠĠĠĠĠĠĠ
Ġa l
_ _
1 00
2 6
Ġ |
) (%
Ġ N
ress es
Ġ 9
Ġ x
0 3
a b
q u
;;;; ;;;;
n e
' ,
Ċ ĠĠ
ea d
A R
Ċ ĠĠĠĠĠ
m a
ON G
7 4
ĠP TR
ĠF F
L ONG
, -
3 9
ĠU LONG
Ġ ret
a te
7 5
h l
r or
3 6
D WORD
r u
x c
Ġ( %
g e
Ġ eax
D W
4 4
at a
R O
Ċ ĉĉ
3 5
Ġa nd
m ul
6 6
7 0
AL L
======== ========
Ġ0 1
( $
Ġ O
Ġ2 6
si ze
ra x
Ġ re
Ġmov d
3 8
Ġ5 4
l i
ur n
r di
> :
Ġ g
T E
p s
y mm
Ġc o
9 9
O V
se t
y s
7 8
c c
Ġc h
2 2
Ġ1 6
7 6
Ġi s
i f
b l
w ord
## ##
Ġp ush
rc x
c o
S I
0 4
j mp
ty pe
r si
D I
Ġ0 8
I n
Ġ 80
8 8
L O
Ġ0 4
t h
in c
d c
lo ck
ig n
Ġ H
A G
lo c
i p
ĠĠĠĠĠĠĠĠ ĠĠĠĠĠĠĠ
N D
o s
Ġ2 4
ĠD W
7 9
M P
F I
T I
ex t
S P
def ine
Ġ 8010
x t
Ġ G
ar t
ĠĠĠĠĠĠĠĠ ĠĠĠĠ
ĠĠĠĠĠĠĠĠ ĠĠĠ
Ġ ==
Ġ5 2
u e
ri te
at ion
Ġ4 0
Ġs t
C ALL
Ġ &
3 3
Ġ5 1
k e
Ġd e
5 4
s h
s r
Ġs ta
i x
Ġ }
p rint
Ċ ĊĠĠĠ
A V
f d
8 4
Ġb e
st r
@ @
r dx
or e
A C
L E
9 6
rb p
Ġ int
) {
Ġ4 4
+ +
Ġret urn
Ġe x
t est
a p
12 8
I T
A M
Ġc all
Ġ$ (
Ġs w
or t
r sp
s l
Ġh l
3 1
7 7
ro c
Ġp add
f a
Ġ_ _
M M
2 1
: :
r ror
5 3
Ġ ec
AD D
d q
mov l
0 6
0 5
n t
rb x
ĠS T
al ign
0 8
Ġs ub
ect or
a se
Ġ X
u f
i m
D B
s ame
in d
Ġc on
Ġ or
g ru
gru ent
A S
7 2
5 8
N T
add resses
Ġ{ '
con gruent
5 9
a re
ĉĉ ĉ
E C
80 100
8010 4
Ġ2 0
st d
Ġ1 2
Ġ% %
re e
lo op
Ġadd i
Ġ W
Ġs tr
i r
s rc
o ut
C O
Ċ ĊĠĠĠĠĠĠĠ
te xt
v er
3 7
ĊĠĠĠĠĠĠĠĠ ĠĠĠĠ
ĠE rror
c x
p ut
ĠĠĠĠĠĠĠĠ ĠĠĠĠĠĠ
**************** ****************
u ff
Ġ //
s ys
6 9
Ġ26 85
ct ion
on e
at tr
Ġs i
ab le
Ċ ĊĠ
b e
Ġadd resses
N t
4 9
un d
P U
ĊĠĠĠĠĠĠĠĠĠĠĠĠ ĊĠĠĠĠĠĠĠĠĠĠĠĠĠĠĠ
L D
m ent
5 7
p t
ff set
it h
x ffff
0 9
a ve
{ '
Ġd i
r y
= "
Ġb y
0 7
Ġa x
b p
Ġ z
j e
p tr
d st
8 6
r ea
b er
Ġd w
( "
o id
l u
a ck
Ġb yte
dw attr
t ra
Ġp op
Ġs h
A N
L L
it s
or m
C h
E X
Ġp tr
A B
5 2
d ata
Ġs et
;;;;;;;; ;;;;;;;;
ec k
Ġs p
uff er
Ġ# $
8010 6
Ġ >
Ġ1 1
Ġ4 6
Ġw h
mov e
Ġ IN
e g
d ec
al ue
print f
4 6
S H
RO C
b c
b x
s s
%%%%%%%%%%%%%%%% %%%%%%%%%%%%%%%%
g lo
) )
Ġ1 5
te d
la y
M OV
Ġ1 4
ĠM OV
, [
E D
c l
di f
o f
" ,
g et
Ġ8 000
un t
I C
a ge
a ra
i al
n o
Ġ V
AV X
c a
C o
ĊĠĠĠĠĠĠĠĠ ĠĠĠ
te m
si on
0000 0000
C H
ch ar
lo w
e m
lo ad
T ER
c d
s er
, (%
7 3
Ġ en
re p
j ne
Ġ Ċ
s w
Ġ mm
Ġ edx
r es
#### ####
v p
e e
Ġ xor
E T
Ġj mp
} ,
Ġ ymm
E S
um ber
la g
in ter
Ġ !
ĠE ND
D D
i z
8010 5
Ġ J
Ġch ar
r ead
Q WORD
? $
op y
â Ķ
ind ow
Q U
ul t
l y
Ġn ot
4 5
la b
l ine
ro m
b j
Ġ us
as m
Ġw ith
il l
T AG
ĠL D
Ġpadd q
it ion
9 7
4 2
EN T
L o
Ġ0 2
Ġ OR
is ter
a c
================ ================
Ġre g
con st
Ġp rint
Ġ0 3
Ċ ĠĠĠĠĠĠĠĠĠĠĠĠĠĠĠĠ
ĠP ROC
Ġ on
9 8
U T
AVX align
Ġb c
Ġ mo
x ff
Ġi o
e f
/ >
o m
Ġr es
ar g
i st
x f
-------------------------------- --------------------------------
d s
Ġ it
ra n
R I
S Y
a a
9 2
Ġr ax
ĠC ON
ADD R
xffff ff
ĠEND P
add i
4 7
Ġp o
ĠĠĠĠ Ċ
( (
S R
Ġ y
8 1
8 7
6 3
ĠT h
Ġ end
Ġc mp
b b
ĠĠĠĠĠĠĠĠĠĠĠĠĠĠĠĠ Ġ
SE T
en dif
in k
Ġsi ze
C L
ĠD WORD
Ġ @
n ame
6 5
v oid
Ġ ecx
Ġa s
o und
G et
1 000
9 4
en ter
8 2
D AT
Ġmov q
S t
S TR
un ction
ĠI n
âĶ Ĥ
m l
Ġ4 8
, #
0000 00
0000 0
g n
c p
9 5
, (
l q
B R
Ġ5 6
Ġb it
: [
E F
Ġin c
mov z
Ġv p
A X
p roc
x a
m t
Ġth is
E L
o u
on g
ow n
al loc
Ġv alue
Ġ q
" />
Ġ00 0
lab el
} }
ra w
S et
lu de
A A
.. ..
re g
Ġ lea
c ro
5 1
4 1
6 2
EN D
Z E
4 3
Ġw ord
8010 3
b al
Ġa n
? ?
me m
ST OR
o ur
Ġo ut
Ġmov a
as k
a m
an t
6 7
Ġ u
ĠD B
8010 2
Ġ1 3
o k
f c
x b
OR T
( );
9 3
w rite
C C
B L
TI ON
i y
t es
a f
11 11
Ġ8 00
Ġf rom
L N
x e
b le
Ġw e
Ġp sr
l en
Ġr cx
inc lude
Ġb p
// //
Ġa dc
Ġd word
c re
ig ht
a it
Ġld a
Ġ0 5
Ġ4 9
v ector
Ġa t
" );
Ġco de
indow s
Ġ /
I D
X MM
s d
U ser
I G
Ġ1 8
G di
-- -
] .
e re
8010 1
Ġ3 0
Ġd x
er o
Ġadd ress
l w
" )
6 1
t d
FI G
$ [
di r
Ġn e
Ġp mul
Ġ 64
12 7
SI ZE
b a
O S
Ġ );
di v
Ġn umber
Ġ ebx
Ġ1 7
O T
Ġd ata
ma in
ea r
d l
er ror
st at
w indows
tr y
p h
de x
C on
glo bal
FI LL
Ġe l
bj ect
j r
t i
Ġ Y
s b
ĠL o
at h
f ile
un k
cre en
Ġm a
ĠST D
Ġsta ck
T ext
tra ps
Ġ7 6
U R
SY S
ĠCON FIG
sys enter
Ġd l
orm al
Ġ4 1
Ġf d
un p
std call
Ġal td
U B
ĠN t
Ġn o
lo g
ter n
Ġd o
Y TE
ead er
es c
l l
at ch
ar d
Ġ 90
Ġd s
x d
ĠSTD CALL
pt ion
m s
Ġ6 0
si gn
e p
Ġal l
Ġo ffset
7 1
ĠĠĠĠĠĠĠĠĠĠĠĠĠĠĠĠ ĠĠĠĠ
Ġg et
S tr
Ġ \
i mp
e iz
Ġf a
9 1
p p
Ġb x
m d
Ġreg ister
unp ck
S C
o d
A P
os ition
IN G
ĠĠĠĠĠĠĠĠĠĠĠĠĠĠĠĠ ĠĠ
in it
Ċ ĉĉĉĉ
Ġ7 5
ĊĠ ĊĠĠĠ
Ġf ile
Ġ; ;
LO AD
Ġ k
st ri
t mp
Ġpush l
ĊĊ ĉ
um ent
25 6
i e
E n
Ġm ul
ex it
l ic
u mp
e qu
u st
Ġ op
dq a
ke y
U C
F h
f e
ĠE QU
p d
BR K
l ink
( *
a v
Ġth at
t s
st art
x ml
Ġex it
u dq
Ġpsr lq
ur re
mov dqa
n z
ma cro
* )
Ġ! =
U N
U M
Ġf c
E G
Ġ5 5
ĠS t
H E
Ġc x
Ġp ro
Ġd ec
b uffer
Ġel se
b o
rea te
urre nt
it y
Ġ& &
; ----------------------------------------------------------------
str ing
o ffset
movz bl
] ;
Ġn ame
Ġ up
Ġ ĊĠĠĠ
Ġb ase
IN T
h i
Ċĉĉ ĉ
ect ion
lea r
l b
lag s
i ve
ĠFF C
TER N
S G
u ct
0 10
ri g
DAT A
ĠLo ad
c f
S S
Ġwh ile
B C
N E
r k
U S
t o
re d
Ġ esp
Ġ2 8
P I
-------- ----
O W
o de
RE T
Ġ5 0
Ġ1 9
f o
at or
E x
te mp
Ġ un
ĠĠĠĠĠĠĠĠĠĠĠĠĠĠĠĠ ĠĠĠĠĠ
Ġprint f
ir st
lo se
Ġa re
mov q
X T
1 12
O L
ul ty
b it
n own
q a
x ch
f b
Ġ2 7
' }
Ġ2 1
a e
Ġmovd qa
P E
st ru
c ol
l er
D C
f t
Ġp unpck
Ġ K
1 10
u re
ra y
2 00
ra m
Ġsta te
p o
or k
T H
ru e
glo bl
st ate
a u
Ġpo inter
ig h
Ġ la
i b
Ġ2 5
Ġ Z
; *
AR G
Ġstr ing
e v
Ġe qu
a g
L P
O F
ra me
Ġ ĉ
ĠC B
Ġx m
CO DE
mo n
ic e
y pe
f ree
Ġp roc
Ġ2 3
IN DI
ĠD C
p b
I F
ĠH L
Ġr dx
Ġf ree
Ġ7 4
i ze
( )
i de
g in
C ON
ar i
Ġpmul udq
ĠFF B
ic en
n ot
our ce
SYS CALL
b d
######## ########
DE F
ĊĠĠĠĠĠĠĠĠ Ġ
Ġs o
U P
__ __
n ormal
Ċĉ Ċ
mo ry
N ame
s c
Nt Gdi
ĠC O
d one
V I
b uf
H L
n el
Ġ es
d o
Ġw rite
P L
Ġt est
co de
U L
' s
XMM WORD
i v
ĠĠĠĠĠĠĠĠĠĠĠĠĠĠĠĠ ĠĠĠĠĠĠ
R T
Ġby tes
mov d
g en
I M
W T
) .
Ġb uf
push l
T h
A Y
and le
BL IC
N OP
ix el
g th
ma p
P M
p c
en c
ĠD D
ĠTh e
m f
Ġ7 8
Ġ( $
Ġ esi
w h
âĶĤ âĶĤ
or g
, &
mp le
Ġp re
r up
Ġv er
Ġr ead
um n
ĠE X
Ġ3 1
ta ble
on t
sys call
Ġf e
ĉĉĉĉ ĉ
no te
Ġc p
;;;;;;;;;;;;;;;; ;;;;;;;;;;;;;;;;
E M
it ial
ĠFF D
ĠT rue
ĠO p
rig ht
a y
Ġn ext
W C
Ġf unction
EC T
xch g
C B
Ġio i
******************************** ********************************
Ġio e
an g
i re
ul l
add r
AV E
Ġa f
C T
ta g
Ġb lock
ĠĠĠĠĠĠĠĠĠĠĠĠĠĠĠĠ ĠĠĠĠĠĠĠĠĠ
f orm
0000 000
Ġint o
Ġst art
us e
S p
Ġ edi
be q
AC K
Ġ dd
Ġ2 9
p res
c b
ĠĠĠĠĠĠĠĠĠĠĠĠĠĠĠĠ ĠĠĠĠĠĠĠĠĠĠĠĠĠĠĠ
i me
FF FF
T o
lay er
** *
Ġ ĊĠĠĠĠĠĠĠ
Ġv ector
12 34
Ġ8 9
v al
Ġp osition
sh r
ĠD EF
Ġ4 3
an k
b ne
EX TERN
up s
el se
a ce
8 00
s hl
12 0
10 2
FF SET
Ġ le
li b
8 000
IN E
Ġl en
r t
0 80
Ġn op
co unt
ip c
C N
u g
.. /
ĠĠĠĠĠĠĠĠĠĠĠĠĠĠĠĠ ĠĠĠĠĠĠĠ
C TION
Ġp ut
Ġ0 7
esc ri
and ler
A dd
ĠT AG
k ip
v ent
ara c
ar y
m b
L AB
Ġv oid
ĠO F
arac ter
Ġ --
AT E
an ge
au ipc
Ġp xor
lea ve
d a
est ore
I S
Ġ6 5
E B
m v
RE G
Ġb a
Ċ ĠĠĠĠĠĠ
R AM
u te
E A
D ata
e mory
A ND
ADDR LP
Ġ ?
K E
( &
S ta
Ġr sp
b f
Nt User
LD A
ro w
Ġs ave
Ġ2 2
a ch
Ġb uffer
Ġl ine
%%%%%%%%%%%%%%%%%%%%%%%%%%%%%%%% %%%%%%%%%%%%%%%%%%%%%%%%%%%%%%%%
M ENT
Ġ8 4
Ġr di
ĠS P
Ġ00 00
ĊĊ ĠĠ
ĠT HE
;; ;
a in
Ġ0 6
p i
Ġ| |
O UT
m in
Ġstr uct
ess age
ld a
s o
em y
n ext
Ċ ĠĠĠĠĠĠĠĠĠĠĠĠĠĠĠĠĠĠĠ
Ġ load
ĠC h
dw ord
Ġc opy
F L
++ ;
P C
unk nown
Ġne w
ad c
un c
g o
v o
Ġu int
ĠA X
E P
Ġn z
U D
imp ort
Ch eck
Ġ error
p ro
Ġch eck
op en
ter rup
Ġc l
movd qu
Ġ8 5
rep are
x x
icen se
LO B
Ġ ebp
B A
Ġj r
it ch
TE XT
ur s
F E
.. .
ĊĠĠĠĠĠĠĠĠĠĠĠĠĠĠĠĠ ĠĠĠĠĠĠĠ
t u
lu i
w ait
Ġcon st
Ġco mp
ĠĠĠĠĠĠĠĠĠĠĠĠĠĠĠĠ ĠĠĠĠĠĠĠĠ
PU BLIC
Ġp er
ĠA L
ĠG et
j al
a h
LOB AL
loc ation
Ġa h
Ġ> =
LO C
w l
Ġ80 100
b lock
t le
C all
as s
AR T
of t
Ġc an
I P
/ *
Str ing
dw tag
il es
r it
l ong
10 4
all traps
la ss
c al
mov ups
Ġc urrent
Ġc d
a es
en u
M o
8010 7
Ġ7 0
n c
F ile
25 5
ĠD S
Ġ* /
ie ld
) );
Ġ4 2
ĠC ALL
Ġ loop
Ġm em
p r
b y
Lo op
F C
en er
Ġs ys
Ġr si
//// ////
ĠS et
st a
un ter
i o
Ġ0 9
e y
d f
lea se
sl l
ea l
B YTE
m alloc
ran ch
u int
ĠE x
S L
' )
ĠSt ore
R eg
p er
ar ry
ĠTh is
n s
im er
G LOBAL
) *
w d
ĠF D
an ic
B U
SE G
stri de
h o
if t
Ġf irst
I L
Ġi d
G P
Ġc ol
rea k
Ġ4 7
C D
B E
Ġmov e
m add
f x
6 16
J MP
Ġw ill
00 1
re l
AS S
F P
ĠST A
F A
AT A
l es
tr ol
Ġus e
p re
) ]
Ġpo int
Ġm ask
ta in
def b
cmp l
dec l
p repare
Ġ+ =
Ġver sion
ran s
R st
g er
ĠA ND
b ase
mov b
P o
ĠA N
ĠI f
el l
Ġt ra
Ġp sh
M O
Ġt mp
Ġj sr
d ate
Ġs rc
Ġ QWORD
Ġd st
)) +
AB LE
th er
C R
SH ORT
E E
er v
M ap
' t
Ġ ĊĠ
sp lay
an ce
or s
ĠD E
Ġbe gin
Ġ1 00
fa ulty
ret urn
z ero
Ġd is
n l
CN ST
G E
at tle
m it
Ġfree p
Ġz mm
19 2
Ġb l
vo ke
ĠMOV Q
S B
l pb
Ġch aracter
l pe
M A
S c
H eader
ĠDEF B
A r
Ġ< -
S UB
ĊĠĠĠĠĠĠĠĠ ĠĠĠĠĠĠ
Ġall traps
00 2
C E
Ġi tem
ĠĠĠĠĠĠĠĠĠĠĠĠĠĠĠĠ ĠĠĠĠĠĠĠĠĠĠ
7 68
stat ic
Ġq word
ĠB YTE
) +
A l
out ine
0000 7
INDI R
stru ct
re ct
ic t
E nd
Ġ2685 0
16 0
di o
ĊĊ Ċ
ĠT O
H T
F X
L I
ĠLD A
Ġsize of
U DE
col umn
24 0
-------- ---
p ort
O M
ex tr
Ġ5 3
Ġen emy
w are
G N
Ġ6 6
s ave
mp s
5 12
B IT
Ġan y
11 1
ĠR ET
ub lic
I DE
as h
++ ){
[ ((
A t
14 4
O bject
Ġsh ort
n um
ld r
3 64
i es
Ġn Rst
ĠC o
co mp
================================ ================================
10 8
m y
.... ....
Ġ low
mm and
P R
Ġ ĊĊ
o c
U E
00 4
Ġr bx
B P
CL UDE
il ed
o g
ĠP U
ch eck
Ġm emory
000 1
IG N
Ġ key
escri ption
UR N
10 1
is h
r d
KE Y
s y
Ġ< =
S h
U LL
eg ment
Ġdi v
Ġin terrup
jal r
p ic
j p
ĠL icense
st ack
N O
RE PM
ĠA R
Ġpadd w
Ġ8 3
ĠD I
Ġex p
Ġmo de
urs or
le ment
Ġz ero
K ey
++ )
Ġ2 55
ĠE V
u i
al t
oft ware
et urn
a ke
Ġh igh
55 35
P roc
N o
r st
Ġh ave
p xor
U n
000 3
ES S
11 4
Ġde f
Ġv al
r s
R es
SE CTION
li p
h er
Ġne ed
Ġp madd
T O
Ġas m
const ant
O FFSET
SI ON
ĠA DD
f or
Ġpadd d
C F
xffff ffff
RI TE
g ram
ea m
Ġt able
Ġr ow
i se
re f
ara me
Ġb its
as sign
2 64
Ġ7 3
ĠD ATA
Ġo ff
Ġm ax
Ġb ack
Ġi p
:: ::
PU T
f p
h ing
ou ld
Ġ ??
Ġ one
11 6
ST A
AG E
P ORT
st rc
ĠĠĠĠĠĠĠĠĠĠĠĠĠĠĠĠĠĠĠĠĠĠĠĠĠĠĠĠĠĠĠĠ ĠĠ
Ġb reak
arame ter
f l
lo at
I tem
ĠC opy
stri b
Ġ ea
ce ption
te n
ch r
C A
12 3
12 4
CNST I
un link
Ġf lag
B B
g t
Ġus ed
) :
Ġf b
i ck
i ch
loc al
Ġd c
ĠĊ ĠĠĠĠĠĠĠĠĠĠĠĠĠĠĠĠĠĠĠ
5 15
ĠĠĠĠĠĠĠĠĠĠĠĠĠĠĠĠĠĠĠĠĠĠĠĠĠĠĠĠĠĠĠĠ ĠĠĠĠĠĠĠ
Ġlen gth
17 0
00 8
LOC K
Ġ7 2
ate d
Ġa p
A E
Ġa cc
Ġin put
Ġ56 78
j nz
A F
%%%%%%%% %%%%
Ġin dex
ĠL O
sign ed
P tr
ĊĠĠĠĠĠĠĠĠ ĠĠ
in al
In fo
ER R
d u
D e
id th
d nl
Ġput c
Ġl ist
10 6
pres et
ADDR GP
c opy
;---------------------------------------------------------------- ------------
und er
ĠĠĠĠĠĠĠĠĠĠĠĠĠĠĠĠ ĠĠĠĠĠĠĠĠĠĠĠĠĠĠ
co m
Ġco unt
10 5
v m
ument s
17 6
-------------------------------- ----------------
' },
p id
Ġregister s
ã ģ
end macro
1 80
I R
ĉ Ċ
t ion
Ġa b
CO M
c i
size of
B X
Ġ_ __
S ize
C reate
f ig
c ore
C lass
Ġres ult
| |
ma ge
Ġr bp
ĠC H
un its
Ch ar
Sta te
Q u
le ep
12 5
M on
~ ~
Ġ00 0000
e mp
w n
ari able
13 6
ĠD X
Ġr ight
er s
se g
11 5
2 24
ĉĉĉĉ ĉĉĉĉ
c ur
Ġ{ :
P SE
o x
Ġp ixel
Ġr outine
ĠP ush
2 20
te nt
35 4
OW N
MM WORD
eb ug
T Y
Ġ8 8
O ut
D S
P O
F or
Ġs egment
T able
0000 03
B uffer
TR Y
Ġ ed
o ld
Ġth en
on d
CO MM
Ġal ign
Ġh ere
C ol
DI F
print int
Ġ' \
Ġ6 3
ĠNt Gdi
ĠCO DE
s ra
Ġb ut
E QU
d t
RE SS
an nel
%%%%%%%%%%%%%%%%%%%%%%%%%%%%%%%%%%%%%%%%%%%%%%%%%%%%%%%%%%%%%%%% %%%%%%%%%%%%
j z
Ġmov u
o b
Ġ[ $
Ġc lear
******** ****
ri ver
D escription
s mps
Ġ- >
B attle
16 8
= (
Ġ under
ld q
' ){
14 0
ĠĠĠĠĠĠĠĠĠĠĠĠĠĠĠĠ ĠĠĠĠĠĠĠĠĠĠĠ
000 24
SR C
; ****************************************************************
ol low
Ġn eg
s q
10 3
RO M
ra ph
add q
g as
In itial
Ġj z
L ist
us ic
ex tern
te p
ĠĠĠĠĠĠĠĠĠĠĠĠĠĠĠĠĠĠĠĠĠĠĠĠĠĠĠĠĠĠĠĠ ĠĠĠĠĠĠ
Ġ temp
p l
ĠC X
A n
ĠA dd
b in
10 9
Ġo ther
12 6
D X
Ġ Ð
er nel
v alue
mov s
, "
Ġf lags
Ġen try
ar k
DE R
ĠC MP
A RE
si c
Lo ad
Ġst ore
c lose
add d
c md
Ġj p
m ask
te l
F a
Ġmovd qu
T MP
p or
4 00
Ġp sub
Co mp
' ;
Ġa c
R A
11 8
z x
at us
CODE R
11 9
Ġd ig
Ġ ***
Ġ6 8
O bj
uf b
ut ion
T ra
ex ec
ĠN o
ver t
Ġ. ..
Ġop en
ĠB E
10 7
Ġt w
Ġr or
Ġo bject
EX T
s ection
T ype
b ack
Ġsp ec
l h
cl r
p os
m ath
ĠF OR
stride q
mov w
c s
ms g
Ġg o
ST AT
il ter
Ġpre vp
d r
s ec
AM E
R e
18 4
ĠS I
v el
SEG MENT
13 0
Ġf ollow
en ce
if def
_ ,
ĠA H
ps r
I ST
Ġb ne
Co de
Ġo ver
AL IGN
u w
@@ @
Ġ< <
le te
15 0
us ed
O B
S D
Ġs u
j sr
l ed
Ġc a
6 56
RO W
IT Y
Ġmo re
AS GN
RET URN
Ġ âĶĤâĶĤ
Ġs creen
m ax
11 3
qu ire
M UL
buffer s
ĠEV ENT
PU SH
Ġwh ich
ĉĉĉĉ ĉĉĉ
M em
â ĸ
Ġc c
TI M
ĠS H
mb ol
IN CLUDE
re v
Ġw as
Ġs ource
li st
ar se
in voke
in es
Ġ text
in dex
END S
Ġ# -
O p
B lock
Ġ ----------------------------------------------------------------
or y
Ġn units
ĊĠĠĠ ĊĠĠ
s se
Ġco m
Ġm ust
8 00000
call ee
im es
INDIR P
St art
Ġs c
ĠĠĠ Ċ
RE F
< <
En try
W rite
I ON
ĠE N
C X
cro ll
Ġproc ess
00 6
p g
add l
mo de
e q
mf lo
ri pt
P ROC
@ _
r op
Ġp art
T S
ach e
al c
Ġh as
32 0
Ġs ign
Ġa pp
Ġp ri
erv ed
o ot
Ġi count
! !
12 9
de v
c reate
pd ate
p al
11 7
Ġj e
G ET
Ġc ase
dst q
Ġt ype
mf hi
---- --
D ate
Ġc arry
In it
I X
Ġadd r
15 6
ne g
Ġp ack
et ch
ĠM SG
o y
(* $
Ġfa iled
ld ff
38 4
L INE
Ġ qu
V ER
ĠH I
Ġ( (
EN TRY
ĠIn tel
P ro
Ġ âĶĤ
D d
Ġmov l
er r
ab el
u me
F D
ĠĠĠĠĠĠĠĠĠĠĠĠĠĠĠĠ ĠĠĠĠĠĠĠĠĠĠĠĠĠĠĠĠĠĠĠ
000 2
B D
ic al
ok en
Ġ log
mul t
____ ____
Ġ )
s a
ĠI S
ĉĉĉĉ ĉĉ
Co unt
Ġle ft
n ear
so le
ro und
db w
P TR
LAB EL
M enu
Ġout put
In st
b r
ult ip
re ment
stru ction
U ND
at ive
Ġ6 1
t on
ĠR E
01 00
15 2
s g
i ed
u d
Ġj ump
Ġp anic
ro up
ĠNt User
s z
ĠB C
s kip
Ġ8010 5
cl es
fa ult
u es
Ġd raw
Ġla st
cp u
S M
ĠD o
Ġ ter
D O
P ASS
m k
get s
Ġ8 0000
ĠCh eck
ĠAN Y
ĠIN C
* /
f ork
Ġh alt
t op
movz x
I O
20 4
12 2
lo t
IN IT
in ed
e ff
M U
Ġon ly
Ġs ec
ON E
C P
ĠĠĠĠĠĠĠĠĠĠĠĠĠĠĠĠ ĠĠĠĠĠĠĠĠĠĠĠĠ
20 8
Ġpunpck h
l ne
1 85
M D
T X
in st
addi u
Ġ9 6
13 2
Ġp age
INDI RI
ĠS ub
ap p
er y
LO W
a cc
DE C
ĠĠĠĠĠĠĠĠĠĠĠĠĠĠĠĠĠĠĠĠĠĠĠĠĠĠĠĠĠĠĠĠ ĠĠĠĠĠĠĠĠĠĠ
d ition
= -
t in
ra ct
W indow
Ġ1 28
f ar
ow er
14 8
4 000
ĠP rint
O Y
C MP
13 4
13 9
d es
, '
Ġsh r
: \
Ġh andle
Ġma y
COMM ENT
ĠB Y
e ight
form ation
reg ister
Ġ5 9
Ġw ait
ĠN O
13 7
v a
RE VI
k a
000 20
13 8
FF ECT
ĠN ULL
ĠPU SH
x y
Ġv ol
Ġar ray
D i
ĠS ave
2 32
or i
ar get
Ġd a
AS K
et h
99 99
ol y
Ġ' %
ps h
D raw
03 00
la ce
end p
Ġ5 7
ĠS creen
F B
Ġy ou
ad ca
################ ################
ĠS UB
ĠF L
EX P
U G
Ġj nz
H andler
Ġ00 000000
FF E
ĠF unction
M essage
16 4
I TE
p ixel
N U
s m
b ro
Ġn um
26 364
STOR Y
Ġr l
D o
I d
er m
w w
00 7
616 26364
T W
10 10
M SG
th i
19 6
ar m
P OP
ĉĉ ĠĠĠĠĠĠĠ
ĊĊ ĊĊ
l an
Ġsp ace
S ys
put c
ĠHI STORY
50 5
v ar
19 4
Ġinterrup t
mt lo
Ð µ
g sl
ry pt
Ġl i
m thi
SIZE OF
REVI SION
Ġfollow ing
12 1
d raw
SI C
c sl
ĠI F
Ð °
00 3
ĠP R
u al
str chr
ec ted
Ċ ĠĠĠĠĠĠĠĠĠĠĠĠĠĠĠĠĠĠĠĠĠĠĠĠĠĠĠĠĠĠĠĠ
L C
N ot
13 5
ne w
ĠF ile
2 16
Ġ lo
14 5
F rame
se l
Ġsh ould
mo d
ĠP OP
eth od
Ġ10 2
L ine
Ġr estore
0 20
te ger
IN C
Ġ1 23
f h
1 89
Ġa d
TE ST
ĠL G
Ġ6 2
Ġ8010 4
25 0
ic s
at o
Ġp ort
56 5
ĠP RO
j s
S A
Ġbe q
alloc ator
n ing
fl ush
f unc
COM DAT
j le
B it
by tes
2 90
00 9
if ic
l it
14 6
TY PE
f s
Ġc lose
pg dir
a il
e w
Ġre p
aes enc
Ġ7 1
a ps
ĠR es
16 9
Ġ/ *
ĊĠĠĠĠ ĊĠĠĠ
un lock
Ġt ime
15 4
01 8
an im
Ġwh en
Ġw rit
t ing
Ġst d
la st
Ġsys call
o ff
sp an
Ġco unter
Ġ6 7
EN DIF
S W
bro adca
mit ted
Ġp os
] )
Ġa es
u fd
14 9
E rror
Ġi x
17 7
ara m
19 9
ĠT H
Ġe f
SI S
25 4
ĠCopy right
) /
L Y
r ts
j b
D ec
Ġstr ict
ord er
ffff ffff
Ġ `
14 7
0000 02
AN K
ĉ Ġ
Ġs hl
strc mp
AT ION
Mo ve
f unction
Ġ9 7
b ig
75 8
Ġn ow
H andle
be gin
at ile
14 3
e h
Th read
AR R
Ġf mt
Ġex ec
t t
ea t
Ġn on
Ġd est
ot o
ĠB X
AC E
Ġ ****
N Z
Ġ8 6
ĠE FFECT
2 34
M ode
ri p
Ġ7 7
Ġo s
str len
val id
A IN
ch ed
Ġs up
ã ĥ
FI L
r r
Ġp and
B LOCK
d h
ti me
Ġc b
G B
ST ART
R ead
1 83
ĠD ata
2 25
E vent
ĠB A
Ġ TR
a st
2 80
ex p
Ġin itial
c m
Ġ> >
15 9
le ft
Ġ6 9
OR M
ĠIN T
Ġfor m
U SE
y n
15 7
b its
ke mon
30 4
Ġp res
sb rk
P layer
=- =-
C opy
28 8
15 8
DE STR
DE CODER
Ġ eb
ST ACK
ld h
D A
SI DE
ĠC on
17 9
H I
Ġs el
mem ber
$ $
tr ib
( _
17 4
ĠĠĠĠĠĠĠĠĠĠĠĠĠĠĠĠĠĠĠĠĠĠĠĠĠĠĠĠĠĠĠĠ ĠĠĠĠ
Ġcon tain
x FF
add u
16 3
Qu ery
ĠH eader
ĠR eturn
ar ray
ro l
Ġdi strib
; ------------------------------------------------
c es
T est
t st
p w
ta ck
pi pe
ĠE SI
CO L
DI O
Ġst os
*) (
IG H
S el
Ġa ct
add ress
AC C
ta il
DESTR OY
Ġma in
at es
L abel
Ġ ĉĉ
Ġb ranch
F UN
ã Ĥ
Ġp h
1111 1111
FI LE
c r
bo ard
V AL
Proc ess
Ġl ong
lb u
3 00
AT EG
D U
16 5
AS M
s k
et te
ĠO FFSET
18 6
N UM
18 8
20 9
vp xor
Ġ Ċĉ
src q
Ġword s
g s
56 7
ĠE n
g fx
76 7
ĠO UT
p ow
IL ITY
; ================================================================
P AR
//////// ////////
RE S
tin ue
cc ess
or ed
vp extr
p ath
Ġs s
Ġs b
Ġ8 1
Ġtra p
Ġpmadd wd
19 0
1 0000
UD O
Ġ" ../
U NT
Ġre lease
Ġf rame
Ġ: :
ĠN umber
, @
at tern
Ġj ne
ĠS TR
Ġm y
ĠL A
ĠĠĠĠĠĠĠĠĠĠĠĠĠĠĠĠ ĠĠĠĠĠĠĠĠĠĠĠĠĠ
Ġ ]
lb w
mem move
OP Y
in ation
DESTROY ED
fa st
i a
00 5
15 5
ser t
j a
ATEG Y
PSE UDO
Ġpmul h
F ree
13 3
DE V
B O
STR ATEGY
d up
i tem
sy mbol
16 6
In t
x B
T rans
f mt
Ġpro gram
20 2
AC RO
ff h
38 6
ith er
16 7
D F
Ġup date
ps l
k af
K N
o om
C PU
av x
c li
us er
24 8
> ,
Ġin st
loc ate
sr l
Ġsh ift
bo ve
up date
Ġld x
cl flush
G OT
tern al
d ing
ĠĠĠĠ ĉ
LABEL V
in ish
15 3
mov aps
ear ch
b h
Lo ck
Ġ7 9
ĠG ener
IT H
x F
Ġt op
19 3
tra its
ĠU n
N umber
17 5
ty p
14 1
i ld
++ ]
IN STR
Ð ¾
Ġin struction
vpextr q
p anic
sh ort
lement s
ress ed
Ġ9 5
In dex
M S
19 5
LO G
Ġb rk
M EM
Ġ Q
ĠP o
ter ial
r l
Sc ript
kaf ka
Ġc md
Ġwith out
RE EN
Ġr st
cp y
Ġarg ument
OR E
: //
ĠEFFECT S
FL AG
ĠĠĠĠĠĠĠĠĠĠĠĠĠĠĠĠĠĠĠĠĠĠĠĠĠĠĠĠĠĠĠĠ Ġ
FIL TER
g pr
Op en
MU X
Ġth an
18 7
2 23
S AVE
Ġ8 7
F T
Ġt imes
MO DE
Ġco mmand
Ġmo dif
U pdate
il ity
S creen
Ġus er
Ġm essage
Ġ. .
17 8
all y
ab les
c ase
O f
mul tu
Ġun signed
Ġp sl
P RO
Ġs bb
M ASK
f ield
not hing
14 2
@@ @@
Ġor a
64 0
89 9
Ġx x
Ġs kip
515 25
R C
r sw
MUX ER
000 4
24 9
3 60
PI PE
ADDR FP
se m
Ġ2 56
Ġd one
Ġ its
ĠH AVE
51525 354
p y
comp are
f r
og le
Ġi mp
er t
Ġmul x
ĠE AX
st mt
ĠN OT
Ġcon dition
Ġr ts
u vm
V ar
ĠEx p
ĠĠĠĠĠĠĠĠĠĠĠĠĠĠĠĠĠĠĠĠĠĠĠĠĠĠĠĠĠĠĠĠ ĠĠĠĠĠĠĠĠ
Ġo ld
CON ST
pres sion
in fo
es tr
L EN
29 9
# $
Ġa bove
N ext
n al
======== ====
ĠD EC
Ġre qu
Ġpsh ufb
29 6
go ogle
Ġval ues
P os
ĠJ MP
Ġf ound
22 2
D is
v movdqa
> >
Con trol
Ġw ork
s ed
000 10
24 4
Ġc y
3 90
Ġma ke
p ublic
Ġ9 8
Ġt rans
in put
s creen
ĠC L
29 4
0000 1
di c
ar dw
20 5
Ġaf ter
i mul
ta ve
66 768
ab s
F lags
Ġtw o
Ġop er
2 10
V alue
61626364 656
CALL ED
61626364656 66768
ardw are
en try
LO OP
ra ry
In put
NtGdi Dd
con fig
tu al
BA SE
Ġp arameter
Ċĉĉĉĉ ĉ
q word
p ri
C S
Ġc f
ĠA D
ps n
W F
ADD RESS
j ect
An im
19 8
dw psn
+ $
ea p
( '
ĠS p
v movups
] );
X X
B ase
L AY
Ġpunpck lbw
r g
2 13
2 27
ĠM a
10 24
ĠR eg
19 7
Ġvol atile
ri ve
^ ^
0000 3
ut ton
n or
[(( -
O ffset
av ed
Ġc or
Ġg ener
ĠG NU
U DIO
add s
NE AR
Ġ( -
V OL
ĠM o
ir tual
Ġr un
Ġin it
Set up
e ed
ac ro
Ġb in
N C
alc ul
Ġv movdqu
st ore
ĠS C
Ð ¸
Sta ck
32 4
ĠF a
( #
D T
r est
26 9
Ġ< __
Ġpmulh rsw
Ġdis k
B F
O FF
Ġs oftware
Ġres et
17 2
Ġ8010 3
b s
ba sic
89 0
0000 4
ADD P
ev el
39 3
P H
F rom
d sp
f rame
fa ce
Ġor ig
sd cc
2 11
Ġthe re
D DI
Ġs bc
s leep
Ġend p
Ġ9 1
ld i
L W
Ġb ot
20 7
P ort
Ġr ound
Ġt ile
20 6
T emp
CB IN
m i
ext ract
Ġ1 27
34 4
p oly
id n
Ġr d
Ġn c
20 3
equ ence
f ore
B y
Ġp ass
DEF B
r n
seg ment
P P
Col or
89 6
Ġ8 2
@ ?$
lea n
g g
U TE
ch e
raph ics
Ġ ],
I I
Ġde v
== =
Ġ ----------------
k en
RE AD
Ar ray
KN OWN
read y
u ted
@ "
Ġ9 2
inter nal
Ġm in
Ġ@ %%%%%%%%%%%%%%%%%%%%%%%%%%%%%%%%%%%%%%%%%%%%%%%%%%%%%%%%%%%%%%%%
23 8
23 6
Ġs ector
ub sw
RT C
Ġ10 1
c rt
20 1
ib rary
IG HT
?? _
Ġvp xor
OB J
;**************************************************************** ************
E AX
2 85
Co m
ĠS ET
2 30
Ġwh ere
S w
Ġsp rite
Ñ Ģ
ERR OR
Ġc s
L en
Ġ9 4
cc cc
Ġsw itch
m atch
j ust
R D
w ise
G HT
Sp rite
24 5
Sys tem
ab led
mk dir
Add ress
t om
ho me
a ct
ĠP AR
] [
ĠPush D
27 0
60 8
EC K
k ill
ĠL I
ĠSub mitted
Ġdo es
std out
NOP SIS
Ġa g
ff ect
ä ¸
ĠC or
ĠA C
SY NOPSIS
++ ++
:::: ::::
Ġdi splay
aa aa
f lags
mage rel
re lease
ĠI tem
c lear
cf i
U I
99 9
len gth
movs bl
13 1
Ġ9 9
qu e
are nt
ag es
ĠB UG
R ec
00000000 00000000
32 8
Ġ **
iz ed
Ġ location
Ġcon trol
' }}
p ass
---- ---
IN D
O K
am es
Ġpmadd ubsw
2 14
ST ATE
h ead
STOR E
ĠA ll
extract i
ĠL ine
p age
arg v
a use
Ġs z
;;;;;;;;;;;;;;;;;;;;;;;;;;;;;;;; ;;;;;;;;;;;;;;;;;;;;;;;;;;;;;;;;
Ġconst ant
ato i
AB ILITY
f low
ĠU SE
28 6
Ġe e
ĠE D
Ġs um
80 82
Po inter
al ette
ĠB NE
A nd
po int
Ġ8010 2
ĠS Y
sl ti
ĠB IT
ĠS oftware
V al
ĠC P
ist a
2 12
I LE
j g
Ġdig its
Add r
Ġsec ond
in s
Ġb f
ch dir
Ġsys tem
V E
q dq
ĠA l
01 9
Ġa ss
ation s
po kemon
P rint
sh ift
ĠST G
Ġn ear
P ar
te nd
R eturn
Ġ2 64
RI GHT
im al
A H
G R
n er
F M
lw d
arg s
ĠS h
Ġde fb
mem set
Ġ OP
wh ile
STAT US
ĠM O
t f
ui ld
Ġd q
000 30
RE CT
s tep
D PU
o se
Ġmo d
v ista
80 112
UM E
c nt
W ait
u char
Ġ label
b ge
IN TER
w ard
Ġ lock
ĠN E
ARG P
ĠR OM
25 3
G RO
f er
d p
M B
N OT
Ġj ust
B yte
ord s
Ġm ultip
D ev
16 2
23 9
Ġ mp
0000 5
u dio
J SR
Ġp layer
Ġs ee
log ue
a mple
v movdqu
28 4
B UT
â Ģ
%% %
68 4
17 3
ub le
Ġl im
m all
O C
it le
R R
24 6
__ _
Ġvp broadca
- +
m is
B ox
Ġstr ide
000 5
Ġdi rect
ĠW e
ĠI D
h igh
58 6
l t
T ime
ing le
Ċ ĊĠĠĠĠĠĠĠĠĠĠĠĠĠĠĠ
ï ¿
Ġv ariable
8010 55
( `
ide o
I f
0 11
79 3
Ġin teger
40 4
m c
Ġo ur
ĠR ead
f lag
24 3
am us
ĠR AM
j c
H o
I s
ĠSt art
Ġpixel s
ï¿ ½
an di
;---------------------------------------------------------------- ----------------
N um
P T
ĠL EA
ĠX MMWORD
40 6
ĠS W
ĠĠĠĠĠĠĠĠĠĠĠĠĠĠĠĠĠĠĠĠĠĠĠĠĠĠĠĠĠĠĠĠ ĠĠĠĠĠĠĠĠĠ
l p
or ld
escri pt
ĠBUG S
Ġ8010 6
l r
Ċĉ Ġ
Ġs equence
IDE AS
Po int
Ġl ink
32 9
lo bal
C ur
W in
oc tave
( @
ĠS amus
A K
h andler
DE X
Ġ8010 1
40 8
15 1
80 1
27 6
out put
8010 64
mt ree
Ġp id
i te
01 7
âĸ Ī
la te
ck et
60 4
24 7
Ġ@%%%%%%%%%%%%%%%%%%%%%%%%%%%%%%%%%%%%%%%%%%%%%%%%%%%%%%%%%%%%%%%% %%%
8010 44
2 28
U MP
def ined
Ġs se
en s
~~ ~~
) "
bl t
j be
%%%%%%%%%%%%%%%%%%%%%%%%%%%%%%%%%%%%%%%%%%%%%%%%%%%%%%%%%%%%%%%%%%%%%%%%%%%% @
Ġl r
a mp
ĊĠĠĠĠĠĠĠĠĠĠĠĠĠĠĠĠ ĠĠĠĠĠĠĠĠĠĠĠĠĠĠĠ
Ex it
pal mtree
Ġs ection
Ġcondition s
por ation
ĠC PU
AD C
2 17
ĠC lear
Ġto t
Ġcol umn
t oken
n ull
23 5
ĠCor poration
ne my
if y
S ave
55 55
s um
Ñ Ĥ
27 5
0000 2
-------- --
23 3
S ub
block s
Ġ9 3
L F
Ġbe fore
G SIZE
T ile
74 4
Ġx ml
se q
s ound
z mm
AC T
mul x
Ġcol or
ut es
ou te
2 29
dw cfi
25 9
Ġea ch
BU F
sw ap
Ġc ur
l ang
di g
th e
Ġp or
80 4
R W
w b
ĠP ro
Ġv ari
DEF W
Ġmov zx
ĠĠĠĠ ĊĠĠĠ
ĠJ R
32 5
AS H
ke ys
ĠS EC
0000 04
ĠP O
800000 10
ol l
DE SC
shl q
ĠR EP
ĠW rite
c la
v ol
St ub
do c
orm at
Ġv movdqa
imp lements
in tr
IR Q
Ġo cc
ĠW ITH
Ġh tt
H O
ĠE nd
m an
8010 8
ON LY
30 8
ce pt
ĠJ ump
2 83
30 6
M I
or iz
END M
x C
16 1
Fa ulty
N ew
Ġora cles
ĠFa ulty
D ebug
2 18
P ath
Ġn C
O n
th is
MOV E
unt ime
50 4
th read
ĠC all
AN TI
78 4
d ent
Ġpsub w
d river
f ilter
( -
b i
Ġpunpck lwd
Ġmov h
c ed
f loat
j ae
2 26
40 5
85 6
Ġd up
# ,
Ġm atch
ĠCo mp
lan e
â ķ
55 565
T imer
30 5
Đ Đ
Ġ8000 4
29 2
000000 97
U RE
A pp
Ġ ^
X Z
Ġle vel
55565 758
ffff ff
Ġpsh ufd
g r
51525354 55565758
mul udq
vent s
23 7
Ġnot ice
Ġn ull
Ġnumber s
te x
Con text
k nown
e z
ok up
Ġ local
ĠR estore
Ġa a
ASGN I
Ġl pb
et a
c ra
ĠEX PORT
Ġs ame
Ġd on
us es
mp ty
Ġl pe
Ġ< _
ld x
sub u
Ġex pression
25 2
Ġ> ,
Ġform at
or ity
Ġst atus
and om
st and
c global
ĠLO AD
reg s
ĠCON TR
on ent
2 89
sh a
end m
B ack
ĠR EG
Ġld r
M L
A NT
25 8
Ġ% +
Ġ[ %%
res ult
x p
Ġxmm word
40 2
st i
Ġcopy right
D ef
s bc
h ash
st os
Ġ[ %
25 7
id x
ĉ ĠĠĠ
escript or
con sole
68 8
u le
sem bl
I E
Ġld y
OR Y
i k
D P
tra p
Ġa ut
ĠSP RITE
Ġmov sb
d own
80 8
Reg ister
29 5
70 4
Ġar ea
2 60
a ult
2 19
arg uments
Ġd own
Ġdi ff
8010 32
p a
Ġd f
27 4
;---------------------------------------------------------------------------- --
Ġh andler
ĠC OPY
Ġst at
v en
def ault
Ġc e
D R
si ble
Ġ WORD
30 9
BIT S
Ġ ****************************************************************
40 9
al k
ĠV er
ĠJ SR
f ix
x E
Ġe ither
u age
M an
Ġk ernel
ĠO ut
27 9
30 3
8010 54
de lete
Ġbin ary
/ _
AR D
i ter
J ump
8010 59
Ġex ception
Ġsh ld
b ranch
ot her
init ial
RAM E
ĠR e
il er
c v
Ġn A
Ġc r
LI B
al f
2 000
H ardware
Ġp i
l k
io us
J P
ef t
w a
Ġg iv
Ġter ms
do x
L evel
ĠI MP
Ġprint int
S end
Ġc ursor
ĠĠĠĠĠĠĠĠĠĠĠĠĠĠĠĠĠĠĠĠĠĠĠĠĠĠĠĠĠĠĠĠ ĠĠĠĠĠ
as ter
Ġa dox
p table
i ent
Ġus ing
j ns
i magerel
64 8
TI C
Ġ1 99
ĠP ublic
St atus
af ter
Ġ1 10
ang le
Ġco ord
r ret
p ad
*) &
ĠGener al
34 8
G EN
IF T
F O
pe ed
8010 29
CH AR
P ri
Ġpoint s
2 15
........ ........
Ġac quire
Ġs in
Ġw idth
M ach
ĠS ee
32 6
32 7
E nemy
Ġorig inal
ap ic
Ġ8000 3
n ce
0 78
fa il
i ma
I OS
AT T
c lib
unk s
l at
o ver
s ource
ĠT E
Ġj g
V AR
en emy
Ġch annel
8010 39
G r
FI X
CO UNT
8010 27
. "
PM C
ARR ANTI
ARRANTI ES
X DATA
) =
ĠW ARRANTIES
sc an
ĠPU BLIC
8010 60
26 5
85 4
M od
x define
OR G
ĠD e
ĠCO M
> ,#
b sl
f iles
bo x
ĠP GSIZE
ro ut
ĉĉĉĉĉĉĉ ĠĠĠĠĠĠ
EXP ECT
rit es
Ġm acro
A IT
35 9
Ġpro v
8010 34
8010 66
div u
48 4
Ñ ģ
move pc
hl i
TE MP
Ċĉĉ Ċĉ
Ġ8000 5
/ ../
Ġn B
p ara
Ġp rop
E DI
ĠĠ Ċ
Ġo b
26 6
30 7
(" _
ĠU N
FF ER
d k
ĠP C
Ġf loat
23 1
Ð ½
90 4
Ġde fault
ez dsp
80 7
v es
ie w
j ump
80 6
E xt
Ġvp addq
Ġi y
Ġp la
40 3
, _
l dd
Ġso me
Ġ'% '){
39 6
28 7
D esc
F N
ĠI t
Ġin ter
Ġadc x
c arry
s end
H IGH
F ORM
8010 24
Ġp ath
si b
PI X
TR N
M AX
P ER
DI R
11 00
17 1
Ġv a
as ci
Ġt v
Ġ1 19
p art
o bject
8010 25
V C
ĠX OR
68 6
ĠO n
80 1000
Ġal ready
I A
02 8
wn lib
Ġcontain s
70 8
ER O
Ġbe en
ĠBE Q
Ġinc rement
M ON
8010 19
i red
r p
M emory
in er
09 7
w ind
db a
sra v
29 8
Ġpre v
8 0000
80 3
xff b
ĠD Q
60 9
Ġp r
!! _
ID TH
Ġ ---
rev c
;;;;;;;; ;;;;
OF TW
Hardware Setup
ĠG ET
OFTW ARE
Ġto ken
align r
sp ace
Out put
++ ,
26 3
18 2
ĠSI ZE
ĠF UN
ic ro
ac quire
lab le
22 1
8010 13
S O
ĠEQU B
cal e
18 1
- (
c urrent
MOV WF
a k
85 0
Di splay
8010 69
27 7
cl mul
V c
OR S
U p
ĠF ree
ĠAR CH
P S
s ong
24 1
if n
8010 56
F ont
ake up
Ġ___ _
w e
Ġdest ination
Mach ine
Ġn E
48 8
F unction
DE MUXER
Ġ @@
Ġsc an
Ġs end
ĠN OP
NtUser Get
smps Vc
RE D
AN G
* (
n ow
gpr size
29 3
s cc
Ġre f
C urrent
sib ility
Ġ2 18
ĠItem s
70 9
29 7
V M
arg c
Ġĉ ĠĠĠ
re ction
8010 16
P re
b ra
Ġt arget
Ġ1 11
x A
L A
Ġ10 4
In formation
l us
Ġcall ed
SH A
55 0
Ġaes enc
o o
Ġ?? ??
ere nce
are d
xf e
S ound
Ġm ap
------------ --
8010 36
Ġcon text
8010 50
tra ct
ct xt
sion s
x data
Ġdistrib uted
ĠLoad I
A h
u x
Z N
33 3
ĠS OFTWARE
ta b
Ġd h
ĊĊ Č
Ar g
80 80
ĠMOV E
Ġf ill
C ursor
8010 20
) ],
p addd
SA MP
ĠĠĠĠĠĠĠĠĠĠĠĠĠĠĠĠĠĠĠĠĠĠĠĠĠĠĠĠĠĠĠĠĠĠ ĊĠĠĠĠĠĠĠ
ce ed
8010 12
68 7
60 5
p layer
Ġcon tinue
psr ld
Ġinterrup ts
us b
8010 17
UD ING
CL UDING
Ġt imer
ACC ESS
at ri
Ġ10 5
27 8
G ame
estr oy
psr lq
l s
R ect
32 3
Ġsub pixel
8010 15
y m
op e
Ġf ield
f irst
; ----------------
19 1
Ġin formation
64 4
39 9
bp p
ir q
Sp ec
Ġd n
Ġdig it
od y
move q
Ġ ON
Ġh eader
Ġright s
M R
G TH
sp atch
h andle
J R
70 7
Ġ( *
ĠTH IS
B G
âķ Ĳ
8010 48
06 3
r estore
34 5
ter min
Ġb ec
ip her
50 6
re q
A d
en ame
u art
ĊĠĠĠĠĠĠĠĠĠĠĠĠĠĠĠĠ Ġ
34 9
40 7
Ġch ange
c H
an y
DI SP
33 7
v printf
F ormat
, .
29 1
F RAME
ĠC R
X OR
L CL
0 16
IST ER
con s
en v
Ġmm size
80 9
Ġb d
c printf
psh ufb
Ġth unks
i lable
B S
con t
M y
Ġ( _
ar p
st dio
>: :
02 9
Ġtra ck
35 2
âĸĪ âĸĪ
80 5
po inter
h p
NtGdiDd DDI
Ġs e
mp t
ĠI dent
ĠReg ister
ta te
clmul qdq
com mon
ul eb
t xt
ĠB L
Ġcomp ile
AM IST
AMIST UDIO
Ġmov sl
Ġ?? _
F H
col or
Ġg oto
8010 14
c ord
36 9
E h
02 3
iv ed
Ġ; *
Ġ1 12
38 8
Ġc alcul
M ax
pl us
F R
c y
B ar
44 4
INDIR F
0 12
lo b
âķĲ âķĲ
T ABLE
t x
x FFFF
ĠLD R
strc py
at ing
Ġin ode
L B
Ġr est
26 7
in ser
Ġ ĊĠĠĠĠĠĠĠĠ
pre vp
ĠJ P
64 9
60 7
AT CH
Ġf ind
0000 05
p arameter
100 5
Ġ1 16
24 2
sh uf
Ġp ara
-+ -+
W IDTH
f etch
tr ies
terrup t
it or
Ġ loc
80 11
KEY S
Ġr eal
Ġc op
Ġpack us
Ġ} ,
blt z
Ð¾ Ð
ĠR O
6 00
oriz ont
M ET
ĠDo ors
S K
me mory
26 2
es e
g round
;---------------------------------------------------------------------------- -
str ument
Ġhtt p
c ted
83 0
ff f
lic ation
Ġ ~
B J
) (
83 8
sh ell
de lay
ug h
L eft
39 4
Ġ1 15
ĊĠĠ ĊĠ
' re
p and
g ra
P age
ĠS tr
s ar
an sion
un signed
34 6
Ġo k
de tail
c ursor
f n
27 2
en g
Ġgiv en
N AME
60 6
0 90
8010 10
000 8
er ic
Ġp attern
T C
UC T
Th e
A ES
n et
K S
Ġb h
Ġcomp are
M usic
------------ -
! "
28 1
unt il
cl c
000 7
Ġ8000 2
if i
H ER
id ed
PIX EL
rel se
85 9
Ġb ank
n umber
89 4
32 1
âĶ Ģ
inser ti
c mov
Ġal loc
C UR
if idn
d est
Ġ0 18
Ġw indow
G T
s u
ĠO bject
Ġb b
le t
27 3
test case
000 6
In ter
D one
8010 40
Ġ1 70
Ġn G
G A
Ġ[ ]
8010 35
Ġ1 14
D OS
DI V
Com mon
xf c
36 6
83 6
Ġn F
ĠD OS
Ġ= >
op er
qu are
ĠF AC
AL E
AS F
At tr
ic es
ver se
Ġmov sw
d uct
RA W
89 5
( ,%
Ġal so
M ACRO
p te
beq z
Ġh old
r q
Y MMWORD
PL AY
Ġp s
ĠSEC TION
Battle Text
0000 01
ĠE S
C RE
w idth
Ġab s
b as
l in
il ec
ound s
02 2
ĠS EG
ĠFL AT
R ow
25 1
ra p
Ġla ter
UL T
Ġr a
Ġpunpckh wd
lo or
+ (
of s
j l
con text
co ding
80104 9
Ġs aved
39 8
ĠPush I
O ver
J SL
34 3
Ġp a
L DI
:: _
ĠX AR
36 5
DE D
ul ar
Ġspec ific
p li
FF H
80104 6
Ġag ain
T oken
ĠD ec
co s
v aesenc
ĠA F
! \
c le
48 6
SE D
83 9
M C
F lag
Ġvari ables
ï¿½ ï¿½
S SE
bo ot
;---------------------------------------------------------------- ------
Ġen able
vp addd
tra ns
âĶĢ âĶĢ
rout ine
E V
scc z
f stat
50 9
ĠEX P
88 8
M AP
typ es
26 00
LD R
) ^
C TR
Ġn ormal
Co unter
Ġl icen
59 3
Ġr ol
P SG
D h
Ġblock s
79 6
Ġf unc
70 5
ST UB
c q
ĠA DC
Ġ5 12
R ight
sl li
< %
ĠY ou
56 9
33 33
ĠĠĠĠĠĠĠĠĠĠĠĠĠĠĠĠĠĠĠĠĠĠĠĠĠĠĠĠĠĠĠĠ ĠĠĠĠĠĠĠĠĠĠĠĠĠĠĠ
Ġla pic
8010 11
De lete
Ġv inserti
=-=- =-=-
D Q
P arse
02 6
co eff
D MA
Ġter min
74 9
ĠMa terial
;------------------------------------------------ --------
Ġlim it
l z
Ġr ea
; //
av g
Ġcy cles
0000 10
s on
ĠI R
str eam
M ain
f rom
50 3
() ->
P er
Ġd ir
ĠE vents
CL R
x D
02 1
32 768
stat us
(" /
32 2
76 5
I SE
35 7
av a
atri x
w o
70 6
Ġm enu
ĠF or
ĠR edi
________ ________
ĠOut put
Ġp ar
ĠIN CLUDE
ev ent
NtGdi Get
79 7
cc s
il ename
78 6
IN DEX
Ġp sra
LI ED
W R
p n
va ilable
Ġ10 3
strib ution
um ul
Ġfor k
Ġ until
v extracti
ver y
Ġ# %
Ġi mm
C MD
B ER
ro ugh
t ile
Ġror x
ĠP ORT
SE H
36 7
B ANK
34 7
up per
Ġop tion
ang ed
W AIT
re qu
c ld
64 7
acc es
55 4
11 10
Ġr ange
BU G
Ġ* )
5 00
76 9
ĠĠĠĠĠĠĠĠĠĠĠĠĠĠĠĠĠĠĠĠĠĠĠĠĠ ĊĠĠĠĠĠĠĠ
ĠBA SIC
8010 23
---- -
Ġper mis
ĠT MP
ĠSY S
out ines
Ġsb rk
Ġ1 20
Ġcp u
Q ue
tr l
ĠB UT
Ġ8000 1
L ink
35 3
u ge
MOV LW
ĠNo te
8010 58
8010 57
er ve
55 8
H igh
ĠF ound
Ġsp ill
83 4
L ASF
Ġ" (
ĠIMP LIED
p data
Ġdb l
ch annel
my proc
ip ut
77 7
T A
Th is
ĠE CX
8010 28
55 6
H AND
H el
fast call
qu ad
ur es
Ġdo c
D oc
our ces
Ġc reate
Ġin voke
Ġno te
mm size
Ġus es
r atch
n one
pre v
st ant
ĠRedi stribution
V is
u ld
Ġd rive
I Y
il lip
P osition
ĠD O
al s
D ire
Ġ1 000
Ġrl ca
Ġneed ed
75 9
add w
CH AN
sl t
du le
Ġlow er
orizont al
E H
d ge
Ġstos b
80104 5
80104 7
cmp b
C V
Ġs lot
18 00
FUN C
o mp
," /
Ġpsra d
35 8
p aram
St at
a wn
b w
ind er
Ġmov sq
Ġ1 53
ĠPo inter
78 8
8010 38
ĠD i
cmp eq
cra ft
ĠA n
ĠG O
ĠST AT
co unter
lh u
Ġ ){
Ġres erved
Ġc li
Q E
.. //
F irst
ph illip
/../ ..//
or age
89 8
v i
Ġ- =
75 7
la sh
mple te
b gt
CH ECK
ĠIN CBIN
ĠI s
sq r
G en
60 3
F S
Ġg lobal
Ġf ilter
8010 26
W RITE
ad cx
Ġ10 8
Ġob tain
08 00
J UMP
ĠĊĠ Ċ
Ġ1 13
c ard
39 7
Ġr untime
J NZ
50 8
55 5
TI AL
b ad
CRE ATE
M ask
lea l
Ġother wise
?$ _
Ġvp muludq
Ġsu ch
C Y
Ġm sg
Ġf iles
1234 567
Ġocc urs
( ;
Ġprev ious
B uf
i dd
8010 30
90 6
ĠWITH OUT
ĠAdd ress
Ġfc b
xml S
p ack
PR INT
res et
st op
ĠN UM
F ind
R a
ct or
Ġg ame
) ),
Ġe ven
acces sibility
EL OP
|| ||
P D
Ġ! (
S FX
64 5
Ġb et
Lo cal
8010 68
0000000 10
D OWN
85 8
STUB S
Ġre ce
ĠPR INT
detail s
Ġstr eam
64 6
Ġ" ,
Ġh ash
g ame
Ġtot al
S ING
Ġt rn
Ġwrit ten
sp ec
79 8
M sg
p end
39 2
C M
Ġv ar
44 9
44 7
AT H
W ord
Ġ4 00
g dt
S ER
+ %
ag er
Ġrequ ired
3 10
ph a
ITE M
GE ST
ĠĠĠĠĠĠĠĠĠĠĠĠĠĠĠĠĠĠĠĠĠĠĠĠĠĠĠĠĠĠĠĠ ĠĊĠĠĠĠĠĠĠ
80100 5
C lip
Par ty
co ord
Ġle t
C lear
STR IDE
c ceed
74 7
ĠIn c
b ot
85 7
79 4
48 7
SYS STUBS
ĠM usic
Ċĉ ĠĠĠ
E v
ff e
x aa
unlock put
75 4
Dev ice
80 2
Ġun link
g a
At tack
De fault
DI GEST
AL SE
Ġ order
ec h
ĠN one
Ġprop er
preset s
y p
Ġe xt
B ank
Ġb ig
Ġin line
ĊĊ ĠĠĠĠĠ
O r
02 7
bb le
Ġj l
e k
50 7
mo re
EX TRN
00 40
Ġ$ -
f ter
36 3
Ġmova ps
shell craft
j ob
ĠP TE
85 5
LE FT
Ġcon vert
TH ER
Ġs tep
Ġa e
vp erm
f alse
ta x
Ġpsh uf
W idth
90 9
Ġth read
55 7
h eader
Res et
39 5
Ġdev ice
Ġex tern
ĊĠĠĠĠĠĠĠĠĠĠĠĠĠĠĠĠ ĠĠ
wa ys
ĠPR G
V ol
Ġen ter
l f
o bj
IN V
Ġdst q
R ep
74 5
w ork
EN CODER
P h
-------- -
ĠD raw
m x
mple ment
Ġp c
83 5
Ġ2685 04
tra ck
ep i
3 12
G roup
Ġpackus wb
t p
sub l
shr d
f ill
Ġ ================================================================
ĠĠĠĠ ĊĠ
t v
55 9
0 40
$ ?
ke ep
t m
Que ue
l ess
ER N
l ish
v ariable
ran sp
68 1
st p
Ġ1 60
Ġqu e
89 7
yn am
34 2
ble z
x fd
Ex p
p arse
17 03
< /
L ow
ĠMo ve
ho ld
u const
op tion
ĠData C
)+ ,
Ġr r
ot al
N EXT
Ðµ Ð
3 70
ĠN ot
Ġ --------------------------------
38 7
Ġbec ause
inter rup
0 14
V IC
Ġ1 44
ou g
8010 53
ĠFound ation
R ef
la ck
EL SE
ĠĠĠĠĠĠĠĠĠĠĠĠĠĠĠĠĠĠĠĠĠĠĠĠĠĠĠĠĠĠĠ ĊĠĠĠĠĠĠĠ
âĶ ģ
ix ed
an o
que ue
Ċ ĠĠĠĠĠĠĠĠĠĠĠĠĠĠĠĠĠĠĠĠĠĠĠĠĠĠĠĠĠĠĠĠĠĠĠĠĠĠĠ
E Q
Ġin fo
UL AR
Ġ2 00
ĠM M
ĠL ibrary
sp rite
n i
Co mmand
Ġwrit ing
C SL
80100 4
ITE D
3 40
NtUser Set
Ġf inish
F AC
z z
74 6
esc ra
ĠĠĠĠ ĊĠĠĠĠĠĠĠ
I V
78 7
W ork
Ġi mul
83 7
ch g
= $
P A
TE D
Ġsu cceed
AL T
Ġcoord in
00 80
ĊĠĠĠĠĠĠĠĠĠĠĠĠĠĠĠĠ ĠĠĠĠĠĠĠĠĠĠĠ
v f
trib utes
ar ea
89 2
54 7
ĠIN TER
ww w
80100 6
80106 5
escra dr
ĠNtGdi Dd
GRO UP
AR Y
eal loc
CO MP
90 5
Ġper form
Nt Query
EN C
n u
IM ITED
ĊĊ ĉĉ
ĠB P
I AL
Ġpri me
F AR
er ial
B NE
r ont
================================ ================
L ast
Ġinst ance
T F
Ġf s
ĠA SM
8010 37
ma c
N ULL
22 22
b utton
fa ir
M in
ffff f
Ġld h
A ccess
Ġl icense
ĠB G
ĠĠ ĉ
Ġ2685 03
af e
Ġ218 29
R oute
add pd
PC M
S BC
Ġ$ {
Ċĉĉ Ċ
ĠA T
0 79
Ġd el
85 3
99 6
96 00
Ġco mm
te cted
ĠW ALL
si de
B ot
R S
y mbol
Ġe lement
28 2
56 6
RI P
Ġdirect ory
Ġ# <
Bit map
ĠM ACRO
Ġmem set
re en
Ġy es
Ġ# >
G ener
B ranch
h ex
ĠSIZE OF
f ind
Ġs ure
ĠM P
000 9
En g
r un
******************************** ****************
Ġl ines
ĊĠĠĠĠĠĠĠĠ ĊĠĠĠĠĠĠĠ
85 2
------------ ---
66 6
ĠD AM
t im
sw itch
re n
ARG S
Ġy our
Ġreturn s
ĠP UR
EN SE
ĠO S
Do main
ELOP MENT
Ġa v
psl ld
Ġsin ce
Ġs leep
ĠM U
DEV ELOPMENT
Ġe mpty
LE A
Val id
Ġr rc
movz wl
ST EP
a ction
j or
Ġco eff
15 11
../ ../
Ġvpbroadca std
ĠAN IM
s ched
BU FFER
ĠC F
80100 9
Ġcor rect
79 2
ĠIn put
Z T
ES C
Ġprov ided
p ar
Ġa vailable
Ġ* (
C AL
in f
8010 33
ĠF LO
ĠIR Q
D H
ĠT ext
ĠL B
g roup
ti ck
Ġ1 36
xor i
Ġrow s
Ġs mall
ĠĠĠĠĠĠĠĠĠĠĠĠĠĠĠĠĠĠĠĠĠĠĠĠĠĠĠĠĠĠĠĠ ĠĠĠĠĠĠĠĠĠĠĠĠĠĠĠĠĠĠĠĠĠĠĠĠĠĠĠĠĠĠĠĠ
psh ufd
R UP
ra nd
y si
. _
co mmand
$ :
stos b
or ary
, \
I SR
iz ation
$ _
c an
Ġf p
COL OR
Ġld i
ĠB R
ea k
54 6
O ption
ynam ic
Ġn D
76 3
m ethod
74 3
eg in
STR UCT
du ce
ĠO THER
Ġsw ap
Ġth rough
0 15
8010 18
Ġarg uments
ut o
0000 06
PAR AM
ter m
sub s
89 3
end rep
ĠEX TERN
- $
Ġpack ss
sl tu
Ġ00 1
Ġarg c
er a
ĠU pdate
R ST
ĠCH AR
ĠB ANK
E rr
s ing
o me
75 2
ro om
Ġw ant
B h
MET A
tend ed
00 10
ist udio
Ġb oot
80106 7
Ġfa il
ĠCOM DAT
79 5
Ġ? +
Ġstruct ure
Ġb ra
m en
90 8
99 5
D river
Ġ2685 09
Ġparameter s
PI O
++ ),
m ark
ĠP H
ĠC ode
en e
FF F
ĠE RR
55 2
St ore
EN U
Ġsucceed ed
O ff
54 9
Ġi dx
DI RECT
if ied
D ir
g oto
ĠF E
Ġval id
T iles
FLAG S
Ġs la
call q
80100 7
Ġmodif y
Ġin dic
ĠUn known
Ġcl r
m enu
id ct
PO SE
Ġsh rd
Ġh eight
Ġarg s
ĠM ER
xc c
) -
ur face
ĠA r
P alette
ĠIN PUT
Ġarg v
Ġpsr ldq
V ector
16 07
Ġ?? ?
N ESS
83 3
str n
RT S
âĶģ âĶģ
ĉĉ Ċ
ĠA SC
Ch ange
ĠN Z
! ,
Ġthe m
Ġx chg
Ċ ĊĠĠĠĠĠĠĠĠĠĠĠ
SH IFT
LEN GTH
no d
GOT O
ĠIn itial
sembl y
SE L
90 3
15 07
tr ue
p unpck
ub lish
l cd
EG IN
b ank
Ġc mov
Ġto o
Ġexp ress
t imer
Ġ4 01
> )
Ġpsr ld
Ġstart ing
ĠPUR POSE
ifn def
ĠRes erved
000 11
mm y
Ġ[ _
02 00
S n
Comp osition
al og
37 3
ĠE xch
we en
un wind
Ġw ay
im um
CH ANT
7 03
un or
ĠL IMITED
: (%
2 68
bge z
li ed
slti u
Ġpadd sw
Ġdiff ere
Ġl w
PL Y
0 30
x ec
3 36
Ġl sl
ĠF IT
TIM E
ĠSTAT US
CHANT ABILITY
en db
ĠExch ange
Ġc ell
54 5
d ed
ĠG R
ra nt
LOC AL
A ct
ra g
En um
66 66
ver sion
emp ty
< -
V er
ĠEN C
k ernel
ĠM AX
_ %
8010 52
ĠL AB
ra te
le vel
10 240
S Z
Ġcharacter s
S ec
j nc
k p
Inst ance
ĠFIT NESS
y nc
o us
ca che
Ġb ad
Tra ck
BE Q
ĠLI ABILITY
Ġv f
ing s
80104 3
Al loc
ĠR oom
;;;;;;;;;;;; ;;;
6 000
DO C
Ġr outines
interrup t
c bc
59 7
49 4
ĠOp Label
200 3
76 00
Ġwh at
[ ]
an e
si ve
ĠMER CHANTABILITY
Ġmov s
Ġf ull
sub pd
t l
Len gth
di rect
P IC
E SI
s oft
Nt Set
x bb
ror x
26 1
bl k
Ġd escriptor
N ode
) }
mo te
P W
ex ception
Ġre l
d ebug
ĠPAR TIC
T ask
Ġ' -
M F
Ġ__ ,
ut c
96 9
x fa
s es
ĠB ank
A sm
Ġover flow
b n
505 13
Str uct
T L
mo nt
is or
ĠS FX
Ġ___ ,
M IN
48 1
88 4
Ġp ublish
Ġsh a
s bb
ĠS AVE
ĠM ap
is r
RIP TION
Ġ+ +
w c
ĠPARTIC ULAR
B l
CON TR
44 5
3 13
En able
ï ¼
Ġh and
Ċĉĉĉĉ ĉĉ
TH IS
', '
Ġre main
Ġdef ined
ĠS el
ma inder
Ġp alignr
c ry
B utton
8010 22
DW R
Ex ception
Ġb as
Ġa sl
Ġfunction s
Ġsup pli
Ġv dst
u X
ut h
Ġ} ;
pro ject
L fe
Sc an
@@@@ @@@@
ur ation
ĠN EXT
4 20
ĠW H
ĠnB b
64 3
EB P
es sion
ĠâĶĤâĶĤ âĶĤâĶĤ
cur proc
ĠC S
Ġt ask
rep os
44 6
te red
Ġcon sole
Ġmov z
] +
Ġsrc q
59 4
Ġlo ok
OP EN
000 12
H i
SE CT
ĠEN DIF
80106 3
ĠL CD
K ernel
92 00
Ġpass ed
Ġs ound
58 7
IN CBIN
C I
aes dec
Ġ ,$
Ġ[ .
ĠV ER
Ġp lace
Ġal ways
G F
Ġmo n
In ternal
f ld
QE AA
Ġ80 1
Ġg roup
Ġl ess
Ġbot h
0 24
Ġm ethod
. '
Ġ2685 06
Ġm ea
endb r
A ll
ad ox
ĠH IGH
L ER
it ive
FL AT
P aram
66 9
A UT
Ġf am
con v
ch ange
59 2
ĠR ight
96 7
AIN ER
170 25
Ġmem move
Ġun used
ĠT IM
ĠD IS
Ġi rq
OUT PUT
di sk
in sr
75 3
di splay
S ection
27 1
++++ ++++
DE BUG
SP RITE
20 20
## #
P RE
64 1
56 3
4 16
s ources
Ġp ressed
ĠCOPY RIGHT
Res ult
ro uge
ad ow
Ġdoc ument
bgt z
^^ ^^
ĠR ep
ç ļ
o ok
Ġ ĉĉĉ
ht ml
ĠS croll
çļ Ħ
B its
By tes
me ill
rouge meill
rougemeill and
A fter
g raph
ĠF ILE
ĠF IX
3 02
Ġl sr
ĠST ACK
E Y
R DWR
Ġ" =
C AN
' '
rest ored
ran ge
Ġ10 9
FF h
S rc
99 8
Ġc printf
w in
ĠL R
ĠT ype
( !
P AGE
Ġmovh ps
p ip
enc y
ĠEx it
EX IT
Ġcall er
EC X
ĠA B
h ere
Ġ1 17
Ch ain
f ull
S croll
Ġh ex
VOL UME
Ġcp uf
FUN CTION
I mp
Ġh p
Ġde lay
l unor
000000 13
w f
icro soft
x ac
IT CH
low er
G C
O AM
ĠN ame
s n
K ick
L ANG
ram es
Res ource
; --------------------------------
Ġ1 54
, ,
Ġmy proc
D estroy
Ġd river
Ġ40 96
Ġ2685 05
ĠB it
lo ur
c lass
Ġbet ween
C J
Ġb cc
46 5
9999 9999
, <
49 7
ysi cal
Ġp lay
Ġbot tom
un def
Ġup per
lang uage
NO TE
ĠS up
pro gram
mk nod
)" ;
RO UND
get pid
B Y
C LE
Ġend s
ĠA RE
10 586
Ġs rl
che ma
D iv
con f
66 5
M K
000 70
Ġm ark
3 14
Ġreg s
40 96
la pic
Ġw ould
SE LE
99 4
ĠW ait
:::::::: ::::::::
Ġe very
W IN
3 80
SP ACE
En ter
ĠT ra
Ġal low
or es
Ġbe ing
ay er
Ġt ick
imp le
f ont
D own
U F
> =
84 6
Un lock
IC ENSE
Ġin y
er ead
V iew
no de
h w
reg x
37 90
ĠVer sion
36 1
ARG I
ĠâĶĤâĶĤ âĶĤ
) ->
Ð° Ð
Z ero
ĠA CC
w k
Ġd ict
ĠF P
Ġ å
S ession
xffff f
CT L
Ġs ingle
Ġex ist
ĠF AMISTUDIO
tain er
UN IT
Ġbe low
L SE
l sl
A DER
ĠOp Branch
Ġf ar
TI LE
OW ER
F ill
ĠRET URN
8010 70
000 32
15 063
4 80
M E
AT TR
EN ABLE
ĠD L
ĠĠ ĊĠĠĠ
Ġexp onent
Ċ ĠĠĠĠĠĠĠĠĠĠĠĠĠ
Ġpunpckh bw
SC REEN
el ative
Ġ/ =
DE N
14 393
sub dir
RD ONLY
F OR
ec e
te ll
5 24
V ariable
in ition
ĠCo ords
Ġ err
080 4
T op
Ġdistrib ution
7 00
Ġcl c
38 1
B egin
Ġp avg
R o
end s
Ġequ al
sel ect
ĠASC II
ĠL poly
Ġ1 30
Ch annel
ca pe
M ultip
ĠC A
i sion
u ally
b g
ĠT est
V L
ĠR TS
d y
} {
REG ISTER
AL R
; --
x dd
tr o
lo okup
ĠD is
xa mple
ĠP AL
09 13
IN I
80100 3
ĠO BJ
Ġ2 04
oug h
b extr
nd er
b sr
ĠTE ST
ĠFLO OR
mm x
Ġtw temp
RE AK
################################ ################################
xd f
ed ef
v addpd
A ss
Ġf etch
p la
Ġs croll
g ot
Con n
v ir
Ġma terial
Ġacc ess
; ĐĐ
T M
;ĐĐ Đ
g ft
sp utc
s at
03 6
Ġvp erm
l sr
Ġth ese
VAL ID
ĠStr ing
F ront
ol s
ĠE DX
and ard
ĠX MM
FA ST
Ġst ored
Lo g
sc al
l ing
P a
ĠR GB
c at
lq dq
Ġde fc
59 5
D M
Ġpmul lw
pp er
en se
H ash
Ġ00 000
38 2
Y AX
Sel ect
ail s
Ġp wnlib
ĠW AR
MM X
mov abs
Ġinc lude
v subpd
66 3
DAT E
y es
Ġl dd
ĠU I
' );
Ġex x
69 3
ĠRes et
ec all
in y
Sh ow
W ith
co mm
Ġh d
Ġadd l
Ġthe y
ĠX ML
Ġbut ton
Ġinc lu
P OS
Ġst op
7 20
DESC RIPTION
R GB
ĠK EY
Ġpunpck ldq
ial og
ĠM F
ĠLEA Q
" :
G O
. )
Ġcur proc
def c
c fa
ss se
LI ST
ri er
er ge
Ġvpbroadca st
P ara
Ġ* %
AT ER
84 9
Gr Obj
Ġaes dec
D L
35 1
Ġpro duct
ith m
ORM AL
55 3
es k
34 1
Ġn u
Ġor g
XT MP
c ipher
amp les
TR UE
o ice
x ee
cv t
ĠN EG
CONTR OL
dw end
us ter
Ġ1 92
Ġdef w
om b
n bytes
ult i
? )
J Z
M atch
f ound
80112 6
============ ===
lean up
s ors
g le
get token
ĉĉĉĉ ĉĉĉĉĉ
roc ess
ĠL ink
Ġ ];
Ġs eq
H P
f ormal
49 5
ĠSC REEN
Ġfam istudio
cal c
ar ge
CH R
Lo c
FFFF FFFF
ant is
Ġlicen sors
90 7
Ġext ra
@ ?
ro ot
ĠSp rite
Ġnot hing
Ġsuppli ers
AR CH
Ġs peed
di s
ĠD R
Ġcon tent
Ġfor ward
~~~~ ~~~~
h el
56 2
80100 8
bas escradr
ĠS ys
ĠMO D
3 16
ute x
C lose
Ġio apic
ĠFL AG
Dire ct
Ġdi rection
ĠB IOS
ĠEn able
Ġdis cla
LOG UE
Ġps raw
f our
l ush
03 8
ASGN F
85 1
rea l
L CD
ĠS U
ĠEn try
an c
end er
ĠC RT
100 1
3 32
âĢ Ķ
Ġdiscla imer
99 2
Ġset up
ĠS end
ĠK ey
p u
Ġd ebug
b ss
fr ont
ul er
i bble
å Ń
IN CLUDING
ASGN P
O dt
l c
w ay
ĠS A
lic ate
p el
ĠIn dex
ĠEX E
( ))
r nd
5 20
d it
ĠRE AD
Ġ ĊĠĠĠĠ
V irtual
Sw itch
Ġpackss dw
AC H
ĠStore I
ST D
ĠS ize
requ ency
loop gas
h a
ĠX L
Ġen coding
Ġ1 18
De lay
I BUT
iter ator
Ġdis able
U se
my cpu
t arget
STR ING
addr s
76 1
Ġw rt
P ok
Ġe vent
om et
Ġh el
m essage
n ul
66 7
Ġtile map
ĠC reate
f inish
R et
m es
69 7
psl lq
Ġh alf
ĠRedistribution s
sr li
i mm
ĠĊ ĠĠĠĠĠĠĠĠĠĠĠĠĠĠĠĠĠĠĠĠĠĠĠĠĠĠĠĠĠĠĠĠĠĠĠĠĠĠĠ
53 7
S erv
Char s
h eight
Ġ1 40
Tra iner
ĠR ES
RE STORE
TERN AL
P ic
set up
Ġc lock
//////////////// ////////////////
46 7
asci i
84 7
ĠB ALR
68 2
AN IM
Ġs q
Ġst ill
bne z
F unc
th ing
Ġe ffect
39 1
li f
lan es
C NT
v mov
ĠU P
rig ger
F LO
ĠX REF
ĉ ĠĠ
G G
Ġsu ccess
ĠR elative
n ames
p ed
ĠI T
Z ERO
u c
AG ES
Ġs earch
4 14
ut il
S ector
Ġin valid
Ġh i
ĠLD X
un defined
ic ient
ig a
ĠH ex
ld y
nor fair
4 21
rea se
Ġver t
I Z
Ġc m
trib ute
48 2
si te
ĠC UR
Ġed ge
I MM
p mc
stand ard
60 80
IBUT ORS
$ '
SC R
T T
Ñ ĥ
H W
3 15
ent s
Ġsup port
ĠCONTR IBUTORS
Con fig
inc bin
addi w
} ;
t imes
ĠĠĠĠĠĠĠĠĠĠĠĠĠĠĠĠĠĠĠĠĠĠĠ ĊĠĠĠĠĠĠĠ
ĠS S
US ER
N R
Ġ26 9
Ġpermis sion
AP I
I B
33 1
Ġ et
3 30
99 7
Ġ14 5
Ġdiffere nt
AR M
st c
Ġr ate
Ġact ual
Ġpublish ed
pe ek
ĠU se
âĢĶ âĢĶ
c rc
Ġspec ial
ir d
Ġs ty
Ġ4 02
Ġ0 10
Ġ2 40
Ġ00 01
LD X
76 01
616 2
0000000 1
L T
No te
Ġst x
Ġre move
B EGIN
Ġr andom
80100 1
59 8
Ġ keep
di st
Ġ" @"
up time
Ġacc umul
Ġdec imal
AG IC
ĠST ART
Ġ1 50
3 85
bp c
Ġ3 00
ds b
Ġch ild
xf b
ent ity
en um
Ġco uld
sa mple
te ct
4 22
cre ment
ĠLO OP
Ġb read
Ġdo uble
88 88
xc a
ĊĠĠĠĠĠĠĠĠĠĠĠĠĠĠĠĠĠĠĠĠĠĠĠĠĠĠĠĠĠĠĠĠ ĠĠĠĠĠĠĠĠĠĠĠĠĠĠĠ
R ate
Con tainer
G o
Ġ1 32
4 26
o op
Ġ1 80
AA AA
Ġimp lied
RE C
sa dbw
ĠU INT
\ \
3 19
ĠC G
3 89
a H
ĠV AL
ĠEXP RESS
3 76
ĠL ess
20 48
Ġkey board
S ign
ĠN ow
E xample
DC T
ĠMU SIC
3 17
un e
Ġ1 24
J ust
form at
in um
Ġt ri
ĠS tack
55 1
P FX
ust om
Ġdoes n
RO UT
ĠJ on
ĠB attle
S ource
tr n
SI Z
S F
Ġt ry
eal th
Sn are
Ġan other
Ġr oot
ĠM ake
Ġn ames
P N
Ġre di
R X
4 32
por ted
in x
Ġ2 80
Ġx tmp
PR C
Ġo word
V ideo
IN K
id er
00 11
36 2
Ġp ublic
ext ra
ĠOn ly
d ump
in line
Ġmm x
Man ager
i i
x ab
Nt Create
as sert
ens es
tmp q
M ethod
s up
Ġp alette
8 0000000
3 35
Ġt ransp
Ġcon fig
t iles
Ġ1 84
ec ess
Ġread ing
ĠK ra
si s
44 1
w orld
in v
ĠT emp
Str eam
Ġv extracti
TR AN
K e
ĠSH A
Ġg hash
IN TERNAL
4 48
ĠP layer
r unc
typ edef
ĠDi splay
C li
ĠC om
ĠCH ECK
Ġc nt
s ector
bl ank
E LD
3 68
Ġf inal
p x
lic enses
ĠM ax
0 60
LD Y
be red
ĠS w
ee p
O ID
get asm
C OPY
å ı
on ds
ch ine
00000000 0000
20 80
+ =
P lay
align ed
IN PUT
Ġneg ative
tent ion
tick s
UM ENT
Y A
ĠEX IT
USE D
000000 73
NE W
srl v
attr ib
Ā Ā
] <
Ġ1 21
S V
END P
OL DER
Ċĉ Ċĉ
CO EF
Ġ10 7
Sp ace
P ush
Ġj c
g eb
CR C
ĠV AR
ĠMa iga
A UDIO
JUMP V
Ġvp addd
xc f
âĸ ł
le m
CALL V
Ġt rue
ĠReturn s
Ġ2 70
xor l
ra ction
mo unt
MUL TI
Ġalign ed
3 01
ĠB CC
ĠF A
56 1
9 00
Ġo wn
3 75
54 1
Ġtemp orary
S eg
mv l
coeff q
ĠLess er
Ġreturn ed
ĠLo op
Ġw r
US B
6 55
Ġymm word
ar ds
I LL
ĠAR G
sll v
ĠSW AP
N S
lock ed
S up
L BB
v ate
call y
s fx
get c
mx v
Ġr k
89 1
CON FIG
OP T
Ġact ive
F loat
O ne
s in
Option s
pri ority
ri ter
Ġmov ing
Ġ1 74
p f
ATT LE
Ġo dd
xy z
83 1
Th unk
n on
Ċĉ ĠĠ
li sion
ma jor
big dw
de l
h alt
PO INT
0 13
v ance
o st
Mo use
sub q
Con stant
d eb
di an
w q
Ġs ra
ĠE BX
VI S
MOV F
Ġcoordin ate
80104 2
3 50
D RAW
sq rt
U X
Ġc ache
ĠO ffset
re ed
F RE
49 8
4 50
R estore
g es
Ġ2 24
78 2
87 80
omet hing
x bc
er ator
( __
Ġreg ion
E nt
ang uage
Ġspec ified
ĠERR OR
ed ex
ĉĉĉĉĉĉĉĉ ĉĉĉĉĉĉĉĉ
ĠD DB
ĠPo int
Ġj b
5 44
Ġlet ter
20 97
T AB
E ffect
0000 6
doc string
ilec lose
8010 74
49 3
Re lease
MO D
Ġab out
ĠNO TE
Ġdec rement
ĠV M
ĠF irst
Reg ion
Ġoper and
ecess ary
Ġp sadbw
ĠFUN CTION
ĠI O
ĠNtUser Get
enc rypt
4 30
Ġm is
ĠL ED
In c
Sw ap
N et
80106 1
010 1
Ġset ting
ĠD EB
b ody
58 1
Ġ10 6
Ġstat ic
x ed
pro xy
x ea
S imple
;**************************************************************************** ***
GRO UND
Re move
proc ess
Ġu char
ĠĠĠĠĠĠĠĠĠĠĠĠĠĠĠĠĠĠĠĠĠĠĠĠĠĠĠĠĠĠĠĠĠĠĠĠ ĊĠĠĠĠĠĠĠ
80106 2
Odt p
inst ar
290 8
aaaa aaaa
Ġb relse
la p
Ġoper ation
Ġcall s
po se
ĠOp Load
ST ER
w akeup
A FA
_ :
xffffff f
ĠR IGHT
Ġm usic
Ġn ibble
) <
Ġ2 88
Ġen tries
con create
Ġ# '
3 11
O SE
ST EM
EF T
ĠEx ception
Ġ00 3
Ġe q
rea ter
s gn
ĠRight s
v c
64 2
Ġb i
and ed
sp eed
EB X
Ġsel ect
d on
D ialog
or a
**** ***
Ġw in
EN TER
arg int
b cc
FORM AT
75 1
ma ps
P al
ex tent
@ $
BR A
e i
con tinue
Ġpri or
Ġsub tract
ĠM DB
proc end
Obj Message
P AL
u mmy
TE X
ĠR ST
46 3
H ex
RE NT
esk top
Ex ec
Ġout b
ĠSP EC
proc start
G FX
BE AT
Ġ; [
ik er
Ġen abled
ĠC C
d at
Ġj al
ĉ Ċĉ
Ġ---------------------------------------------------------------- ----------
0 50
F ield
5 21
OP ER
ASS UME
Ġj ob
ĠL EFT
v ec
P art
A s
0000 8
77 2
S urface
8010 21
s croll
Ho ok
RO LL
6 001
DU LE
ed ure
Ġin f
Ġpres ent
Ġpsl lq
8010 31
ĠS ER
j o
IN FO
Ġ2685 08
Anim ation
U ART
O LD
is a
Ġ >::
ip ps
Ġ00 00000
ac es
h la
Ġaut h
u ter
ic ache
qu it
;;;;;;;;;;;;;;;; ;;;;;;;;;;;;;;;
equ est
en able
Ġ---------------------------------------------------------------- -----------
4 10
Ġsbb q
Ġl ibrary
80105 1
xmlS chema
ĠN ew
ĠK IND
HAND LER
GOT OFF
edi ate
In terrupt
Ġrece ived
S kip
Ġinst ead
un ge
test l
69 4
ĠE dge
******************************** ********
Ġsh ow
ur pose
w rit
DE P
Ġel f
g raphics
bot tom
e eb
69 5
e or
Ġpointer s
pro g
ĠL abel
78 1
ĠED GE
Ġ1 87
ĉ ĠĠĠĠ
[ $
as sembly
ĠCh ri
Ġmodif ied
Ġt ail
Ġn one
Ġm et
ef ul
3 74
Ġ: =
Ġ6 5535
Sh ift
dig est
Ġre cord
Ġ10 24
sec ond
85 899
Ġd et
lob bered
b uild
und o
L ong
45 01
xffffffff ffffff
ĠMM WORD
- *
Ġapp ly
ARR AY
b read
ĠC ol
In v
ED X
ĠD MA
Ġrl c
R L
80 110
r esp
04 9
av ing
H A
Ġin x
A rea
Ġh eap
4 85
84 5
Ġ lab
Ġ2685 16
P ACK
um es
ĠĠĠĠĠĠĠĠĠĠĠĠĠĠĠĠĠĠĠĠĠĠĠĠĠĠĠĠĠĠĠĠ ĠĠĠĠĠĠĠĠĠĠĠĠ
ev en
Ġinstruction s
Ġm antis
( --
Ġload ed
mode l
Ġex cept
Ġu i
ĠP L
515 2
B END
88 7
6 5535
Ġtrans fer
d ct
os s
ifi er
Ġs ymbol
ĠINTER RUP
Ġ2 38
e et
3 18
ä ½
EN V
Ġr o
0 70
Ġ' ,
80104 1
1234567 890
Ġ ------------------------------------------------
ĠD UP
x ef
dwend tag
Ġr ot
Un known
MOV W
sm all
ĠR oute
Ġ32 767
console intr
Ġt urn
Ġ-- >
Ġ2 75
Ġ1 90
Ġ QU
push str
Ġy m
ĠNtGdiDd DDI
unge on
(" ../
88 6
IC K
x dc
Ġdef ine
Ġw akeup
Ġ2685 14
ĠB ot
E sp
44 3
Co mm
ĠB uffer
ĠSEG MENT
Ġpsr lw
6 002
,# $
0 54
p wnlib
Ġd Kick
00000000 00000
le g
ECT OR
Ġc rea
w ith
ĠA rg
St op
################################################################ ########
B ACK
F DEC
ĠIn terrupt
rea di
ma ke
Ġmo dule
z p
4 40
17 09
3 38
76 2
ID X
RA NT
FLO AT
Ġ== .
Ġimp ort
ad a
Ġis r
Ġ2685 15
T OP
Ġcall conv
Gener ic
4 24
comp iler
Ġcan not
ĠĠĠĠĠ ĊĠĠĠĠĠĠĠ
ĊĊ ĊĠĠĠ
Ġi ter
FL Y
ĉĉĉĉĉĉ ĠĠĠĠĠĠ
************ **
Ġli ke
un used
N I
x db
Ġf n
86 3
Ġun defined
Ġvert ical
ĠS E
Ġv broadca
âķĲâķĲ âķĲâķĲ
mem cmp
P rop
Ġf ont
ĠM A
âĸł âĸł
L im
Ġw d
;================================================================ ================================
w r
Check For
ear ly
ĠĠĠĠĠĠĠĠĠĠĠĠĠĠĠĠĠĠĠĠĠĠĠĠĠĠĠĠĠĠĠĠ ĠĠĠĠĠĠĠĠĠĠĠ
Ġ8000 6
ĠL INE
VI DE
alcul ate
ĠB SD
idd le
Ġpi pe
Ġ( %%
xml Text
TR A
m usic
ĠM EM
Ġ2685 13
Ġw ar
Ġ... )
-+-+ -+-+
sti an
3 77
sp i
å Ī
69 8
es ted
Ġf ilename
rc le
ĠM ain
4 56
x be
CTR L
on ly
xor ps
i od
con trol
Pro gram
Ġdocument ation
H eight
ET HER
Ã Ħ
ĠChri stian
ĠL SR
5 80
E lement
ĠF ROM
4 25
ĠA t
OBJ ECT
Ġs eg
B oot
; /*
u ch
Ġv irtual
ĠTR AN
lea w
[ (
4 01
st ar
æ ķ
Ġh ow
li m
OV ER
6 25
G H
sel f
Ġi unlockput
TION S
99 3
5 76
x de
0 32
EN CE
A IM
st x
ĠKra use
j ge
ERN EL
ON T
BO X
c rea
UN N
Ð¸ Ð
X I
old er
4 64
Ass ert
A ction
Ġin um
) \
Ġch unk
termin ate
mo s
b t
Ġi mage
G PIO
Ġ1 34
ld ab
by t
Ġ2 60
ĠO K
ĠN AME
Ġchar s
RANT Y
03 5
D V
xc d
85899 34
l n
Ġbp l
ĠB AD
ut y
ĠM ode
S cale
Ġlea ve
m g
ĠDAM AGES
Ġsector s
ĠĠĠĠĠĠĠĠĠĠĠĠ ĊĠĠĠĠĠĠĠĠĠĠĠĠĠĠĠ
LO T
G e
ĠU S
Ġproper ty
Ġm an
Ġ@ ----------------------------------------------------------------
Ġv i
STAT IC
G DATA
free p
ĠWAR RANTY
p lay
i lock
re cord
8 22
et her
v t
D est
Ġ1 25
v psrld
Ġwith in
Dis able
Ġ1 26
equ al
w Cur
Ġg raphics
P i
B H
pi logue
Ġg lb
3 78
Ġd ip
con vert
Ġad just
K P
dw pn
D esktop
*) *
f ef
ir es
J I
Ġv aesenc
C AVE
Ġed it
vo ice
Ġmovz bl
asci iz
H OR
ÃĦ ÃĦ
] =
Ġpunpck lqdq
Ġ# (
vp addq
J SAMP
F ALSE
ĠW RITE
d ma
Ġrun ning
ĠT o
5 40
f inal
h eap
li bx
B uild
sh ared
s ure
7 83
Ġpsl ldq
ol ve
03 9
ĠX KEY
Ġch anged
ath er
GP R
T ab
Ġv ideo
My Code
W ISE
V P
Ġ| =
Ġ16 9
V A
ific ation
Wait For
Ġre pro
Ġus eful
ĠF ind
ex amples
74 2
libx ml
3 34
ĉĉ Ċĉ
di a
Ġ2 90
6 60
ĠE DI
S U
f H
Ġ1 29
L R
b reak
Ġ( '
W M
Ġpres erved
80100 2
ĠE B
Ġdef inition
96 5
row s
n f
gen er
CON TEXT
Ġpos itive
E qu
en ch
T itle
Ġre mainder
fd s
4 39
Ġ1 22
bb rev
xb a
DEP TH
74 1
3 83
Ġm any
D Composition
p itch
Ġi mplement
ĠJ IT
Ġ ĉĉĉĉĉĉĉĉ
ĠCO UNT
Ġass ume
] *
sh ow
Z TMP
ĠW h
Ġn ecessary
AN CH
ap t
ĠSH ALL
Ġp table
is it
Ġec all
44 2
ss q
ĠF rame
110 1
080 8
d ot
d os
AT URE
f ul
) &
Ġitem s
ĠM UL
000010 97
Ġh ead
Ġph a
Just MyCode
10 11
Ġcop ies
ĠB U
Ġt x
Ċ ĊĠĠĠĠĠĠĠĠ
Ġs yn
)) )
ĠP h
4 54
ä »
R un
P r
st s
******** ***
3 55
3 79
ĠN ext
rt c
3 56
D AC
Ġrequ est
G ym
un ch
ĠB ase
P op
Ġt st
R ed
LE M
er min
ĠFF CC
ĠCh aracter
ĠDEB UG
s sic
VI DED
Ġpshuf lw
SI B
IC E
ĠS UM
S peed
ĠA RI
Ġ2685 12
PC A
) |
Ġ32 0
Ġp arse
len s
Ġinitial ize
] !
geb ase
95 11
xb f
or ig
LE V
Ġ1 77
ĠPRO VIDED
ĠIn it
ĠIN CLUDING
Ñ ĭ
ĠWH ETHER
ĠP ASS
__ ,
Ġp ow
movw f
+ ((
sh ip
Ġx data
b ar
ĠĠĠĠĠĠĠĠĠĠĠĠĠĠĠĠĠĠĠĠĠĠĠĠ ĊĠĠĠĠĠĠĠ
Ġ1 64
âĶĢâĶĢ âĶĢâĶĢ
Ġcalcul ate
term ine
p addq
Ġdi spatch
4 34
ff d
ur ity
@@ $
xa e
T ON
w indow
ĠĠĠĠ ĊĠĠĠĠĠĠĠĠ
re m
N ER
Ġadd q
: ??_
Ġ2685 07
ĠM ON
no ise
ĠNtGdi Get
sc ratch
A ULT
8010 75
Work er
Ġexec ute
ĠA SS
Ġd Snare
Ġb cache
No Lock
ĠMOV EM
CNST F
OC K
at ure
ĠLI ABLE
P RI
96 1
ima gebase
Ġbas ed
TR AP
OR A
Ð »
Ġ'- ';
b relse
om at
ĠP ort
ĠP ut
Ġmea ns
Ġg s
T arget
mul m
Ho use
ĠDo or
ĠCO MP
Ġret n
Obj Call
Ġmaterial s
Ġmultip ly
3 39
Ġ2685 02
seg mov
VAL UE
; .
Ġ0 30
bl en
ĠADD RESS
ĠJ SAMP
00 20
ĠARI SING
ĠCO MM
ĠCONTR ACT
Call back
shl x
M AC
;**************************************************************************** **
Ġb ound
x i
ĠH OLDER
HE IGHT
J NE
driver lib
ĠSys tem
;**************************************************************************** *
Ġ00 2
Ġ16 1
0000000 11
ci sion
5 60
P ixel
Ġt iles
ĠV is
4 19
TIM ER
æķ °
C ache
PRC ENTRY
ir us
ĠOTHER WISE
Para ms
ic ation
" ),
am era
ĠDI V
P ut
il ing
Ġp cmpeq
b swap
st m
Initial ize
in sert
ĠT imer
on y
Ġc lass
id t
D r
C ity
ert ical
fc nt
HE ADER
p attern
s f
Serv ices
B M
Ġop code
000 31
r data
Q AE
esp ace
di ff
Con sole
M ake
r ato
4 66
ĠC RC
======== ===
ĠT X
................ ................
37 1
o ard
Ġm atrix
Ġque ue
ĠO ver
Ġr oom
IN ED
Ġv ld
Ġpart ial
49 2
Debug ger
st ub
Ġ2 50
+ ,
P ack
ap d
I con
cccc cc
5 64
f i
ĠI X
ĠI TE
more core
Ġsel ected
do uble
ĠA bbrev
; ************************************************
00 102
x ce
Ġr esp
Ġg ra
ĠD escription
R gn
ĠB O
Ġat tention
Ġdet ails
Ġ1 76
Ġj nc
ĠDEF W
sc ore
Ġprocess or
Con vert
03 3
LE D
;;;;;;;;;;;;;;;;;;;;;;;;;;;;;;;;;;;;;;;;;;;;;;;;;;;;;;;;;;;;;;;; ;;;;;;;;
n am
4 29
N ONE
f ano
LE T
to ols
Ġ$ +
Ġno de
Ġcall ing
xff f
T BL
Ġ8010 44
Ġc g
v ed
84 1
arg str
Ġpos sible
o i
ta sk
Ġ ĊĠĠĠĠĠĠĠĠĠĠĠ
============ ==
Ġd ynamic
Ġ2 25
w alk
46 2
8 40
ar row
ĊĊĊĊ ĊĊĊĊ
H ING
ĠLAB EL
S N
- .
4 23
12 00
P ATH
SELE CT
xffffffffffffff c
ĠA pp
---------------------------------------------------------------- --------------
RT OS
Ġdi st
id end
ĠA d
ĠS O
DEF INE
B IOS
@@ :
Ġcomp ute
DE CL
app end
5 28
04 00
Ġf our
ĠST ATE
ĊĠĠĠĠĠĠĠĠĠĠĠĠĠĠĠĠ ĠĠĠĠ
ĠC OL
Ġd eal
M ENU
AP P
PLAY ER
te fano
a sic
ĠC D
ol ute
v pshufb
04 6
98 7
09 15
c lo
4 12
Ġpand n
ĠF I
Block s
DE LAY
ĠFF BC
IN ES
C alc
p ix
Ġ800 9
pop l
ĠE XT
Bl ank
ROW S
R andom
i que
mov dw
xc b
org a
K B
SI GN
g l
ĠT ORT
EE E
D el
Ġold sz
ri d
mul l
ĠRO UTE
Ġ2 08
arg fd
Ġ5 00
ari dia
Check Esp
g ed
ST ED
4 96
H EX
bb bb
4 60
MP L
sy m
ĠNE AR
o te
or ing
T P
Ġn p
um b
Ġal locate
Ġ ================================================
Ġf stat
ĠnE b
Ġ'% ';
=-=-=-=- =-=-=-=-
movl w
Nt Open
MA IN
Ġadc q
Ġas sembl
RTC su
16 00
Ġc rc
name x
SR AM
4 505
Ġx gft
si g
Ġsta ge
el if
Ġa void
Ġ2685 10
Ġpsub d
item s
ĠW IN
G S
79 1
Ġk now
" ;
g y
Ġ1 68
Ġ'% ');
000 14
Ġmy cpu
Ġ2 92
Ġav x
Comp are
D ig
ĠM SB
05 2
ĠT EXT
ĠL ist
V RAM
li de
ten sion
w s
Ġwh ether
c lobbered
Ġ keys
cmp w
sy nc
Ġ1 52
ĠF etch
t itle
# _
xa f
00 12
Ġlea st
Ġ2 20
ĊĊ ĊĠĠĠĠĠĠĠ
ĠT ILE
ph ase
OS S
Ġ ent
ĠEND S
ĠS BC
ĠD ef
In teger
ara rg
ĠCo unt
Ad just
ĠT rans
ĠTE MP
lo ts
Ġmem inst
" .
g or
x eb
+ _
sub w
f mul
Ġst uff
Ġsh uf
d ealloc
mult ip
U V
dec rypt
Ġspill ing
ĠP OS
write text
Al t
============ =
ĠĠĠĠĠĠĠĠĠĠĠĠĠĠĠĠĠĠĠĠĠĠĠĠĠĠĠĠĠĠĠĠ ĠĠĠĠĠĠĠĠĠĠĠĠĠĠ
I c
4 28
ĠP IC
C ry
ĠS kip
p osition
ĠDI SP
Ġ2 10
FI ELD
;================================================================================================ ==
6 24
am ie
;---------------------------------------------------------------------------- ---
3 72
5 84
Ġ# #
, ($
Col umn
( %%
Di sp
ret q
66 1
Ġ---------------------------------------------------------------- ----------------
extr n
eat ures
E SP
âĢ ĵ
$$ $$
Ġi gn
ĠM ork
um a
ĠJ amie
ĠMork en
ĠLD Y
b all
ĠV alue
ě [
st y
)* (
5 10
pro mpt
Ġ te
AT S
ma pp
c tr
xb d
PH A
Ġs cale
Ġ1 49
# '
1000 1
ĠSPEC IAL
Dis assembly
k bd
C BC
Ġneed s
c ch
TER FLY
I t
Ġ15 1
Ġen ough
Ġbegin ning
c dc
cp i
Ġ1 86
6 50
(( *
ĠSp ec
ĠM od
t ilec
ĠInitial ize
AS C
tilec oll
5 85
6 96
nl ess
Ġextern def
Ġco lour
ĠP rocess
ï¼ Į
At tributes
Ġ1 72
N ormal
ld s
ld rb
Ġunder stand
T ech
Ġset s
ur ing
f ee
AL O
f re
4 83
d esc
ff c
88 1
l ve
Ġg u
Ġremain ing
n ist
Ġcoeff icient
ST OP
Ġres b
RE SET
gg le
Clip board
SY M
Sel ection
00 87
Ġv pshufb
Ġbit map
nist z
Ġ2 32
Ċĉ ĠĠĠĠ
Z X
c ap
d er
5 14
Ġs ample
Ġe m
H ASH
;================================================================ ================
as c
Ġv ia
ad st
ĠNUM BER
Ġ" <
Tra p
CheckFor Debugger
Front pic
Ġcontent s
Ġ â
ĠR outine
ec p
PL AIN
CT X
N L
se e
Ġmovs xd
g ic
0000 07
CheckForDebugger JustMyCode
ĠB ATTLE
A EB
T ick
AP E
Ġk ill
ĠOp en
s ect
4 18
Ġ1 83
] {
SO LE
U W
ĠĠĠĠ ĊĠĠĠĠ
apt ure
Ch ild
O DE
Ġcpuf lag
Ġ$ $
40 80
r jmp
ex e
sse m
ith ub
Ġy et
; ---
ĠA ES
; [
54 3
ĠDI RECT
Ġ1 37
Ġb ox
fc fc
ho st
ĠF AT
5 48
K AN
Mo ves
br instar
)) *
t bl
ĠnA b
I mage
X AR
n ical
mo dule
up licate
LE EP
push f
ĠS ource
ĠS um
bin ary
Ġpunpckh dq
DI S
Ġp insr
77 3
************ *
SP EC
Qu ad
MEM ORY
Ġm e
ĠV RAM
ĠU nless
c or
Ġt itle
ĠREP X
ĠZ ERO
con n
Ġb ar
set track
Di spatch
ĠExp ansion
settrack register
Ġ2 86
ST Y
Object s
ot ient
Ke ys
Ġ æ
ĠB y
ch k
84 3
arg ument
ĊĊĊ Č
Ġt a
Ġconstant s
32 767
Ġ1 96
A U
Lo okup
Ġexec ut
cccccc cH
8589934 60
Bar rier
TR AINER
red its
0 1111
ĠDe lay
Ġd ct
0000 9
p de
option s
ang es
dt or
I o
F ROM
77 1
esi ze
58 2
Ġvol ume
@ $$
ĠH P
4 13
0000 30
ch o
Ġc cccccccH
st rb
ĠM ore
Ġ14 7
bc ache
A b
ch an
Hel per
Ġi lock
ĠA E
rand om
Ġmantis sa
ĠHOLDER S
4 27
pres ent
c rypt
Ġ39 2
Ġb sr
Ġv src
Ġ3 04
57 3
Ġag reed
l g
Ġdiv isor
bp l
ĠTR UE
inc rement
ĠNtUser Set
R ange
4 70
G RAM
è ¿
fo o
ĠM is
Ġ3 02
Ġ0 36
Ġ1 56
ra c
69 2
Ġv st
p arent
ex port
Ġf alse
ar ation
Ġget s
Ġload ing
in ted
pl t
ĠS o
S UP
z eng
66 2
ĠG FX
ran ce
%%%%%%%%%%%%%%%%%%%%%%%%%%%%%%%%%%%%%%%%%%%%%%%%%%%%%%%%%%%%%%%% %%%%
Ñ ı
Ġpsub sw
ĠOBJ ECT
zeng fr
s quare
85 26
N PROC
L ab
er ver
;**************************************************************** ****************************************
Ġl k
for ward
Ġhold s
Ġ unknown
8010 73
, __
Ġ2 82
.... ..
Dec l
U s
Ġvbroadca sti
Party Mon
A W
g ithub
ĠS IM
edi a
n p
#### ###
Ġpro tected
MO DULE
ĠIN IT
; #
Ġco mplete
8010 9
xd a
Ġ ĉĉĉĉ
f in
i os
v ing
$ "
ĠM sg
ĠI P
BL K
shared fd
R equest
Ġj ava
ĠM V
ER E
* +
AC TION
nical Services
Ġvp clmulqdq
Ġdiv ide
_ +
mem cpy
Ġd er
n units
Ġ8010 45
Ġpres erve
ta p
Mo dif
Ar gs
r call
Ã ©
E xc
valid ate
ĠTO DO
Ġm iddle
03 7
ĠF IL
c gt
B I
Ġ1 82
Ġ- (
6 10
ar ch
con sputc
ĠTra ck
on ic
pd r
ĠS D
Ġcop ied
Ġn v
Ch aracter
esi red
n b
A cc
X Y
Ġs core
NOT HING
L TS
8010 76
Ġw q
k free
ĠBA SIS
Ġc ar
st ab
LAY ER
DISP LAY
H z
âĢĵ âĢĵ
c leanup
im en
spec ial
Ġaccumul ator
4 99
ck ed
hold ing
h v
Ġ3 12
------------------------------------------------------------------------------ @
SI TION
Ġ( __
ER T
PR G
Ġr am
Ġ2 54
on ment
el y
n Rst
F CB
N ORMAL
.... ...
ymm word
Ġmov w
AN CE
li mit
Cli ent
Ġ3 01
P AG
Ġ# _
x ad
Ġin sert
Ġp ages
ĠL OW
of ile
Ġexp ect
kill ed
chr on
ĠC urrent
pa ir
Ġref erence
B AS
bd a
est art
4 55
M AN
Ġ ----
SP I
Ġmore core
Ġf ix
000 34
8010 72
Ġ8010 36
Ġw orld
Ġstate ment
push q
0 25
sy n
(- @
Ġ0 20
Ġg ot
CAVE ATS
O D
S AD
Mod ule
NtGdi Eng
pr op
SE C
Ġh app
Ġ1 33
Ġl in
ĠA V
SP OSE
@ -
F ix
Ġp extr
Ġs ched
create delete
Pok edex
rig inal
09 11
Ġf ld
G ra
Ġ@---------------------------------------------------------------- ------
Ġ1 98
AD OW
Ġ0 66
BO OT
Pri ority
Ġs erial
SK IP
sbrk test
å Ĳ
res h
Ġh orizontal
r m
Ġ2 76
Ġen dif
ĠV OID
Ġfloat ing
Back pic
lat form
ĠM ark
Ġ---------------- ------
ĠV ector
Ġp oly
e ip
ĠOR G
ĠF R
O ld
8 20
S OR
4 36
D N
ĠĠĠĠĠĠĠĠĠĠĠĠĠĠĠĠĠĠĠĠĠĠĠĠĠĠĠĠĠĠĠĠ ĠĠĠĠĠĠĠĠĠĠĠĠĠĠĠĠ
B lt
ĠG DT
ĠR ow
ĠP AGE
AR K
Ġper son
' ll
F ull
ĠL SB
S e
extern al
dic ted
11 41
Ġpsl lw
L icense
i er
u zz
Ġunderstand s
D AY
PI LOG
ĠRE STORE
Ġtransp ose
Ġtick s
ĠD P
out b
ver ted
CF G
Ġh ope
5 11
0000 15
ĠT able
in ode
4 11
Ġb r
Ġpr m
ac ing
ĠCon vert
Ġmo st
CON T
ROW N
LA ST
& &
IC T
des tr
B AD
Ġ1 58
Ġ2 83
ĠM AGIC
ĠH E
Ġ' .
Ġs n
DE ST
in b
cipher text
Ġr ra
96 3
Ġ2 94
5 36
B ounds
Al pc
Ġ1 38
Ġgener ated
4 74
Rec e
d eal
O per
Ġ2 89
Ġs l
Ġd jnz
Ñģ ÑĤ
ĠZ ero
ĠL BB
HE AD
6 80
5 13
el f
Y PE
b ri
Ġ( !
%% _
R ea
Trans form
Ġ1 93
Ġet c
U SH
C PI
Ġdis abled
Ġadd ition
Ġ# &
5 90
0 34
Q EB
Ġ1 88
ĠP PU
Ġd en
|||| ||||
0000 40
Not ify
n files
hi ch
Sp rites
IRQ Handler
Ġ1 48
Ġs ig
F AMISTUDIO
4 68
ĠS mall
5 70
far call
4 35
Ġ%% _
Trans ition
Ġn or
54 2
ĠÐ ¿
Ġsel ector
W H
op t
j ava
k vm
a ff
Ġ2685 11
E ED
cpu id
" (
Ġwe re
ĠB yte
ĠVAL UE
dig it
ĠP er
pop a
tra ce
gor ithm
Ġcom mon
sc r
write i
h ave
Ġ2 30
Ġupdate d
Ġhl t
6 64
Move ment
44 44
ly ph
Ġres ource
F x
Ġbc s
M ark
ĠA S
Ġ20 16
Ġalloc ated
G u
M VI
ĠA LL
Ġstring s
B ALL
k es
i unlockput
Ġ3 09
io apic
NO ISE
m ary
V i
ĠDI R
Ġal ong
CJ K
% @
ra d
Ġ8010 17
dition al
w arp
Ġm len
E l
57 1
86 7
4 15
Ñ ĩ
ST IT
xt mp
Ġ00 6
ĠMO DE
LEV EL
Ġ1 31
Ġ' /
Ġg ran
RI PT
Ch unk
mo st
(" %
å ħ
Ġ" \
] :
re move
04 1
03 1
ĠSw itch
val u
cmp i
vir onment
Ð ²
Ġaut omat
ĠPointer s
Ġauth ors
4 89
L ib
Tech nicalServices
sh ld
Dis k
Ġcl uster
N EG
con d
Ġin tell
Co ord
Ġre ct
30 30
strib ute
Ġl ane
59 1
Ġp arent
Ġpsl ld
Ġobtain ed
F ound
P AN
Ġ2 96
D ST
Ġp ower
P ower
Ġl anguage
Ġq k
Ġ80100 1
li mb
cmp gt
Ġstos d
7 80
5 34
Ġ2 14
se xt
inst ance
1234567890 1234
St eam
Ġ1 46
6 14
ĠO ther
Ġc move
ĠFFC F
P rev
Ġsub routine
) ){
ĠF ALSE
xml X
B K
ĠB lock
mp init
ãģ ®
4 79
d n
e ver
Ġs al
C ell
8 78
men ted
P ad
ou ter
Ġp itch
hi te
F ilter
p add
QU EN
6 54
Ġ**************************************************************** ****************
Ġredi stribute
STIT UTE
5 32
J oy
Ġat tribute
Ġr len
log o
8 80
Ġ8010 43
di sp
vprintf mt
T ower
Po kemon
N AM
t il
Ġ2 48
Ġ3 10
C r
Ġe lif
ect ual
Ġintell ectual
5 38
Ġj ge
Sc ene
ĠNumber s
Ġb order
ĠM ultip
TH AT
J IS
4 58
RT L
Key board
Ġpavg b
e la
po la
ĉĉ ĠĠĠ
ag ing
Ġsign ed
4 17
ds q
si md
Ġpack et
9 60
G ER
ĠSIM D
end ing
Ġs quare
as l
ĠG E
acc i
ĊĠ Ċ
QU E
010 2
________________ ________________
ĠD PL
ĠA UT
Ġ00 8
ĠS nd
ĠG e
Ġp ad
v pslld
Ġsp rites
ĠIn ter
bi os
Ġth ree
set c
N G
Ġ16 5
Ġ( "
st k
", "
g b
4 90
NUM BER
5 16
ĠE LSE
BUT TERFLY
ĠD Label
cla ssic
J ECT
n and
Ċĉĉĉ Ċĉĉ
xx xx
on acci
CLE AR
ĠG EN
100 8
0000 09
Ġback ground
mm a
)) .
Ġvpbroadcast q
it ies
AB C
ĠÐ ²
te ns
n link
ex ample
ccs v
TX FM
t wo
Ġmov es
? _
C md
Ġ2 05
ĠD b
Ġ8010 56
Ġ2 16
AD DI
Ġ1 35
ĠR PN
vf printf
M Y
ĠĠĠĠĠĠĠĠĠĠĠĠĠĠĠĠĠĠĠĠĠĠĠĠĠĠĠĠĠĠĠĠ ĠĠĠĠĠĠĠĠĠĠĠĠĠ
in ner
ri de
B IN
LN AME
58 00
Ġcon trib
COUNT ER
L IG
M T
im ation
6 13
85 56
ĠExp anded
ĠS IGN
': :
7 10
RE P
@ __
CL K
ĠY es
(( (
EN SION
ĠB S
86 2
UN DER
Doc ument
n a
Ġ1 85
ĠADD R
77 77
ĠCR Y
Ġma de
ul ong
Ġstr len
sd k
R OR
ĠH andle
Ġthe ir
Ġt ax
si st
r rc
BL UE
Con tent
ĠP ri
Ġne ver
ĠD ev
M is
Ġt xa
E VER
Ġ2 84
ush ort
ri ate
AUT O
Trans action
= %
ht tp
CL AIM
0 66
? "
I BU
v ag
ĠDEC L
Ġp ip
ĠZ MM
ĠAl locate
ul se
ĠVER TEX
ĊĊ ĉĉĉĉ
li er
Ġs ll
ĠDis able
% >
1111 11
ĠIn crement
ider w
ĠE BP
ĠĠĠĠĠĠĠĠĠĠĠĠĠĠĠĠĠĠĠĠĠĠĠĠĠĠĠĠĠĠĠĠ ĠĠĠĠĠĠĠĠĠĠĠĠĠĠĠĠĠĠĠĠĠĠĠĠĠĠĠĠĠĠĠĠĠĠĠĠĠ
å ľ
ãĥ ¼
4 69
cy cle
TI VE
Ġcurrent ly
ĠNt Query
Ġ8010 37
Ġop tim
Ġmp n
86 5
NtGdi Set
Ġin v
ĠFFD A
B SIZE
ĠĠ ĊĠ
T urn
ĠG ame
Copy right
fa c
o le
on se
fe h
Ġgener ate
Ġin strument
Ġg row
4 78
Ġa mount
Ġn bytes
ĠH ealth
Ġm alloc
f add
C K
vag rant
ima ted
I LD
Ġ3 06
BYTE S
Ġvperm q
W h
ĠG o
jr nz
Ġp clmulqdq
ĠE E
R eal
ĠP I
XMM BLOCK
OM E
200 6
oper ator
h alf
si les
0 141
ĊĠĠĠĠĠĠĠĠĠĠĠĠĠĠĠĠ ĠĠĠĠĠĠĠĠ
L SR
la ces
ĠVer tex
5 88
G L
sys tem
C LO
Ġ[ -
Ġbl ank
n read
Ġ2 95
ĠOp Access
ĠOpAccess Chain
10 32
word s
Ġadd ed
nc es
et tes
ĠSUB STITUTE
Ġ2 91
ĠF ARG
in o
hl ix
5 18
h undo
Ġapp lic
ET TE
oc i
> <
ct x
du ced
c n
Ġ2 19
ass ume
ib onacci
Ġex tended
8010 77
S nd
psl ldq
b uff
g f
ĠL F
Ġ6 00
ĠV irtual
Ġd group
ok ie
g on
ĠS ign
Ġact ually
;---------------- -------------
16 299
ĠL IN
Ġmodif ication
ĠREG ISTER
Ġmov ss
Ġf all
ĠP RI
ĠCon trol
Pre dicted
L cd
Ġ1 57
Ġat tributes
ne ed
47 1
aes ni
Ġcp x
f stp
T MR
mm gr
Ġcon n
Par ser
5 17
ct l
Ġpro ject
4 37
Ġcoefficient s
lea q
CC CC
Ġread y
7 48
Act ive
Rec ord
a w
Ev os
SW AP
ĠIN DIRECT
45 1
ĠNE W
B AR
Ġ2 98
7 14
âĶģâĶģ âĶģâĶģ
D st
Ġp p
ĊĠĠĠĠĠĠ ĊĠĠĠĠĠ
Ġd ex
ĠDIS CLAIM
ĠĠĠĠĠĠĠĠĠĠĠĠĠĠĠĠĠĠĠĠĠĠĠĠĠĠĠĠĠĠĠĠ ĠĠĠĠĠĠĠĠĠĠĠĠĠĠĠĠĠ
ĠC Y
EXTERN AL
Ġrea ched
Ġapp rop
Ġon to
F AT
Ġ2 93
ĠN C
Ġst andard
Ġs erv
B all
idd en
ins n
O op
v v
M eta
dir link
A I
KAN JI
crea tion
Ġk free
xmm word
ĠFFC B
Ġ2 000
ĠST ORE
F ar
AB S
5 83
-- ;
Ð º
lear n
7 29
k alloc
ĠM IN
Ġcolumn s
TO K
M a
0 44
5 30
xml C
6 30
5 27
5 68
VIC ES
driver s
ĠR hp
ssem bl
Ġj a
Ġon ce
P ass
R G
w ifi
ĠL ICENSE
Ġ2 85
88 2
Ġ800 8
destr oy
in strument
S ee
Ġh it
AB I
Attr s
Ġ000000 10
?$ ?
6 20
FI TS
Ġstride q
start up
t or
ff t
HAND LE
5 74
ĠP AT
ĠPO INTER
ĠUS AGE
SC ROLL
1 0000000
Ġ16 7
W rap
FI RST
Ġret ain
ak es
ĠB US
ĠEV EN
s ad
F etch
bc d
n y
Ġ00 4
L info
ĠD EL
ma ph
ĠSet up
b os
ĠM icrosoft
,- (
4 57
at ter
SIB ILITY
IN ESS
Ġt ake
Ġ0 60
ĠSU CH
Ġd ta
id s
05 7
ĠAL IGN
Ġacc omp
Ġ( ?)
Ġput s
' .
Ġ1 78
ĠP S
ĠFFB B
5 29
cc f
6 12
6 01
DI G
F rames
read er
G REEN
8010 71
CY PH
6 32
Ġcontrol ler
Ġp repare
ĠLO CAL
SE QUEN
SEQUEN TIAL
m sr
Ġapprop riate
ĠS SE
4 38
om ic
Conn ect
in text
unpck h
Ġ1 39
put s
Ġsh if
CC R
O O
Ġ1 94
Ġw k
Ġw or
Ġ39 0
Ġg raph
Ġa ction
Ġcor resp
Ġ er
J ob
co cos
Ġstart s
ST K
fork test
Loc ation
runc md
B ad
i unlock
ĠC LC
ĠM AIN
Enemy Mon
Ġmultip le
Ġpa ir
S AV
i ble
Ġl arg
ff a
7 30
at al
ation al
gen eric
9 28
O wn
Ġff ffffff
SY NC
ALO G
ĠG LOBAL
ĠCON SEQUENTIAL
else if
EB REAK
Ġĉĉ ĠĠĠ
LE TE
uth or
Ġ3 08
n n
00 14
Ġ80100 390
act ive
Ġch ain
ĠMsg Desc
0 48
Ġsi de
R oom
arameter s
ĠE PILOG
il la
5 26
u div
at t
Ġc al
8 10
T K
N one
Ġ< .
L ICENSE
U FF
AD R
S earch
010 4
' ve
ĠPRO FITS
call er
49 1
S ty
Sup er
3 108
TH READ
5 25
6 17
0000 08
Ġ1 95
fa iled
b ab
strn cpy
ĠP al
Ġfor ms
Ġgo ing
ĠL OSS
eng ine
AL K
Ġg c
Ġm ight
mov ed
Ġc as
b ench
ĠG OT
ĠS BUTTERFLY
0 64
ĠNEG LIG
ĠNEGLIG ENCE
t otal
Ġ" %
ĠP lay
p ower
FL IP
4 76
q q
po ol
C ard
Ġp aram
op s
Ġ2 87
99 1
Ġcon s
ĊĠĠĠĠĠĠĠĠĠĠĠĠĠĠĠĠ ĠĠĠĠĠĠĠĠĠĠĠĠĠ
SUB I
OR K
() :
è ¡
Ġdi sp
Ġtwtemp l
Ġ800 7
m aridia
tra n
ĠLEA F
; (
Ġmo use
M erge
P ref
CB D
DESC ALE
Stat s
Ġ2 34
mul h
UB LE
Ġsyn tax
ĠF iles
RE L
ĠN e
in valid
ĠS RAM
Ġ' _
ĠU ART
p lot
W IND
ĠComp are
Ġgran ted
f table
ra ys
ĠL EN
6 83
Ġsel ection
h m
Ġd uring
Ġd ot
ul let
CALL EE
XX XX
; ++
G DT
1000 3
ĠSTR ING
4 72
_ {
ĠF ill
Ġrep eat
ĠE SP
D Y
Ġ36 0
U ST
æ ĺ
00000000 000
asm func
EV ENT
- _
Ġd p
Ġca use
7 000
ĠĠ ĊĠĠĠĠ
Ġnum eric
E PI
Ch k
ĠTRAN SPOSE
iv al
ĉ ĠĠĠĠĠĠ
8000 1
tm learn
[ -
L S
Ġm app
co des
1111 1
5 01
g ory
Ġ3 03
8 64
ag on
11 000
ĠW ATER
Ġtwtemp h
5 96
Ġ1 73
Ġc lo
P OWER
a ter
Ġ" .
ĠI nt
Ġ8010 46
x key
OPER ATION
DECL ARE
ĠC alculate
Ġw alk
ĠT ABLE
TI V
VER T
ĠPO INT
Instance NoLock
84 2
ĠX X
dir file
Al locate
ate gory
Ġp ast
g p
s earch
pal ette
v d
Ġ1 66
CH G
J COEF
ĠW AY
epi logue
u ra
ĠA p
re c
D rive
pp ed
ĠFFB F
k mem
c er
ObjCall InstanceNoLock
P F
i pe
ĠJ NE
Ġ14 3
us y
Ġe lements
l call
Ġ1 89
Ġ64 0
Ġxmm A
Ġsc ratch
Attack s
Ġs ep
AC TER
K i
Ġp te
46 1
Ġalign ment
maph ore
ĠG en
n write
end proc
vp and
Dec ay
Ġshuf ps
s te
Ġi unlock
ist ory
Ġpermis sions
Ġma chine
Ġ3 19
b u
App lication
Pa ir
8 192
8 32
E dit
ĠArg uments
ĠR ev
Ġper mitted
D ex
ĠSTR ICT
ap i
strn cmp
Ġ1 75
m utex
ĠJ UMP
dig its
ĠCON DI
hl coord
G raphics
ĠBU FFER
file write
a z
Menu Item
VIDE O
cc a
Ġ================================================ ===============
Ġde lete
ir m
e lement
IDE NT
5 02
CALL I
0000 45
ĠMo dif
BUT TON
ro tate
Ġv ec
push a
lic ense
ĠH OW
exec ute
Inter face
D RI
7 36
8010 79
Ġproc edure
Pro file
Ġpro g
Ġcontrib ut
lace ment
G HI
write test
B ody
000 54
Ġ3 07
L ay
8000 2
Ġv psrlq
RE Q
.... .
Ġan gle
######################################################################## #######
16 77
Ġ800 1
010 3
Ġre present
ion s
] }
Ġmov lw
Ġd r
Ġf ixed
Ġ2 13
ĠB ack
Ġg sl
Ġj ae
R outine
st ract
dir lookup
ĠD IG
bc s
ifn idn
NtGdi D
Ġr p
ie ve
ĠDEF INE
Spec ies
T ermin
ï¿½ï¿½ ï¿½ï¿½
Ġsign al
05 8
. ,
Ġf loor
OT H
Ġ2 29
æ ī
Ġ2 01
SY STEM
Y MM
ĠFFC D
ĠFFB D
ĠNE STED
jo in
ĠFFC A
**** *
Ġfa st
8010 78
Str ide
IM AGE
Ġas ci
ĠFFB A
S UM
is on
rk d
Register s
Ġf lip
cur sive
Sh ort
cc c
Ġst ar
age ment
: /
C AT
t urn
w ards
Ġgo ver
Ġt f
mm c
Ġi magerel
ari ables
d ay
d uty
Ġin ternal
Ġp atch
or l
scan f
w ide
Ġst orage
MM C
c ent
BE AM
10 100
ĠE OR
B T
Ġp max
Ġ2 15
ĠNt Set
6 29
40 40
w eak
U INT
6 34
ri an
c ell
Ġhtt ps
ĠB ROWN
5 19
Ġ1 79
TE CT
pre fix
ĠB RA
Al ter
ĠSel ect
Ġ2 81
Ġde pend
ĠD ESC
ĠTHE ORY
5 33
Ġ5 10
13 10
Ġl f
AP H
IDENT AL
ĠFFB E
ĠR o
Ġu art
Ġf lt
ĠFFC E
H ead
unlink read
big file
O DS
ting s
Ġimm ediate
e ld
BC D
Ġi put
ĠI M
ul ate
P AT
il y
ĠO bj
ĠINC IDENTAL
PAG EBREAK
Ġ2 99
ĠD RI
VI SED
B reak
G UI
Ġst p
Ġix l
******** **
ĠDAM AGE
ĠL ayer
ĠD ebug
Ġ2 17
ĠHOW EVER
Ġ2 06
ĠAD VISED
X L
j ack
Ġrepro duce
ALL OC
cp p
[ _
Ver sion
b fe
di ct
LD D
Ġ2 44
ĠS LEEP
4 75
f ilename
ĠM D
ST O
Ġl p
7 02
ç Ķ
ĠO AM
ĠPOS SIBILITY
xyz w
_ $
URE MENT
Ġab i
L XI
Ġ2 12
Ġcmp a
H D
N am
H it
Ġ est
zero upper
mps earch
rc md
ĠSER VICES
ĠB ACK
Ċĉ ĠĠĠĠĠĠĠ
Ġ1 59
lic it
ĠR UNN
7 13
L ayer
Item s
psr ldq
SC AN
Ġa round
B TF
f ileclose
ĠGO ODS
v l
lo dsb
D ict
End BattleText
RT Y
F MA
17 17
Ġ800 2
Fa st
1234567 89
ĠR OR
ĠPROC UREMENT
ĠBUS INESS
ĠINTERRUP TION
T LE
loop f
7 28
sc ript
Ġpsub usb
Ġ800 6
m sub
s al
Ġ3 11
ĠA nd
7 60
C an
h Win
Ġ1 55
Ġ2 21
ĠL SL
ĠDISCLAIM ED
s la
12 80
add b
ĠEXE MPL
ĠEXEMPL ARY
ter ia
ĊĊ ĠĠĠĠ
Ġ33 0
ĠJ E
A MP
==== ===
00000000 00
Sel ector
Ġe vents
ĠBR ANCH
ĠCA USED
Ġe or
Nt DComposition
5 77
æ ł
pop cli
li ance
Ġcol l
4 59
Ġ3 17
ĠLIN UX
ĠR ound
04 2
Ġapplic able
05 9
Sc ore
Ġad vance
i as
5 23
Ġp arm
Ġadd ps
ec b
UR S
ZN St
ĠdKick S
V T
Ġv irus
ĠL EV
Ġexp ected
ĠS M
bge u
ĉĉ ĠĠĠĠĠĠ
Ġ8010 19
r f
Ġv mov
ĠS PI
def it
Ġx p
ĠE GG
Ġresult s
ĠO ST
Ġmul ps
ro t
Ġ38 6
constant s
F IN
Ġ8010 59
ĠP age
pc s
ĠOFFSET OF
ef e
ran ty
Ġv q
all bos
Ġ1 97
xy zx
Ġ20 9
CH K
Ġinclu ding
Ġn et
f il
Ġ14 1
i ver
IP P
ĠLEV EL
ĠIN X
d H
sub program
P atch
Ġproduct s
ĠE A
ol ution
Ġ; #
;;;;;;;;;;;;;;;; ;;;;;;;;
Ġco mple
Direct ory
Ġwar ranty
ĠS N
Ġres d
ĠOR A
anc el
Ġt ree
loc ity
vol atile
H AL
09 8
Ġh ardware
Ġ8010 57
or se
ap er
iput test
ĠĠĠĠĠ Ċ
au d
ESS AGE
ĠR ec
ĠW E
Ġder ived
Ġc vt
IN X
ĠPRO GRAM
ĠB od
ĠU SB
S o
St d
c tave
ĠLD C
ĠOp Constant
Ġvector s
Ġ2 72
ut down
ear t
ĠBod rato
sl ong
stos w
si m
000 13
C trl
rit ical
Ġ0 11
ĠEx pression
ra pper
69 1
DEF AULT
14 06
ho ok
ĠIn xmm
rk buf
Pointer s
del ta
7 40
C EP
Ġ8010 47
us w
V DP
c sr
ĠM emory
tens ity
7 50
B CC
80 114
Ra w
ĠL evel
Ġ3 89
10 73
,[ ((
B r
Ġ2 78
ou ch
ã Ģ
13 42
Ġwr ong
Ġdirect ly
p addw
Ġ34 0
N EL
o dd
ĠH ALT
str t
lay out
N EC
ĠF loor
ĠA s
8 79
le v
Free RTOS
ĠPROC ESS
, =
6 90
c wd
s ingle
6 02
s low
sub i
4 52
; ***
Ġg ive
ca st
5 22
Ġp g
P attern
G lobal
div ide
++++++++ ++++++++
y y
Ġcy cle
ĠI TX
09 1
5 75
si z
c lip
4 53
Ġst ub
Ġ16 3
ĠMod ule
xFFFF FFFF
Ġdel ta
M IT
Ġ1 91
20 16
01 000
d jnz
24 00
w riter
ĠP MC
unlock ed
ĠOUT PUT
6 36
9 80
v src
ĠH ash
ĠGR AY
iv es
@?$ _
ĠFUN C
Ġfield s
ela don
or ted
ĉĉ Ġ
G Y
Ġd ate
scal e
ROUT INE
p ted
O gt
Ġc ard
ĠG r
Ġsc ript
Ċ Č
F alse
ASC II
@@@@@@@@ @@@@@@@@
al e
Ġd os
Ph ysical
After BattleText
I ID
L AN
P an
Z P
ĠP osition
Ġ8010 58
I ABLE
Ġinst all
add m
CL C
C RT
ÐµÐ ¼
6 76
ĠP IX
lin ux
aa a
de ix
TER M
dir s
ĠM OB
F lush
c de
Ã §
Ġc ld
Ġ1 81
5 89
I AS
g row
LD S
Mo v
Ðµ Ð½
match here
Ġpadd ing
^ (
d ptr
D et
av i
ĠDISP LAY
Ġth ing
ĠDC W
T rigger
c trl
pro logue
in str
5 39
Ġ2 97
wait ly
âĸĪâĸĪ âĸĪâĸĪ
P itch
5 99
m et
@ ",
10 80
c lock
Ġabs olute
C nt
ate nt
6 72
Ġpush ed
65 1
dealloc uvm
P ITCH
Ġ4 48
Ġ3 14
7 12
bl end
7 15
Ġ2 11
ĠV ertical
f ec
u ri
Ġ2 68
5 35
T otal
vel ope
; ,
g ate
RO MA
Ġ0 100
.. \
ĠEN TRY
ĠM S
r x
Ġexp ansion
DW F
!! !!
ip arent
R P
RES ENT
I K
ĠAp ache
ch ild
Ġact iv
a ea
Ġs cal
Co mple
c db
Ġ2 28
ima te
Ġm k
11 12
S um
, %%
ĠPRO LOG
st ick
7 56
7 32
ĠA I
10 88
PRO LOGUE
oc us
COMM AND
S Q
in p
ĊĊ Ċĉ
ä½ į
N N
Ġ3 05
Ġ2 33
NtGdi Create
copy out
ter al
mapp ages
4 33
Ġpunpckh qdq
Ðµ ÑĢ
ed ge
blen dd
m red
7 24
S egment
EP ROM
E OR
Ġindic ate
f dc
Ġ3 13
Ġt ab
(" __
0000 2097
Ġn a
ĠS K
Ġ16 2
ĠUn used
) ",
Al arm
IN Y
ĠM ask
S ingle
Ġl print
test b
PU LSE
Ġobject s
Ġ38 4
Ġmax imum
ĠCUR RENT
: _
Ġt yp
om ial
xml Free
D ump
Ġ& =
rep eat
BC F
comm it
p m
Ġ2 58
byte code
M ath
7 17
Ġp min
un ique
i cally
ĠA b
DI RTY
ĠM SR
âĢĶâĢĶ âĢĶâĢĶ
Ġd estroy
dis able
P B
ĠTR AINER
ĠO W
Ġ-------------------------------------------------------------------------- *
Ġ2 23
ĠD EX
6 28
Ġ4 88
Ġ2 27
Ġc atch
Mon iker
Ġasci i
æ ĸ
H and
Ġc ipher
Ġ17 1
ĠU sed
re cked
ĠH orizontal
av es
Ġfa ctor
Arg uments
ĠPIX EL
Ġit self
6 15
N ull
ĠMSG TMP
STRIDE B
9 20
Ġp w
ĠBA SE
Ġ8010 7
]. _
Ġlim b
Ġ---------------------------------------------------------------- --
Ġis n
AV ER
ĠCON T
ARE A
04 5
ch aracter
cp l
us pend
PL A
H H
B W
PRO JECT
Ġorig in
ĠDR OP
ĠFLAG S
P res
ĠP LAYER
pixel s
C ore
00 103
vol ution
c Call
Ġcall back
åŃ ĺ
9 84
on us
at io
Ġqu otient
E mpty
p ru
St orage
0000 50
V D
i ted
MP EG
t ree
t lq
ĠP ass
ĠR X
ĠĊ ĠĠĠĠĠĠ
Ġsq rt
Ġpro gra
ĠT YPE
4 77
copy uvm
Ġ32 8
', `
th umb
Ġf raction
15 36
000000 1
ĠOther wise
l print
R em
xml Valid
rep ret
Y ou
ĠH EX
96 2
6 39
v dst
Ġs at
x ref
ĠD iv
Ġs eed
Spec ial
6 27
ĠS L
ĠC LE
ç ¬
Ġ1 1111
ea th
Ġsyscall s
ca a
Ġb uild
ST I
18 24
ou rian
10 23
;, ;
P AD
a uto
Ġg en
ev al
et ic
S tep
06 9
Ġmm u
Sty le
Ġ2685 17
Ġ2 26
ĠR EC
Ġar m
ä¸ Ń
w Player
R M
i rcle
v aesdec
Ġ ge
000 22
w cd
ĠĠĠĠĠĠ ĊĠĠĠĠĠĠĠ
Ġ14 2
Ġ8010 42
Ġe mul
Ġ24 7
Vol ume
four files
Ġd imen
Ġex ternal
Ġ================================================================ ===========
l ight
I VE
oper ation
D PTR
Ġmov wf
ĠR un
SO UND
; **
Ġm ess
7 26
W E
alloc uvm
Ġpri ority
Ġf requency
EM ENT
ap ache
Ġf lat
Ġar ch
ĠRep laces
V O
et s
attrib ute
A c
h d
( ),
u v
NE I
_ ?$
dl l
fcnt l
m hl
D ay
Ġcontain ing
FF B
ĠB SIZE
Ġ; /*
6 89
9 90
d en
IT S
h it
RO UTE
Ġg dt
6 11
+ (@
ĠS tefano
L IM
: $
Con tinue
c dd
ph p
sat d
Ġz x
tra iner
ag ic
Ġcpuf lags
Ġbranch cc
3 120
Ġg reater
Ġ( #
Ġ6 52
load er
ĠAn y
9 44
Lim it
0 53
ĠG C
Ġ-------------------------------------------------------------------------------- --
0000 13
Ġfa ult
Ġ2 36
67 1
|| $
ĉ ĊĊ
ĠE C
eap on
ĀĀ ĀĀ
80110 9
ro ups
Ġi l
11111111 11111111
ĠFIL TER
P TE
ig et
ĠTh ere
Ġ3 18
ĠP lace
mo use
ĠĠĠĠĠĠĠĠ ĊĠĠĠĠĠĠĠ
Ġs gn
Ġstos w
Ġrrc a
ĠA PI
MM BLOCK
au dio
g reen
Ġph ysical
ä¸ ª
ĠO CC
di p
fail ure
rnd s
c ab
Ġa m
0001 0000
stru c
Ġp data
se qu
05 13
ORD ER
b bl
ĠData Z
< =
Ġver tex
ĠE pilogue
ag ed
Reg s
Write Barrier
! =
PRO TO
Own er
PO K
00 18
Ġpri mes
Ġfa ce
ro ma
G M
s ram
ĠOp Type
O U
p th
Ġ2 03
Ġcheck ing
PO INTER
Ġs te
Ġ4 80
Ġix h
ĠH AND
ul es
Ġis instance
CR Y
00 100
ĉĉĉ Ċ
Man agement
Ġw ell
Ġ20 7
N ING
0000 12
ĠPro gram
ĠE CHR
Ġinit lock
Ġc txt
and l
Ġco des
i ke
D ot
Ġt ay
</ %
9 24
Ġ ĊĠĠĠĠĠĠĠĠĠĠĠĠĠĠĠ
a ys
ri s
C y
000000 10
( @@
Ġm s
p ressed
Evos Attacks
+ )
5 78
V oice
ĠI SR
Ġ80 1000
Ġ2 52
Ra dio
8 19
å ¤
Ġe p
MU SIC
Ġsup ported
) [
. ",
00 44
initial ize
and s
7 25
nt dq
Ġ33 2
EX EC
Ġm la
Ġin b
ĠW indows
Ġtra sh
ĠM enu
Ġiy l
M N
IN ST
) )(%
Ġi de
Ġas sign
28 00
7 76
in struction
A EA
Ġ3 80
ĠM acro
PU N
Ġz p
b mi
Ġ12 34
ĠM in
x q
Ġb all
st orage
G ate
SD CC
s omething
u ed
ro ll
Ġv ararg
04 7
ser ial
O ST
Ġno exec
I MP
° å
def w
multip ly
REC ORD
2 0000
Ġ4 03
~~~~~~~~ ~~~~~~~~
R dy
Ġi ret
mo dif
an si
ĠC lose
ĠOp Store
Ġb ounds
ET CH
EQ I
ĠR AX
20 17
ĠRes olve
9 88
o un
Ġass oci
Var s
M ul
CA ST
ĠJ NZ
xb w
se te
L ea
r untime
R B
o site
v s
ĠAT TR
F inish
p ing
ĊĊ ĉĉĉ
ab c
Ġany thing
REG ION
exp ansion
åŃ Ĺ
7 27
ĠP D
over flow
shuf ps
ĠLG R
DI M
html Parse
[ (-
co ded
04 3
ĠSh ift
SH IP
ĠD CC
d m
deb c
ĠCOMM AND
lob ber
ticks lock
L IN
ĠI V
CAL C
-* -*
ĊĠĠĠĠĠĠĠĠĠĠĠĠĠĠĠĠ ĠĠĠĠĠ
7 64
In sert
6 68
M ulti
Ġsp in
mark s
3 000
ĠP re
RO T
int ra
Ġspec ies
6 19
v movaps
DB CS
B PL
64 22
Sh adow
u ck
N P
Ġs sse
ĠT M
ACT OR
H B
h dr
Ġimplement ation
ĠJ Z
S erial
ĠT C
decl aration
A ST
S aved
ROC K
6 18
ent ifier
bl tu
er os
Ġ8010 16
Ġapp ro
0 55
add ps
06 1
val ues
asc iz
c ut
g ing
g ather
Ġpro mote
Ġ24 3
Ġ8010 53
Ġass umes
m us
ent ial
9 10
ĠTRAINER TYPE
8 18
7 16
Ġ" $
Ġcorresp ond
ment s
^^^^ ^^^^
C ap
DEF INED
f iler
r on
Ġper m
b ile
ol eread
Ġ3 16
ĠF ormat
ra se
S lot
Ġ**************************************************************** **************
Ġcoordin ates
ĠG al
cmov c
s cape
ay load
6 38
re dirs
Ġ2 77
ĠA P
C ITY
close text
ĠR ed
6 58
mp n
ĠL E
07 00
J E
key gen
ATION S
Ġsum s
Ġpr inter
ĠCONDI TIONS
Ġp cmpgt
at ible
Nt Alpc
dev ice
*) -
ĠC arry
Ġ6 55
Ġ35 2
TI TLE
Pro g
RE SP
c extern
( ,
8 16
Ġ2 66
ic ial
hl t
s cf
ĠCL R
mov ea
F older
l ines
16 384
Ġb lack
mv i
D SP
Ġl waitly
CON SOLE
Fa il
1010 1010
cmp q
File Name
parameter s
Ġ37 2
b alloc
Ġ2 018
ps g
Sp r
load ed
Do uble
eat ure
vol ume
re cursive
ID DEN
Tra de
9 40
us ers
Tra mp
Ġ4 10
Ġiy h
9 14
ĠC E
Dire ction
k ra
Ġ32 2
G U
S ync
x CC
M EDI
op py
ĠB LOCK
6 35
print s
55 66
ĠP F
ĠCH R
'' ''
a de
ĠA SL
Ġapp lication
Ġ32 7
as sist
Ġ2 02
08 1
Ġdiv idend
Ġ( ((
0 74
Ġg l
af estr
Multip ly
afestr cpy
g cd
00 800
Ġpshuf w
O rd
5 79
ĠR OUT
rev isit
project s
Ġc ore
Ġal location
Ġs er
con tent
EF L
FIX UP
ĠP UT
;;;;;;;;;;;; ;;
ĠM R
LC DC
Pokedex Entry
.. '
Ġ2 59
m id
01 000000
pp ing
Id le
Ġ4 40
ĠOCC URS
Ġp lus
Ġd esired
Ġlimit ations
Ġm ath
[ ])
Ġnew sz
ĠF lag
ĠC AT
Ġ" _
Ġe valu
sched uler
UM A
Ġ2 71
56 78
Con ditional
Ġserv ice
8 12
ĠBy tes
\ @
w i
ĠRE ST
000030 97
v an
Ġgo od
d rive
IN LINE
010 5
Ġ4 20
ĠHash Key
: __
Ġ32 9
ĠD ire
86 1
Ġ(- $
mov f
N on
] ).
C rypt
T ree
Ġsq r
ĠD OWN
Co mplete
ĠD uplicate
ĠdSnare S
Ġsc r
0000 0100
ere f
smpsVc Decay
14 29
ARR Y
ot es
Ġ8010 48
cl s
ĠD SECT
R ound
Ġ ĊĠĠ
tr ic
DI ALOG
Ġ2 39
0 68
AS L
Ġpavg w
h as
at alog
ĠN um
ĠWh en
06 5
Ġ---------------------------------------------------------------- -------------
u id
ĊĠĠĠĠĠĠĠĠĠĠĠĠĠĠĠĠĠĠĠĠĠĠĠĠĠĠĠĠĠĠĠĠ ĠĠĠĠĠĠĠĠĠĠĠĠĠĠĠĠĠĠĠĠĠĠĠĠĠĠĠĠĠĠĠĠĠĠ
y a
Ġbound ary
E W
S CH
06 2
Ð° Ð½
3333 3333
keygen assist
ĠĠĠĠĠĠĠĠĠĠĠĠĠĠĠĠĠĠĠĠĠĠĠĠĠĠĠĠĠĠĠĠ ĠĠĠĠĠĠĠĠĠĠĠĠĠĠĠĠĠĠĠĠĠĠĠĠĠĠĠĠĠĠĠĠĠĠĠĠĠĠ
vent ory
(@ -
C or
6 26
A uto
01 10
rk b
Battle Anim
Ġ24 5
d lib
wait button
o ol
ARG ET
T SS
Ġs aving
ator s
Ġexist s
ĠNe ither
ĠEQU S
E AM
x AA
te ction
AT D
ĠG P
Ġ2 31
Ġend orse
ĠH ERE
stat s
K BD
bc f
Ġ-------------------------------- --------
K ERNEL
C ancel
ĠJ SL
T bl
ee k
top ic
05 00
Ġ35 0
ĠO FF
Ċĉĉĉĉ ĉĉĉ
Not hing
a N
FF D
b H
Ġ4 30
at an
om bs
Ġen cry
8 60
ĠA sm
Ġ* ,
N ET
movs x
ĠL C
Virtual Memory
ĠĠĠĠĠĠĠĠĠĠĠĠĠĠĠĠĠĠĠĠĠĠĠĠĠĠĠĠĠĠĠĠ ĠĠĠĠĠĠĠĠĠĠĠĠĠĠĠĠĠĠ
g c
Ġinitial ization
ter s
vp or
9 34
f loor
SBC I
Ġs li
Ġsi mple
Ġbuffer s
Ġcontribut ors
ex x
Ġst i
Ġm vi
4 31
ĠU L
7 90
p ress
VER SION
5 72
+ @
r NR
Ġt rea
Ġcheck s
esi gn
pop q
Ġrel ative
ĠS ound
cx z
Ġex tension
Ġ2 37
eb lock
tr ict
F lip
ĠI Y
Ċĉĉ Ġ
ĠSup ers
U til
ĠD escriptor
leg al
Ġsh adow
0000 35
ĠS ec
], '
Sh ared
de red
ĠBattle Anim
ri o
k pdr
Ġmove q
Conn ection
D lg
Ġcon sputc
Ġcomp ar
Ġreal ly
ad ata
Ġ37 0
g cm
C ar
M d
ĠH igh
ĠA ssembl
FRE E
w m
Ġcomp liance
PIXEL SIZE
p k
b attle
ĠM ASK
ALIGN R
IN ODE
High Rdy
Pr inter
H eap
f ch
ĠCh ange
8 27
ĠM essage
Ġ2 74
Ġb ug
Ġvp er
D ONE
E gg
ĠB ranch
ĠST X
y z
Ġj be
Ġg fx
Ġ24 6
S mall
ĠG raphics
\ _
Ġhand ling
Ġin ner
G ATE
ĠE l
P RT
S yn
In struction
ĠCHAR ACTER
M ac
8010 80
BS F
pr g
Ġarg int
7 89
;---------------------------------------------------------------- ------------------------------------------------
ific ant
Ġu stack
Ġla w
il in
ĠP ALIGNR
ĠNt Create
Pack et
æ ľ
id es
Sector s
ST S
8 48
n mg
tr ieve
Sh ell
ĠRE SET
mov sw
ec c
ĠB Z
For ce
ĠOP ER
Ġar rays
6 23
R ender
b ed
Con st
TIM ED
; $
Ġcon f
copy right
12 12
Ġs ong
07 3
Ġ8010 49
Ġh ard
m la
Ġ2 53
ĠÐ ½
ĠW ords
HI LE
Ě Ě
Ġs ix
Ġgover ning
b or
Ġb mi
7 34
P ressed
Ġt rigger
Ġbl ue
ĠSh ow
6 70
R UN
T ry
98 2
Ġ3 15
ic le
25 00
caller pcs
f de
Ġsp aces
Ġ âĶ
ĠSt atus
Ġconfig uration
Ġst ores
Ġcmov ne
or r
14 00
Ġdo ing
ma il
4 73
UR CE
big arg
ĠC amera
d cc
ĠR T
an imated
a i
k er
7 38
09 2
a ut
Ġp al
Ġ< >
0 72
8 70
Ġc alc
ĠP op
ĠS egment
MOV T
punpck h
Ġv ml
init lock
ĠM B
free vm
x FE
36 00
inst all
trace String
9 12
h ack
Ġ0 21
SP EED
Ġcp y
' ))
Ġ ut
:::::::::::::::: ::::::::::::::::
ĠDIR SIZ
g u
Ġd id
)/ (
Ent ity
un it
N B
ĠW in
ĠA A
ers on
INTER RUP
Hel lo
å Į
SH OW
exp ected
p rep
st w
ĠF ix
Ġn am
En abled
REG S
ĠOpBranch Conditional
Ġ800 4
En v
6 74
ĠF ACE
L VL
ĠE dit
Ġs omething
B asic
00 15
Ġoffset s
pip eread
Ġexec ution
f ed
Ġ ĉĉĉĉĉĉĉ
Ġex act
CP Y
Rece ive
ĠI DCT
ãģ Ħ
* %%
Ñ Į
en gth
C G
X mm
Trans fer
er ate
Ġb t
Ġsh ield
6 78
TR ACK
Ġl arge
Equ al
ra sh
S fx
ma chine
AA r
Ġp d
Ġcpu id
F requency
ĠD H
ok es
ms k
ĠEx ec
ro ss
UP DATE
p at
ree mpt
l is
s aved
Ġ2 79
ĠVirtual Box
Ġ* +
Ġ800 3
ĠAR M
cli ents
ĠMultip ly
Ġ38 2
ĠS CR
ING S
ite ct
6 85
T erm
CLO SE
en coding
6 57
Ġup on
C arry
pi o
' +
ĠL icen
************ ***
smps Set
APH IC
IN VALID
Ġint ptr
B SS
Ġp cs
ĠF used
Ġ33 9
Ġat tack
Z I
00 16
INI TIAL
ui ck
SP R
M icrosoft
Ġth ose
ĠR R
p red
Ġl ed
new line
fc b
8 402
ĠS TE
20 19
tern ate
p atch
CHAN GE
ĠT ime
arg ptr
E FFECT
tr i
ĠR C
w ar
Ġl begin
32 00
0 56
Ġ' .'
Ġgrow th
Ġhigh er
ĠSub tract
0000 1000
v end
it espace
xml N
Ġ32 4
Ġcall ee
6 59
ec md
ATT ACK
Ġco mb
rg b
Ġ ONE
Po st
Ġf db
ĠA ss
Ġ8010 55
Ġcon version
doc uments
ĊĊ ĊĊĊ
18 40
7 85
ĠS R
Ġlea ding
Ġdraw ing
Ġ# "
and n
z y
Ġ33 1
64 42
Ġassembl er
8 28
ĠSH IFT
Ġs ar
b map
ä¸ Ģ
ĠN MI
ĠIN I
shr x
ĠASM DISP
Lay out
6 79
s lot
Ġp ic
7 66
6 75
Ġ2 35
VIC E
Ġmov ups
Ġ45 8
vp muludq
Ġ80105 44
ĠASS ERT
ĠAD L
xt s
Jump table
Ġassoci ated
O ther
SC ALE
m er
ð Ł
Ġt ables
Ġvp blendd
W orld
Ġ80100 360
6 37
te en
Ġs ent
sp rites
ĠB oot
TR I
tran sp
T wo
Ġ00 7
mul c
$ ??
fe ed
9 23
ĠEN ABLE
cd f
TW O
ĠPal ace
ĠPh ys
smps Header
Ġ0 80
be dd
9 16
C lock
MUL F
Ġe xc
Dev Ext
Ġ[ '
BLOCK S
Ġ Ñģ
00 30
ĠL L
il ph
User s
ä¸ º
l begin
( <
ĠS ome
0000 11
Fa iled
ĠVAR IABLE
i ally
Ġth ird
AN GE
Video Port
fl t
0000 55
ĠI mp
On ly
k i
rep r
th an
var s
; -
64 00
Ġsp awn
ĠN T
so ck
ĠB l
note type
D eref
Ġas sembly
5555 5555
Br ush
8 72
c w
ID C
FT P
7 23
ĠĠĠĠĠĠĠĠĠĠĠĠĠĠĠĠĠĠĠĠĠĠĠĠĠĠĠĠĠĠĠĠ ĠĠĠĠĠĠĠĠĠĠĠĠĠĠĠĠĠĠĠĠ
z a
å ĩ
ĠA MD
49 81
Dig it
ĠF t
Ġver y
red u
ĠBYTE S
Ġld p
ld m
sh eet
mul ti
xml Str
Ġpro to
JSAMP ROW
Ġd om
Reg Test
14 07
Ġv iew
Ġl it
j oy
Ġpextr d
ct ory
bench marks
ĠA M
Ġf ileclose
AR P
Ġdiff erence
i rror
cx x
==== ==
Ġ36 2
pri vate
d pl
Ġ; ;;;;;;;;;;;;;;;;;;;;;;;;;;;;;;;;
Ġign ore
DE L
74 83
vp clmulqdq
RO L
DI SK
NU SED
Ã £
Sp line
080 5
9 36
end channel
Ġan imation
Stat ic
R t
ĠP RE
Ġch anges
Ġ ðŁ
n r
Ġfail ure
Ġd es
Ġ39 8
Ġround ing
ĠMis siles
ERN BASE
ĠK i
ĠPORT B
Ġ2 57
ĠDC T
6 52
H M
el s
en umber
0000000000000000 0000000000000000
A AD
Ġ ĉĉĉĉĉ
move m
I ZE
db g
dec imal
B IG
ĠTh ese
çĶ ¨
0 123456789
97 1
ĠU NUSED
po st
ar r
00000000 000000
0000000 115
cf g
icen able
âķĲâķĲâķĲâķĲ âķĲâķĲâķĲâķĲ
bedd ed
bit map
Ġw on
mit ive
sp r
load uvm
o z
uart putc
cl uster
Ġend m
set instrument
Z Z
Ġ__ $
ĠCo mmand
sl ice
Ġcommand s
Ġt akes
Ġ24 1
p v
pop f
ĠO LD
ĠF CB
ĠPhys DevExt
Ġf x
Ġ6 20
Ġgener al
B in
ĠF C
;---------------------------------------------------------------- -------
lus ive
/ (
BL ACK
x def
Ġ[ #_
cra teria
94 3
00 28
vent ion
app ly
ĠPrint Text
s ms
Ŀ Ģ
Ġ8010 24
amp ler
W ITH
v psrlq
pt im
' d
Ġtmp q
k s
Ġt ag
ĠK ERNEL
Y AP
e lem
u red
Ġ2 22
ad r
d ag
Ġ33 4
ĠF ace
an s
000 23
RI J
J IT
V ECTOR
08 7
8 83
k ing
Ġc are
omp ress
Ġ; (
Ġd ummy
Ġ45 0
EX TI
ÃĦÃĦ ÃĦÃĦ
Ġcopy ing
W D
ilph Co
ĠC TR
ĠL T
Ġaddi u
L Z
Ġto c
Ġh ost
Ġmove ment
sa mp
Sys call
di rection
pli es
C a
In crement
C IP
di men
jmp q
ĠH andler
ĠTIM ER
U sed
H AVE
cons oleread
CH ROMA
;------------------------------------------------ ------------
sar x
WIND OW
AD I
9 76
è ¯
ad o
Ġpre cision
ST X
ist ic
H w
b tf
lo d
ĠF S
xff t
Ġc ap
!! !
ere d
St ation
ĠPH A
Ġth ings
* %
P ages
ĠF ibonacci
ĠST V
Ġ< +
Ġb ri
$ +
M et
Ġf i
Ġ8010 39
AE AV
ĠT W
12 96
G AME
Ġt im
ĠI DX
ion ary
ACC EL
pri me
-+-+-+-+ -+-+-+-+
ow ord
- )
c P
Ġ33 6
;---------------------------------------------------------------- --------------------------------
alloc ate
ĠS in
Ġi update
ĠSup plies
Ġinclu ded
0 84
7 35
12 01
Ġrea son
Ġcas es
en te
95 1
Ċĉ ĠĠĠĠĠ
10 40
Z R
14 40
;---------------------------------------------------------------- ----------
Ġinc rease
ud it
gener ated
c Proc
el low
leal loc
B ig
\ {
ĠMV GHI
P IN
8010 83
point s
8 85
res sive
UN K
Ġsup er
i str
b lack
const prop
. (
Ġapp end
p reempt
Ġd rop
Ġerror s
en ted
ĠĠĠĠĠĠ ĊĠĠĠĠĠĠĠĠ
08 2
10 20
B N
ĠT ile
Dec or
hel lo
Ġ80 4
Fa de
8 24
ĠnF s
ĠStart ing
Ġm aster
ĠL ast
ĠS c
ĠO ctave
7 37
n xt
Ġpg dir
CUR SOR
ĠSUM SUB
7 78
Ġwh ite
Hel p
7 01
Ġw ave
FA IL
Inv okes
Ġ4 28
../../ ../../
ĠHE AD
ĠOW NER
L ight
f g
p call
fa m
code project
inf late
uff le
6 99
p in
P arameters
Ġ6 60
ĠI C
PA IR
Prop er
db uff
ĠRO UND
b ec
ĠW R
wh ere
P arent
Ġ" "
Ġde termine
Ġl ight
ar b
Ġhel per
Ġ38 8
hl ps
98 1
A IL
Ġprint ing
BC S
clo sed
ĠDec l
E K
OR I
F LOW
8 76
Ġ800 5
ãģ §
T XT
Ġs ym
Ġm cr
Th an
P at
u do
7 74
9 68
To ol
DS K
33 55
PROC ESS
w p
00 24
ĠG S
9 27
00000000 000003
Ġp an
8 23
Ġ0 15
US ART
ĠDoor Out
c End
09 19
Ġ32 1
ĠÐ º
ĠA CTION
l ut
m r
Ġ2 006
000 76
9 85
Ġsuccess ful
OR IG
ot h
Ð¾Ð ²
V ATE
ad t
28 16
Ġsh ared
Ġs low
Ġsec onds
f at
ĠC ont
P GROUND
V id
g rep
s v
Ã£ o
Ġre d
mov x
Ġl h
Ġ4 68
ur ther
Ġal ter
Bot tom
ithm etic
ĠBC S
RE N
cd a
Ġent ire
AM D
F ER
94 1
Ġta ken
Ġ' $'
BU SY
ĠAV X
ĠIN DEX
7 70
A udit
IN TR
50 40
ED ATA
Audit Alarm
7 11
98 00
Ġtmp field
P oly
Ġm red
ĠP art
stand ing
Ġ4 60
min or
v ram
Ã ¡
ps rad
ice oi
F G
F eed
IT ER
ĠRegister s
Ġ4 04
Ġ6 30
Ġah ead
ĠB H
05 1
BP B
?? ??
Mon itor
ĠCom mon
C ORE
Ġ layout
ĊĊ ĠĠĠĠĠĠĠĠĠĠĠĠĠĠĠĠĠĠĠĠĠĠĠ
. @"
ĠN ORMAL
Ġmark er
P RED
R ND
Ġ00 40
t ourian
min us
ABC DEF
Ġcon tin
R JMP
Ġexpect ing
F req
c Begin
F ACE
R x
å º
ĠM Y
. <
Ġprocess ing
enum erator
SI D
x gft
ĠP LA
100 10
ĠL IST
ĠEX EC
Ġ0001 0000
Ġd ay
ub e
Ġ tell
Ġ36 8
lea red
big write
call back
ch anged
In valid
inc l
Ġfinish ed
Control Class
06 7
Ġfor ce
8 74
Ġqu it
z uc
Ġ6 0000
Ġsegment s
Ġpro mpt
FC FC
T x
in tensity
DB G
Ġdi alog
2 684
Ġmov ed
9 83
ro te
ĠU ser
ĠCMP Q
13 01
ĠMUL TI
Ġc ustom
8000 3
9 48
A rt
Ġ34 2
od es
Ġ4 18
Ġlea rn
0000 14
Ġex ample
T mp
Ġpro ble
9 30
SS L
VAR S
up d
Ġj le
Ġ0 38
UT F
vi sion
I FI
ĠCLE AR
Ġwrit es
BG Map
TI L
Mem ber
ĠCol or
Ð ´
Ġin direct
ĠT AX
T rue
Ġff ff
+ ]
if orm
Ex ternal
30 20
ĠGE OS
Ġ6 10
INTERRUP T
P PI
R ev
Font Table
Ġp b
Ġwait ing
Ġgener ic
la ted
In te
MUL T
v b
Ġ6 50
In strument
st al
ĠF M
48 00
res erved
J OB
Ġval or
Ġ" #
p ul
000 26
ĠE FI
37 20
smpsSet voice
PL AT
B GP
Del ta
B SR
Ġhel p
Ġ ================
RO OT
aes arg
Ġm ulti
Ġ20 11
BL ANK
Ġper iod
Match Inst
Ġ5 90
Ġmacro s
Ġcrea ted
iv ate
ĠComp ute
end for
ĠN ON
ĠS ector
ri dian
ĠO L
Sp awn
w recked
ection s
7 18
7 22
v zeroupper
ĠP LY
tain s
Re mote
if equal
Ġwh ole
ĠEX TRN
a di
ĠS HL
Ġ2 51
ĠF IR
Ġmem cpy
r ational
Ġc rt
74 00
PUN CH
W AVE
6 22
ĠP T
ĠP SG
MM ENU
00 17
le y
ĠUP DATE
tr ig
EX PORT
om in
ĠREP MOV
L in
Ġwor dbuff
b fc
h and
Ġc lean
Ġl cd
Ġ20 15
pi log
Ġexecut able
F ACTOR
8010 84
all el
ĠS UP
ĠIMP ORT
Ġ' ..'
as g
v ari
OM B
00011 000
10 56
ĠP ER
18 69
C AP
ĠP W
ĠL ength
0 75
part ition
sp er
Ġl ui
ab i
n g
ĠM on
Ġco spi
Ġstart up
Imp ort
et ter
ĠGOT O
7 19
f ire
o a
12 25
sub span
Ġ8010 66
Ġcheck sum
Ġlapic w
ta ge
sis tent
Ġsh ip
Battle Mon
âĶĢâĶĢâĶĢâĶĢ âĶĢâĶĢâĶĢâĶĢ
f bc
in teger
Ġ5 30
SD K
âĸłâĸł âĸłâĸł
nt dqa
Ġaesenc last
Ġallow ed
R oot
r v
å ®
ad or
ĠITE MMENU
Pri vate
000040 97
Ġ5 50
Ġ80100 370
PL T
ĠTH EN
00000000 0000000
Ġ2 009
N eg
Ord er
å ¼
es cape
as ync
200 7
ĠJSAMP ARRAY
A AC
Ġ ****************
S END
re y
Ġn ul
cp c
Â «
mov sb
ĠS AD
CUR RENT
off s
ĠAb stract
PROTO COL
Ġ37 8
AA t
key board
big dir
MB H
l x
n os
Ġ36 4
Ġround s
ĠL im
09 4
Ġpmul ld
ec a
Ġlock ed
Ġ33 8
Ġsign ificant
Ġpara ms
9 56
se ed
1677 72
D a
DI FF
ĠSel ected
ĠAl so
attrib utes
' \
11 80
æĺ ¯
V S
Ġ39 9
sub d
col ors
Ġtest s
Ġoper ator
an on
is ors
Ġ26 1
000000010 63
+ #
W nd
Ġaut o
ç »
Ġh ook
xmlValid at
0 88
In tro
Ġ5 40
) ,$
Ġsub ject
def late
xmlText Rea
ĠM VI
unknown sfx
lsl s
Ġp in
xmlN ano
t ch
ĠW AIT
00 19
ĠG ROW
13 44
Ġv psrld
------- +
W e
Comple tion
i ret
Ġ00 5
fetch str
ĠC lass
ci rcle
ĠnC s
GN U
IN S
V GA
ĠBP B
t c
ret n
Ġre vision
lcd FontTable
ĠSY STEM
ĠI DE
shuf i
15 84
movz xbw
C enter
Ġav g
12 16
ĠS tate
Ġ24 9
register s
8 44
13 05
Ġst ates
AD PCM
proc dump
AT OR
ĠLo cal
dsp rite
en tries
walk pgdir
F ULL
get able
ARG E
up le
ĠĠĠ ĊĠĠĠĠĠĠĠ
000045 17
L ibrary
M ESSAGE
ĠP E
Ġj oy
Ġor i
B lack
mov sd
: %
Ġ5 20
Ġf lush
ãĥ¼ ãĥ
5 000
EN EM
Ġ --------
Ġ. ........
Ġde y
C la
Ġremain s
o mode
Ġ0 25
ĠL ow
Ġg ate
Ġrepresent ation
ĉĉ ĠĠ
ĠZ X
AA e
SW ITCH
e locity
co ver
>, <
ç¬ ¦
DIM ENSION
G host
agon al
allbos sp
ĠR ef
ĠV IA
1000 2
8 68
? ?$
S low
rint f
n C
9 50
10 25
85 76
Ġre moved
Ġv psllq
reg ion
DR V
2222 2222
ĠR ED
ĠCON ST
gf xb
Ġp ress
ec enter
ĠSH IP
Ġinteger s
esi dent
ĠUN DER
H S
Ġsi mp
Ġres trict
Mode l
Ġcol lision
v start
å Ĩ
Ġ2 73
PL C
Decor ate
Ġiter ation
10 101
mf ence
BO ARD
ĠV P
An i
n ess
ĠB CD
Ġso cket
iv ely
9 72
Ġro tate
;---------------------------------------------------------------------------------------------------------------- -------
ES A
Ġ5 08
Ġmov sd
g crt
" ]
Ġ26 3
Ġnew deal
Ġ5 28
AAAA AAAA
Ċĉĉĉ Ġ
9 38
b bc
P ress
8 14
32 16
D ummy
1000 6
ĉĉĉĉĉĉĉĉĉĉĉĉĉĉĉĉ ĉĉĉĉĉĉĉĉĉĉĉĉĉĉĉĉ
T one
IN AL
unp ack
7 99
ĠIn st
ĠBIT S
Z WORD
ĠĠĠĠ ĊĠĠĠĠĠ
Ġin p
Not ification
PC R
CA SE
ĠDO UBLE
Unknown Text
put ch
p ause
00000000 0
St ar
Ġph ase
pip ealloc
Ġ1 0000
ĠM em
22 00
IC R
( ;;
9 64
v ect
| !
String Buffer
9 70
ta ch
%%%%%%%%%%%%%%%% %%%%%%%%%%%%
T ouch
ig ure
Ġj simd
Ġre verse
06 00
smps PSG
ĠP SY
sup port
Z one
Ġf urther
11 100
Ġ24 2
ten ce
CL IB
ĉ ĠĠĠĠĠ
AN DI
Y O
ãģ Į
bl es
std int
Ġ7 00
Ġnew line
kra id
R CC
ĠR OL
T ST
d aa
err nz
Valid ate
7 33
LE MENT
G lyph
se ek
Ġcon t
nul terminate
S erver
*/ ,
°å ĿĢ
ac ity
lf ence
Ġmov ifnidn
Ġ34 9
M art
Ġp ul
w hich
Ġf rames
ĠO riginal
ĠO ptim
ĠRe move
Ġ40 8
Sel ected
Â« Â«
] /*
x DD
16 17
p ret
sign al
la m
19 20
gn u
pipe write
Ġ6 12
390 8
D ep
Ġf l
ãĤ ĭ
9 32
>> >>
LE AVE
ĠInput s
8 17
> .
in ite
K A
u de
10 28
Ġv is
Ġ64 8
Un used
L key
res ource
E FF
rl c
ĠĠĠĠĠ ĊĠĠĠĠĠĠĠĠ
k stack
n ex
cccc cccc
ĠN ASM
001 00000
Ġk nown
SI O
Ġ5 18
cp x
mo r
85 93
Ġsw app
Ġ ************************************************
ar es
ard eb
Ġun it
per m
ENABLE D
B lk
Ġre nder
; ****************
No Attack
or v
0000 38
segment def
b dc
ĠD G
re et
Ġ36 1
b ea
al pha
ne orv
PL ACE
ĠGe o
ĠT ri
ĠB IN
TE LEM
PUT S
Mon s
i sions
Call s
s int
Ġ2 017
Ġid entity
cmpeq d
writ able
ĠDecl Item
ph ys
Ġload er
f cc
in ess
ĠH el
ĠINI TIAL
ENEM Y
Ġr atio
Log ger
Al location
filer ead
T AP
Ġ20 20
Ġal pha
to ggle
para ms
lin enumber
l xi
00 13
ĠR A
ĠFE ATURE
%%%%%%%%%%%%%%%%%%%%%%%%%%%% %
ffff e
ĠR OCK
Ġ8010 54
xmlText W
Ġaddition al
Ġ ĉĉĉĉĉĉ
xx x
ch unk
Ġmovs x
xml Reg
ord ing
Ġ@ %%%%%%%%%%%%%%%%%%%%%%%%%%%%%%%%
S u
Ġg cd
FRE Q
Ġ2 019
%%%%%%%%%%%%%%%%%%%%%%%%%%%%%%%%%%%%%%%%%%%%%%%%%%%%%%%%%%%%%%%%%%%% %@
R U
âĢ ¦
Ð ĺ
ub ble
Ġ@%%%%%%%%%%%%%%%%%%%%%%%%%%%%%%%% %%%%%%%%%%%%%%%%%%%%%%%%%%%%%
)+ ,(
EDI T
O KE
Ġm erge
ĠU SING
MUL SUB
ĠL DI
Ċĉĉ ĠĠĠ
Ġop s
I m
R am
te rate
Al ign
oo lean
let ter
S ymbol
G INE
12 50
Ġ000000 20
ĠPAL ETTE
Ġin side
Ġ5 60
x N
Ġ Ã
AUT HOR
, *
Ġr and
r w
ex tend
th en
ĠDE VICE
0 89
Ġ7 20
Ġem bedded
e H
ĠĠĠ ĊĠĠĠ
Ġ2 021
qu ant
C redits
ĠHL T
AC HE
M e
Ġshif ted
87 1
ĠSP ACE
er ation
Ġn files
ĠG lobal
S afe
Ċ ĊĠĠĠĠĠĠĠĠĠ
op tim
Ġo uter
Ġld b
, +
ĠZ W
LD O
hi sper
local variable
linenumber table
localvariable table
M AGIC
T ony
TI F
åľ °åĿĢ
Ġ4 24
FL G
v ideo
Ġ0 16
200 1
In voke
gfxb k
6 77
ĠMOV L
hisper Main
15 20
ARG F
Res ume
ĠReg s
ADD F
T ag
ĠD on
Ġre port
7 39
ran sl
Ġ6 08
Ġown ed
======== =
IF DEF
o ose
Ġpart ition
HO D
Over lay
p ages
ĠEx pr
Ġ34 4
Ġdig est
PH Y
op code
ad just
co okie
d ea
; ================================================
IN P
Ġ37 9
é Ģ
Ġd at
8010 85
T ail
def s
Ġba sic
ĠUSE S
ĠH AD
Ġ Quad
de q
ĠĠĠĠĠĠĠĠĠĠĠĠĠĠĠĠĠĠĠĠĠĠĠĠĠĠĠĠĠĠĠĠ ĠĠĠĠĠĠĠĠĠĠĠĠĠĠĠĠĠĠĠĠĠĠĠĠĠ
lb i
Mo Comp
âĸ Ħ
ĊĠĠĠĠĠĠĠĠĠĠĠĠĠĠĠĠĠĠĠĠĠĠĠĠĠĠĠĠĠĠĠĠ ĠĠĠĠĠĠĠĠĠĠĠĠĠĠĠĠĠĠĠĠĠ
Ġdiv ision
ĠTH UNDER
sty le
rag on
Ġvi sible
Ġli teral
8 25
M atrix
STR EAM
Ġrest ored
ĠDEL AY
RI ER
id ata
Ġvp alignr
num eric
9 11
ra dio
Eng ine
+ :
G reen
Ġ000 40
p arm
part ial
D OT
Ġd qword
xfc fcfc
ĠA BS
lo sion
Ġpre fetch
ĠR a
st z
fa f
madd wd
CF s
d ont
Comp ressed
SC RIPT
D ma
12 40
ĠM AP
56 25
Ġfollow s
HO LE
ĠGr Obj
Ġoption s
Sec ond
Q uick
Ext ra
HW ACCEL
12 32
Ġ32 5
FL ASH
Event Pair
ĠâĶĤâĶĤâĶĤâĶĤ âĶĤ
Fix up
A PU
åħ ¥
p rkd
Ġsub pel
ĠRES ULT
ĠO VER
Ġrequ ested
A KE
rom hack
Multip le
Ġ1 100
ĠIN Y
IBU TE
ĠCont in
29 13
Ġ39 6
09 5
Mo bile
ĠSK IP
ĠD A
ur al
ĠP SH
ĊĠĠĠĠĠĠĠĠĠĠĠĠĠĠĠĠ ĠĠĠĠĠĠĠĠĠ
En tries
ĠP r
sub tract
Ġ80100 3
09 3
ĠNO FILE
MODE L
Ph one
ĠT urn
Ġ20 12
âĸĪâĸĪ âĸĪ
EF EF
AG S
Ġter m
S i
11 96
ab ility
Ġen tered
ĠSub Test
Point s
NtGdiD vp
6 33
H IT
16 80
Ġtime out
Ġcontain ed
O k
Ġlog ical
md ot
c ec
c be
Ġ34 7
Ġde le
S l
i update
Ġad j
+ ],
ĠDec imal
Ġd esc
el ifidn
Ġ35 9
ĠOp Name
ĠST M
j cxz
å °
Ġass ert
CLR F
9 89
BU FF
Ġcol ors
St k
Ġ0 78
Ġ4 78
2 100
i di
ĠC ORE
Ġcorrespond ing
Ġre c
7 21
Ġp ab
Ġ80 48
âĸ ¡
H EL
Ġ26 2
ĠSPRITE MOV
d fc
PAR SER
06 25
lip se
Pre Stub
DRI VE
lw ait
Ġ6 38
ĠR CX
Ġapp ear
Ġwork space
1000 9
g ht
Ġ39 7
L INK
Ġpre fix
N M
Dex Entry
S onic
13 00
ch n
CHAN NEL
d ad
ma gic
Ġ' }
ST AND
Ġ35 1
m atrix
Ġin ser
AA A
ĠPI PE
Ġv m
la s
cc b
83 88
pre def
GR APHIC
ĠBATTLE ANIM
ĠĠ ĊĠĠĠĠĠĠĠ
eal locate
@@@ ?$
MK GLOBAL
Ġwalk pgdir
9 01
v irtual
Ġ33 7
ãĤ Ĵ
traits Ic
B REAK
Key ed
Ġinter face
Ġdist ance
NEC TION
ĠâĶĤâĶĤâĶĤâĶĤ âĶĤâĶĤ
SL IDE
sec urity
P K
Ġ35 7
14 08
Ġ6 70
ĠFIR ST
Ġ4 98
ĠA G
EX E
0000 39
ĠST K
COL UM
N DEF
Ġdiv isors
9 02
Generic Error
000 42
ab b
ins rb
read sheet
At om
234 5
Ġinitial ized
z one
, ...
xml Parse
f name
ĠT otal
Ġ ul
sh m
Ġf t
Ġlicen sed
ĠITE M
Ġt m
ĠC ry
Ġprov isions
ĠNot es
Ġvari ous
1000 4
0 99
O OL
ad er
ĠCh ar
________ ____
on ts
Ġhapp en
fer red
ĠSM ALL
g pio
Ġv pshufd
Ġtrans mitted
Q A
ĠĠĠĠĠĠĠĠĠĠĠĠ ĊĠĠĠĠĠĠĠ
F ixed
Ġ39 4
;---------------------------------------------------------------- -----
Ġ5 16
sp awn
SH L
PL US
t n
10 16
32 01
Ġre lea
S AX
Ġ' )
ĠTh en
ãģ ª
Ġwork s
Ġmovz wl
,[(( -
edi um
Ġlook ing
9 18
ĠF N
sb i
Ġ7 68
Ġw arm
RO OM
p an
cmov ae
ĠSH ADOW
Ġh ad
ten a
Ġ35 8
14 14
ĠRUNN ABLE
Ġw c
Ġpop a
Ġlo okup
ĠP ok
Ġ>> >
m sb
ea ted
C ase
un imp
M utex
dd en
20 50
dc l
y ield
Ġ5 80
Ġ26 5
stat int
ĠAr ray
cvt si
7 79
17 59
Ġr la
NtSet Information
Ġbas escradr
Ġ5 48
SH ADOW
iled up
switch uvm
f m
Ġ7 28
Ġ>:: _
ec ho
ĠZ TMP
$ (
/ .
R AND
MB OL
Ġexec uted
y r
00 110
Ġvf madd
Ġlearn set
R esp
Ch an
ĠS Q
main ing
ĠLA ST
L a
o h
Ġma kes
link test
Rep lace
y l
Ġ32 3
Ġc lobber
ĠĠĠĠĠĠĠĠĠĠĠĠĠĠĠĠĠĠĠ Ċ
mask s
F ONT
db ra
Ġ20 48
84 00
Ġsub q
Ġpro logue
15 00
ART Y
LE CT
Ġlarg er
EPI LOGUE
P urpose
Ġ4 44
ĠD ate
ĠI A
ĠW orld
N ON
CL ASS
M ail
pack et
Rep ly
2 118
n orm
ĠX TMP
so cket
ĠNtGdi Eng
WR ONLY
Ġ0 40
28 14
CB I
comp ressed
Ġ8010 40
ĠQU AVER
Ġs cf
86 02
Ġacc ording
hel p
9 13
tr um
N PC
P G
p mul
al b
**** **
cv tt
lapic w
Ġchild ren
* _
15 04
Ġdefinition s
h row
s gas
14 01
Ġ37 4
ĠSt at
B uff
è ®
lw z
PO ST
gg ing
G raph
ĠV ol
1111 00
ĠEn ter
Ġmon itor
- "
go od
Ġfollow ed
MULTI PLY
u q
Com Call
fa e
Ġtw eak
AME TER
C apture
n ed
80 86
ROUT INES
Ġ ĊĠĠĠĠĠ
link unlink
lim bo
Ab ort
mmc sd
Ġl c
ĠK ernel
ea c
ĠD PTR
ĠC an
Ġarch itect
ä º
53 68
Ġu w
a ca
Load er
ĠT ag
Ġy ear
Max PSG
® µ
25 83
sub pel
v id
Ġpadd b
A pi
b rk
d ac
At tribute
Ġmultip lic
Ġdi re
Ġm uch
PE AV
Ġcomm ent
U pd
[ %
ĉĉĉ ĠĠĠĠĠĠ
W alk
STA NT
Ġtermin ated
ĠD one
Ġun less
âĢĵâĢĵ âĢĵâĢĵ
pc m
U AL
ç Ľ
Ġv shufi
ĠB asic
ffff h
Ex cept
push d
ĠĊ ĉĉĉĉ
Pres ent
Ġ ================================
Ġ6 88
Ġ35 4
M SB
ĠR TC
b ff
T ri
rb o
100 4
et ary
il t
;================================================================ ==============
ec mp
tr ip
Ogt p
6 105
8 66
Ġe pilogue
ĠNt Open
parse redirs
4 294
kbd getc
C lus
Ġa way
ĠV GA
smps Alter
o stream
Ġs lots
Ġc la
ist ics
mm er
L G
eb a
ĠV al
add c
Ġ36 7
Ġtermin ator
L UMA
Ġ39 1
Arg List
f st
8 29
Ġrece ive
si x
ĠSA FE
Ġc leared
ter ation
ere nces
Ġlist ing
lev ator
Ġ4 38
id o
08 6
b eck
10 89
10 30
$$$$ $$$$
MOV S
N DIRECT
ld hl
Ġ32 6
LET TER
ea ms
ĠP A
ĠFI SH
VI A
copy tiles
eff ect
is ed
Ġa pic
CO ORD
Ġ34 8
Ġ8010 23
Sp in
F IND
10 55
ĠD RAW
ĠDRI VER
å ¾
ri etary
ĠR D
RE E
L ines
Ġ34 1
Ġs mps
ur b
Ġ35 6
Ã ³
20 15
2 896
EC Check
0000 1111
Ġ38 7
ROUND S
9 74
D UT
ic ode
iz ing
ĠY MMWORD
comp ress
ĠMEM ORY
R N
Ġp ix
Ġal gorithm
Ġre du
Ġen sure
ĠDe lete
mul pd
Ġpoint ing
An y
pla intext
f rac
re nder
Ġimul q
C eladon
t w
ed c
12 24
xml Get
Ġ4 32
F eatures
Ġ# (_
mul s
Ġ---------------- ---
6 73
T ransp
Ġ5 68
EN S
10 44
se udo
Ġ36 9
Ġma gic
ach ed
c move
ap icenable
ĠOp Decorate
re verse
Mem Unlock
Y ES
c fc
ĠF SR
25 60
Ġevery thing
ic on
Q t
Ġ4 19
Ġ37 6
qu ires
sc ene
us r
Ġid ent
Ġpmax sw
lwait ly
Ġ4 70
Ġchannel s
HAL F
Ġpmulh w
r mdot
ĠF ran
Ġout side
L java
Ġs a
Ġb tf
%%%%%%%%%%%%%%%%%%%%%%%%%%%%%%%%%%%%%%%%%%%%%%%%%%%%%%%%%%%%%%%%%%%% %%
Ġwork ing
HO USE
X CRC
ĠM ust
18 80
LE AF
Ġ6 13
200 2
WH ITE
Ġ4 90
un um
00 25
Ġ8010 38
EA U
Ġ6 58
ĠCall er
Ge ode
Ġr om
ĠP roc
conn ection
11 52
Pro duct
DOC UMENT
a ad
g ine
x ord
Ġ0 17
erm is
Ġ4 11
AV S
En crypt
10 50
ip ment
ĠAd just
10 64
d tr
ĠĠĠĠĠĠĠĠĠ ĊĠĠĠĠĠĠĠĠ
db f
Ġ40 5
Fa ult
Ġrea ch
8 13
d or
t ot
w eight
-------------------------------- ---------
W indows
Ġ Qu
la ced
ĠSt op
11 34
9 52
C lr
Ġd uration
db uf
Ġ199 2
H ide
- '
termin ated
volution s
h ld
Ġ6 80
Ġ6 68
Ð° ÑĤ
Ġpro log
f w
ĠL eft
EC H
ĠCo ord
ĠTILE SET
r shr
b us
ĠIn sert
M aster
rea ted
000000 11
Col lision
B GE
S oftware
c el
o unt
FF C
1000 5
holding sleep
AA AD
Ġrep lace
Ġsmps NoAttack
Ġ1 111
Ġc lip
ro data
xffffffff ffffffff
Ġrun s
an es
C mp
Ġ6 18
ĠSPRITEMOV EDATA
7 55
Ġpackus dw
ĠTIM E
strt ol
ol id
åı ·
Ġ33 3
Ġe gg
FE h
FE ATURE
ĠType Name
Ġ ì
eb c
ĠP M
F ST
: "
in a
00000000 8000
xmlX Ptr
ĠT T
ef ore
Ġtri angle
Ġmode l
Ġp movzxbw
Ġ5 36
Ġf aster
Ġpo inted
ĠDef ine
Ma terial
Ġs m
Ġo ops
85 35
sub routine
ĠX WORD
9 26
Res erved
ĠEN GINE
ĠS u
Op code
G ot
Ġpop l
M V
ed e
Ġ Ċĉĉĉ
ĠA uthor
ĠR S
M AT
Ġp e
ee e
SING LE
Ġbe h
BAR RIER
m aster
Ġ5 78
;================================================================ =============
Tiles et
As sign
prog bits
ar ator
======== ==
Ġp red
Ġprop rietary
ular ity
RS VD
Ġo bj
ca c
Ġcom es
Spec ifier
Ġ ĊĠĊĠĠĠ
ĠC AP
vp alignr
8 11
n ptr
Ġsh ell
ĠSH ORT
B order
G fx
MOV I
?? ?
gt classic
Ġoper ations
Ð¾Ð ´
Ġy word
w as
PE AT
Ġr c
ĠD r
ĠPRI VATE
H C
W ORK
Ġde hl
Ġreg ular
beck er
: (
0000 16
19 80
o ve
GF p
_ ]
ĠC AN
test s
ĠEND M
id estart
ĠDESC ALE
Ġd if
Ġco mplement
Ġb us
inc lu
ĠGener ic
Ġe pilog
ĠL ower
Ġ" +
acc ess
ĠPer form
SI G
wc et
2 121
F inal
IN TE
9 15
s age
13 12
F PU
Ġ( )
res b
new sz
ITH ER
G ui
Ġvp or
ĉĉĉĉĉ ĠĠĠĠĠĠ
an i
Ġ8010 50
ĠLo ok
quit gas
ĠR andom
ID T
--- +
SUP PORT
13 74
AT IVE
ĠL BA
ari o
pid s
W hite
temp t
Ġl ib
SET UP
# -
V R
b reg
ĠST AY
ı ¬
ĠMOV S
ĠB B
du mmy
b ounds
ĠE xt
Ġco s
ĠĠĠĠĠĠĠĠĠĠĠĠĠĠ ĉ
ser ver
f zx
ĠD ES
Ġtermin al
14 04
ne on
ref erence
F ire
I Steam
Ġfa ct
su ccess
Ġdestroy ed
Al pha
dc b
Ġload s
)| (
: ../
Tile Map
10 13
Ġp as
ĠN or
ap ter
LE X
Ġe o
ab a
Ġ4 14
Ġper cent
Ġden otes
A sc
Ġ' +
en ny
RES ULT
S ong
10 27
000 77
4 194
push cli
to o
ĠOp Selection
ĠOpSelection Merge
0 76
9 21
Ġv movd
30 40
Ġret hrow
Un wind
<< <<
a mma
Ġb ody
Ġ6 28
Ġ7 10
id le
st age
68 00
Ġgo es
uzz y
( .
ĠD ONE
Ġsty le
mov ss
010 6
ĠOver world
000 72
xffff e
Po ke
ĠCol umn
ĠF l
Ġ7 08
SP C
PAR M
E d
Ġ7 18
Ġ* -
Ġfill ed
J C
Ġapic id
ĠF PU
cro ss
112 5
tri angle
Ġ6 90
AM ARD
Ġk alloc
Ġvpbroadcast w
le x
if th
P latform
Ġv cmp
old en
Steam API
V el
10 14
Ġ5 38
Ġ38 1
put char
;;;;;;;;;;;;;;;;;;;;;;;;;;;;;;;;;;;;;;;;;;;;;;;;;;;;;;;;;;;;;;;; ;;;;;;;;;;;;;;;;
grow proc
f all
QUE UE
':: `
0 83
Ġ4 12
ĠC r
po ke
=-=-=-=-=-=-=-=- =-=-=-=-=-=-=-=-
g reater
Ġ4 99
ĊĊ ĊĠ
B oss
f ma
us ing
= !
a ac
Ġco ef
O riginal
b ound
Ġ39 83
L arge
b m
Ġ5 70
ĠE OF
Ġcon io
CH ILD
**************************************************************** *******
MP T
Ġlocal s
C l
Ġl s
100 2
ĠCh annel
0000 17
PL AN
Ġaccomp any
qu eta
SB B
9 45
alloc proc
dest ination
9 46
A mp
o ch
re execute
App ly
d ta
Ċĉĉĉĉ ĉĉĉĉ
DEV ICE
Ġâ ı¬
c ustom
Ġd ue
Trainer Header
s ort
Ñ Ĩ
@@ $$
6 53
T eam
Ġmov hlps
Ch at
mon itor
Ġp lot
Ġ... ,
Ġpinsr w
S te
ĠMU ST
ĠS imp
F ON
n asm
Ġx B
lic e
A g
ä ¿
Ġf il
Ġec ho
cb f
ec f
th row
D JNZ
ĠV IC
Ġtrans ition
Ġ1 0000000
di ces
), #
ĠOutput s
AT ED
syn tax
Ġaccompany ing
Ġ26 7
BL T
N OW
K bd
s oftware
ĠW S
iz er
ãģ Ĺ
act ual
! )
bs f
pa getable
Ġat tr
IN UE
arb age
n in
Ġp urpose
ill s
ĠSec ond
trip le
C b
12 60
12 49
Ġmov apd
11 44
Ġco me
xmlS AX
Pok ecenter
Da mage
18 75
ĠC x
trap no
HO ST
ĠLEN GTH
9 78
v ile
Ġ6 78
E I
14 24
ĠDIS K
I ER
L CALL
Ġ8010 35
b regx
ĠROUT INE
DIG IT
9 66
Ġh aving
T ARGET
V RC
CC ESS
Ġtermin ate
15 60
0 85
N MI
Ġhand les
C tx
ups ample
s addr
10 60
ld ir
ĠL in
Tra ce
ĠE EPROM
Ġ80 2
f be
o ke
ĠNtGdi Set
A SE
Ġx d
Ġ8010 64
Ġ40 7
C pu
set s
Ġ3 83
man ager
SBC S
S ample
13 20
= '
17 60
Ġtrans form
Ġpipe write
EX CEP
open source
pre ter
Ġ@%%%%%%%%%%%%%%%%%%%%%%%%%%%%%%%%%%%%%%%%%%%%%%%%%%%%%%%%%%%%%%%% %%%%
m ad
Ġ2 008
ĠH W
PO KE
bas ed
* ,
Ġ0 14
19 00
Ġ37 7
struct ure
ĠJSAMP ROW
dd f
RE TI
Ġdistrib ute
Ġh eld
Ġla ws
âĸ¡ âĸ¡
ĠS PE
ĠL Z
ĠĠĠĠĠĠĠĠĠĠĠĠĠĠĠĠĠĠĠĠĠĠĠĠĠĠĠĠĠĠĠĠ ĠĠĠĠĠĠĠĠĠĠĠĠĠĠĠĠĠĠĠĠĠĠ
d ff
Ġ37 1
Ġpush a
ĠType Specifier
ĠH z
std err
NO DE
Ġab ort
Ġagain st
on es
11 32
,# -
; --------
Ġ4 34
Ġ36 6
fb f
Ra ise
H DR
ĠJ DIMENSION
AA E
Ġcomp iler
out standing
Ġpsub b
7 75
H ack
Ġe i
ĠSend Message
D os
IC ON
En vironment
aes keygenassist
8 26
ul ation
Ġes cape
Th row
Ġcipher text
ĠO SE
Ġpres et
9 19
t q
Ġn orm
AA a
. $
Ġd idn
her it
P lace
ĠDec rement
Pa int
Ġb g
ĠSt udio
smpsVcDecay Rate
Ġ4 16
14 32
ĠL ea
S q
INV OKE
b ac
20 40
Ġ8010 68
FL T
M ATCH
tr unk
72 00
Ġy ield
0 77
12 22
Ġx C
i or
L quitgas
Feed back
U RI
Ġf printf
Ġx A
State ment
C SR
fix ed
LAN E
B oard
F acing
P oll
ĠF AR
Ġen vironment
CON D
Ġexact ly
Ġ* --
16 32
5555 55
m bc
y per
Ġ( .
Ġ8010 18
P SD
6666 6666
conn ect
lif ied
Ġc enter
= [
low est
Ġus age
AC A
Ġreg ist
Ġkey word
Ġ Â
ld aa
28 80
En list
080 1
Back up
Enlist ment
co mb
AN SI
åĪ °
u ous
Ġm ult
9 54
gt max
Ġw all
and ing
MP C
char s
sw er
orig in
O I
è¡ Į
Ġbet ter
10 26
ĠE nemy
Ch anged
get field
pk rd
ĠSh ip
0000 32
ĠP arse
P PU
16 64
CNST U
Dec rypt
655 36
ĠB PL
i mage
;;;;;;;;;;;;;;;;;;;;;;;;;;;;;;;;;;;;;;;;;;;;;;;;;;;;;;;;;;;;;;;; ;;;;;;;;;;;;;;;
Ġcompar ison
13 04
ĠPAR AM
Ġeo bd
Ġs ync
k thread
Ġ< $
ĠU SA
ĠSub routine
TA IL
Sec urity
åĮ º
Ġqu ad
bl y
m asm
ĠU SER
p muludq
) >>
? ?$_
cc d
ermis sion
8 15
ĠT AY
000050 97
un nel
E ST
Ġ5 24
st it
Ġv cvt
In f
Ġfe w
Ġcp l
//////////////////////////////// ////////
ĉĉĉĉ Ċ
Ġma jor
Ġ Ċĉĉ
Ġt ya
Ġstr chr
Ġsb bl
ival ent
ut f
ret i
MP TY
Ġsub tra
Ġmess ages
M ess
s ue
ĠĠ ĊĠĠĠĠĠĠĠĠĠ
ab e
iv o
IE LD
Ġ5 11
000 71
Ġg roups
ĠG OL
Ġ35 3
ĠX DATA
* -
pre fetch
D UP
Ġe ob
ĠE ITHER
17 76
Ġld ir
w rapper
Di ff
6 31
11 70
in sb
Ġw EnemyMon
fs full
Ġdot s
quires leep
ATT ATA
c ar
å Ĭ
eb e
ĠO ld
FI SH
Ġsign ature
NtQuery Information
9 39
,' $'
d v
Ġs im
cur r
Ġcor ner
20 14
Ġ6 16
be e
DC TELEM
- %
Ġs ort
arg in
ĠK S
neg ative
Ġlit tle
m eta
ĠF T
Ġ36 3
ĠM IT
Det une
C U
Ġ6 98
ĠCP Y
>< ><
n im
re es
Ġcon ver
xf ef
G cm
e ea
Ġ Query
1073 74
ĠIn fo
ĠOP EN
D on
11 40
11 000000
ot ion
auto generated
in ate
Ġp ull
fa ctor
Ġhold ing
n an
s afestrcpy
DE CODE
TE AM
S ched
Ð ¼
20 21
IT OR
SM B
STD OUT
m gr
Ġp x
ĠC AL
Ġrequ ires
9 25
R VM
Ġ= (
en dw
ĠIN TO
back ground
L IT
0000 24
EFL AGS
T s
Ġ6 54
29 15
ang ing
Sh utdown
9 79
' m
0000 25
90 90
AG ON
Ġlink er
Ho st
Ġencry ption
Ġget Variable
PE AX
ĠDEF INED
O ak
ĠPSY CH
ĠS AV
Y P
c ce
en a
ĠR DI
ol ine
ĠN ormal
dr um
Entry Point
ĠPAR A
Ġse em
bbbb bb
LL ER
8888 8888
id ing
Ġ8010 67
div isor
U nder
cl one
QU AD
p lace
Ġindic ates
-------- -+
Inst all
Ġa dst
13 13
Ġflip adst
H ORS
IP S
ĠOBJECT TYPE
; ==
Ġp atent
ĠU p
IN TRA
iz es
DIS ABLE
Ġ' :
and o
mul u
BA SIC
C IE
u ation
DO OR
9 73
20 10
as ed
Ġcon gruent
Ġmon iker
mov apd
Ġ5 52
g am
in i
er ase
0000 19
Ġmin imum
C Ch
init y
Ġpla ced
ec lose
gn ore
h al
Ġpcmpeq w
Ġd y
ĠA x
T CB
Ġxmm D
ransl ation
; |
la ys
ĠF lags
%%%%%%%%%%%%%%%%%%%%%%%%%%%%%%%%%%%%%%%%%%%%%%%%%%%%%%%%%%%%%%%%%%%%%%%%%%%% %@
ĠSCR ATCH
Ġ7 40
Ġimp licit
g m
SE Q
Ġlo dsb
ç ½
ĠN on
Comp osite
ĠI CON
wh itespace
Return s
Ġx E
Ġk mem
f ptr
j m
00 38
Ġ4 64
et able
nd o
f req
rit ten
14 85
200 5
0000 36
insr d
SI s
CALL P
Ġ4 36
ulong long
PPI DE
SM ALL
32 32
Ġpush cli
Ġmin us
Work s
SH UF
is ten
ĠSLEEP ING
f printf
ĠS can
Ġg state
Ġprint s
ĠTO K
OPEN SSL
Pal ettes
sh ot
Ġdimen sions
9 000
;================================================================ ===============
D K
Ġpackss wb
. +
Ġl anes
Vi sible
80 12
Ġp rep
ĠR equ
110 11
ĠDo es
Event s
Ġup d
1342 177
Ġ4 71
16 01
ĠB F
Ġ4 96
Ġ58 2
Ġal tered
ĠĠĠĠĠĠĠĠĠĠĠĠ ĊĠĠĠĠĠĠĠĠ
ĠAL IAS
F lash
5 31
L MBH
ed it
sp in
as r
Ġpop cli
fl at
44 00
Ġ5 58
ĠFISH GROUP
27 48
co me
" >
T AX
x pos
EX TR
Ġqu ick
ĠDIG IT
9 58
9 37
ĠF ilter
Ġw Player
Ġm icro
X CHG
` #'
10 19
Oper ation
C LOCK
Ġt il
13 76
Ġ39 5
' +$
an deq
N AND
ĠR DX
EL S
s lide
Ġ ------
ĠA cc
ĠC MD
Ġv add
85 00
slong long
9 17
c ba
Ġ4 22
p as
FL USH
Ġdis closed
ĠðŁ ĺ
16 55
,( __
I me
æ ®µ
ĠLo c
ĠMaterial s
F ENC
b tst
Ġ4 86
ex ist
R AX
Ġ00 11
11 36
ur f
Ġpre vent
f un
re mainder
si l
Start up
Ġ45 2
R edi
Ġ0 12
Ġ5 98
int c
get her
ç½ ®
¤ º
ç ¤º
Ġ4 84
inc src
ĊĠĠĠĠĠĠĠĠĠĠĠĠĠĠĠĠ ĠĠĠĠĠĠ
far writetext
Ġbig file
Ð¸Ð ¼
12 20
Ġst dio
... \
RES ER
ag ain
b order
ARG UMENT
12 48
name iparent
ĠAUT HORS
w Enemy
Ġb attle
end asmfunc
Get Syscall
au x
Exec ution
re r
Ġ20 14
ĠDI STR
Pri mary
ra in
ĠĠĠĠĠĠĠĠĠĠĠĠĠĠĠĠĠĠĠĠĠĠĠĠĠĠĠĠĠĠĠĠ ĠĠĠĠĠĠĠĠĠĠĠĠĠĠĠĠĠĠĠĠĠĠĠĠĠĠ
ĠCH AN
BTF SS
Ġpos ted
AEB V
ĠP atch
ĠB ig
C ENTER
S ON
Ġ$ .
ĠS IG
LP H
dd c
on ight
ĠS urface
Ġ6 02
12 04
ĠĠĠĠĠĠĠĠĠĠĠĠĠĠĠĠĠĠĠĠĠĠĠĠĠĠĠĠĠĠĠĠ ĠĠĠĠĠĠĠĠĠĠĠĠĠĠĠĠĠĠĠ
loc ated
ĠLG FR
Ġpip eread
ĠA PP
db c
c enter
Ð ¿
FF A
() );
Ġvml al
C tl
Ġ34 3
ef c
erv es
Ġhere in
Ġ4 72
00 84
ta y
ab ort
Ġbin omial
N ames
cket s
Ġ3 85
Ġp latform
dec ode
Ġput dat
Hw nd
) =(
k init
Lo gging
PL IC
Ð° ÐµÐ¼
ĠComp iler
ost on
1 00000
l shift
---------------------------------------------------------------- ----------------
ide lock
Enum erate
Ġup loaded
cf b
ãģ «
ĠDe fault
A UD
Ġ4 39
Ġ6 36
xf m
Ġpar ity
at omic
Ġ8010 27
UC SIs
IN St
DE S
onight R
u pe
v x
11 56
i ps
re fcnt
sub b
id ent
ĠDe termine
ER IC
ll ll
ĠPH ONE
Bl ue
Ġb oard
St andard
PORT B
Ġredu ction
ĠI MB
br ne
Ġpmin sw
ĠSTE P
ĠNor fair
Ġw arp
smps Loop
14 34
;**************************************************************** *******
GetSyscall Number
er ange
ĠE LF
Ġv movq
Ġlong er
Hi jack
W arp
y ear
ĠFI RE
d zx
10 36
ID CT
12345678901234 5
v dp
xml Buf
ĠT ail
ĠAssembl er
W ave
07 1
get callerpcs
Sta ge
Ġ34 6
Ġversion s
ĠRe lease
ĠDis k
F uzzy
rocess or
Ñ ħ
ĠB EGIN
Ġlink ed
Ad j
Val ues
a ec
l ect
10 90
JSAMP LE
G BC
n v
Ġrepro duced
Ġ4 29
Ġl xi
w ave
004 01
setup kvm
Ġadd ing
Ġhandler s
ĠCharacter istic
Ġ@%%%%%%%%%%%%%%%%%%%%%%%%%%%%%%%%%%%%%%%%%%%%%%%%%%%%%%%%%%%%%%%%%%%% %
H ot
est ing
16 02
ĠSUB ROUTINE
Ġ8010 34
9 59
8010 82
ri es
ĠLo ck
85 84
RD Y
4 0000
è ¾
Ġmin or
ĠP repare
db it
D escriptor
Ġ5 64
ĠF loat
ĠS B
const ru
ĠBO OT
m HL
w all
Ġ5 76
Ġre load
Ġdir file
sn printf
ĠARE A
se h
ĠTh read
Ġef lags
op pel
8000 4
ĠSimp lified
F ight
ĠV R
temp o
ĠPL US
f ce
Ġworld wide
m cs
us ted
ĠD F
ĠD ungeon
Ġ44 2
f eb
ĠLO C
filter s
; ================================
W W
X DEFINE
ĠÐ Ł
Decl Item
Ġappro ved
E ET
Ġin duce
cp us
IS ON
A bs
t ok
Ġ58 8
Ġ* =
ex tended
ĠO ne
res sion
ĠIn ternal
SM S
n E
13 80
res erve
un ity
bc b
extern FP
T OWER
Ġ2 003
Ð¾Ð »
o v
Ġs em
), (
Ġ80 12
9 22
E scape
c eb
Ġ8010 25
AA h
Ġ3 55
de h
000 15
Ġmatch es
ĠPH Y
re ce
li es
Col ors
ZT V
H idden
11 64
ĠE F
Ġexpress ly
bab ly
EA DER
RESP ON
ict ure
Ġimp lication
Y PER
Ġ entity
Con struct
SS D
TO BJ
Ġlocation s
Ġpinsr d
b aa
Ġ ÑĢ
VI EW
S a
i adst
ĠEQU W
Ġ'/ ')
17 64
e le
ĠM an
128 1
PRO G
omin ator
H Z
ĠP ref
ĠT ry
Modif ied
Ġ4 15
ATTR IBUTE
B OT
o am
ed a
8 75
C txt
E UR
10 34
Ġest oppel
P en
v RegTest
14 80
ti es
Ġtrea ty
F ETCH
Ġ7 50
Ġx F
Ġĉ ĠĠ
20 64
four teen
Ġproble m
L SL
P X
i ff
20 13
ĠB oston
H ard
Ġ7 30
Ġcon ferred
PAT TERN
Ġinduce ment
==== =
fi lealloc
ĠB uild
Us age
Ġ00 9
Ġ0 19
Ġs qu
ĠDEF AULT
Ġspin lock
b sd
12 64
Ġ* (@-
ĠĠĠĠĠĠĠĠĠĠĠĠĠĠĠĠĠĠĠĠĠĠĠĠĠĠĠĠ ĊĠĠĠĠĠĠĠĠĠĠ
M ARK
ea ch
ĠT ower
ach u
G INDEX
99 846
110 10
So cket
O US
Ġ4 94
14 56
ĠR OW
dr v
80000 0100
d ce
g bc
17 28
ĠLicen sed
I H
8 89
g id
ĠĠĠĠĠĠĠĠĠĠĠĠĠĠĠĠĠĠĠĠĠĠĠĠĠĠĠĠĠĠĠĠ ĠĠĠĠĠĠĠĠĠĠĠĠĠĠĠĠĠĠĠĠĠ
ĠNtGdi D
16 16
ĠC redits
la re
B ug
+ -
Ġf in
DE LETE
Set tings
l shl
cmp a
CP X
a ur
PER FORM
rea t
MO USE
Ġsetting s
Ġdef n
I mm
ĉĉ ĠĠĠĠ
si le
cc m
Ġsub ps
ĠD est
bc a
Ġle g
ĠSin ce
re mented
mm s
Ġ4 13
Ġ4 21
TE C
Ġ40 9
c as
mp eg
dd r
Ġ39 3
FO UND
Joy pad
P repare
Ġa ff
ro s
Ġk ind
ROCK ET
P t
60 93
ĠGeo Works
J B
t an
t xfm
SC AL
R ing
n arrow
02 32
MA KE
Ġ~ (
Ġtyp es
Ġ45 6
Ġlog ic
Lea ve
Ġ layer
// /
68 75
Io Completion
FON TOBJ
13 84
000 547
ĠB r
Window Station
Ġlo s
ĠLG HI
w Battle
to c
(# _
ver age
ĠLI B
9 86
ĠR UN
,( #
ant s
ĠCo unter
Dot Net
R CALL
b fd
Ġper sistent
9 55
10 39
99999999 99999999
H OME
ĊĊ ĠĠĠĠĠĠ
ĠM I
Ġresp onse
ĠB x
Ġ|| $
ish ed
ĠTH AT
en abled
ĠASS UME
Ġgraph ic
M acro
T OM
Ġ4 23
Ġw PartyMon
ab d
98 69
ÐµÐ½ Ð¸
æĸ Ń
00 99
ĠĠĠĠĠĠĠĠĠĠĠĠĠĠĠĠĠĠĠĠĠĠĠĠĠĠĠĠĠĠĠĠ ĠĠĠĠĠĠĠĠĠĠĠĠĠĠĠĠĠĠĠĠĠĠĠĠĠĠĠĠĠĠĠ
Ġcorrect ly
ĠSO UND
C p
ro d
ĠR EF
76 80
R eader
W HILE
in ing
ĠP LOT
ĠV ideo
x it
RE MENT
ĠĠĠĠĠĠĠĠĠĠĠĠĠĠĠĠĠĠĠĠĠĠĠĠĠĠĠĠĠĠĠĠ ĠĠĠĠĠĠĠĠĠĠĠĠĠĠĠĠĠĠĠĠĠĠĠĠĠĠĠĠĠĠĠĠĠ
ĠG PIO
be h
Modif y
13 32
ĠE mit
xmlSchema V
0000 27
13 28
ch ain
X IC
ad cl
C alculate
writ ten
u k
ĠV DP
Array Pad
t os
æ Į
lo ok
Ġvp d
our s
w Menu
Ġf stp
Ġ44 1
Ġres w
ray gon
dr op
c bd
Ġin ptr
ank s
Gra b
P lc
Ġ37 3
punpck lbw
AA n
V OID
38 00
commit ting
iv en
ĠPORT A
2 113
Ġvp unpck
&& &&
FFFF h
Ġqu ant
__ ("
X IP
ĠÐ ¸
ter ter
30 72
Ġz eros
al low
Ġs afe
ĠP bs
Ġch an
ca m
fo ot
Ex port
) ];
, {
10 35
( ?)
er gy
Mem Free
9 29
b write
Ġsh all
SH R
y q
Ġ7 38
Ġex tend
ĠOp Variable
Ġsmall er
ĠH ere
ED GE
ĠT OS
epi log
0 111
10 18
ĠDECL ARE
Ġpab sw
H ALT
S LOW
} +
Ġx q
e dd
e ec
Ġ20 10
14 44
ĠE nt
b ut
13 60
W S
Ġ4 25
88 00
vert ical
H AS
Ġ4 17
Ġ. ......
ĠR SP
mul ps
; ================
a fc
ch em
Ġh dr
SH I
ss d
214 7483
Ġpcmpeq d
chron ization
F iles
G CN
res hold
to a
Ġ0000 1
N s
Ġ0 50
mo oth
ĠG reen
Access Check
Ġ000000 3
ĠREP RESENT
SECT OR
c bb
L H
W AR
Ġp aging
F SR
V ertical
Ġ00 10
ĠF B
Ġxtmp h
a fa
n k
x z
DD L
NtUser Register
TR ACE
PE BD
Ġ---------------- ----
10 74
Ġp ause
ĠE qu
. (*
C s
D b
29 20
ĠCON NECTION
9 75
9 53
T SC
13 50
97 75
Ġstd out
Ġskip ped
ĠP ar
Ġtemp o
LF SR
ik i
S quare
T yp
Ġ5 44
EH Rec
TIF Y
cp uf
fc f
,( _
ALIGN MENT
Div Rem
Se maphore
E LEMENT
Ġd zx
54 97
CC MR
CJ NE
r ra
ĠC la
smps Call
Ġsig ma
ĠDiv ide
E AR
Ġst b
ĠW hisperMain
ĠB D
Ġg reen
ĠRes ult
Ġautomat ic
è¡ ¨
Ġb u
ĠT AB
im g
EL M
156 25
Ġd inode
Ġf lash
8010 86
40 16
String s
ee f
bd f
TIC KS
Ġvar s
x FC
def lags
Ġes ta
ĠEX X
(& (
Ġoptim ized
ĠGROW TH
ĠĠĠĠĠĠĠ ĊĠĠĠĠĠĠĠ
f ba
p ol
11 30
set Frequency
;---------------------------------------------------------------- ---------
comp ute
Ġexception s
LEA SE
ĠR ece
ma y
ĉĉĉ ĠĠĠ
shr l
Tile map
Over flow
Ġcomm a
L BL
R SP
en code
ĠF O
24 01
Ġre quire
Ġhere by
Ġ40 6
Ġcalcul ator
13 14
MOV D
Ġ0000 4
ĠSc ript
O OP
Ø §
an ies
ĠR TL
10 48
Ġ5 0000
ĠHAD AMARD
Ġ( @-
N V
Ġ4 31
Ġchar ge
42 00
Ġpo st
6 21
S m
S LOT
15 68
Ġadd s
ĠSUB OPT
C ARD
; /
100 9
sis tence
Ġpack ed
Ġtrans action
. \
v cmp
Ġr call
Ġcon v
k b
ĠDev ice
; %
T MS
f ly
15 74
ĠE Q
85 13
ATTR S
Prog ress
9 35
Ġ; $
11 76
EN E
ĠFF mpeg
Ġ7 60
ĠE NT
; :
] ==
Ġscal ing
Ġgra b
Ġth row
co mplete
fd alloc
Options Storage
af t
Job Object
us age
29 28
ĠO C
Ġ early
Ġ6 56
24 99
17 16
ta s
CRY PT
10 59
ST AR
Ġaccomp anies
14 39
Ġ6 06
ĠQuad rant
8 69
ĠS ection
T ALK
l ps
Ġ4 27
Ġ" /
10 99
Get VideoPort
ĠROM X
ĠR SI
29 25
NO USE
____________ ___
ĠDISTR IBU
b v
Ġf it
Ġover ride
VL w
Serv ice
S X
10 12
ĠP ermission
Ġy p
parse exec
L it
V EC
Ġ== =
D uplicate
J G
Ġj o
2 119
P OR
GE OS
smps Mod
Ġ4 26
11 90
Ġ7 48
Dlg Item
er u
sc ri
F SL
EC B
Ġan di
FF IX
Ġdev sw
Pi ece
ĠCOUNT ER
Ġn j
ĠCONTR OL
Ġ5 32
ĠR EM
Ġover write
SCH EM
add carry
ĠD AC
Ġcheck ed
W AY
ĠIM AGE
19 36
SI nt
ĠRev ision
Fuzzy Term
V ec
h orizontal
lock ing
fd a
Ġ44 6
UC K
Read y
A x
11 14
Ġ7 70
AA d
ĠUL w
Ġ2 002
G row
S ilphCo
ĠG CBI
Nt Get
OL Y
Gener ate
< _
Ġv me
Un load
8 77
12 88
are n
Ġmultip lication
GY M
r src
ut or
ĠO ption
ĠUnknown Text
fam istudio
N A
Ġm tx
ĊĊĊĊĊĊĊĊ ĊĊĊĊĊĊĊĊ
11 84
ãģ ¯
Ġnum Calls
_ .
Ġto gether
> "
W ar
Â »
Ġ6 26
Ġh ack
ĠT ST
nc il
sel ected
Ġ199 1
14 30
89 99
Ġand n
BIT MAP
T D
00 50
no m
De mo
Ġpart s
bit mask
ĠÐ ·
b at
00 27
B MI
00 49
Ġ0 70
10 54
Ġv pslld
RE AL
ĠSt andard
Ġw ww
ĊĠĠĠĠĠĠĠĠĠĠĠĠĠĠĠĠĠĠĠĠĠĠĠĠĠĠĠĠĠĠĠĠ ĠĠĠĠĠĠĠĠĠĠĠ
ĠĠĠĠĠĠĠĠĠĠĠĠĠĠĠĠĠĠĠĠĠĠĠĠĠĠĠĠĠĠĠĠĠĠĠĠĠĠĠĠĠĠĠĠĠĠĠĠĠĠĠĠĠĠĠĠĠĠĠĠĠĠĠĠ ĠĠĠĠĠĠĠĠĠĠĠĠ
punpck ldq
9 49
d ynamic
rc l
ĠG F
SELE CTION
ĠREPRESENT ATIONS
ut ation
ĠH ow
CL IP
Ġrest art
ĠDISTRIBU TED
P ay
å ¯
Ġmon th
Ġin verse
Ġcon vention
SC ORE
Mem Lock
v addr
mov el
Ċĉ ĠĠĠĠĠĠ
con dition
10 49
Ã§ Ã£o
f sub
f xch
§ ĭ
string s
Proper ty
W K
ĠP SP
ĠC SECT
17 92
NO ERR
Ġgiv es
Pic Front
D LL
Z ip
00 32
Ġen um
Per sistence
Ġ10 33
Ġmo des
f q
405 13
tm hm
& $
lim its
15 40
10 29
14 64
ĠM ar
ĠGener ate
pack age
istr y
b ic
Ġc ross
Ġcon si
direct ory
BTF SC
S al
17 02
Ġon es
EL LOW
Ġ1 999
Ġ5 92
Ġcomm it
f db
ff b
stat es
ial loc
f ad
h f
x aaaaaaaa
ĊĠĠĠĠĠĠĠĠĠĠĠĠĠĠĠĠ ĠĠĠĠĠĠĠĠĠĠĠĠĠĠĠĠĠĠĠ
800 1
TRI ES
ĠNt DComposition
ide intr
ĠT SS
19 84
Ġ ********************************
0000 20
32 96
01 80
PAR A
NtGdiDdDDI Get
w atch
Ġ' *
ĠT K
74 40
ĠO f
4 581
di x
ĠU M
Ġhand led
M OS
Z MM
ĠS e
Ġpr inted
Ġf ire
11 16
14 02
ĠPRO TECT
Ġ652 80
") ){
Ġ4 37
Ġ** )
aea bi
4294 967
af b
Ġ80100 6
EQU AL
Egg Moves
z c
Ġ5 04
Ġar alb
Ġaralb rec
A DE
ĠCon fig
ĠĠĠĠĠĠĠĠĠ ĊĠĠĠĠĠĠĠ
Ar row
W WF
ĠF x
Ġ7 04
el ec
ol ed
Ġocc ur
Inc lude
................................ ................................
Ġ4 33
ĠD JNZ
******** *
ĠC ursor
Ġv oice
Ġcon verted
RESPON SE
F ocus
15 12
name i
SG X
CBC ur
Ġi con
47 85
ĠSW ITCH
log ic
exit wait
8 21
A rc
if true
ĠLO G
Ġocc urre
Â» Â»
H al
ERR Y
ite rate
K ERNBASE
ĠCON V
UR ATION
1234 5678
00 96
16 96
14 88
if o
Ġres q
RI D
|| :
Ġdiffere nces
s x
Ã Ń
Ġ45 4
Ġd ump
32 04
ĠAB I
Ġassembl ed
I rq
U ES
ĠC lock
38 40
2684 354
Ġex pr
Ġno ise
x EE
é ¡
it a
ĠC hi
ĠCON SOLE
Ġdebug ger
9 77
Ġ. ...
SP trans
Ġwh ose
HE VC
open text
Ġwe ight
rl f
00 23
Con t
ĠM E
ĠN ONE
;**************************************************************** ***********
Ġ urb
SE P
be f
10 15
11 55
ãĤ ¹
i et
i rc
100 7
macro s
C aps
n pad
mo us
ĠI OB
Ġdef s
? '
fetch int
M X
Ġ4 74
Z Y
INT VAR
Ġedit ing
A es
Ġinput s
000547 83
Ġre m
if e
Ġen velope
V Blank
tr unc
K K
Ġ36 5
gbc pal
ĠL INK
Fa ctory
ioapic init
A CALL
E p
dd q
13 02
W ater
0000 80
24 80
Ġ8010 22
05 85
FFFF FF
Ġb swap
12 59
14 03
terrup ts
Chunk Array
Ġm ac
ĠP RED
Ġ10 10
EG A
ĠSC AN
iput dir
c z
16 40
1111 0000
ib rato
v iew
Ġ4 55
00 64
Ġvp and
J UST
v movd
ĠB s
PO SITION
ĉĠĠĠĠ ĉĉ
I dx
å §ĭ
ĠPIPE SIZE
0 96
B AT
M GET
Z PRCENTRY
20 18
Ġ6 32
Ġcalcul ation
can not
13 06
arg p
HE AP
Ġdisplay ed
Ġpar allel
p cmpeqd
00 83
Ġw StringBuffer
OS UB
ĠNtGdi Create
ĠSH UF
Ġrestrict ion
Ġ5 96
bl ink
ĠH ELD
n te
ĉ ĠĠĠĠĠĠĠ
Ġ5 34
ĠT ermin
Ġdraw n
Ġplay ing
;++ +
ĠSPE ED
B ATTLE
S eed
T B
10 85
Ġ4 81
20 25
:: `
() .
Ġsp d
C at
S un
Ġmul q
ãĥ ³
tile map
- $$
B NU
H MAC
Ġde tect
00 60
ĠR L
Ġ45 1
ĠUSE D
Ġ80 49
Ġcp us
vv vv
f ca
80 51
ĠP ack
sub mit
ĠCP X
c ea
14 74
Ġ- $
Ġxmm F
ĠV ariables
ĠMM X
st u
ĠF ifth
Ðµ ÑĤ
11 88
ĠI CE
ca o
z fft
13 69
Ġ6 03
Connect Port
17 85
reg ex
ĠM VC
D OM
P lus
b ilin
10 94
ĠP tr
Ġv mull
ĠW indow
bl ue
Ġ8010 32
smpsMod Set
str uments
Ġ64 4
Ġpla intext
Ġat k
00 85
Ġ0 31
11 60
Ġ6 64
34 44
co lour
Ġhigh est
M ag
est at
sub menu
OFFSET OF
12 75
pe gg
ĠST Y
Al gorithm
Ġexec cmd
10 96
000015 17
, :
O LLER
S in
V ED
80 113
ĠS td
ret ch
FX IP
N ow
r shift
Ġc movb
Ġ00 02
Ġf mul
Ġr b
Ġ6 96
ĠR OT
Clus ter
Ġ -------
ĠM agic
eru lean
Ġ33 5
Ġfree vm
psh uf
S s
h an
3 008
C EL
_ |
f ea
,# _
ĠZ P
ĠINTERRUP T
ĠP P
0000 26
MM MM
Acc el
rrc a
ON ENT
ex cept
n G
ĠU ses
AA o
Ġun changed
ĠÐ ´
MET HOD
000 100
40 95
ĊĠĠĠ ĊĠĠĠĠĠ
ĠĠĠĠĠ ĉ
CL I
User Management
v ity
Ġ80 11
fd f
aa e
Ġ6 66
Ġass um
Back ground
hold er
ĉĉĉ Ċĉ
IF Y
Ġ0 75
10 17
Ġc um
0000 34
ĠTO XIC
0 505
local s
sbc i
Ġrect angle
00 63
: .
Ġ5 54
22 23
e Z
S uspend
re o
Ġ4 76
Ġre duced
DC B
clr f
Ġpcmpgt w
B lob
10 38
ra s
16 25
19 04
ĠCon stant
Ġ199 4
siz es
re cv
Ġ5 74
ĠĠĠĠĠĠ Ċ
ĠE FLAGS
ĠT op
Ġ46 1
UE AA
foot prints
C al
Ġ37 5
TY P
Ġmultip lier
F U
J o
Ġ58 4
28 24
ĠI DT
Ġc ircle
di us
Ġg ender
ri age
ĠN eed
ĠP ower
25 01
xml UCSIs
CPU ID
ĠFran k
LE S
ass umes
Number Of
XX X
M us
12 15
Sh ip
Ġ` %
Composition Surface
M m
p en
1111 1110
CB HighRdy
Ref erence
Ġswap gfxbk
Ġsn ake
i en
Ġ4 85
Ġin te
29 26
Ġde termin
Ġta pe
h s
ta dor
00000 111
01111 111
Ġl z
Ġne igh
Ġcoeff q
padd ed
ĠPO SITION
Ġcoll ections
M SC
29 29
move ment
Ġfl oppy
Ġ2685 01
si bly
Ġ80100 660
U IL
Ġb ss
ses leep
J OY
004 15
Ġ'_ ',
ĠB GE
ir l
Un it
Comm it
" ?
i div
Ġv fn
check ed
Ġdebug ging
... '
Hash Map
ĠM C
in ers
ĠR outines
Ġpop ad
14 16
29 24
vp x
h q
x l
Ġre duce
(" \
Row s
Ġdict ionary
Ġtrash ed
ea e
13 30
Ġown er
S ort
\ },
MA STER
ĠIF NDEF
Ġbutton s
Ġ; ;;
0000 18
ĠT ur
ĠPart ial
Ġe volutions
22 34
76 54
for ce
S em
;;;; ;
ri ves
Ġun lock
au ght
Ġpair s
Ġ6 24
ĠFOR MAT
' (
ĠD V
ul ing
ROT ATE
11 18
glo b
U pper
Ġ ke
push ad
xml New
W P
i ate
Ġh idden
34 00
ĠIn voke
Ġf at
Ġf cc
Text ure
l or
s afe
Ġb est
Ġall regs
Ġ4 83
ut ure
Ġ8010 65
56 00
Sign al
ĠTri angle
R ot
T HE
mul q
Pro be
dimen sions
p maddwd
ĠR BRA
Ver ify
X M
ul ly
xml GenericError
Ġmk dir
K L
P arm
ĊĊ ĠĠĠĠĠĠĠĠĠĠĠĠĠĠĠĠĠĠĠ
15 25
Ġ6 04
Ġh atch
leg ate
Ġexecut ing
Ġ locate
END PROC
h u
Ġpadd usw
112 0
Arg ument
r te
Ġsub s
IM AL
Ġa nt
dd e
ĠS i
14 28
11 68
Ġ6 22
OP TION
__ )
col lision
;**************************************************************** ****************
d its
Ġpush Short
0000000 4
00 78
Ġ8010 15
ab ase
csr w
---- -+
13 95
ĠFL ASH
Go al
Ġtim ing
Ġ( @
RE M
Ġstr n
Ġexist ing
// ================================================================
ĠBack ground
Ġp Src
ment o
Ġed itor
S OCK
Ġs k
Ġiter ations
L IGHT
b omb
ĀĀĀĀ ĀĀĀĀ
7 31
un iform
read open
ĠREP ORT
ĠSpec ial
đ đ
20 24
é ĩ
Ġpush ad
Get Resource
13 07
Ġ6 34
EN TI
ĠH EADER
;;;;;;;;;;;;;;;;;;;;;;;;;;;;;;;;;;;;;;;;;;;;;;;;;;;;;;;;;;;;;;;; ;;;;;;;;;;;;;;;;;;;;;;;;;;;;;;;;
} ,[
ĠĠĠĠĠĠĠĠĠĠĠĠĠ ĊĠĠĠĠĠĠĠĠĠĠ
Ġv sub
ic mp
30 80
ĠSUB STATUS
ĠSh ould
Ġ**************************************************************** *************
Ġconn ection
C x
t ty
Ġ5 14
anim ation
Ġra w
V B
T own
100 51
pte u
xaaaaaaaa aaaaaaaa
est ion
TIC AL
Ġra ise
B ro
al ready
wh en
s ae
An ne
Sub tr
R ule
de pth
cre dits
SS FP
2 199
Ġ5 56
di spatch
set b
ĠH istory
OC US
JP EG
8 73
h e
s word
Ġa sr
ĠEFI API
30 24
35 64
Thunk Stub
Ġs ell
ĠS ECTOR
xffffff e
T om
Ġ20 13
Ġ'- '
W hich
100 3
ĠH i
Ġcomp onent
B efore
rea sing
BR ANCH
offset q
L etter
M agic
char map
H IDDEN
it al
de pend
di alog
#### #
DC D
other wise
ph an
Ġjump s
Ġredi rcmd
ne q
SP rio
ĠG CM
ÑģÑĤ ÑĢ
N arrow
Ġa dr
nom ial
H alf
S oft
ĠDB CS
xbb bbbbbb
Ġ8000 19
Ġ64 3
Con f
âĢĶâĢĶâĢĶâĢĶ âĢĶâĢĶâĢĶâĢĶ
AR ROW
010 8
xffffffff cccccccc
VER SE
Ġ0 85
in et
ld p
ĠS earch
ĠA ct
mple mented
Ġbl t
Ġ0 77
1000 7
ĠY ES
9 57
Ġ5 02
Ġh w
now led
Red raw
Ġevalu ate
si a
64 32
020 2
10 84
READ Y
ĠPAR AMETER
lapic init
Ġco cos
ĠG ra
E dge
L blk
Ġ5 99
ĠD river
ĠW M
11 99
800000 109
12 54
read able
Ġdis card
|| }
a common
Ġ ĊĊĠĠĠĠĠĠĠ
Ġ{ ||$
N ative
10 79
Ġb usy
12 30
si mple
ig hl
âĶģâĶģâĶģâĶģ âĶģâĶģâĶģâĶģ
13 65
th ree
ara te
Ġid t
el ist
Ġm id
Ġ6 39
Ġst z
to col
ĠBl ue
Ġ7 54
ut able
il ar
ie ves
KEY B
CM OS
pip eclose
. ',
Ġ âĸĪâĸĪâĸĪ
Ġp ending
L FB
b de
Ð ·
ĠT oken
write open
Ġm b
Ġ6 72
DI AN
bc ix
Ġsel f
calc ulate
Q BE
ne y
. *+
Ġ7 58
ca e
ĠK e
$ -
M AG
pegg io
S ym
Ġ5 26
ĠL et
Ġl pf
de ff
14 60
Ġ44 3
37 48
Ġxml Char
n F
sp rintf
nc y
/ ((
D ungeon
W ATER
Y es
Ġget ting
INSTR UMENT
NtUserSet Window
MEDI UM
T AY
Ġ4 35
AC TIVE
H K
V ert
c lean
SE COND
CL AS
Ġign ored
25 20
Ġproper ly
dd a
ec imal
16 04
Ġsp lit
C UT
j i
Ġ4 000
ess Than
ffff d
ser v
ãĢ Ĥ
;----------------------------------------------------------------------- ;
ĠPro logue
Ġch ip
co ords
Go od
Vi ridian
x FD
Ġ5 13
Ġc cf
o ys
Ġ ĊĊĠĠĠ
ĠE ach
ax y
ĠSpec trum
20 70
ĠĠĠĠĠĠĠĠĠĠĠĠĠĠĠĠĠĠĠĠĠĠĠĠĠĠĠĠĠĠĠĠ ĠĠĠĠĠĠĠĠĠĠĠĠĠĠĠĠĠĠĠĠĠĠĠĠĠĠĠĠ
; )
Ġi get
Ġor r
vi sible
eZ dsp
W all
Ġresp ect
ĠModif ied
ĠFrank lin
M ult
t xa
IN FR
Ġ**** ***
Ġbeh avi
Asc ii
17 89
ir s
AA i
xml Exp
ĠCPU ID
f iledup
ĠF X
ant o
Termin ate
Ġuart putc
Ġclobber s
E rase
r ord
10 68
ch or
ĠEl se
T ASK
b req
Ġ01 000000
fa a
B ound
OR N
13 24
20 47
ffffff f
a uth
Ġ4 89
0000 29
Ġe mit
Ġ64 2
hw nd
build for
Ġ -----
Ġf old
To ols
Ġil legal
a dbw
x BB
Ġb aud
ĠMO DULE
0000 37
CC F
ĠSt reet
oun ce
L DB
reg F
CON V
! ",
? +
i um
t b
æ į
Ġ2 007
8010 81
MS U
], #
ĠTemp orary
B ook
P EL
10 69
Ġd ead
Ġpush arg
J mp
il ion
BR NE
Ġ64 6
ire f
escript ors
Rate Scale
City Text
2 120
W atch
P in
bo ol
xmlTextW ri
ang ular
pl ane
32 10
Ġ46 2
ĠG State
87 21
rd kafka
B e
Ġ5 72
ĠP urpose
CR LF
ĠDCC PR
ĩ åĮº
ĠP TS
ĠS RC
32 80
Ġ6 84
Ġget token
pop ad
ĠCL IP
Ġb ro
13 64
Co eff
Ġres erve
Exec ute
. *
d ae
16 49
CN TR
Amp Mod
QUAD RO
00 34
fa de
align ment
SV BK
; "
P lan
ĠV ariable
Ġvp xord
ler t
Ġtra ce
gener al
C ustom
d fe
Ġ4 66
er al
Ġf oo
40 98
)) :
PE AH
CP T
t ms
Ġ+ ----------------
is s
ĠW ORK
pg tab
Event Flag
lod sw
V DC
16 20
ĠReg ion
RAND OM
n B
ce e
Reg istry
Ġer ase
k ids
o od
20 200
17 00
ĠAL LOC
Sc ratch
ĠPro g
Ġ -----------
SC ON
leave q
Ġper mit
Ġtra iner
S IN
mm ing
13 68
ĠA ccess
Ġin tro
17 44
78 00
LO OK
Ġreturn ing
Ġ ONLY
64 02
ur se
sel ection
Ġ2 001
met adata
blend vb
Ġ um
15 44
24 24
Ġar ithmetic
ĠCOL OR
Finish ed
3355 44
12 58
Ġ000000 01
X LIB
ĠĠ ĉĉ
al ias
Ġ7 06
ĠO WORD
SP IN
Ġver ify
V ENT
mm ary
Ġ34 5
Ġv elocity
Co mb
LE AN
bb b
END C
round s
Script End
ĠÐ¿ ÑĢ
Ġvq rshr
deff rame
10 66
ĠP arameter
Ġlimit ation
ĠCON TEXT
NO TIFY
estr oys
v ararg
Ġname ly
Ġ80100 7
Comp ute
TOK EN
di ent
800000 107
D ist
L SB
00 88
ph one
Ġb sf
ĠGEN DER
P ID
ĉ ĊĠĠĠ
Ġs aves
00 70
10 76
000 50
Window Ex
11 49
ĠB in
sel ector
ä¸ ĭ
ga mma
Ġcmov nc
Ġpre ced
E xe
Z L
b fa
in n
83 55
17 82
sh iny
r SVBK
ust ain
object s
Ġb uff
12 02
Ġ7 44
ĠE SC
ĠG SUB
ĠOR R
Ġ00000 100
Z w
Ġ44 5
Ġ44 7
NtUser Call
Ġ ãĥ
12 44
14 84
)) ]
] >
Ġ_ _______________
ĠĠĠĠĠĠĠĠĠĠĠĠĠĠĠĠĠĠĠĠĠĠĠĠĠĠĠĠĠĠĠĠ ĠĠĠĠĠĠĠĠĠĠĠĠĠĠĠĠĠĠĠĠĠĠĠĠ
Ġbc f
do g
Ġsymbol s
task s
Ġhapp ens
X N
Ġ4 92
IR D
di re
ĠSet s
åľ ¨
Ġimmediate ly
9 47
A p
Ġs df
12 74
ER Y
Ġname iparent
12 36
ĠO ff
AB V
R F
ĠĠ ĊĠĠĠĠĠĠĠĠĠĠĠĠĠĠĠĠĠĠĠ
Ġex trn
Ġen gine
Ġport ions
f an
ab ove
FIX ED
p oll
ING EMENT
Ġdup licate
J A
j simd
10 72
ldr h
00 111100
10 92
UFF LE
INFR INGEMENT
8010 89
AV G
Nt Delete
ARE NT
H UD
8010 87
Ġ! +
bb a
Cor ner
R el
ĠB FP
26 24
be fore
ãģ Ļ
14 09
rk t
optim ized
H old
m at
Ġ6 94
ĠL DW
Ġprocess ed
La unch
ĠCoord ination
Ġcomp atible
Ġaccumul ate
Ġoperand s
ĠLin ux
B LE
g td
è ½
Ġ' >
attr s
AN Y
block no
pr oper
Buffer s
00 74
db d
Ġde pth
LE G
Ġ44 9
Ġu va
ĠNE ED
p rt
Ġb eta
Ġth unk
48 48
as b
x FB
is k
ĠSC ALE
ĠVol ume
Ġ4 69
800 2
ĠÐ ¾
00 45
10 58
ĠC LI
Ġ. .......
ĠText ScriptEnd
10 78
li min
ĠĠĠĠĠĠĠĠĠĠĠĠĠĠĠĠĠĠĠĠĠĠĠĠĠĠĠĠĠĠ ĊĠĠĠĠĠĠĠ
æī ĩåĮº
fmt name
trans fer
ĠINTER P
Ġ5 06
Ġ7 24
W riter
Ġf req
Ġin tr
EXT ENSION
00 82
15 50
15 48
el come
smpsPSG voice
F W
12 46
ĠM y
EA AX
ĠDE AL
Jumptable Index
O rig
o ices
ĉĉĉ Ġ
sector s
Ġ1234 567
Ġser ies
\ }
Ġs equ
Ġp lane
Ġ4 82
mp oline
ĠP attern
ta ted
H ere
X KEY
Ġs Tone
ĠC rypt
ara nte
ĠKey board
00 21
ĠF RAME
13 88
RE CTION
ĠST Z
DOM Wrap
ge red
F LDA
14 25
ĠĠĠĠĠĠĠĠĠĠĠ ĊĠĠĠĠĠĠĠĠĠĠ
ib ility
MS VC
Ġdepend ing
" ,$
ĠP G
over world
Rep ort
Ġ7 80
MOV ES
C red
H as
Ġp ick
Ġp ulse
ĠC ar
29 27
If Count
ĠEmit IfCount
11 110
ĠT ER
al ity
ĠG HASH
Ð¾ ÑĢ
PAL ETTE
P GSIZE
12 89
ĠS TIV
ĠM ath
GrObj Body
ĠS F
Ġsi z
EXT N
olden rod
T ex
ĠZ F
Ġequ ivalent
Super NoLock
Ġn cpu
ĠI PP
Lo ok
CN Z
i ra
Ġ6 92
oc ument
ĠCL AIM
000001 10
QEB D
-*-* -*-*
11 19
ind ing
ĠEx ternal
finish ed
ĠFA ST
w hite
15 80
Ġ6 33
ad ecimal
Ġld rb
96 95
ĠW SYNC
UP S
OAM SET
control ler
Ġ4 75
Dest ination
2 122
00 41
13 25
ĠV ECTOR
Ġdir ty
Ġvi sibility
Ġ******************************************************************************** ***********
H nd
00 90
eb d
end c
DI CT
ph ab
& {
2 304
R V
Ġ< --
15 17
xml DOMWrap
16 24
Check Hack
ĠSH R
FAST CALL
ad j
MP S
am d
200 8
Ġlarg est
Z ER
Ġ4 93
ĠR P
ĠN ull
HT T
27 03
Ġ56 2
Ġb ool
Ġ7 64
ĠT MR
sign a
Y Y
00 101
$? ?$?
Log ical
Exc lusive
16 79
BR L
Ġread s
Ġlog header
? ?$?
Ġr x
Ġ6 86
db l
SS SE
ARE D
ĠMo v
b fb
Ġint ra
Ġ49 1
Pro ject
or nf
ĠL ong
AG GER
31 85
Lo cale
Ġcp i
NtGdiDdDDI Set
Ġa ble
mm ap
ush room
15 38
NAM IC
U nown
Ġs ram
ff fe
dc a
Ġ000000 28
Ġwrit able
ik achu
ĩ ä»
lo s
Ġmov x
14 20
Ġ^ =
T V
n A
EL INE
Ġshift ing
Ġvis ual
Ġs ls
ul us
23 13
rea deflags
Ġwh om
lap iceoi
Ġste ps
11 69
Ġw rap
Ġw Channel
con tains
70 40
X STR
mov es
ĠH ook
//////////////// ////////
ĠVis ual
ĠPr inter
Ġs d
Ġout ptr
ENV S
Ġ0 24
Ġ0 28
db e
am ber
**************************************************************** *************
Pass word
or n
ab f
000055 17
Ġ" );
Ġ16 384
M G
CMP I
(` ../
Ġp m
Ġ5 66
13 46
Ġ7 16
15 24
Ġ6 35
Ġ7 14
Ġxmm E
100 6
-- )
25 03
rk tp
ĠFunction s
erm ilion
xfef efe
ĠĠĠĠĠ ĊĠĠĠĠĠĠĠĠĠĠĠĠĠĠĠĠĠĠĠ
ĠB ut
Ġex tent
77 90
PI R
aut os
SH ORE
Boot Entry
ĠA PU
FI RE
Co okie
DC R
ãĤ ¿
R om
ALL OW
07 85
Ġtra iling
P PC
12 90
Value Key
ĠDEAL INGS
å Ģ
ĠR BX
ver ify
ĠVER A
Ġmapp ed
a ee
00 48
23 01
B OTH
M Hz
f lip
Ġpsub usw
ObjCall SuperNoLock
d yn
99 18
div idend
fo ld
By Type
ĠFIX ME
sup ported
åĩ º
8080 8080
Util s
Ro cket
bigarg test
System Environment
Ġsleep lock
P SW
a om
ĠP GROUND
Ġ7 36
27 83
Ġ8010 52
EF E
Ġcomple ted
RAM ES
Ġ5 22
64 80
200 4
QUE ST
Radio Button
L ower
dx ax
Ġpcmpeq b
csr r
ĠChi ld
EN DED
65 02
800000 104
C PC
N ick
Ġ6 29
24 50
19 34
Ġvp unpckh
du lo
= @
M ARG
11 50
14 54
020 1
Ġsched uler
G I
Ġre draw
;************************************************ ***************
89 76
ĠENT ER
Ġ( &
15 55
18 60
BAS ER
10 62
ea n
SUB F
Ġobtain ing
19 24
B s
13 40
19 50
PRINT F
c ing
ed f
af ari
f ish
u va
Co ords
S pool
13 94
and nf
ENT S
1010 10
Ho me
ĠBr instar
ĠGSUB NC
b ug
' =
] -
b ce
ĠU pper
a fd
OT HER
ĠStore C
Ġmovsl q
Ġperson s
w ill
S JMP
00 39
Ġt r
Ġloop s
Inc lu
0000 28
ĠC alc
ĊĠĠĠĠĠĠĠĠĠĠĠĠĠĠĠĠ ĠĠĠĠĠĠĠĠĠĠ
Ġmapp ing
Ġa cross
57 64
Check If
19 44
-_ *_
å Ľ
mo dc
12 23
ĠGener ating
Ent rance
K ill
M alloc
Ġstar ted
Ġsimp ly
G c
L eg
13 16
Ġ8010 69
$? ?$
18 20
Ġrest oring
inclu ding
f lash
m ar
Ġ46 3
;------------------------------------------------ ---------------
c fe
Ġ6 76
vp aes
Ġ0000 1000
A ux
F re
d fa
23 00
ict ory
Ġback up
dwend entry
LIM IT
R ON
s eblock
Ġs il
], [
Ġc tx
urn ished
ĠX C
rl ca
Ġrk buf
a db
Ġ7 78
Ð¸ ÑĤ
11 85
ĠA MOV
15 99
Ġl b
ĠIn teger
Ġemul ation
Ġ8 10
70 56
t um
Ñ Ī
Ġ0 33
Ġp aper
ĠC INDEX
ef lags
IZ ER
bor row
P Invoke
ĠL BL
sh adow
Ġsub stant
Ġfe ed
Ġsee k
Ġ5 94
int s
Ġl gdt
Ġ(( _
Temp late
Ġsubtra ction
R equ
S word
f rag
Ġm f
Ġ6 53
cd ate
Ġallow s
EPI L
ĠDCC EPIL
ĠBIN ARY
ĠDCCPR LG
< >
S ide
00 22
at tack
ĠS VC
Ġto ggle
ĠCo mm
Ġlow est
(' %
d rc
Ġ ----------
__ $
AN I
W ild
m ust
Ġ8010 20
ĠW arm
ĠLo g
UC TION
ĉĉĉĉĉĉĉĉ ĉĉĉ
rout ines
ĠPSYCH IC
ĠA PIC
Ġ7 90
Process or
J AL
Ġt iling
Ġr cr
ex c
Clipboard Format
setc glob
" "
æ Ī
fb d
VOL V
Ġ0 1111
A lert
STR T
PE AU
back up
FISH ER
13 90
ĠFree RTOS
+ (%
9 33
S k
RO D
37 50
1000 8
ĠS ATD
ĠT ex
19 99
cb mc
Ġsecond ary
orig inal
ĚĚ ĚĚ
autos afe
00 35
Ġv pslldq
19 68
Ġst oring
ĠV i
xml Shell
ish uf
sdcc ix
sdcc iy
ĠApp ly
H eart
10 995
WORD S
DE CF
RE PEAT
Ġ46 5
Ġpro duce
Ġsubstant ial
B ios
ld w
xffff d
..\ ..\
b end
or por
Ġ6 82
ere nc
Y M
10 46
Ġp hi
13 26
-$$ )
Ġ6 63
TX A
//////////////////////////////// ////////////////////////////////////////
Ġs ampler
ens or
CV IF
ä¸Ģ ä¸ª
Ġd u
Ġ( ;
14 90
ex pr
In validate
Ġover lay
R est
or row
en de
INCLUDE LIB
Control ler
NtGdiDd Get
Ġr ing
000 27
Ġ6 74
ĠH IDDEN
+ %%
ĠN eg
ĠREGISTER S
ç ¨
Ġr ather
sl net
F onts
Worker Factory
IPP ASM
P n
P ow
n mi
70 60
ĠâĶĤâĶĤâĶĤâĶĤâĶĤâĶĤ âĶĤâĶĤ
Ġ6 62
DEF C
parse line
" \
C var
Ġ00 20
09 17
Equ als
STY LE
RECORD ING
F DC
Y ield
ĠMON ITOR
ĠTX A
fre elist
lam bda
': '
Ġ7 26
adc s
Div ide
bge ffect
Ġdel im
Ro tate
" '
Ġt z
ĠG l
om es
Ex change
'''' ''''
s jmp
bl r
Information File
Ġ11111 111
co mple
Ġ45 3
hi dden
ĠK eep
An gle
stos d
Ġlin ear
erson ate
ROOT DEV
ãģª ãģĦ
Ġ$ "
Ġb ook
13 96
sub c
US BD
Gr Set
PW M
ĠTOK EN
ĠN et
ĠK ill
val s
Ġposition s
column loop
12 09
ĠR NG
ĠNOP L
9 42
er c
ĠS word
ro g
ava ilable
eb f
RE SH
C ARRY
Ġ5 55
11 97
16 60
ĠF inal
Ġcmov ae
A udio
y ond
er n
11 45
19 60
Ġg p
ĉĉĉĉĉĉĉĉ ĉĉ
Ġ4 73
Ġm x
10 65
8010 88
34 56
Ġret i
Ġrep eated
sched ule
Ġ5 25
Ġ7 12
< (
P end
Ġ0 13
10 22
Ġ5 15
ent ation
set ting
lc dc
CIP H
åĨ ħ
X LDR
11 54
Ġ8 60
85 80
set o
Mo on
Ġlink age
nam ecmp
v pshufd
18 18
ad pcm
ab ar
ĠOp er
c ad
h h
24 84
17 70
Ġa ck
Ġd escription
Ġ[ "
;;;; ;;
Ġ6 99
89 44
ç¨ ĭ
. __
ĠCopy Bytes
extern W
Ã© Ã©
Ġ5 05
Ġ8000 39
ä¸Ń æĸŃ
c ff
ĠE vent
ĠSign al
ĠP alette
19 53
up t
Ġ58 6
ĠCL ASS
ĠMIN US
s mp
00 249
10 37
Ġs erver
16 50
oid s
nc li
YAX XZ
uch sia
chem at
P lane
l uma
11 62
time out
F ALL
it o
ar dian
Ġ6 93
ĠH D
Ġtw ice
00 89
13 35
000 33
Ġ6 14
Ġ, -
ir t
AA m
OS C
script s
Ġf ront
Ġ. -
85 52
19 29
d ph
t ower
Ġth us
syscall s
dic ator
modif y
och s
Ġpri mary
Output Buffer
19 92
ll int
ĠF ont
ĠT I
Ċĉĉĉĉ Ċĉĉĉ
Ġlock s
15 94
24 85
! ',
Ġf urnished
8000 5
ĠDE ST
Ġinstall ed
U U
EXTERN DEF
ĠUN SHADOW
PGROUND DOWN
Ġ unpack
Ġm en
ĠĠĠĠĠĠĠĠĠĠĠĠĠ ĊĠĠĠĠĠĠĠĠ
17 27
Text Box
Key Ex
Test Label
T xt
b hi
S ing
dd up
12 79
Ġre lated
EXEC UTE
L exit
Ġb map
Ġ54 2
DI ST
mon th
Ġpri mitive
ĠSET UP
Pop up
ĠAPP END
12 55
11 59
11 92
Ġ1 00000
DO UBLE
Transaction Manager
00 55
ĠĠĠĠĠĠĠĠĠĠĠĠĠĠĠĠĠĠĠĠĠĠĠĠĠĠĠĠĠĠĠĠ ĠĠĠĠĠĠĠĠĠĠĠĠĠĠĠĠĠĠĠĠĠĠĠ
CF B
F at
Ļ ¨
de mo
ĠP a
Ġl es
RO DATA
Ex pand
Id entifier
y bble
ba e
T OT
en di
0000 23
ĠVer ify
Ġ5 65
st aa
14 76
Ġ7 98
19 64
its leep
ĠDest ination
itsleep lock
j an
ut ive
Ġ6 01
Ġst m
adca st
ãĥ ĥ
Ġsmall est
å Ļ¨
ĠP i
ri a
Ġ54 6
R i
Ġ5 01
30 10
EC ON
rel ative
Ġprocess es
AK G
Exc l
Ġautomat ically
12 83
ret f
Ġdec od
do or
Ġ tex
Ġ6 25
cmp gtd
Ġsw tch
Ġaddress ing
T im
14 55
ST M
symbol s
O pd
â Ĩ
Ġb lo
Ġdo or
fre erange
E Z
11 35
14 41
Ġde g
âĸ Ģ
E MPTY
L TI
N and
h unter
Ġ( \
OR L
16 48
16 44
ĠUINT N
cpuf lag
ĠS END
47 70
Ġpro bably
Un register
Ġvf msub
Ġgu arante
btf sc
Ext Tramp
Ġeffect s
ĠDev ExtTramp
xmlC atalog
ĠPhysDevExt Termin
ĠPhysDevExt Tramp
D ANCE
c fd
ĠD own
15 34
Ġ6 09
rn g
aff ron
ä¿ Ŀ
( +
ON D
Ġ6 73
ma g
str m
Co uld
439 80
ĠSD CC
11 86
wh at
HER E
ĠPlace String
s ld
v ia
H Y
15 05
ĠM AG
OP P
Ġperform s
A AX
C OR
16 39
13 78
psr lw
Ġre cover
nam ed
F v
L SHI
O pt
U FI
Ġ4 79
12 35
13 27
co ef
L BA
} ^
un map
Ġv dup
Ex tended
CB E
append Char
ĠOST CBHighRdy
1 128
å ł
12 10
ld ata
13 03
Ġpara graph
punpck lwd
Ġ ten
Ġplace holder
TILE S
IFI C
mov ing
Ġar row
lu te
P OW
Ġ5 03
11 74
15 96
Ġid ct
D ynamic
a pe
Ġ5 09
DESC RIPT
wa ter
100 11
Ġ54 5
C ritical
12 70
18 25
Ġ8 192
29 32
ĠCPU M
C ATCH
p mulh
EE K
Info Block
12 76
ĠB egin
one y
Ġ1234567 890
ĠIn struments
act iv
rtc Name
|||||||| ||||||||
w rap
Ġt runc
ĠLDR B
L Mem
w Temp
ĠA ADD
ĠR BP
Ġop t
K CODE
Ġr t
N eed
16 66
Ġ45 9
39 69
Ġcli ent
Ġuw DEST
in tena
as er
ver s
all a
14 05
Ġpla in
D eallocate
f eatures
Ġ5 35
12 17
de e
1000 10
ĠMOB DRAW
ĠD N
ĠB its
ĠRep lace
Syn chronization
* );
C ast
æ Ĺ
ĠĠĠĠĠĠĠ Ċ
ĠR EL
ĠM ay
Ġfill er
11 66
Ġvp rord
EM ON
8011 36
Ġwar ning
i an
ea a
Ġ5 39
EN AME
ĠV IDE
ĠSW AGGER
stderr p
Y ear
TY A
REGISTER S
A AM
Â ²
db b
xml Node
Dir ty
Raw Input
U ndo
Ġ' ,'
; +
e fa
10 83
on s
Ġ7 02
Ġen crypt
CC C
Ġclear s
185 00249
Bit masks
20 44
Ġxmm H
th at
;------------------------------------------------------------------------------------------------ ---
---------+ ---------+
-_*_ -_*_
b be
ĠP AD
Ph ase
Pi pe
ĠContin ue
W A
15 64
St ates
Ġprov ide
G LE
16 84
Ġend ing
Ġtest ing
' (,
s char
00 81
ea h
Ġ5 53
TR EE
Ġ19 90
smps Pan
---- +
CON VERT
Ġtrans mit
B V
10 75
Ġf ac
add ing
xc bc
Dec imal
Ġ4 87
ĠE d
// ------------------------------------------------
uff ix
ĠIn valid
Ġcount s
Ġed ges
ĠÐ ±
ĠAl ign
10 33
A li
P ause
f ab
12 29
00000000 000002
Ġ-- )
åŃĹ ç¬¦
ĠâĶ ĥ
SCHEM AS
d escriptor
ĠA uto
Ġcell s
TRAN S
a q
19 47
ĠJ ust
CL SID
ÐµÐ ³
cam era
C ACHE
F low
Ġ5 23
Ġr nd
Ġr aster
14 66
Ġ6 23
ĠDo uble
C SEG
12 65
13 56
################ ########
ãĤ ¯
78 793
Im Gui
0000 44
OR LD
18 28
19 25
Ch a
010 7
Re maining
G OL
a its
er ged
ĠP OK
Ġ8 40
Ġch anging
22 80
Ġmy d
INI SH
redu ction
allbossp rkd
ĠP UL
Animation Idle
C amera
0011 0000
l ba
an n
Ġ7 84
72 80
tern log
Ġĉĉĉĉĉĉĉĉ ĉĉ
________________________________ ________________________________
sh if
S AM
Ġ5 51
ad get
Ġ8010 41
Ġ? _
lea ving
ĠL XI
DI FI
11 48
ĠF ULL
17 20
initial ized
Driver Entry
Act ivate
Ġ'/ '
ĠRUNN ING
f rames
30 25
9775 393
ĠĠĠĠĠĠĠĠĠĠ ĊĠĠĠĠĠĠĠĠ
23 84
co sh
Ġal ternate
TO DO
] },
23 95
ĠFor ce
Ro ck
Part ial
1869 2816
ĠR ATTATA
020 3
l m
0000 56
Ġh ome
ĠB ochs
EN CODE
SE ARCH
" __
A signa
Ġ04 5
Ġdimen sion
s av
10 67
Ġb ump
13 98
Ġ6 59
24 64
Ġnul terminate
te gy
B GR
l sb
00 98
er tain
ul ta
ĠM ail
ef m
Ex Info
Ġpshuf hw
o ck
in herit
ĠHAND LE
U SR
p fd
Ġ5 79
Ġ' ...'
Ċĉ ĊĉĊ
Ġ7 88
Ġff ffff
Sc r
,... ,
ĠW ord
Ġ64 5
++++++++++++++++ ++++++++++++++++
btf ss
v r
Ġbe yond
Ġnum ero
Ġfail s
13 08
ĠM ulti
ah nim
Ġseem s
t id
ĠA rc
34 86
Ġmax intr
Ġneg ate
lea st
sp ect
ĠR eal
17 39
dw fde
29 23
13 70
ĠCP SR
19 90
29 14
Ġcomp iled
" /
Ġd rc
Ġ4 95
Ġmov fw
Ġsp r
Ġas k
to ol
F i
R AY
d af
ea b
Ġr esi
Ġh al
Ġ8000 40
dot s
b dd
x EC
11 58
ĠS BB
Ġ7 34
ĠĠĠĠĠĠĠĠĠĠ Ċĉ
um ented
Ġnot ification
pand n
Ġioapic write
Ġr unc
orizont ally
ĠÐ½ Ð°
Ġ< @
Ġ7 76
Ġ7 52
15 78
15 76
EN G
SIB LE
nex te
WAY S
G amma
Ġ5 29
Pay ment
i ro
12 84
4 605
M BL
M ID
P cd
d ab
16 88
Ġ! __
0 123
A ff
p ly
stri p
Rect angle
11 89
ĠC ARRY
Ġld l
79 02
PLIC ATION
Ġp oll
ĠB UF
27 08
ĠG t
sh are
ĠJ an
ĠSER IAL
ĠDebug Stub
ĠSN ORE
E LL
J NC
Ġp de
Ġre fl
ĠCH K
Ðµ Ñģ
apic id
a ef
Ġ mpsearch
1000 1000
Ġdef ines
orpor ated
c op
s End
Ġac cept
ew ter
Ġxml Free
vir us
n ta
un tain
Ġo c
SY MBOL
Handle NS
âĢ¦ "
COLUM N
Ġrunc md
D at
e fd
19 46
Ġre trieve
tra tegy
13 34
Ġe ip
ĠO ct
//// //
Application Class
a ed
b af
l arge
Ġ58 7
ĠV C
687 194
sp c
BUT T
prev ious
Inte raction
12 56
ĠFLO AT
ĠIO CTL
ĠExec ute
de y
ĠOST CBCur
cP ublic
X S
st q
ĠP WM
13 36
ĠH V
Ġ2685 112
Ġ26850 55
12 14
ĠR x
strc at
LOW PASS
ComCall Stub
Ġ1234567890 1234
l gdt
11 15
ĠC reated
Ġ58 3
02 85
RT TI
Ġtil ings
b db
12 08
Ġv ram
18 16
est s
ĠObject s
Ġletter s
P rep
mo ck
Ċĉ ĊĊ
13 86
ac b
ac ion
xffffff fc
End Battle
0000 54
Ġh e
for ge
Dec ode
al so
18 49
ĠI pp
J EQ
ĠE M
Ġst c
Ġsu it
Ġscan line
stop open
xmlSchema C
MOVD QU
Ġcum u
19 40
Ġioapic id
1 00000000
r sb
22 90
ipps GFp
Ġ5 93
ĠC op
20 49
ĠL TR
ĠO D
SET B
B UL
F li
N XT
Ġl bu
Ġret f
æ Ŀ
Ġch k
start open
OMB IE
12 03
ĠP B
ĠĠĠĠĠĠĠĠĠĠĠ ĊĠĠĠĠĠĠĠĠĠĠĠ
ich eader
Ġclr scr
inn abar
endi terate
G rid
Ġc mos
er ing
str h
77 76
ĠNON INFRINGEMENT
Ġa udio
Ġc rash
14 59
Ġv psrldq
Switch To
S equence
an a
ÑĢ Ð°Ð
t k
Ġ6 79
ĠPRO LOGUE
tt l
QEB A
Ġ6 19
Ġrep laced
Ġ8 50
y cc
mov ntdq
13 99
col s
ãĤ Ĭ
source forge
C atch
L cipher
M SR
P c
11 53
ĠD ig
ST AGE
AN A
ĠMOV LW
Ġcoord ination
mus icheader
B BC
Ġ1 001
18 45
CL S
Ġda mage
exp and
Ac quire
å¼ ı
ĠS peed
ON C
27 04
E EPROM
l pc
Ñ ī
ĠH OLD
l and
ĠC eladon
ĠR EQU
ĠST OP
10 86
un g
ĠS oft
Ġ7 17
ad f
Ġif def
74 42
Di ag
BO UND
Imp ersonate
Resp onse
ÐµÐ½Ð¸ Ðµ
11 77
Ġ8000 24
Ġindic ator
ĠTrans fer
C PL
G State
M ut
Ġ6 75
esign Id
n extr
Ġ7 74
Ġv s
LE SS
ry ption
PORT A
000035 17
00 26
12 98
Ġn t
di ag
Ġe ight
Ġw indows
Ġdef m
ĠAr gs
fadd p
P ap
r ation
ç §
Ġ10 11
ĠG REEN
error s
xtmp h
nowled ge
Map Script
] ,$
pre cision
cli ent
Ġclr f
Se en
Ġ5 33
15 32
ru le
li ent
bp b
ÃĦÃĦÃĦÃĦ ÃĦÃĦÃĦÃĦ
æ ŀ
Ġc ritical
ol ic
FRAME SIZE
Rece ived
ĠH AS
ĠNt Alpc
OL TRAINER
16 97
sp lit
SE ED
Ġ8000 17
log name
my subspan
oper and
ĠExit Process
Ġt xt
st ro
ĠS erial
Ġ8 20
ir y
Ġ! :
BL BL
Ñĭ Ð²
ĠSE LECT
Ġ( ,%
ĠR F
29 76
uart init
F lat
Ġ( =
ĠD ay
bb d
M ar
rc r
E lem
h dl
Ġb ullet
ĠA BCD
Ġw rote
ĠT OP
69 76
D up
ĠF ar
Ġmatch here
Ġ021 10
ĠD ist
ta ct
AR I
75 00
21 12
UIL anguage
Ġth ough
ĠB REAK
e el
ĠF U
call channel
mul si
Ġresult ing
Ġ". /
j j
Ġb alloc
ĠInc orporated
Ġsla ve
redu ce
p subw
ĠRep eat
sn ake
L ARGE
ĠS ampler
18 64
Ġswapp ing
Ġs ad
18 74
Ġan im
da h
Ġph p
trans form
Ġlook s
Part ition
O OT
ĠM ENU
Ġ8010 10
20 12
ĠW ork
Rev ision
PLAT FORM
GetResource HandleNS
F ac
11 79
Ġ6 57
18 76
21 80
ĠX CHG
Ġvpxor q
262 144
spec ific
Ġ0 27
AD OR
print num
xml Char
blen dw
ĠD rive
16 82
13 17
35 184
ac man
AEB U
need ed
G D
Sp lash
ĠText EndBattle
NOERR CODE
re load
Ġf eature
11 17
000 16
set ne
Exception Handler
æł Ī
ĠTex as
Ġc ached
ĠD s
ĠIn strument
Ġpart ic
ĠĠĠĠĠĠĠĠ Ċ
Pri vile
WAR NING
Sing ularity
Ġin word
EN GTH
AD DW
J O
16 06
EG REC
Hnd lr
Ġm v
Ġ7 46
ĠE NE
f ect
mo dd
10 57
or rect
ĠE nc
Ġld m
0000000 2
Ġbar rier
928 18692816
B ORDER
14 79
Battle Turn
Z ARCH
Ġ ë
Ġ5 73
Ġi mplemented
ĠD ON
Ġ8 30
sr s
CON CAT
P AV
Ġ6 05
67 1088
SB I
Ġport ion
Ġ**** *
Ġpoly nomial
Ġsep arate
Ġ ÑĤ
ar ily
ĠL ONG
Ġxmm B
Ġmask ed
ĠSU FFIX
Ġpow ers
AccessCheck ByType
C TED
S leep
as te
Ġ54 1
ok ay
ide queue
ADD SUB
END FUNC
ib y
LNAME ADDR
N aN
13 75
14 89
Ġ6 85
Ġ8000 27
Ġinf ect
10 93
Ġ7 32
db h
ET A
PARAM S
ĠENE MY
en tr
14 17
Ġj n
ä» ¥
$ .
LO ADER
MP I
Ġover lap
Ogt py
Aes Gcm
ĠVIDE O
64 06
Ġ6 89
AA s
Table Entry
h our
Ġ ear
Ġth ink
40 32
Ġpush f
ĠH YPER
AB ORT
" ,%
ed b
Ġi pp
ĠC ANT
MOV DQ
73 83
Ġcol on
Ġ---------------------------------------------------------------- --------------
Sq r
a ab
mov a
13 39
B u
S AR
15 67
Ġsub license
modc i
12 05
Ġ8 80
Ġ8 70
xc sr
Ġcon ten
ĠW ritten
UM B
m ur
Act ual
Ġipp cp
A OP
D x
E IP
00 95
12 27
ĠFR U
ãĥ¼ãĥ ī
ĠR equest
ĠL N
MOV FF
En c
ĠLF SR
10 97
11 94
35 85
xmlX Inclu
xmlXInclu d
C ircle
X ML
al ways
de hl
SP ILL
BU ILD
R ival
ĠL ET
ĠH S
800000 105
ãĥ Ī
ĠT iles
ĠO SPrio
Synchronization Object
16 69
ĠC IA
ILE D
SAMP LE
pack ed
A sk
S stm
b oss
ate ver
SP AC
52 00
Ġ46 7
ĠPGROUND UP
L abs
0000 46
110 4
Window From
COPY ING
Ġoccurre d
B ANDI
def m
nextr ow
W DT
b free
12 95
11 83
Ġld aa
Ġ54 3
Ġ== >
ide init
return s
Ġtemp or
ĠCMP U
System Driver
- ($
Ġc leanup
Ġf ocus
12 85
Ġmov b
di m
19 89
For est
Ġpcmpgt b
C lo
h b
12 97
ĠT V
70 20
Ġ8000 34
Ġfa ke
Ċĉĉĉ ĠĠĠ
Ð½ Ð°
P SP
11 75
Ġ8000 32
Ġymm A
AP IC
ren gth
K nown
N il
W r
x FA
ce f
33 80
BR USH
ic er
50 50
26 56
Desc r
irm ware
transp ort
J im
Get Info
Ġ7 56
n D
13 83
Ġ6 17
19 94
Ġ" ..
ĠN PC
Res olution
ĠATTR ACT
Ġdire nt
e of
mo ds
ec ec
Ġi ff
15 59
Ġstr cpy
ac quiresleep
Ġrot ation
Ġp insrb
eb ach
ĠP end
Ġg arbage
To Draw
bri anc
Ġassign ment
ĠGal ebach
ld c
Ġmov nt
13 38
20 22
Ġbe ep
MI A
(;; )
s nd
Vol Env
PGROUND UP
xmlNano FTP
N ear
O UR
mul a
K ER
19 85
18 48
transp ose
Ġ5 71
Ġb link
Ġ7 25
Ġ// /
Ġ0000 2
ĠSTR B
Trans late
* $
a mo
l inder
Ġ5 91
Ġv table
la ps
18 89
Ch r
Ġjoy stick
h id
xt b
bb f
Ġ56 1
RA IN
xy d
SystemDriver UI
17 40
Ġunder flow
sel ves
Ġ5 75
ĠRow Count
in te
Ġn s
ĠIN V
)) /
aa h
;;;;;;;;;;;;;;;;;;;;;;;;;;;;;;;;;;;;;;;;;;;;;;;;;;;;;;;;;;;;;;;; ;;;;;;;;;;;;;;;;;;;;;;;;
dist ance
s Lab
24 96
00000000 00001
Ġgener ator
d ungeon
12 26
sec utive
00 793
0000 22
11 39
ĠS EP
14 15
Ġin vert
Ġ6 31
25 04
and ni
Ġ9 00
ys ter
L text
10 70
ĠD TA
ip ped
ĠDEF M
ĠDI FF
C DB
V FP
Ġ6 83
Ġde mo
rest art
dd d
Ġ5 59
12 78
ĠS tep
14 58
Ġ6 65
wr ong
13 66
Ġo sc
17 25
ĠM ASM
ĠJump False
DECF SZ
B onus
se p
Ġ8000 7
ĠNE LEM
PER M
14 83
Nt Flush
Rep eat
5368 709
MARG IN
M ER
vaesenc last
antis sa
ĠVis Text
C FF
i sp
HE AL
Ġver a
Ġ000000 14
!!!! !!!!
IMP ORT
Ġf older
Ġwork ed
Gu ardian
O TE
T AC
13 48
ĠG ONC
Ġbl k
ĊĊĊĊ Č
ĠInter face
p fds
Ġ0 22
34 40
dec ompress
UN G
Ġca uses
ĠMA KE
ĠOpType Pointer
13 59
Ġ7 05
ĠMOV UPS
SCR ATCH
Ġ......... .......
Ġ6 69
EX CL
Ġat tempt
temp late
ĠPO ISON
uart getc
Ġd escri
chron ize
M ont
Ġde tected
ĠGet Battle
âĸĪâĸĪâĸĪâĸĪ âĸĪâĸĪâĸĪâĸĪ
14 70
ĠC OR
Ġco ords
ds k
Pic Back
è¯ »
Ð» Ð¸
ential s
Ġd escriptors
Ġr jmp
11 46
ca f
ĠEND URE
Ġun roll
SER T
F our
13 79
un ted
Ġ6 95
ĠR AIN
29 22
ab x
ĠH U
ĊĠĠĠĠĠĠĠĠĠĠĠĠ ĊĠĠĠĠĠĠĠĠĠĠĠ
[ .
Ġin k
Ġ8000 36
Res olve
Ġinclu des
VIS OR
sequ ence
O pp
R ANGE
ĠT ask
ĠT rap
res d
ac f
Ġport s
DIR SIZ
Ġprogra ms
) !
E O
re cted
ss dw
Po ol
Sh op
Jump Table
Pre cision
Ġprevious ly
) <<
14 96
T OR
si ent
Ġ7 37
ĠG u
69 02
bo ok
ho ds
CF d
sec onds
ĠNot hing
Enter Kernel
F ore
M AR
S chema
b ow
Ġ8000 16
13 49
MUL I
Ġext ract
O BP
16 27
ĠT itle
ex change
ĠST OR
AA l
Ġbr ing
15 30
Ġ* >
sh ould
Ġcalcul ated
SU CCESS
Y UV
b eb
Ġc ertain
Ġt one
1111 1100
ens ure
ZN K
u rate
dd b
12 19
14 26
Ġ58 5
CV PU
Ġ64 9
;================================================================ ================================================
Ġarchitect ure
BOT TOM
P hi
di ction
13 54
Ġget pid
ts c
Ġbank s
C lean
dbg list
ĠPARAMETER S
12 06
ffff c
Ġco st
Nt EnterKernel
CRT PORT
dbglist obj
0000 48
Ġ58 1
Ġre ver
OV E
Ġla p
an ces
lw ays
Child ren
sete vent
Ġp ly
Ġname i
ASGN U
ĠTMP L
INV ENT
Ġxtmp a
âķĲâķĲâķĲâķĲâķĲâķĲâķĲâķĲ âķĲâķĲâķĲâķĲâķĲâķĲâķĲâķĲ
L M
b ombs
s lots
å ½
00 86
ID R
Ġread able
deal locate
Ġ' <
12 28
13 743
ĠT arget
34 23
Ġ8000 49
No ise
sn are
S urf
Ġw BattleMon
24 55
Ġ52 1
STR ATION
Ġea si
k r
ĠF IND
ce h
Ġnot cpuflag
tile pal
Resource Manager
^^^^^^^^ ^^^^^^^^
Ñ Ħ
Ġ( ..\..\
Ġw atch
Ġv ps
ĠN aN
View Of
v q
14 68
Ġw ide
Ġan c
Ġbec omes
A gas
15 75
LEG AL
N F
x raw
ec d
Ġ6 97
ĠT AR
ASS ERT
Ġ5 63
an ted
ĠS PLAT
14 49
Ġ6 27
34 88
7 179
Ġb onus
Ġ8000 44
ES a
Ġ0000 8
MON O
GPR INT
Ġdispatch es
p ui
ĠA g
Ġ6 77
end struc
Ġ80 8
NtGdi FONTOBJ
estr uct
Vis Text
View er
15 89
EC HO
STR H
reg a
Dec rement
Ġ( +
18 88
ĠV UM
TER MIN
ĠCA SE
Ca ret
Ġrelea sed
19 09
34 359
ĠSUP ER
H dr
ĠSt ub
112 2
ĠAN SI
FOR CE
p it
10 82
Ġxmm C
Ġst s
800000 102
Ġ32 768
Ġe val
60 44
Ġ26850 89
Ġ26850 99
Qu ant
eak er
W RAM
Ġ0 32
li ke
Ġwh y
LI TEC
15 83
19 59
com ing
Ġ************************************************ **
Si Labs
13 92
Ġso ck
sc ope
Ð¸ Ñģ
bank sel
ĠRep ort
f cd
00 29
un aligned
ĊĠĠĠĠ Ċ
05 40
De legate
App end
Ġbi os
D eck
Ġ8 90
ro me
sh uffle
rk o
j ection
ar ound
15 26
ĠE scape
ĠĠĠĠĠĠĠĠĠĠĠĠĠĠĠĠĠĠĠĠĠĠĠĠĠĠĠĠĠĠĠĠ ĠĠĠĠĠĠĠĠĠĠĠĠĠĠĠĠĠĠĠĠĠĠĠĠĠĠĠĠĠĠĠĠĠĠĠĠ
Ġinc remented
ECT ORS
Ġperform ance
ĠGetBattle Var
C DC
R esize
r la
Ġ58 9
ĠM AN
800000 103
UNN Y
P ART
m ant
00 66
Ġf ine
Ġtemp late
mask q
eh avi
ĠEXP ONENT
event s
AMP LE
INST ALL
---+ ---+
L AND
Y ELLOW
19 38
Ġdec rease
Ar m
G oto
00 111111
13 55
Ġ" ."
User Interface
ĠEX CEP
16 56
ĠCon text
Ġph addd
ĠCUR SE
Qt ImGui
Ġ8010 26
Ġ8000 25
167772 16
13 85
Ġpush fd
ĠW ILL
Ġ8000 55
Ġ8000 23
ĠOp code
Ġinit proc
ĠCOMP ARE
G J
Ġa ux
80 10000
12 39
Ġ5 69
de re
18 85
il i
ĠĠĠĠĠĠĠĠĠĠĠĠĠĠĠĠĠĠĠĠĠĠĠĠĠĠĠĠĠĠĠĠ ĠĠĠĠĠĠĠĠĠĠĠĠĠĠĠĠĠĠĠĠĠĠĠĠĠĠĠĠĠ
fd fd
ADI W
11 33
OR KS
Ġpi ece
B omb
D ave
00 75
13 52
Ġ6 91
est ure
Ġ// ////////////////////////
STOR AGE
' ]
Ġm angle
000 40
Get Next
I gnore
24 40
TR K
Ch ris
800000 108
Ġcur r
CH O
Ġ@ "
S ame
35 84
Ġstd call
Ġet i
= &
M IPS
R LC
w Script
Ġ5 31
Ġ39 02
17 30
CL INE
ĠY MM
ĠGEN ER
Ġvqrshr n
14 10
Ġ6 15
ĠV B
vp insrd
;;;;;;;;;;;;;;;;;;;;;;;;;;;;;;;; ;;;;;;;;;;;;;;;;;;;;;;;;;;;;;;;
Sh ield
Ġvbroadca st
, >
Ð Ľ
ĠMOV WF
Ġcp unum
Do or
C IR
Ġ0 55
Ġs y
lo urs
16 58
14 52
17 50
Ġ54 9
ET H
hw int
ĠP os
ĠT ell
ty a
Ġ8010 30
DC VA
ĠSP DX
;------------------------------------------------ --------------
HEL P
s ent
ç ł
11 95
dec rement
EB ITS
POP N
ĠJump Table
ĠWait For
2814 749
A DED
D GROUP
ĠI ce
ĠRo tate
ĠLim it
Ġun wind
Ġinf inite
cho ol
writer oom
mer ged
V V
W nf
00 94
OR ITY
di go
20 32
ĠM END
56 294
ĠDi ff
movsw l
: ",
n MaxPSG
ĠP SW
Ġj s
cmov ne
a eb
de xt
Ġarg ptr
Ġex port
EX X
unknown noise
Ġ7 94
DE Y
Write String
SUP ER
Ġ0 76
Ġ6 11
mis sion
ĠInc lude
P ATCH
ĠB MI
ĠM AC
225 17
xec ecec
dist s
ĠSo cket
g ap
Ġ6 07
ĠB e
1111 10
ĠSp awn
TIC K
(;; ){
Ġ ess
Ġmm ap
vel op
Ġadj usted
" _
; ********************************
A AS
V ariables
X E
10 45
Ġf xch
sl m
Ġen co
Ġequ ipment
K c
Ġm atter
000 17
Ġ7 07
Ġ8000 26
Con test
Ċĉĉĉĉ ĉĉĉĉĉ
Comp ile
Ġbtf sc
f abs
sp S
Init File
ĠSmall Integer
56 02
En coding
Ġcar riage
INVENT ORY
M id
W I
m hi
Ġar r
Ġ45 7
RE PT
xml Parser
Â«Â« Â«Â«
6 398
Ġs tefano
ĠA Y
15 90
Ġ8000 35
;---------------------------------------------------------------- ----
000000011 60
"? ",
10995 116
A AV
12 42
ĠD estroy
Ġan g
Ġrece iver
Ġme mo
H eal
46 85
ĠAd vance
Scene ID
3 0000
h pl
15 97
AD ON
23 36
Ġch r
Ġ8000 30
AP PLICATION
Ġlen q
Ġag ree
Ġ================================================================ =============
14 50
app ear
dic ate
Ġ001 00000
le ts
ĠS MO
Ġ" (@-
as in
26 01
Ġ0000 7
$? _
PRC STRT
Physical Pages
Ġ ord
Ġ7 42
Ġxmm G
Ġmain loop
jc w
requ est
modif ied
00 47
12 99
20 68
Ġg f
Ġsetup kvm
16 09
14 19
15 27
me tr
33 60
ĠCTR L
12 57
23 80
xml Dict
ä¸ į
Inter locked
S trategy
Ġ00 100
12 77
11 47
16 29
15 37
Ġ8010 21
Ch roma
Ġnot es
Ġoutput s
Ġmmx ext
T y
Ġ5 95
Ġf add
Ġr s
ran sient
G PI
c us
Ġ0 90
ĠB ow
104 85
Ġexp and
22 25
Ġat omic
ipe lem
Ġsqu ares
' -
; }
G CC
10 63
ĠD os
ĠP ARTY
Ġ8 00000
Ex ist
R tl
Ġ$ '
#### ##
ĠIN TE
Ġconn ected
sequ ent
Mut ant
F eat
10 77
mm i
lo ut
Ġ8010 51
Oper and
L AT
M ore
ve y
Ġstr cmpi
vp broadca
Ġscroll ing
ĠMULTI PLY
M GR
b lo
And AuditAlarm
in verse
12 43
39 56
Ġq dq
User PhysicalPages
;------------------------------------------------ -----------
Ġ': '
nop e
Ġ6 37
con ditional
54 69
pp id
oo st
rece ive
ĠC apture
ĠR B
99 85
Ġfd alloc
xd os
At tach
ĠAdd ed
lp Pro
ĠDelay Frames
Ġnorm ally
v ga
Ġ âķ
ĠF unc
In ner
Re verse
Ad apter
W eapon
ĠM ethod
Object AuditAlarm
ĠSh ort
Keyed Event
SystemEnvironment Value
12 94
Ġv trn
ip red
Ġun its
D wm
b k
ea f
Ġ7 66
ĠC NT
50 3201
Ġmo tor
pp d
io apicenable
Ġhel lo
es o
ch roma
16 83
17 24
ĠIN DOOR
w ild
mon s
Link ed
Ġ-------------------------------- -
F all
F loor
g ear
or rs
12 68
14 75
Ġ7 01
Ġin ic
Ġsc ene
ĠCHAN NEL
14 35
Ġan swer
Content s
çł ģ
c ps
Ġ7 92
26 90
ap ed
EB A
ĠRe trieve
mont x
k dr
m ix
ĠP arameters
15 88
DI SC
DB F
ĠDi sp
D s
ch ip
Ġip ps
MOVE Q
PA USE
Ġtrack n
ĠB ad
Ġ9 60
lu g
Proc Address
Qu it
SF ER
NtGdiDvp GetVideoPort
I r
W RT
s jump
00 79
at in
ĠG anon
800000 106
erenc ed
Z W
p extr
Ġ0 26
12 69
Ġ7 47
17 04
ig uous
60 60
cl ink
ĠOp Phi
ĠPRO TO
ĠSel ector
ĠOptim ized
11 78
13 23
la ir
Get Current
xmlC txt
; '
n cpu
Ġ0 83
Ġs dcc
Ġautomat on
1759 218
Lblk s
Ġ7 11
18 23
010 10101
ÐµÐ º
5497 558
W O
w rote
13 72
Ġ7 67
ĠL ab
Ġal tern
DD CC
ear ts
slli w
15 16
Ġ2685 010
Ġxor ps
ĠRec ord
` %
k u
00 67
Ġc gs
ĠS fx
Ġ7 27
Ġto ol
Ġ2685 100
Ġ2685 110
Ġ2685 080
ry pted
Ġ26850 64
Ġ---------------- --------------
Ġxtmp l
bri f
ĠGame Object
S QU
Ġ[ (
65 17
Ġback wards
Ġh m
aa f
io ctl
Ġlim bs
at om
ĠD GROUP
ĠG AME
St retch
proc s
P arameter
S SI
S mi
ä ¹
10 98
32 40
Ġhave kids
011 00110
Ġ**************************************************************** ********************************
L v
Ġ7 29
ĠB NZ
Ġ80100 53
duty cycle
-+-+-+-+-+-+-+-+ -+-+-+-+-+-+-+-+
B ullet
ĠX XX
Ġcon secutive
45 83
;**************************************************************** **********
Keyboard Layout
Ġld s
Obj Var
Cur Script
Ġcell ular
A vailable
Ġ è
ĠA fter
el ect
35 28
ĠO ri
ĠG PL
Ġjmp q
NtUser Create
Ġlap iceoi
g h
10 95
ea st
Ġ2 004
Ġm xd
01 76
Ġj unk
ph em
Ag ain
G RE
RE PLACE
ĠIn struction
Ġ56 7
ĠK B
Ġactiv ity
m h
Ġf table
15 52
ALL Y
je ff
Level s
ak ing
ĠLC DC
D rop
Q B
T ails
X form
b enny
Ġch ance
Ġpre dict
Ġph addw
UST OM
r IF
re lea
re nd
14 69
23 99
Ġ27 33
Ġ199 6
Ġtry ing
Ġte la
Ġ655 36
ighl ight
v Port
00 68
Ġi m
13 93
Ġ7 22
Ġ6 87
ST Z
Ġl t
ne mon
ĠLD M
Sp readsheet
l jmp
top par
ĠREAD ONLY
Ġwr msr
re pt
16 10
ĠT P
Ġx key
75 88
In s
cx dx
len q
ĠAl located
Dep th
c ate
å į
14 78
Ġg rid
EM ode
Hide out
15 19
Ġl uma
112 4
multi boot
UserInterface Handler
D es
c decl
Ġs r
27 05
Ġma king
xml Add
ug ador
@@@ "
P RESENT
Ġ4 97
at ibility
ĠB utton
Ġload p
FFFFFFFF FFFF
ĠTrans mit
mul ld
fa fa
gr al
Ġse maphore
ĠPORT D
ĠBGE VENT
e j
Ġxm ask
ĠCO ORD
gr p
ĠIO G
] ]
80 23
Ġt ranslation
st g
int ain
17 56
B ri
G String
d Context
00 36
00 37
15 49
83 85
SUB TR
Al low
âĶĢâĶĢâĶĢâĶĢâĶĢâĶĢâĶĢâĶĢ âĶĢâĶĢâĶĢâĶĢâĶĢâĶĢâĶĢâĶĢ
ĠNtGdiD vp
Ġ2 005
ĠC y
17 29
Ġ8010 541
Col l
ĠIF DEF
xmlS chemat
DCT COEF
6 146
G LF
a cd
Ġs word
16 08
init uvm
Ġindic ating
703 68
ĠChild ren
//------------------------------------------------ ---------
m icrosoft
16 26
Ġn r
Ġ7 35
79 20
EL F
Ġ199 3
G ES
00 42
ĠF inish
25 0919
ĠĠĠĠĠĠĠĠĠĠĠĠĠĠĠĠĠĠĠĠĠĠĠĠĠĠĠĠĠĠĠĠ ĠĠĠĠĠĠĠĠĠĠĠĠĠĠĠĠĠĠĠĠĠĠĠĠĠĠĠ
arg ins
;;;;;;;;;;;;;;;;;;;;;;;;;;;;;;;; ;;;;;;;;
Ġperform ed
allbossp kdr
Ġc ut
Ġm irror
11 38
Ġ8 28
AS SE
ar ing
15 08
27 44
exit iputtest
Ġany way
DEN ROD
P ikachu
Ġ5 97
Ġ6 81
ĠM aster
AD A
ac y
OS CV
ĠADD Q
stit ute
ĠP OWER
ĠE ns
ĠR oot
if eq
ĠIN P
Ġ8000 46
ĠSet tings
STAND ING
10 81
Ġg rep
EC ENTER
ĠW RAM
Ch art
Ġcomple x
b Enum
Ã ¤
12 07
os ed
ĠTh at
OL VE
Ġlength s
NtGdiDdDDI Create
G PL
Ġb el
Ġm rc
0000 33
ĠĠĠĠĠĠĠĠĠ Ċ
40 42
A AB
p ull
Ġ7 33
os en
button sound
åº ı
Zip Code
C ut
I EF
w char
ĠF REE
13 77
000000 80
Per form
BRUSH OBJ
P aging
mov ntdqa
Ġf un
Ġ7 15
Ġ10 65
ĠM icro
18 44
vp unpckh
open iputtest
12 45
AL IAS
18 47
il ver
ram id
Ġaut oc
V dm
ĠĠĠ ĊĠĠ
ĠM Hz
Ġvp extr
Input Context
ĠProg ressive
L IC
17 88
ĠV I
clear pteu
anc er
F s
Ġd ma
Ġf low
ĠS onic
14 45
Ġ6 71
STR OBJ
ph i
State Data
PATH OBJ
40 48
ĠTR ACK
work ing
Sup port
ĠC ur
Ġw m
01 84
ad os
Comm unity
E OF
d ch
cf r
erv ing
Time out
BattleText box
h oriz
l statint
11 98
ĊĠĠĠĠĠĠĠĠ ĊĠĠĠ
ĠS LL
Ġl statint
60 84
ĠIN VALID
801126 80
ĠRev isit
= *
g ray
la ve
cf h
Ġlo st
ĠPORT C
Ġgra in
phab et
T ele
d fd
Ġ5 19
ĠSTD OUT
do es
Th ere
omb ie
; <
16 78
14 48
ign ore
ä¸ ²
Ġ00 03
15 53
Ġ6 61
Transition Block
ĠFRU STRATION
00 65
add e
ĠC ard
25 50
ĠB I
27 20
011 00000
Ñ İ
Ġb o
OP E
ĠI BLOCK
dc f
112 3
Ġgener ators
ĠĠĠĠĠĠĠĠĠĠĠĠĠĠĠĠĠĠĠĠĠĠĠĠĠĠĠĠĠĠĠĠĠĠĠĠĠĠĠĠĠĠĠĠĠĠĠĠĠĠĠĠĠĠĠĠĠĠĠĠĠĠĠĠ ĠĠĠĠĠĠĠĠĠĠĠ
Ġshif ts
Ġ5 17
ec ke
12 66
ĠB lack
21 85
Ġvp ternlog
Ġ64 1
ĠRo ck
constru ct
P RESS
Ġf uture
11 67
15 03
Ġadd u
19 45
pro log
ĠDIS ABLE
*+ *+
k n
ĠĠĠĠĠĠĠĠĠĠ ĊĠĠĠĠĠĠĠ
29 60
xffff c
;;;;;;;;;;;;;;;; ;;;;;;;;;;;;;;
Ġpla ces
HP Bar
xmlStr Equal
B ea
K J
R AD
å ī
ea ble
st est
11 37
32 64
AA P
ACK LE
Game Over
bg b
> (
re loc
14 94
P ulse
o use
Ġf ive
lpPro Mem
or z
Ġn th
ĠE TWO
STAT S
Ð¾Ð ¼
Ġ5 77
Ġb cd
us wb
Ġ7 31
ent rance
ĠSp ace
Ġprog ress
Ġ4 77
ĠĠĠĠĠĠĠĠĠĠĠĠĠĠĠĠĠĠĠĠĠĠĠĠĠĠĠĠĠĠĠĠ ĠĠĠĠĠĠĠĠĠĠĠĠĠĠĠĠĠĠĠĠĠĠĠĠĠĠĠĠĠĠĠĠĠĠĠĠĠĠĠĠĠĠ
Ġax is
Ġjump ing
Ġinter val
punpckh wd
9 007
L INES
80 38
Ġ8010 12
I teration
g mail
00 43
15 85
cl k
Ġy tmp
ãģ ¨
Nam espace
CIP HER
C ACH
pop ulate
19 75
29 21
27 10
93 01
ho use
ffffffff H
FIN AL
Ġ00 04
@@ "
ĊĊĠ Ċ
1717 9869
Ġprefetch t
K I
S eq
h BattleTurn
t one
Ġ+ ++
ĠO SC
ãģ ¦
Ġvpd pw
! '
d z
or b
ed ural
20 28
RE LEASE
Ġen db
Ġmo dulo
(( _
init code
Gener al
ome try
WE IGHT
ĠOPER AND
OOP SIZE
M oney
O b
int o
14 36
ĠPo st
sqr x
Hand les
Ġ7 62
sh aft
SG N
ĠDRI VE
Ġdele ted
inc r
Con v
ĠImp ort
14 99
Ġ7 21
me ga
19 54
unpck lps
ĠBattle Command
ĠPAT M
B x
u ce
Ù Ħ
ĠF PR
14 47
15 70
15 06
ut ing
Ġ8000 29
Ġinser ted
ç ®
20 96
ĠW ith
Ġ8000 45
Ġu d
," ",%
ãĥ ©
Ġxml Schema
w cf
em u
8000 6
Ġid le
Window Long
sk pdr
Ġgener ation
ĠAr rows
Ġmantis a
L UT
N H
Ġ esc
00 97
10 53
ĠĊ ĠĠĠĠĠĠĠĠĠĠĠĠĠĠĠĠĠĠĠĠĠĠĠ
æ Ń
up port
li ou
Ġfa de
ĠDE Y
rey liou
jeff reyliou
SI A
ĠSO URCE
l ec
ĠD ark
ĠS UNNY
Ġ7 99
db bw
Ġ$( -
Nt WaitFor
73 74
ĠEnt rance
slnet if
13 45
æĹ ¶
b init
13 09
128 7
P lease
10 47
10 87
ĠL H
25 47
enc es
Ġmem ber
111 00000
Ġdir lookup
Ġpip ecmd
Ġnet work
f dd
Ġ7 41
ac ent
dimen sion
Ġc at
0000 58
ĠR N
PM I
¾ ç¤º
Ġ11 10
BD F
801 127
G round
T ake
00 54
15 86
Ġ2685 019
ĠV ari
ĠEmitIfCount GE
C ave
b z
un ame
la zy
lock s
Ġ2685 109
Ġ2685 119
Ġ2685 129
Ġ2685 139
Ġ2685 169
Ġ2685 149
Ġ2685 159
Ġ2685 029
Ġ26850 83
Ġ26850 25
Ġ26850 90
rs az
Ġtrack Def
Party Species
sim dext
Ġswapp ed
ĠCLIP W
) ?
ĠS aved
Ġ" |
Ġ8000 37
ALIGN ED
hel per
9 31
si e
ex tension
Ġpo k
Window Pos
STACK SIZE
ĠMail box
7 139
13 89
000 11111
Ġcl rb
cmov be
Word Swap
Ġvper mb
Ġn asm
AC IA
ef b
Ġadc l
104 8576
IK ER
serv ice
s mooth
Ġb s
Ġen coded
ĠAr m
uri ous
_ )
000 25
14 46
Ġ7 82
27 00
Ġg pr
Ġloc ated
pmulh rsw
2814749 767
Ġf eatures
SER IAL
Ġassum ed
D AD
11 87
Ġ6 67
Ġv movaps
xml Is
ĠDES TR
n x
Ġv ic
0 120
6 145
eb b
0000 49
20 34
IN DEV
Ġ10 28
bl s
sl bi
OT OR
ĠPAT TERN
C rash
J J
Ġs afestrcpy
Ġp au
Ġ10 40
Ġpar ty
CCCC CCCC
allbos skpdr
@@@@@@@@@@@@@@@@ @@@@@@@@@@@@@@@@
r ty
10 42
rk q
Ġmem x
Process Class
jump text
Ġtz cnt
B ench
AP B
SL AP
Ġtoken s
ĠĠĠĠĠĠĠ ĊĠĠĠĠĠĠĠĠ
17 55
17 84
2199 0232
EMode InfoBlock
Ġb w
11 43
ar ter
Ġw Enemy
Ġld u
D SC
d esired
80 40
Ġ5 27
ex act
CH P
ms x
z r
in ct
ĠE AR
CO D
ĊĠĠĠĠĠĠ ĊĠĠĠĠĠĠĠĠ
BD A
S cal
ĠB TF
id y
ĠĠĠĠĠĠĠĠĠĠĠĠĠĠĠĠĠĠĠĠĠĠĠĠĠĠĠĠĠĠĠĠ ĠĠĠĠĠĠĠĠĠĠĠĠĠĠĠĠĠĠĠĠĠĠĠĠĠĠĠĠĠĠĠĠĠĠĠ
Ġ8010 70
77 78
ĠZ OMBIE
Print String
Ġanc illa
4 0000000
Ġp ayload
Ġ( [
Ġlabel s
modd i
T OS
Ġr f
Ġnon zero
$? ?$_
M IS
;---------------------------------------------------------------- -----------
ĠPri mes
S MUL
12 38
Ġ7 65
85 99
ent a
27 90
os c
72 25
be ep
tra iners
mb in
) >
H uge
q next
Ġc global
Ġ7 77
ĠG T
Ġrel ations
ĠDR AGON
00 31
ĠF rom
Ġblock no
Ġbreak point
du al
CPU ER
Rec over
Ġaesdec last
S lide
Ġ; ----------------
dd dd
an ner
20 23
ch ecke
29 30
rep lace
Ġ---------------- -
ĠMAX FILE
xmlGenericError Context
16 89
15 02
Ġx yz
22 24
Ġ8000 38
QU ANT
match star
ĠSw ap
Ġendb ranch
13 67
Ġ7 86
div rem
row loop
ĠD U
Ġn ative
Ġ39 12
th rough
bx si
Sub scri
ĠFO UND
ro ve
ĠL DD
17 74
17 67
29 40
35 79
ĠĠĠĠĠĠĠĠĠĠĠĠ Ċ
Ġ8000 60
Ġvp blendvb
4 681
Ġs amples
ter als
ID LE
ĠK ERNBASE
FC D
Menu Bar
Ġmark ed
~~~~~~~~~~~~~~~~ ~~~~~~~~~~~~~~~~
Ġd cb
ĠD x
esi s
24 60
ĊĠĠĠĠ ĊĠĠĠĠ
Ċĉĉ ĠĠ
EC E
ĠDECL AR
P LOT
Draw ing
PRE FIX
Dr v
ĉĉĉĉĉĉĉĉĉĉĉĉĉĉĉĉĉĉĉĉĉĉĉĉĉĉĉĉĉĉĉĉ ĉĉĉĉĉĉĉĉĉĉĉĉĉĉĉĉĉĉĉĉĉĉĉĉĉĉĉĉĉĉĉĉ
13 53
ĠI L
112 1
FFFF F
Ġlist cmd
ĠPRO MPT
PIXEL S
Vis ual
ĠHEAD BUTT
N VIC
y ou
ec es
Ġv zeroupper
el ancer
em ies
QU ERY
Fre elancer
17 36
19 32
19 88
Ġdec ode
Ġlist s
ĠSC ENE
Print f
Man sion
Ġmis match
prog ressive
Ġcrea tes
Ġf call
Ġ7 45
ĠU nder
B oolean
h y
Ġr eader
ra pped
16 30
ur t
Ġh orizontally
ĠT wo
Set ting
Ġexc lusive
m icro
Ġf li
ACH INE
ĠCUR SOR
writ ing
ri me
1111 1000
Ġput char
block q
Inter val
Ġimport ant
Su ccess
i w
Ġs lide
ve locity
Ġ000000 1
R uler
Ġ< "
14 77
Ġinitial ise
APP END
4 798
M edia
S ND
Ġ util
Ġs ay
ĠM aridia
18 41
29 36
74 25
AA AF
extern NP
ĠRO OF
ĠAB SW
Ġdelim iter
I EEE
30 56
60 75
39 20
ĠG s
Mon th
ĠCAL C
z ip
Ġmulx q
SOUND SYSTEM
K R
W ORLD
r P
Ġc irc
Ġmov em
Ġ7 23
Ġw ild
24 90
Ġpop fd
Ġcomp ressed
Ġ199 5
IZ ED
HEAD ING
c ategory
w ire
Ġp t
19 96
38 25
TE QU
mb us
EXCEP T
; ~~
ĠC RE
ĠUN IT
x ED
15 28
64 96
ĉĉĉĉĉ Ċ
Ġro data
dire mpty
3 136
B g
B link
p et
24 32
18 27
Return U
Game Corner
ÐµÐ ´
par seblock
w eapon
Ġ; '
is dirempty
Ġstr b
450 35
Ġd ealloc
16 36
Ġ7 55
DW ord
x CA
es x
ec onds
user init
Temp o
cpp xdata
ReturnU dt
ĠA rea
;;;; ;;;
ri end
ps w
ï¼ ļ
DEL TA
upe es
en velope
Ġ7 72
Ġis o
Ġus b
UN PACK
File A
trig ger
23 40
ĠH ADD
ĠV EX
Ġrd msr
X Pos
x DC
ĠC os
is tered
Ġeti queta
A uth
L isten
] ))
00 46
80 18
at ural
IN F
ĠCONT INUE
03 000
ĠIN ST
vp unpck
ere nt
OS B
To String
ĠCo mplete
Ġdeal locate
Ġpextr w
spS ustain
T a
Ġe limin
ĠC LO
ĠC GA
38 23
âĸ ĳ
70368 744
checke vent
Ġd eblock
Ġ5 37
st ress
Ġset b
AA AE
adc q
IP B
depend ent
an db
out h
Ġ8000 50
abs olute
HOR IZ
st or
16 05
13 19
ect s
IR ROR
entry other
Bin ary
w Map
dd h
xe ter
1234 5
ĠCo xeter
ĊĊĊĊ ĊĊ
over lap
Ġman aged
L iter
b ullet
z en
10 21
ĠP y
ĠR AW
28 69
cc es
Act iv
U ses
Ġp seudo
Ġ8 18
Ġ7 96
Ġ6 51
66 67
od o
ĠBL ACK
RESER VE
h Mem
ĠH eap
Ġtri ck
El ec
Hot Key
H V
Ġp lp
Ġ7 51
ic lo
19 83
NtGdi Ext
Ġwr v
cmpw i
2 116
R Y
a ir
14 72
ĠI teration
27 33
Ad min
ĠREC ORD
] '
k map
ç Ĳ
0000 42
Ġret lw
AS CI
Ġ8000 59
ĠCon tent
\\ \\
åĲ Ī
Keyed Mutex
16 34
ĠA uth
15 54
ĠL DIR
48 85
SET ATTRS
ãģ ĭ
IR V
ĠCOPY ING
ta bles
def er
END ING
ĠRe load
D PCM
Ġs fx
ĠA udio
punpck lqdq
Ġcvt dq
Z UC
g ive
ĠS ingle
29 34
fd ct
Ġset Attrs
# <
Ġ7 03
ĠT S
f bb
l cmd
ĠP ara
30 49
Co arse
Method Frame
: ]
F ORE
Ġ ub
Ġc v
75 90
92 16
off xy
Ġd ungeon
Ġl atch
gra mm
xfd fdfd
FFFFFFFF FFFFFFFF
Graph ic
C GB
27 85
50 607
ĠĠĠĠĠĠĠĠĠĠĠ Ċ
<< <
TRAN SITION
AW N
child ren
ch p
60 40
Ġre member
UR RET
Ġopen ed
ĠXOR PS
M irror
N TR
h BGMap
u arg
80 42
64 64
dc d
SS Anne
Mon o
xmlNano HTT
C Fh
w Music
15 39
01 12
17 06
Ġg cm
Re load
ĠEXCEP TION
x EF
ĠD evel
ĠC s
04 85
Ġen v
ĊĠĠĠĠĠĠĠĠĠĠĠĠĠĠĠĠĠĠĠĠĠĠĠĠĠĠĠĠĠĠĠĠ ĠĠĠĠ
ĠAUT HOR
Ġvpdpw ssd
K DATA
Ġmov ddup
ĠP CR
OP TIONS
58 32
out q
Ġvp min
UP PER
Ġ26850 50
Ġ26850 79
Ġ26850 54
LB SS
Ġappear s
( ~
F eature
l vl
en tered
Ġm c
(" .",
Time Zone
Ġmatch ing
ĠTW O
Cla use
çĲ Ĩ
[ ],
16 74
29 70
Ġen ergy
AA u
SAV ED
Ġp pu
____ __
Out Of
ĠTEXT AT
Ġconsi der
2 123
y e
Ġi add
ĠT x
Ġget callerpcs
square note
C VI
a In
x ma
19 27
Ġre try
; >
c mac
short cut
phem eral
16 85
14 97
ul a
19 79
DE B
Ġ80 3
Ġwrite i
ESC APE
A uthor
T OWN
00 73
on c
id entity
padd ing
ĠHOLD S
, !
D ark
V ote
Ġp blendw
Ġ5 07
Ġ6 21
In line
Ġmis sing
Ġ' [
mps adbw
ĠTR AP
Ġdir link
Ġboot loader
most ime
Accel erator
ĠEns ure
C op
12 72
ĠR ect
Id Lookup
csl Nand
Ro ad
Ġclo sed
cslNand IdLookup
E mit
ĠF ast
Ġw cd
RE LOC
Ġex change
6 121
m ire
u io
ĠR RA
25 55
17 90
ĠT EX
FF T
In k
Ġ@@ :
s Begin
ar n
ĠF all
UN CH
Debug Stub
ĠF ILL
89 60
th unk
ĠĊ ĠĠĠĠĠĠĠĠĠĠĠĠĠĠĠĠĠĠĠĠĠĠĠĠĠĠĠĠĠĠĠ
wait x
Ġ80100 5
189 0
E val
Ġa ad
Ġd ark
is less
SH OP
Ġ8000 8
AP ER
TO OL
10 52
20 88
def lit
CO LL
eg a
ills PC
H orizontal
o cb
p ulse
add a
0000 59
15 23
15 69
Ġzero es
Ġse en
è¿ Ļ
oh n
Ġsim ilar
Y Pos
w Sprite
Ġ7 57
Ġh b
Ġ8000 54
----+ ----+
PC I
GG LE
19 66
man y
1407 3748
Ġupd ates
al axy
14 18
ĠB IG
ĠH as
ari es
ĠEx tended
16 99
13 29
ĠB ug
ĠM EDI
Ġsub ttl
UT ATION
SC I
;-------------------------------- --------
;-------------------------------- -------
Ġ0100 1110
elem Addr
é¡ µ
C erulean
b re
20 26
Ġ8000 48
;---------------- ----
War ning
Ġpartic ular
32 49
ĠE ven
Ġx y
ab il
ĠHow ever
L V
Ġ* (#_
ĠT weak
75 85
616 1
16 03
ut ations
89 88
18 72
ĠCPU s
è¿ Ľ
Ġsiz es
F ly
K eep
14 43
FI FO
00000 30
Set s
Pro tect
NtGdiDdDDI Open
Ġencry pted
24 03
ĠR I
Str oke
SD OS
Me tr
# (
L single
01 000010
Ġ> $
9999 99
ĠTR ASH
ipher al
ĠBRANCH CC
Cred entials
ĠIN STR
DIF Y
n ate
x DE
z er
00 33
00 58
IR L
# .
f putc
o q
ĠP aram
89 95
ce il
qu ery
ĠO T
Ġwh atever
St udio
Ġexit ing
Number s
ĠArg ument
den ominator
Ġ025 052
687194 767
19 98
Ġcon struct
Ġid up
Frame Handler
comm ent
unpckh ps
INTE L
; -----
w ap
ĠF ield
17 86
ĠN UL
35 36
mul ate
ĠG ive
Ġcondition al
ĠWarm up
stress fs
M NU
k t
Ġn MaxPSG
Ġ8 48
13 57
14 53
14 63
15 66
89 46
FE AT
G esture
m u
68 80
cal er
B pn
Ġr oll
ĠR AND
cr lf
CY CLE
van ced
Typ es
H ave
a mmer
n ative
14 27
id a
SI L
Func s
m st
00 77
Ġ7 19
LO UR
udiv di
MEDI A
B and
W L
w df
ea s
16 38
16 76
18 32
Ġch dir
CO S
reg T
PE A
SIC AL
Ġcomm ents
Cli ck
ste ncil
ĠHAND LER
2 125
g hash
v blank
Ġback cmd
11 57
AN L
Ġma intain
Ġpres ets
d fb
Ġc Call
Ġ7 09
ol or
Ġsub sequent
Mess sage
Fac et
35184 3720
p dev
Ġ5 000
Ġt ested
25 96
37 03
xmm A
15 77
ib ration
EM I
EE EE
syn th
Ġ'+ '
13743 895
;~~ ;~~
15 18500249
NT AX
Ch oose
Lo go
ANG LE
Ġref erences
coord inate
war n
F RAMES
30 94
06 85
tion s
NtGdiDd Create
Ġgener ates
par sec
cap acity
valu ate
Mis c
Symbol ic
D um
¦ ģ
12 47
24 08
34 80
ĠDE HL
Res erve
fp u
220 8
Load ed
pos ed
PP P
Ġneigh bor
/ ..
ea bi
re try
Ġb orrow
40 26
ĠO SInt
Ġvp cmpeq
hi de
Ġĉ Ġ
009 59
Ġdev ices
Total Level
A ssembl
Ġf re
ĠA SR
Ġ7 49
ĠC n
ĠB omb
ĠMax imum
F Ch
h ot
h ist
ĠF lash
ĠC ategory
20 89
Ġ8000 43
Ġdec l
PC REL
Thread s
ĠStr uct
åı ĸ
Gra dient
; -------
16 90
Ġ7 43
Ġpass word
C PM
E EP
ĠP LAY
14 67
Ġe ver
57 60
Ġ64 7
rs q
180 1
Attack Rate
00 92
ĠS ymbol
ĠU sage
', \
ORT H
ĠDC D
Release Rate
comple x
R ename
29 00
Ġ8000 47
LOW ER
INTER FACE
ĠCall ed
Ġĉĉĉ ĠĠĠ
01111 110
v shufps
ĠF DB
ĠM ESSAGE
RI VAL
Test Messsage
insr w
Constant s
Ġpal ettes
Ġbri dge
( \
ĠF s
110 5
Map ping
ĠUN KNOWN
Ġr esident
add ed
19 26
id ge
Ġat om
Ġpres erving
GOT PCREL
ĠMo use
SUM SUB
Ġ ===============
et c
ur y
DB A
BA UD
D im
W ALL
] ,%
g v
is ation
init log
ĊĊĉ ĠĠĠĠ
Ġguarante ed
0 303
C xx
b get
d ark
r ing
Ġ0 34
Ġd ont
14 86
29 44
AB E
psl lw
Ġswitch es
te qu
Ġm eta
ĠS te
Ġ# ##
36 89
Ġy a
wl an
Header s
Ġwas n
Unused Bits
lo sc
69 42
IGN ORE
fork ret
___ |
/ -
c jne
mo o
19 55
Ġĉ ĠĠĠĠ
899 90
Ġinter preter
43980 465
4 004
_ #
32 03
ĠE sc
24 04
AL PHA
Ġsh uffle
ĊĠĠĠĠĠĠĠĠĠ ĊĠĠĠĠĠĠĠĠ
exp anded
ĠSW IFT
ĠACC UM
ĠUS ART
879 6093
gu ard
@ \
R amp
æ Ķ
ĊĠ ĉ
Ġf ully
Ġ8 12
ta ke
Ġ9 20
Ġvml sl
2684354 56
S afari
Ġ# ########################################################################
Ġv Tiles
io dic
smpsVc Feedback
smpsVc Detune
smpsVc Algorithm
smpsVc RateScale
smpsVc AmpMod
smpsVc Coarse
smpsVc TotalLevel
smpsVc AttackRate
smpsVc ReleaseRate
scal ar
smpsVcDecay Level
smpsVcCoarse Freq
M icro
v y
Ġ( {
ĠM edia
pixel address
smpsVc UnusedBits
ĠAssembl y
ĠStd BattleTextbox
-($ -$$)
D ragon
Ċ ĠĠĠĠĠĠĠĠĠĠĠĠĠĠĠĠĠĠĠĠĠĠĠĠĠĠĠĠĠĠĠĠĠĠĠĠĠĠ
16 70
23 52
77 60
37 83
Ġ8000 28
av en
Read File
Color Mode
Fill Path
V TR
0000 1100
000 51
la unch
CE LL
è Ĭ
13 31
000 44
ĠE IP
18 66
Ġre location
ĠĠĠĠĠĠĠĠĠĠĠ ĊĠĠĠĠĠĠĠĠ
SH EET
Ġ8000 20
RES SED
Ġmin utes
pass ed
NtGdiDdDDI Destroy
pmul lw
âĢĵâĢĵâĢĵâĢĵ âĢĵâĢĵâĢĵâĢĵ
F OCUS
ĠC MOS
Ġio apicenable
æį ®
ç§ »
J NB
R une
V ESA
16 28
ĠP CL
29 16
rea test
Ġvp max
ĠGet Script
Ġqu ote
185 9775393
ĉĉĉĉĉĉĉĉĉ ĠĠĠĠĠ
H XZ
I ter
ed u
ĠS MS
010 9
000003 3
7777 7777
t mc
ĠI GN
ĊĠĠĠĠĠĠĠĠĠĠĠĠĠĠĠĠ ĊĠĠĠĠĠĠĠĠĠĠĠĠĠĠĠ
Ġ000000 5
fin i
parsec md
] ){
Ġ7 61
aesenc last
Ġold brk
Ġdisp lacement
asg kafka
] \{
n coeffq
ĠS ilphCo
Ġ7 59
18 86
Ġl is
Ġre cur
38 74
73 60
ĠAL T
umul h
ĠSu mmary
pshuf w
7 003
m ediate
IS A
ä¸ Ĭ
ĠLT GR
nemon ic
Ġ8 38
75 20
UN DEFINED
Menu Info
007 13
MS K
ĠWrite String
lapic id
Directory Object
80 64
ony mous
NAM ES
56294 995
R ol
op tr
Ġ8 44
15 14
sub ps
ĠAD R
Ġmod ulus
Ġpar ser
2748 7790
x r
ĠS CF
EX TRA
reg ular
. :
; **********
R ank
u mod
15 56
19 05
34 24
Ġ8000 56
Ġ8000 33
00000 32
ĠK STACKSIZE
dev sw
cmov g
# >
16 95
83 04
rea ch
gt ower
PAR SE
F SW
O dd
Ġ10 32
18 70
Ġ2685 104
Ġ2685 144
Ġ2685 114
Ġ2685 124
Ġ2685 105
Ġ2685 125
Ġ2685 115
Ġ2685 135
Ġ2685 145
Ġ2685 165
Ġ2685 155
xml Hash
Ġ26850 85
Ġ26850 74
Ġ26850 44
Ġ26850 84
che me
!, {
SGX MK
Symbolic Link
G dt
Ġ7 39
1234567890 1234567890
Gym Text
åĲ ĳ
Ġmultiplic and
? ,
E s
S lots
mov msk
Ġv blank
ĠR ND
MOV EMENT
,[ %
D rag
e levator
mov sl
lo ds
ĠSET A
Send To
B AND
24 20
60 69
53 76
MI SC
SELE CTED
2 128
l li
Ġ undo
Ġcomp uter
Ġaes keygenassist
ãĤ ¤
umul ator
Dr um
17 32
SY N
Ġun ique
000002 00
R oll
Ġc amera
23 64
46 29
Ġdo main
gra de
ĠFR ACTION
r z
Ð Ł
al es
Ġm sb
ĠC oll
WR K
Ġthread s
2 114
ĠS erv
13 73
ĠC ARD
UR F
GC Shadow
4444 4444
Vid Pn
Nt Enumerate
Session Handler
Ġstop ped
Ġvpbroadcast b
C os
D pi
G CM
13 37
17 80
Ġinc bin
Sc rap
000003 1
us char
ĠD Y
)+ (
Ġge ode
Ġa ffect
Ġs af
29 75
offset s
PRO BE
Exp onent
;;;;;;;;;;;;;;;;;;;;;;;; ;;;
2 104
@ (
H U
Ġc u
en dio
Ġb oss
Ġpop arg
Ġcomb ine
1 000000
P BD
b set
h z
x loop
Ġt y
17 68
27 36
05 44
mis s
b log
is y
26 79
Ġpass ing
mark er
c dq
x nor
ptr q
ill is
Ġbit mask
43 00
xml F
Ġdec rypt
Dis abled
face player
Effect s
13 87
Ġ7 89
29 49
User Credentials
apply movement
nos upport
D G
P ARTY
Ġc trl
15 09
Ġh Wnd
25 76
Ġg string
PRE V
Ġparse line
F wd
Ġ ---------------
Ġ7 13
ĠR CR
ĠB MF
Ġshared fd
ed r
29 80
Ġre co
ĠH R
ĠW HILE
Ġvp addw
Cap tion
S CL
19 39
ĠB ALL
ĠO op
Ġvector list
termin al
S er
RET LW
ĠC LOCK
19 18
RE QUEST
Ġg ap
00000 34
0000000 8
Ġprocess ors
ysi s
Button s
ĠLicen za
N r
Ġ ç
ĠS equence
IC S
per iod
pre c
MO B
âĢ Ļ
Ġhi jack
ĠFA IL
Ġb n
lo de
28 64
sw r
tv init
Gu y
00 56
11 72
15 79
ĠL DB
19 07
46 20
1000 11
Ġother s
Ð¾Ð º
imm ed
2 124
15 18
25 25
22 60
Ġtri angular
R aster
rc p
19 08
get cmd
pp u
min i
ĠFa ult
Ġ8 88
Ġ8 00007
ĠE mpty
è¾ ĵ
ĠM ET
ĠG L
Ġsign s
System Information
Ġ================================================================ ==
tiles ets
$$$$$$$$ $$$$$$$$
D RDY
I nd
v u
is m
800 3
ĠÐ Ĵ
cy cles
åł ´
æŀ ľ
X REF
x AE
or th
Ġf igure
56 36
(" .
Ġerr nosupport
14 57
Ġ7 87
ĠM K
Ġst ra
)) ))
BA h
ĠAR K
Pro mpt
ĠOP P
n ol
10 110
re lod
Ġp en
ra ft
0000 52
sw tch
EG G
port s
Ġ<< =
command s
fcfc fc
SOCK ET
P l
Ġ0 35
14 65
Ġj sl
mmx ext
vmov ntdqa
Ġd eb
ĠC ore
17 43
Ġptr diff
NE STED
console write
Rot ation
l bx
y asm
13 33
75 60
Ġmod ules
Ġoption al
mm regs
ĠĠĠĠĠĠĠĠĠĠĠ ĊĠĠĠĠĠĠĠ
Ġpadd usb
ĉĉĉ ĠĠ
86 00
ĠIN TRA
Ġpo ol
Ġalloc ator
N em
Ġ0 68
Ġb ic
12 37
proc edure
ĠOp Composite
l ter
15 35
ri b
Ġ10 30
ĠO dd
Ġ8010 33
Ġ---------------------------------------------------------------- ------------
Dev ices
GEN ER
Ġarchitect ures
7 402
S ep
] >>
12 18
12 52
ĠS AND
AR DW
76 25
Ġinf ected
CLAS SIC
ut ility
Ġ10 20
str l
Ġec md
ms vc
... )
;---------------- ------------
APE AV
See k
æľ ī
Ġ0 48
32 48
27 96
78 40
St m
Th ree
Off icer
;-------------------------------- ---------------
1310 72
Ġbtf ss
Ġtex tequ
M ix
T N
V AA
c atch
u moddi
60 25
Ġstack s
pass word
Result s
,= #
ulta do
L p
W ELS
b usy
Ġo o
In i
:: ~
Ge os
Ġâ Ĩ
T unnel
36 54
FFFF FFF
df h
End Of
Ġdiv iding
Ð¾Ð ³
ĠHel per
N esting
w Param
end r
36 85
ĠW RT
av id
FE H
pos itive
Document Class
FMA lter
FMAlter Vol
12 92
16 81
Ġh is
17 87
ust o
Logger Handler
M erged
Ġn ybble
20 30
17 83
ĠT ACKLE
ĠB BLOCK
Ġx CB
; ################################
I dt
s loc
Ġ' (
ĠA re
17 66
70 32
22 64
get char
Text ID
smps FMAlterVol
FAC ES
ãĢ Ģ
11 93
qu ote
cl us
err no
o ad
14 38
14 42
un ct
AD V
35 83
std in
200 9
3030 3030
Sched uling
ĠRequ ire
PERM UTATION
17 79
18 84
Ġg lyph
bo o
Party Menu
A ut
ĠS DL
un ce
ĠM UD
ĠH and
---------------------------------------------------------------- ------------
UN DEF
Ġnear est
DUT Y
B ind
G AM
i q
00 53
ĠD estroys
02 80
sh op
707 13
WR IT
Prev ious
Ġut ility
] <<
Ġp ur
20 60
01 85
19 87
Ð¸Ð º
ĠW ill
inter p
Ġma ps
ĉĉĉĉĉ ĠĠĠĠ
CE h
fil estat
AAAAAAAA AAAAAAAA
V EN
11 63
Ġ7 93
ĠB reak
18 63
In terrupts
Text Pointers
000003 5
800000 101
Ġrst k
Notify Change
UNG STER
usto dio
g lyph
sh ield
Sp aces
row n
ĠWAR NING
ĠApp end
Fx Op
sla ve
Scheduling Priority
C AR
D imen
ĠF WORD
ĠP LO
ĠP PI
EX AMPLE
ĠK t
An imated
Re q
Stk Ptr
00959 708
Ġadd ss
SELECT OR
J M
Ġkey stream
pl an
Ġshould n
ĠAUT O
anto on
. %
p aper
24 70
19 49
39 60
ĠAC IA
Bea ten
Ġ5 57
Ġ10 23
Ġl n
qu al
if ies
ĠV OL
rag ma
validate test
Sal ta
movsl q
L ING
S ATD
] ));
un expected
ĠM ach
Ġ9 10
EC C
loop channel
Ġdword s
REG DISPLAY
ĠRE AL
Ġ8 58
ĠT AIL
define label
vmov ntdq
DV s
Fx Opd
t ss
Ġ0 23
0000 57
17 93
19 06
DE TECT
pi ck
ĠÐ °
Ġpos sibly
ĠSign ature
åł´ åĲĪ
ar s
Ġe mms
Ġid entifier
Ġover written
Return Address
æł ĩ
èĬ Ĥ
a cos
Ġw ater
25 30
25 44
40 64
is ode
ox y
Ġpri vate
ENTI TY
14 82
15 72
SL ASH
Ġbec ome
G ive
P ol
g ui
g ual
s vc
Ġ ġ
-- ]
ĠS AME
ĠT YA
DY NAMIC
losc ustodio
æ ı
ra r
Ġ54 7
ĠW els
low nmg
ĠCO LL
TC M
PRE P
+ ),
s Header
w Num
80 111
Ġ# !
24 48
Ġ10 48
25 84
,[ $
VI SIBLE
Un icode
Res ources
Per iod
BY T
ĠPok edex
h uff
ti o
PUT W
ĠSEC OND
other s
ĠOAM F
4 481
B ut
x Task
0000 47
ĠF n
19 58
Ġch oose
ok ed
En sure
Object Index
Ġacc ount
ĠPrint f
xC urrent
Ġdist inct
ç» ĵ
10 43
19 37
ĠI BM
ĠG BL
Ġpop f
POK ECENTER
Ġear lier
Ġpau loscustodio
ĠD en
ST ONE
System Time
L n
f sz
k ColorMode
å ¸
Ġ8 24
15 21
60 79
ĠG PR
CD h
Ġqu ery
bs stest
Ġsend ing
q w
Ð Ķ
Ġf st
15 57
UN KNOWN
Ġ"../ ../
ĠMacro s
J L
V ermilion
er ry
11 65
ĠN DEV
35 30
Ġch oice
SC X
ÐµÐ »
ĠPL X
âĸĦ ě[
ĠUM ThunkStub
13 97
++ +
EC CP
ĠIN CR
Ġk bd
Ġea sy
BO DY
pointer s
CONT INUE
QA EX
B US
ĠF ixed
Ġ8 34
14 95
40 200
19 74
RE V
Ġ8010 8
Not Found
ĠQ ue
H ealth
32 76
ĠB SR
Ġld const
66 00
ph en
ĠÐ ¼
ãĤ ī
ĠPo kemon
Ġpattern s
ĠExt ract
t Moon
12 67
ĠL P
lb s
Nam ed
; \
a el
Ġv ext
26 25
Ġ2685 120
Ġ2685 134
Ġ2685 164
Ġ2685 154
RI DIAN
tt p
ãĥ «
O str
Ġt c
19 86
RO AD
31 80
ĊĊĉ Ċ
Force Ref
ĠCrypt onightR
E OL
24 05
very thing
00000000000000000000000000000000 00000000000000000000000000000000
ĠLoc ation
//////////////////////////////////////////////////////////////////////// //////
A IZ
w Channel
Ġ0 39
Ġp R
Ġd t
83 86
89 84
30 96
68 88
29 67
35 20
VI R
ãģ Ĥ
390 625
ĠTEST Q
0 137
Ġ; +
mm U
ret lw
Ġ01 000100
ps raw
NtUserGet Window
//================================================================ ==============
K AF
w t
19 78
Ġg t
Ġchar ToDraw
ui te
ĠCMP A
uzz le
ĠPa ul
G X
R NG
V DU
10 51
ro ute
Ġsh or
ĠCR LF
Crypt onightR
C ategory
P ublic
14 87
E cho
00 76
test q
not ify
pc md
Battle Command
MON IKER
ĠGetScript Byte
Ġ ---------
Ġr m
Ġ[ ,
ĠV Blank
work s
å® ļ
EXTR EG
dimension al
In tr
Ġcounter s
ï¿½ï¿½ï¿½ï¿½ ï¿½ï¿½ï¿½ï¿½
Ġadj acent
Z TI
d S
ĠC PI
Ġ000000 6
Ġour selves
000080 67
åĽ ŀ
ĠF ire
Ġ8 16
64 000
ci a
Ġ000000 2
COMM ON
S LEEP
| $
op roc
14 23
24 30
ĠST AND
CH ANG
---------------------------------------------------------------- ---------------
tag s
ĠROUT INES
r esize
0000 555555
Ġ7 79
Ġx T
inter face
Ġpo tent
smps Jump
Log ic
801126 34
NEW SYM
BG C
u el
w EnemyMon
eb oard
ĠF RAM
Ġo ct
Ġ80 6
arg o
;;;;;;;;;;;;;;;;;;;;;;;;;;;;;;;; ;;;;;;;;;;;;;;;;
File Size
sha ext
Ġbig ger
ĠĠĠĠĠĠĠĠĠĠĠĠĠĠĠĠĠĠĠĠĠĠĠĠĠĠĠĠĠĠĠĠĠĠĠĠĠĠĠĠĠĠĠĠĠĠĠĠĠĠĠĠĠĠĠĠĠĠĠĠĠĠĠĠ ĠĠĠĠĠĠĠĠĠĠĠĠĠĠĠĠĠĠĠĠĠĠĠĠĠĠĠĠĠĠĠĠĠĠĠĠĠĠĠĠĠĠĠĠĠĠĠĠĠĠĠĠĠĠĠĠĠĠĠĠĠĠĠĠ
ĠLea ve
moo tex
\ $
ĠC TX
ri des
ED GES
trap ret
Conf irm
Ġvpternlog q
& .
F ilename
R s
b eta
w Link
Ġm t
AL U
27 60
ĠFloat ing
proper ty
) _
29 86
ti ble
Ð°Ð ´
war ning
8796093 02
D ont
ĠĠĠĠ Ċĉ
xmm E
di ctor
40 10
17 94
set regs
33 64
PH P
Ġwant s
REN DER
åĢ ¼
B OL
Ġ; --------------------------------
ĠS Z
Ġ12 80
Ġz ip
Str ess
Ġcmov c
Ġ0 63
Ġb is
27 99
ĠH ASH
print ln
è¿ Ķ
Fail ure
Redi rection
D PL
R VA
la xed
ĠĠĠĠĠĠĠĠĠĠĠĠĠĠĠĠĠĠĠĠĠĠĠĠĠĠĠĠĠĠĠĠ ĠĠĠĠĠĠĠĠĠĠĠĠĠĠĠĠĠĠĠĠĠĠĠĠĠĠĠĠĠĠ
110 6
Ġpartial s
ARDW ARE
ç İ
Ġm xyd
Ġ8 64
ĠC T
20 52
68 65
Ġg cc
1111 111
ba v
To ggle
BE LL
PR PSD
ĉ ĊĉĊ
000 47
14 92
83 40
83 84
Ġto gg
17 45
ne m
Ġpush es
tra mpoline
---------------------------------------------------------------- ------
Ġop tr
TRAN SFER
Simple Logger
D SB
11 13
ĠF older
Ġ7 81
ĠC ra
ĠT ake
app iness
bro ker
ĠBR L
BEGIN PROC
1125 89990
c lea
d uration
s House
Ġg bl
NT imes
ĠPAR SE
Ð°Ð ²
ICR LO
22517 998
W OW
24 88
34 72
Ġex ceed
res q
Un map
ato o
ĠExpression Statement
Ġrand state
6 144
8 000000
æ ¨
00 91
Ġ8 96
32 84
19 19
KE EP
ĠSY MBOL
Exit Process
Asm Read
Ġhex adecimal
ĠD ynamic
20 79
ĠL KS
li teral
rt cdate
pn mac
ZX FP
Ġclo sing
= >
V Table
l tr
w rites
Ġ$ __
Ġd esign
13 22
ĠC LIB
54 1196
ĠOP TION
FO rd
PA U
Cy cle
KAF KA
P DF
Ġ" ___
29 69
cp Lim
cp unum
EA K
DlgItem Message
oproc dump
R SA
c mostime
10 41
ĠC EL
B atch
in tel
ĠS k
15 58
20 99
SO URCE
oop s
iver sal
utor ial
ĠVi ridian
28 82
end ar
Ġres ume
UR Y
UL ATE
da mage
gra vity
ĠCom Call
Ġrk tp
ä» £
ĠDESC RIPTION
ORIG IN
COLUM NS
T PE
c movz
Ġ0 61
O rg
23 85
Ġwh o
SH OT
Ġswitch uvm
Dict ionary
EQUAL S
ĠConstant s
ZNK St
h ardware
pr v
io b
va il
ffffffff h
COL S
Ġ7 73
AL PH
Mon it
x AC
Ġmm A
rt l
000003 6
Ġtext ure
Ġleft most
tx n
LIM B
D eath
in ventory
Ġd aa
Ġadd a
ST C
str free
CO OLTRAINER
Ġprog bits
M BC
O X
é Ļ
ĠP ART
is n
fa h
DD F
... "
Out line
Fa ctor
Color Space
rid ley
F INISH
00 59
it ude
Ġm ix
14 62
29 54
DI VIDE
Ġ---------------- --
ĠSY M
Ġmatch ed
Ġsuppli ed
ĠPend SV
W are
u lo
00 52
ĠD eallocate
Ġ7 95
32 55
27 45
SH UFFLE
136 85
ĠPC I
YAX V
ĠDESTR OY
56294995 34
p subd
re w
11 82
Ġth reshold
ĠT ARGET
TI MA
ap os
IS O
Check sum
Reg Data
comp ile
ĊĊ ĊĠĠĠĠĠĠĠĠĠĠĠĠĠĠĠ
Ġ8 98
ĠT IT
Color Transform
AK A
ĠFP REG
Tick s
cer ra
nin odes
F DE
U TION
Ġm edium
Ġ7 69
17 99
19 35
68 64
AN S
IM UM
Sh ot
trig gered
ĠCry stal
b st
Ġ0 101
80 115
16 94
ot or
Ġx D
Ġco lours
reg xmm
ph y
ĠAdd NTimes
4000 4
ĠOPER ATION
ZTV N
Subscri ption
P y
12 93
85 0513
19 23
18 79
end or
26 57
Ġcomp osite
HT ML
Ġph one
Oop Map
utable OopMap
I l
u crt
el lipse
Ġread sb
135 79
00011 110
BT N
V K
ĠS RL
Ġ7 71
Ġv ir
CO EFF
be low
Ġcmp b
Ġlea ving
Item Group
ãģ Ł
IO CTL
Ġvper mt
><>< ><><
Ax is
B EL
F sp
ĠR et
25 34
AL WAYS
TIM AGE
Ġinter p
Ġscript s
I Add
17 05
mul sd
std lib
Ġ80100 566
Ġjn be
ĠDECLAR ATION
ĠDevel op
P DX
Ġ7 53
28 49
mem sz
') :
For ward
w Buffer
15 95
IN ET
19 76
ĠM T
18 46
84 80
src ptr
Ġ0 53
ĠOp IAdd
pro d
ĠCurrent ly
ymm e
78 64
GE Y
ĠAC K
Ġant idi
20 27
Ġ08 00
Ġst udio
Ġlo adi
Ġ'- ')
L ead
h ev
al ysis
ed ures
12 33
ent est
ĠT ech
Ġ11 000000
Ġlea ves
END R
PORT C
Or dered
xfa fafa
' .'
Ġ< (
ĠD el
Ġ10 44
128 2
loop x
read sb
pi k
Ġstruct ures
sic ion
INTER LEAVE
Ġmea ning
Ġvaesenc last
SPEC IAL
AEA U
Ġbu ilt
17 08
19 69
ĠFF T
sh c
DB h
ĠW ake
Ġen dere
pr n
SUB WF
>> >
eep rom
h ow
rc s
ĠB ased
Ġ80 13
ĠH ardware
Ġdi agonal
UB AT
LP M
Ġok ay
ĠSend DlgItemMessage
01111 100
X DEF
00 93
ĠH F
00000000 000004
cor ec
EXCEP TION
H IDE
O H
Ð ±
11 73
ĠS IN
15 46
18 26
29 88
29 53
0003 02
GB Z
S z
si stant
17 52
Ġ80 9
Ġ8000 57
OL LOW
wo on
Y F
24 02
28 28
ASM FIX
R u
16 68
Ġ8 14
19 56
22 20
left q
ĠUN IX
|||| |
Enum Start
Ġgu ard
ç® Ĺ
ĠEAR TH
corec rt
F n
P b
ĉ Ċĉĉ
Ġt uple
Ġ9 40
ĠH eart
PC F
Count s
GR AY
subs fi
Ġkill ed
ĠVal ues
- %%
V irt
in dx
17 49
if num
ti cally
Ġname x
Ġsection s
Ġerr no
ura cy
000 41
18 68
im ize
Ġres olution
ĠZ e
IM A
è® ¾
C ES
F AM
p od
14 98
EA E
2 115
e ps
Ġs lower
ĠD ST
ĠL ight
pw m
ĠPO ST
Ġparse redirs
0 344
f atal
ĠP IN
Ġ7 83
Ġ7 91
19 30
ĠB ombs
A pc
S mm
S ink
Ġr mb
Ġv r
Comp atible
oo ds
Cry stal
Mail box
P ARENT
d ither
{ ',
é Ŀ
78 24
HL T
Over ride
æķ° æį®
C rc
J ML
R d
Y WORD
Ġ8 68
Ġ8 84
ĠC PL
ĠI mage
bx ax
ĠV T
PE AE
inf ect
ld exp
49 01
UN USED
Ġ000000 18
S affron
85 95
90 60
21 10
ĠCALL ER
RC V
Ġfn ord
F an
H alt
u ent
v isit
ra cle
14 33
ĠT CB
36 80
92 23
lib rdkafka
ĠSup er
n ak
qu o
ĠJ B
BR nz
COMM A
Pro tocol
D oug
F uchsia
Ġ ï¿½ï¿½
Ġ9 68
22 89
ĉĉĉ ĠĠĠĠ
93 75
Stack Alloc
cla mp
ĠRe laxed
Ã§ o
1 00007
Ġ8 94
19 65
ect est
78 88
out i
ĠNo DD
ww ww
vf li
Ð°Ð »
ĠCla ssic
D SR
S ONG
s VolEnv
Ġ_ ,
ma ges
Check s
HO LD
OO O
VAA PI
G iven
w v
19 57
dc al
Ġsh own
ĠJ oy
ãĤ ¢
Ġlock ing
Ġ================================ =======
allow ed
; []
k it
es xdos
16 86
16 46
32 95
IN R
Ġ10 29
Ġl vl
ĠU sing
Ġ9 50
St uff
Battle field
rag ment
Normal ize
ĠAss ume
D SLIDE
E q
P LE
R RC
Ġd rives
Ġ7 75
ĠC lient
27 30
Ġ2685 160
Ġ2685 170
Ġ2685 140
Ġ2685 130
Ġ2685 150
ĠV MM
Ġ26850 75
Ġ26850 66
Ġ26850 96
Ġbeq z
tex it
Ġexpect s
ĠSPI LL
= {
R are
[ %%
w B
Ġb free
ĠĠĠĠĠĠĠĠĠĠĠĠĠ ĊĠĠĠĠĠĠĠĠĠĠĠ
Ġ" ;
ĠĠĠĠĠĠĠĠĠĠĠĠĠĠĠĠĠĠĠĠĠĠĠĠĠĠĠĠĠĠĠĠ ĠĠĠĠĠĠĠĠĠĠĠĠĠĠĠĠĠĠĠĠĠĠĠĠĠĠĠĠĠĠĠĠĠĠ
76 56
128 6
45 85
div id
110 3
Comp onent
ĠAn imate
tiles et
mor ph
kColorMode Example
sVolEnv PSG
N INODE
b is
Ġ8 36
Ġ& (
ĠFD STRUCT
ho le
files z
star tap
-- >
15 29
19 70
alloc ation
ui ente
PRE DICT
Gamma Ramp
Y AH
i ence
m lo
13 21
85 40
ĠG H
SS A
Ar r
ĠRelaxed Precision
---------------- -------+
ĠĠĠĠĠĠ ĉ
ch a
25 92
Ġ8000 9
ĠOp FOrd
080 90
pri o
COMP LETE
Dig its
8 00004
Y our
000 52
ĠR CV
ĠL CL
fc bc
OL I
ĠSC ORE
interrup ts
Ġsubpel v
I OP
a addr
x m
Ġe v
dx cx
CH N
VI RT
pi ece
Ġ000000 30
J GT
l cx
ĊĠ ĊĠ
000 18
15 87
sp d
85 09
01 90
18 87
po ff
IR Y
ract ive
COMP ARE
Ġpmin ub
smpsAlter Note
O URCE
89 06
Ġ12 00
)) }
94 00
Ġ0 74
Ġt i
16 92
39 32
RO ST
Ġ8000 42
DC A
VI O
START UP
Ġtrack s
ĠUSB D
Aff ine
relea sesleep
f ild
ĥ ½
17 23
el ine
74 56
ADD S
Ġinc rea
Ġ90 8
ae h
Ġ___ "
lp fq
xCurrent TCB
v ibrato
89 93
03 125
ĠJ A
OW ORKS
imul l
ras ter
17 26
Ġ" -
ĠNtSet Information
F ace
k ely
la ser
ĠT alk
90 24
SE EK
UN ROLL
Ex tent
To o
Loop gas
ick ed
000003 8
Gr Draw
El se
Ġbehavi or
entr al
st eal
20 53
02 99
Title Screen
45035 996
H F
V oid
k v
v psllq
Ġ10 50
68 32
ĠIn f
() ]
Sh eet
Ġ---------------- -----
ĠVER SION
SymbolicLink Object
A re
f div
10 61
Ġe ff
20 36
Ġis sue
co der
DD R
ĠLoad Level
pr inter
ob stack
vpxor q
ĠDire ction
ĠĠĠĠĠĠ ĊĠĠĠ
13 58
Ġ7 63
02 23
bl x
AC P
Ġor l
72 16
112 9
my q
Ġacc um
Sw Hook
VO ICE
ĠSi mon
ĠT eam
ĠT ransp
76 29
ĠJ GE
buf q
Cursor Y
ĠDire ct
t ur
Ġf name
Ġcmp xchg
SW R
intr o
Ref resh
Ac cept
Proper ties
FST ILE
H eld
17 65
ac q
ĠĠĠĠĠĠĠĠĠĠĠĠĠĠĠĠĠĠĠĠĠĠĠ ĊĠĠĠĠĠĠĠĠĠĠ
ed itor
08 000000
Ġ80100 2
ni bble
ĠPer iod
dd le
Ġperm utations
ĠSector s
Ġconten ido
1759218 60
movmsk b
1 127
k ind
id or
39 36
Ġnext reg
Check Stack
ĠEn coded
mis c
ĠCOPY OF
Ġsn dbit
d Kick
Ġ[ __
ĠD es
ĠS tra
15 15
17 46
AR C
Co lour
Initial ise
054 2
is ing
In to
ĠG OSUB
SR L
ask SwHook
Ġalloc uvm
ç¨ĭ åºı
2 126
L mul
_ @@
è ¦ģ
18 77
DWORD TO
Ġ8000 53
INDI RECT
ĠRe member
)& $
FROM DWORDTO
FROMDWORDTO WORD
Ġr ou
ĠP ID
Ġv cc
Ġloop ing
ĠDE LETE
PORT D
ĠSI O
ĠSh op
High EventPair
Low EventPair
Result List
T imes
de tect
32 46
ta mp
cp First
Ġ4 017
12 13
se el
di d
RE MOVE
26 64
Nt Cancel
rea m
Ġas signed
ĠRR CA
stg Lcd
Ĭ ¤
ĠC ell
20 39
ul lets
01 70
out side
ĊĠĠĠĠĠĠĠĠĠĠĠĠĠĠĠĠ ĠĠĠĠĠĠĠĠĠĠĠĠ
AP PLY
Ġproc dump
ĠOp Loop
**************************************************************** ****************
bot tle
--------------- +
I ce
P als
h read
ĠC NTR
um bf
Nt AccessCheckByType
lb ack
Ġequ als
SIGN ED
DDCC I
ĠOpLoop Merge
* @
h yp
-- ){
re mote
si d
IN O
Ġx b
Ġch unks
th ird
ear gv
Ġclear ing
Ġ@---------------------------------------------------------------- -------
POR TED
Irq l
> ",
R esident
X P
Ġ und
16 65
IN DF
col l
ain ted
ĠOver flow
Ġsep arator
Ġscal ed
Ġappro x
DESCRIPT OR
9 381
y fft
16 35
15 45
fb fb
ah f
Ġed geb
sem ble
Local Def
ĠDelay Frame
åŃĹ èĬĤ
................................................................ ........
. -
B mp
Ġ: +
con ly
create test
POST DEC
hBGMap Mode
" ],
w rk
x h
ĠD LL
stat istics
Over world
SQ R
ĠSQ R
P CL
z Temp
12 63
Ġre loc
AA y
av ail
shl l
Ġstd err
lev ant
Dist ance
P AS
V oices
æ Ģ
ĠD IM
30 60
26 80
112 6
Ġcp uname
REG EXP
GE OWORKS
Ġoper ating
0 204
L ATE
V irus
ĠD ialog
16 37
ĠC leanup
89 50
ĠM e
dc r
ĠĊ ĠĠĠĠĠĠĠĠĠĠĠĠĠĠĠĠĠĠĠĠĠĠĠĠĠĠĠĠĠĠĠĠĠĠĠĠĠĠĠĠĠĠĠĠĠĠĠĠĠĠĠĠĠĠĠĠĠ
own er
Ġ65 02
IND OW
On ce
Ġdriver s
A dc
ĠN OW
ĠPro ject
mes a
P OLY
UR L
() &
NtUser Update
Ġ80100 650
ĠNtUser Register
Byte Array
Ġfour th
ĠEXEC UTE
------------------------------------------------------------------------------- @
x memory
Ġa uf
ĠD avid
push dw
ĠO TE
xml Save
To Str
imm ediate
ĠVal id
/_ /_
A sync
h ptr
et o
ĠR VA
17 34
CO LOUR
Write File
Ġsupport s
0 127
0 118
L J
Ġ7 85
15 51
32 50
20 92
AS MPC
eg g
Ġ8000 58
ti ckets
Ġpro tection
IF ROST
BB LE
Load ing
Hal p
TOT AL
2 00000
12 62
20 11
sw amp
od u
CON STANT
cb h
Ð½ Ñĭ
Ġfraction al
ki hunter
Ġcla im
v rc
ĠĠĠ ĊĠ
ĠM ATCH
QU AVER
Get Size
SRAM Bank
Comb ine
s all
Ġa verage
19 28
ĉĉĉĉ ĠĠĠ
ldm ia
ĠOri entation
n w
Ġ* _
Ġch FCFC
co ld
th umbf
LE TED
chron ous
ĠAS MPC
çĽ ®
34359 7383
thumbf unc
D FC
Q EAAX
a o
16 75
20 76
ĠH y
Ġvp gather
Check RAM
pre dq
ĠAN GLE
B KP
m ed
in ally
14 13
ĠM SP
LE CTR
69 44
Ġ0000 6
Transp arent
C are
x op
20 33
pe g
ĠTra iner
FORE ST
b q
w rt
Ġ0 44
Ġ" [
Text Out
Ġget Member
Call er
:\ \
fre xp
ĠSPLAT W
åī į
112589990 684
00 62
17 63
DI E
ĠDire ctory
Ã³ n
Q EAU
ff fa
ĠF PCR
ic ulty
18 83
Ġsp ot
ref resh
Ġspec ify
ĠSI LPH
Int c
pend ing
IB M
; _
R H
ĠR VM
ĠL IT
AD DWF
ca use
Ċĉĉĉĉ ĠĠĠĠ
Z ONE
Ġ* ;
27 52
dir test
Ġunlink read
ĠModif ies
Ġmemo ria
p ragma
ĠS ame
14 37
Ġpatch ed
C AM
S OF
p ayload
s lash
23 59
76 223
th ough
De tect
Ġmay be
ĠSystem s
Evos Moves
Ġorigin ally
Beaten Text
10 31
al arm
Ġ1 567
Ġf acing
Ġr ip
24 54
ĠN A
Mo ving
Ġinterrup tible
Ġ199 8
a Line
ra de
Ġi v
01 75
17 18
19 48
Ġ" ");
qu ick
ĠIN DF
000000 40
Ġmask s
ĊĠĠĠĠĠĠĠĠĠĠĠĠĠĠĠĠĠĠĠĠĠĠĠĠĠĠĠĠĠĠĠĠ Ġ
CHAR S
B usy
S OL
v ariables
16 47
Ġthe ref
83 99
SI LPH
mi rror
ĠPro duct
ĠXOR L
TYP ES
P LL
Z TS
re cover
ur st
17 95
Ġ9 18
ge m
ext Call
Ġdi ve
Ġ**************************************************************** ************
Ġfi lealloc
yster y
Ġtheref ore
0 404
E m
U nc
b eam
ĉ ĠĊ
Ġc aracter
eb oy
ld arg
30 55
ĠO BR
rect angle
d conly
Ġa bc
Ġm atri
ĠC b
id ad
ma z
Ġ8010 31
ĠG roup
ĠJ C
Get Shared
ĠDD RA
Ġcount ing
------------------------------------------------ -----------
ãģ Ĩ
ĠCL S
Sub Status
Ġ******************************************************************************** *******
r strip
z illa
Ġc q
Ġc lobbered
Ġp lease
Ġl idt
In x
73 78
cept or
Ġse i
sup er
Alt Inst
xmlTextW riter
T INGS
c mos
m q
m ess
add mul
26 26
ba k
cli mb
å° Ĩ
% ,
B OMB
L et
O h
é Ĺ
Ġm argin
IN VAL
25 85
60 96
fa ct
Ġcon tador
EB LOCK
File Handle
ĠAl ternate
Ġsuccessful ly
Cxx FrameHandler
4 608
st rap
et ank
14 12
40 83
DE A
AE AP
CPU Error
B at
C tr
C innabar
ĠF IF
33 76
imp l
ĠSUB Q
ĠFL Y
0011 1000
EOR EGREC
ĠCEL ADON
13 47
40 593
17 54
ER A
LO SION
21 89
Item Name
RESH OLD
Ġr N
25 80
17 10
38 88
CONTROL ADOR
ĠOptim izing
Ed itor
Argument Registers
Ġa ka
ĠE rase
76 32
ee ee
Ġmatch star
âĸ¡âĸ¡ âĸ¡âĸ¡
CLINE A
r LY
er red
ĠC ast
ck er
Ġto k
23 96
go ld
) '
K T
V ZR
X FER
r LCDC
mo df
ĠU ZR
Ġymm F
HT TP
ĠEV OLVE
MAX ARG
FRAME SET
Ð°Ð½ Ð¸
Ġdealloc uvm
] )*
Ġn b
15 13
17 48
ĠY WORD
ĠTIM ES
i B
16 54
th ieves
Ġmo no
ist p
Ġas ter
FIL ENAME
ĠFIL T
phys addr
M HZ
h ud
** )(
Ġ8 32
19 10
as sembl
To Trainer
Qu o
Ġtype info
Ġcor rup
Win Class
Sectors Per
GRAPHIC S
ransient Link
7 006
L uma
Q Q
se proxy
16 72
ĠC trl
Ġin tena
17 75
DE T
Ġpadd le
Ġ'% ',
New Line
oo oo
real loc
2097 152
mulh du
Reply Port
107374 1824
rsq rt
seproxy hal
O TERM
c nd
Ġm edia
de le
ĠN DIRECT
Ġde tection
UL DER
ĠEx port
ĠPO KE
)^ (
blank line
Ġess ential
N X
R DI
å ģ
te re
11 71
7 205
E EC
S ig
l T
Ġ9 99
requ ired
par ty
)} )
ComCall PreStub
F ollow
G adget
ĠP ACK
ĠS FT
20 59
38 44
Ġcall ers
EX IST
ti queta
bf h
;-------------------------------------------------------------------------------- -----
we i
Machine Input
Ġstra ight
p le
Ġr tl
Ġm h
Ġ8 26
ĠC I
ant alla
ĠZ H
ĠInst ance
Ð½Ð° Ñĩ
3 001
add x
ĠM PIR
Ġ9 78
Ġ2685 128
Ġ2685 127
Ġ2685 116
Ġ2685 106
Ġ2685 136
Ġ2685 126
Nt Allocate
Ġ26850 56
Ġ26850 48
Ġ26850 88
xB F
xmm H
0000 43
24 06
Ġ: )
so me
func let
WWF ixed
Ġ+---------------- -----+
k k
n ada
80 96
Ġb and
20 45
Ġv an
Ġre fer
800 4
IS LAND
Composition Input
PLAN AR
X R
r AUD
in val
Ġp l
Ġ8 54
13 11
02 20
Ġg r
if ne
SI VE
reg B
am alloc
SPRITE S
Pixel s
Ġvq mov
ä½į ç½®
Q Quick
16 57
Ġn TEMP
Ġ58 52
17 96
35 3216
load n
UN E
bo se
Ġun aligned
Comp ress
DT A
506 25
CAN CEL
+ "/
w Mobile
00 72
ĠS rc
ĠE dition
ĠO racle
ill ator
ĠSP R
Ġac qu
6 208
E r
b and
Ġp fadd
12 53
13 62
Ġ" ,"
FP A
PRO GRAM
Pri ze
Region s
Sm art
d now
ĠS V
25 90
76 96
Power State
Ġtempor arily
y b
Ġ; .
0000 53
25 89
19 97
27 02
26 23
QU AKE
Al ready
Bit wise
Ġrep lacement
mont l
ĠWh ile
Â»Â» Â»Â»
5469 782
# ;
U TIL
_ *
Ġf ram
20 83
29 38
pc i
Ġkey pad
com ire
Comp ar
4000 7
Ġref resh
ĠMA J
; *****
Ġc ach
Ġp f
15 98
Ġin ventory
19 77
36 96
co uld
XT H
Ġ80104 240
Ent ities
G ift
Ġ8 78
ĠA lways
ĠC alcul
24 23
ĠW as
bc lr
ĠWORD S
éĩ ı
w Which
in dicator
ĠD ep
ĠA DI
?? __
NtUser Destroy
183 0
ĠCONTR OLLER
Ad vance
Ver tex
ĠRES ER
Pokemon Tower
Liter al
34 95
ĠI JG
27 84
39 00
CALL M
ĠV E
Ġcomp atibility
Proc eso
Ġswitch ing
cra sh
YAX PEAX
FLT VAR
P ewter
y pos
Ġi gual
19 67
30 47
Ġ9 28
Ġis mp
In Use
Ġsta y
BE E
DEC IMAL
gener ate
d escription
p insrw
Ġb atch
Ġb omb
14 11
pla in
bt n
Ġcvt ps
01000 100
ç¬ ¬
1342177 27
MBL ER
C DDL
M IX
S olid
k mp
Ġb bc
ĠC md
32 99
is te
74 75
78 44
AB A
UB BLE
NtGdiDdDDI Query
Kernel Frame
xmlText Reader
Ġmulti boot
Ġc am
Ġal ias
26 50
ĠN IL
ps z
BR z
reg E
264 0
ãĤ Į
Free ze
(! (
Div isor
Ġinvalid ate
ĠSTART UP
Ġpinsr q
Ġd il
01 008
ĠT og
In side
656 1
DU MP
Def TimeZone
ĠCAP S
9007 199
DefTimeZone Point
d ash
mp u
ĠF MA
Ġn n
24 69
em it
ĠCh est
mx q
Ð¸Ð ²
2 000000
L select
ER S
ĠAF TER
Ph y
NEW LINE
BACK UP
Single Object
éĢ ļ
Q T
Ġmov if
Ġ10 60
17 78
ĠU pd
Ġ@ __
Ġexp anded
ĠĠĠĠĠĠĠĠĠĠĠĠĠĠĠĠĠĠĠĠĠĠĠĠĠĠĠĠĠĠĠĠĠĠĠĠ ĊĠĠĠĠĠĠĠĠĠĠĠ
Stack Frame
parse pipe
Ġ; ;;;;;;;;;;;;;;;;
Ġ2 896
et y
ĠC DDL
enc ies
Ġbl end
ĠInc rease
Swap Chain
B ubble
P AH
R od
ĠM MC
29 39
ver ts
xffffff fb
47 75
220 9
ãĢ ģ
x list
01 83
ip rintf
ED URE
ition al
lic and
=( --
ĠFL USH
inition s
Metr ics
U CODE
V ram
i ation
Ġ0 62
Ġ9 30
IP Kc
At t
PUT B
Ġ80105 40
uc as
IZ ATION
B ump
P atent
R RA
W ALK
b ind
Ġ Ø§
Ġ0 64
on ce
ĠL AT
ad cb
22 32
In ymm
AA c
xml Set
00 57
12 21
34 35
27 68
Ġ19 88
ĠLG F
Q AEA
¡ å¼ı
Ġin s
ĠL HI
Ġcon cer
Ġymmword param
crypt o
ĠS lot
FF Fh
34 50
li sions
ĠTur bo
0 124
U DATA
Ġ( (((
AP R
004 00
Ġsystem s
Ġsched ule
CheckStack Vars
G oldenrod
x DB
å ±
20 46
18 62
28 79
Ġ9 38
ab ling
Ġpo si
vf iprintf
L FE
L sqr
S EN
t weak
ĊĊ ĉĉĉĉĉ
ul k
74 49
000003 7
Token Ex
traitsIc EEE
it oa
ĠF ENC
Ġin verted
BD h
ĠAl low
man ent
Attr Map
ĠÂ ©
ĠTIT LE
S ale
_ \
h um
y u
Ġc apture
Ġt ill
ra ddr
11 42
40 94
29 99
23 02
78 125
Ġ04 9
EX C
Co in
Ġno alloc
180 8
ĠAdd r
des ert
Event Bit
gra in
vari a
nB b
Seen Text
14073748 8355
0 891
B ag
E AC
V ictory
r Dst
10 106
32 25
esp ec
ber nate
ID OR
md at
Map a
VER IFY
Offset s
ĠSET GATE
ĠPSH U
7 551
M EN
Ġ8 74
55 00
ht o
xml Buffer
Ġtrans late
;================================================ ==============
W X
Ġs cc
Ġt aking
Ġ8 39
Ġ7 97
ST UFF
DI ER
ĠW aits
Ġcx dx
;;;;;;;;;;;; ;
FAC ING
Ġnam etable
541196 100
I ES
L JMP
n gr
v broadca
Ġm d
16 15
ĠS AF
29 77
SC Y
Ġshuf pd
f y
l bl
ff H
TR L
ĠL ib
Ġal t
22 11
ap an
EC F
rep ort
div l
PR U
ĠRO OT
llll llll
metr oids
C USTOM
M gr
P red
s uffix
ĠW OW
Ġmp ioapic
ĠBUT TON
ĠFUNCTION S
Ġ>:: ~
rv ine
- =
B OY
con tainer
29 12
", @
FL AC
PC GEOS
TEXT ADDRESS
NO TI
,< >
414 24
bri ef
ĠMessage Box
åĮ ĸ
0000 6517
ĠR am
ĠT e
PHY STOP
# "
B ERRY
R f
V ID
ur ge
ĠI rq
27 39
39 68
STR B
Ġno des
ĠTra de
resp onse
Hard Error
POW DER
j t
} .
Ġ lot
24 25
fd h
Type Def
exp onent
bot h
ĠSU CCESS
ĠList ing
Ġdele ting
Ġvfn madd
E tiqueta
ä ¼
en ario
16 63
mb f
Ġtrap ret
Ð» Ñı
Ġ[' %
Ġbel ong
' ]:
P SC
h ps
o F
in use
Ġr tc
Ġadd d
19 95
Sel f
xFFFF FF
175921860 444
m edia
Ġ; **
en dian
ĠS EL
ĠE L
is d
03 01
LO ADED
log b
Ġare n
Message To
segment s
;---------------- ---------------
BACK SPACE
W as
19 52
56 2915
ĠN L
ĠZ L
Ġ80100 4
mi di
ĠAn gle
024 68
ĠAsm Read
ĠContin ued
&&&& &&&&
ĠREQU I
ĠFRAM EBLOCK
N ROUNDS
Ġin sl
Ġ9 90
ĠH BIOS
ĠJ L
Ġpro du
Alter Vol
Oak sLab
s ense
Ġ( ........
Ġo u
Ġ10 56
38 89
Ġen counter
Ġcont iguous
D ARK
U IT
f ram
½ æķ°
ĠM us
($ {',
Ġ80 7
ĠW DT
110 8
Ġcom ing
Ġpar is
åĲ İ
Wh at
Ġlpf q
a ver
q l
ĠF igure
Ġ8 33
un try
09 00
QU I
Ġlen s
TO GGLE
smpsPSG AlterVol
; ----
G ARRAY
24 59
Ġarg uent
Ġ8010 569
72 64
Ġ8000 70
ms c
TH EX
ĠOp Convert
pro tected
Mem Handle
Function s
Virtual OAM
pul x
2814749767 106
S AP
f context
v psrldq
Ġv movups
24 49
48 89
qu iet
54 00
Ġhas attr
Ġnow rite
Find Data
Ġ------------------------------------------------ -------
Ordered Dict
@ '
Ġp Dst
ce pted
In dices
Wh en
P LP
Y PRCENTRY
h ang
16 59
ĠS yn
ĠS tage
15 93
print c
pl at
ĠAn imation
ĠGR P
HW ND
r Src
ĠL IGHT
ĠL UMA
Ġex am
DB D
ĠThe y
max y
ĠCor tex
Exception s
Ġvert ices
ĠPAT ENTS
GU ID
Ġ1111 0000
ĠQue ue
C reated
Ġp ins
us bd
ĠT eb
28 70
27 56
Ġaccess ed
8999 76223
562915 447
Ġr g
24 76
19 93
Ġen s
BR ARY
msg set
ÑĢ ÐµÑģ
4194 304
V F
n es
p clmulqdq
Ġ mpsadbw
or ta
Ġb le
Ġ< %
11 0000000
ĠD AT
17 97
23 53
PUT D
CONTR OLLER
O LEAN
W ARD
w id
x s
§ è¡Į
Ġr gb
000 46
Ġw ays
48 000
ĠO r
38 80
524 288
ĠSIGN AL
] "
g ly
z ag
z Track
add Thread
ĠF DEC
ĠU SR
35 29
Ġ08 1
ĠGener ated
pack ssdw
fst ests
Ġ ĊĠĠĠĠĊĠĠĠ
00 69
Ġc rlf
22 17
ph ysical
cur inst
ãĥ ¬
Ġtrans f
ACT UR
Ġcomb ination
2 127
re di
Ġ8 56
be g
ĠSt oring
110 7
Mem Deref
Thread Desktop
NEXT U
; @
Ġs Box
24 78
In ventory
ĠST UB
ĠV DM
RET X
Call ed
ĠUn iform
INTER ACTION
COMP UTE
BGP als
ĠComCall PreStub
; đđ
P EN
v Task
Ġi bpc
15 43
30 70
Ġ$( .
Ġ8000 52
Ġop codes
Ġla unch
SM ASH
000004 00
Ġenter ing
xdd dddd
Ġbr ne
;đđ đ
6 125
A ns
C GA
m ea
tr t
Adjust ment
ä»£ çłģ
J s
re x
Ġ8 25
01 74
ĠĠĠĠĠĠĠĠĠĠĠĠĠĠĠĠĠĠĠĠĠĠĠĠĠĠĠĠĠĠĠĠ ĠĠĠĠĠĠĠĠĠĠĠĠĠĠĠĠĠĠĠĠĠĠĠĠĠĠĠĠĠĠĠĠĠĠĠĠĠĠĠ
37 76
ĠSUB MIT
zz zz
M SET
Ġr id
16 13
17 12
30 39
50 33
Ġ| _|
Ġ9 54
get f
load ing
Ġba il
Mem Alloc
Ġrep ly
mont q
ĠDCT SIZE
adi w
virtual box
dS v
E ther
Ġ ĊĊĠ
ĠS PL
la me
34 32
ru it
Ġreach es
, *+
F def
R ATE
R CX
p R
Ġ0 89
Ġ4 019
Ġf g
Ġr cl
ĠM as
29 35
ĠIN LINE
Get al
AA U
min ute
ho are
ĠBR K
Fore ground
A TR
c ga
ĠD T
34 99
ĊĠĠĠĠĠĠĠĠĠĠĠĠĠĠĠĠĠĠĠĠĠĠĠĠĠĠĠĠĠĠĠĠ ĠĠĠĠĠĠĠĠĠĠĠĠĠĠĠĠ
ĊĠĠĠĠĠĠĠĠĠĠĠĠĠĠĠĠĠĠĠĠĠĠĠĠĠĠĠĠĠĠĠĠ ĠĠĠĠĠĠĠĠĠĠĠĠĠĠĠĠĠĠĠĠĠĠĠĠĠĠĠĠĠĠĠĠĠĠĠĠĠĠĠĠĠ
I sl
Ġs oft
Ġb ilin
Ġg ain
Ġå Ī
ENV ELOP
ĠGra b
EZ DSP
PAV FuzzyTerm
æ¨ ¡å¼ı
a qu
l idt
Ġ ÑģÑĤ
ĠP rev
Ġw eapon
Ġh istory
ĠL DIV
18 73
Ġre v
sd a
ĠZ UBAT
rst or
After Battle
A FF
F Us
M ay
ĠP res
18 10
18 78
79 36
inter leave
ĊĠĠĠĠĠĠ ĊĠĠ
ĠSC AL
ĠARG UMENT
Ġsuper class
C ant
E OT
m uted
ĠS EE
83 36
17 58
ĠT B
Ġ08 8
In vert
th ere
ĊĊĉ ĠĠĠ
wCur PartySpecies
Launch er
g ptr
60 88
Ġ04 1
Ġun a
mv n
4000 9
>:: _
å¤ §
Crypt Fdef
exist s
Ġleg al
Subtr uct
m w
ĠF IELD
24 68
DD C
87 804
ĠDB G
4000 6
Scroll Bar
wCur PartyMon
POK EMON
t une
v snprintf
15 82
EL b
STAND ARD
B REQ
J S
x Queue
Ġc fa
Ġf reed
ad vance
ve red
Ġat oi
IS LOW
Decl aration
Ġvfn msub
ĠLCDC F
N ORM
l Param
Ġs uspend
ck s
ic l
MP LE
Sprite Index
Ġmp conf
ĠBL ANK
strl cpy
12 0000000
15 10
Ġ10 16
Ġ9 58
ev a
PR OP
Ġlevel s
Ġrespect ively
DIFI ED
;================================================================================================================ ======
al a
Ġt une
un icode
me p
DB L
ph off
Ġdel la
Ġvalid ate
ĠBe low
Ġ0 37
29 64
Ġdi e
mi ddle
ĠGOL BAT
7 004
Y L
ĠP REP
// ::::::::::::::::::::::::::::::::
30 99
Ġco unted
Ġ2685 017
Str uc
LI BX
wo od
UF ACTUR
Ġresp on
æĺ ¾ç¤º
Opp onent
edr al
w Current
ĊĊ ĠĠĠĠĠĠĠĠĠĠĠĠĠĠĠĠĠĠĠĠĠĠĠĠĠĠĠĠĠĠĠĠĠĠĠĠĠĠĠ
ĠS ym
01 99
Ġ2685 108
Ġ2685 168
Ġ2685 118
Ġ2685 107
Ġ2685 117
Ġ2685 156
Ġ2685 148
Ġ2685 137
Ġ2685 138
Ġ2685 146
Ġ2685 018
Ġ2685 147
Ġ2685 157
Ġ2685 158
Ġ2685 166
Ġ2685 167
Ġ2685 028
Ġ2685 097
Ġ2685 027
Ġ26850 40
Ġ26850 70
Ġ26850 77
Ġexp licit
020 54
Ġcoll ect
joy pad
äº İ
ãģĻ ãĤĭ
Ġs f
ĠD OT
20 74
ĠM eta
FF RON
SS Meta
Call Descr
Ġsc asb
vperm q
ssem ble
Movement Data
orl and
ĊČ Ċ
D ither
Ġ8 76
uff icient
ph num
Str ip
ang les
Ġsu cces
Wait Receive
ä½ ¿
Ġupd ating
WaitReceive Port
, )
A UX
B ehavi
H an
T TL
y c
39 83
Ġ8000 64
rep ne
pp le
Ġincrement s
ĀĀĀĀĀĀĀĀ ĀĀĀĀĀĀĀĀ
c Get
di sc
15 63
Ġh ot
ĠB ro
90 40
28 32
35 99
Ġat temp
TH RESHOLD
ĠADD S
rate gy
Bl end
Ġblue prints
UFACTUR ER
M ART
k o
15 73
17 98
DE E
Ġx def
hl sp
37 60
ĠY OU
Ġper manent
Ġlog o
4000 8
Ġpmax ub
ĠIGN ORE
N BUF
s qu
at ic
ĠA AD
20 54
Ġh ev
19 43
35 70
66 56
ps on
CH UNK
UN C
NtUser Query
File Selector
MO ON
Sh r
TIM ES
0100 3
ĠComp ass
I SION
b ubble
Ġ8 42
20 84
Ġto uch
35 68
ĠIn v
ĠLO OK
;**************************************************************** ********
switch kvm
Ġmis siles
4 0002
A dr
b ump
Ġ8 19
ro tected
25 40
17 77
ĠG D
ĠG CC
Ġ8000 31
At omic
MSG SRC
;================================================================ ===========
sn dbit
INST ANCE
Ġke pt
Ġsequ ences
Ġi div
17 587
75 68
sl eb
pro duct
Ġ100 3
MA IL
(' \
unwind funclet
abc def
W ords
ĠS quare
ĠS EH
15 65
48 64
ĠW idth
Ch eng
res ume
mod ore
Token s
Gen App
ZT IN
divid ual
d ol
ĠP ath
19 17
29 68
Ġ9 57
ĠH ave
NT ransientLink
Ġmul ss
ĠRETURN S
OVER FLOW
CONT ENT
ĠDist rib
E ip
u a
at w
ĠP ress
15 01
Ġin d
19 02
90 73
Ġ8000 22
ĠV D
temp l
Add ed
UD GE
br ush
Sprite GFX
Ġvari ant
Ġalloc proc
Ġgu ess
Ġa dt
89 55
02 28
DE SK
39 84
Ġch osen
Ġdiv ided
ï¼ Ī
DCT SIZE
Ġcrea t
;************************************************ **************
lut q
YO UNGSTER
ĠProc edure
D pc
V s
j on
Ġs it
0000 31
ĠC AR
85 44
19 13
Ġ8010 13
Ġcomp uted
ffffffff ffffffff
NOT TRUE
bar rier
Pref ix
MMC SD
narrow ing
ĠMEDI A
000 58
Ġv cvtt
89 07
29 83
23 60
70 70
70 73
QU IT
Ex tend
Map ped
ĠRET LW
KEY BOARD
Rec v
Ġman ually
* .
f open
add er
Ġ8 86
20 56
AC TIV
46 01
Sh ader
vel y
ĠTog gle
Ġ8 22
ĠB all
90 25
Ġwh itespace
ĠCON CAT
pre dictor
Ġ.. /
ĠS ID
24 44
ĠR U
02 10
33 00
NtGdi Add
Add resses
Ġ100 8
Ġvmov apd
Ġuw AVS
hyp ot
i wi
v pslldq
Ġ0 111
in vert
Ġd uty
ĠT A
xml OutputBuffer
ĠAR RAY
196 608
ÑĢ Ñĥ
Max HP
ĠTeb by
F OP
L IMITED
Ġ8 23
Ġv psh
19 21
iz a
ear l
Ġ90 4
ĠNo EggMoves
ga ard
+(( (
Macro s
4 506
5 120
D OFFSET
P rs
ĠF am
Ġ10 64
85 50
25 54
ĠV s
Ġprint ptr
Ġinit ially
Party Count
Imp l
PHA SE
XL ATE
ĠHW REG
ä¿Ŀ åŃĺ
b call
t str
Ġ ĉĉĉĉĉĉĉĉĉ
Ġ$ _
Ġb ts
40 99
is function
48 80
jmp i
List Class
Ġround ed
;---------------- --------------
MULTI THREAD
Ġte cla
stw u
âĸłâĸłâĸłâĸł âĸłâĸłâĸłâĸł
0 114
q t
sp tr
ac le
AA p
Ġ---------------- ----------
B eta
K Y
i hi
000 75
20 63
89 89
Ġre tr
ĠCON STANT
AP arse
ĠCredits Line
BOUND S
Q SV
j sl
FI C
Ġ8010 60
DB C
num erator
psh b
Ġarea s
Ðº Ð°
M IRROR
N ES
i init
Ġb ind
55 69
SP D
53 80
Nt Load
no op
TIME OUT
siz ed
åĬ ł
" ))
L tmp
x BP
Ġc ategory
Ġ( (*
Ġm u
un own
Ġh our
pe ech
Ġ04 3
Ġen dian
ĠCL K
trans ition
M Z
Ġ" ("
30 44
27 34
En code
US ING
SD P
umul ate
ĠREAD Y
PACK ED
INITIAL IZE
ĠEnc rypt
ĠServ ice
- ]
Ġa di
Ġ* )(
xff c
Ġcmp sb
Ġvp ack
start ing
Ġkey press
Ġopen ing
åŃĺ åĻ¨
Dma Example
z u
mt x
Sh ape
1010 101
Ġsend s
util s
000007 17
ĠDevelop ment
K ICK
L atin
f v
f getc
ĠB n
26 62
Ġ8010 62
ĠG CN
Ġz one
Ġsh ips
RT F
IGN OR
can cel
ĠPHY SICAL
COD ING
Elec tric
L UI
L debug
** )
Ġs lice
Ġv mulpd
Ġ. ....
nd gaard
iz z
ĠCMP B
ĠDi spatch
Acc um
ViewOf Section
ĠStra ndgaard
F orm
v g
24 16
24 56
Ġl sb
03 02
Ġstr cmp
000000 20
ĠEQU AL
nxt inst
Ġ1065 353216
8 254
ĠF DC
25 05
55 44
ver tex
000003 9
BIN ARY
pas cal
ì Ŀ
Ġ; -
ĠA ug
ĠT ony
72 20
86 26
ĠCON VERT
CPU Features
M ATH
x BA
14 93
rep ly
BL AST
800 8
AK M
+ '
0 304
A FC
ic les
29 50
56 80
LE n
=" ,
ĠJ OB
ĠCall s
Doc uments
ï¼ ī
SCR N
BLK W
ĠÐ¿ Ð¾
Static Base
-------+ -------+
SQU ARE
B ike
s entry
Ħ åŃĺåĻ¨
ĠF EA
un tered
Ġin r
Ġin di
ecx z
23 70
Ġx AX
75 17
Get Char
Set Color
map const
ĠLO ADER
Ġstat s
Ġse ver
Ð°Ð ¹
ĠLED s
NtUserCall Hwnd
Ġpok edex
28 40
76 79
IC RO
43 01
Th at
escri be
MA NT
U TER
in verted
vector s
back space
pack uswb
xfb fbfb
Ġ------------------------------------------------ ---------------
ĠRhp Gc
æī §è¡Į
ker n
P ick
Y ellow
mp config
Ġ8 69
Ex pression
110 9
sin bad
Ġtyp ed
æĮ ĩ
ĠSMO OTH
Ġ8 259
), -
83 80
Ġ10 36
li z
inc lair
Ġset State
DD A
sm c
RR CA
Show Message
DL G
Ġemul ator
N e
ri m
Ġar bit
72 90
AF TER
ãģ į
ĠNtQuery Information
ĠÃ ¨
addcarry x
ALLOW ED
ĠFIF O
B tn
o e
16 73
Ċĉ ĊĠĠĠ
20 69
Ġ80 5
ĠW IDTH
Al ph
Def ine
Ġvperm i
syn chronize
Orig in
j nb
st ra
15 92
Ġw rapper
Ġin icial
ĠB UMP
30 88
28 25
22 10
no ugh
Date Time
ĠRes ource
Sub tract
option al
Direct Draw
ĠSTM FD
Expand ed
> '
A UR
F ld
ĉĉ ĠĠĠĠĠ
mp main
sp ill
50 80
lib rary
101 00000
man aged
GC StaticBase
ĠKEY S
Ġletter gen
',` %
Ġaff ected
4 0003
in itsleeplock
Ġc tl
IF E
Sp lit
lh ld
PP PSD
Addr Reg
ĠIC W
BGE ffect
43980465 11
5 100
D td
_ &
v aes
Ġ10 27
Ġ8000 13
offset of
ĠCH ANGE
Ġscan f
XOR WF
Ro am
Simple UI
4 017
H istory
Ġa pi
eb h
64 16
02 12
34 59
eq v
ĠPER FORM
c movb
mo ney
Ġb write
ĠB CLR
as es
SE S
Ġx xxx
74 24
Ġre pres
NtGdi BRUSHOBJ
NtGdi STROBJ
NtGdi PATHOBJ
NtUser Draw
Call Frame
NtGdiGet Text
NtGdiEng Create
Ġrec ords
ĩä» ¤
E FI
S ho
d od
s call
Ġc ab
ĠS OL
Ġv addw
17 69
ĉĉĉĉ ĠĠĠĠ
ĠN P
36 57
Ġg round
010 10
CON F
Ġcan cel
7 002
7 005
L eader
T ables
p thread
xmm F
Ġ10 59
19 03
28 13
id entifier
inter upt
PR THEX
ten sions
sk ipelem
ĠIR ON
Ġindic ated
FIELD S
: ;
y ellow
Ġc ards
mm ul
op entest
15 62
ĠL S
25 64
34 64
26 60
Ġx SP
79 21
sc atter
Of F
Temp orary
20 85
ol ver
src stride
ĠLoad er
Ð¸ ÑģÑĤÑĢ
ĠMO DIFY
trap frame
BAD GE
ĠLDM FD
Ġrou ted
Ġt id
se v
16 67
Ġ8 29
rc b
Ġpo kemon
Ġ<< <
Ġ80000 9
IO D
4000 5
406 13
joy stick
22517998 13685
P lacement
Ġb set
ĠA ck
24 89
27 69
23 68
39 80
33 75
SH ARED
UC E
keep er
ĠGe ode
ÐµÐ³ Ð¸ÑģÑĤÑĢ
2 0000000
2 140
X G
l ld
or ne
Ġb da
Ġm sr
ĠF FFF
ĠP ick
ĠP LB
17 47
OP CODE
Ġ9 84
EF ORE
Ġpro tect
PRO T
ĠPoint s
pan el
vvvv vvvv
U A
Ġ0 73
Ġ' &
ĠB M
ĠH UD
ĠG IG
Ġcall q
wait m
struct ured
ROM Bank
**************************************** *
star ted
âĨ ĳ
ĠTalk ToTrainer
ĠCast le
Q R
ĠD SP
ĠS MP
ĠST AR
gn et
Ġ80000 5
Of Alph
ins OfAlph
1406 25
ĠAG ESA
un ny
str sp
ĠV irus
ĠNO DE
Ġra dius
ĠSYS CALL
ÐµÐ ¹
ĠAT T
ĠEXT ENDED
Ġide queue
WINDOW S
F l
H UFF
16 53
64 46
Ġv on
DI T
asm entry
47 01
Ċĉĉĉĉ Ġ
Ġfam ily
Float ing
Ð´ ÑĢÐµÑģ
iff alse
ĠEARTH QUAKE
Ġvqmov un
4 786
Ġt l
16 52
40 49
36 36
37 80
tra sh
;;;;;;;;;;;;;;;;;;;;;;;;;;;;;;;;;;;;;;;;;;;;;;;;;;;;;;;;;;;;;;;; ;
Sub song
EV EN
vf madd
ĠCF G
Vector s
Asm Write
cor rect
u argv
Ġd ad
16 18
Ġ8 31
Ġst ick
43 02
main loop
Ġbegin s
ĠLO CK
âĸ Ĵ
ĠBl ank
45035996 273
B SY
C QtImGui
b est
15 42
20 55
In direct
ĠNeg ate
2 129
3 838
E VAL
F ifo
P icture
-- ,
Ġ8 46
SP LIT
ĠIn tro
smps Stop
Bit Blt
Rec ur
Bad ge
äº Ĩ
abil ities
2 101
M at
M ak
M antissa
d ead
Ġr ule
Ġ8 53
Ġv b
TR E
38 26
BB B
Size Of
185 0
wScript Var
+ .
3 125
L loop
N ICK
x string
Ġ8 13
05 48
Ġsh are
00000000 000001
Ġus able
Ġla ser
ĠDEF ENSE
AUT H
827 999
P WR
i si
16 14
Ġar t
40 14
ER U
00000 80
OF S
LOCK ED
Ġpres erves
ĠAl loc
ĠSh ield
Ġmp r
VAR I
å¼ Ģ
G Z
w is
Ġ Ã©
Ġ8 37
24 79
36 64
ac ted
red raw
ĠZ UC
EQU B
Ġnum er
Ġ---------------- ---------
ĠLOC ATION
2147483 648
ĠAuth ors
Rol lback
cerra mento
y d
10 105
16 98
Ġ8 62
ex ectest
60 49
Ġqu iet
ĠNtUser Call
ĊĉĊĉ ĊĉĊĉ
åĪ ¶
17587 5602
: ',
ĠF eb
un named
Ġv Port
21 83
Ar ch
ref q
filter q
sv ga
æı ı
Y AAE
la x
24 75
37 25
ĠGet WindowLong
CNST P
wb scratch
Main Loop
ioapic read
0 129
F ainted
L d
Ġd ither
mm mm
Ġ8 52
Ġin fe
OP MP
Ġpadd sb
no des
ĠK nown
ĠTH ERE
nin tend
; {
X CPT
p q
ĠT MS
OP TIM
li te
fb h
110 2
CHAR ACTER
bg map
smpsAlter Pitch
Ġ8 99
ĠR G
ĠX T
AA F
Con d
to x
PRO MPT
Ġfi la
Ġ') '
aIn icial
G HOST
S qu
AT ES
ĠM et
ID s
ĠCon f
Part icle
INTR O
vpunpckh qdq
rotected Output
OPMP rotectedOutput
C FC
h ard
o cket
u u
16 45
de p
Ġth ru
tr on
ion e
01 004
29 84
SH IELD
Ġan si
En cerramento
DEF M
Po cket
Ġdef ense
Full screen
Ġrelea sesleep
L short
T ank
Ġr mem
Ġ' "'
Ġin dices
sp ark
ĠM ire
and er
dc x
Ġver tically
220 7
input gas
5555 555
ĠRoom Header
ĠKra id
parm W
Upd ates
0 145
å ¹
10 71
10 103
al ance
Ġn mi
Ġ8 63
32 20
40 81
ALL EL
ĠO ak
check sum
xFF F
Mach State
CV FI
punpckh dq
5629499534 213
M IL
O cc
Ġs orted
ĠP OLY
Ġ8000 18
ĠIn formation
;---------------------------------------------------------------------------- ;
Ġgiv ing
Sign ature
ĠQU ICK
Ġproto col
Poll Example
muted snare
4 100
Ġ ^^^^
te q
it ab
ĠS ep
un ic
Ġ# .
60 48
ĠI mm
74 20
78 80
bin omial
BO ULDER
Ġhow ever
è¿ °
AEBU UserCredentials
: =
z ombie
00 105
Ġ00 65
Ġt fr
Ġv addpd
17 62
60 16
Ġpro ceed
swap gfxbk
ĠRece ive
h op
89 0625
ĠB ri
ĠO A
Ġ8000 14
imp orted
Ġdec omp
ĠCALL ED
vpextr d
DWF ixed
d mp
f cons
mo no
13 43
Ġin coming
Ġfile write
UP D
EM O
DO LL
185 6
Ġstd RET
termin ator
Ass oci
ĠGS INIT
ĠBATTLEANIM STRUCT
boo lean
P Y
a uthor
j ected
it ar
40 82
23 39
26 83
Ġg onc
Ġco urse
Ġmask q
Ġkey code
fl oppy
Ġdc r
Sub set
XXXX XXXX
ĠCPUM CTX
21990232 5555
T BB
Ġmov lh
call far
20 90
], -
40 97
DE BLOCK
18 65
ĊĠĠĠĠ ĉ
74 72
Ġre levant
Ġ2685 026
og raph
Ġasm entry
Tick Count
ĠLim b
W B
d j
e ither
Ġ ĊĠĠĠĠĠĠĠĠĠ
00 104
Ġ0 65
ec ause
12 73
Ġ8 92
et ween
IN NER
Ġj ns
Ġ9 80
Ġ8000 63
ĠDC R
ĠReset Mapa
G RID
v w
Ġt am
ar ith
ĠD ead
ĠL IM
MM U
string Ic
Ġedit able
RESER VED
ymme tric
éĿ ¢
N W
h am
h mac
00 61
ed h
32 70
ĠE I
ax is
MM Y
ĠLD S
Ġdx ax
Ġ100 4
BP P
180 6
DEC K
oriz o
ĠMap aInicial
scroll up
Ge o
P eek
U RES
_ (
IN SERT
.. @
sh ake
49 00
NtUser Show
DR OP
DIRECT ORY
Align ment
Ġcla mp
Ġtela Encerramento
2 138
P TX
c ant
11 61
ĠP itch
85 60
cc ion
Ġ! !!
Ġk init
ĠNum erator
INTE GER
ESa IS
xmlF AParse
C AC
I p
M nu
j const
n h
ĠB OTH
ĠM PU
Ġ9 88
Ġ9 96
Ġout sl
sign w
UG H
s dio
eb yte
ĠS n
FA E
Ġtimer s
ĠCom modore
MULTI PLE
final ize
434 23
PLAN E
23 90
bp tr
include lib
At k
ĠClose SRAM
GPRINT L
Ġt lq
000 304
Ġl q
il tin
29 57
Lo st
xffffff ec
reg C
REG CTX
ASGN B
Ġxml Str
xtmp l
ĠRESER VED
A AL
B ROWN
X AX
en o
v movq
ĊĠĠĠ ĊĠĠĠ
Ġp icture
op ower
12 51
02 24
inc rease
INDIR B
comp act
Ġback space
Ġcor rection
Min now
2 187
Y T
tr es
000 21
83 00
TR IG
17 07
18 29
68 48
IT AL
NtUser Open
Ġsrc Stride
Ġindex es
ĠKEY BOARD
ĠTermin ate
10995116 277
dContext Create
s st
ĠS ong
23 76
72 32
Ġsh m
enc rypted
GET D
PIXEL BUFFER
Ġgover ned
Ġaccording ly
Ġident ical
QAEA AV
H int
x EB
y x
Ġ% .
12 61
un init
25 28
__ (
Ġ9 36
Ġstr ip
ĠV A
Ġac quiresleep
ĠTMP PTR
Bot tle
IMM ER
C EC
H AV
s ma
x DF
Ġch roma
SI n
FFFF H
Sound System
Ġ-------------------------------- ------
Ġ#> $
ĠNum eric
Ġ ĊĉĊ
ĠF SP
40 50
ĠI MM
Co ins
ĠÐ Ĺ
ONT AL
Stretch Blt
h dc
ç ķ
in direct
Ġv gm
19 33
29 333
ĠĠĠĠĠĠĠĠĠĠĠĠ ĊĠĠĠĠĠĠĠĠĠĠĠ
52 80
ãĤ ³
Ġ110 11000
Format TestLabel
ĠIRQ s
ĠSup port
ĠWh at
Pap a
a mount
ĠS cr
000 60
SE E
29 96
Ġ9 16
Ġ@ #
bo ost
LOC ATION
MD OUT
tex pr
Ġpath name
Ġstatement s
ĠState ment
0 546
ĠF URY
000 19
Ġw OT
ĠR b
70 49
ĠH ome
Ġmo do
col lect
Menu Header
ĠAss ert
è®¾ ç½®
A mount
x CB
Ġ3 0000
Ġc ry
ĠX STR
ĠX LDR
Ġmo rn
ĠK art
NtGdi Select
pic o
Ġ**************************************************************** **
tv ec
xmlCtxt Dum
G SL
r IE
Ġ ï¿½
ĠB orland
ĠI I
35 27
In tel
Ġset Variable
aur ora
micro delay
Ġsever al
I sr
_ ?
| \
Ġp n
Ġ( <
13 63
17 42
Ġ8000 10
180 4
X D
er us
ĠC BC
Ġ10 25
sub range
Ġ9 70
Mem Set
Method Fixup
PRI ORITY
Cor rect
W akeup
h all
15 22
ĠE MIT
30 34
56 64
Ġ9 52
Ġ9 61
66 85
72 60
00000000 0001
vir tio
ĠOST askSwHook
Ġproble ms
C W
Ġs olution
xmm s
EN A
AN NE
46 11
004 00000
E KEY
f ine
h Joy
16 23
35 40
mt lr
PP ER
Directory File
ĠSTK END
- @
V file
b att
ĠE xample
01 96
is es
29 85
fe eb
Info Ex
Ġ---------------------------------------------------------------- --------
10000 4
result s
ĠPH X
ĠPL ACE
C ached
M argin
O OM
32 34
25 75
ĠI mplement
CL A
Pointer Device
Multip lier
SIGN ATURE
Transp ort
Ñħ Ð¾Ð´
nintend opower
2 197
; ---------------
Ġ; ------------------------------------------------
er ature
Ġ8 66
30 89
DI RECTION
ĠST DIO
put field
Ġy r
87 806
reg D
mf lr
ĠControl ler
DOT P
shif ted
G DI
G roups
P DB
x CE
ea db
Ġb gt
rc ode
LO UT
bd os
INDIR U
Up start
???? ????
Inte ractive
Ġregist ro
ĠC ache
Nt Release
11 51
ĠE R
Ġl ive
Ġfor eg
AM X
SC F
ĠRo cket
O DR
d group
i ens
· ³
at ively
16 93
Ġ8 11
24 36
23 50
SP E
Ġint s
Co ol
EL h
TEXT AT
UI LD
over ride
ĠBin ary
2 102
: )
D word
D ll
27 26
00000000 000005
xffffff c
Ġnop e
Ġput ch
FA IRY
par ser
ĠREC OVER
Deref Vis
vari ance
Ġquad rant
CACH ELINE
W ifi
f ollow
Ġ3 000
Ġ0 72
10 104
ĠF ID
32 06
Ġh ours
-------------------------------- -
28 60
28 44
Ġ19 89
go ing
Proc edural
Or phan
åŃ Ĳ
Ġsearch ing
Capture Inst
C n
T PD
20 66
ĠN EC
96 99
ĠW INDOW
AB F
ĠJ COEF
ef h
om ber
cb z
List s
Ġpres caler
Output Dup
DIV F
SUP PORTED
DirectDraw Object
4 509
E u
S at
st als
ĠS ING
ĠE GA
83 60
ĠT rip
28 88
70 69
Ġ01 000010
Ġcrea ting
O USE
d seg
00 71
10 107
Ġp lx
ent ium
68 16
26 99
,[ _
DD D
od er
Ġ80100 8
LI BC
ĠNtGdiDdDDI Set
LZ CNT
ãģ§ ãģ¯
ĠTEX TEQU
OutputDup l
Ġ0 29
or no
Ġm utex
000 326
20 77
17 72
sh f
vp d
Ġĉ ĠĠĠĠĠĠĠ
pi red
Ġ000000 11
ãĥ ª
ĠUn lock
906 25
MIN US
FFFFFFFF h
illis econds
' ,$
p cmpgtd
in r
Ġs ine
Ġc ad
Ġi retq
14 73
Ġh ealth
68 74
pt n
ĠIn terrupts
ĠK BD
NtUser Enable
Write Watch
ĠSTR H
ĠPo ke
Addr L
sdccix p
sdcciy p
ea u
Ġc ent
32 000
ch es
Ġin str
17 22
ĠT r
el ess
26 55
bl ing
CC ER
sta irs
At trib
TL S
As sistant
unit test
CATCH ER
j im
Ġb oolean
Ġ, ,
AC h
Ġpunpck l
po site
pb us
CB A
ĠGet Random
0003 00
Ġalign x
Player s
MNU ITEM
x CF
Ġb en
ra dix
ĠP oll
13 18
ĠB SS
ĠM ATH
75 49
77 37
Ġus ually
ĠPrint s
iter s
Ġfind s
Ġextern func
random x
Except Hndlr
F atal
H all
V TI
Ġf sub
Ġ8 47
13 61
24 09
02 000
ST oF
30 36
cd h
oc umented
ONE HALF
find me
run ning
ipps ECCP
[...]
