{"<|endoftext|>":0,"!":1,"\"":2,"#":3,"$":4,"%":5,"&":6,"'":7,"(":8,")":9,"*":10,"+":11,",":12,"-":13,".":14,"/":15,"0":16,"1":17,"2":18,"3":19,"4":20,"5":21,"6":22,"7":23,"8":24,"9":25,":":26,";":27,"<":28,"=":29,">":30,"?":31,"@":32,"A":33,"B":34,"C":35,"D":36,"E":37,"F":38,"G":39,"H":40,"I":41,"J":42,"K":43,"L":44,"M":45,"N":46,"O":47,"P":48,"Q":49,"R":50,"S":51,"T":52,"U":53,"V":54,"W":55,"X":56,"Y":57,"Z":58,"[":59,"\\":60,"]":61,"^":62,"_":63,"`":64,"a":65,"b":66,"c":67,"d":68,"e":69,"f":70,"g":71,"h":72,"i":73,"j":74,"k":75,"l":76,"m":77,"n":78,"o":79,"p":80,"q":81,"r":82,"s":83,"t":84,"u":85,"v":86,"w":87,"x":88,"y":89,"z":90,"{":91,"|":92,"}":93,"~":94,"¡":95,"¢":96,"£":97,"¤":98,"¥":99,"¦":100,"§":101,"¨":102,"©":103,"ª":104,"«":105,"¬":106,"®":107,"¯":108,"°":109,"±":110,"²":111,"³":112,"´":113,"µ":114,"¶":115,"·":116,"¸":117,"¹":118,"º":119,"»":120,"¼":121,"½":122,"¾":123,"¿":124,"À":125,"Á":126,"Â":127,"Ã":128,"Ä":129,"Å":130,"Æ":131,"Ç":132,"È":133,"É":134,"Ê":135,"Ë":136,"Ì":137,"Í":138,"Î":139,"Ï":140,"Ð":141,"Ñ":142,"Ò":143,"Ó":144,"Ô":145,"Õ":146,"Ö":147,"×":148,"Ø":149,"Ù":150,"Ú":151,"Û":152,"Ü":153,"Ý":154,"Þ":155,"ß":156,"à":157,"á":158,"â":159,"ã":160,"ä":161,"å":162,"æ":163,"ç":164,"è":165,"é":166,"ê":167,"ë":168,"ì":169,"í":170,"î":171,"ï":172,"ð":173,"ñ":174,"ò":175,"ó":176,"ô":177,"õ":178,"ö":179,"÷":180,"ø":181,"ù":182,"ú":183,"û":184,"ü":185,"ý":186,"þ":187,"ÿ":188,"Ā":189,"ā":190,"Ă":191,"ă":192,"Ą":193,"ą":194,"Ć":195,"ć":196,"Ĉ":197,"ĉ":198,"Ċ":199,"ċ":200,"Č":201,"č":202,"Ď":203,"ď":204,"Đ":205,"đ":206,"Ē":207,"ē":208,"Ĕ":209,"ĕ":210,"Ė":211,"ė":212,"Ę":213,"ę":214,"Ě":215,"ě":216,"Ĝ":217,"ĝ":218,"Ğ":219,"ğ":220,"Ġ":221,"ġ":222,"Ģ":223,"ģ":224,"Ĥ":225,"ĥ":226,"Ħ":227,"ħ":228,"Ĩ":229,"ĩ":230,"Ī":231,"ī":232,"Ĭ":233,"ĭ":234,"Į":235,"į":236,"İ":237,"ı":238,"Ĳ":239,"ĳ":240,"Ĵ":241,"ĵ":242,"Ķ":243,"ķ":244,"ĸ":245,"Ĺ":246,"ĺ":247,"Ļ":248,"ļ":249,"Ľ":250,"ľ":251,"Ŀ":252,"ŀ":253,"Ł":254,"ł":255,"Ń":256,"ĠĠ":257,"ĠĠĠĠ":258,"ĠĠĠĠĠĠĠĠ":259,"00":260,"ĠĠĠ":261,"--":262,"Ġ3":263,"Ġ$":264,"Ġ00":265,"ĊĠĠĠ":266,"----":267,"Ġ0":268,"Ġ%":269,"mo":270,"in":271,"mov":272,"ĠĠĠĠĠĠĠĠĠĠĠĠĠĠĠĠ":273,"10":274,"**":275,"es":276,"Ġa":277,"ĠĠĠĠĠĠĠ":278,"ea":279,"or":280,"%%":281,"al":282,"==":283,"te":284,"Ġ1":285,"80":286,"Ġ;":287,"Ġs":288,"Ġc":289,"re":290,"ff":291,"Ġp":292,"--------":293,"dd":294,"ĠĠĠĠĠ":295,"Ġd":296,"mm":297,"on":298,"Ġ5":299,"Ġt":300,"en":301,"ĉĉ":302,"op":303,"Ġ2":304,"Ġ4":305,"ed":306,"ĊĠ":307,"Ġ(":308,"****":309,"Ġb":310,"er":311,"st":312,",%":313,"Ġf":314,"ec":315,"Ġr":316,"eb":317,"eax":318,"us":319,"ĊĠĠĠĠĠĠĠ":320,";;":321,"%%%%":322,"mp":323,"8010":324,"xmm":325,"Ġ'":326,"it":327,"12":328,"Ġ[":329,"(%":330,"at":331,"ld":332,"lo":333,"ra":334,"Ġ<":335,"====":336,"Ġmov":337,"se":338,"Ġm":339,"add":340,"0000":341,"ush":342,"Ġ=":343,"11":344,"all":345,"ĠĠĠĠĠĠĠĠĠĠĠĠĠ":346,"Ġi":347,"ar":348,"ĊĠĠĠĠĠĠĠĠ":349,"':":350,"OR":351,"ĊĊ":352,"ĠD":353,"le":354,"16":355,"de":356,"ĠF":357,"an":358,"----------------":359,"Ġth":360,"tr":361,",$":362,"Ġn":363,"si":364,"Ġ32":365,"Ġ34":366,"int":367,"ebp":368,"ĠP":369,"ĠS":370,"Ġ8":371,"di":372,"ĠĠĠĠĠĠ":373,"push":374,"),":375,"********":376,"Ċĉ":377,"ĠĠĠĠĠĠĠĠĠĠĠĠĠĠĠĠĠĠĠ":378,"et":379,"Ġ36":380,"Ġ33":381,"13":382,"000":383,"14":384,"ĠA":385,"un":386,"Ġe":387,"Ġ7":388,"Ġ-":389,"call":390,"ĠC":391,"15":392,"ter":393,"32":394,"ĠE":395,"Ġo":396,"Ġthe":397,"Ġ#":398,"me":399,"ret":400,"edx":401,"Ġadd":402,"Ġw":403,"20":404,"nop":405,"ro":406,"64":407,"%%%%%%%%":408,"lea":409,"ch":410,"ub":411,"esp":412,"ON":413,"ion":414,"Ġ58":415,"IN":416,"ck":417,"Ġin":418,"ut":419,";;;;":420,"ul":421,"83":422,"sp":423,"Ġ6":424,"ĠĠĠĠĠĠĠĠĠ":425,"Ġv":426,"89":427,"esi":428,"],":429,"Ġ.":430,"),%":431,"ĠĠĠĠĠĠĠĠĠĠ":432,"ORD":433,"ess":434,"la":435,"Ġ+":436,");":437,"WORD":438,"24":439,"========":440,"ing":441,"Ġ*":442,"ri":443,"ĠR":444,"ur":445,"ebx":446,"Ġ10":447,"TR":448,"Ġh":449,"ĠL":450,"Ġff":451,"85":452,"Ġ39":453,"01":454,"Ġto":455,"Ġ_":456,"Ġ,":457,"ent":458,"Ġar":459,"AT":460,"ic":461,"db":462,"25":463,"##":464,"rc":465,"//":466,"40":467,"17":468,"ĠT":469,"AL":470,"pop":471,"ta":472,"ig":473,"yte":474,"Ġarg":475,"ine":476,"19":477,"Ġ\"":478,"ĠB":479,"ĊĠĠĠĠĠĠĠĠĠĠĠĠĠĠĠ":480,"ecx":481,"is":482,"02":483,"ĠM":484,"ress":485,"ex":486,"ord":487,"DE":488,"as":489,"el":490,"ST":491,"55":492,"xor":493,"30":494,"18":495,"edi":496,"FF":497,"Ġ:":498,"Ġl":499,"90":500,"ame":501,"ze":502,"ad":503,"Ġ45":504,"ffff":505,"ct":506,"Ġld":507,"Ġj":508,"Ġ35":509,"ĠU":510,"dw":511,"ER":512,"Ġxmm":513,"Ġif":514,"est":515,"ĊĠĠĠĠ":516,"ax":517,"and":518,"Ġof":519,"RE":520,"****************":521,"Ġ38":522,"um":523,"nd":524,"sub":525,"pe":526,"con":527,"..":528,"ect":529,"Ġ37":530,"60":531,"--------------------------------":532,"EN":533,"rb":534,"68":535,"28":536,"up":537,"34":538,"cmp":539,"ĉĉĉĉ":540,"id":541,"il":542,"ve":543,"ty":544,"ht":545,"SE":546,"OP":547,"ow":548,"AD":549,"end":550,"ce":551,"def":552,"29":553,"dx":554,"56":555,"ĠI":556,"ot":557,"27":558,"50":559,"alse":560,"->":561,"rint":562,"Ġ{":563,"ile":564,"Ġdb":565,"Ġfor":566,"48":567,"ol":568,"23":569,"%%%%%%%%%%%%%%%%":570,"ĠFalse":571,"byte":572,"ĠĠĠĠĠĠĠĠĠĠĠĠĠĠĠĠĠĠĠĠĠĠĠĠĠĠĠĠĠĠĠĠ":573,"Ġal":574,"__":575,"100":576,"26":577,"Ġ|":578,")(%":579,"ĠN":580,"resses":581,"Ġ9":582,"Ġx":583,"03":584,"ab":585,"qu":586,";;;;;;;;":587,"ne":588,"',":589,"ĊĠĠ":590,"ead":591,"AR":592,"ĊĠĠĠĠĠ":593,"ma":594,"ONG":595,"74":596,"ĠPTR":597,"ĠFF":598,"LONG":599,",-":600,"39":601,"ĠULONG":602,"Ġret":603,"ate":604,"75":605,"hl":606,"ror":607,"36":608,"DWORD":609,"ru":610,"xc":611,"Ġ(%":612,"ge":613,"Ġeax":614,"DW":615,"44":616,"ata":617,"RO":618,"Ċĉĉ":619,"35":620,"Ġand":621,"mul":622,"66":623,"70":624,"ALL":625,"================":626,"Ġ01":627,"($":628,"ĠO":629,"Ġ26":630,"size":631,"rax":632,"Ġre":633,"Ġmovd":634,"38":635,"Ġ54":636,"li":637,"urn":638,"rdi":639,">:":640,"Ġg":641,"TE":642,"ps":643,"ymm":644,"Ġco":645,"99":646,"OV":647,"set":648,"ys":649,"78":650,"cc":651,"Ġch":652,"22":653,"Ġ16":654,"76":655,"Ġis":656,"if":657,"bl":658,"word":659,"####":660,"Ġpush":661,"rcx":662,"co":663,"SI":664,"04":665,"jmp":666,"type":667,"rsi":668,"DI":669,"Ġ08":670,"In":671,"Ġ80":672,"88":673,"LO":674,"Ġ04":675,"th":676,"inc":677,"dc":678,"lock":679,"ign":680,"ĠH":681,"AG":682,"loc":683,"ip":684,"ĠĠĠĠĠĠĠĠĠĠĠĠĠĠĠ":685,"ND":686,"os":687,"Ġ24":688,"ĠDW":689,"79":690,"MP":691,"FI":692,"TI":693,"ext":694,"SP":695,"define":696,"Ġ8010":697,"xt":698,"ĠG":699,"art":700,"ĠĠĠĠĠĠĠĠĠĠĠĠ":701,"ĠĠĠĠĠĠĠĠĠĠĠ":702,"Ġ==":703,"Ġ52":704,"ue":705,"rite":706,"ation":707,"Ġ40":708,"Ġst":709,"CALL":710,"Ġ&":711,"33":712,"Ġ51":713,"ke":714,"Ġde":715,"54":716,"sh":717,"sr":718,"Ġsta":719,"ix":720,"Ġ}":721,"print":722,"ĊĊĠĠĠ":723,"AV":724,"fd":725,"84":726,"Ġbe":727,"str":728,"@@":729,"rdx":730,"ore":731,"AC":732,"LE":733,"96":734,"rbp":735,"Ġint":736,"){":737,"Ġ44":738,"++":739,"Ġreturn":740,"Ġex":741,"test":742,"ap":743,"128":744,"IT":745,"AM":746,"Ġcall":747,"Ġ$(":748,"Ġsw":749,"ort":750,"rsp":751,"sl":752,"Ġhl":753,"31":754,"77":755,"roc":756,"Ġpadd":757,"fa":758,"Ġ__":759,"MM":760,"21":761,"::":762,"rror":763,"53":764,"Ġec":765,"ADD":766,"dq":767,"movl":768,"06":769,"05":770,"nt":771,"rbx":772,"ĠST":773,"align":774,"08":775,"Ġsub":776,"ector":777,"ase":778,"ĠX":779,"uf":780,"im":781,"DB":782,"same":783,"ind":784,"Ġcon":785,"Ġor":786,"gru":787,"gruent":788,"AS":789,"72":790,"58":791,"NT":792,"addresses":793,"Ġ{'":794,"congruent":795,"59":796,"are":797,"ĉĉĉ":798,"EC":799,"80100":800,"80104":801,"Ġ20":802,"std":803,"Ġ12":804,"Ġ%%":805,"ree":806,"loop":807,"Ġaddi":808,"ĠW":809,"Ġstr":810,"ir":811,"src":812,"out":813,"CO":814,"ĊĊĠĠĠĠĠĠĠ":815,"text":816,"ver":817,"37":818,"ĊĠĠĠĠĠĠĠĠĠĠĠĠ":819,"ĠError":820,"cx":821,"put":822,"ĠĠĠĠĠĠĠĠĠĠĠĠĠĠ":823,"********************************":824,"uff":825,"Ġ//":826,"sys":827,"69":828,"Ġ2685":829,"ction":830,"one":831,"attr":832,"Ġsi":833,"able":834,"ĊĊĠ":835,"be":836,"Ġaddresses":837,"Nt":838,"49":839,"und":840,"PU":841,"ĊĠĠĠĠĠĠĠĠĠĠĠĠĊĠĠĠĠĠĠĠĠĠĠĠĠĠĠĠ":842,"LD":843,"ment":844,"57":845,"pt":846,"ffset":847,"ith":848,"xffff":849,"09":850,"ave":851,"{'":852,"Ġdi":853,"ry":854,"=\"":855,"Ġby":856,"07":857,"Ġax":858,"bp":859,"Ġz":860,"je":861,"ptr":862,"dst":863,"86":864,"rea":865,"ber":866,"Ġdw":867,"(\"":868,"oid":869,"lu":870,"ack":871,"Ġbyte":872,"dwattr":873,"tra":874,"Ġpop":875,"Ġsh":876,"AN":877,"LL":878,"its":879,"orm":880,"Ch":881,"EX":882,"Ġptr":883,"AB":884,"52":885,"data":886,"Ġset":887,";;;;;;;;;;;;;;;;":888,"eck":889,"Ġsp":890,"uffer":891,"Ġ#$":892,"80106":893,"Ġ>":894,"Ġ11":895,"Ġ46":896,"Ġwh":897,"move":898,"ĠIN":899,"eg":900,"dec":901,"alue":902,"printf":903,"46":904,"SH":905,"ROC":906,"bc":907,"bx":908,"ss":909,"%%%%%%%%%%%%%%%%%%%%%%%%%%%%%%%%":910,"glo":911,"))":912,"Ġ15":913,"ted":914,"lay":915,"MOV":916,"Ġ14":917,"ĠMOV":918,",[":919,"ED":920,"cl":921,"dif":922,"of":923,"\",":924,"get":925,"Ġ8000":926,"unt":927,"IC":928,"age":929,"ara":930,"ial":931,"no":932,"ĠV":933,"AVX":934,"ca":935,"Co":936,"ĊĠĠĠĠĠĠĠĠĠĠĠ":937,"tem":938,"sion":939,"00000000":940,"CH":941,"char":942,"low":943,"em":944,"load":945,"TER":946,"cd":947,"ser":948,",(%":949,"73":950,"Ġen":951,"rep":952,"jne":953,"ĠĊ":954,"sw":955,"Ġmm":956,"Ġedx":957,"res":958,"########":959,"vp":960,"ee":961,"Ġxor":962,"ET":963,"Ġjmp":964,"},":965,"Ġymm":966,"ES":967,"umber":968,"lag":969,"inter":970,"Ġ!":971,"ĠEND":972,"DD":973,"iz":974,"80105":975,"ĠJ":976,"Ġchar":977,"read":978,"QWORD":979,"?$":980,"opy":981,"âĶ":982,"indow":983,"QU":984,"ult":985,"ly":986,"Ġnot":987,"45":988,"lab":989,"line":990,"rom":991,"bj":992,"Ġus":993,"asm":994,"Ġwith":995,"ill":996,"TAG":997,"ĠLD":998,"Ġpaddq":999,"ition":1000,"97":1001,"42":1002,"ENT":1003,"Lo":1004,"Ġ02":1005,"ĠOR":1006,"ister":1007,"ac":1008,"================================":1009,"Ġreg":1010,"const":1011,"Ġprint":1012,"Ġ03":1013,"ĊĠĠĠĠĠĠĠĠĠĠĠĠĠĠĠĠ":1014,"ĠPROC":1015,"Ġon":1016,"98":1017,"UT":1018,"AVXalign":1019,"Ġbc":1020,"Ġmo":1021,"xff":1022,"Ġio":1023,"ef":1024,"/>":1025,"om":1026,"Ġres":1027,"arg":1028,"ist":1029,"xf":1030,"----------------------------------------------------------------":1031,"ds":1032,"Ġit":1033,"ran":1034,"RI":1035,"SY":1036,"aa":1037,"92":1038,"Ġrax":1039,"ĠCON":1040,"ADDR":1041,"xffffff":1042,"ĠENDP":1043,"addi":1044,"47":1045,"Ġpo":1046,"ĠĠĠĠĊ":1047,"((":1048,"SR":1049,"Ġy":1050,"81":1051,"87":1052,"63":1053,"ĠTh":1054,"Ġend":1055,"Ġcmp":1056,"bb":1057,"ĠĠĠĠĠĠĠĠĠĠĠĠĠĠĠĠĠ":1058,"SET":1059,"endif":1060,"ink":1061,"Ġsize":1062,"CL":1063,"ĠDWORD":1064,"Ġ@":1065,"name":1066,"65":1067,"void":1068,"Ġecx":1069,"Ġas":1070,"ound":1071,"Get":1072,"1000":1073,"94":1074,"enter":1075,"82":1076,"DAT":1077,"Ġmovq":1078,"St":1079,"STR":1080,"unction":1081,"ĠIn":1082,"âĶĤ":1083,"ml":1084,"Ġ48":1085,",#":1086,"000000":1087,"00000":1088,"gn":1089,"cp":1090,"95":1091,",(":1092,"lq":1093,"BR":1094,"Ġ56":1095,"Ġbit":1096,":[":1097,"EF":1098,"Ġinc":1099,"movz":1100,"Ġvp":1101,"AX":1102,"proc":1103,"xa":1104,"mt":1105,"Ġthis":1106,"EL":1107,"ou":1108,"ong":1109,"own":1110,"alloc":1111,"Ġvalue":1112,"Ġq":1113,"\"/>":1114,"Ġ000":1115,"label":1116,"}}":1117,"raw":1118,"Set":1119,"lude":1120,"AA":1121,"....":1122,"reg":1123,"Ġlea":1124,"cro":1125,"51":1126,"41":1127,"62":1128,"END":1129,"ZE":1130,"43":1131,"Ġword":1132,"80103":1133,"bal":1134,"Ġan":1135,"??":1136,"mem":1137,"STOR":1138,"our":1139,"Ġout":1140,"Ġmova":1141,"ask":1142,"am":1143,"ant":1144,"67":1145,"Ġu":1146,"ĠDB":1147,"80102":1148,"Ġ13":1149,"ok":1150,"fc":1151,"xb":1152,"ORT":1153,"();":1154,"93":1155,"write":1156,"CC":1157,"BL":1158,"TION":1159,"iy":1160,"tes":1161,"af":1162,"1111":1163,"Ġ800":1164,"Ġfrom":1165,"LN":1166,"xe":1167,"ble":1168,"Ġwe":1169,"Ġpsr":1170,"len":1171,"Ġrcx":1172,"include":1173,"Ġbp":1174,"////":1175,"Ġadc":1176,"Ġdword":1177,"cre":1178,"ight":1179,"ait":1180,"Ġlda":1181,"Ġ05":1182,"Ġ49":1183,"vector":1184,"Ġat":1185,"\");":1186,"Ġcode":1187,"indows":1188,"Ġ/":1189,"ID":1190,"XMM":1191,"sd":1192,"User":1193,"IG":1194,"Ġ18":1195,"Gdi":1196,"---":1197,"].":1198,"ere":1199,"80101":1200,"Ġ30":1201,"Ġdx":1202,"ero":1203,"Ġaddress":1204,"lw":1205,"\")":1206,"61":1207,"td":1208,"FIG":1209,"$[":1210,"dir":1211,"Ġne":1212,"Ġpmul":1213,"Ġ64":1214,"127":1215,"SIZE":1216,"ba":1217,"OS":1218,"Ġ);":1219,"div":1220,"Ġnumber":1221,"Ġebx":1222,"Ġ17":1223,"OT":1224,"Ġdata":1225,"main":1226,"ear":1227,"dl":1228,"error":1229,"stat":1230,"windows":1231,"try":1232,"ph":1233,"dex":1234,"Con":1235,"global":1236,"FILL":1237,"Ġel":1238,"bject":1239,"jr":1240,"ti":1241,"ĠY":1242,"sb":1243,"ĠLo":1244,"ath":1245,"file":1246,"unk":1247,"creen":1248,"Ġma":1249,"ĠSTD":1250,"Ġstack":1251,"Text":1252,"traps":1253,"Ġ76":1254,"UR":1255,"SYS":1256,"ĠCONFIG":1257,"sysenter":1258,"Ġdl":1259,"ormal":1260,"Ġ41":1261,"Ġfd":1262,"unp":1263,"stdcall":1264,"Ġaltd":1265,"UB":1266,"ĠNt":1267,"Ġno":1268,"log":1269,"tern":1270,"Ġdo":1271,"YTE":1272,"eader":1273,"esc":1274,"ll":1275,"atch":1276,"ard":1277,"Ġ90":1278,"Ġds":1279,"xd":1280,"ĠSTDCALL":1281,"ption":1282,"ms":1283,"Ġ60":1284,"sign":1285,"ep":1286,"Ġall":1287,"Ġoffset":1288,"71":1289,"ĠĠĠĠĠĠĠĠĠĠĠĠĠĠĠĠĠĠĠĠ":1290,"Ġget":1291,"Str":1292,"Ġ\\":1293,"imp":1294,"eiz":1295,"Ġfa":1296,"91":1297,"pp":1298,"Ġbx":1299,"md":1300,"Ġregister":1301,"unpck":1302,"SC":1303,"od":1304,"AP":1305,"osition":1306,"ING":1307,"ĠĠĠĠĠĠĠĠĠĠĠĠĠĠĠĠĠĠ":1308,"init":1309,"Ċĉĉĉĉ":1310,"Ġ75":1311,"ĊĠĊĠĠĠ":1312,"Ġfile":1313,"Ġ;;":1314,"LOAD":1315,"Ġk":1316,"stri":1317,"tmp":1318,"Ġpushl":1319,"ĊĊĉ":1320,"ument":1321,"256":1322,"ie":1323,"En":1324,"Ġmul":1325,"exit":1326,"lic":1327,"ump":1328,"equ":1329,"ust":1330,"Ġop":1331,"dqa":1332,"key":1333,"UC":1334,"Fh":1335,"fe":1336,"ĠEQU":1337,"pd":1338,"BRK":1339,"link":1340,"(*":1341,"av":1342,"Ġthat":1343,"ts":1344,"start":1345,"xml":1346,"Ġexit":1347,"udq":1348,"Ġpsrlq":1349,"urre":1350,"movdqa":1351,"nz":1352,"macro":1353,"*)":1354,"Ġ!=":1355,"UN":1356,"UM":1357,"Ġfc":1358,"EG":1359,"Ġ55":1360,"ĠSt":1361,"HE":1362,"Ġcx":1363,"Ġpro":1364,"Ġdec":1365,"buffer":1366,"Ġelse":1367,"bo":1368,"reate":1369,"urrent":1370,"ity":1371,"Ġ&&":1372,";----------------------------------------------------------------":1373,"string":1374,"offset":1375,"movzbl":1376,"];":1377,"Ġname":1378,"Ġup":1379,"ĠĊĠĠĠ":1380,"Ġbase":1381,"INT":1382,"hi":1383,"Ċĉĉĉ":1384,"ection":1385,"lear":1386,"lb":1387,"lags":1388,"ive":1389,"ĠFFC":1390,"TERN":1391,"SG":1392,"uct":1393,"010":1394,"rig":1395,"DATA":1396,"ĠLoad":1397,"cf":1398,"SS":1399,"Ġwhile":1400,"BC":1401,"NE":1402,"rk":1403,"US":1404,"to":1405,"red":1406,"Ġesp":1407,"Ġ28":1408,"PI":1409,"------------":1410,"OW":1411,"ode":1412,"RET":1413,"Ġ50":1414,"Ġ19":1415,"fo":1416,"ator":1417,"Ex":1418,"temp":1419,"Ġun":1420,"ĠĠĠĠĠĠĠĠĠĠĠĠĠĠĠĠĠĠĠĠĠ":1421,"Ġprintf":1422,"irst":1423,"lose":1424,"Ġare":1425,"movq":1426,"XT":1427,"112":1428,"OL":1429,"ulty":1430,"bit":1431,"nown":1432,"qa":1433,"xch":1434,"fb":1435,"Ġ27":1436,"'}":1437,"Ġ21":1438,"ae":1439,"Ġmovdqa":1440,"PE":1441,"stru":1442,"col":1443,"ler":1444,"DC":1445,"ft":1446,"Ġpunpck":1447,"ĠK":1448,"110":1449,"ure":1450,"ray":1451,"200":1452,"ram":1453,"Ġstate":1454,"po":1455,"ork":1456,"TH":1457,"rue":1458,"globl":1459,"state":1460,"au":1461,"Ġpointer":1462,"igh":1463,"Ġla":1464,"ib":1465,"Ġ25":1466,"ĠZ":1467,";*":1468,"ARG":1469,"Ġstring":1470,"ev":1471,"Ġequ":1472,"ag":1473,"LP":1474,"OF":1475,"rame":1476,"Ġĉ":1477,"ĠCB":1478,"Ġxm":1479,"CODE":1480,"mon":1481,"ice":1482,"ype":1483,"free":1484,"Ġproc":1485,"Ġ23":1486,"INDI":1487,"ĠDC":1488,"pb":1489,"IF":1490,"ĠHL":1491,"Ġrdx":1492,"Ġfree":1493,"Ġ74":1494,"ize":1495,"()":1496,"ide":1497,"gin":1498,"CON":1499,"ari":1500,"Ġpmuludq":1501,"ĠFFB":1502,"icen":1503,"not":1504,"ource":1505,"SYSCALL":1506,"bd":1507,"################":1508,"DEF":1509,"ĊĠĠĠĠĠĠĠĠĠ":1510,"Ġso":1511,"UP":1512,"____":1513,"normal":1514,"ĊĉĊ":1515,"mory":1516,"Name":1517,"sc":1518,"NtGdi":1519,"ĠCO":1520,"done":1521,"VI":1522,"buf":1523,"HL":1524,"nel":1525,"Ġes":1526,"do":1527,"Ġwrite":1528,"PL":1529,"Ġtest":1530,"code":1531,"UL":1532,"'s":1533,"XMMWORD":1534,"iv":1535,"ĠĠĠĠĠĠĠĠĠĠĠĠĠĠĠĠĠĠĠĠĠĠ":1536,"RT":1537,"Ġbytes":1538,"movd":1539,"gen":1540,"IM":1541,"WT":1542,").":1543,"Ġbuf":1544,"pushl":1545,"Th":1546,"AY":1547,"andle":1548,"BLIC":1549,"NOP":1550,"ixel":1551,"gth":1552,"map":1553,"PM":1554,"pc":1555,"enc":1556,"ĠDD":1557,"ĠThe":1558,"mf":1559,"Ġ78":1560,"Ġ($":1561,"Ġesi":1562,"wh":1563,"âĶĤâĶĤ":1564,"org":1565,",&":1566,"mple":1567,"Ġpre":1568,"rup":1569,"Ġver":1570,"Ġread":1571,"umn":1572,"ĠEX":1573,"Ġ31":1574,"table":1575,"ont":1576,"syscall":1577,"Ġfe":1578,"ĉĉĉĉĉ":1579,"note":1580,"Ġcp":1581,";;;;;;;;;;;;;;;;;;;;;;;;;;;;;;;;":1582,"EM":1583,"itial":1584,"ĠFFD":1585,"ĠTrue":1586,"ĠOp":1587,"right":1588,"ay":1589,"Ġnext":1590,"WC":1591,"Ġfunction":1592,"ECT":1593,"xchg":1594,"CB":1595,"Ġioi":1596,"****************************************************************":1597,"Ġioe":1598,"ang":1599,"ire":1600,"ull":1601,"addr":1602,"AVE":1603,"Ġaf":1604,"CT":1605,"tag":1606,"Ġblock":1607,"ĠĠĠĠĠĠĠĠĠĠĠĠĠĠĠĠĠĠĠĠĠĠĠĠĠ":1608,"form":1609,"0000000":1610,"Ġinto":1611,"Ġstart":1612,"use":1613,"Sp":1614,"Ġedi":1615,"beq":1616,"ACK":1617,"Ġdd":1618,"Ġ29":1619,"pres":1620,"cb":1621,"ĠĠĠĠĠĠĠĠĠĠĠĠĠĠĠĠĠĠĠĠĠĠĠĠĠĠĠĠĠĠĠ":1622,"ime":1623,"FFFF":1624,"To":1625,"layer":1626,"***":1627,"ĠĊĠĠĠĠĠĠĠ":1628,"Ġvector":1629,"1234":1630,"Ġ89":1631,"val":1632,"Ġposition":1633,"shr":1634,"ĠDEF":1635,"Ġ43":1636,"ank":1637,"bne":1638,"EXTERN":1639,"ups":1640,"else":1641,"ace":1642,"800":1643,"shl":1644,"120":1645,"102":1646,"FFSET":1647,"Ġle":1648,"lib":1649,"8000":1650,"INE":1651,"Ġlen":1652,"rt":1653,"080":1654,"Ġnop":1655,"count":1656,"ipc":1657,"CN":1658,"ug":1659,"../":1660,"ĠĠĠĠĠĠĠĠĠĠĠĠĠĠĠĠĠĠĠĠĠĠĠ":1661,"CTION":1662,"Ġput":1663,"Ġ07":1664,"escri":1665,"andler":1666,"Add":1667,"ĠTAG":1668,"kip":1669,"vent":1670,"arac":1671,"ary":1672,"mb":1673,"LAB":1674,"Ġvoid":1675,"ĠOF":1676,"aracter":1677,"Ġ--":1678,"ATE":1679,"ange":1680,"auipc":1681,"Ġpxor":1682,"leave":1683,"da":1684,"estore":1685,"IS":1686,"Ġ65":1687,"EB":1688,"mv":1689,"REG":1690,"Ġba":1691,"ĊĠĠĠĠĠĠ":1692,"RAM":1693,"ute":1694,"EA":1695,"Data":1696,"emory":1697,"AND":1698,"ADDRLP":1699,"Ġ?":1700,"KE":1701,"(&":1702,"Sta":1703,"Ġrsp":1704,"bf":1705,"NtUser":1706,"LDA":1707,"row":1708,"Ġsave":1709,"Ġ22":1710,"ach":1711,"Ġbuffer":1712,"Ġline":1713,"%%%%%%%%%%%%%%%%%%%%%%%%%%%%%%%%%%%%%%%%%%%%%%%%%%%%%%%%%%%%%%%%":1714,"MENT":1715,"Ġ84":1716,"Ġrdi":1717,"ĠSP":1718,"Ġ0000":1719,"ĊĊĠĠ":1720,"ĠTHE":1721,";;;":1722,"ain":1723,"Ġ06":1724,"pi":1725,"Ġ||":1726,"OUT":1727,"min":1728,"Ġstruct":1729,"essage":1730,"lda":1731,"so":1732,"emy":1733,"next":1734,"ĊĠĠĠĠĠĠĠĠĠĠĠĠĠĠĠĠĠĠĠ":1735,"Ġload":1736,"ĠCh":1737,"dword":1738,"Ġcopy":1739,"FL":1740,"++;":1741,"PC":1742,"unknown":1743,"Ġnew":1744,"adc":1745,"unc":1746,"go":1747,"vo":1748,"Ġuint":1749,"ĠAX":1750,"EP":1751,"Ġnz":1752,"UD":1753,"import":1754,"Check":1755,"Ġerror":1756,"pro":1757,"Ġcheck":1758,"open":1759,"terrup":1760,"Ġcl":1761,"movdqu":1762,"Ġ85":1763,"repare":1764,"xx":1765,"icense":1766,"LOB":1767,"Ġebp":1768,"BA":1769,"Ġjr":1770,"itch":1771,"TEXT":1772,"urs":1773,"FE":1774,"...":1775,"ĊĠĠĠĠĠĠĠĠĠĠĠĠĠĠĠĠĠĠĠĠĠĠĠ":1776,"tu":1777,"lui":1778,"wait":1779,"Ġconst":1780,"Ġcomp":1781,"ĠĠĠĠĠĠĠĠĠĠĠĠĠĠĠĠĠĠĠĠĠĠĠĠ":1782,"PUBLIC":1783,"Ġper":1784,"ĠAL":1785,"ĠGet":1786,"jal":1787,"ah":1788,"LOBAL":1789,"location":1790,"Ġah":1791,"Ġ>=":1792,"LOC":1793,"wl":1794,"Ġ80100":1795,"block":1796,"tle":1797,"Call":1798,"ass":1799,"ART":1800,"oft":1801,"Ġcan":1802,"IP":1803,"/*":1804,"String":1805,"dwtag":1806,"iles":1807,"rit":1808,"long":1809,"104":1810,"alltraps":1811,"lass":1812,"cal":1813,"movups":1814,"Ġcurrent":1815,"Ġcd":1816,"aes":1817,"enu":1818,"Mo":1819,"80107":1820,"Ġ70":1821,"nc":1822,"File":1823,"255":1824,"ĠDS":1825,"Ġ*/":1826,"ield":1827,"));":1828,"Ġ42":1829,"ĠCALL":1830,"Ġloop":1831,"Ġmem":1832,"pr":1833,"by":1834,"Loop":1835,"FC":1836,"ener":1837,"Ġsys":1838,"Ġrsi":1839,"////////":1840,"ĠSet":1841,"sta":1842,"unter":1843,"io":1844,"Ġ09":1845,"ey":1846,"df":1847,"lease":1848,"sll":1849,"eal":1850,"BYTE":1851,"malloc":1852,"ranch":1853,"uint":1854,"ĠEx":1855,"SL":1856,"')":1857,"ĠStore":1858,"Reg":1859,"per":1860,"arry":1861,"ĠThis":1862,"ns":1863,"imer":1864,"GLOBAL":1865,")*":1866,"wd":1867,"ĠFD":1868,"anic":1869,"BU":1870,"SEG":1871,"stride":1872,"ho":1873,"ift":1874,"Ġfirst":1875,"IL":1876,"Ġid":1877,"GP":1878,"Ġcol":1879,"reak":1880,"Ġ47":1881,"CD":1882,"BE":1883,"Ġmove":1884,"madd":1885,"fx":1886,"616":1887,"JMP":1888,"Ġwill":1889,"001":1890,"rel":1891,"ASS":1892,"FP":1893,"ĠSTA":1894,"FA":1895,"ATA":1896,"les":1897,"trol":1898,"Ġuse":1899,"pre":1900,")]":1901,"Ġpoint":1902,"Ġmask":1903,"tain":1904,"defb":1905,"cmpl":1906,"decl":1907,"prepare":1908,"Ġ+=":1909,"Ġversion":1910,"rans":1911,"Rst":1912,"ger":1913,"ĠAND":1914,"base":1915,"movb":1916,"Po":1917,"ĠAN":1918,"ĠIf":1919,"ell":1920,"Ġtra":1921,"Ġpsh":1922,"MO":1923,"Ġtmp":1924,"Ġjsr":1925,"date":1926,"Ġsrc":1927,"ĠQWORD":1928,"Ġdst":1929,"))+":1930,"ABLE":1931,"ther":1932,"CR":1933,"SHORT":1934,"EE":1935,"erv":1936,"Map":1937,"'t":1938,"ĠĊĠ":1939,"splay":1940,"ance":1941,"ors":1942,"ĠDE":1943,"Ġbegin":1944,"Ġ100":1945,"faulty":1946,"return":1947,"zero":1948,"Ġdis":1949,"nl":1950,"CNST":1951,"GE":1952,"attle":1953,"mit":1954,"Ġfreep":1955,"Ġzmm":1956,"192":1957,"Ġbl":1958,"voke":1959,"ĠMOVQ":1960,"SB":1961,"lpb":1962,"Ġcharacter":1963,"lpe":1964,"MA":1965,"Sc":1966,"Header":1967,"ĠDEFB":1968,"Ar":1969,"Ġ<-":1970,"SUB":1971,"ĊĠĠĠĠĠĠĠĠĠĠĠĠĠĠ":1972,"Ġalltraps":1973,"002":1974,"CE":1975,"Ġitem":1976,"ĠĠĠĠĠĠĠĠĠĠĠĠĠĠĠĠĠĠĠĠĠĠĠĠĠĠ":1977,"768":1978,"static":1979,"Ġqword":1980,"ĠBYTE":1981,")+":1982,"Al":1983,"outine":1984,"00007":1985,"INDIR":1986,"struct":1987,"rect":1988,"ict":1989,"End":1990,"Ġ26850":1991,"160":1992,"dio":1993,"ĊĊĊ":1994,"ĠTO":1995,"HT":1996,"FX":1997,"LI":1998,"ĠLDA":1999,"Ġsizeof":2000,"UDE":2001,"column":2002,"240":2003,"-----------":2004,"port":2005,"OM":2006,"extr":2007,"Ġ53":2008,"Ġenemy":2009,"ware":2010,"GN":2011,"Ġ66":2012,"save":2013,"mps":2014,"512":2015,"BIT":2016,"Ġany":2017,"111":2018,"ĠRET":2019,"ublic":2020,"IDE":2021,"ash":2022,"++){":2023,"[((":2024,"At":2025,"144":2026,"Object":2027,"Ġshort":2028,"num":2029,"ldr":2030,"364":2031,"ies":2032,"ĠnRst":2033,"ĠCo":2034,"comp":2035,"================================================================":2036,"108":2037,"my":2038,"........":2039,"Ġlow":2040,"mmand":2041,"PR":2042,"ĠĊĊ":2043,"oc":2044,"UE":2045,"004":2046,"Ġrbx":2047,"BP":2048,"CLUDE":2049,"iled":2050,"og":2051,"ĠPU":2052,"check":2053,"Ġmemory":2054,"0001":2055,"IGN":2056,"Ġkey":2057,"escription":2058,"URN":2059,"101":2060,"ish":2061,"rd":2062,"KEY":2063,"sy":2064,"Ġ<=":2065,"Sh":2066,"ULL":2067,"egment":2068,"Ġdiv":2069,"Ġinterrup":2070,"jalr":2071,"pic":2072,"jp":2073,"ĠLicense":2074,"stack":2075,"NO":2076,"REPM":2077,"ĠAR":2078,"Ġpaddw":2079,"Ġ83":2080,"ĠDI":2081,"Ġexp":2082,"Ġmode":2083,"ursor":2084,"lement":2085,"Ġzero":2086,"Key":2087,"++)":2088,"Ġ255":2089,"ĠEV":2090,"ui":2091,"alt":2092,"oftware":2093,"eturn":2094,"ake":2095,"Ġhigh":2096,"5535":2097,"Proc":2098,"No":2099,"rst":2100,"Ġhave":2101,"pxor":2102,"Un":2103,"0003":2104,"ESS":2105,"114":2106,"Ġdef":2107,"Ġval":2108,"rs":2109,"Res":2110,"SECTION":2111,"lip":2112,"her":2113,"Ġneed":2114,"Ġpmadd":2115,"TO":2116,"Ġasm":2117,"constant":2118,"OFFSET":2119,"SION":2120,"ĠADD":2121,"for":2122,"Ġpaddd":2123,"CF":2124,"xffffffff":2125,"RITE":2126,"gram":2127,"eam":2128,"Ġtable":2129,"Ġrow":2130,"ise":2131,"ref":2132,"arame":2133,"Ġbits":2134,"assign":2135,"264":2136,"Ġ73":2137,"ĠDATA":2138,"Ġoff":2139,"Ġmax":2140,"Ġback":2141,"Ġip":2142,"::::":2143,"PUT":2144,"fp":2145,"hing":2146,"ould":2147,"Ġ??":2148,"Ġone":2149,"116":2150,"STA":2151,"AGE":2152,"PORT":2153,"strc":2154,"ĠĠĠĠĠĠĠĠĠĠĠĠĠĠĠĠĠĠĠĠĠĠĠĠĠĠĠĠĠĠĠĠĠĠ":2155,"Ġbreak":2156,"arameter":2157,"fl":2158,"loat":2159,"Item":2160,"ĠCopy":2161,"strib":2162,"Ġea":2163,"ception":2164,"ten":2165,"chr":2166,"CA":2167,"123":2168,"124":2169,"CNSTI":2170,"unlink":2171,"Ġflag":2172,"BB":2173,"gt":2174,"Ġused":2175,"):":2176,"Ġfb":2177,"ick":2178,"ich":2179,"local":2180,"Ġdc":2181,"ĠĊĠĠĠĠĠĠĠĠĠĠĠĠĠĠĠĠĠĠĠ":2182,"515":2183,"ĠĠĠĠĠĠĠĠĠĠĠĠĠĠĠĠĠĠĠĠĠĠĠĠĠĠĠĠĠĠĠĠĠĠĠĠĠĠĠ":2184,"Ġlength":2185,"170":2186,"008":2187,"LOCK":2188,"Ġ72":2189,"ated":2190,"Ġap":2191,"AE":2192,"Ġacc":2193,"Ġinput":2194,"Ġ5678":2195,"jnz":2196,"AF":2197,"%%%%%%%%%%%%":2198,"Ġindex":2199,"ĠLO":2200,"signed":2201,"Ptr":2202,"ĊĠĠĠĠĠĠĠĠĠĠ":2203,"inal":2204,"Info":2205,"ERR":2206,"du":2207,"De":2208,"idth":2209,"dnl":2210,"Ġputc":2211,"Ġlist":2212,"106":2213,"preset":2214,"ADDRGP":2215,"copy":2216,";----------------------------------------------------------------------------":2217,"under":2218,"ĠĠĠĠĠĠĠĠĠĠĠĠĠĠĠĠĠĠĠĠĠĠĠĠĠĠĠĠĠĠ":2219,"com":2220,"Ġcount":2221,"105":2222,"vm":2223,"uments":2224,"176":2225,"------------------------------------------------":2226,"'},":2227,"pid":2228,"Ġregisters":2229,"ãģ":2230,"endmacro":2231,"180":2232,"IR":2233,"ĉĊ":2234,"tion":2235,"Ġab":2236,"COM":2237,"ci":2238,"sizeof":2239,"BX":2240,"Ġ___":2241,"Size":2242,"Create":2243,"fig":2244,"core":2245,"Class":2246,"Ġresult":2247,"||":2248,"mage":2249,"Ġrbp":2250,"ĠCH":2251,"units":2252,"Char":2253,"State":2254,"Qu":2255,"leep":2256,"125":2257,"Mon":2258,"~~":2259,"Ġ000000":2260,"emp":2261,"wn":2262,"ariable":2263,"136":2264,"ĠDX":2265,"Ġright":2266,"ers":2267,"seg":2268,"115":2269,"224":2270,"ĉĉĉĉĉĉĉĉ":2271,"cur":2272,"Ġ{:":2273,"PSE":2274,"ox":2275,"Ġpixel":2276,"Ġroutine":2277,"ĠPush":2278,"220":2279,"tent":2280,"354":2281,"OWN":2282,"MMWORD":2283,"ebug":2284,"TY":2285,"Ġ88":2286,"Out":2287,"DS":2288,"PO":2289,"For":2290,"Ġsegment":2291,"Table":2292,"000003":2293,"Buffer":2294,"TRY":2295,"Ġed":2296,"old":2297,"Ġthen":2298,"ond":2299,"COMM":2300,"Ġalign":2301,"Ġhere":2302,"Col":2303,"DIF":2304,"printint":2305,"Ġ'\\":2306,"Ġ63":2307,"ĠNtGdi":2308,"ĠCODE":2309,"sra":2310,"Ġbut":2311,"EQU":2312,"dt":2313,"RESS":2314,"annel":2315,"%%%%%%%%%%%%%%%%%%%%%%%%%%%%%%%%%%%%%%%%%%%%%%%%%%%%%%%%%%%%%%%%%%%%%%%%%%%%":2316,"jz":2317,"Ġmovu":2318,"ob":2319,"Ġ[$":2320,"Ġclear":2321,"************":2322,"river":2323,"Description":2324,"smps":2325,"Ġ->":2326,"Battle":2327,"168":2328,"=(":2329,"Ġunder":2330,"ldq":2331,"'){":2332,"140":2333,"ĠĠĠĠĠĠĠĠĠĠĠĠĠĠĠĠĠĠĠĠĠĠĠĠĠĠĠ":2334,"00024":2335,"SRC":2336,";****************************************************************":2337,"ollow":2338,"Ġneg":2339,"sq":2340,"103":2341,"ROM":2342,"raph":2343,"addq":2344,"gas":2345,"Initial":2346,"Ġjz":2347,"List":2348,"usic":2349,"extern":2350,"tep":2351,"ĠĠĠĠĠĠĠĠĠĠĠĠĠĠĠĠĠĠĠĠĠĠĠĠĠĠĠĠĠĠĠĠĠĠĠĠĠĠ":2352,"Ġtemp":2353,"pl":2354,"ĠCX":2355,"An":2356,"ĠAdd":2357,"bin":2358,"109":2359,"Ġother":2360,"126":2361,"DX":2362,"ĠÐ":2363,"ernel":2364,"value":2365,"movs":2366,",\"":2367,"Ġflags":2368,"Ġentry":2369,"ark":2370,"DER":2371,"ĠCMP":2372,"ARE":2373,"sic":2374,"Load":2375,"Ġstore":2376,"close":2377,"addd":2378,"cmd":2379,"Ġjp":2380,"mask":2381,"tel":2382,"Fa":2383,"Ġmovdqu":2384,"TMP":2385,"por":2386,"400":2387,"Ġpsub":2388,"Comp":2389,"';":2390,"Ġac":2391,"RA":2392,"118":2393,"zx":2394,"atus":2395,"CODER":2396,"119":2397,"Ġdig":2398,"Ġ***":2399,"Ġ68":2400,"Obj":2401,"ufb":2402,"ution":2403,"Tra":2404,"exec":2405,"ĠNo":2406,"vert":2407,"Ġ...":2408,"Ġopen":2409,"ĠBE":2410,"107":2411,"Ġtw":2412,"Ġror":2413,"Ġobject":2414,"EXT":2415,"section":2416,"Type":2417,"back":2418,"Ġspec":2419,"lh":2420,"clr":2421,"pos":2422,"math":2423,"ĠFOR":2424,"strideq":2425,"movw":2426,"cs":2427,"msg":2428,"Ġgo":2429,"STAT":2430,"ilter":2431,"Ġprevp":2432,"dr":2433,"sec":2434,"AME":2435,"Re":2436,"184":2437,"ĠSI":2438,"vel":2439,"SEGMENT":2440,"130":2441,"Ġfollow":2442,"ence":2443,"ifdef":2444,"_,":2445,"ĠAH":2446,"psr":2447,"IST":2448,"Ġbne":2449,"Code":2450,"Ġover":2451,"ALIGN":2452,"uw":2453,"@@@":2454,"Ġ<<":2455,"lete":2456,"150":2457,"used":2458,"OB":2459,"SD":2460,"Ġsu":2461,"jsr":2462,"led":2463,"Ġca":2464,"656":2465,"ROW":2466,"ITY":2467,"Ġmore":2468,"ASGN":2469,"RETURN":2470,"ĠâĶĤâĶĤ":2471,"Ġscreen":2472,"max":2473,"113":2474,"quire":2475,"MUL":2476,"buffers":2477,"ĠEVENT":2478,"PUSH":2479,"Ġwhich":2480,"ĉĉĉĉĉĉĉ":2481,"Mem":2482,"âĸ":2483,"Ġcc":2484,"TIM":2485,"ĠSH":2486,"mbol":2487,"INCLUDE":2488,"rev":2489,"Ġwas":2490,"Ġsource":2491,"list":2492,"arse":2493,"invoke":2494,"ines":2495,"Ġtext":2496,"index":2497,"ENDS":2498,"Ġ#-":2499,"Op":2500,"Block":2501,"Ġ----------------------------------------------------------------":2502,"ory":2503,"Ġnunits":2504,"ĊĠĠĠĊĠĠ":2505,"sse":2506,"Ġcom":2507,"Ġmust":2508,"800000":2509,"callee":2510,"imes":2511,"INDIRP":2512,"Start":2513,"Ġsc":2514,"ĠĠĠĊ":2515,"REF":2516,"<<":2517,"Entry":2518,"Write":2519,"ION":2520,"ĠEN":2521,"CX":2522,"croll":2523,"Ġprocess":2524,"006":2525,"pg":2526,"addl":2527,"mode":2528,"eq":2529,"mflo":2530,"ript":2531,"PROC":2532,"@_":2533,"rop":2534,"Ġpart":2535,"TS":2536,"ache":2537,"alc":2538,"Ġhas":2539,"320":2540,"Ġsign":2541,"Ġapp":2542,"Ġpri":2543,"erved":2544,"oot":2545,"Ġicount":2546,"!!":2547,"129":2548,"dev":2549,"create":2550,"pdate":2551,"pal":2552,"117":2553,"Ġje":2554,"GET":2555,"Ġcase":2556,"dstq":2557,"Ġtype":2558,"mfhi":2559,"------":2560,"Date":2561,"Ġcarry":2562,"Init":2563,"IX":2564,"Ġaddr":2565,"156":2566,"neg":2567,"Ġpack":2568,"etch":2569,"ĠMSG":2570,"oy":2571,"(*$":2572,"Ġfailed":2573,"ldff":2574,"384":2575,"LINE":2576,"Ġqu":2577,"VER":2578,"ĠHI":2579,"Ġ((":2580,"ENTRY":2581,"ĠIntel":2582,"Pro":2583,"ĠâĶĤ":2584,"Dd":2585,"Ġmovl":2586,"err":2587,"abel":2588,"ume":2589,"FD":2590,"ĠĠĠĠĠĠĠĠĠĠĠĠĠĠĠĠĠĠĠĠĠĠĠĠĠĠĠĠĠĠĠĠĠĠĠ":2591,"0002":2592,"BD":2593,"ical":2594,"oken":2595,"Ġlog":2596,"mult":2597,"________":2598,"Ġ)":2599,"sa":2600,"ĠIS":2601,"ĉĉĉĉĉĉ":2602,"Count":2603,"Ġleft":2604,"near":2605,"sole":2606,"round":2607,"dbw":2608,"PTR":2609,"LABEL":2610,"Menu":2611,"Ġoutput":2612,"Inst":2613,"br":2614,"ultip":2615,"rement":2616,"struction":2617,"UND":2618,"ative":2619,"Ġ61":2620,"ton":2621,"ĠRE":2622,"0100":2623,"152":2624,"sg":2625,"ied":2626,"ud":2627,"Ġjump":2628,"Ġpanic":2629,"roup":2630,"ĠNtUser":2631,"sz":2632,"ĠBC":2633,"skip":2634,"Ġ80105":2635,"cles":2636,"fault":2637,"ues":2638,"Ġdraw":2639,"Ġlast":2640,"cpu":2641,"SM":2642,"ĠDo":2643,"Ġter":2644,"DO":2645,"PASS":2646,"mk":2647,"gets":2648,"Ġ80000":2649,"ĠCheck":2650,"ĠANY":2651,"ĠINC":2652,"*/":2653,"fork":2654,"Ġhalt":2655,"top":2656,"movzx":2657,"IO":2658,"204":2659,"122":2660,"lot":2661,"INIT":2662,"ined":2663,"eff":2664,"MU":2665,"Ġonly":2666,"Ġsec":2667,"ONE":2668,"CP":2669,"ĠĠĠĠĠĠĠĠĠĠĠĠĠĠĠĠĠĠĠĠĠĠĠĠĠĠĠĠ":2670,"208":2671,"Ġpunpckh":2672,"lne":2673,"185":2674,"MD":2675,"TX":2676,"inst":2677,"addiu":2678,"Ġ96":2679,"132":2680,"Ġpage":2681,"INDIRI":2682,"ĠSub":2683,"app":2684,"ery":2685,"LOW":2686,"acc":2687,"DEC":2688,"ĠĠĠĠĠĠĠĠĠĠĠĠĠĠĠĠĠĠĠĠĠĠĠĠĠĠĠĠĠĠĠĠĠĠĠĠĠĠĠĠĠĠ":2689,"dition":2690,"=-":2691,"tin":2692,"ract":2693,"Window":2694,"Ġ128":2695,"far":2696,"ower":2697,"148":2698,"4000":2699,"ĠPrint":2700,"OY":2701,"CMP":2702,"134":2703,"139":2704,"des":2705,",'":2706,"Ġshr":2707,":\\":2708,"Ġhandle":2709,"Ġmay":2710,"COMMENT":2711,"ĠBY":2712,"eight":2713,"formation":2714,"register":2715,"Ġ59":2716,"Ġwait":2717,"ĠNO":2718,"137":2719,"va":2720,"REVI":2721,"ka":2722,"00020":2723,"138":2724,"FFECT":2725,"ĠNULL":2726,"ĠPUSH":2727,"xy":2728,"Ġvol":2729,"Ġarray":2730,"Di":2731,"ĠSave":2732,"232":2733,"ori":2734,"arget":2735,"Ġda":2736,"ASK":2737,"eth":2738,"9999":2739,"oly":2740,"Ġ'%":2741,"psh":2742,"Draw":2743,"0300":2744,"lace":2745,"endp":2746,"Ġ57":2747,"ĠScreen":2748,"FB":2749,"Ġyou":2750,"adca":2751,"################################":2752,"ĠSUB":2753,"ĠFL":2754,"EXP":2755,"UG":2756,"Ġjnz":2757,"Handler":2758,"Ġ00000000":2759,"FFE":2760,"ĠFunction":2761,"Message":2762,"164":2763,"ITE":2764,"pixel":2765,"NU":2766,"sm":2767,"bro":2768,"Ġnum":2769,"26364":2770,"STORY":2771,"Ġrl":2772,"Do":2773,"Id":2774,"erm":2775,"ww":2776,"007":2777,"61626364":2778,"TW":2779,"1010":2780,"MSG":2781,"thi":2782,"196":2783,"arm":2784,"POP":2785,"ĉĉĠĠĠĠĠĠĠ":2786,"ĊĊĊĊ":2787,"lan":2788,"Ġspace":2789,"Sys":2790,"putc":2791,"ĠHISTORY":2792,"505":2793,"var":2794,"194":2795,"Ġinterrupt":2796,"mtlo":2797,"Ðµ":2798,"gsl":2799,"rypt":2800,"Ġli":2801,"mthi":2802,"SIZEOF":2803,"REVISION":2804,"Ġfollowing":2805,"121":2806,"draw":2807,"SIC":2808,"csl":2809,"ĠIF":2810,"Ð°":2811,"003":2812,"ĠPR":2813,"ual":2814,"strchr":2815,"ected":2816,"ĊĠĠĠĠĠĠĠĠĠĠĠĠĠĠĠĠĠĠĠĠĠĠĠĠĠĠĠĠĠĠĠĠ":2817,"LC":2818,"Not":2819,"135":2820,"new":2821,"ĠFile":2822,"216":2823,"Ġlo":2824,"145":2825,"Frame":2826,"sel":2827,"Ġshould":2828,"mod":2829,"ĠPOP":2830,"ethod":2831,"Ġ102":2832,"Line":2833,"Ġrestore":2834,"020":2835,"teger":2836,"INC":2837,"Ġ123":2838,"fh":2839,"189":2840,"Ġad":2841,"TEST":2842,"ĠLG":2843,"Ġ62":2844,"Ġ80104":2845,"250":2846,"ics":2847,"ato":2848,"Ġport":2849,"565":2850,"ĠPRO":2851,"js":2852,"SA":2853,"Ġbeq":2854,"allocator":2855,"ning":2856,"flush":2857,"func":2858,"COMDAT":2859,"jle":2860,"Bit":2861,"bytes":2862,"290":2863,"009":2864,"ific":2865,"lit":2866,"146":2867,"TYPE":2868,"fs":2869,"Ġclose":2870,"pgdir":2871,"ail":2872,"ew":2873,"Ġrep":2874,"aesenc":2875,"Ġ71":2876,"aps":2877,"ĠRes":2878,"169":2879,"Ġ/*":2880,"ĊĠĠĠĠĊĠĠĠ":2881,"unlock":2882,"Ġtime":2883,"154":2884,"018":2885,"anim":2886,"Ġwhen":2887,"Ġwrit":2888,"ting":2889,"Ġstd":2890,"last":2891,"Ġsyscall":2892,"off":2893,"span":2894,"Ġcounter":2895,"Ġ67":2896,"ENDIF":2897,"SW":2898,"broadca":2899,"mitted":2900,"Ġpos":2901,"])":2902,"Ġaes":2903,"ufd":2904,"149":2905,"Error":2906,"Ġix":2907,"177":2908,"aram":2909,"199":2910,"ĠTH":2911,"Ġef":2912,"SIS":2913,"254":2914,"ĠCopyright":2915,")/":2916,"LY":2917,"rts":2918,"jb":2919,"Dec":2920,"Ġstrict":2921,"order":2922,"ffffffff":2923,"Ġ`":2924,"147":2925,"000002":2926,"ANK":2927,"ĉĠ":2928,"Ġshl":2929,"strcmp":2930,"ATION":2931,"Move":2932,"function":2933,"Ġ97":2934,"big":2935,"758":2936,"Ġnow":2937,"Handle":2938,"begin":2939,"atile":2940,"143":2941,"eh":2942,"Thread":2943,"ARR":2944,"Ġfmt":2945,"Ġexec":2946,"tt":2947,"eat":2948,"Ġnon":2949,"Ġdest":2950,"oto":2951,"ĠBX":2952,"ACE":2953,"Ġ****":2954,"NZ":2955,"Ġ86":2956,"ĠEFFECT":2957,"234":2958,"Mode":2959,"rip":2960,"Ġ77":2961,"Ġos":2962,"strlen":2963,"valid":2964,"AIN":2965,"ched":2966,"Ġsup":2967,"ãĥ":2968,"FIL":2969,"rr":2970,"Ġpand":2971,"BLOCK":2972,"dh":2973,"time":2974,"Ġcb":2975,"GB":2976,"START":2977,"Read":2978,"183":2979,"ĠData":2980,"225":2981,"Event":2982,"ĠBA":2983,"ĠTR":2984,"ast":2985,"280":2986,"exp":2987,"Ġinitial":2988,"cm":2989,"Ġ>>":2990,"159":2991,"left":2992,"Ġ69":2993,"ORM":2994,"ĠINT":2995,"Ġform":2996,"USE":2997,"yn":2998,"157":2999,"bits":3000,"kemon":3001,"304":3002,"Ġpres":3003,"sbrk":3004,"Player":3005,"=-=-":3006,"Copy":3007,"288":3008,"158":3009,"DESTR":3010,"DECODER":3011,"Ġeb":3012,"STACK":3013,"ldh":3014,"DA":3015,"SIDE":3016,"ĠCon":3017,"179":3018,"HI":3019,"Ġsel":3020,"member":3021,"$$":3022,"trib":3023,"(_":3024,"174":3025,"ĠĠĠĠĠĠĠĠĠĠĠĠĠĠĠĠĠĠĠĠĠĠĠĠĠĠĠĠĠĠĠĠĠĠĠĠ":3026,"Ġcontain":3027,"xFF":3028,"addu":3029,"163":3030,"Query":3031,"ĠHeader":3032,"ĠReturn":3033,"array":3034,"rol":3035,"Ġdistrib":3036,";------------------------------------------------":3037,"ces":3038,"Test":3039,"tst":3040,"pw":3041,"tack":3042,"pipe":3043,"ĠESI":3044,"COL":3045,"DIO":3046,"Ġstos":3047,"*)(":3048,"IGH":3049,"Sel":3050,"Ġact":3051,"address":3052,"ACC":3053,"tail":3054,"DESTROY":3055,"Ġmain":3056,"ates":3057,"Label":3058,"Ġĉĉ":3059,"Ġbranch":3060,"FUN":3061,"ãĤ":3062,"Ġph":3063,"11111111":3064,"FILE":3065,"cr":3066,"board":3067,"VAL":3068,"Process":3069,"Ġlong":3070,"lbu":3071,"300":3072,"ATEG":3073,"DU":3074,"165":3075,"ASM":3076,"sk":3077,"ette":3078,"ĠOFFSET":3079,"186":3080,"NUM":3081,"188":3082,"209":3083,"vpxor":3084,"ĠĊĉ":3085,"srcq":3086,"Ġwords":3087,"gs":3088,"567":3089,"ĠEn":3090,"gfx":3091,"767":3092,"ĠOUT":3093,"pow":3094,"ILITY":3095,";================================================================":3096,"PAR":3097,"////////////////":3098,"RES":3099,"tinue":3100,"ccess":3101,"ored":3102,"vpextr":3103,"path":3104,"Ġss":3105,"Ġsb":3106,"Ġ81":3107,"Ġtrap":3108,"Ġpmaddwd":3109,"190":3110,"10000":3111,"UDO":3112,"Ġ\"../":3113,"UNT":3114,"Ġrelease":3115,"Ġframe":3116,"Ġ::":3117,"ĠNumber":3118,",@":3119,"attern":3120,"Ġjne":3121,"ĠSTR":3122,"Ġmy":3123,"ĠLA":3124,"ĠĠĠĠĠĠĠĠĠĠĠĠĠĠĠĠĠĠĠĠĠĠĠĠĠĠĠĠĠ":3125,"Ġ]":3126,"lbw":3127,"memmove":3128,"OPY":3129,"ination":3130,"DESTROYED":3131,"fast":3132,"ia":3133,"005":3134,"155":3135,"sert":3136,"ja":3137,"ATEGY":3138,"PSEUDO":3139,"Ġpmulh":3140,"Free":3141,"133":3142,"DEV":3143,"BO":3144,"STRATEGY":3145,"dup":3146,"item":3147,"symbol":3148,"166":3149,"Int":3150,"xB":3151,"Trans":3152,"fmt":3153,"Ġprogram":3154,"202":3155,"ACRO":3156,"ffh":3157,"386":3158,"ither":3159,"167":3160,"DF":3161,"Ġupdate":3162,"psl":3163,"kaf":3164,"KN":3165,"oom":3166,"CPU":3167,"avx":3168,"cli":3169,"user":3170,"248":3171,">,":3172,"Ġinst":3173,"locate":3174,"srl":3175,"Ġshift":3176,"bove":3177,"update":3178,"Ġldx":3179,"clflush":3180,"GOT":3181,"ternal":3182,"ding":3183,"ĠĠĠĠĉ":3184,"LABELV":3185,"inish":3186,"153":3187,"movaps":3188,"earch":3189,"bh":3190,"Lock":3191,"Ġ79":3192,"ĠGener":3193,"ITH":3194,"xF":3195,"Ġtop":3196,"193":3197,"traits":3198,"ĠUn":3199,"Number":3200,"175":3201,"typ":3202,"141":3203,"ild":3204,"++]":3205,"INSTR":3206,"Ð¾":3207,"Ġinstruction":3208,"vpextrq":3209,"panic":3210,"short":3211,"lements":3212,"ressed":3213,"Ġ95":3214,"Index":3215,"MS":3216,"195":3217,"LOG":3218,"Ġbrk":3219,"MEM":3220,"ĠQ":3221,"ĠPo":3222,"terial":3223,"rl":3224,"Script":3225,"kafka":3226,"Ġcmd":3227,"Ġwithout":3228,"REEN":3229,"Ġrst":3230,"cpy":3231,"Ġargument":3232,"ORE":3233,"://":3234,"ĠEFFECTS":3235,"FLAG":3236,"ĠĠĠĠĠĠĠĠĠĠĠĠĠĠĠĠĠĠĠĠĠĠĠĠĠĠĠĠĠĠĠĠĠ":3237,"FILTER":3238,"gpr":3239,"Open":3240,"MUX":3241,"Ġthan":3242,"187":3243,"223":3244,"SAVE":3245,"Ġ87":3246,"FT":3247,"Ġtimes":3248,"MODE":3249,"Ġcommand":3250,"Ġmodif":3251,"Update":3252,"ility":3253,"Screen":3254,"Ġuser":3255,"Ġmessage":3256,"Ġ..":3257,"178":3258,"ally":3259,"ables":3260,"case":3261,"Of":3262,"multu":3263,"Ġunsigned":3264,"Ġpsl":3265,"PRO":3266,"Ġsbb":3267,"MASK":3268,"field":3269,"nothing":3270,"142":3271,"@@@@":3272,"Ġora":3273,"640":3274,"899":3275,"Ġxx":3276,"Ġskip":3277,"51525":3278,"RC":3279,"rsw":3280,"MUXER":3281,"0004":3282,"249":3283,"360":3284,"PIPE":3285,"ADDRFP":3286,"sem":3287,"Ġ256":3288,"Ġdone":3289,"Ġits":3290,"ĠHAVE":3291,"51525354":3292,"py":3293,"compare":3294,"fr":3295,"ogle":3296,"Ġimp":3297,"ert":3298,"Ġmulx":3299,"ĠEAX":3300,"stmt":3301,"ĠNOT":3302,"Ġcondition":3303,"Ġrts":3304,"uvm":3305,"Var":3306,"ĠExp":3307,"ĠĠĠĠĠĠĠĠĠĠĠĠĠĠĠĠĠĠĠĠĠĠĠĠĠĠĠĠĠĠĠĠĠĠĠĠĠĠĠĠ":3308,"Ġold":3309,"CONST":3310,"pression":3311,"info":3312,"estr":3313,"LEN":3314,"299":3315,"#$":3316,"Ġabove":3317,"Next":3318,"nal":3319,"============":3320,"ĠDEC":3321,"Ġrequ":3322,"Ġpshufb":3323,"296":3324,"google":3325,"Ġvalues":3326,"Pos":3327,"ĠJMP":3328,"Ġfound":3329,"222":3330,"Dis":3331,"vmovdqa":3332,">>":3333,"Control":3334,"Ġwork":3335,"sed":3336,"00010":3337,"244":3338,"Ġcy":3339,"390":3340,"Ġmake":3341,"public":3342,"Ġ98":3343,"Ġtrans":3344,"input":3345,"screen":3346,"ĠCL":3347,"294":3348,"00001":3349,"dic":3350,"ardw":3351,"205":3352,"Ġafter":3353,"imul":3354,"tave":3355,"66768":3356,"abs":3357,"Flags":3358,"Ġtwo":3359,"Ġoper":3360,"210":3361,"Value":3362,"61626364656":3363,"CALLED":3364,"6162636465666768":3365,"ardware":3366,"entry":3367,"LOOP":3368,"rary":3369,"Input":3370,"NtGdiDd":3371,"config":3372,"tual":3373,"BASE":3374,"Ġparameter":3375,"Ċĉĉĉĉĉ":3376,"qword":3377,"pri":3378,"CS":3379,"Ġcf":3380,"ĠAD":3381,"psn":3382,"WF":3383,"ADDRESS":3384,"ject":3385,"Anim":3386,"198":3387,"dwpsn":3388,"+$":3389,"eap":3390,"('":3391,"ĠSp":3392,"vmovups":3393,"]);":3394,"XX":3395,"Base":3396,"LAY":3397,"Ġpunpcklbw":3398,"rg":3399,"213":3400,"227":3401,"ĠMa":3402,"1024":3403,"ĠReg":3404,"197":3405,"Ġvolatile":3406,"rive":3407,"^^":3408,"00003":3409,"utton":3410,"nor":3411,"[((-":3412,"Offset":3413,"aved":3414,"Ġcor":3415,"Ġgener":3416,"ĠGNU":3417,"UDIO":3418,"adds":3419,"NEAR":3420,"Ġ(-":3421,"VOL":3422,"ĠMo":3423,"irtual":3424,"Ġrun":3425,"Ġinit":3426,"Setup":3427,"eed":3428,"acro":3429,"Ġbin":3430,"NC":3431,"alcul":3432,"Ġvmovdqu":3433,"store":3434,"ĠSC":3435,"Ð¸":3436,"Stack":3437,"324":3438,"ĠFa":3439,"(#":3440,"DT":3441,"rest":3442,"269":3443,"Ġ<__":3444,"Ġpmulhrsw":3445,"Ġdisk":3446,"BF":3447,"OFF":3448,"Ġsoftware":3449,"Ġreset":3450,"172":3451,"Ġ80103":3452,"bs":3453,"basic":3454,"890":3455,"00004":3456,"ADDP":3457,"evel":3458,"393":3459,"PH":3460,"From":3461,"dsp":3462,"frame":3463,"face":3464,"Ġorig":3465,"sdcc":3466,"211":3467,"Ġthere":3468,"DDI":3469,"Ġsbc":3470,"sleep":3471,"Ġendp":3472,"Ġ91":3473,"ldi":3474,"LW":3475,"Ġbot":3476,"207":3477,"Port":3478,"Ġround":3479,"Ġtile":3480,"206":3481,"Temp":3482,"CBIN":3483,"mi":3484,"extract":3485,"Ġ127":3486,"344":3487,"poly":3488,"idn":3489,"Ġrd":3490,"Ġnc":3491,"203":3492,"equence":3493,"fore":3494,"By":3495,"Ġpass":3496,"DEFB":3497,"rn":3498,"segment":3499,"PP":3500,"Color":3501,"896":3502,"Ġ82":3503,"@?$":3504,"lean":3505,"gg":3506,"UTE":3507,"che":3508,"raphics":3509,"Ġ],":3510,"II":3511,"Ġdev":3512,"===":3513,"Ġ----------------":3514,"ken":3515,"READ":3516,"Array":3517,"KNOWN":3518,"ready":3519,"uted":3520,"@\"":3521,"Ġ92":3522,"internal":3523,"Ġmin":3524,"Ġ@%%%%%%%%%%%%%%%%%%%%%%%%%%%%%%%%%%%%%%%%%%%%%%%%%%%%%%%%%%%%%%%%":3525,"238":3526,"236":3527,"Ġsector":3528,"ubsw":3529,"RTC":3530,"Ġ101":3531,"crt":3532,"201":3533,"ibrary":3534,"IGHT":3535,"??_":3536,"Ġvpxor":3537,"OBJ":3538,";****************************************************************************":3539,"EAX":3540,"285":3541,"Com":3542,"ĠSET":3543,"230":3544,"Ġwhere":3545,"Sw":3546,"Ġsprite":3547,"ÑĢ":3548,"ERROR":3549,"Ġcs":3550,"Len":3551,"Ġ94":3552,"cccc":3553,"Ġswitch":3554,"match":3555,"just":3556,"RD":3557,"wise":3558,"GHT":3559,"Sprite":3560,"245":3561,"System":3562,"abled":3563,"mkdir":3564,"Address":3565,"tom":3566,"home":3567,"act":3568,"ĠPAR":3569,"][":3570,"ĠPushD":3571,"270":3572,"608":3573,"ECK":3574,"kill":3575,"ĠLI":3576,"ĠSubmitted":3577,"Ġdoes":3578,"stdout":3579,"NOPSIS":3580,"Ġag":3581,"ffect":3582,"ä¸":3583,"ĠCor":3584,"ĠAC":3585,"SYNOPSIS":3586,"++++":3587,"::::::::":3588,"Ġdisplay":3589,"aaaa":3590,"flags":3591,"magerel":3592,"release":3593,"ĠItem":3594,"clear":3595,"cfi":3596,"UI":3597,"999":3598,"length":3599,"movsbl":3600,"131":3601,"Ġ99":3602,"que":3603,"arent":3604,"ages":3605,"ĠBUG":3606,"Rec":3607,"0000000000000000":3608,"328":3609,"Ġ**":3610,"ized":3611,"Ġlocation":3612,"Ġcontrol":3613,"'}}":3614,"pass":3615,"-------":3616,"IND":3617,"OK":3618,"ames":3619,"Ġpmaddubsw":3620,"214":3621,"STATE":3622,"head":3623,"STORE":3624,"ĠAll":3625,"extracti":3626,"ĠLine":3627,"page":3628,"argv":3629,"ause":3630,"Ġsz":3631,";;;;;;;;;;;;;;;;;;;;;;;;;;;;;;;;;;;;;;;;;;;;;;;;;;;;;;;;;;;;;;;;":3632,"Ġconstant":3633,"atoi":3634,"ABILITY":3635,"flow":3636,"ĠUSE":3637,"286":3638,"Ġee":3639,"ĠED":3640,"Ġsum":3641,"8082":3642,"Pointer":3643,"alette":3644,"ĠBNE":3645,"And":3646,"point":3647,"Ġ80102":3648,"ĠSY":3649,"slti":3650,"ĠBIT":3651,"ĠSoftware":3652,"Val":3653,"ĠCP":3654,"ista":3655,"212":3656,"ILE":3657,"jg":3658,"Ġdigits":3659,"Addr":3660,"Ġsecond":3661,"ins":3662,"Ġbf":3663,"chdir":3664,"Ġsystem":3665,"VE":3666,"qdq":3667,"ĠAl":3668,"019":3669,"Ġass":3670,"ations":3671,"pokemon":3672,"Print":3673,"shift":3674,"ĠSTG":3675,"Ġnear":3676,"Par":3677,"tend":3678,"Return":3679,"Ġ264":3680,"RIGHT":3681,"imal":3682,"AH":3683,"GR":3684,"ner":3685,"FM":3686,"lwd":3687,"args":3688,"ĠSh":3689,"Ġdefb":3690,"memset":3691,"ĠOP":3692,"while":3693,"STATUS":3694,"ĠMO":3695,"tf":3696,"uild":3697,"Ġdq":3698,"00030":3699,"RECT":3700,"step":3701,"DPU":3702,"ose":3703,"Ġmod":3704,"vista":3705,"80112":3706,"UME":3707,"cnt":3708,"Wait":3709,"uchar":3710,"Ġlabel":3711,"bge":3712,"INTER":3713,"ward":3714,"Ġlock":3715,"ĠNE":3716,"ARGP":3717,"ĠROM":3718,"253":3719,"GRO":3720,"fer":3721,"dp":3722,"MB":3723,"NOT":3724,"Ġjust":3725,"Byte":3726,"ords":3727,"Ġmultip":3728,"Dev":3729,"162":3730,"239":3731,"Ġmp":3732,"00005":3733,"udio":3734,"JSR":3735,"Ġplayer":3736,"Ġsee":3737,"logue":3738,"ample":3739,"vmovdqu":3740,"284":3741,"BUT":3742,"âĢ":3743,"%%%":3744,"684":3745,"173":3746,"uble":3747,"Ġlim":3748,"mall":3749,"OC":3750,"itle":3751,"RR":3752,"246":3753,"___":3754,"Ġvpbroadca":3755,"-+":3756,"mis":3757,"Box":3758,"Ġstride":3759,"0005":3760,"Ġdirect":3761,"ĠWe":3762,"ĠID":3763,"high":3764,"586":3765,"lt":3766,"Time":3767,"ingle":3768,"ĊĊĠĠĠĠĠĠĠĠĠĠĠĠĠĠĠ":3769,"ï¿":3770,"Ġvariable":3771,"801055":3772,"(`":3773,"ideo":3774,"If":3775,"011":3776,"793":3777,"Ġinteger":3778,"404":3779,"mc":3780,"Ġour":3781,"ĠRead":3782,"flag":3783,"243":3784,"amus":3785,"ĠRAM":3786,"jc":3787,"Ho":3788,"Is":3789,"ĠStart":3790,"Ġpixels":3791,"ï¿½":3792,"andi":3793,";--------------------------------------------------------------------------------":3794,"Num":3795,"PT":3796,"ĠLEA":3797,"ĠXMMWORD":3798,"406":3799,"ĠSW":3800,"ĠĠĠĠĠĠĠĠĠĠĠĠĠĠĠĠĠĠĠĠĠĠĠĠĠĠĠĠĠĠĠĠĠĠĠĠĠĠĠĠĠ":3801,"lp":3802,"orld":3803,"escript":3804,"ĠBUGS":3805,"Ġ80106":3806,"lr":3807,"ĊĉĠ":3808,"Ġsequence":3809,"IDEAS":3810,"Point":3811,"Ġlink":3812,"329":3813,"lobal":3814,"Cur":3815,"Win":3816,"octave":3817,"(@":3818,"ĠSamus":3819,"AK":3820,"handler":3821,"DEX":3822,"Ġ80101":3823,"408":3824,"151":3825,"801":3826,"276":3827,"output":3828,"801064":3829,"mtree":3830,"Ġpid":3831,"ite":3832,"017":3833,"âĸĪ":3834,"late":3835,"cket":3836,"604":3837,"247":3838,"Ġ@%%%%%%%%%%%%%%%%%%%%%%%%%%%%%%%%%%%%%%%%%%%%%%%%%%%%%%%%%%%%%%%%%%%":3839,"801044":3840,"228":3841,"UMP":3842,"defined":3843,"Ġsse":3844,"ens":3845,"~~~~":3846,")\"":3847,"blt":3848,"jbe":3849,"%%%%%%%%%%%%%%%%%%%%%%%%%%%%%%%%%%%%%%%%%%%%%%%%%%%%%%%%%%%%%%%%%%%%%%%%%%%%@":3850,"Ġlr":3851,"amp":3852,"ĊĠĠĠĠĠĠĠĠĠĠĠĠĠĠĠĠĠĠĠĠĠĠĠĠĠĠĠĠĠĠĠ":3853,"Exit":3854,"palmtree":3855,"Ġsection":3856,"Ġconditions":3857,"poration":3858,"ĠCPU":3859,"ADC":3860,"217":3861,"ĠClear":3862,"Ġtot":3863,"Ġcolumn":3864,"token":3865,"null":3866,"235":3867,"ĠCorporation":3868,"nemy":3869,"ify":3870,"Save":3871,"5555":3872,"sum":3873,"ÑĤ":3874,"275":3875,"00002":3876,"----------":3877,"233":3878,"Sub":3879,"blocks":3880,"Ġ93":3881,"LF":3882,"Ġbefore":3883,"GSIZE":3884,"Tile":3885,"744":3886,"Ġxml":3887,"seq":3888,"sound":3889,"zmm":3890,"ACT":3891,"mulx":3892,"Ġcolor":3893,"utes":3894,"oute":3895,"229":3896,"dwcfi":3897,"259":3898,"Ġeach":3899,"BUF":3900,"swap":3901,"Ġcur":3902,"lang":3903,"dig":3904,"the":3905,"Ġpor":3906,"804":3907,"RW":3908,"wb":3909,"ĠPro":3910,"Ġvari":3911,"DEFW":3912,"Ġmovzx":3913,"ĠĠĠĠĊĠĠĠ":3914,"ĠJR":3915,"325":3916,"ASH":3917,"keys":3918,"ĠSEC":3919,"000004":3920,"ĠPO":3921,"80000010":3922,"oll":3923,"DESC":3924,"shlq":3925,"ĠREP":3926,"ĠWrite":3927,"cla":3928,"vol":3929,"Stub":3930,"doc":3931,"ormat":3932,"Ġvmovdqa":3933,"implements":3934,"intr":3935,"IRQ":3936,"Ġocc":3937,"ĠWITH":3938,"Ġhtt":3939,"HO":3940,"ĠEnd":3941,"man":3942,"80108":3943,"ONLY":3944,"308":3945,"cept":3946,"ĠJump":3947,"283":3948,"306":3949,"MI":3950,"oriz":3951,"ENDM":3952,"xC":3953,"161":3954,"Faulty":3955,"New":3956,"Ġoracles":3957,"ĠFaulty":3958,"Debug":3959,"218":3960,"Path":3961,"ĠnC":3962,"On":3963,"this":3964,"MOVE":3965,"untime":3966,"504":3967,"thread":3968,"ĠCall":3969,"ANTI":3970,"784":3971,"dent":3972,"Ġpsubw":3973,"driver":3974,"filter":3975,"(-":3976,"bi":3977,"Ġpunpcklwd":3978,"Ġmovh":3979,"ced":3980,"float":3981,"jae":3982,"226":3983,"405":3984,"856":3985,"Ġdup":3986,"#,":3987,"Ġmatch":3988,"ĠComp":3989,"lane":3990,"âķ":3991,"55565":3992,"Timer":3993,"305":3994,"ĐĐ":3995,"Ġ80004":3996,"292":3997,"00000097":3998,"URE":3999,"App":4000,"Ġ^":4001,"XZ":4002,"Ġlevel":4003,"55565758":4004,"ffffff":4005,"Ġpshufd":4006,"gr":4007,"5152535455565758":4008,"muludq":4009,"vents":4010,"237":4011,"Ġnotice":4012,"Ġnull":4013,"Ġnumbers":4014,"tex":4015,"Context":4016,"known":4017,"ez":4018,"okup":4019,"Ġlocal":4020,"ĠRestore":4021,"Ġaa":4022,"ASGNI":4023,"Ġlpb":4024,"eta":4025,"cra":4026,"ĠEXPORT":4027,"Ġsame":4028,"Ġdon":4029,"uses":4030,"mpty":4031,"Ġlpe":4032,"Ġ<_":4033,"ldx":4034,"subu":4035,"Ġexpression":4036,"252":4037,"Ġ>,":4038,"Ġformat":4039,"ority":4040,"Ġstatus":4041,"andom":4042,"stand":4043,"cglobal":4044,"ĠLOAD":4045,"regs":4046,"ĠCONTR":4047,"onent":4048,"289":4049,"sha":4050,"endm":4051,"Back":4052,"ĠREG":4053,"Ġldr":4054,"ML":4055,"ANT":4056,"258":4057,"Ġ%+":4058,"Ġ[%%":4059,"result":4060,"xp":4061,"Ġxmmword":4062,"402":4063,"sti":4064,"Ġcopyright":4065,"Def":4066,"sbc":4067,"hash":4068,"stos":4069,"Ġ[%":4070,"257":4071,"idx":4072,"ĉĠĠĠ":4073,"escriptor":4074,"console":4075,"688":4076,"ule":4077,"sembl":4078,"IE":4079,"Ġldy":4080,"ORY":4081,"ik":4082,"DP":4083,"trap":4084,"Ġaut":4085,"ĠSPRITE":4086,"Ġmovsb":4087,"down":4088,"808":4089,"Register":4090,"295":4091,"704":4092,"Ġarea":4093,"260":4094,"ault":4095,"219":4096,"arguments":4097,"Ġdown":4098,"Ġdiff":4099,"801032":4100,"pa":4101,"Ġdf":4102,"274":4103,";------------------------------------------------------------------------------":4104,"Ġhandler":4105,"ĠCOPY":4106,"Ġstat":4107,"ven":4108,"default":4109,"Ġce":4110,"DR":4111,"sible":4112,"ĠWORD":4113,"309":4114,"BITS":4115,"Ġ****************************************************************":4116,"409":4117,"alk":4118,"ĠVer":4119,"ĠJSR":4120,"fix":4121,"xE":4122,"Ġeither":4123,"uage":4124,"Man":4125,"Ġkernel":4126,"ĠOut":4127,"279":4128,"303":4129,"801054":4130,"delete":4131,"Ġbinary":4132,"/_":4133,"ARD":4134,"iter":4135,"Jump":4136,"801059":4137,"Ġexception":4138,"Ġshld":4139,"branch":4140,"other":4141,"initial":4142,"RAME":4143,"ĠRe":4144,"iler":4145,"cv":4146,"ĠnA":4147,"Ġcr":4148,"LIB":4149,"alf":4150,"2000":4151,"Hardware":4152,"Ġpi":4153,"lk":4154,"ious":4155,"JP":4156,"eft":4157,"wa":4158,"Ġgiv":4159,"Ġterms":4160,"dox":4161,"Level":4162,"ĠIMP":4163,"Ġprintint":4164,"Send":4165,"Ġcursor":4166,"ĠĠĠĠĠĠĠĠĠĠĠĠĠĠĠĠĠĠĠĠĠĠĠĠĠĠĠĠĠĠĠĠĠĠĠĠĠ":4167,"aster":4168,"Ġadox":4169,"ptable":4170,"ient":4171,"Ġusing":4172,"jns":4173,"imagerel":4174,"648":4175,"TIC":4176,"Ġ199":4177,"ĠPublic":4178,"Status":4179,"after":4180,"Ġ110":4181,"angle":4182,"Ġcoord":4183,"rret":4184,"pad":4185,"*)&":4186,"ĠGeneral":4187,"348":4188,"GEN":4189,"IFT":4190,"FO":4191,"peed":4192,"801029":4193,"CHAR":4194,"Pri":4195,"Ġpoints":4196,"215":4197,"................":4198,"Ġacquire":4199,"Ġsin":4200,"Ġwidth":4201,"Mach":4202,"ĠSee":4203,"326":4204,"327":4205,"Enemy":4206,"Ġoriginal":4207,"apic":4208,"Ġ80003":4209,"nce":4210,"078":4211,"fail":4212,"ima":4213,"IOS":4214,"ATT":4215,"clib":4216,"unks":4217,"lat":4218,"over":4219,"source":4220,"ĠTE":4221,"Ġjg":4222,"VAR":4223,"enemy":4224,"Ġchannel":4225,"801039":4226,"Gr":4227,"FIX":4228,"COUNT":4229,"801027":4230,".\"":4231,"PMC":4232,"ARRANTI":4233,"ARRANTIES":4234,"XDATA":4235,")=":4236,"ĠWARRANTIES":4237,"scan":4238,"ĠPUBLIC":4239,"801060":4240,"265":4241,"854":4242,"Mod":4243,"xdefine":4244,"ORG":4245,"ĠDe":4246,"ĠCOM":4247,">,#":4248,"bsl":4249,"files":4250,"box":4251,"ĠPGSIZE":4252,"rout":4253,"ĉĉĉĉĉĉĉĠĠĠĠĠĠ":4254,"EXPECT":4255,"rites":4256,"Ġmacro":4257,"AIT":4258,"359":4259,"Ġprov":4260,"801034":4261,"801066":4262,"divu":4263,"484":4264,"Ñģ":4265,"movepc":4266,"hli":4267,"TEMP":4268,"ĊĉĉĊĉ":4269,"Ġ80005":4270,"/../":4271,"ĠnB":4272,"para":4273,"Ġprop":4274,"EDI":4275,"ĠĠĊ":4276,"Ġob":4277,"266":4278,"307":4279,"(\"_":4280,"ĠUN":4281,"FFER":4282,"dk":4283,"ĠPC":4284,"Ġfloat":4285,"231":4286,"Ð½":4287,"904":4288,"Ġdefault":4289,"ezdsp":4290,"807":4291,"ves":4292,"iew":4293,"jump":4294,"806":4295,"Ext":4296,"Ġvpaddq":4297,"Ġiy":4298,"Ġpla":4299,"403":4300,",_":4301,"ldd":4302,"Ġsome":4303,"Ġ'%'){":4304,"396":4305,"287":4306,"Desc":4307,"FN":4308,"ĠIt":4309,"Ġinter":4310,"Ġadcx":4311,"carry":4312,"send":4313,"HIGH":4314,"FORM":4315,"801024":4316,"Ġpath":4317,"sib":4318,"PIX":4319,"TRN":4320,"MAX":4321,"PER":4322,"DIR":4323,"1100":4324,"171":4325,"Ġva":4326,"asci":4327,"Ġtv":4328,"Ġ119":4329,"part":4330,"object":4331,"801025":4332,"VC":4333,"ĠXOR":4334,"686":4335,"ĠOn":4336,"801000":4337,"Ġalready":4338,"IA":4339,"028":4340,"wnlib":4341,"Ġcontains":4342,"708":4343,"ERO":4344,"Ġbeen":4345,"ĠBEQ":4346,"Ġincrement":4347,"MON":4348,"801019":4349,"ired":4350,"rp":4351,"Memory":4352,"iner":4353,"097":4354,"wind":4355,"dba":4356,"srav":4357,"298":4358,"Ġprev":4359,"80000":4360,"803":4361,"xffb":4362,"ĠDQ":4363,"609":4364,"Ġpr":4365,"!!_":4366,"IDTH":4367,"Ġ---":4368,"revc":4369,";;;;;;;;;;;;":4370,"OFTW":4371,"HardwareSetup":4372,"ĠGET":4373,"OFTWARE":4374,"Ġtoken":4375,"alignr":4376,"space":4377,"Output":4378,"++,":4379,"263":4380,"182":4381,"ĠSIZE":4382,"ĠFUN":4383,"icro":4384,"acquire":4385,"lable":4386,"221":4387,"801013":4388,"SO":4389,"ĠEQUB":4390,"cale":4391,"181":4392,"-(":4393,"current":4394,"MOVWF":4395,"ak":4396,"850":4397,"Display":4398,"801069":4399,"277":4400,"clmul":4401,"Vc":4402,"ORS":4403,"Up":4404,"ĠFree":4405,"ĠARCH":4406,"PS":4407,"song":4408,"241":4409,"ifn":4410,"801056":4411,"Font":4412,"akeup":4413,"Ġ____":4414,"we":4415,"Ġdestination":4416,"Machine":4417,"ĠnE":4418,"488":4419,"Function":4420,"DEMUXER":4421,"Ġ@@":4422,"Ġscan":4423,"Ġsend":4424,"ĠNOP":4425,"NtUserGet":4426,"smpsVc":4427,"RED":4428,"ANG":4429,"*(":4430,"now":4431,"gprsize":4432,"293":4433,"scc":4434,"Ġref":4435,"Current":4436,"sibility":4437,"Ġ218":4438,"ĠItems":4439,"709":4440,"297":4441,"VM":4442,"argc":4443,"ĠĉĠĠĠ":4444,"rection":4445,"801016":4446,"Pre":4447,"bra":4448,"Ġtarget":4449,"Ġ111":4450,"xA":4451,"LA":4452,"Ġ104":4453,"Information":4454,"lus":4455,"Ġcalled":4456,"SHA":4457,"550":4458,"Ġaesenc":4459,"oo":4460,"Ġ????":4461,"erence":4462,"ared":4463,"xfe":4464,"Sound":4465,"Ġmap":4466,"--------------":4467,"801036":4468,"Ġcontext":4469,"801050":4470,"tract":4471,"ctxt":4472,"sions":4473,"xdata":4474,"Ġdistributed":4475,"ĠLoadI":4476,"Ah":4477,"ux":4478,"ZN":4479,"333":4480,"ĠSOFTWARE":4481,"tab":4482,"Ġdh":4483,"ĊĊČ":4484,"Arg":4485,"8080":4486,"ĠMOVE":4487,"Ġfill":4488,"Cursor":4489,"801020":4490,")],":4491,"paddd":4492,"SAMP":4493,"ĠĠĠĠĠĠĠĠĠĠĠĠĠĠĠĠĠĠĠĠĠĠĠĠĠĠĠĠĠĠĠĠĠĠĊĠĠĠĠĠĠĠ":4494,"ceed":4495,"801012":4496,"687":4497,"605":4498,"player":4499,"Ġcontinue":4500,"psrld":4501,"Ġinterrupts":4502,"usb":4503,"801017":4504,"UDING":4505,"CLUDING":4506,"Ġtimer":4507,"ACCESS":4508,"atri":4509,"Ġ105":4510,"278":4511,"Game":4512,"estroy":4513,"psrlq":4514,"ls":4515,"Rect":4516,"323":4517,"Ġsubpixel":4518,"801015":4519,"ym":4520,"ope":4521,"Ġfield":4522,"first":4523,";----------------":4524,"191":4525,"Ġinformation":4526,"644":4527,"399":4528,"bpp":4529,"irq":4530,"Spec":4531,"Ġdn":4532,"Ġdigit":4533,"ody":4534,"moveq":4535,"ĠON":4536,"Ġheader":4537,"Ġrights":4538,"MR":4539,"GTH":4540,"spatch":4541,"handle":4542,"JR":4543,"707":4544,"Ġ(*":4545,"ĠTHIS":4546,"BG":4547,"âķĲ":4548,"801048":4549,"063":4550,"restore":4551,"345":4552,"termin":4553,"Ġbec":4554,"ipher":4555,"506":4556,"req":4557,"Ad":4558,"ename":4559,"uart":4560,"ĊĠĠĠĠĠĠĠĠĠĠĠĠĠĠĠĠĠ":4561,"349":4562,"407":4563,"Ġchange":4564,"cH":4565,"any":4566,"DISP":4567,"337":4568,"vprintf":4569,"Format":4570,",.":4571,"291":4572,"FRAME":4573,"ĠCR":4574,"XOR":4575,"LCL":4576,"016":4577,"ISTER":4578,"cons":4579,"env":4580,"Ġmmsize":4581,"809":4582,"Ġbd":4583,"cprintf":4584,"pshufb":4585,"Ġthunks":4586,"ilable":4587,"BS":4588,"cont":4589,"My":4590,"Ġ(_":4591,"arp":4592,"stdio":4593,">::":4594,"029":4595,"Ġtrack":4596,"352":4597,"âĸĪâĸĪ":4598,"805":4599,"pointer":4600,"hp":4601,"NtGdiDdDDI":4602,"Ġse":4603,"mpt":4604,"ĠIdent":4605,"ĠRegister":4606,"tate":4607,"clmulqdq":4608,"common":4609,"uleb":4610,"txt":4611,"ĠBL":4612,"Ġcompile":4613,"AMIST":4614,"AMISTUDIO":4615,"Ġmovsl":4616,"Ġ??_":4617,"FH":4618,"color":4619,"Ġgoto":4620,"801014":4621,"cord":4622,"369":4623,"Eh":4624,"023":4625,"ived":4626,"Ġ;*":4627,"Ġ112":4628,"388":4629,"Ġcalcul":4630,"Max":4631,"plus":4632,"FR":4633,"cy":4634,"Bar":4635,"444":4636,"INDIRF":4637,"012":4638,"lob":4639,"âķĲâķĲ":4640,"TABLE":4641,"tx":4642,"xFFFF":4643,"ĠLDR":4644,"strcpy":4645,"ating":4646,"Ġinode":4647,"LB":4648,"Ġrest":4649,"267":4650,"inser":4651,"ĠĊĠĠĠĠĠĠĠĠ":4652,"prevp":4653,"ĠJP":4654,"649":4655,"607":4656,"ATCH":4657,"Ġfind":4658,"000005":4659,"parameter":4660,"1005":4661,"Ġ116":4662,"242":4663,"shuf":4664,"Ġpara":4665,"-+-+":4666,"WIDTH":4667,"fetch":4668,"tries":4669,"terrupt":4670,"itor":4671,"Ġloc":4672,"8011":4673,"KEYS":4674,"Ġreal":4675,"Ġcop":4676,"Ġpackus":4677,"Ġ},":4678,"bltz":4679,"Ð¾Ð":4680,"ĠRO":4681,"600":4682,"orizont":4683,"MET":4684,"ĠDoors":4685,"SK":4686,"memory":4687,"262":4688,"ese":4689,"ground":4690,";-----------------------------------------------------------------------------":4691,"strument":4692,"Ġhttp":4693,"cted":4694,"830":4695,"fff":4696,"lication":4697,"Ġ~":4698,"BJ":4699,")(":4700,"838":4701,"shell":4702,"delay":4703,"ugh":4704,"Left":4705,"394":4706,"Ġ115":4707,"ĊĠĠĊĠ":4708,"'re":4709,"pand":4710,"gra":4711,"Page":4712,"ĠStr":4713,"sar":4714,"ansion":4715,"unsigned":4716,"346":4717,"Ġok":4718,"detail":4719,"cursor":4720,"fn":4721,"272":4722,"eng":4723,"Ġgiven":4724,"NAME":4725,"606":4726,"090":4727,"801010":4728,"0008":4729,"eric":4730,"Ġpattern":4731,"TC":4732,"UCT":4733,"The":4734,"AES":4735,"net":4736,"KS":4737,"Ġbh":4738,"Ġcompare":4739,"Music":4740,"-------------":4741,"!\"":4742,"281":4743,"until":4744,"clc":4745,"0007":4746,"Ġ80002":4747,"ifi":4748,"HER":4749,"ided":4750,"PIXEL":4751,"relse":4752,"859":4753,"Ġbank":4754,"number":4755,"894":4756,"321":4757,"âĶĢ":4758,"inserti":4759,"cmov":4760,"Ġalloc":4761,"CUR":4762,"ifidn":4763,"dest":4764,"Ġ018":4765,"Ġwindow":4766,"GT":4767,"su":4768,"ĠObject":4769,"Ġbb":4770,"let":4771,"273":4772,"testcase":4773,"0006":4774,"Inter":4775,"Done":4776,"801040":4777,"Ġ170":4778,"ĠnG":4779,"GA":4780,"Ġ[]":4781,"801035":4782,"Ġ114":4783,"DOS":4784,"DIV":4785,"Common":4786,"xfc":4787,"366":4788,"836":4789,"ĠnF":4790,"ĠDOS":4791,"Ġ=>":4792,"oper":4793,"quare":4794,"ĠFAC":4795,"ALE":4796,"ASF":4797,"Attr":4798,"ices":4799,"verse":4800,"Ġmovsw":4801,"duct":4802,"RAW":4803,"895":4804,"(,%":4805,"Ġalso":4806,"MACRO":4807,"pte":4808,"beqz":4809,"Ġhold":4810,"rq":4811,"YMMWORD":4812,"PLAY":4813,"Ġps":4814,"ĠSECTION":4815,"BattleText":4816,"000001":4817,"ĠES":4818,"CRE":4819,"width":4820,"Ġabs":4821,"bas":4822,"lin":4823,"ilec":4824,"ounds":4825,"022":4826,"ĠSEG":4827,"ĠFLAT":4828,"Row":4829,"251":4830,"rap":4831,"Ġlater":4832,"ULT":4833,"Ġra":4834,"Ġpunpckhwd":4835,"loor":4836,"+(":4837,"ofs":4838,"jl":4839,"context":4840,"coding":4841,"801049":4842,"Ġsaved":4843,"398":4844,"ĠPushI":4845,"Over":4846,"JSL":4847,"343":4848,"Ġpa":4849,"LDI":4850,"::_":4851,"ĠXAR":4852,"365":4853,"DED":4854,"ular":4855,"Ġspecific":4856,"pli":4857,"FFH":4858,"801046":4859,"Ġagain":4860,"Token":4861,"ĠDec":4862,"cos":4863,"vaesenc":4864,"ĠAF":4865,"!\\":4866,"cle":4867,"486":4868,"SED":4869,"839":4870,"MC":4871,"Flag":4872,"Ġvariables":4873,"ï¿½ï¿½":4874,"SSE":4875,"boot":4876,";----------------------------------------------------------------------":4877,"Ġenable":4878,"vpaddd":4879,"trans":4880,"âĶĢâĶĢ":4881,"routine":4882,"EV":4883,"sccz":4884,"fstat":4885,"509":4886,"ĠEXP":4887,"888":4888,"MAP":4889,"types":4890,"2600":4891,"LDR":4892,")^":4893,"CTR":4894,"Ġnormal":4895,"Counter":4896,"Ġlicen":4897,"593":4898,"Ġrol":4899,"PSG":4900,"Dh":4901,"Ġblocks":4902,"796":4903,"Ġfunc":4904,"705":4905,"STUB":4906,"cq":4907,"ĠADC":4908,"Ġ512":4909,"Right":4910,"slli":4911,"<%":4912,"ĠYou":4913,"569":4914,"3333":4915,"ĠĠĠĠĠĠĠĠĠĠĠĠĠĠĠĠĠĠĠĠĠĠĠĠĠĠĠĠĠĠĠĠĠĠĠĠĠĠĠĠĠĠĠĠĠĠĠ":4916,"Ġlapic":4917,"801011":4918,"Delete":4919,"Ġvinserti":4920,"=-=-=-=-":4921,"DQ":4922,"Parse":4923,"026":4924,"coeff":4925,"DMA":4926,"Ġtermin":4927,"749":4928,"ĠMaterial":4929,";--------------------------------------------------------":4930,"Ġlimit":4931,"lz":4932,"Ġrea":4933,";//":4934,"avg":4935,"Ġcycles":4936,"000010":4937,"son":4938,"ĠIR":4939,"stream":4940,"Main":4941,"from":4942,"503":4943,"()->":4944,"Per":4945,"Ġdir":4946,"ĠEvents":4947,"CLR":4948,"xD":4949,"021":4950,"32768":4951,"status":4952,"(\"/":4953,"322":4954,"765":4955,"ISE":4956,"357":4957,"ava":4958,"atrix":4959,"wo":4960,"706":4961,"Ġmenu":4962,"ĠFor":4963,"ĠRedi":4964,"________________":4965,"ĠOutput":4966,"Ġpar":4967,"ĠINCLUDE":4968,"event":4969,"NtGdiGet":4970,"797":4971,"ccs":4972,"ilename":4973,"786":4974,"INDEX":4975,"Ġpsra":4976,"LIED":4977,"WR":4978,"pn":4979,"vailable":4980,"Ġ103":4981,"stribution":4982,"umul":4983,"Ġfork":4984,"Ġuntil":4985,"vextracti":4986,"very":4987,"Ġ#%":4988,"Ġimm":4989,"CMD":4990,"BER":4991,"rough":4992,"tile":4993,"Ġrorx":4994,"ĠPORT":4995,"SEH":4996,"367":4997,"BANK":4998,"347":4999,"upper":5000,"Ġoption":5001,"anged":5002,"WAIT":5003,"requ":5004,"cld":5005,"647":5006,"acces":5007,"554":5008,"1110":5009,"Ġrange":5010,"BUG":5011,"Ġ*)":5012,"500":5013,"769":5014,"ĠĠĠĠĠĠĠĠĠĠĠĠĠĠĠĠĠĠĠĠĠĠĠĠĠĊĠĠĠĠĠĠĠ":5015,"ĠBASIC":5016,"801023":5017,"-----":5018,"Ġpermis":5019,"ĠTMP":5020,"ĠSYS":5021,"outines":5022,"Ġsbrk":5023,"Ġ120":5024,"Ġcpu":5025,"Que":5026,"trl":5027,"ĠBUT":5028,"Ġ80001":5029,"Link":5030,"353":5031,"uge":5032,"MOVLW":5033,"ĠNote":5034,"801058":5035,"801057":5036,"erve":5037,"558":5038,"High":5039,"ĠFound":5040,"Ġspill":5041,"834":5042,"LASF":5043,"Ġ\"(":5044,"ĠIMPLIED":5045,"pdata":5046,"Ġdbl":5047,"channel":5048,"myproc":5049,"iput":5050,"777":5051,"TA":5052,"This":5053,"ĠECX":5054,"801028":5055,"556":5056,"HAND":5057,"Hel":5058,"fastcall":5059,"quad":5060,"ures":5061,"Ġdoc":5062,"Doc":5063,"ources":5064,"Ġcreate":5065,"Ġinvoke":5066,"Ġnote":5067,"mmsize":5068,"Ġuses":5069,"ratch":5070,"none":5071,"prev":5072,"stant":5073,"ĠRedistribution":5074,"Vis":5075,"uld":5076,"Ġdrive":5077,"IY":5078,"illip":5079,"Position":5080,"ĠDO":5081,"als":5082,"Dire":5083,"Ġ1000":5084,"Ġrlca":5085,"Ġneeded":5086,"759":5087,"addw":5088,"CHAN":5089,"slt":5090,"dule":5091,"Ġlower":5092,"orizontal":5093,"EH":5094,"dge":5095,"Ġstosb":5096,"801045":5097,"801047":5098,"cmpb":5099,"CV":5100,"Ġslot":5101,"1800":5102,"FUNC":5103,"omp":5104,",\"/":5105,"Ġpsrad":5106,"358":5107,"param":5108,"Stat":5109,"awn":5110,"bw":5111,"inder":5112,"Ġmovsq":5113,"Ġ153":5114,"ĠPointer":5115,"788":5116,"801038":5117,"ĠDi":5118,"cmpeq":5119,"craft":5120,"ĠAn":5121,"ĠGO":5122,"ĠSTAT":5123,"counter":5124,"lhu":5125,"Ġ){":5126,"Ġreserved":5127,"Ġcli":5128,"QE":5129,"..//":5130,"First":5131,"phillip":5132,"/../..//":5133,"orage":5134,"898":5135,"vi":5136,"Ġ-=":5137,"757":5138,"lash":5139,"mplete":5140,"bgt":5141,"CHECK":5142,"ĠINCBIN":5143,"ĠIs":5144,"sqr":5145,"Gen":5146,"603":5147,"FS":5148,"Ġglobal":5149,"Ġfilter":5150,"801026":5151,"WRITE":5152,"adcx":5153,"Ġ108":5154,"Ġobtain":5155,"0800":5156,"JUMP":5157,"ĠĊĠĊ":5158,"Ġ113":5159,"card":5160,"397":5161,"Ġruntime":5162,"JNZ":5163,"508":5164,"555":5165,"TIAL":5166,"bad":5167,"CREATE":5168,"Mask":5169,"leal":5170,"Ġotherwise":5171,"?$_":5172,"Ġvpmuludq":5173,"Ġsuch":5174,"CY":5175,"Ġmsg":5176,"Ġfiles":5177,"1234567":5178,"Ġoccurs":5179,"(;":5180,"Ġprevious":5181,"Buf":5182,"idd":5183,"801030":5184,"906":5185,"ĠWITHOUT":5186,"ĠAddress":5187,"Ġfcb":5188,"xmlS":5189,"pack":5190,"PRINT":5191,"reset":5192,"stop":5193,"ĠNUM":5194,"Find":5195,"Ra":5196,"ctor":5197,"Ġgame":5198,")),":5199,"Ġeven":5200,"accessibility":5201,"ELOP":5202,"||||":5203,"PD":5204,"Ġ!(":5205,"SFX":5206,"645":5207,"Ġbet":5208,"Local":5209,"801068":5210,"000000010":5211,"DOWN":5212,"858":5213,"STUBS":5214,"Ġrece":5215,"ĠPRINT":5216,"details":5217,"Ġstream":5218,"646":5219,"Ġ\",":5220,"Ġhash":5221,"game":5222,"Ġtotal":5223,"SING":5224,"Ġtrn":5225,"Ġwritten":5226,"spec":5227,"798":5228,"Msg":5229,"pend":5230,"392":5231,"CM":5232,"Ġvar":5233,"449":5234,"447":5235,"ATH":5236,"Word":5237,"Ġ400":5238,"gdt":5239,"SER":5240,"+%":5241,"ager":5242,"Ġrequired":5243,"310":5244,"pha":5245,"ITEM":5246,"GEST":5247,"ĠĠĠĠĠĠĠĠĠĠĠĠĠĠĠĠĠĠĠĠĠĠĠĠĠĠĠĠĠĠĠĠĠĊĠĠĠĠĠĠĠ":5248,"801005":5249,"Clip":5250,"Party":5251,"coord":5252,"Ġlet":5253,"Clear":5254,"STRIDE":5255,"cceed":5256,"747":5257,"ĠInc":5258,"bot":5259,"857":5260,"794":5261,"487":5262,"SYSSTUBS":5263,"ĠMusic":5264,"ĊĉĠĠĠ":5265,"Ev":5266,"ffe":5267,"xaa":5268,"unlockput":5269,"754":5270,"Device":5271,"802":5272,"Ġunlink":5273,"ga":5274,"Attack":5275,"Default":5276,"DIGEST":5277,"ALSE":5278,"Ġorder":5279,"ech":5280,"ĠNone":5281,"Ġproper":5282,"presets":5283,"yp":5284,"Ġext":5285,"Bank":5286,"Ġbig":5287,"Ġinline":5288,"ĊĊĠĠĠĠĠ":5289,"Or":5290,"027":5291,"bble":5292,"Ġjl":5293,"ek":5294,"507":5295,"more":5296,"EXTRN":5297,"0040":5298,"Ġ$-":5299,"fter":5300,"363":5301,"Ġmovaps":5302,"shellcraft":5303,"job":5304,"ĠPTE":5305,"855":5306,"LEFT":5307,"Ġconvert":5308,"THER":5309,"Ġstep":5310,"Ġae":5311,"vperm":5312,"false":5313,"tax":5314,"Ġpshuf":5315,"Width":5316,"909":5317,"Ġthread":5318,"557":5319,"header":5320,"Reset":5321,"395":5322,"Ġdevice":5323,"Ġextern":5324,"ĊĠĠĠĠĠĠĠĠĠĠĠĠĠĠĠĠĠĠ":5325,"ways":5326,"ĠPRG":5327,"Vol":5328,"Ġenter":5329,"lf":5330,"obj":5331,"INV":5332,"Ġdstq":5333,"Rep":5334,"745":5335,"work":5336,"ENCODER":5337,"Ph":5338,"---------":5339,"ĠDraw":5340,"mx":5341,"mplement":5342,"Ġpc":5343,"835":5344,"Ġ268504":5345,"track":5346,"epi":5347,"312":5348,"Group":5349,"Ġpackuswb":5350,"tp":5351,"subl":5352,"shrd":5353,"fill":5354,"Ġ================================================================":5355,"ĠĠĠĠĊĠ":5356,"tv":5357,"559":5358,"040":5359,"$?":5360,"keep":5361,"tm":5362,"Queue":5363,"less":5364,"ERN":5365,"lish":5366,"variable":5367,"ransp":5368,"681":5369,"stp":5370,"Ġ160":5371,"Ġque":5372,"897":5373,"ynam":5374,"342":5375,"blez":5376,"xfd":5377,"Exp":5378,"parse":5379,"1703":5380,"</":5381,"Low":5382,"ĠMove":5383,"hold":5384,"uconst":5385,"option":5386,"ĠDataC":5387,")+,":5388,"Ġrr":5389,"otal":5390,"NEXT":5391,"ÐµÐ":5392,"370":5393,"ĠNot":5394,"Ġ--------------------------------":5395,"387":5396,"Ġbecause":5397,"interrup":5398,"014":5399,"VIC":5400,"Ġ144":5401,"oug":5402,"801053":5403,"ĠFoundation":5404,"Ref":5405,"lack":5406,"ELSE":5407,"ĠĠĠĠĠĠĠĠĠĠĠĠĠĠĠĠĠĠĠĠĠĠĠĠĠĠĠĠĠĠĠĊĠĠĠĠĠĠĠ":5408,"âĶģ":5409,"ixed":5410,"ano":5411,"queue":5412,"ĊĠĠĠĠĠĠĠĠĠĠĠĠĠĠĠĠĠĠĠĠĠĠĠĠĠĠĠĠĠĠĠĠĠĠĠĠĠĠĠ":5413,"EQ":5414,"Ġinfo":5415,"ULAR":5416,"Ġ200":5417,"ĠMM":5418,"ĠLibrary":5419,"sprite":5420,"ni":5421,"Command":5422,"Ġwriting":5423,"CSL":5424,"801004":5425,"ITED":5426,"340":5427,"NtUserSet":5428,"Ġfinish":5429,"FAC":5430,"zz":5431,"746":5432,"escra":5433,"ĠĠĠĠĊĠĠĠĠĠĠĠ":5434,"IV":5435,"787":5436,"Work":5437,"Ġimul":5438,"837":5439,"chg":5440,"=$":5441,"PA":5442,"TED":5443,"Ġsucceed":5444,"ALT":5445,"Ġcoordin":5446,"0080":5447,"ĊĠĠĠĠĠĠĠĠĠĠĠĠĠĠĠĠĠĠĠĠĠĠĠĠĠĠĠ":5448,"vf":5449,"tributes":5450,"area":5451,"892":5452,"547":5453,"ĠINTER":5454,"www":5455,"801006":5456,"801065":5457,"escradr":5458,"ĠNtGdiDd":5459,"GROUP":5460,"ARY":5461,"ealloc":5462,"COMP":5463,"905":5464,"Ġperform":5465,"NtQuery":5466,"ENC":5467,"nu":5468,"IMITED":5469,"ĊĊĉĉ":5470,"ĠBP":5471,"IAL":5472,"Ġprime":5473,"FAR":5474,"erial":5475,"BNE":5476,"ront":5477,"================================================":5478,"Last":5479,"Ġinstance":5480,"TF":5481,"Ġfs":5482,"ĠASM":5483,"801037":5484,"mac":5485,"NULL":5486,"2222":5487,"button":5488,"fair":5489,"Min":5490,"fffff":5491,"Ġldh":5492,"Access":5493,"Ġlicense":5494,"ĠBG":5495,"ĠĠĉ":5496,"Ġ268503":5497,"afe":5498,"Ġ21829":5499,"Route":5500,"addpd":5501,"PCM":5502,"SBC":5503,"Ġ${":5504,"ĊĉĉĊ":5505,"ĠAT":5506,"079":5507,"Ġdel":5508,"853":5509,"996":5510,"9600":5511,"Ġcomm":5512,"tected":5513,"ĠWALL":5514,"side":5515,"Bot":5516,"RS":5517,"ymbol":5518,"Ġelement":5519,"282":5520,"566":5521,"RIP":5522,"Ġdirectory":5523,"Ġ#<":5524,"Bitmap":5525,"ĠMACRO":5526,"Ġmemset":5527,"reen":5528,"Ġyes":5529,"Ġ#>":5530,"Gener":5531,"Branch":5532,"hex":5533,"ĠSIZEOF":5534,"find":5535,"Ġsure":5536,"ĠMP":5537,"0009":5538,"Eng":5539,"run":5540,"************************************************":5541,"Ġlines":5542,"ĊĠĠĠĠĠĠĠĠĊĠĠĠĠĠĠĠ":5543,"852":5544,"---------------":5545,"666":5546,"ĠDAM":5547,"tim":5548,"switch":5549,"ren":5550,"ARGS":5551,"Ġyour":5552,"Ġreturns":5553,"ĠPUR":5554,"ENSE":5555,"ĠOS":5556,"Domain":5557,"ELOPMENT":5558,"Ġav":5559,"pslld":5560,"Ġsince":5561,"Ġsleep":5562,"ĠMU":5563,"DEVELOPMENT":5564,"Ġempty":5565,"LEA":5566,"Valid":5567,"Ġrrc":5568,"movzwl":5569,"STEP":5570,"action":5571,"jor":5572,"Ġcoeff":5573,"1511":5574,"../../":5575,"Ġvpbroadcastd":5576,"ĠANIM":5577,"sched":5578,"BUFFER":5579,"ĠCF":5580,"801009":5581,"Ġcorrect":5582,"792":5583,"ĠInput":5584,"ZT":5585,"ESC":5586,"Ġprovided":5587,"par":5588,"Ġavailable":5589,"Ġ*(":5590,"CAL":5591,"inf":5592,"801033":5593,"ĠFLO":5594,"ĠIRQ":5595,"DH":5596,"ĠText":5597,"ĠLB":5598,"group":5599,"tick":5600,"Ġ136":5601,"xori":5602,"Ġrows":5603,"Ġsmall":5604,"ĠĠĠĠĠĠĠĠĠĠĠĠĠĠĠĠĠĠĠĠĠĠĠĠĠĠĠĠĠĠĠĠĠĠĠĠĠĠĠĠĠĠĠĠĠĠĠĠĠĠĠĠĠĠĠĠĠĠĠĠĠĠĠĠ":5605,"pshufd":5606,"RUP":5607,"rand":5608,"ysi":5609,"._":5610,"command":5611,"$:":5612,"stosb":5613,"orary":5614,",\\":5615,"ISR":5616,"ization":5617,"$_":5618,"can":5619,"Ġfp":5620,"COLOR":5621,"Ġldi":5622,"ĠBR":5623,"eak":5624,"546":5625,"Option":5626,"ynamic":5627,"ĠnD":5628,"763":5629,"method":5630,"743":5631,"egin":5632,"STRUCT":5633,"duce":5634,"ĠOTHER":5635,"Ġswap":5636,"Ġthrough":5637,"015":5638,"801018":5639,"Ġarguments":5640,"uto":5641,"000006":5642,"PARAM":5643,"term":5644,"subs":5645,"893":5646,"endrep":5647,"ĠEXTERN":5648,"-$":5649,"Ġpackss":5650,"sltu":5651,"Ġ001":5652,"Ġargc":5653,"era":5654,"ĠUpdate":5655,"RST":5656,"ĠCHAR":5657,"ĠBANK":5658,"Err":5659,"sing":5660,"ome":5661,"752":5662,"room":5663,"Ġwant":5664,"Bh":5665,"META":5666,"tended":5667,"0010":5668,"istudio":5669,"Ġboot":5670,"801067":5671,"Ġfail":5672,"ĠCOMDAT":5673,"795":5674,"Ġ?+":5675,"Ġstructure":5676,"Ġbra":5677,"men":5678,"908":5679,"995":5680,"Driver":5681,"Ġ268509":5682,"Ġparameters":5683,"PIO":5684,"++),":5685,"mark":5686,"ĠPH":5687,"ĠCode":5688,"ene":5689,"FFF":5690,"ĠERR":5691,"552":5692,"Store":5693,"ENU":5694,"Ġsucceeded":5695,"Off":5696,"549":5697,"Ġidx":5698,"DIRECT":5699,"ified":5700,"Dir":5701,"goto":5702,"ĠFE":5703,"Ġvalid":5704,"Tiles":5705,"FLAGS":5706,"Ġsla":5707,"callq":5708,"801007":5709,"Ġmodify":5710,"Ġindic":5711,"ĠUnknown":5712,"Ġclr":5713,"menu":5714,"idct":5715,"POSE":5716,"Ġshrd":5717,"Ġheight":5718,"Ġargs":5719,"ĠMER":5720,"xcc":5721,")-":5722,"urface":5723,"ĠAr":5724,"Palette":5725,"ĠINPUT":5726,"Ġargv":5727,"Ġpsrldq":5728,"Vector":5729,"1607":5730,"Ġ???":5731,"NESS":5732,"833":5733,"strn":5734,"RTS":5735,"âĶģâĶģ":5736,"ĉĉĊ":5737,"ĠASC":5738,"Change":5739,"ĠNZ":5740,"!,":5741,"Ġthem":5742,"Ġxchg":5743,"ĊĊĠĠĠĠĠĠĠĠĠĠĠ":5744,"SHIFT":5745,"LENGTH":5746,"nod":5747,"GOTO":5748,"ĠInitial":5749,"sembly":5750,"SEL":5751,"903":5752,"1507":5753,"true":5754,"punpck":5755,"ublish":5756,"lcd":5757,"EGIN":5758,"bank":5759,"Ġcmov":5760,"Ġtoo":5761,"Ġexpress":5762,"timer":5763,"Ġ401":5764,">)":5765,"Ġpsrld":5766,"Ġstarting":5767,"ĠPURPOSE":5768,"ifndef":5769,"ĠReserved":5770,"00011":5771,"mmy":5772,"Ġ[_":5773,"0200":5774,"Sn":5775,"Composition":5776,"alog":5777,"373":5778,"ĠExch":5779,"ween":5780,"unwind":5781,"Ġway":5782,"imum":5783,"CHANT":5784,"703":5785,"unor":5786,"ĠLIMITED":5787,":(%":5788,"268":5789,"bgez":5790,"lied":5791,"sltiu":5792,"Ġpaddsw":5793,"Ġdiffere":5794,"Ġlw":5795,"PLY":5796,"030":5797,"xec":5798,"336":5799,"Ġlsl":5800,"ĠFIT":5801,"TIME":5802,"ĠSTATUS":5803,"CHANTABILITY":5804,"endb":5805,"ĠExchange":5806,"Ġcell":5807,"545":5808,"ded":5809,"ĠGR":5810,"rant":5811,"LOCAL":5812,"Act":5813,"rag":5814,"Enum":5815,"6666":5816,"version":5817,"empty":5818,"<-":5819,"Ver":5820,"ĠENC":5821,"kernel":5822,"ĠMAX":5823,"_%":5824,"801052":5825,"ĠLAB":5826,"rate":5827,"level":5828,"10240":5829,"SZ":5830,"Ġcharacters":5831,"Sec":5832,"jnc":5833,"kp":5834,"Instance":5835,"ĠFITNESS":5836,"ync":5837,"ous":5838,"cache":5839,"Ġbad":5840,"Track":5841,"BEQ":5842,"ĠLIABILITY":5843,"Ġvf":5844,"ings":5845,"801043":5846,"Alloc":5847,"ĠRoom":5848,";;;;;;;;;;;;;;;":5849,"6000":5850,"DOC":5851,"Ġroutines":5852,"interrupt":5853,"cbc":5854,"597":5855,"494":5856,"ĠOpLabel":5857,"2003":5858,"7600":5859,"Ġwhat":5860,"[]":5861,"ane":5862,"sive":5863,"ĠMERCHANTABILITY":5864,"Ġmovs":5865,"Ġfull":5866,"subpd":5867,"tl":5868,"Length":5869,"direct":5870,"PIC":5871,"ESI":5872,"soft":5873,"NtSet":5874,"xbb":5875,"rorx":5876,"261":5877,"blk":5878,"Ġdescriptor":5879,"Node":5880,")}":5881,"mote":5882,"PW":5883,"exception":5884,"Ġrel":5885,"debug":5886,"ĠPARTIC":5887,"Task":5888,"Ġ'-":5889,"MF":5890,"Ġ__,":5891,"utc":5892,"969":5893,"xfa":5894,"ses":5895,"ĠBank":5896,"Asm":5897,"Ġoverflow":5898,"bn":5899,"50513":5900,"Struct":5901,"TL":5902,"mont":5903,"isor":5904,"ĠSFX":5905,"Ġ___,":5906,"MIN":5907,"481":5908,"884":5909,"Ġpublish":5910,"Ġsha":5911,"sbb":5912,"ĠSAVE":5913,"ĠMap":5914,"isr":5915,"RIPTION":5916,"Ġ++":5917,"wc":5918,"ĠPARTICULAR":5919,"Bl":5920,"CONTR":5921,"445":5922,"313":5923,"Enable":5924,"ï¼":5925,"Ġhand":5926,"Ċĉĉĉĉĉĉ":5927,"THIS":5928,"','":5929,"Ġremain":5930,"Ġdefined":5931,"ĠSel":5932,"mainder":5933,"Ġpalignr":5934,"cry":5935,"Button":5936,"801022":5937,"DWR":5938,"Exception":5939,"Ġbas":5940,"Ġasl":5941,"Ġfunctions":5942,"Ġsuppli":5943,"Ġvdst":5944,"uX":5945,"uth":5946,"Ġ};":5947,"project":5948,"Lfe":5949,"Scan":5950,"@@@@@@@@":5951,"uration":5952,"ĠNEXT":5953,"420":5954,"ĠWH":5955,"ĠnBb":5956,"643":5957,"EBP":5958,"ession":5959,"ĠâĶĤâĶĤâĶĤâĶĤ":5960,"curproc":5961,"ĠCS":5962,"Ġtask":5963,"repos":5964,"446":5965,"tered":5966,"Ġconsole":5967,"Ġmovz":5968,"]+":5969,"Ġsrcq":5970,"594":5971,"Ġlook":5972,"OPEN":5973,"00012":5974,"Hi":5975,"SECT":5976,"ĠENDIF":5977,"801063":5978,"ĠLCD":5979,"Kernel":5980,"9200":5981,"Ġpassed":5982,"Ġsound":5983,"587":5984,"INCBIN":5985,"CI":5986,"aesdec":5987,"Ġ,$":5988,"Ġ[.":5989,"ĠVER":5990,"Ġplace":5991,"Ġalways":5992,"GF":5993,"Ġmon":5994,"Internal":5995,"fld":5996,"QEAA":5997,"Ġ801":5998,"Ġgroup":5999,"Ġless":6000,"Ġboth":6001,"024":6002,"Ġmethod":6003,".'":6004,"Ġ268506":6005,"Ġmea":6006,"endbr":6007,"All":6008,"adox":6009,"ĠHIGH":6010,"LER":6011,"itive":6012,"FLAT":6013,"Param":6014,"669":6015,"AUT":6016,"Ġfam":6017,"conv":6018,"change":6019,"592":6020,"ĠRight":6021,"967":6022,"AINER":6023,"17025":6024,"Ġmemmove":6025,"Ġunused":6026,"ĠTIM":6027,"ĠDIS":6028,"Ġirq":6029,"OUTPUT":6030,"disk":6031,"insr":6032,"753":6033,"display":6034,"Section":6035,"271":6036,"++++++++":6037,"DEBUG":6038,"SPRITE":6039,"2020":6040,"###":6041,"PRE":6042,"641":6043,"563":6044,"416":6045,"sources":6046,"Ġpressed":6047,"ĠCOPYRIGHT":6048,"Result":6049,"rouge":6050,"adow":6051,"Ġdocument":6052,"bgtz":6053,"^^^^":6054,"ĠRep":6055,"çļ":6056,"ook":6057,"Ġĉĉĉ":6058,"html":6059,"ĠScroll":6060,"çļĦ":6061,"Bits":6062,"Bytes":6063,"meill":6064,"rougemeill":6065,"rougemeilland":6066,"After":6067,"graph":6068,"ĠFILE":6069,"ĠFIX":6070,"302":6071,"Ġlsr":6072,"ĠSTACK":6073,"EY":6074,"RDWR":6075,"Ġ\"=":6076,"CAN":6077,"''":6078,"restored":6079,"range":6080,"Ġ109":6081,"FFh":6082,"Src":6083,"998":6084,"Ġcprintf":6085,"win":6086,"ĠLR":6087,"ĠType":6088,"(!":6089,"PAGE":6090,"Ġmovhps":6091,"pip":6092,"ency":6093,"ĠExit":6094,"EXIT":6095,"Ġcaller":6096,"ECX":6097,"ĠAB":6098,"here":6099,"Ġ117":6100,"Chain":6101,"full":6102,"Scroll":6103,"Ġhex":6104,"VOLUME":6105,"Ġcpuf":6106,"FUNCTION":6107,"Imp":6108,"Ġhp":6109,"Ġdelay":6110,"lunor":6111,"00000013":6112,"wf":6113,"icrosoft":6114,"xac":6115,"ITCH":6116,"lower":6117,"GC":6118,"OAM":6119,"ĠName":6120,"sn":6121,"Kick":6122,"LANG":6123,"rames":6124,"Resource":6125,";--------------------------------":6126,"Ġ154":6127,",,":6128,"Ġmyproc":6129,"Destroy":6130,"Ġdriver":6131,"Ġ4096":6132,"Ġ268505":6133,"ĠBit":6134,"lour":6135,"class":6136,"Ġbetween":6137,"CJ":6138,"Ġbcc":6139,"465":6140,"99999999":6141,",<":6142,"497":6143,"ysical":6144,"Ġplay":6145,"Ġbottom":6146,"undef":6147,"Ġupper":6148,"language":6149,"NOTE":6150,"ĠSup":6151,"program":6152,"mknod":6153,")\";":6154,"ROUND":6155,"getpid":6156,"BY":6157,"CLE":6158,"Ġends":6159,"ĠARE":6160,"10586":6161,"Ġsrl":6162,"chema":6163,"Div":6164,"conf":6165,"665":6166,"MK":6167,"00070":6168,"Ġmark":6169,"314":6170,"Ġregs":6171,"4096":6172,"lapic":6173,"Ġwould":6174,"SELE":6175,"994":6176,"ĠWait":6177,"::::::::::::::::":6178,"Ġevery":6179,"WIN":6180,"380":6181,"SPACE":6182,"Enter":6183,"ĠTra":6184,"Ġallow":6185,"ores":6186,"Ġbeing":6187,"ayer":6188,"Ġtick":6189,"imple":6190,"font":6191,"Down":6192,"UF":6193,">=":6194,"846":6195,"Unlock":6196,"ICENSE":6197,"Ġiny":6198,"eread":6199,"View":6200,"node":6201,"hw":6202,"regx":6203,"3790":6204,"ĠVersion":6205,"361":6206,"ARGI":6207,"ĠâĶĤâĶĤâĶĤ":6208,")->":6209,"Ð°Ð":6210,"Zero":6211,"ĠACC":6212,"wk":6213,"Ġdict":6214,"ĠFP":6215,"Ġå":6216,"Session":6217,"xfffff":6218,"CTL":6219,"Ġsingle":6220,"Ġexist":6221,"ĠFAMISTUDIO":6222,"tainer":6223,"UNIT":6224,"Ġbelow":6225,"LSE":6226,"lsl":6227,"ADER":6228,"ĠOpBranch":6229,"Ġfar":6230,"TILE":6231,"OWER":6232,"Fill":6233,"ĠRETURN":6234,"801070":6235,"00032":6236,"15063":6237,"480":6238,"ME":6239,"ATTR":6240,"ENABLE":6241,"ĠDL":6242,"ĠĠĊĠĠĠ":6243,"Ġexponent":6244,"ĊĠĠĠĠĠĠĠĠĠĠĠĠĠ":6245,"Ġpunpckhbw":6246,"SCREEN":6247,"elative":6248,"Ġ/=":6249,"DEN":6250,"14393":6251,"subdir":6252,"RDONLY":6253,"FOR":6254,"ece":6255,"tell":6256,"524":6257,"Variable":6258,"inition":6259,"ĠCoords":6260,"Ġerr":6261,"0804":6262,"Top":6263,"Ġdistribution":6264,"700":6265,"Ġclc":6266,"381":6267,"Begin":6268,"Ġpavg":6269,"Ro":6270,"ends":6271,"Ġequal":6272,"select":6273,"ĠASCII":6274,"ĠLpoly":6275,"Ġ130":6276,"Channel":6277,"cape":6278,"Multip":6279,"ĠCA":6280,"ision":6281,"ually":6282,"bg":6283,"ĠTest":6284,"VL":6285,"ĠRTS":6286,"dy":6287,"}{":6288,"REGISTER":6289,"ALR":6290,";--":6291,"xdd":6292,"tro":6293,"lookup":6294,"ĠDis":6295,"xample":6296,"ĠPAL":6297,"0913":6298,"INI":6299,"801003":6300,"ĠOBJ":6301,"Ġ204":6302,"ough":6303,"bextr":6304,"nder":6305,"bsr":6306,"ĠTEST":6307,"ĠFLOOR":6308,"mmx":6309,"Ġtwtemp":6310,"REAK":6311,"################################################################":6312,"xdf":6313,"edef":6314,"vaddpd":6315,"Ass":6316,"Ġfetch":6317,"pla":6318,"Ġscroll":6319,"got":6320,"Conn":6321,"vir":6322,"Ġmaterial":6323,"Ġaccess":6324,";ĐĐ":6325,"TM":6326,";ĐĐĐ":6327,"gft":6328,"sputc":6329,"sat":6330,"036":6331,"Ġvperm":6332,"lsr":6333,"Ġthese":6334,"VALID":6335,"ĠString":6336,"Front":6337,"ols":6338,"ĠEDX":6339,"andard":6340,"ĠXMM":6341,"FAST":6342,"Ġstored":6343,"Log":6344,"scal":6345,"ling":6346,"Pa":6347,"ĠRGB":6348,"cat":6349,"lqdq":6350,"Ġdefc":6351,"595":6352,"DM":6353,"Ġpmullw":6354,"pper":6355,"ense":6356,"Hash":6357,"Ġ00000":6358,"382":6359,"YAX":6360,"Select":6361,"ails":6362,"Ġpwnlib":6363,"ĠWAR":6364,"MMX":6365,"movabs":6366,"Ġinclude":6367,"vsubpd":6368,"663":6369,"DATE":6370,"yes":6371,"Ġldd":6372,"ĠUI":6373,"');":6374,"Ġexx":6375,"693":6376,"ĠReset":6377,"ecall":6378,"iny":6379,"Show":6380,"With":6381,"comm":6382,"Ġhd":6383,"Ġaddl":6384,"Ġthey":6385,"ĠXML":6386,"Ġbutton":6387,"Ġinclu":6388,"POS":6389,"Ġstop":6390,"720":6391,"DESCRIPTION":6392,"RGB":6393,"ĠKEY":6394,"Ġpunpckldq":6395,"ialog":6396,"ĠMF":6397,"ĠLEAQ":6398,"\":":6399,"GO":6400,".)":6401,"Ġcurproc":6402,"defc":6403,"cfa":6404,"ssse":6405,"LIST":6406,"rier":6407,"erge":6408,"Ġvpbroadcast":6409,"Para":6410,"Ġ*%":6411,"ATER":6412,"849":6413,"GrObj":6414,"Ġaesdec":6415,"DL":6416,"351":6417,"Ġproduct":6418,"ithm":6419,"ORMAL":6420,"553":6421,"esk":6422,"341":6423,"Ġnu":6424,"Ġorg":6425,"XTMP":6426,"cipher":6427,"amples":6428,"TRUE":6429,"oice":6430,"xee":6431,"cvt":6432,"ĠNEG":6433,"CONTROL":6434,"dwend":6435,"uster":6436,"Ġ192":6437,"Ġdefw":6438,"omb":6439,"nbytes":6440,"ulti":6441,"?)":6442,"JZ":6443,"Match":6444,"found":6445,"801126":6446,"===============":6447,"leanup":6448,"sors":6449,"gle":6450,"gettoken":6451,"ĉĉĉĉĉĉĉĉĉ":6452,"rocess":6453,"ĠLink":6454,"Ġ];":6455,"Ġseq":6456,"HP":6457,"formal":6458,"495":6459,"ĠSCREEN":6460,"Ġfamistudio":6461,"calc":6462,"arge":6463,"CHR":6464,"Loc":6465,"FFFFFFFF":6466,"antis":6467,"Ġlicensors":6468,"907":6469,"Ġextra":6470,"@?":6471,"root":6472,"ĠSprite":6473,"Ġnothing":6474,"Ġsuppliers":6475,"ARCH":6476,"Ġspeed":6477,"dis":6478,"ĠDR":6479,"Ġcontent":6480,"Ġforward":6481,"~~~~~~~~":6482,"hel":6483,"562":6484,"801008":6485,"basescradr":6486,"ĠSys":6487,"ĠMOD":6488,"316":6489,"utex":6490,"Close":6491,"Ġioapic":6492,"ĠFLAG":6493,"Direct":6494,"Ġdirection":6495,"ĠBIOS":6496,"ĠEnable":6497,"Ġdiscla":6498,"LOGUE":6499,"Ġpsraw":6500,"four":6501,"lush":6502,"038":6503,"ASGNF":6504,"851":6505,"real":6506,"LCD":6507,"ĠSU":6508,"ĠEntry":6509,"anc":6510,"ender":6511,"ĠCRT":6512,"1001":6513,"332":6514,"âĢĶ":6515,"Ġdisclaimer":6516,"992":6517,"Ġsetup":6518,"ĠSend":6519,"ĠKey":6520,"pu":6521,"Ġdebug":6522,"bss":6523,"front":6524,"uler":6525,"ibble":6526,"åŃ":6527,"INCLUDING":6528,"ASGNP":6529,"Odt":6530,"lc":6531,"way":6532,"ĠSA":6533,"licate":6534,"pel":6535,"ĠIndex":6536,"ĠEXE":6537,"())":6538,"rnd":6539,"520":6540,"dit":6541,"ĠREAD":6542,"ĠĊĠĠĠĠ":6543,"Virtual":6544,"Switch":6545,"Ġpackssdw":6546,"ACH":6547,"ĠStoreI":6548,"STD":6549,"ĠSize":6550,"requency":6551,"loopgas":6552,"ha":6553,"ĠXL":6554,"Ġencoding":6555,"Ġ118":6556,"Delay":6557,"IBUT":6558,"iterator":6559,"Ġdisable":6560,"Use":6561,"mycpu":6562,"target":6563,"STRING":6564,"addrs":6565,"761":6566,"Ġwrt":6567,"Pok":6568,"Ġevent":6569,"omet":6570,"Ġhel":6571,"message":6572,"nul":6573,"667":6574,"Ġtilemap":6575,"ĠCreate":6576,"finish":6577,"Ret":6578,"mes":6579,"697":6580,"psllq":6581,"Ġhalf":6582,"ĠRedistributions":6583,"srli":6584,"imm":6585,"ĠĊĠĠĠĠĠĠĠĠĠĠĠĠĠĠĠĠĠĠĠĠĠĠĠĠĠĠĠĠĠĠĠĠĠĠĠĠĠĠĠ":6586,"537":6587,"Serv":6588,"Chars":6589,"height":6590,"Ġ140":6591,"Trainer":6592,"ĠRES":6593,"RESTORE":6594,"TERNAL":6595,"Pic":6596,"setup":6597,"Ġclock":6598,"////////////////////////////////":6599,"467":6600,"ascii":6601,"847":6602,"ĠBALR":6603,"682":6604,"ANIM":6605,"Ġsq":6606,"Ġstill":6607,"bnez":6608,"Func":6609,"thing":6610,"Ġeffect":6611,"391":6612,"lif":6613,"lanes":6614,"CNT":6615,"vmov":6616,"ĠUP":6617,"rigger":6618,"FLO":6619,"ĠXREF":6620,"ĉĠĠ":6621,"GG":6622,"Ġsuccess":6623,"ĠRelative":6624,"names":6625,"ped":6626,"ĠIT":6627,"ZERO":6628,"uc":6629,"AGES":6630,"Ġsearch":6631,"414":6632,"util":6633,"Sector":6634,"Ġinvalid":6635,"Ġhi":6636,"ĠLDX":6637,"undefined":6638,"icient":6639,"iga":6640,"ĠHex":6641,"ldy":6642,"norfair":6643,"421":6644,"rease":6645,"Ġvert":6646,"IZ":6647,"Ġcm":6648,"tribute":6649,"482":6650,"site":6651,"ĠCUR":6652,"Ġedge":6653,"IMM":6654,"pmc":6655,"standard":6656,"6080":6657,"IBUTORS":6658,"$'":6659,"SCR":6660,"TT":6661,"Ñĥ":6662,"HW":6663,"315":6664,"ents":6665,"Ġsupport":6666,"ĠCONTRIBUTORS":6667,"Config":6668,"incbin":6669,"addiw":6670,"};":6671,"times":6672,"ĠĠĠĠĠĠĠĠĠĠĠĠĠĠĠĠĠĠĠĠĠĠĠĊĠĠĠĠĠĠĠ":6673,"ĠSS":6674,"USER":6675,"NR":6676,"Ġ269":6677,"Ġpermission":6678,"API":6679,"IB":6680,"331":6681,"Ġet":6682,"330":6683,"997":6684,"Ġ145":6685,"Ġdifferent":6686,"ARM":6687,"stc":6688,"Ġrate":6689,"Ġactual":6690,"Ġpublished":6691,"peek":6692,"ĠUse":6693,"âĢĶâĢĶ":6694,"crc":6695,"Ġspecial":6696,"ird":6697,"Ġsty":6698,"Ġ402":6699,"Ġ010":6700,"Ġ240":6701,"Ġ0001":6702,"LDX":6703,"7601":6704,"6162":6705,"00000001":6706,"LT":6707,"Note":6708,"Ġstx":6709,"Ġremove":6710,"BEGIN":6711,"Ġrandom":6712,"801001":6713,"598":6714,"Ġkeep":6715,"dist":6716,"Ġ\"@\"":6717,"uptime":6718,"Ġaccumul":6719,"Ġdecimal":6720,"AGIC":6721,"ĠSTART":6722,"Ġ150":6723,"385":6724,"bpc":6725,"Ġ300":6726,"dsb":6727,"Ġchild":6728,"xfb":6729,"entity":6730,"enum":6731,"Ġcould":6732,"sample":6733,"tect":6734,"422":6735,"crement":6736,"ĠLOOP":6737,"Ġbread":6738,"Ġdouble":6739,"8888":6740,"xca":6741,"ĊĠĠĠĠĠĠĠĠĠĠĠĠĠĠĠĠĠĠĠĠĠĠĠĠĠĠĠĠĠĠĠĠĠĠĠĠĠĠĠĠĠĠĠĠĠĠĠ":6742,"Rate":6743,"Container":6744,"Go":6745,"Ġ132":6746,"426":6747,"oop":6748,"Ġ180":6749,"AAAA":6750,"Ġimplied":6751,"REC":6752,"sadbw":6753,"ĠUINT":6754,"\\\\":6755,"319":6756,"ĠCG":6757,"389":6758,"aH":6759,"ĠVAL":6760,"ĠEXPRESS":6761,"376":6762,"ĠLess":6763,"2048":6764,"Ġkeyboard":6765,"Sign":6766,"ĠNow":6767,"Example":6768,"DCT":6769,"ĠMUSIC":6770,"317":6771,"une":6772,"Ġ124":6773,"Just":6774,"format":6775,"inum":6776,"Ġtri":6777,"ĠStack":6778,"551":6779,"PFX":6780,"ustom":6781,"Ġdoesn":6782,"ROUT":6783,"ĠJon":6784,"ĠBattle":6785,"Source":6786,"trn":6787,"SIZ":6788,"SF":6789,"Ġtry":6790,"ealth":6791,"Snare":6792,"Ġanother":6793,"Ġroot":6794,"ĠMake":6795,"Ġnames":6796,"PN":6797,"Ġredi":6798,"RX":6799,"432":6800,"ported":6801,"inx":6802,"Ġ280":6803,"Ġxtmp":6804,"PRC":6805,"Ġoword":6806,"Video":6807,"INK":6808,"ider":6809,"0011":6810,"362":6811,"Ġpublic":6812,"extra":6813,"ĠOnly":6814,"dump":6815,"inline":6816,"Ġmmx":6817,"Manager":6818,"ii":6819,"xab":6820,"NtCreate":6821,"assert":6822,"enses":6823,"tmpq":6824,"Method":6825,"sup":6826,"Ġpalette":6827,"80000000":6828,"335":6829,"Ġtransp":6830,"Ġconfig":6831,"tiles":6832,"Ġ184":6833,"ecess":6834,"Ġreading":6835,"ĠKra":6836,"sis":6837,"441":6838,"world":6839,"inv":6840,"ĠTemp":6841,"Stream":6842,"Ġvextracti":6843,"TRAN":6844,"Ke":6845,"ĠSHA":6846,"Ġghash":6847,"INTERNAL":6848,"448":6849,"ĠPlayer":6850,"runc":6851,"typedef":6852,"ĠDisplay":6853,"Cli":6854,"ĠCom":6855,"ĠCHECK":6856,"Ġcnt":6857,"sector":6858,"blank":6859,"ELD":6860,"368":6861,"Ġfinal":6862,"px":6863,"licenses":6864,"ĠMax":6865,"060":6866,"LDY":6867,"bered":6868,"ĠSw":6869,"eep":6870,"OID":6871,"getasm":6872,"COPY":6873,"åı":6874,"onds":6875,"chine":6876,"000000000000":6877,"2080":6878,"+=":6879,"Play":6880,"aligned":6881,"INPUT":6882,"Ġnegative":6883,"tention":6884,"ticks":6885,"UMENT":6886,"YA":6887,"ĠEXIT":6888,"USED":6889,"00000073":6890,"NEW":6891,"srlv":6892,"attrib":6893,"ĀĀ":6894,"]<":6895,"Ġ121":6896,"SV":6897,"ENDP":6898,"OLDER":6899,"ĊĉĊĉ":6900,"COEF":6901,"Ġ107":6902,"Space":6903,"Push":6904,"Ġjc":6905,"geb":6906,"CRC":6907,"ĠVAR":6908,"ĠMaiga":6909,"AUDIO":6910,"JUMPV":6911,"Ġvpaddd":6912,"xcf":6913,"âĸł":6914,"lem":6915,"CALLV":6916,"Ġtrue":6917,"ĠReturns":6918,"Ġ270":6919,"xorl":6920,"raction":6921,"mount":6922,"MULTI":6923,"Ġaligned":6924,"301":6925,"ĠBCC":6926,"ĠFA":6927,"561":6928,"900":6929,"Ġown":6930,"375":6931,"541":6932,"Ġtemporary":6933,"Seg":6934,"mvl":6935,"coeffq":6936,"ĠLesser":6937,"Ġreturned":6938,"ĠLoop":6939,"Ġwr":6940,"USB":6941,"655":6942,"Ġymmword":6943,"ards":6944,"ILL":6945,"ĠARG":6946,"sllv":6947,"ĠSWAP":6948,"NS":6949,"locked":6950,"Sup":6951,"LBB":6952,"vate":6953,"cally":6954,"sfx":6955,"getc":6956,"mxv":6957,"Ġrk":6958,"891":6959,"CONFIG":6960,"OPT":6961,"Ġactive":6962,"Float":6963,"One":6964,"sin":6965,"Options":6966,"priority":6967,"riter":6968,"Ġmoving":6969,"Ġ174":6970,"pf":6971,"ATTLE":6972,"Ġodd":6973,"xyz":6974,"831":6975,"Thunk":6976,"non":6977,"ĊĉĠĠ":6978,"lision":6979,"major":6980,"bigdw":6981,"del":6982,"halt":6983,"POINT":6984,"013":6985,"vance":6986,"ost":6987,"Mouse":6988,"subq":6989,"Constant":6990,"deb":6991,"dian":6992,"wq":6993,"Ġsra":6994,"ĠEBX":6995,"VIS":6996,"MOVF":6997,"Ġcoordinate":6998,"801042":6999,"350":7000,"DRAW":7001,"sqrt":7002,"UX":7003,"Ġcache":7004,"ĠOffset":7005,"reed":7006,"FRE":7007,"498":7008,"450":7009,"Restore":7010,"ges":7011,"Ġ224":7012,"782":7013,"8780":7014,"omething":7015,"xbc":7016,"erator":7017,"(__":7018,"Ġregion":7019,"Ent":7020,"anguage":7021,"Ġspecified":7022,"ĠERROR":7023,"edex":7024,"ĉĉĉĉĉĉĉĉĉĉĉĉĉĉĉĉ":7025,"ĠDDB":7026,"ĠPoint":7027,"Ġjb":7028,"544":7029,"Ġletter":7030,"2097":7031,"TAB":7032,"Effect":7033,"00006":7034,"docstring":7035,"ileclose":7036,"801074":7037,"493":7038,"Release":7039,"MOD":7040,"Ġabout":7041,"ĠNOTE":7042,"Ġdecrement":7043,"ĠVM":7044,"ĠFirst":7045,"Region":7046,"Ġoperand":7047,"ecessary":7048,"Ġpsadbw":7049,"ĠFUNCTION":7050,"ĠIO":7051,"ĠNtUserGet":7052,"encrypt":7053,"430":7054,"Ġmis":7055,"ĠLED":7056,"Inc":7057,"Swap":7058,"Net":7059,"801061":7060,"0101":7061,"Ġsetting":7062,"ĠDEB":7063,"body":7064,"581":7065,"Ġ106":7066,"Ġstatic":7067,"xed":7068,"proxy":7069,"xea":7070,"Simple":7071,";*******************************************************************************":7072,"GROUND":7073,"Remove":7074,"process":7075,"Ġuchar":7076,"ĠĠĠĠĠĠĠĠĠĠĠĠĠĠĠĠĠĠĠĠĠĠĠĠĠĠĠĠĠĠĠĠĠĠĠĠĊĠĠĠĠĠĠĠ":7077,"801062":7078,"Odtp":7079,"instar":7080,"2908":7081,"aaaaaaaa":7082,"Ġbrelse":7083,"lap":7084,"Ġoperation":7085,"Ġcalls":7086,"pose":7087,"ĠOpLoad":7088,"STER":7089,"wakeup":7090,"AFA":7091,"_:":7092,"xfffffff":7093,"ĠRIGHT":7094,"Ġmusic":7095,"Ġnibble":7096,")<":7097,"Ġ288":7098,"Ġentries":7099,"concreate":7100,"Ġ#'":7101,"311":7102,"OSE":7103,"STEM":7104,"EFT":7105,"ĠException":7106,"Ġ003":7107,"Ġeq":7108,"reater":7109,"sgn":7110,"ĠRights":7111,"vc":7112,"642":7113,"Ġbi":7114,"anded":7115,"speed":7116,"EBX":7117,"Ġselect":7118,"don":7119,"Dialog":7120,"ora":7121,"*******":7122,"Ġwin":7123,"ENTER":7124,"argint":7125,"bcc":7126,"FORMAT":7127,"751":7128,"maps":7129,"Pal":7130,"extent":7131,"@$":7132,"BRA":7133,"ei":7134,"continue":7135,"Ġprior":7136,"Ġsubtract":7137,"ĠMDB":7138,"procend":7139,"ObjMessage":7140,"PAL":7141,"ummy":7142,"TEX":7143,"ĠRST":7144,"463":7145,"Hex":7146,"RENT":7147,"esktop":7148,"Exec":7149,"Ġoutb":7150,"ĠSPEC":7151,"procstart":7152,"GFX":7153,"BEAT":7154,"Ġ;[":7155,"iker":7156,"Ġenabled":7157,"ĠCC":7158,"dat":7159,"Ġjal":7160,"ĉĊĉ":7161,"Ġ--------------------------------------------------------------------------":7162,"050":7163,"Field":7164,"521":7165,"OPER":7166,"ASSUME":7167,"Ġjob":7168,"ĠLEFT":7169,"vec":7170,"Part":7171,"As":7172,"00008":7173,"772":7174,"Surface":7175,"801021":7176,"scroll":7177,"Hook":7178,"ROLL":7179,"6001":7180,"DULE":7181,"edure":7182,"Ġinf":7183,"Ġpresent":7184,"Ġpsllq":7185,"801031":7186,"ĠSER":7187,"jo":7188,"INFO":7189,"Ġ268508":7190,"Animation":7191,"UART":7192,"OLD":7193,"isa":7194,"Ġ>::":7195,"ipps":7196,"Ġ0000000":7197,"aces":7198,"hla":7199,"Ġauth":7200,"uter":7201,"icache":7202,"quit":7203,";;;;;;;;;;;;;;;;;;;;;;;;;;;;;;;":7204,"equest":7205,"enable":7206,"Ġ---------------------------------------------------------------------------":7207,"410":7208,"Ġsbbq":7209,"Ġlibrary":7210,"801051":7211,"xmlSchema":7212,"ĠNew":7213,"ĠKIND":7214,"HANDLER":7215,"GOTOFF":7216,"ediate":7217,"Interrupt":7218,"Ġreceived":7219,"Skip":7220,"Ġinstead":7221,"unge":7222,"testl":7223,"694":7224,"ĠEdge":7225,"****************************************":7226,"Ġshow":7227,"urpose":7228,"writ":7229,"DEP":7230,"Ġelf":7231,"graphics":7232,"bottom":7233,"eeb":7234,"695":7235,"eor":7236,"Ġpointers":7237,"prog":7238,"ĠLabel":7239,"781":7240,"ĠEDGE":7241,"Ġ187":7242,"ĉĠĠĠĠ":7243,"[$":7244,"assembly":7245,"ĠChri":7246,"Ġmodified":7247,"Ġtail":7248,"Ġnone":7249,"Ġmet":7250,"eful":7251,"374":7252,"Ġ:=":7253,"Ġ65535":7254,"Shift":7255,"digest":7256,"Ġrecord":7257,"Ġ1024":7258,"second":7259,"85899":7260,"Ġdet":7261,"lobbered":7262,"build":7263,"undo":7264,"Long":7265,"4501":7266,"xffffffffffffff":7267,"ĠMMWORD":7268,"-*":7269,"Ġapply":7270,"ARRAY":7271,"bread":7272,"ĠCol":7273,"Inv":7274,"EDX":7275,"ĠDMA":7276,"Ġrlc":7277,"RL":7278,"80110":7279,"resp":7280,"049":7281,"aving":7282,"HA":7283,"Ġinx":7284,"Area":7285,"Ġheap":7286,"485":7287,"845":7288,"Ġlab":7289,"Ġ268516":7290,"PACK":7291,"umes":7292,"ĠĠĠĠĠĠĠĠĠĠĠĠĠĠĠĠĠĠĠĠĠĠĠĠĠĠĠĠĠĠĠĠĠĠĠĠĠĠĠĠĠĠĠĠ":7293,"even":7294,"Ġinstructions":7295,"Ġmantis":7296,"(--":7297,"Ġloaded":7298,"model":7299,"Ġexcept":7300,"Ġui":7301,"ĠPL":7302,"5152":7303,"BEND":7304,"887":7305,"65535":7306,"Ġtransfer":7307,"dct":7308,"oss":7309,"ifier":7310,"Ġsymbol":7311,"ĠINTERRUP":7312,"Ġ238":7313,"eet":7314,"318":7315,"ä½":7316,"ENV":7317,"Ġro":7318,"070":7319,"Ġ',":7320,"801041":7321,"1234567890":7322,"Ġ------------------------------------------------":7323,"ĠDUP":7324,"xef":7325,"dwendtag":7326,"Ġrot":7327,"Unknown":7328,"MOVW":7329,"small":7330,"ĠRoute":7331,"Ġ32767":7332,"consoleintr":7333,"Ġturn":7334,"Ġ-->":7335,"Ġ275":7336,"Ġ190":7337,"ĠQU":7338,"pushstr":7339,"Ġym":7340,"ĠNtGdiDdDDI":7341,"ungeon":7342,"(\"../":7343,"886":7344,"ICK":7345,"xdc":7346,"Ġdefine":7347,"Ġwakeup":7348,"Ġ268514":7349,"ĠBot":7350,"Esp":7351,"443":7352,"Comm":7353,"ĠBuffer":7354,"ĠSEGMENT":7355,"Ġpsrlw":7356,"6002":7357,",#$":7358,"054":7359,"pwnlib":7360,"ĠdKick":7361,"0000000000000":7362,"leg":7363,"ECTOR":7364,"Ġcrea":7365,"with":7366,"ĠArg":7367,"Stop":7368,"########################################################################":7369,"BACK":7370,"FDEC":7371,"ĠInterrupt":7372,"readi":7373,"make":7374,"Ġmodule":7375,"zp":7376,"440":7377,"1709":7378,"338":7379,"762":7380,"IDX":7381,"RANT":7382,"FLOAT":7383,"Ġ==.":7384,"Ġimport":7385,"ada":7386,"Ġisr":7387,"Ġ268515":7388,"TOP":7389,"Ġcallconv":7390,"Generic":7391,"424":7392,"compiler":7393,"Ġcannot":7394,"ĠĠĠĠĠĊĠĠĠĠĠĠĠ":7395,"ĊĊĊĠĠĠ":7396,"Ġiter":7397,"FLY":7398,"ĉĉĉĉĉĉĠĠĠĠĠĠ":7399,"**************":7400,"Ġlike":7401,"unused":7402,"NI":7403,"xdb":7404,"Ġfn":7405,"863":7406,"Ġundefined":7407,"Ġvertical":7408,"ĠSE":7409,"Ġvbroadca":7410,"âķĲâķĲâķĲâķĲ":7411,"memcmp":7412,"Prop":7413,"Ġfont":7414,"ĠMA":7415,"âĸłâĸł":7416,"Lim":7417,"Ġwd":7418,";================================================================================================":7419,"wr":7420,"CheckFor":7421,"early":7422,"ĠĠĠĠĠĠĠĠĠĠĠĠĠĠĠĠĠĠĠĠĠĠĠĠĠĠĠĠĠĠĠĠĠĠĠĠĠĠĠĠĠĠĠ":7423,"Ġ80006":7424,"ĠLINE":7425,"VIDE":7426,"alculate":7427,"ĠBSD":7428,"iddle":7429,"Ġpipe":7430,"Ġ(%%":7431,"xmlText":7432,"TRA":7433,"music":7434,"ĠMEM":7435,"Ġ268513":7436,"Ġwar":7437,"Ġ...)":7438,"-+-+-+-+":7439,"stian":7440,"377":7441,"spi":7442,"åĪ":7443,"698":7444,"ested":7445,"Ġfilename":7446,"rcle":7447,"ĠMain":7448,"456":7449,"xbe":7450,"CTRL":7451,"only":7452,"xorps":7453,"iod":7454,"control":7455,"Program":7456,"Ġdocumentation":7457,"Height":7458,"ETHER":7459,"ÃĦ":7460,"ĠChristian":7461,"ĠLSR":7462,"580":7463,"Element":7464,"ĠFROM":7465,"425":7466,"ĠAt":7467,"OBJECT":7468,"Ġseg":7469,"Boot":7470,";/*":7471,"uch":7472,"Ġvirtual":7473,"ĠTRAN":7474,"leaw":7475,"[(":7476,"401":7477,"star":7478,"æķ":7479,"Ġhow":7480,"lim":7481,"OVER":7482,"625":7483,"GH":7484,"self":7485,"Ġiunlockput":7486,"TIONS":7487,"993":7488,"576":7489,"xde":7490,"032":7491,"ENCE":7492,"AIM":7493,"stx":7494,"ĠKrause":7495,"jge":7496,"ERNEL":7497,"ONT":7498,"BOX":7499,"crea":7500,"UNN":7501,"Ð¸Ð":7502,"XI":7503,"older":7504,"464":7505,"Assert":7506,"Action":7507,"Ġinum":7508,")\\":7509,"Ġchunk":7510,"terminate":7511,"mos":7512,"bt":7513,"Ġimage":7514,"GPIO":7515,"Ġ134":7516,"ldab":7517,"byt":7518,"Ġ260":7519,"ĠOK":7520,"ĠNAME":7521,"Ġchars":7522,"RANTY":7523,"035":7524,"DV":7525,"xcd":7526,"8589934":7527,"ln":7528,"Ġbpl":7529,"ĠBAD":7530,"uty":7531,"ĠMode":7532,"Scale":7533,"Ġleave":7534,"mg":7535,"ĠDAMAGES":7536,"Ġsectors":7537,"ĠĠĠĠĠĠĠĠĠĠĠĠĊĠĠĠĠĠĠĠĠĠĠĠĠĠĠĠ":7538,"LOT":7539,"Ge":7540,"ĠUS":7541,"Ġproperty":7542,"Ġman":7543,"Ġ@----------------------------------------------------------------":7544,"Ġvi":7545,"STATIC":7546,"GDATA":7547,"freep":7548,"ĠWARRANTY":7549,"play":7550,"ilock":7551,"record":7552,"822":7553,"ether":7554,"vt":7555,"Dest":7556,"Ġ125":7557,"vpsrld":7558,"Ġwithin":7559,"Disable":7560,"Ġ126":7561,"equal":7562,"wCur":7563,"Ġgraphics":7564,"Pi":7565,"BH":7566,"pilogue":7567,"Ġglb":7568,"378":7569,"Ġdip":7570,"convert":7571,"Ġadjust":7572,"KP":7573,"dwpn":7574,"Desktop":7575,"*)*":7576,"fef":7577,"ires":7578,"JI":7579,"Ġvaesenc":7580,"CAVE":7581,"Ġedit":7582,"voice":7583,"Ġmovzbl":7584,"asciiz":7585,"HOR":7586,"ÃĦÃĦ":7587,"]=":7588,"Ġpunpcklqdq":7589,"Ġ#(":7590,"vpaddq":7591,"JSAMP":7592,"FALSE":7593,"ĠWRITE":7594,"dma":7595,"Ġrunning":7596,"ĠTo":7597,"540":7598,"final":7599,"heap":7600,"libx":7601,"Build":7602,"shared":7603,"sure":7604,"783":7605,"Ġpslldq":7606,"olve":7607,"039":7608,"ĠXKEY":7609,"Ġchanged":7610,"ather":7611,"GPR":7612,"Tab":7613,"Ġvideo":7614,"MyCode":7615,"WISE":7616,"VP":7617,"Ġ|=":7618,"Ġ169":7619,"VA":7620,"ification":7621,"WaitFor":7622,"Ġrepro":7623,"Ġuseful":7624,"ĠFind":7625,"examples":7626,"742":7627,"libxml":7628,"334":7629,"ĉĉĊĉ":7630,"dia":7631,"Ġ290":7632,"660":7633,"ĠEDI":7634,"SU":7635,"fH":7636,"Ġ129":7637,"LR":7638,"break":7639,"Ġ('":7640,"WM":7641,"Ġpreserved":7642,"801002":7643,"ĠEB":7644,"Ġdefinition":7645,"965":7646,"rows":7647,"nf":7648,"gener":7649,"CONTEXT":7650,"Ġpositive":7651,"Equ":7652,"ench":7653,"Title":7654,"Ġremainder":7655,"fds":7656,"439":7657,"Ġ122":7658,"bbrev":7659,"xba":7660,"DEPTH":7661,"741":7662,"383":7663,"Ġmany":7664,"DComposition":7665,"pitch":7666,"Ġimplement":7667,"ĠJIT":7668,"Ġĉĉĉĉĉĉĉĉ":7669,"ĠCOUNT":7670,"Ġassume":7671,"]*":7672,"show":7673,"ZTMP":7674,"ĠWh":7675,"Ġnecessary":7676,"ANCH":7677,"apt":7678,"ĠSHALL":7679,"Ġptable":7680,"isit":7681,"Ġecall":7682,"442":7683,"ssq":7684,"ĠFrame":7685,"1101":7686,"0808":7687,"dot":7688,"dos":7689,"ATURE":7690,"ful":7691,")&":7692,"Ġitems":7693,"ĠMUL":7694,"00001097":7695,"Ġhead":7696,"Ġpha":7697,"JustMyCode":7698,"1011":7699,"Ġcopies":7700,"ĠBU":7701,"Ġtx":7702,"ĊĊĠĠĠĠĠĠĠĠ":7703,"Ġsyn":7704,")))":7705,"ĠPh":7706,"454":7707,"ä»":7708,"Run":7709,"Pr":7710,"sts":7711,"***********":7712,"355":7713,"379":7714,"ĠNext":7715,"rtc":7716,"356":7717,"DAC":7718,"Ġrequest":7719,"Gym":7720,"unch":7721,"ĠBase":7722,"Pop":7723,"Ġtst":7724,"Red":7725,"LEM":7726,"ermin":7727,"ĠFFCC":7728,"ĠCharacter":7729,"ĠDEBUG":7730,"ssic":7731,"VIDED":7732,"Ġpshuflw":7733,"SIB":7734,"ICE":7735,"ĠSUM":7736,"Speed":7737,"ĠARI":7738,"Ġ268512":7739,"PCA":7740,")|":7741,"Ġ320":7742,"Ġparse":7743,"lens":7744,"Ġinitialize":7745,"]!":7746,"gebase":7747,"9511":7748,"xbf":7749,"orig":7750,"LEV":7751,"Ġ177":7752,"ĠPROVIDED":7753,"ĠInit":7754,"ĠINCLUDING":7755,"Ñĭ":7756,"ĠWHETHER":7757,"ĠPASS":7758,"__,":7759,"Ġpow":7760,"movwf":7761,"+((":7762,"ship":7763,"Ġxdata":7764,"bar":7765,"ĠĠĠĠĠĠĠĠĠĠĠĠĠĠĠĠĠĠĠĠĠĠĠĠĊĠĠĠĠĠĠĠ":7766,"Ġ164":7767,"âĶĢâĶĢâĶĢâĶĢ":7768,"Ġcalculate":7769,"termine":7770,"paddq":7771,"Ġdispatch":7772,"434":7773,"ffd":7774,"urity":7775,"@@$":7776,"xae":7777,"TON":7778,"window":7779,"ĠĠĠĠĊĠĠĠĠĠĠĠĠ":7780,"rem":7781,"NER":7782,"Ġaddq":7783,":??_":7784,"Ġ268507":7785,"ĠMON":7786,"noise":7787,"ĠNtGdiGet":7788,"scratch":7789,"AULT":7790,"801075":7791,"Worker":7792,"Ġexecute":7793,"ĠASS":7794,"ĠdSnare":7795,"Ġbcache":7796,"NoLock":7797,"ĠMOVEM":7798,"CNSTF":7799,"OCK":7800,"ature":7801,"ĠLIABLE":7802,"PRI":7803,"961":7804,"imagebase":7805,"Ġbased":7806,"TRAP":7807,"ORA":7808,"Ð»":7809,"Ġ'-';":7810,"brelse":7811,"omat":7812,"ĠPort":7813,"ĠPut":7814,"Ġmeans":7815,"Ġgs":7816,"Target":7817,"mulm":7818,"House":7819,"ĠDoor":7820,"ĠCOMP":7821,"Ġretn":7822,"ObjCall":7823,"Ġmaterials":7824,"Ġmultiply":7825,"339":7826,"Ġ268502":7827,"segmov":7828,"VALUE":7829,";.":7830,"Ġ030":7831,"blen":7832,"ĠADDRESS":7833,"ĠJSAMP":7834,"0020":7835,"ĠARISING":7836,"ĠCOMM":7837,"ĠCONTRACT":7838,"Callback":7839,"shlx":7840,"MAC":7841,";******************************************************************************":7842,"Ġbound":7843,"xi":7844,"ĠHOLDER":7845,"HEIGHT":7846,"JNE":7847,"driverlib":7848,"ĠSystem":7849,";*****************************************************************************":7850,"Ġ002":7851,"Ġ161":7852,"000000011":7853,"cision":7854,"560":7855,"Pixel":7856,"Ġtiles":7857,"ĠVis":7858,"419":7859,"TIMER":7860,"æķ°":7861,"Cache":7862,"PRCENTRY":7863,"irus":7864,"ĠOTHERWISE":7865,"Params":7866,"ication":7867,"\"),":7868,"amera":7869,"ĠDIV":7870,"Put":7871,"iling":7872,"Ġpcmpeq":7873,"bswap":7874,"stm":7875,"Initialize":7876,"insert":7877,"ĠTimer":7878,"ony":7879,"Ġclass":7880,"idt":7881,"Dr":7882,"City":7883,"ertical":7884,"fcnt":7885,"HEADER":7886,"pattern":7887,"sf":7888,"Services":7889,"BM":7890,"Ġopcode":7891,"00031":7892,"rdata":7893,"QAE":7894,"espace":7895,"diff":7896,"Console":7897,"Make":7898,"rato":7899,"466":7900,"ĠCRC":7901,"===========":7902,"ĠTX":7903,"................................":7904,"371":7905,"oard":7906,"Ġmatrix":7907,"Ġqueue":7908,"ĠOver":7909,"Ġroom":7910,"INED":7911,"Ġvld":7912,"Ġpartial":7913,"492":7914,"Debugger":7915,"stub":7916,"Ġ250":7917,"+,":7918,"Pack":7919,"apd":7920,"Icon":7921,"cccccc":7922,"564":7923,"fi":7924,"ĠIX":7925,"ĠITE":7926,"morecore":7927,"Ġselected":7928,"double":7929,"ĠAbbrev":7930,";************************************************":7931,"00102":7932,"xce":7933,"Ġresp":7934,"Ġgra":7935,"ĠDescription":7936,"Rgn":7937,"ĠBO":7938,"Ġattention":7939,"Ġdetails":7940,"Ġ176":7941,"Ġjnc":7942,"ĠDEFW":7943,"score":7944,"Ġprocessor":7945,"Convert":7946,"033":7947,"LED":7948,";;;;;;;;;;;;;;;;;;;;;;;;;;;;;;;;;;;;;;;;;;;;;;;;;;;;;;;;;;;;;;;;;;;;;;;;":7949,"nam":7950,"429":7951,"NONE":7952,"fano":7953,"LET":7954,"tools":7955,"Ġ$+":7956,"Ġnode":7957,"Ġcalling":7958,"xfff":7959,"TBL":7960,"Ġ801044":7961,"Ġcg":7962,"ved":7963,"841":7964,"argstr":7965,"Ġpossible":7966,"oi":7967,"task":7968,"ĠĊĠĠĠĠĠĠĠĠĠĠĠ":7969,"==============":7970,"Ġdynamic":7971,"Ġ225":7972,"walk":7973,"462":7974,"840":7975,"arrow":7976,"ĊĊĊĊĊĊĊĊ":7977,"HING":7978,"ĠLABEL":7979,"SN":7980,"-.":7981,"423":7982,"1200":7983,"PATH":7984,"SELECT":7985,"xffffffffffffffc":7986,"ĠApp":7987,"------------------------------------------------------------------------------":7988,"RTOS":7989,"Ġdist":7990,"idend":7991,"ĠAd":7992,"ĠSO":7993,"DEFINE":7994,"BIOS":7995,"@@:":7996,"Ġcompute":7997,"DECL":7998,"append":7999,"528":8000,"0400":8001,"Ġfour":8002,"ĠSTATE":8003,"ĊĠĠĠĠĠĠĠĠĠĠĠĠĠĠĠĠĠĠĠĠ":8004,"ĠCOL":8005,"Ġdeal":8006,"MENU":8007,"APP":8008,"PLAYER":8009,"tefano":8010,"asic":8011,"ĠCD":8012,"olute":8013,"vpshufb":8014,"046":8015,"987":8016,"0915":8017,"clo":8018,"412":8019,"Ġpandn":8020,"ĠFI":8021,"Blocks":8022,"DELAY":8023,"ĠFFBC":8024,"INES":8025,"Calc":8026,"pix":8027,"Ġ8009":8028,"popl":8029,"ĠEXT":8030,"Blank":8031,"ROWS":8032,"Random":8033,"ique":8034,"movdw":8035,"xcb":8036,"orga":8037,"KB":8038,"SIGN":8039,"gl":8040,"ĠTORT":8041,"EEE":8042,"Del":8043,"Ġoldsz":8044,"rid":8045,"mull":8046,"ĠROUTE":8047,"Ġ208":8048,"argfd":8049,"Ġ500":8050,"aridia":8051,"CheckEsp":8052,"ged":8053,"STED":8054,"496":8055,"HEX":8056,"bbbb":8057,"460":8058,"MPL":8059,"sym":8060,"ĠNEAR":8061,"ote":8062,"oring":8063,"TP":8064,"Ġnp":8065,"umb":8066,"Ġallocate":8067,"Ġ================================================":8068,"Ġfstat":8069,"ĠnEb":8070,"Ġ'%';":8071,"=-=-=-=-=-=-=-=-":8072,"movlw":8073,"NtOpen":8074,"MAIN":8075,"Ġadcq":8076,"Ġassembl":8077,"RTCsu":8078,"1600":8079,"Ġcrc":8080,"namex":8081,"SRAM":8082,"4505":8083,"Ġxgft":8084,"sig":8085,"Ġstage":8086,"elif":8087,"Ġavoid":8088,"Ġ268510":8089,"Ġpsubd":8090,"items":8091,"ĠWIN":8092,"GS":8093,"791":8094,"Ġknow":8095,"\";":8096,"gy":8097,"Ġ168":8098,"Ġ'%');":8099,"00014":8100,"Ġmycpu":8101,"Ġ292":8102,"Ġavx":8103,"Compare":8104,"Dig":8105,"ĠMSB":8106,"052":8107,"ĠTEXT":8108,"ĠList":8109,"VRAM":8110,"lide":8111,"tension":8112,"ws":8113,"Ġwhether":8114,"clobbered":8115,"Ġkeys":8116,"cmpw":8117,"sync":8118,"Ġ152":8119,"ĠFetch":8120,"title":8121,"#_":8122,"xaf":8123,"0012":8124,"Ġleast":8125,"Ġ220":8126,"ĊĊĊĠĠĠĠĠĠĠ":8127,"ĠTILE":8128,"phase":8129,"OSS":8130,"Ġent":8131,"ĠENDS":8132,"ĠSBC":8133,"ĠDef":8134,"Integer":8135,"ararg":8136,"ĠCount":8137,"Adjust":8138,"ĠTrans":8139,"ĠTEMP":8140,"lots":8141,"Ġmeminst":8142,"\".":8143,"gor":8144,"xeb":8145,"+_":8146,"subw":8147,"fmul":8148,"Ġstuff":8149,"Ġshuf":8150,"dealloc":8151,"multip":8152,"UV":8153,"decrypt":8154,"Ġspilling":8155,"ĠPOS":8156,"writetext":8157,"Alt":8158,"=============":8159,"ĠĠĠĠĠĠĠĠĠĠĠĠĠĠĠĠĠĠĠĠĠĠĠĠĠĠĠĠĠĠĠĠĠĠĠĠĠĠĠĠĠĠĠĠĠĠ":8160,"Ic":8161,"428":8162,"ĠPIC":8163,"Cry":8164,"ĠSkip":8165,"position":8166,"ĠDISP":8167,"Ġ210":8168,"FIELD":8169,";==================================================================================================":8170,"624":8171,"amie":8172,";-------------------------------------------------------------------------------":8173,"372":8174,"584":8175,"Ġ##":8176,",($":8177,"Column":8178,"(%%":8179,"Disp":8180,"retq":8181,"661":8182,"Ġ--------------------------------------------------------------------------------":8183,"extrn":8184,"eatures":8185,"ESP":8186,"âĢĵ":8187,"$$$$":8188,"Ġign":8189,"ĠMork":8190,"uma":8191,"ĠJamie":8192,"ĠMorken":8193,"ĠLDY":8194,"ball":8195,"ĠValue":8196,"ě[":8197,"sty":8198,")*(":8199,"510":8200,"prompt":8201,"Ġte":8202,"ATS":8203,"mapp":8204,"ctr":8205,"xbd":8206,"PHA":8207,"Ġscale":8208,"Ġ149":8209,"#'":8210,"10001":8211,"ĠSPECIAL":8212,"Disassembly":8213,"kbd":8214,"CBC":8215,"Ġneeds":8216,"cch":8217,"TERFLY":8218,"It":8219,"Ġ151":8220,"Ġenough":8221,"Ġbeginning":8222,"cdc":8223,"cpi":8224,"Ġ186":8225,"650":8226,"((*":8227,"ĠSpec":8228,"ĠMod":8229,"tilec":8230,"ĠInitialize":8231,"ASC":8232,"tilecoll":8233,"585":8234,"696":8235,"nless":8236,"Ġexterndef":8237,"Ġcolour":8238,"ĠProcess":8239,"ï¼Į":8240,"Attributes":8241,"Ġ172":8242,"Normal":8243,"lds":8244,"ldrb":8245,"Ġunderstand":8246,"Tech":8247,"Ġsets":8248,"uring":8249,"fee":8250,"ALO":8251,"fre":8252,"483":8253,"desc":8254,"ffc":8255,"881":8256,"lve":8257,"Ġgu":8258,"Ġremaining":8259,"nist":8260,"Ġcoefficient":8261,"STOP":8262,"Ġresb":8263,"RESET":8264,"ggle":8265,"Clipboard":8266,"SYM":8267,"Selection":8268,"0087":8269,"Ġvpshufb":8270,"Ġbitmap":8271,"nistz":8272,"Ġ232":8273,"ĊĉĠĠĠĠ":8274,"ZX":8275,"cap":8276,"der":8277,"514":8278,"Ġsample":8279,"Ġem":8280,"HASH":8281,";================================================================================":8282,"asc":8283,"Ġvia":8284,"adst":8285,"ĠNUMBER":8286,"Ġ\"<":8287,"Trap":8288,"CheckForDebugger":8289,"Frontpic":8290,"Ġcontents":8291,"Ġâ":8292,"ĠRoutine":8293,"ecp":8294,"PLAIN":8295,"CTX":8296,"NL":8297,"see":8298,"Ġmovsxd":8299,"gic":8300,"000007":8301,"CheckForDebuggerJustMyCode":8302,"ĠBATTLE":8303,"AEB":8304,"Tick":8305,"APE":8306,"Ġkill":8307,"ĠOpen":8308,"sect":8309,"418":8310,"Ġ183":8311,"]{":8312,"SOLE":8313,"UW":8314,"ĠĠĠĠĊĠĠĠĠ":8315,"apture":8316,"Child":8317,"ODE":8318,"Ġcpuflag":8319,"Ġ$$":8320,"4080":8321,"rjmp":8322,"exe":8323,"ssem":8324,"ithub":8325,"Ġyet":8326,";---":8327,"ĠAES":8328,";[":8329,"543":8330,"ĠDIRECT":8331,"Ġ137":8332,"Ġbox":8333,"fcfc":8334,"host":8335,"ĠFAT":8336,"548":8337,"KAN":8338,"Moves":8339,"brinstar":8340,"))*":8341,"tbl":8342,"ĠnAb":8343,"Image":8344,"XAR":8345,"nical":8346,"module":8347,"uplicate":8348,"LEEP":8349,"pushf":8350,"ĠSource":8351,"ĠSum":8352,"binary":8353,"Ġpunpckhdq":8354,"DIS":8355,"Ġpinsr":8356,"773":8357,"*************":8358,"SPEC":8359,"Quad":8360,"MEMORY":8361,"Ġme":8362,"ĠVRAM":8363,"ĠUnless":8364,"cor":8365,"Ġtitle":8366,"ĠREPX":8367,"ĠZERO":8368,"conn":8369,"Ġbar":8370,"settrack":8371,"Dispatch":8372,"ĠExpansion":8373,"settrackregister":8374,"Ġ286":8375,"STY":8376,"Objects":8377,"otient":8378,"Keys":8379,"Ġæ":8380,"ĠBy":8381,"chk":8382,"843":8383,"argument":8384,"ĊĊĊČ":8385,"Ġta":8386,"Ġconstants":8387,"32767":8388,"Ġ196":8389,"AU":8390,"Lookup":8391,"Ġexecut":8392,"cccccccH":8393,"858993460":8394,"Barrier":8395,"TRAINER":8396,"redits":8397,"01111":8398,"ĠDelay":8399,"Ġdct":8400,"00009":8401,"pde":8402,"options":8403,"anges":8404,"dtor":8405,"Io":8406,"FROM":8407,"771":8408,"esize":8409,"582":8410,"Ġvolume":8411,"@$$":8412,"ĠHP":8413,"413":8414,"000030":8415,"cho":8416,"ĠccccccccH":8417,"strb":8418,"ĠMore":8419,"Ġ147":8420,"bcache":8421,"Ab":8422,"chan":8423,"Helper":8424,"Ġilock":8425,"ĠAE":8426,"random":8427,"Ġmantissa":8428,"ĠHOLDERS":8429,"427":8430,"present":8431,"crypt":8432,"Ġ392":8433,"Ġbsr":8434,"Ġvsrc":8435,"Ġ304":8436,"573":8437,"Ġagreed":8438,"lg":8439,"Ġdivisor":8440,"bpl":8441,"ĠTRUE":8442,"increment":8443,"ĠNtUserSet":8444,"Range":8445,"470":8446,"GRAM":8447,"è¿":8448,"foo":8449,"ĠMis":8450,"Ġ302":8451,"Ġ036":8452,"Ġ156":8453,"rac":8454,"692":8455,"Ġvst":8456,"parent":8457,"export":8458,"Ġfalse":8459,"aration":8460,"Ġgets":8461,"Ġloading":8462,"inted":8463,"plt":8464,"ĠSo":8465,"SUP":8466,"zeng":8467,"662":8468,"ĠGFX":8469,"rance":8470,"%%%%%%%%%%%%%%%%%%%%%%%%%%%%%%%%%%%%%%%%%%%%%%%%%%%%%%%%%%%%%%%%%%%%":8471,"Ñı":8472,"Ġpsubsw":8473,"ĠOBJECT":8474,"zengfr":8475,"square":8476,"8526":8477,"NPROC":8478,"Lab":8479,"erver":8480,";********************************************************************************************************":8481,"Ġlk":8482,"forward":8483,"Ġholds":8484,"Ġunknown":8485,"801073":8486,",__":8487,"Ġ282":8488,"......":8489,"Decl":8490,"Us":8491,"Ġvbroadcasti":8492,"PartyMon":8493,"AW":8494,"github":8495,"ĠSIM":8496,"edia":8497,"np":8498,"#######":8499,"Ġprotected":8500,"MODULE":8501,"ĠINIT":8502,";#":8503,"Ġcomplete":8504,"80109":8505,"xda":8506,"Ġĉĉĉĉ":8507,"fin":8508,"ios":8509,"ving":8510,"$\"":8511,"ĠMsg":8512,"ĠIP":8513,"BLK":8514,"sharedfd":8515,"Request":8516,"Ġjava":8517,"ĠMV":8518,"ERE":8519,"*+":8520,"ACTION":8521,"nicalServices":8522,"Ġvpclmulqdq":8523,"Ġdivide":8524,"_+":8525,"memcpy":8526,"Ġder":8527,"nunits":8528,"Ġ801045":8529,"Ġpreserve":8530,"tap":8531,"Modif":8532,"Args":8533,"rcall":8534,"Ã©":8535,"Exc":8536,"validate":8537,"ĠTODO":8538,"Ġmiddle":8539,"037":8540,"ĠFIL":8541,"cgt":8542,"BI":8543,"Ġ182":8544,"Ġ-(":8545,"610":8546,"arch":8547,"consputc":8548,"ĠTrack":8549,"onic":8550,"pdr":8551,"ĠSD":8552,"Ġcopied":8553,"Ġnv":8554,"Character":8555,"esired":8556,"nb":8557,"Acc":8558,"XY":8559,"Ġscore":8560,"NOTHING":8561,"LTS":8562,"801076":8563,"Ġwq":8564,"kfree":8565,"ĠBASIS":8566,"Ġcar":8567,"stab":8568,"LAYER":8569,"DISPLAY":8570,"Hz":8571,"âĢĵâĢĵ":8572,"cleanup":8573,"imen":8574,"special":8575,"Ġaccumulator":8576,"499":8577,"cked":8578,"holding":8579,"hv":8580,"Ġ312":8581,"------------------------------------------------------------------------------@":8582,"SITION":8583,"Ġ(__":8584,"ERT":8585,"PRG":8586,"Ġram":8587,"Ġ254":8588,"onment":8589,"ely":8590,"nRst":8591,"FCB":8592,"NORMAL":8593,".......":8594,"ymmword":8595,"Ġmovw":8596,"ANCE":8597,"limit":8598,"Client":8599,"Ġ301":8600,"PAG":8601,"Ġ#_":8602,"xad":8603,"Ġinsert":8604,"Ġpages":8605,"ĠLOW":8606,"ofile":8607,"Ġexpect":8608,"killed":8609,"chron":8610,"ĠCurrent":8611,"pair":8612,"Ġreference":8613,"BAS":8614,"bda":8615,"estart":8616,"455":8617,"MAN":8618,"Ġ----":8619,"SPI":8620,"Ġmorecore":8621,"Ġfix":8622,"00034":8623,"801072":8624,"Ġ801036":8625,"Ġworld":8626,"Ġstatement":8627,"pushq":8628,"025":8629,"syn":8630,"(-@":8631,"Ġ020":8632,"Ġgot":8633,"CAVEATS":8634,"OD":8635,"SAD":8636,"Module":8637,"NtGdiEng":8638,"prop":8639,"SEC":8640,"Ġhapp":8641,"Ġ133":8642,"Ġlin":8643,"ĠAV":8644,"SPOSE":8645,"@-":8646,"Fix":8647,"Ġpextr":8648,"Ġsched":8649,"createdelete":8650,"Pokedex":8651,"riginal":8652,"0911":8653,"Ġfld":8654,"Gra":8655,"Ġ@----------------------------------------------------------------------":8656,"Ġ198":8657,"ADOW":8658,"Ġ066":8659,"BOOT":8660,"Priority":8661,"Ġserial":8662,"SKIP":8663,"sbrktest":8664,"åĲ":8665,"resh":8666,"Ġhorizontal":8667,"rm":8668,"Ġ276":8669,"Ġendif":8670,"ĠVOID":8671,"Ġfloating":8672,"Backpic":8673,"latform":8674,"ĠMark":8675,"Ġ----------------------":8676,"ĠVector":8677,"Ġpoly":8678,"eip":8679,"ĠORG":8680,"ĠFR":8681,"Old":8682,"820":8683,"SOR":8684,"436":8685,"DN":8686,"ĠĠĠĠĠĠĠĠĠĠĠĠĠĠĠĠĠĠĠĠĠĠĠĠĠĠĠĠĠĠĠĠĠĠĠĠĠĠĠĠĠĠĠĠĠĠĠĠ":8687,"Blt":8688,"ĠGDT":8689,"ĠRow":8690,"ĠPAGE":8691,"ARK":8692,"Ġperson":8693,"'ll":8694,"Full":8695,"ĠLSB":8696,"Se":8697,"external":8698,"dicted":8699,"1141":8700,"Ġpsllw":8701,"License":8702,"ier":8703,"uzz":8704,"Ġunderstands":8705,"DAY":8706,"PILOG":8707,"ĠRESTORE":8708,"Ġtranspose":8709,"Ġticks":8710,"ĠDP":8711,"outb":8712,"verted":8713,"CFG":8714,"Ġhope":8715,"511":8716,"000015":8717,"ĠTable":8718,"inode":8719,"411":8720,"Ġbr":8721,"Ġprm":8722,"acing":8723,"ĠConvert":8724,"Ġmost":8725,"CONT":8726,"ROWN":8727,"LAST":8728,"&&":8729,"ICT":8730,"destr":8731,"BAD":8732,"Ġ158":8733,"Ġ283":8734,"ĠMAGIC":8735,"ĠHE":8736,"Ġ'.":8737,"Ġsn":8738,"DEST":8739,"inb":8740,"ciphertext":8741,"Ġrra":8742,"963":8743,"Ġ294":8744,"536":8745,"Bounds":8746,"Alpc":8747,"Ġ138":8748,"Ġgenerated":8749,"474":8750,"Rece":8751,"deal":8752,"Oper":8753,"Ġ289":8754,"Ġsl":8755,"Ġdjnz":8756,"ÑģÑĤ":8757,"ĠZero":8758,"ĠLBB":8759,"HEAD":8760,"680":8761,"513":8762,"elf":8763,"YPE":8764,"bri":8765,"Ġ(!":8766,"%%_":8767,"Rea":8768,"Transform":8769,"Ġ193":8770,"Ġetc":8771,"USH":8772,"CPI":8773,"Ġdisabled":8774,"Ġaddition":8775,"Ġ#&":8776,"590":8777,"034":8778,"QEB":8779,"Ġ188":8780,"ĠPPU":8781,"Ġden":8782,"||||||||":8783,"000040":8784,"Notify":8785,"nfiles":8786,"hich":8787,"Sprites":8788,"IRQHandler":8789,"Ġ148":8790,"Ġsig":8791,"FAMISTUDIO":8792,"468":8793,"ĠSmall":8794,"570":8795,"farcall":8796,"435":8797,"Ġ%%_":8798,"Transition":8799,"Ġnor":8800,"542":8801,"ĠÐ¿":8802,"Ġselector":8803,"WH":8804,"opt":8805,"java":8806,"kvm":8807,"aff":8808,"Ġ268511":8809,"EED":8810,"cpuid":8811,"\"(":8812,"Ġwere":8813,"ĠByte":8814,"ĠVALUE":8815,"digit":8816,"ĠPer":8817,"popa":8818,"trace":8819,"gorithm":8820,"Ġcommon":8821,"scr":8822,"writei":8823,"have":8824,"Ġ230":8825,"Ġupdated":8826,"Ġhlt":8827,"664":8828,"Movement":8829,"4444":8830,"lyph":8831,"Ġresource":8832,"Fx":8833,"Ġbcs":8834,"Mark":8835,"ĠAS":8836,"Ġ2016":8837,"Ġallocated":8838,"Gu":8839,"MVI":8840,"ĠALL":8841,"Ġstrings":8842,"BALL":8843,"kes":8844,"iunlockput":8845,"Ġ309":8846,"ioapic":8847,"NOISE":8848,"mary":8849,"Vi":8850,"ĠDIR":8851,"Ġalong":8852,"CJK":8853,"%@":8854,"rad":8855,"Ġ801017":8856,"ditional":8857,"warp":8858,"Ġmlen":8859,"El":8860,"571":8861,"867":8862,"415":8863,"Ñĩ":8864,"STIT":8865,"xtmp":8866,"Ġ006":8867,"ĠMODE":8868,"LEVEL":8869,"Ġ131":8870,"Ġ'/":8871,"Ġgran":8872,"RIPT":8873,"Chunk":8874,"most":8875,"(\"%":8876,"åħ":8877,"Ġ\"\\":8878,"]:":8879,"remove":8880,"041":8881,"031":8882,"ĠSwitch":8883,"valu":8884,"cmpi":8885,"vironment":8886,"Ð²":8887,"Ġautomat":8888,"ĠPointers":8889,"Ġauthors":8890,"489":8891,"Lib":8892,"TechnicalServices":8893,"shld":8894,"Disk":8895,"Ġcluster":8896,"NEG":8897,"cond":8898,"Ġintell":8899,"Coord":8900,"Ġrect":8901,"3030":8902,"stribute":8903,"Ġlane":8904,"591":8905,"Ġparent":8906,"Ġpslld":8907,"Ġobtained":8908,"Found":8909,"PAN":8910,"Ġ296":8911,"DST":8912,"Ġpower":8913,"Power":8914,"Ġlanguage":8915,"Ġqk":8916,"Ġ801001":8917,"limb":8918,"cmpgt":8919,"Ġstosd":8920,"780":8921,"534":8922,"Ġ214":8923,"sext":8924,"instance":8925,"12345678901234":8926,"Steam":8927,"Ġ146":8928,"614":8929,"ĠOther":8930,"Ġcmove":8931,"ĠFFCF":8932,"Prev":8933,"Ġsubroutine":8934,")){":8935,"ĠFALSE":8936,"xmlX":8937,"BK":8938,"ĠBlock":8939,"mpinit":8940,"ãģ®":8941,"479":8942,"dn":8943,"ever":8944,"Ġsal":8945,"Cell":8946,"878":8947,"mented":8948,"Pad":8949,"outer":8950,"Ġpitch":8951,"hite":8952,"Filter":8953,"padd":8954,"QUEN":8955,"654":8956,"Ġ********************************************************************************":8957,"Ġredistribute":8958,"STITUTE":8959,"532":8960,"Joy":8961,"Ġattribute":8962,"Ġrlen":8963,"logo":8964,"880":8965,"Ġ801043":8966,"disp":8967,"vprintfmt":8968,"Tower":8969,"Pokemon":8970,"NAM":8971,"til":8972,"Ġ248":8973,"Ġ310":8974,"Cr":8975,"Ġelif":8976,"ectual":8977,"Ġintellectual":8978,"538":8979,"Ġjge":8980,"Scene":8981,"ĠNumbers":8982,"Ġborder":8983,"ĠMultip":8984,"THAT":8985,"JIS":8986,"458":8987,"RTL":8988,"Keyboard":8989,"Ġpavgb":8990,"ela":8991,"pola":8992,"ĉĉĠĠĠ":8993,"aging":8994,"Ġsigned":8995,"417":8996,"dsq":8997,"simd":8998,"Ġpacket":8999,"960":9000,"GER":9001,"ĠSIMD":9002,"ending":9003,"Ġsquare":9004,"asl":9005,"ĠGE":9006,"acci":9007,"ĊĠĊ":9008,"QUE":9009,"0102":9010,"________________________________":9011,"ĠDPL":9012,"ĠAUT":9013,"Ġ008":9014,"ĠSnd":9015,"ĠGe":9016,"Ġpad":9017,"vpslld":9018,"Ġsprites":9019,"ĠInter":9020,"bios":9021,"Ġthree":9022,"setc":9023,"NG":9024,"Ġ165":9025,"Ġ(\"":9026,"stk":9027,"\",\"":9028,"gb":9029,"490":9030,"NUMBER":9031,"516":9032,"ĠELSE":9033,"BUTTERFLY":9034,"ĠDLabel":9035,"classic":9036,"JECT":9037,"nand":9038,"ĊĉĉĉĊĉĉ":9039,"xxxx":9040,"onacci":9041,"CLEAR":9042,"ĠGEN":9043,"1008":9044,"000009":9045,"Ġbackground":9046,"mma":9047,")).":9048,"Ġvpbroadcastq":9049,"ities":9050,"ABC":9051,"ĠÐ²":9052,"tens":9053,"nlink":9054,"example":9055,"ccsv":9056,"TXFM":9057,"two":9058,"Ġmoves":9059,"?_":9060,"Cmd":9061,"Ġ205":9062,"ĠDb":9063,"Ġ801056":9064,"Ġ216":9065,"ADDI":9066,"Ġ135":9067,"ĠRPN":9068,"vfprintf":9069,"MY":9070,"ĠĠĠĠĠĠĠĠĠĠĠĠĠĠĠĠĠĠĠĠĠĠĠĠĠĠĠĠĠĠĠĠĠĠĠĠĠĠĠĠĠĠĠĠĠ":9071,"inner":9072,"ride":9073,"BIN":9074,"LNAME":9075,"5800":9076,"Ġcontrib":9077,"COUNTER":9078,"LIG":9079,"MT":9080,"imation":9081,"613":9082,"8556":9083,"ĠExpanded":9084,"ĠSIGN":9085,"'::":9086,"710":9087,"REP":9088,"@__":9089,"CLK":9090,"ĠYes":9091,"(((":9092,"ENSION":9093,"ĠBS":9094,"862":9095,"UNDER":9096,"Document":9097,"na":9098,"Ġ185":9099,"ĠADDR":9100,"7777":9101,"ĠCRY":9102,"Ġmade":9103,"ulong":9104,"Ġstrlen":9105,"sdk":9106,"ROR":9107,"ĠHandle":9108,"Ġtheir":9109,"Ġtax":9110,"sist":9111,"rrc":9112,"BLUE":9113,"Content":9114,"ĠPri":9115,"Ġnever":9116,"ĠDev":9117,"Mis":9118,"Ġtxa":9119,"EVER":9120,"Ġ284":9121,"ushort":9122,"riate":9123,"AUTO":9124,"Transaction":9125,"=%":9126,"http":9127,"CLAIM":9128,"066":9129,"?\"":9130,"IBU":9131,"vag":9132,"ĠDECL":9133,"Ġpip":9134,"ĠZMM":9135,"ĠAllocate":9136,"ulse":9137,"ĠVERTEX":9138,"ĊĊĉĉĉĉ":9139,"lier":9140,"Ġsll":9141,"ĠDisable":9142,"%>":9143,"111111":9144,"ĠIncrement":9145,"iderw":9146,"ĠEBP":9147,"ĠĠĠĠĠĠĠĠĠĠĠĠĠĠĠĠĠĠĠĠĠĠĠĠĠĠĠĠĠĠĠĠĠĠĠĠĠĠĠĠĠĠĠĠĠĠĠĠĠĠĠĠĠĠĠĠĠĠĠĠĠĠĠĠĠĠĠĠĠ":9148,"åľ":9149,"ãĥ¼":9150,"469":9151,"cycle":9152,"TIVE":9153,"Ġcurrently":9154,"ĠNtQuery":9155,"Ġ801037":9156,"Ġoptim":9157,"Ġmpn":9158,"865":9159,"NtGdiSet":9160,"Ġinv":9161,"ĠFFDA":9162,"BSIZE":9163,"ĠĠĊĠ":9164,"Turn":9165,"ĠGame":9166,"Copyright":9167,"fac":9168,"ole":9169,"onse":9170,"feh":9171,"Ġgenerate":9172,"Ġinstrument":9173,"Ġgrow":9174,"478":9175,"Ġamount":9176,"Ġnbytes":9177,"ĠHealth":9178,"Ġmalloc":9179,"fadd":9180,"CK":9181,"vagrant":9182,"imated":9183,"ILD":9184,"Ġ306":9185,"BYTES":9186,"Ġvpermq":9187,"Wh":9188,"ĠGo":9189,"jrnz":9190,"Ġpclmulqdq":9191,"ĠEE":9192,"Real":9193,"ĠPI":9194,"XMMBLOCK":9195,"OME":9196,"2006":9197,"operator":9198,"half":9199,"siles":9200,"0141":9201,"ĊĠĠĠĠĠĠĠĠĠĠĠĠĠĠĠĠĠĠĠĠĠĠĠĠ":9202,"LSR":9203,"laces":9204,"ĠVertex":9205,"588":9206,"GL":9207,"system":9208,"CLO":9209,"Ġ[-":9210,"Ġblank":9211,"nread":9212,"Ġ295":9213,"ĠOpAccess":9214,"ĠOpAccessChain":9215,"1032":9216,"words":9217,"Ġadded":9218,"nces":9219,"ettes":9220,"ĠSUBSTITUTE":9221,"Ġ291":9222,"ĠFARG":9223,"ino":9224,"hlix":9225,"518":9226,"hundo":9227,"Ġapplic":9228,"ETTE":9229,"oci":9230,"><":9231,"ctx":9232,"duced":9233,"cn":9234,"Ġ219":9235,"assume":9236,"ibonacci":9237,"Ġextended":9238,"801077":9239,"Snd":9240,"pslldq":9241,"buff":9242,"gf":9243,"ĠLF":9244,"Ġ600":9245,"ĠVirtual":9246,"Ġdgroup":9247,"okie":9248,"gon":9249,"ĠSign":9250,"Ġactually":9251,";-----------------------------":9252,"16299":9253,"ĠLIN":9254,"Ġmodification":9255,"ĠREGISTER":9256,"Ġmovss":9257,"Ġfall":9258,"ĠPRI":9259,"ĠControl":9260,"Predicted":9261,"Lcd":9262,"Ġ157":9263,"Ġattributes":9264,"need":9265,"471":9266,"aesni":9267,"Ġcpx":9268,"fstp":9269,"TMR":9270,"mmgr":9271,"Ġconn":9272,"Parser":9273,"517":9274,"ctl":9275,"Ġproject":9276,"437":9277,"Ġcoefficients":9278,"leaq":9279,"CCCC":9280,"Ġready":9281,"748":9282,"Active":9283,"Record":9284,"aw":9285,"Evos":9286,"SWAP":9287,"ĠINDIRECT":9288,"451":9289,"ĠNEW":9290,"BAR":9291,"Ġ298":9292,"714":9293,"âĶģâĶģâĶģâĶģ":9294,"Dst":9295,"Ġpp":9296,"ĊĠĠĠĠĠĠĊĠĠĠĠĠ":9297,"Ġdex":9298,"ĠDISCLAIM":9299,"ĠĠĠĠĠĠĠĠĠĠĠĠĠĠĠĠĠĠĠĠĠĠĠĠĠĠĠĠĠĠĠĠĠĠĠĠĠĠĠĠĠĠĠĠĠĠĠĠĠ":9300,"ĠCY":9301,"EXTERNAL":9302,"Ġreached":9303,"Ġapprop":9304,"Ġonto":9305,"FAT":9306,"Ġ293":9307,"ĠNC":9308,"Ġstandard":9309,"Ġserv":9310,"Ball":9311,"idden":9312,"insn":9313,"Oop":9314,"vv":9315,"Meta":9316,"dirlink":9317,"AI":9318,"KANJI":9319,"creation":9320,"Ġkfree":9321,"xmmword":9322,"ĠFFCB":9323,"Ġ2000":9324,"ĠSTORE":9325,"Far":9326,"ABS":9327,"583":9328,"--;":9329,"Ðº":9330,"learn":9331,"729":9332,"kalloc":9333,"ĠMIN":9334,"Ġcolumns":9335,"TOK":9336,"Ma":9337,"044":9338,"530":9339,"xmlC":9340,"630":9341,"527":9342,"568":9343,"VICES":9344,"drivers":9345,"ĠRhp":9346,"ssembl":9347,"Ġja":9348,"Ġonce":9349,"Pass":9350,"RG":9351,"wifi":9352,"ĠLICENSE":9353,"Ġ285":9354,"882":9355,"Ġ8008":9356,"destroy":9357,"instrument":9358,"See":9359,"Ġhit":9360,"ABI":9361,"Attrs":9362,"Ġ00000010":9363,"?$?":9364,"620":9365,"FITS":9366,"Ġstrideq":9367,"startup":9368,"tor":9369,"fft":9370,"HANDLE":9371,"574":9372,"ĠPAT":9373,"ĠPOINTER":9374,"ĠUSAGE":9375,"SCROLL":9376,"10000000":9377,"Ġ167":9378,"Wrap":9379,"FIRST":9380,"Ġretain":9381,"akes":9382,"ĠBUS":9383,"ĠEVEN":9384,"sad":9385,"Fetch":9386,"bcd":9387,"ny":9388,"Ġ004":9389,"Linfo":9390,"ĠDEL":9391,"maph":9392,"ĠSetup":9393,"bos":9394,"ĠMicrosoft":9395,",-(":9396,"457":9397,"atter":9398,"SIBILITY":9399,"INESS":9400,"Ġtake":9401,"Ġ060":9402,"ĠSUCH":9403,"Ġdta":9404,"ids":9405,"057":9406,"ĠALIGN":9407,"Ġaccomp":9408,"Ġ(?)":9409,"Ġputs":9410,"'.":9411,"Ġ178":9412,"ĠPS":9413,"ĠFFBB":9414,"529":9415,"ccf":9416,"612":9417,"601":9418,"DIG":9419,"Frames":9420,"reader":9421,"GREEN":9422,"801071":9423,"CYPH":9424,"632":9425,"Ġcontroller":9426,"Ġprepare":9427,"ĠLOCAL":9428,"SEQUEN":9429,"SEQUENTIAL":9430,"msr":9431,"Ġappropriate":9432,"ĠSSE":9433,"438":9434,"omic":9435,"Connect":9436,"intext":9437,"unpckh":9438,"Ġ139":9439,"puts":9440,"Ġshif":9441,"CCR":9442,"OO":9443,"Ġ194":9444,"Ġwk":9445,"Ġwor":9446,"Ġ390":9447,"Ġgraph":9448,"Ġaction":9449,"Ġcorresp":9450,"Ġer":9451,"Job":9452,"cocos":9453,"Ġstarts":9454,"STK":9455,"forktest":9456,"Location":9457,"runcmd":9458,"Bad":9459,"iunlock":9460,"ĠCLC":9461,"ĠMAIN":9462,"EnemyMon":9463,"Ġmultiple":9464,"Ġpair":9465,"SAV":9466,"ible":9467,"Ġlarg":9468,"ffa":9469,"730":9470,"atal":9471,"ational":9472,"generic":9473,"928":9474,"Own":9475,"Ġffffffff":9476,"SYNC":9477,"ALOG":9478,"ĠGLOBAL":9479,"ĠCONSEQUENTIAL":9480,"elseif":9481,"EBREAK":9482,"ĠĉĉĠĠĠ":9483,"LETE":9484,"uthor":9485,"Ġ308":9486,"nn":9487,"0014":9488,"Ġ80100390":9489,"active":9490,"Ġchain":9491,"ĠMsgDesc":9492,"048":9493,"Ġside":9494,"Room":9495,"arameters":9496,"ĠEPILOG":9497,"illa":9498,"526":9499,"udiv":9500,"att":9501,"Ġcal":9502,"810":9503,"TK":9504,"None":9505,"Ġ<.":9506,"LICENSE":9507,"UFF":9508,"ADR":9509,"Search":9510,"0104":9511,"'ve":9512,"ĠPROFITS":9513,"caller":9514,"491":9515,"Sty":9516,"Super":9517,"3108":9518,"THREAD":9519,"525":9520,"617":9521,"000008":9522,"Ġ195":9523,"failed":9524,"bab":9525,"strncpy":9526,"ĠPal":9527,"Ġforms":9528,"Ġgoing":9529,"ĠLOSS":9530,"engine":9531,"ALK":9532,"Ġgc":9533,"Ġmight":9534,"moved":9535,"Ġcas":9536,"bench":9537,"ĠGOT":9538,"ĠSBUTTERFLY":9539,"064":9540,"ĠNEGLIG":9541,"ĠNEGLIGENCE":9542,"total":9543,"Ġ\"%":9544,"ĠPlay":9545,"power":9546,"FLIP":9547,"476":9548,"qq":9549,"pool":9550,"Card":9551,"Ġparam":9552,"ops":9553,"Ġ287":9554,"991":9555,"Ġcons":9556,"ĊĠĠĠĠĠĠĠĠĠĠĠĠĠĠĠĠĠĠĠĠĠĠĠĠĠĠĠĠĠ":9557,"SUBI":9558,"ORK":9559,"():":9560,"è¡":9561,"Ġdisp":9562,"Ġtwtempl":9563,"Ġ8007":9564,"maridia":9565,"tran":9566,"ĠLEAF":9567,";(":9568,"Ġmouse":9569,"Merge":9570,"Pref":9571,"CBD":9572,"DESCALE":9573,"Stats":9574,"Ġ234":9575,"mulh":9576,"UBLE":9577,"Ġsyntax":9578,"ĠFiles":9579,"REL":9580,"ĠNe":9581,"invalid":9582,"ĠSRAM":9583,"Ġ'_":9584,"ĠUART":9585,"plot":9586,"WIND":9587,"ĠCompare":9588,"Ġgranted":9589,"ftable":9590,"rays":9591,"ĠLEN":9592,"683":9593,"Ġselection":9594,"hm":9595,"Ġduring":9596,"Ġdot":9597,"ullet":9598,"CALLEE":9599,"XXXX":9600,";++":9601,"GDT":9602,"10003":9603,"ĠSTRING":9604,"472":9605,"_{":9606,"ĠFill":9607,"Ġrepeat":9608,"ĠESP":9609,"DY":9610,"Ġ360":9611,"UST":9612,"æĺ":9613,"00000000000":9614,"asmfunc":9615,"EVENT":9616,"-_":9617,"Ġdp":9618,"Ġcause":9619,"7000":9620,"ĠĠĊĠĠĠĠ":9621,"Ġnumeric":9622,"EPI":9623,"Chk":9624,"ĠTRANSPOSE":9625,"ival":9626,"ĉĠĠĠĠĠĠ":9627,"80001":9628,"tmlearn":9629,"[-":9630,"LS":9631,"Ġmapp":9632,"codes":9633,"11111":9634,"501":9635,"gory":9636,"Ġ303":9637,"864":9638,"agon":9639,"11000":9640,"ĠWATER":9641,"Ġtwtemph":9642,"596":9643,"Ġ173":9644,"Ġclo":9645,"POWER":9646,"ater":9647,"Ġ\".":9648,"ĠInt":9649,"Ġ801046":9650,"xkey":9651,"OPERATION":9652,"DECLARE":9653,"ĠCalculate":9654,"Ġwalk":9655,"ĠTABLE":9656,"TIV":9657,"VERT":9658,"ĠPOINT":9659,"InstanceNoLock":9660,"842":9661,"ĠXX":9662,"dirfile":9663,"Allocate":9664,"ategory":9665,"Ġpast":9666,"gp":9667,"search":9668,"palette":9669,"vd":9670,"Ġ166":9671,"CHG":9672,"JCOEF":9673,"ĠWAY":9674,"epilogue":9675,"ura":9676,"ĠAp":9677,"rec":9678,"Drive":9679,"pped":9680,"ĠFFBF":9681,"kmem":9682,"cer":9683,"ObjCallInstanceNoLock":9684,"PF":9685,"ipe":9686,"ĠJNE":9687,"Ġ143":9688,"usy":9689,"Ġelements":9690,"lcall":9691,"Ġ189":9692,"Ġ640":9693,"ĠxmmA":9694,"Ġscratch":9695,"Attacks":9696,"Ġsep":9697,"ACTER":9698,"Ki":9699,"Ġpte":9700,"461":9701,"Ġalignment":9702,"maphore":9703,"ĠGen":9704,"nwrite":9705,"endproc":9706,"vpand":9707,"Decay":9708,"Ġshufps":9709,"ste":9710,"Ġiunlock":9711,"istory":9712,"Ġpermissions":9713,"Ġmachine":9714,"Ġ319":9715,"bu":9716,"Application":9717,"Pair":9718,"8192":9719,"832":9720,"Edit":9721,"ĠArguments":9722,"ĠRev":9723,"Ġpermitted":9724,"Dex":9725,"ĠSTRICT":9726,"api":9727,"strncmp":9728,"Ġ175":9729,"mutex":9730,"ĠJUMP":9731,"digits":9732,"ĠCONDI":9733,"hlcoord":9734,"Graphics":9735,"ĠBUFFER":9736,"filewrite":9737,"az":9738,"MenuItem":9739,"VIDEO":9740,"cca":9741,"Ġ===============================================================":9742,"Ġdelete":9743,"irm":9744,"element":9745,"IDENT":9746,"502":9747,"CALLI":9748,"000045":9749,"ĠModif":9750,"BUTTON":9751,"rotate":9752,"Ġvec":9753,"pusha":9754,"license":9755,"ĠHOW":9756,"execute":9757,"Interface":9758,"DRI":9759,"736":9760,"801079":9761,"Ġprocedure":9762,"Profile":9763,"Ġprog":9764,"Ġcontribut":9765,"lacement":9766,"GHI":9767,"writetest":9768,"Body":9769,"00054":9770,"Ġ307":9771,"Lay":9772,"80002":9773,"Ġvpsrlq":9774,"REQ":9775,".....":9776,"Ġangle":9777,"###############################################################################":9778,"1677":9779,"Ġ8001":9780,"0103":9781,"Ġrepresent":9782,"ions":9783,"]}":9784,"Ġmovlw":9785,"Ġdr":9786,"Ġfixed":9787,"Ġ213":9788,"ĠBack":9789,"Ġgsl":9790,"Ġjae":9791,"Routine":9792,"stract":9793,"dirlookup":9794,"ĠDIG":9795,"bcs":9796,"ifnidn":9797,"NtGdiD":9798,"Ġrp":9799,"ieve":9800,"ĠDEFINE":9801,"Species":9802,"Termin":9803,"ï¿½ï¿½ï¿½ï¿½":9804,"Ġsignal":9805,"058":9806,".,":9807,"Ġfloor":9808,"OTH":9809,"Ġ229":9810,"æī":9811,"Ġ201":9812,"SYSTEM":9813,"YMM":9814,"ĠFFCD":9815,"ĠFFBD":9816,"ĠNESTED":9817,"join":9818,"ĠFFCA":9819,"*****":9820,"Ġfast":9821,"801078":9822,"Stride":9823,"IMAGE":9824,"Ġasci":9825,"ĠFFBA":9826,"SUM":9827,"ison":9828,"rkd":9829,"Registers":9830,"Ġflip":9831,"cursive":9832,"Short":9833,"ccc":9834,"Ġstar":9835,"agement":9836,":/":9837,"CAT":9838,"turn":9839,"wards":9840,"Ġgover":9841,"Ġtf":9842,"mmc":9843,"Ġimagerel":9844,"ariables":9845,"day":9846,"duty":9847,"Ġinternal":9848,"Ġpatch":9849,"orl":9850,"scanf":9851,"wide":9852,"Ġstorage":9853,"MMC":9854,"cent":9855,"BEAM":9856,"10100":9857,"ĠEOR":9858,"BT":9859,"Ġpmax":9860,"Ġ215":9861,"ĠNtSet":9862,"629":9863,"4040":9864,"weak":9865,"UINT":9866,"634":9867,"rian":9868,"cell":9869,"Ġhttps":9870,"ĠBROWN":9871,"519":9872,"Ġ179":9873,"TECT":9874,"prefix":9875,"ĠBRA":9876,"Alter":9877,"ĠSelect":9878,"Ġ281":9879,"Ġdepend":9880,"ĠDESC":9881,"ĠTHEORY":9882,"533":9883,"Ġ510":9884,"1310":9885,"Ġlf":9886,"APH":9887,"IDENTAL":9888,"ĠFFBE":9889,"ĠRo":9890,"Ġuart":9891,"Ġflt":9892,"ĠFFCE":9893,"Head":9894,"unlinkread":9895,"bigfile":9896,"ODS":9897,"tings":9898,"Ġimmediate":9899,"eld":9900,"BCD":9901,"Ġiput":9902,"ĠIM":9903,"ulate":9904,"PAT":9905,"ily":9906,"ĠObj":9907,"ĠINCIDENTAL":9908,"PAGEBREAK":9909,"Ġ299":9910,"ĠDRI":9911,"VISED":9912,"Break":9913,"GUI":9914,"Ġstp":9915,"Ġixl":9916,"**********":9917,"ĠDAMAGE":9918,"ĠLayer":9919,"ĠDebug":9920,"Ġ217":9921,"ĠHOWEVER":9922,"Ġ206":9923,"ĠADVISED":9924,"XL":9925,"jack":9926,"Ġreproduce":9927,"ALLOC":9928,"cpp":9929,"[_":9930,"Version":9931,"bfe":9932,"dict":9933,"LDD":9934,"Ġ244":9935,"ĠSLEEP":9936,"475":9937,"filename":9938,"ĠMD":9939,"STO":9940,"Ġlp":9941,"702":9942,"çĶ":9943,"ĠOAM":9944,"ĠPOSSIBILITY":9945,"xyzw":9946,"_$":9947,"UREMENT":9948,"Ġabi":9949,"LXI":9950,"Ġ212":9951,"Ġcmpa":9952,"HD":9953,"Nam":9954,"Hit":9955,"Ġest":9956,"zeroupper":9957,"mpsearch":9958,"rcmd":9959,"ĠSERVICES":9960,"ĠBACK":9961,"ĊĉĠĠĠĠĠĠĠ":9962,"Ġ159":9963,"licit":9964,"ĠRUNN":9965,"713":9966,"Layer":9967,"Items":9968,"psrldq":9969,"SCAN":9970,"Ġaround":9971,"BTF":9972,"fileclose":9973,"ĠGOODS":9974,"vl":9975,"lodsb":9976,"Dict":9977,"EndBattleText":9978,"RTY":9979,"FMA":9980,"1717":9981,"Ġ8002":9982,"Fast":9983,"123456789":9984,"ĠROR":9985,"ĠPROCUREMENT":9986,"ĠBUSINESS":9987,"ĠINTERRUPTION":9988,"TLE":9989,"loopf":9990,"728":9991,"script":9992,"Ġpsubusb":9993,"Ġ8006":9994,"msub":9995,"sal":9996,"Ġ311":9997,"ĠAnd":9998,"760":9999,"Can":10000,"hWin":10001,"Ġ155":10002,"Ġ221":10003,"ĠLSL":10004,"ĠDISCLAIMED":10005,"sla":10006,"1280":10007,"addb":10008,"ĠEXEMPL":10009,"ĠEXEMPLARY":10010,"teria":10011,"ĊĊĠĠĠĠ":10012,"Ġ330":10013,"ĠJE":10014,"AMP":10015,"=======":10016,"0000000000":10017,"Selector":10018,"Ġevents":10019,"ĠBRANCH":10020,"ĠCAUSED":10021,"Ġeor":10022,"NtDComposition":10023,"577":10024,"æł":10025,"popcli":10026,"liance":10027,"Ġcoll":10028,"459":10029,"Ġ317":10030,"ĠLINUX":10031,"ĠRound":10032,"042":10033,"Ġapplicable":10034,"059":10035,"Score":10036,"Ġadvance":10037,"ias":10038,"523":10039,"Ġparm":10040,"Ġaddps":10041,"ecb":10042,"URS":10043,"ZNSt":10044,"ĠdKickS":10045,"VT":10046,"Ġvirus":10047,"ĠLEV":10048,"Ġexpected":10049,"ĠSM":10050,"bgeu":10051,"ĉĉĠĠĠĠĠĠ":10052,"Ġ801019":10053,"rf":10054,"Ġvmov":10055,"ĠSPI":10056,"defit":10057,"Ġxp":10058,"ĠEGG":10059,"Ġresults":10060,"ĠOST":10061,"Ġmulps":10062,"rot":10063,"Ġ386":10064,"constants":10065,"FIN":10066,"Ġ801059":10067,"ĠPage":10068,"pcs":10069,"ĠOFFSETOF":10070,"efe":10071,"ranty":10072,"Ġvq":10073,"allbos":10074,"Ġ197":10075,"xyzx":10076,"Ġ209":10077,"CHK":10078,"Ġincluding":10079,"Ġnet":10080,"fil":10081,"Ġ141":10082,"iver":10083,"IPP":10084,"ĠLEVEL":10085,"ĠINX":10086,"dH":10087,"subprogram":10088,"Patch":10089,"Ġproducts":10090,"ĠEA":10091,"olution":10092,"Ġ;#":10093,";;;;;;;;;;;;;;;;;;;;;;;;":10094,"Ġcomple":10095,"Directory":10096,"Ġwarranty":10097,"ĠSN":10098,"Ġresd":10099,"ĠORA":10100,"ancel":10101,"Ġtree":10102,"locity":10103,"volatile":10104,"HAL":10105,"098":10106,"Ġhardware":10107,"Ġ801057":10108,"orse":10109,"aper":10110,"iputtest":10111,"ĠĠĠĠĠĊ":10112,"aud":10113,"ESSAGE":10114,"ĠRec":10115,"ĠWE":10116,"Ġderived":10117,"Ġcvt":10118,"INX":10119,"ĠPROGRAM":10120,"ĠBod":10121,"ĠUSB":10122,"So":10123,"Std":10124,"ctave":10125,"ĠLDC":10126,"ĠOpConstant":10127,"Ġvectors":10128,"Ġ272":10129,"utdown":10130,"eart":10131,"ĠBodrato":10132,"slong":10133,"stosw":10134,"sim":10135,"00013":10136,"Ctrl":10137,"ritical":10138,"Ġ011":10139,"ĠExpression":10140,"rapper":10141,"691":10142,"DEFAULT":10143,"1406":10144,"hook":10145,"ĠInxmm":10146,"rkbuf":10147,"Pointers":10148,"delta":10149,"740":10150,"CEP":10151,"Ġ801047":10152,"usw":10153,"VDP":10154,"csr":10155,"ĠMemory":10156,"tensity":10157,"750":10158,"BCC":10159,"80114":10160,"Raw":10161,"ĠLevel":10162,"Ġ389":10163,"1073":10164,",[((":10165,"Br":10166,"Ġ278":10167,"ouch":10168,"ãĢ":10169,"1342":10170,"Ġwrong":10171,"Ġdirectly":10172,"paddw":10173,"Ġ340":10174,"NEL":10175,"odd":10176,"ĠHALT":10177,"strt":10178,"layout":10179,"NEC":10180,"ĠFloor":10181,"ĠAs":10182,"879":10183,"lev":10184,"FreeRTOS":10185,"ĠPROCESS":10186,",=":10187,"690":10188,"cwd":10189,"single":10190,"602":10191,"slow":10192,"subi":10193,"452":10194,";***":10195,"Ġgive":10196,"cast":10197,"522":10198,"Ġpg":10199,"Pattern":10200,"Global":10201,"divide":10202,"++++++++++++++++":10203,"yy":10204,"Ġcycle":10205,"ĠITX":10206,"091":10207,"575":10208,"siz":10209,"clip":10210,"453":10211,"Ġstub":10212,"Ġ163":10213,"ĠModule":10214,"xFFFFFFFF":10215,"Ġdelta":10216,"MIT":10217,"Ġ191":10218,"2016":10219,"01000":10220,"djnz":10221,"2400":10222,"writer":10223,"ĠPMC":10224,"unlocked":10225,"ĠOUTPUT":10226,"636":10227,"980":10228,"vsrc":10229,"ĠHash":10230,"ĠGRAY":10231,"ives":10232,"@?$_":10233,"ĠFUNC":10234,"Ġfields":10235,"eladon":10236,"orted":10237,"ĉĉĠ":10238,"GY":10239,"Ġdate":10240,"scale":10241,"ROUTINE":10242,"pted":10243,"Ogt":10244,"Ġcard":10245,"ĠGr":10246,"Ġscript":10247,"ĊČ":10248,"False":10249,"ASCII":10250,"@@@@@@@@@@@@@@@@":10251,"ale":10252,"Ġdos":10253,"Physical":10254,"AfterBattleText":10255,"IID":10256,"LAN":10257,"Pan":10258,"ZP":10259,"ĠPosition":10260,"Ġ801058":10261,"IABLE":10262,"Ġinstall":10263,"addm":10264,"CLC":10265,"CRT":10266,"ÐµÐ¼":10267,"676":10268,"ĠPIX":10269,"linux":10270,"aaa":10271,"deix":10272,"TERM":10273,"dirs":10274,"ĠMOB":10275,"Flush":10276,"cde":10277,"Ã§":10278,"Ġcld":10279,"Ġ181":10280,"589":10281,"IAS":10282,"grow":10283,"LDS":10284,"Mov":10285,"ÐµÐ½":10286,"matchhere":10287,"Ġpadding":10288,"^(":10289,"dptr":10290,"Det":10291,"avi":10292,"ĠDISPLAY":10293,"Ġthing":10294,"ĠDCW":10295,"Trigger":10296,"ctrl":10297,"prologue":10298,"instr":10299,"539":10300,"Ġ297":10301,"waitly":10302,"âĸĪâĸĪâĸĪâĸĪ":10303,"Pitch":10304,"599":10305,"met":10306,"@\",":10307,"1080":10308,"clock":10309,"Ġabsolute":10310,"Cnt":10311,"atent":10312,"672":10313,"Ġpushed":10314,"651":10315,"deallocuvm":10316,"PITCH":10317,"Ġ448":10318,"Ġ314":10319,"712":10320,"blend":10321,"715":10322,"Ġ211":10323,"ĠVertical":10324,"fec":10325,"uri":10326,"Ġ268":10327,"535":10328,"Total":10329,"velope":10330,";,":10331,"gate":10332,"ROMA":10333,"Ġ0100":10334,"..\\":10335,"ĠENTRY":10336,"ĠMS":10337,"rx":10338,"Ġexpansion":10339,"DWF":10340,"!!!!":10341,"iparent":10342,"RP":10343,"RESENT":10344,"IK":10345,"ĠApache":10346,"child":10347,"Ġactiv":10348,"aea":10349,"Ġscal":10350,"Comple":10351,"cdb":10352,"Ġ228":10353,"imate":10354,"Ġmk":10355,"1112":10356,"Sum":10357,",%%":10358,"ĠPROLOG":10359,"stick":10360,"756":10361,"732":10362,"ĠAI":10363,"1088":10364,"PROLOGUE":10365,"ocus":10366,"COMMAND":10367,"SQ":10368,"inp":10369,"ĊĊĊĉ":10370,"ä½į":10371,"NN":10372,"Ġ305":10373,"Ġ233":10374,"NtGdiCreate":10375,"copyout":10376,"teral":10377,"mappages":10378,"433":10379,"Ġpunpckhqdq":10380,"ÐµÑĢ":10381,"edge":10382,"blendd":10383,"mred":10384,"724":10385,"Segment":10386,"EPROM":10387,"EOR":10388,"Ġindicate":10389,"fdc":10390,"Ġ313":10391,"Ġtab":10392,"(\"__":10393,"00002097":10394,"Ġna":10395,"ĠSK":10396,"Ġ162":10397,"ĠUnused":10398,")\",":10399,"Alarm":10400,"INY":10401,"ĠMask":10402,"Single":10403,"Ġlprint":10404,"testb":10405,"PULSE":10406,"Ġobjects":10407,"Ġ384":10408,"Ġmaximum":10409,"ĠCURRENT":10410,":_":10411,"Ġtyp":10412,"omial":10413,"xmlFree":10414,"Dump":10415,"Ġ&=":10416,"repeat":10417,"BCF":10418,"commit":10419,"pm":10420,"Ġ258":10421,"bytecode":10422,"Math":10423,"717":10424,"Ġpmin":10425,"unique":10426,"ically":10427,"ĠAb":10428,"DIRTY":10429,"ĠMSR":10430,"âĢĶâĢĶâĢĶâĢĶ":10431,"Ġdestroy":10432,"disable":10433,"PB":10434,"ĠTRAINER":10435,"ĠOW":10436,"Ġ--------------------------------------------------------------------------*":10437,"Ġ223":10438,"ĠDEX":10439,"628":10440,"Ġ488":10441,"Ġ227":10442,"Ġcatch":10443,"Moniker":10444,"Ġascii":10445,"æĸ":10446,"Hand":10447,"Ġcipher":10448,"Ġ171":10449,"ĠUsed":10450,"recked":10451,"ĠHorizontal":10452,"aves":10453,"Ġfactor":10454,"Arguments":10455,"ĠPIXEL":10456,"Ġitself":10457,"615":10458,"Null":10459,"ĠMSGTMP":10460,"STRIDEB":10461,"920":10462,"Ġpw":10463,"ĠBASE":10464,"Ġ80107":10465,"]._":10466,"Ġlimb":10467,"Ġ------------------------------------------------------------------":10468,"Ġisn":10469,"AVER":10470,"ĠCONT":10471,"AREA":10472,"045":10473,"character":10474,"cpl":10475,"uspend":10476,"PLA":10477,"HH":10478,"BW":10479,"PROJECT":10480,"Ġorigin":10481,"ĠDROP":10482,"ĠFLAGS":10483,"Pres":10484,"ĠPLAYER":10485,"pixels":10486,"Core":10487,"00103":10488,"volution":10489,"cCall":10490,"Ġcallback":10491,"åŃĺ":10492,"984":10493,"onus":10494,"atio":10495,"Ġquotient":10496,"Empty":10497,"pru":10498,"Storage":10499,"000050":10500,"VD":10501,"ited":10502,"MPEG":10503,"tree":10504,"tlq":10505,"ĠPass":10506,"ĠRX":10507,"ĠĊĠĠĠĠĠĠ":10508,"Ġsqrt":10509,"Ġprogra":10510,"ĠTYPE":10511,"477":10512,"copyuvm":10513,"Ġ328":10514,"',`":10515,"thumb":10516,"Ġfraction":10517,"1536":10518,"0000001":10519,"ĠOtherwise":10520,"lprint":10521,"Rem":10522,"xmlValid":10523,"repret":10524,"You":10525,"ĠHEX":10526,"962":10527,"639":10528,"vdst":10529,"Ġsat":10530,"xref":10531,"ĠDiv":10532,"Ġseed":10533,"Special":10534,"627":10535,"ĠSL":10536,"ĠCLE":10537,"ç¬":10538,"Ġ11111":10539,"eath":10540,"Ġsyscalls":10541,"caa":10542,"Ġbuild":10543,"STI":10544,"1824":10545,"ourian":10546,"1023":10547,";,;":10548,"PAD":10549,"auto":10550,"Ġgen":10551,"eval":10552,"etic":10553,"Step":10554,"069":10555,"Ġmmu":10556,"Style":10557,"Ġ268517":10558,"Ġ226":10559,"ĠREC":10560,"Ġarm":10561,"ä¸Ń":10562,"wPlayer":10563,"RM":10564,"ircle":10565,"vaesdec":10566,"Ġge":10567,"00022":10568,"wcd":10569,"ĠĠĠĠĠĠĊĠĠĠĠĠĠĠ":10570,"Ġ142":10571,"Ġ801042":10572,"Ġemul":10573,"Ġ247":10574,"Volume":10575,"fourfiles":10576,"Ġdimen":10577,"Ġexternal":10578,"Ġ===========================================================================":10579,"light":10580,"IVE":10581,"operation":10582,"DPTR":10583,"Ġmovwf":10584,"ĠRun":10585,"SOUND":10586,";**":10587,"Ġmess":10588,"726":10589,"WE":10590,"allocuvm":10591,"Ġpriority":10592,"Ġfrequency":10593,"EMENT":10594,"apache":10595,"Ġflat":10596,"Ġarch":10597,"ĠReplaces":10598,"VO":10599,"ets":10600,"attribute":10601,"Ac":10602,"hd":10603,"(),":10604,"uv":10605,"NEI":10606,"_?$":10607,"dll":10608,"fcntl":10609,"mhl":10610,"Day":10611,"Ġcontaining":10612,"FFB":10613,"ĠBSIZE":10614,"Ġ;/*":10615,"689":10616,"990":10617,"den":10618,"ITS":10619,"hit":10620,"ROUTE":10621,"Ġgdt":10622,"611":10623,"+(@":10624,"ĠStefano":10625,"LIM":10626,":$":10627,"Continue":10628,"cdd":10629,"php":10630,"satd":10631,"Ġzx":10632,"trainer":10633,"agic":10634,"Ġcpuflags":10635,"Ġbranchcc":10636,"3120":10637,"Ġgreater":10638,"Ġ(#":10639,"Ġ652":10640,"loader":10641,"ĠAny":10642,"944":10643,"Limit":10644,"053":10645,"ĠGC":10646,"Ġ----------------------------------------------------------------------------------":10647,"000013":10648,"Ġfault":10649,"Ġ236":10650,"671":10651,"||$":10652,"ĉĊĊ":10653,"ĠEC":10654,"eapon":10655,"ĀĀĀĀ":10656,"801109":10657,"roups":10658,"Ġil":10659,"1111111111111111":10660,"ĠFILTER":10661,"PTE":10662,"iget":10663,"ĠThere":10664,"Ġ318":10665,"ĠPlace":10666,"mouse":10667,"ĠĠĠĠĠĠĠĠĊĠĠĠĠĠĠĠ":10668,"Ġsgn":10669,"Ġstosw":10670,"Ġrrca":10671,"ĠAPI":10672,"MMBLOCK":10673,"audio":10674,"green":10675,"Ġphysical":10676,"ä¸ª":10677,"ĠOCC":10678,"dip":10679,"failure":10680,"rnds":10681,"cab":10682,"Ġam":10683,"00010000":10684,"struc":10685,"Ġpdata":10686,"sequ":10687,"0513":10688,"ORDER":10689,"bbl":10690,"ĠDataZ":10691,"<=":10692,"Ġvertex":10693,"ĠEpilogue":10694,"aged":10695,"Regs":10696,"WriteBarrier":10697,"!=":10698,"PROTO":10699,"Owner":10700,"POK":10701,"0018":10702,"Ġprimes":10703,"Ġface":10704,"roma":10705,"GM":10706,"sram":10707,"ĠOpType":10708,"OU":10709,"pth":10710,"Ġ203":10711,"Ġchecking":10712,"POINTER":10713,"Ġste":10714,"Ġ480":10715,"Ġixh":10716,"ĠHAND":10717,"ules":10718,"Ġisinstance":10719,"CRY":10720,"00100":10721,"ĉĉĉĊ":10722,"Management":10723,"Ġwell":10724,"Ġ207":10725,"NING":10726,"000012":10727,"ĠProgram":10728,"ĠECHR":10729,"Ġinitlock":10730,"Ġctxt":10731,"andl":10732,"Ġcodes":10733,"ike":10734,"Dot":10735,"Ġtay":10736,"</%":10737,"924":10738,"ĠĊĠĠĠĠĠĠĠĠĠĠĠĠĠĠĠ":10739,"ays":10740,"ris":10741,"Cy":10742,"00000010":10743,"(@@":10744,"Ġms":10745,"pressed":10746,"EvosAttacks":10747,"+)":10748,"578":10749,"Voice":10750,"ĠISR":10751,"Ġ801000":10752,"Ġ252":10753,"Radio":10754,"819":10755,"å¤":10756,"Ġep":10757,"MUSIC":10758,"Ġsupported":10759,")[":10760,".\",":10761,"0044":10762,"initialize":10763,"ands":10764,"725":10765,"ntdq":10766,"Ġ332":10767,"EXEC":10768,"Ġmla":10769,"Ġinb":10770,"ĠWindows":10771,"Ġtrash":10772,"ĠMenu":10773,"Ġiyl":10774,"MN":10775,"INST":10776,"))(%":10777,"Ġide":10778,"Ġassign":10779,"2800":10780,"776":10781,"instruction":10782,"AEA":10783,"Ġ380":10784,"ĠMacro":10785,"PUN":10786,"Ġzp":10787,"bmi":10788,"Ġ1234":10789,"ĠMin":10790,"xq":10791,"Ġball":10792,"storage":10793,"Gate":10794,"SDCC":10795,"something":10796,"ued":10797,"roll":10798,"Ġvararg":10799,"047":10800,"serial":10801,"OST":10802,"Ġnoexec":10803,"IMP":10804,"°å":10805,"defw":10806,"multiply":10807,"RECORD":10808,"20000":10809,"Ġ403":10810,"~~~~~~~~~~~~~~~~":10811,"Rdy":10812,"Ġiret":10813,"modif":10814,"ansi":10815,"ĠClose":10816,"ĠOpStore":10817,"Ġbounds":10818,"ETCH":10819,"EQI":10820,"ĠRAX":10821,"2017":10822,"ĠResolve":10823,"988":10824,"oun":10825,"Ġassoci":10826,"Vars":10827,"Mul":10828,"CAST":10829,"ĠJNZ":10830,"xbw":10831,"sete":10832,"Lea":10833,"runtime":10834,"RB":10835,"osite":10836,"vs":10837,"ĠATTR":10838,"Finish":10839,"ping":10840,"ĊĊĉĉĉ":10841,"abc":10842,"Ġanything":10843,"REGION":10844,"expansion":10845,"åŃĹ":10846,"727":10847,"ĠPD":10848,"overflow":10849,"shufps":10850,"ĠLGR":10851,"DIM":10852,"htmlParse":10853,"[(-":10854,"coded":10855,"043":10856,"ĠShift":10857,"SHIP":10858,"ĠDCC":10859,"dm":10860,"debc":10861,"ĠCOMMAND":10862,"lobber":10863,"tickslock":10864,"LIN":10865,"ĠIV":10866,"CALC":10867,"-*-*":10868,"ĊĠĠĠĠĠĠĠĠĠĠĠĠĠĠĠĠĠĠĠĠĠ":10869,"764":10870,"Insert":10871,"668":10872,"Multi":10873,"Ġspin":10874,"marks":10875,"3000":10876,"ĠPre":10877,"ROT":10878,"intra":10879,"Ġspecies":10880,"619":10881,"vmovaps":10882,"DBCS":10883,"BPL":10884,"6422":10885,"Shadow":10886,"uck":10887,"NP":10888,"Ġssse":10889,"ĠTM":10890,"ACTOR":10891,"HB":10892,"hdr":10893,"Ġimplementation":10894,"ĠJZ":10895,"Serial":10896,"ĠTC":10897,"declaration":10898,"AST":10899,"Saved":10900,"ROCK":10901,"618":10902,"entifier":10903,"bltu":10904,"eros":10905,"Ġ801016":10906,"Ġappro":10907,"055":10908,"addps":10909,"061":10910,"values":10911,"asciz":10912,"cut":10913,"ging":10914,"gather":10915,"Ġpromote":10916,"Ġ243":10917,"Ġ801053":10918,"Ġassumes":10919,"mus":10920,"ential":10921,"910":10922,"ĠTRAINERTYPE":10923,"818":10924,"716":10925,"Ġ\"$":10926,"Ġcorrespond":10927,"ments":10928,"^^^^^^^^":10929,"Cap":10930,"DEFINED":10931,"filer":10932,"ron":10933,"Ġperm":10934,"bile":10935,"oleread":10936,"Ġ316":10937,"ĠFormat":10938,"rase":10939,"Slot":10940,"Ġ******************************************************************************":10941,"Ġcoordinates":10942,"ĠGal":10943,"cmovc":10944,"scape":10945,"ayload":10946,"638":10947,"redirs":10948,"Ġ277":10949,"ĠAP":10950,"CITY":10951,"closetext":10952,"ĠRed":10953,"658":10954,"mpn":10955,"ĠLE":10956,"0700":10957,"JE":10958,"keygen":10959,"ATIONS":10960,"Ġsums":10961,"Ġprinter":10962,"ĠCONDITIONS":10963,"Ġpcmpgt":10964,"atible":10965,"NtAlpc":10966,"device":10967,"*)-":10968,"ĠCarry":10969,"Ġ655":10970,"Ġ352":10971,"TITLE":10972,"Prog":10973,"RESP":10974,"cextern":10975,"(,":10976,"816":10977,"Ġ266":10978,"icial":10979,"hlt":10980,"scf":10981,"ĠCLR":10982,"movea":10983,"Folder":10984,"lines":10985,"16384":10986,"Ġblack":10987,"mvi":10988,"DSP":10989,"Ġlwaitly":10990,"CONSOLE":10991,"Fail":10992,"10101010":10993,"cmpq":10994,"FileName":10995,"parameters":10996,"Ġ372":10997,"balloc":10998,"Ġ2018":10999,"psg":11000,"Spr":11001,"loaded":11002,"Double":11003,"eature":11004,"volume":11005,"recursive":11006,"IDDEN":11007,"Trade":11008,"940":11009,"users":11010,"Tramp":11011,"Ġ410":11012,"Ġiyh":11013,"914":11014,"ĠCE":11015,"Direction":11016,"kra":11017,"Ġ322":11018,"GU":11019,"Sync":11020,"xCC":11021,"MEDI":11022,"oppy":11023,"ĠBLOCK":11024,"635":11025,"prints":11026,"5566":11027,"ĠPF":11028,"ĠCHR":11029,"''''":11030,"ade":11031,"ĠASL":11032,"Ġapplication":11033,"Ġ327":11034,"assist":11035,"Ġ202":11036,"081":11037,"Ġdividend":11038,"Ġ(((":11039,"074":11040,"Ġgl":11041,"afestr":11042,"Multiply":11043,"afestrcpy":11044,"gcd":11045,"00800":11046,"Ġpshufw":11047,"Ord":11048,"579":11049,"ĠROUT":11050,"revisit":11051,"projects":11052,"Ġcore":11053,"Ġallocation":11054,"Ġser":11055,"content":11056,"EFL":11057,"FIXUP":11058,"ĠPUT":11059,";;;;;;;;;;;;;;":11060,"ĠMR":11061,"LCDC":11062,"PokedexEntry":11063,"..'":11064,"Ġ259":11065,"mid":11066,"01000000":11067,"pping":11068,"Idle":11069,"Ġ440":11070,"ĠOCCURS":11071,"Ġplus":11072,"Ġdesired":11073,"Ġlimitations":11074,"Ġmath":11075,"[])":11076,"Ġnewsz":11077,"ĠFlag":11078,"ĠCAT":11079,"Ġ\"_":11080,"Ġevalu":11081,"scheduler":11082,"UMA":11083,"Ġ271":11084,"5678":11085,"Conditional":11086,"Ġservice":11087,"812":11088,"ĠBytes":11089,"\\@":11090,"wi":11091,"ĠREST":11092,"00003097":11093,"van":11094,"Ġgood":11095,"drive":11096,"INLINE":11097,"0105":11098,"Ġ420":11099,"ĠHashKey":11100,":__":11101,"Ġ329":11102,"ĠDire":11103,"861":11104,"Ġ(-$":11105,"movf":11106,"Non":11107,"]).":11108,"Crypt":11109,"Tree":11110,"Ġsqr":11111,"ĠDOWN":11112,"Complete":11113,"ĠDuplicate":11114,"ĠdSnareS":11115,"Ġscr":11116,"00000100":11117,"eref":11118,"smpsVcDecay":11119,"1429":11120,"ARRY":11121,"otes":11122,"Ġ801048":11123,"cls":11124,"ĠDSECT":11125,"Round":11126,"ĠĊĠĠ":11127,"tric":11128,"DIALOG":11129,"Ġ239":11130,"068":11131,"ASL":11132,"Ġpavgw":11133,"has":11134,"atalog":11135,"ĠNum":11136,"ĠWhen":11137,"065":11138,"Ġ-----------------------------------------------------------------------------":11139,"uid":11140,"ĊĠĠĠĠĠĠĠĠĠĠĠĠĠĠĠĠĠĠĠĠĠĠĠĠĠĠĠĠĠĠĠĠĠĠĠĠĠĠĠĠĠĠĠĠĠĠĠĠĠĠĠĠĠĠĠĠĠĠĠĠĠĠĠĠĠĠ":11141,"ya":11142,"Ġboundary":11143,"EW":11144,"SCH":11145,"062":11146,"Ð°Ð½":11147,"33333333":11148,"keygenassist":11149,"ĠĠĠĠĠĠĠĠĠĠĠĠĠĠĠĠĠĠĠĠĠĠĠĠĠĠĠĠĠĠĠĠĠĠĠĠĠĠĠĠĠĠĠĠĠĠĠĠĠĠĠĠĠĠĠĠĠĠĠĠĠĠĠĠĠĠĠĠĠĠ":11150,"ventory":11151,"(@-":11152,"Cor":11153,"626":11154,"Auto":11155,"0110":11156,"rkb":11157,"BattleAnim":11158,"Ġ245":11159,"dlib":11160,"waitbutton":11161,"ool":11162,"ARGET":11163,"TSS":11164,"Ġsaving":11165,"ators":11166,"Ġexists":11167,"ĠNeither":11168,"ĠEQUS":11169,"EAM":11170,"xAA":11171,"tection":11172,"ATD":11173,"ĠGP":11174,"Ġ231":11175,"Ġendorse":11176,"ĠHERE":11177,"stats":11178,"KBD":11179,"bcf":11180,"Ġ----------------------------------------":11181,"KERNEL":11182,"Cancel":11183,"ĠJSL":11184,"Tbl":11185,"eek":11186,"topic":11187,"0500":11188,"Ġ350":11189,"ĠOFF":11190,"Ċĉĉĉĉĉĉĉ":11191,"Nothing":11192,"aN":11193,"FFD":11194,"bH":11195,"Ġ430":11196,"atan":11197,"ombs":11198,"Ġencry":11199,"860":11200,"ĠAsm":11201,"Ġ*,":11202,"NET":11203,"movsx":11204,"ĠLC":11205,"VirtualMemory":11206,"ĠĠĠĠĠĠĠĠĠĠĠĠĠĠĠĠĠĠĠĠĠĠĠĠĠĠĠĠĠĠĠĠĠĠĠĠĠĠĠĠĠĠĠĠĠĠĠĠĠĠ":11207,"gc":11208,"Ġinitialization":11209,"ters":11210,"vpor":11211,"934":11212,"floor":11213,"SBCI":11214,"Ġsli":11215,"Ġsimple":11216,"Ġbuffers":11217,"Ġcontributors":11218,"exx":11219,"Ġsti":11220,"Ġmvi":11221,"431":11222,"ĠUL":11223,"790":11224,"press":11225,"VERSION":11226,"572":11227,"+@":11228,"rNR":11229,"Ġtrea":11230,"Ġchecks":11231,"esign":11232,"popq":11233,"Ġrelative":11234,"ĠSound":11235,"cxz":11236,"Ġextension":11237,"Ġ237":11238,"eblock":11239,"trict":11240,"Flip":11241,"ĠIY":11242,"ĊĉĉĠ":11243,"ĠSupers":11244,"Util":11245,"ĠDescriptor":11246,"legal":11247,"Ġshadow":11248,"000035":11249,"ĠSec":11250,"],'":11251,"Shared":11252,"dered":11253,"ĠBattleAnim":11254,"rio":11255,"kpdr":11256,"Ġmoveq":11257,"Connection":11258,"Dlg":11259,"Ġconsputc":11260,"Ġcompar":11261,"Ġreally":11262,"adata":11263,"Ġ370":11264,"gcm":11265,"Car":11266,"Md":11267,"ĠHigh":11268,"ĠAssembl":11269,"FREE":11270,"wm":11271,"Ġcompliance":11272,"PIXELSIZE":11273,"pk":11274,"battle":11275,"ĠMASK":11276,"ALIGNR":11277,"INODE":11278,"HighRdy":11279,"Printer":11280,"Heap":11281,"fch":11282,"ĠChange":11283,"827":11284,"ĠMessage":11285,"Ġ274":11286,"Ġbug":11287,"Ġvper":11288,"DONE":11289,"Egg":11290,"ĠBranch":11291,"ĠSTX":11292,"yz":11293,"Ġjbe":11294,"Ġgfx":11295,"Ġ246":11296,"Small":11297,"ĠGraphics":11298,"\\_":11299,"Ġhandling":11300,"Ġinner":11301,"GATE":11302,"ĠEl":11303,"PRT":11304,"Syn":11305,"Instruction":11306,"ĠCHARACTER":11307,"Mac":11308,"801080":11309,"BSF":11310,"prg":11311,"Ġargint":11312,"789":11313,";----------------------------------------------------------------------------------------------------------------":11314,"ificant":11315,"Ġustack":11316,"Ġlaw":11317,"ilin":11318,"ĠPALIGNR":11319,"ĠNtCreate":11320,"Packet":11321,"æľ":11322,"ides":11323,"Sectors":11324,"STS":11325,"848":11326,"nmg":11327,"trieve":11328,"Shell":11329,"ĠRESET":11330,"movsw":11331,"ecc":11332,"ĠBZ":11333,"Force":11334,"ĠOPER":11335,"Ġarrays":11336,"623":11337,"Render":11338,"bed":11339,"Const":11340,"TIMED":11341,";$":11342,"Ġconf":11343,"copyright":11344,"1212":11345,"Ġsong":11346,"073":11347,"Ġ801049":11348,"Ġhard":11349,"mla":11350,"Ġ253":11351,"ĠÐ½":11352,"ĠWords":11353,"HILE":11354,"ĚĚ":11355,"Ġsix":11356,"Ġgoverning":11357,"bor":11358,"Ġbmi":11359,"734":11360,"Pressed":11361,"Ġtrigger":11362,"Ġblue":11363,"ĠShow":11364,"670":11365,"RUN":11366,"Try":11367,"982":11368,"Ġ315":11369,"icle":11370,"2500":11371,"callerpcs":11372,"fde":11373,"Ġspaces":11374,"ĠâĶ":11375,"ĠStatus":11376,"Ġconfiguration":11377,"Ġstores":11378,"Ġcmovne":11379,"orr":11380,"1400":11381,"Ġdoing":11382,"mail":11383,"473":11384,"URCE":11385,"bigarg":11386,"ĠCamera":11387,"dcc":11388,"ĠRT":11389,"animated":11390,"ai":11391,"ker":11392,"738":11393,"092":11394,"aut":11395,"Ġpal":11396,"Ġ<>":11397,"072":11398,"870":11399,"Ġcalc":11400,"ĠPop":11401,"ĠSegment":11402,"MOVT":11403,"punpckh":11404,"Ġvml":11405,"initlock":11406,"ĠMB":11407,"freevm":11408,"xFE":11409,"3600":11410,"install":11411,"traceString":11412,"912":11413,"hack":11414,"Ġ021":11415,"SPEED":11416,"Ġcpy":11417,"'))":11418,"Ġut":11419,"::::::::::::::::::::::::::::::::":11420,"ĠDIRSIZ":11421,"gu":11422,"Ġdid":11423,")/(":11424,"Entity":11425,"unit":11426,"NB":11427,"ĠWin":11428,"ĠAA":11429,"erson":11430,"INTERRUP":11431,"Hello":11432,"åĮ":11433,"SHOW":11434,"expected":11435,"prep":11436,"stw":11437,"ĠFix":11438,"Ġnam":11439,"Enabled":11440,"REGS":11441,"ĠOpBranchConditional":11442,"Ġ8004":11443,"Env":11444,"674":11445,"ĠFACE":11446,"LVL":11447,"ĠEdit":11448,"Ġsomething":11449,"Basic":11450,"0015":11451,"Ġoffsets":11452,"piperead":11453,"Ġexecution":11454,"fed":11455,"Ġĉĉĉĉĉĉĉ":11456,"Ġexact":11457,"CPY":11458,"Receive":11459,"ĠIDCT":11460,"ãģĦ":11461,"*%%":11462,"ÑĮ":11463,"ength":11464,"CG":11465,"Xmm":11466,"Transfer":11467,"erate":11468,"Ġbt":11469,"Ġshield":11470,"678":11471,"TRACK":11472,"Ġlarge":11473,"Equal":11474,"rash":11475,"Sfx":11476,"machine":11477,"AAr":11478,"Ġpd":11479,"Ġcpuid":11480,"Frequency":11481,"ĠDH":11482,"okes":11483,"msk":11484,"ĠExec":11485,"ross":11486,"UPDATE":11487,"pat":11488,"reempt":11489,"lis":11490,"saved":11491,"Ġ279":11492,"ĠVirtualBox":11493,"Ġ*+":11494,"Ġ8003":11495,"ĠARM":11496,"clients":11497,"ĠMultiply":11498,"Ġ382":11499,"ĠSCR":11500,"INGS":11501,"itect":11502,"685":11503,"Term":11504,"CLOSE":11505,"encoding":11506,"657":11507,"Ġupon":11508,"Carry":11509,"pio":11510,"'+":11511,"ĠLicen":11512,"***************":11513,"smpsSet":11514,"APHIC":11515,"INVALID":11516,"Ġintptr":11517,"BSS":11518,"Ġpcs":11519,"ĠFused":11520,"Ġ339":11521,"Ġattack":11522,"ZI":11523,"0016":11524,"INITIAL":11525,"uick":11526,"SPR":11527,"Microsoft":11528,"Ġthose":11529,"ĠRR":11530,"pred":11531,"Ġled":11532,"newline":11533,"fcb":11534,"8402":11535,"ĠSTE":11536,"2019":11537,"ternate":11538,"patch":11539,"CHANGE":11540,"ĠTime":11541,"argptr":11542,"EFFECT":11543,"tri":11544,"ĠRC":11545,"war":11546,"Ġlbegin":11547,"3200":11548,"056":11549,"Ġ'.'":11550,"Ġgrowth":11551,"Ġhigher":11552,"ĠSubtract":11553,"00001000":11554,"vend":11555,"itespace":11556,"xmlN":11557,"Ġ324":11558,"Ġcallee":11559,"659":11560,"ecmd":11561,"ATTACK":11562,"Ġcomb":11563,"rgb":11564,"ĠONE":11565,"Post":11566,"Ġfdb":11567,"ĠAss":11568,"Ġ801055":11569,"Ġconversion":11570,"documents":11571,"ĊĊĊĊĊ":11572,"1840":11573,"785":11574,"ĠSR":11575,"Ġleading":11576,"Ġdrawing":11577,"Ġ#\"":11578,"andn":11579,"zy":11580,"Ġ331":11581,"6442":11582,"Ġassembler":11583,"828":11584,"ĠSHIFT":11585,"Ġsar":11586,"bmap":11587,"ä¸Ģ":11588,"ĠNMI":11589,"ĠINI":11590,"shrx":11591,"ĠASMDISP":11592,"Layout":11593,"679":11594,"slot":11595,"Ġpic":11596,"766":11597,"675":11598,"Ġ235":11599,"VICE":11600,"Ġmovups":11601,"Ġ458":11602,"vpmuludq":11603,"Ġ8010544":11604,"ĠASSERT":11605,"ĠADL":11606,"xts":11607,"Jumptable":11608,"Ġassociated":11609,"Other":11610,"SCALE":11611,"mer":11612,"ðŁ":11613,"Ġtables":11614,"Ġvpblendd":11615,"World":11616,"Ġ80100360":11617,"637":11618,"teen":11619,"Ġsent":11620,"sprites":11621,"ĠBoot":11622,"TRI":11623,"transp":11624,"Two":11625,"Ġ007":11626,"mulc":11627,"$??":11628,"feed":11629,"923":11630,"ĠENABLE":11631,"cdf":11632,"TWO":11633,"ĠPalace":11634,"ĠPhys":11635,"smpsHeader":11636,"Ġ080":11637,"bedd":11638,"916":11639,"Clock":11640,"MULF":11641,"Ġexc":11642,"DevExt":11643,"Ġ['":11644,"BLOCKS":11645,"ĠÑģ":11646,"0030":11647,"ĠLL":11648,"ilph":11649,"Users":11650,"ä¸º":11651,"lbegin":11652,"(<":11653,"ĠSome":11654,"000011":11655,"Failed":11656,"ĠVARIABLE":11657,"ially":11658,"Ġthird":11659,"ANGE":11660,"VideoPort":11661,"flt":11662,"000055":11663,"ĠImp":11664,"Only":11665,"ki":11666,"repr":11667,"than":11668,"vars":11669,";-":11670,"6400":11671,"Ġspawn":11672,"ĠNT":11673,"sock":11674,"ĠBl":11675,"notetype":11676,"Deref":11677,"Ġassembly":11678,"55555555":11679,"Brush":11680,"872":11681,"cw":11682,"IDC":11683,"FTP":11684,"723":11685,"ĠĠĠĠĠĠĠĠĠĠĠĠĠĠĠĠĠĠĠĠĠĠĠĠĠĠĠĠĠĠĠĠĠĠĠĠĠĠĠĠĠĠĠĠĠĠĠĠĠĠĠĠ":11686,"za":11687,"åĩ":11688,"ĠAMD":11689,"4981":11690,"Digit":11691,"ĠFt":11692,"Ġvery":11693,"redu":11694,"ĠBYTES":11695,"Ġldp":11696,"ldm":11697,"sheet":11698,"multi":11699,"xmlStr":11700,"Ġproto":11701,"JSAMPROW":11702,"Ġdom":11703,"RegTest":11704,"1407":11705,"Ġview":11706,"Ġlit":11707,"joy":11708,"Ġpextrd":11709,"ctory":11710,"benchmarks":11711,"ĠAM":11712,"Ġfileclose":11713,"ARP":11714,"Ġdifference":11715,"irror":11716,"cxx":11717,"======":11718,"Ġ362":11719,"private":11720,"dpl":11721,"Ġ;;;;;;;;;;;;;;;;;;;;;;;;;;;;;;;;;":11722,"Ġignore":11723,"DEL":11724,"7483":11725,"vpclmulqdq":11726,"ROL":11727,"DISK":11728,"NUSED":11729,"Ã£":11730,"Spline":11731,"0805":11732,"936":11733,"endchannel":11734,"Ġanimation":11735,"Static":11736,"Rt":11737,"ĠPRE":11738,"Ġchanges":11739,"ĠðŁ":11740,"nr":11741,"Ġfailure":11742,"Ġdes":11743,"Ġ398":11744,"Ġrounding":11745,"ĠMissiles":11746,"ERNBASE":11747,"ĠKi":11748,"ĠPORTB":11749,"Ġ257":11750,"ĠDCT":11751,"652":11752,"HM":11753,"els":11754,"enumber":11755,"00000000000000000000000000000000":11756,"AAD":11757,"Ġĉĉĉĉĉ":11758,"movem":11759,"IZE":11760,"dbg":11761,"decimal":11762,"BIG":11763,"ĠThese":11764,"çĶ¨":11765,"0123456789":11766,"971":11767,"ĠUNUSED":11768,"post":11769,"arr":11770,"00000000000000":11771,"0000000115":11772,"cfg":11773,"icenable":11774,"âķĲâķĲâķĲâķĲâķĲâķĲâķĲâķĲ":11775,"bedded":11776,"bitmap":11777,"Ġwon":11778,"mitive":11779,"spr":11780,"loaduvm":11781,"oz":11782,"uartputc":11783,"cluster":11784,"Ġendm":11785,"setinstrument":11786,"ZZ":11787,"Ġ__$":11788,"ĠCommand":11789,"slice":11790,"Ġcommands":11791,"Ġtakes":11792,"Ġ241":11793,"pv":11794,"popf":11795,"ĠOLD":11796,"ĠFCB":11797,"ĠPhysDevExt":11798,"Ġfx":11799,"Ġ620":11800,"Ġgeneral":11801,"Bin":11802,"ĠFC":11803,";-----------------------------------------------------------------------":11804,"lusive":11805,"/(":11806,"BLACK":11807,"xdef":11808,"Ġ[#_":11809,"crateria":11810,"943":11811,"0028":11812,"vention":11813,"apply":11814,"ĠPrintText":11815,"sms":11816,"ĿĢ":11817,"Ġ801024":11818,"ampler":11819,"WITH":11820,"vpsrlq":11821,"ptim":11822,"'d":11823,"Ġtmpq":11824,"ks":11825,"Ġtag":11826,"ĠKERNEL":11827,"YAP":11828,"elem":11829,"ured":11830,"Ġ222":11831,"adr":11832,"dag":11833,"Ġ334":11834,"ĠFace":11835,"ans":11836,"00023":11837,"RIJ":11838,"JIT":11839,"VECTOR":11840,"087":11841,"883":11842,"king":11843,"Ġcare":11844,"ompress":11845,"Ġ;(":11846,"Ġdummy":11847,"Ġ450":11848,"EXTI":11849,"ÃĦÃĦÃĦÃĦ":11850,"Ġcopying":11851,"WD":11852,"ilphCo":11853,"ĠCTR":11854,"ĠLT":11855,"Ġaddiu":11856,"LZ":11857,"Ġtoc":11858,"Ġhost":11859,"Ġmovement":11860,"samp":11861,"Syscall":11862,"direction":11863,"plies":11864,"Ca":11865,"Increment":11866,"CIP":11867,"dimen":11868,"jmpq":11869,"ĠHandler":11870,"ĠTIMER":11871,"Used":11872,"HAVE":11873,"consoleread":11874,"CHROMA":11875,";------------------------------------------------------------":11876,"sarx":11877,"WINDOW":11878,"ADI":11879,"976":11880,"è¯":11881,"ado":11882,"Ġprecision":11883,"STX":11884,"istic":11885,"Hw":11886,"btf":11887,"lod":11888,"ĠFS":11889,"xfft":11890,"Ġcap":11891,"!!!":11892,"ered":11893,"Station":11894,"ĠPHA":11895,"Ġthings":11896,"*%":11897,"Pages":11898,"ĠFibonacci":11899,"ĠSTV":11900,"Ġ<+":11901,"Ġbri":11902,"$+":11903,"Met":11904,"Ġfi":11905,"Ġ801039":11906,"AEAV":11907,"ĠTW":11908,"1296":11909,"GAME":11910,"Ġtim":11911,"ĠIDX":11912,"ionary":11913,"ACCEL":11914,"prime":11915,"-+-+-+-+-+-+-+-+":11916,"oword":11917,"-)":11918,"cP":11919,"Ġ336":11920,";------------------------------------------------------------------------------------------------":11921,"allocate":11922,"ĠSin":11923,"Ġiupdate":11924,"ĠSupplies":11925,"Ġincluded":11926,"084":11927,"735":11928,"1201":11929,"Ġreason":11930,"Ġcases":11931,"ente":11932,"951":11933,"ĊĉĠĠĠĠĠ":11934,"1040":11935,"ZR":11936,"1440":11937,";--------------------------------------------------------------------------":11938,"Ġincrease":11939,"udit":11940,"generated":11941,"cProc":11942,"ellow":11943,"lealloc":11944,"Big":11945,"\\{":11946,"ĠMVGHI":11947,"PIN":11948,"801083":11949,"points":11950,"885":11951,"ressive":11952,"UNK":11953,"Ġsuper":11954,"istr":11955,"black":11956,"constprop":11957,".(":11958,"Ġappend":11959,"preempt":11960,"Ġdrop":11961,"Ġerrors":11962,"ented":11963,"ĠĠĠĠĠĠĊĠĠĠĠĠĠĠĠ":11964,"082":11965,"1020":11966,"BN":11967,"ĠTile":11968,"Decor":11969,"hello":11970,"Ġ804":11971,"Fade":11972,"824":11973,"ĠnFs":11974,"ĠStarting":11975,"Ġmaster":11976,"ĠLast":11977,"ĠSc":11978,"ĠOctave":11979,"737":11980,"nxt":11981,"Ġpgdir":11982,"CURSOR":11983,"ĠSUMSUB":11984,"778":11985,"Ġwhite":11986,"Help":11987,"701":11988,"Ġwave":11989,"FAIL":11990,"Invokes":11991,"Ġ428":11992,"../../../../":11993,"ĠHEAD":11994,"ĠOWNER":11995,"Light":11996,"fg":11997,"pcall":11998,"fam":11999,"codeproject":12000,"inflate":12001,"uffle":12002,"699":12003,"pin":12004,"Parameters":12005,"Ġ660":12006,"ĠIC":12007,"PAIR":12008,"Proper":12009,"dbuff":12010,"ĠROUND":12011,"bec":12012,"ĠWR":12013,"where":12014,"Parent":12015,"Ġ\"\"":12016,"Ġdetermine":12017,"Ġlight":12018,"arb":12019,"Ġhelper":12020,"Ġ388":12021,"hlps":12022,"981":12023,"AIL":12024,"Ġprinting":12025,"BCS":12026,"closed":12027,"ĠDecl":12028,"EK":12029,"ORI":12030,"FLOW":12031,"876":12032,"Ġ8005":12033,"ãģ§":12034,"TXT":12035,"Ġsym":12036,"Ġmcr":12037,"Than":12038,"Pat":12039,"udo":12040,"774":12041,"968":12042,"Tool":12043,"DSK":12044,"3355":12045,"PROCESS":12046,"wp":12047,"0024":12048,"ĠGS":12049,"927":12050,"00000000000003":12051,"Ġpan":12052,"823":12053,"Ġ015":12054,"USART":12055,"ĠDoorOut":12056,"cEnd":12057,"0919":12058,"Ġ321":12059,"ĠÐº":12060,"ĠACTION":12061,"lut":12062,"mr":12063,"Ġ2006":12064,"00076":12065,"985":12066,"Ġsuccessful":12067,"ORIG":12068,"oth":12069,"Ð¾Ð²":12070,"VATE":12071,"adt":12072,"2816":12073,"Ġshared":12074,"Ġslow":12075,"Ġseconds":12076,"fat":12077,"ĠCont":12078,"PGROUND":12079,"Vid":12080,"grep":12081,"sv":12082,"Ã£o":12083,"Ġred":12084,"movx":12085,"Ġlh":12086,"Ġ468":12087,"urther":12088,"Ġalter":12089,"Bottom":12090,"ithmetic":12091,"ĠBCS":12092,"REN":12093,"cda":12094,"Ġentire":12095,"AMD":12096,"FER":12097,"941":12098,"Ġtaken":12099,"Ġ'$'":12100,"BUSY":12101,"ĠAVX":12102,"ĠINDEX":12103,"770":12104,"Audit":12105,"INTR":12106,"5040":12107,"EDATA":12108,"AuditAlarm":12109,"711":12110,"9800":12111,"Ġtmpfield":12112,"Poly":12113,"Ġmred":12114,"ĠPart":12115,"standing":12116,"Ġ460":12117,"minor":12118,"vram":12119,"Ã¡":12120,"psrad":12121,"iceoi":12122,"FG":12123,"Feed":12124,"ITER":12125,"ĠRegisters":12126,"Ġ404":12127,"Ġ630":12128,"Ġahead":12129,"ĠBH":12130,"051":12131,"BPB":12132,"????":12133,"Monitor":12134,"ĠCommon":12135,"CORE":12136,"Ġlayout":12137,"ĊĊĠĠĠĠĠĠĠĠĠĠĠĠĠĠĠĠĠĠĠĠĠĠĠ":12138,".@\"":12139,"ĠNORMAL":12140,"Ġmarker":12141,"PRED":12142,"RND":12143,"Ġ0040":12144,"tourian":12145,"minus":12146,"ABCDEF":12147,"Ġcontin":12148,"RJMP":12149,"Ġexpecting":12150,"Freq":12151,"cBegin":12152,"FACE":12153,"Rx":12154,"åº":12155,"ĠMY":12156,".<":12157,"Ġprocessing":12158,"enumerator":12159,"SID":12160,"xgft":12161,"ĠPLA":12162,"10010":12163,"ĠLIST":12164,"ĠEXEC":12165,"Ġ00010000":12166,"Ġday":12167,"ube":12168,"Ġtell":12169,"Ġ368":12170,"leared":12171,"bigwrite":12172,"callback":12173,"changed":12174,"Invalid":12175,"incl":12176,"Ġfinished":12177,"ControlClass":12178,"067":12179,"Ġforce":12180,"874":12181,"Ġquit":12182,"zuc":12183,"Ġ60000":12184,"Ġsegments":12185,"Ġprompt":12186,"FCFC":12187,"Tx":12188,"intensity":12189,"DBG":12190,"Ġdialog":12191,"2684":12192,"Ġmoved":12193,"983":12194,"rote":12195,"ĠUser":12196,"ĠCMPQ":12197,"1301":12198,"ĠMULTI":12199,"Ġcustom":12200,"80003":12201,"948":12202,"Art":12203,"Ġ342":12204,"odes":12205,"Ġ418":12206,"Ġlearn":12207,"000014":12208,"Ġexample":12209,"Tmp":12210,"Ġproble":12211,"930":12212,"SSL":12213,"VARS":12214,"upd":12215,"Ġjle":12216,"Ġ038":12217,"UTF":12218,"vision":12219,"IFI":12220,"ĠCLEAR":12221,"Ġwrites":12222,"BGMap":12223,"TIL":12224,"Member":12225,"ĠColor":12226,"Ð´":12227,"Ġindirect":12228,"ĠTAX":12229,"True":12230,"Ġffff":12231,"+]":12232,"iform":12233,"External":12234,"3020":12235,"ĠGEOS":12236,"Ġ610":12237,"INTERRUPT":12238,"PPI":12239,"Rev":12240,"FontTable":12241,"Ġpb":12242,"Ġwaiting":12243,"Ġgeneric":12244,"lated":12245,"Inte":12246,"MULT":12247,"vb":12248,"Ġ650":12249,"Instrument":12250,"stal":12251,"ĠFM":12252,"4800":12253,"reserved":12254,"JOB":12255,"Ġvalor":12256,"Ġ\"#":12257,"pul":12258,"00026":12259,"ĠEFI":12260,"3720":12261,"smpsSetvoice":12262,"PLAT":12263,"BGP":12264,"Delta":12265,"BSR":12266,"Ġhelp":12267,"Ġ================":12268,"ROOT":12269,"aesarg":12270,"Ġmulti":12271,"Ġ2011":12272,"BLANK":12273,"Ġperiod":12274,"MatchInst":12275,"Ġ590":12276,"Ġmacros":12277,"Ġcreated":12278,"ivate":12279,"ĠCompute":12280,"endfor":12281,"ĠNON":12282,"ĠSector":12283,"ridian":12284,"ĠOL":12285,"Spawn":12286,"wrecked":12287,"ections":12288,"718":12289,"722":12290,"vzeroupper":12291,"ĠPLY":12292,"tains":12293,"Remote":12294,"ifequal":12295,"Ġwhole":12296,"ĠEXTRN":12297,"adi":12298,"ĠSHL":12299,"Ġ251":12300,"ĠFIR":12301,"Ġmemcpy":12302,"rational":12303,"Ġcrt":12304,"7400":12305,"PUNCH":12306,"WAVE":12307,"622":12308,"ĠPT":12309,"ĠPSG":12310,"MMENU":12311,"0017":12312,"ley":12313,"ĠUPDATE":12314,"trig":12315,"EXPORT":12316,"omin":12317,"ĠREPMOV":12318,"Lin":12319,"Ġwordbuff":12320,"bfc":12321,"hand":12322,"Ġclean":12323,"Ġlcd":12324,"Ġ2015":12325,"pilog":12326,"Ġexecutable":12327,"FACTOR":12328,"801084":12329,"allel":12330,"ĠSUP":12331,"ĠIMPORT":12332,"Ġ'..'":12333,"asg":12334,"vari":12335,"OMB":12336,"00011000":12337,"1056":12338,"ĠPER":12339,"1869":12340,"CAP":12341,"ĠPW":12342,"ĠLength":12343,"075":12344,"partition":12345,"sper":12346,"Ġlui":12347,"abi":12348,"ng":12349,"ĠMon":12350,"Ġcospi":12351,"Ġstartup":12352,"Import":12353,"etter":12354,"ĠGOTO":12355,"719":12356,"fire":12357,"oa":12358,"1225":12359,"subspan":12360,"Ġ801066":12361,"Ġchecksum":12362,"Ġlapicw":12363,"tage":12364,"sistent":12365,"Ġship":12366,"BattleMon":12367,"âĶĢâĶĢâĶĢâĶĢâĶĢâĶĢâĶĢâĶĢ":12368,"fbc":12369,"integer":12370,"Ġ530":12371,"SDK":12372,"âĸłâĸłâĸłâĸł":12373,"ntdqa":12374,"Ġaesenclast":12375,"Ġallowed":12376,"Root":12377,"rv":12378,"å®":12379,"ador":12380,"ĠITEMMENU":12381,"Private":12382,"00004097":12383,"Ġ550":12384,"Ġ80100370":12385,"PLT":12386,"ĠTHEN":12387,"000000000000000":12388,"Ġ2009":12389,"Neg":12390,"Order":12391,"å¼":12392,"escape":12393,"async":12394,"2007":12395,"ĠJSAMPARRAY":12396,"AAC":12397,"Ġ****************":12398,"SEND":12399,"rey":12400,"Ġnul":12401,"cpc":12402,"Â«":12403,"movsb":12404,"ĠSAD":12405,"CURRENT":12406,"offs":12407,"ĠAbstract":12408,"PROTOCOL":12409,"Ġ378":12410,"AAt":12411,"keyboard":12412,"bigdir":12413,"MBH":12414,"lx":12415,"nos":12416,"Ġ364":12417,"Ġrounds":12418,"ĠLim":12419,"094":12420,"Ġpmulld":12421,"eca":12422,"Ġlocked":12423,"Ġ338":12424,"Ġsignificant":12425,"Ġparams":12426,"956":12427,"seed":12428,"167772":12429,"Da":12430,"DIFF":12431,"ĠSelected":12432,"ĠAlso":12433,"attributes":12434,"'\\":12435,"1180":12436,"æĺ¯":12437,"VS":12438,"Ġ399":12439,"subd":12440,"colors":12441,"Ġtests":12442,"Ġoperator":12443,"anon":12444,"isors":12445,"Ġ261":12446,"00000001063":12447,"+#":12448,"Wnd":12449,"Ġauto":12450,"ç»":12451,"Ġhook":12452,"xmlValidat":12453,"088":12454,"Intro":12455,"Ġ540":12456,"),$":12457,"Ġsubject":12458,"deflate":12459,"xmlTextRea":12460,"ĠMVI":12461,"unknownsfx":12462,"lsls":12463,"Ġpin":12464,"xmlNano":12465,"tch":12466,"ĠWAIT":12467,"0019":12468,"ĠGROW":12469,"1344":12470,"Ġvpsrld":12471,"-------+":12472,"We":12473,"Completion":12474,"iret":12475,"Ġ005":12476,"fetchstr":12477,"ĠClass":12478,"circle":12479,"ĠnCs":12480,"GNU":12481,"INS":12482,"VGA":12483,"ĠBPB":12484,"tc":12485,"retn":12486,"Ġrevision":12487,"lcdFontTable":12488,"ĠSYSTEM":12489,"ĠIDE":12490,"shufi":12491,"1584":12492,"movzxbw":12493,"Center":12494,"Ġavg":12495,"1216":12496,"ĠState":12497,"Ġ249":12498,"registers":12499,"844":12500,"1305":12501,"Ġstates":12502,"ADPCM":12503,"procdump":12504,"ATOR":12505,"ĠLocal":12506,"dsprite":12507,"entries":12508,"walkpgdir":12509,"FULL":12510,"getable":12511,"ARGE":12512,"uple":12513,"ĠĠĠĊĠĠĠĠĠĠĠ":12514,"00004517":12515,"Library":12516,"MESSAGE":12517,"ĠPE":12518,"Ġjoy":12519,"Ġori":12520,"Black":12521,"movsd":12522,":%":12523,"Ġ520":12524,"Ġflush":12525,"ãĥ¼ãĥ":12526,"5000":12527,"ENEM":12528,"Ġ--------":12529,"Ġ.........":12530,"Ġdey":12531,"Cla":12532,"Ġremains":12533,"omode":12534,"Ġ025":12535,"ĠLow":12536,"Ġgate":12537,"Ġrepresentation":12538,"ĉĉĠĠ":12539,"ĠZX":12540,"AAe":12541,"SWITCH":12542,"elocity":12543,"cover":12544,">,<":12545,"ç¬¦":12546,"DIMENSION":12547,"Ghost":12548,"agonal":12549,"allbossp":12550,"ĠRef":12551,"ĠVIA":12552,"10002":12553,"868":12554,"??$":12555,"Slow":12556,"rintf":12557,"nC":12558,"950":12559,"1025":12560,"8576":12561,"Ġremoved":12562,"Ġvpsllq":12563,"region":12564,"DRV":12565,"22222222":12566,"ĠRED":12567,"ĠCONST":12568,"gfxb":12569,"Ġpress":12570,"ecenter":12571,"ĠSHIP":12572,"Ġintegers":12573,"esident":12574,"ĠUNDER":12575,"HS":12576,"Ġsimp":12577,"Ġrestrict":12578,"Model":12579,"Ġcollision":12580,"vstart":12581,"åĨ":12582,"Ġ273":12583,"PLC":12584,"Decorate":12585,"Ġiteration":12586,"10101":12587,"mfence":12588,"BOARD":12589,"ĠVP":12590,"Ani":12591,"ness":12592,"ĠBCD":12593,"Ġsocket":12594,"ively":12595,"972":12596,"Ġrotate":12597,";-----------------------------------------------------------------------------------------------------------------------":12598,"ESA":12599,"Ġ508":12600,"Ġmovsd":12601,"gcrt":12602,"\"]":12603,"Ġ263":12604,"Ġnewdeal":12605,"Ġ528":12606,"AAAAAAAA":12607,"ĊĉĉĉĠ":12608,"938":12609,"bbc":12610,"Press":12611,"814":12612,"3216":12613,"Dummy":12614,"10006":12615,"ĉĉĉĉĉĉĉĉĉĉĉĉĉĉĉĉĉĉĉĉĉĉĉĉĉĉĉĉĉĉĉĉ":12616,"Tone":12617,"INAL":12618,"unpack":12619,"799":12620,"ĠInst":12621,"ĠBITS":12622,"ZWORD":12623,"ĠĠĠĠĊĠĠĠĠĠ":12624,"Ġinp":12625,"Notification":12626,"PCR":12627,"CASE":12628,"ĠDOUBLE":12629,"UnknownText":12630,"putch":12631,"pause":12632,"000000000":12633,"Star":12634,"Ġphase":12635,"pipealloc":12636,"Ġ10000":12637,"ĠMem":12638,"2200":12639,"ICR":12640,"(;;":12641,"964":12642,"vect":12643,"|!":12644,"StringBuffer":12645,"970":12646,"tach":12647,"%%%%%%%%%%%%%%%%%%%%%%%%%%%%":12648,"Touch":12649,"igure":12650,"Ġjsimd":12651,"Ġreverse":12652,"0600":12653,"smpsPSG":12654,"ĠPSY":12655,"support":12656,"Zone":12657,"Ġfurther":12658,"11100":12659,"Ġ242":12660,"tence":12661,"CLIB":12662,"ĉĠĠĠĠĠ":12663,"ANDI":12664,"YO":12665,"ãģĮ":12666,"bles":12667,"stdint":12668,"Ġ700":12669,"Ġnewline":12670,"kraid":12671,"RCC":12672,"ĠROL":12673,"TST":12674,"daa":12675,"errnz":12676,"Validate":12677,"733":12678,"LEMENT":12679,"Glyph":12680,"seek":12681,"Ġcont":12682,"nulterminate":12683,"Server":12684,"*/,":12685,"°åĿĢ":12686,"acity":12687,"lfence":12688,"Ġmovifnidn":12689,"Ġ349":12690,"Mart":12691,"Ġpul":12692,"which":12693,"Ġframes":12694,"ĠOriginal":12695,"ĠOptim":12696,"ĠRemove":12697,"Ġ408":12698,"Selected":12699,"Â«Â«":12700,"]/*":12701,"xDD":12702,"1617":12703,"pret":12704,"signal":12705,"lam":12706,"1920":12707,"gnu":12708,"pipewrite":12709,"Ġ612":12710,"3908":12711,"Dep":12712,"Ġfl":12713,"ãĤĭ":12714,"932":12715,">>>>":12716,"LEAVE":12717,"ĠInputs":12718,"817":12719,">.":12720,"inite":12721,"KA":12722,"ude":12723,"1028":12724,"Ġvis":12725,"Ġ648":12726,"Unused":12727,"Lkey":12728,"resource":12729,"EFF":12730,"rlc":12731,"ĠĠĠĠĠĊĠĠĠĠĠĠĠĠ":12732,"kstack":12733,"nex":12734,"cccccccc":12735,"ĠNASM":12736,"00100000":12737,"Ġknown":12738,"SIO":12739,"Ġ518":12740,"cpx":12741,"mor":12742,"8593":12743,"Ġswapp":12744,"Ġ************************************************":12745,"ares":12746,"ardeb":12747,"Ġunit":12748,"perm":12749,"ENABLED":12750,"Blk":12751,"Ġrender":12752,";****************":12753,"NoAttack":12754,"orv":12755,"000038":12756,"segmentdef":12757,"bdc":12758,"ĠDG":12759,"reet":12760,"Ġ361":12761,"bea":12762,"alpha":12763,"neorv":12764,"PLACE":12765,"ĠGeo":12766,"ĠTri":12767,"ĠBIN":12768,"TELEM":12769,"PUTS":12770,"Mons":12771,"isions":12772,"Calls":12773,"sint":12774,"Ġ2017":12775,"Ġidentity":12776,"cmpeqd":12777,"writable":12778,"ĠDeclItem":12779,"phys":12780,"Ġloader":12781,"fcc":12782,"iness":12783,"ĠHel":12784,"ĠINITIAL":12785,"ENEMY":12786,"Ġratio":12787,"Logger":12788,"Allocation":12789,"fileread":12790,"TAP":12791,"Ġ2020":12792,"Ġalpha":12793,"toggle":12794,"params":12795,"linenumber":12796,"lxi":12797,"0013":12798,"ĠRA":12799,"ĠFEATURE":12800,"%%%%%%%%%%%%%%%%%%%%%%%%%%%%%":12801,"ffffe":12802,"ĠROCK":12803,"Ġ801054":12804,"xmlTextW":12805,"Ġadditional":12806,"Ġĉĉĉĉĉĉ":12807,"xxx":12808,"chunk":12809,"Ġmovsx":12810,"xmlReg":12811,"ording":12812,"Ġ@%%%%%%%%%%%%%%%%%%%%%%%%%%%%%%%%":12813,"Su":12814,"Ġgcd":12815,"FREQ":12816,"Ġ2019":12817,"%%%%%%%%%%%%%%%%%%%%%%%%%%%%%%%%%%%%%%%%%%%%%%%%%%%%%%%%%%%%%%%%%%%%%@":12818,"RU":12819,"âĢ¦":12820,"Ðĺ":12821,"ubble":12822,"Ġ@%%%%%%%%%%%%%%%%%%%%%%%%%%%%%%%%%%%%%%%%%%%%%%%%%%%%%%%%%%%%%":12823,")+,(":12824,"EDIT":12825,"OKE":12826,"Ġmerge":12827,"ĠUSING":12828,"MULSUB":12829,"ĠLDI":12830,"ĊĉĉĠĠĠ":12831,"Ġops":12832,"Im":12833,"Ram":12834,"terate":12835,"Align":12836,"oolean":12837,"letter":12838,"Symbol":12839,"GINE":12840,"1250":12841,"Ġ00000020":12842,"ĠPALETTE":12843,"Ġinside":12844,"Ġ560":12845,"xN":12846,"ĠÃ":12847,"AUTHOR":12848,",*":12849,"Ġrand":12850,"rw":12851,"extend":12852,"then":12853,"ĠDEVICE":12854,"089":12855,"Ġ720":12856,"Ġembedded":12857,"eH":12858,"ĠĠĠĊĠĠĠ":12859,"Ġ2021":12860,"quant":12861,"Credits":12862,"ĠHLT":12863,"ACHE":12864,"Me":12865,"Ġshifted":12866,"871":12867,"ĠSPACE":12868,"eration":12869,"Ġnfiles":12870,"ĠGlobal":12871,"Safe":12872,"ĊĊĠĠĠĠĠĠĠĠĠ":12873,"optim":12874,"Ġouter":12875,"Ġldb":12876,",+":12877,"ĠZW":12878,"LDO":12879,"hisper":12880,"localvariable":12881,"linenumbertable":12882,"localvariabletable":12883,"MAGIC":12884,"Tony":12885,"TIF":12886,"åľ°åĿĢ":12887,"Ġ424":12888,"FLG":12889,"video":12890,"Ġ016":12891,"2001":12892,"Invoke":12893,"gfxbk":12894,"677":12895,"ĠMOVL":12896,"hisperMain":12897,"1520":12898,"ARGF":12899,"Resume":12900,"ĠRegs":12901,"ADDF":12902,"Tag":12903,"ĠDon":12904,"Ġreport":12905,"739":12906,"ransl":12907,"Ġ608":12908,"Ġowned":12909,"=========":12910,"IFDEF":12911,"oose":12912,"Ġpartition":12913,"HOD":12914,"Overlay":12915,"pages":12916,"ĠExpr":12917,"Ġ344":12918,"Ġdigest":12919,"PHY":12920,"opcode":12921,"adjust":12922,"cookie":12923,"dea":12924,";================================================":12925,"INP":12926,"Ġ379":12927,"éĢ":12928,"Ġdat":12929,"801085":12930,"Tail":12931,"defs":12932,"Ġbasic":12933,"ĠUSES":12934,"ĠHAD":12935,"ĠQuad":12936,"deq":12937,"ĠĠĠĠĠĠĠĠĠĠĠĠĠĠĠĠĠĠĠĠĠĠĠĠĠĠĠĠĠĠĠĠĠĠĠĠĠĠĠĠĠĠĠĠĠĠĠĠĠĠĠĠĠĠĠĠĠ":12938,"lbi":12939,"MoComp":12940,"âĸĦ":12941,"ĊĠĠĠĠĠĠĠĠĠĠĠĠĠĠĠĠĠĠĠĠĠĠĠĠĠĠĠĠĠĠĠĠĠĠĠĠĠĠĠĠĠĠĠĠĠĠĠĠĠĠĠĠĠ":12942,"Ġdivision":12943,"ĠTHUNDER":12944,"style":12945,"ragon":12946,"Ġvisible":12947,"Ġliteral":12948,"825":12949,"Matrix":12950,"STREAM":12951,"Ġrestored":12952,"ĠDELAY":12953,"RIER":12954,"idata":12955,"Ġvpalignr":12956,"numeric":12957,"911":12958,"radio":12959,"Engine":12960,"+:":12961,"Green":12962,"Ġ00040":12963,"parm":12964,"partial":12965,"DOT":12966,"Ġdqword":12967,"xfcfcfc":12968,"ĠABS":12969,"losion":12970,"Ġprefetch":12971,"ĠRa":12972,"stz":12973,"faf":12974,"maddwd":12975,"CFs":12976,"dont":12977,"Compressed":12978,"SCRIPT":12979,"Dma":12980,"1240":12981,"ĠMAP":12982,"5625":12983,"Ġfollows":12984,"HOLE":12985,"ĠGrObj":12986,"Ġoptions":12987,"Second":12988,"Quick":12989,"Extra":12990,"HWACCEL":12991,"1232":12992,"Ġ325":12993,"FLASH":12994,"EventPair":12995,"ĠâĶĤâĶĤâĶĤâĶĤâĶĤ":12996,"Fixup":12997,"APU":12998,"åħ¥":12999,"prkd":13000,"Ġsubpel":13001,"ĠRESULT":13002,"ĠOVER":13003,"Ġrequested":13004,"AKE":13005,"romhack":13006,"Multiple":13007,"Ġ1100":13008,"ĠINY":13009,"IBUTE":13010,"ĠContin":13011,"2913":13012,"Ġ396":13013,"095":13014,"Mobile":13015,"ĠSKIP":13016,"ĠDA":13017,"ural":13018,"ĠPSH":13019,"ĊĠĠĠĠĠĠĠĠĠĠĠĠĠĠĠĠĠĠĠĠĠĠĠĠĠ":13020,"Entries":13021,"ĠPr":13022,"subtract":13023,"Ġ801003":13024,"093":13025,"ĠNOFILE":13026,"MODEL":13027,"Phone":13028,"ĠTurn":13029,"Ġ2012":13030,"âĸĪâĸĪâĸĪ":13031,"EFEF":13032,"AGS":13033,"Ġterm":13034,"Si":13035,"1196":13036,"ability":13037,"Ġentered":13038,"ĠSubTest":13039,"Points":13040,"NtGdiDvp":13041,"633":13042,"HIT":13043,"1680":13044,"Ġtimeout":13045,"Ġcontained":13046,"Ok":13047,"Ġlogical":13048,"mdot":13049,"cec":13050,"cbe":13051,"Ġ347":13052,"Ġdele":13053,"Sl":13054,"iupdate":13055,"Ġadj":13056,"+],":13057,"ĠDecimal":13058,"Ġdesc":13059,"elifidn":13060,"Ġ359":13061,"ĠOpName":13062,"ĠSTM":13063,"jcxz":13064,"å°":13065,"Ġassert":13066,"CLRF":13067,"989":13068,"BUFF":13069,"Ġcolors":13070,"Stk":13071,"Ġ078":13072,"Ġ478":13073,"2100":13074,"idi":13075,"ĠCORE":13076,"Ġcorresponding":13077,"Ġrec":13078,"721":13079,"Ġpab":13080,"Ġ8048":13081,"âĸ¡":13082,"HEL":13083,"Ġ262":13084,"ĠSPRITEMOV":13085,"dfc":13086,"PARSER":13087,"0625":13088,"lipse":13089,"PreStub":13090,"DRIVE":13091,"lwait":13092,"Ġ638":13093,"ĠRCX":13094,"Ġappear":13095,"Ġworkspace":13096,"10009":13097,"ght":13098,"Ġ397":13099,"LINK":13100,"Ġprefix":13101,"NM":13102,"DexEntry":13103,"Sonic":13104,"1300":13105,"chn":13106,"CHANNEL":13107,"dad":13108,"magic":13109,"Ġ'}":13110,"STAND":13111,"Ġ351":13112,"matrix":13113,"Ġinser":13114,"AAA":13115,"ĠPIPE":13116,"Ġvm":13117,"las":13118,"ccb":13119,"8388":13120,"predef":13121,"GRAPHIC":13122,"ĠBATTLEANIM":13123,"ĠĠĊĠĠĠĠĠĠĠ":13124,"eallocate":13125,"@@@?$":13126,"MKGLOBAL":13127,"Ġwalkpgdir":13128,"901":13129,"virtual":13130,"Ġ337":13131,"ãĤĴ":13132,"traitsIc":13133,"BREAK":13134,"Keyed":13135,"Ġinterface":13136,"Ġdistance":13137,"NECTION":13138,"ĠâĶĤâĶĤâĶĤâĶĤâĶĤâĶĤ":13139,"SLIDE":13140,"security":13141,"PK":13142,"Ġ357":13143,"1408":13144,"Ġ670":13145,"ĠFIRST":13146,"Ġ498":13147,"ĠAG":13148,"EXE":13149,"000039":13150,"ĠSTK":13151,"COLUM":13152,"NDEF":13153,"Ġdivisors":13154,"902":13155,"GenericError":13156,"00042":13157,"abb":13158,"insrb":13159,"readsheet":13160,"Atom":13161,"2345":13162,"Ġinitialized":13163,"zone":13164,",...":13165,"xmlParse":13166,"fname":13167,"ĠTotal":13168,"Ġul":13169,"shm":13170,"Ġft":13171,"Ġlicensed":13172,"ĠITEM":13173,"Ġtm":13174,"ĠCry":13175,"Ġprovisions":13176,"ĠNotes":13177,"Ġvarious":13178,"10004":13179,"099":13180,"OOL":13181,"ader":13182,"ĠChar":13183,"____________":13184,"onts":13185,"Ġhappen":13186,"ferred":13187,"ĠSMALL":13188,"gpio":13189,"Ġvpshufd":13190,"Ġtransmitted":13191,"QA":13192,"ĠĠĠĠĠĠĠĠĠĠĠĠĊĠĠĠĠĠĠĠ":13193,"Fixed":13194,"Ġ394":13195,";---------------------------------------------------------------------":13196,"Ġ516":13197,"spawn":13198,"SHL":13199,"PLUS":13200,"tn":13201,"1016":13202,"3201":13203,"Ġrelea":13204,"SAX":13205,"Ġ')":13206,"ĠThen":13207,"ãģª":13208,"Ġworks":13209,"Ġmovzwl":13210,",[((-":13211,"edium":13212,"Ġlooking":13213,"918":13214,"ĠFN":13215,"sbi":13216,"Ġ768":13217,"Ġwarm":13218,"ROOM":13219,"pan":13220,"cmovae":13221,"ĠSHADOW":13222,"Ġhad":13223,"tena":13224,"Ġ358":13225,"1414":13226,"ĠRUNNABLE":13227,"Ġwc":13228,"Ġpopa":13229,"Ġlookup":13230,"ĠPok":13231,"Ġ>>>":13232,"msb":13233,"eated":13234,"Case":13235,"unimp":13236,"Mutex":13237,"dden":13238,"2050":13239,"dcl":13240,"yield":13241,"Ġ580":13242,"Ġ265":13243,"statint":13244,"ĠArray":13245,"cvtsi":13246,"779":13247,"1759":13248,"Ġrla":13249,"NtSetInformation":13250,"Ġbasescradr":13251,"Ġ548":13252,"SHADOW":13253,"iledup":13254,"switchuvm":13255,"fm":13256,"Ġ728":13257,"Ġ>::_":13258,"echo":13259,"ĠZTMP":13260,"$(":13261,"/.":13262,"RAND":13263,"MBOL":13264,"Ġexecuted":13265,"yr":13266,"00110":13267,"Ġvfmadd":13268,"Ġlearnset":13269,"Resp":13270,"Chan":13271,"ĠSQ":13272,"maining":13273,"ĠLAST":13274,"La":13275,"oh":13276,"Ġmakes":13277,"linktest":13278,"Replace":13279,"yl":13280,"Ġ323":13281,"Ġclobber":13282,"ĠĠĠĠĠĠĠĠĠĠĠĠĠĠĠĠĠĠĠĊ":13283,"masks":13284,"FONT":13285,"dbra":13286,"Ġ2048":13287,"8400":13288,"Ġsubq":13289,"Ġprologue":13290,"1500":13291,"ARTY":13292,"LECT":13293,"Ġlarger":13294,"EPILOGUE":13295,"Purpose":13296,"Ġ444":13297,"ĠDate":13298,"ĠIA":13299,"ĠWorld":13300,"NON":13301,"CLASS":13302,"Mail":13303,"packet":13304,"Reply":13305,"2118":13306,"norm":13307,"ĠXTMP":13308,"socket":13309,"ĠNtGdiEng":13310,"WRONLY":13311,"Ġ040":13312,"2814":13313,"CBI":13314,"compressed":13315,"Ġ801040":13316,"ĠQUAVER":13317,"Ġscf":13318,"8602":13319,"Ġaccording":13320,"help":13321,"913":13322,"trum":13323,"NPC":13324,"PG":13325,"pmul":13326,"alb":13327,"******":13328,"cvtt":13329,"lapicw":13330,"Ġchildren":13331,"*_":13332,"1504":13333,"Ġdefinitions":13334,"hrow":13335,"sgas":13336,"1401":13337,"Ġ374":13338,"ĠStat":13339,"Buff":13340,"è®":13341,"lwz":13342,"POST":13343,"gging":13344,"Graph":13345,"ĠVol":13346,"111100":13347,"ĠEnter":13348,"Ġmonitor":13349,"-\"":13350,"good":13351,"Ġfollowed":13352,"MULTIPLY":13353,"uq":13354,"ComCall":13355,"fae":13356,"Ġtweak":13357,"AMETER":13358,"Capture":13359,"ned":13360,"8086":13361,"ROUTINES":13362,"ĠĊĠĠĠĠĠ":13363,"linkunlink":13364,"limbo":13365,"Abort":13366,"mmcsd":13367,"Ġlc":13368,"ĠKernel":13369,"eac":13370,"ĠDPTR":13371,"ĠCan":13372,"Ġarchitect":13373,"äº":13374,"5368":13375,"Ġuw":13376,"aca":13377,"Loader":13378,"ĠTag":13379,"Ġyear":13380,"MaxPSG":13381,"®µ":13382,"2583":13383,"subpel":13384,"vid":13385,"Ġpaddb":13386,"Api":13387,"brk":13388,"dac":13389,"Attribute":13390,"Ġmultiplic":13391,"Ġdire":13392,"Ġmuch":13393,"PEAV":13394,"Ġcomment":13395,"Upd":13396,"[%":13397,"ĉĉĉĠĠĠĠĠĠ":13398,"Walk":13399,"STANT":13400,"Ġterminated":13401,"ĠDone":13402,"Ġunless":13403,"âĢĵâĢĵâĢĵâĢĵ":13404,"pcm":13405,"UAL":13406,"çĽ":13407,"Ġvshufi":13408,"ĠBasic":13409,"ffffh":13410,"Except":13411,"pushd":13412,"ĠĊĉĉĉĉ":13413,"Present":13414,"Ġ================================":13415,"Ġ688":13416,"Ġ354":13417,"MSB":13418,"ĠRTC":13419,"bff":13420,"Tri":13421,"rbo":13422,"1004":13423,"etary":13424,"ilt":13425,";==============================================================================":13426,"ecmp":13427,"trip":13428,"Ogtp":13429,"6105":13430,"866":13431,"Ġepilogue":13432,"ĠNtOpen":13433,"parseredirs":13434,"4294":13435,"kbdgetc":13436,"Clus":13437,"Ġaway":13438,"ĠVGA":13439,"smpsAlter":13440,"ostream":13441,"Ġslots":13442,"Ġcla":13443,"istics":13444,"mmer":13445,"LG":13446,"eba":13447,"ĠVal":13448,"addc":13449,"Ġ367":13450,"Ġterminator":13451,"LUMA":13452,"Ġ391":13453,"ArgList":13454,"fst":13455,"829":13456,"Ġreceive":13457,"six":13458,"ĠSAFE":13459,"Ġcleared":13460,"teration":13461,"erences":13462,"Ġlisting":13463,"levator":13464,"Ġ438":13465,"ido":13466,"086":13467,"beck":13468,"1089":13469,"1030":13470,"$$$$$$$$":13471,"MOVS":13472,"NDIRECT":13473,"ldhl":13474,"Ġ326":13475,"LETTER":13476,"eams":13477,"ĠPA":13478,"ĠFISH":13479,"VIA":13480,"copytiles":13481,"effect":13482,"ised":13483,"Ġapic":13484,"COORD":13485,"Ġ348":13486,"Ġ801023":13487,"Spin":13488,"FIND":13489,"1055":13490,"ĠDRAW":13491,"ĠDRIVER":13492,"å¾":13493,"rietary":13494,"ĠRD":13495,"REE":13496,"Lines":13497,"Ġ341":13498,"Ġsmps":13499,"urb":13500,"Ġ356":13501,"Ã³":13502,"2015":13503,"2896":13504,"ECCheck":13505,"00001111":13506,"Ġ387":13507,"ROUNDS":13508,"974":13509,"DUT":13510,"icode":13511,"izing":13512,"ĠYMMWORD":13513,"compress":13514,"ĠMEMORY":13515,"RN":13516,"Ġpix":13517,"Ġalgorithm":13518,"Ġredu":13519,"Ġensure":13520,"ĠDelete":13521,"mulpd":13522,"Ġpointing":13523,"Any":13524,"plaintext":13525,"frac":13526,"render":13527,"Ġimulq":13528,"Celadon":13529,"tw":13530,"edc":13531,"1224":13532,"xmlGet":13533,"Ġ432":13534,"Features":13535,"Ġ#(_":13536,"muls":13537,"Ġ-------------------":13538,"673":13539,"Transp":13540,"Ġ568":13541,"ENS":13542,"1044":13543,"seudo":13544,"Ġ369":13545,"Ġmagic":13546,"ached":13547,"cmove":13548,"apicenable":13549,"ĠOpDecorate":13550,"reverse":13551,"MemUnlock":13552,"YES":13553,"cfc":13554,"ĠFSR":13555,"2560":13556,"Ġeverything":13557,"icon":13558,"Qt":13559,"Ġ419":13560,"Ġ376":13561,"quires":13562,"scene":13563,"usr":13564,"Ġident":13565,"Ġpmaxsw":13566,"lwaitly":13567,"Ġ470":13568,"Ġchannels":13569,"HALF":13570,"Ġpmulhw":13571,"rmdot":13572,"ĠFran":13573,"Ġoutside":13574,"Ljava":13575,"Ġsa":13576,"Ġbtf":13577,"%%%%%%%%%%%%%%%%%%%%%%%%%%%%%%%%%%%%%%%%%%%%%%%%%%%%%%%%%%%%%%%%%%%%%%":13578,"Ġworking":13579,"HOUSE":13580,"XCRC":13581,"ĠMust":13582,"1880":13583,"LEAF":13584,"Ġ613":13585,"2002":13586,"WHITE":13587,"Ġ490":13588,"unum":13589,"0025":13590,"Ġ801038":13591,"EAU":13592,"Ġ658":13593,"ĠCaller":13594,"Geode":13595,"Ġrom":13596,"ĠProc":13597,"connection":13598,"1152":13599,"Product":13600,"DOCUMENT":13601,"aad":13602,"gine":13603,"xord":13604,"Ġ017":13605,"ermis":13606,"Ġ411":13607,"AVS":13608,"Encrypt":13609,"1050":13610,"ipment":13611,"ĠAdjust":13612,"1064":13613,"dtr":13614,"ĠĠĠĠĠĠĠĠĠĊĠĠĠĠĠĠĠĠ":13615,"dbf":13616,"Ġ405":13617,"Fault":13618,"Ġreach":13619,"813":13620,"dor":13621,"tot":13622,"weight":13623,"-----------------------------------------":13624,"Windows":13625,"ĠQu":13626,"laced":13627,"ĠStop":13628,"1134":13629,"952":13630,"Clr":13631,"Ġduration":13632,"dbuf":13633,"Ġ1992":13634,"Hide":13635,"-'":13636,"terminated":13637,"volutions":13638,"hld":13639,"Ġ680":13640,"Ġ668":13641,"Ð°ÑĤ":13642,"Ġprolog":13643,"fw":13644,"ĠLeft":13645,"ECH":13646,"ĠCoord":13647,"ĠTILESET":13648,"rshr":13649,"bus":13650,"ĠInsert":13651,"Master":13652,"reated":13653,"00000011":13654,"Collision":13655,"BGE":13656,"Software":13657,"cel":13658,"ount":13659,"FFC":13660,"10005":13661,"holdingsleep":13662,"AAAD":13663,"Ġreplace":13664,"ĠsmpsNoAttack":13665,"Ġ1111":13666,"Ġclip":13667,"rodata":13668,"xffffffffffffffff":13669,"Ġruns":13670,"anes":13671,"Cmp":13672,"Ġ618":13673,"ĠSPRITEMOVEDATA":13674,"755":13675,"Ġpackusdw":13676,"ĠTIME":13677,"strtol":13678,"olid":13679,"åı·":13680,"Ġ333":13681,"Ġegg":13682,"FEh":13683,"FEATURE":13684,"ĠTypeName":13685,"Ġì":13686,"ebc":13687,"ĠPM":13688,"FST":13689,":\"":13690,"ina":13691,"000000008000":13692,"xmlXPtr":13693,"ĠTT":13694,"efore":13695,"Ġtriangle":13696,"Ġmodel":13697,"Ġpmovzxbw":13698,"Ġ536":13699,"Ġfaster":13700,"Ġpointed":13701,"ĠDefine":13702,"Material":13703,"Ġsm":13704,"Ġoops":13705,"8535":13706,"subroutine":13707,"ĠXWORD":13708,"926":13709,"Reserved":13710,"ĠENGINE":13711,"ĠSu":13712,"Opcode":13713,"Got":13714,"Ġpopl":13715,"MV":13716,"ede":13717,"ĠĊĉĉĉ":13718,"ĠAuthor":13719,"ĠRS":13720,"MAT":13721,"Ġpe":13722,"eee":13723,"SINGLE":13724,"Ġbeh":13725,"BARRIER":13726,"master":13727,"Ġ578":13728,";=============================================================================":13729,"Tileset":13730,"Assign":13731,"progbits":13732,"arator":13733,"==========":13734,"Ġpred":13735,"Ġproprietary":13736,"ularity":13737,"RSVD":13738,"Ġobj":13739,"cac":13740,"Ġcomes":13741,"Specifier":13742,"ĠĊĠĊĠĠĠ":13743,"ĠCAP":13744,"vpalignr":13745,"811":13746,"nptr":13747,"Ġshell":13748,"ĠSHORT":13749,"Border":13750,"Gfx":13751,"MOVI":13752,"???":13753,"gtclassic":13754,"Ġoperations":13755,"Ð¾Ð´":13756,"Ġyword":13757,"was":13758,"PEAT":13759,"Ġrc":13760,"ĠDr":13761,"ĠPRIVATE":13762,"HC":13763,"WORK":13764,"Ġdehl":13765,"Ġregular":13766,"becker":13767,":(":13768,"000016":13769,"1980":13770,"ove":13771,"GFp":13772,"_]":13773,"ĠCAN":13774,"tests":13775,"ĠENDM":13776,"idestart":13777,"ĠDESCALE":13778,"Ġdif":13779,"Ġcomplement":13780,"Ġbus":13781,"inclu":13782,"ĠGeneric":13783,"Ġepilog":13784,"ĠLower":13785,"Ġ\"+":13786,"access":13787,"ĠPerform":13788,"SIG":13789,"wcet":13790,"2121":13791,"Final":13792,"INTE":13793,"915":13794,"sage":13795,"1312":13796,"FPU":13797,"Ġ()":13798,"resb":13799,"newsz":13800,"ITHER":13801,"Gui":13802,"Ġvpor":13803,"ĉĉĉĉĉĠĠĠĠĠĠ":13804,"ani":13805,"Ġ801050":13806,"ĠLook":13807,"quitgas":13808,"ĠRandom":13809,"IDT":13810,"---+":13811,"SUPPORT":13812,"1374":13813,"ATIVE":13814,"ĠLBA":13815,"ario":13816,"pids":13817,"White":13818,"tempt":13819,"Ġlib":13820,"SETUP":13821,"#-":13822,"VR":13823,"breg":13824,"ĠSTAY":13825,"ı¬":13826,"ĠMOVS":13827,"ĠBB":13828,"dummy":13829,"bounds":13830,"ĠExt":13831,"Ġcos":13832,"ĠĠĠĠĠĠĠĠĠĠĠĠĠĠĉ":13833,"server":13834,"fzx":13835,"ĠDES":13836,"Ġterminal":13837,"1404":13838,"neon":13839,"reference":13840,"Fire":13841,"ISteam":13842,"Ġfact":13843,"success":13844,"Ġdestroyed":13845,"Alpha":13846,"dcb":13847,"Ġloads":13848,")|(":13849,":../":13850,"TileMap":13851,"1013":13852,"Ġpas":13853,"ĠNor":13854,"apter":13855,"LEX":13856,"Ġeo":13857,"aba":13858,"Ġ414":13859,"Ġpercent":13860,"Ġdenotes":13861,"Asc":13862,"Ġ'+":13863,"enny":13864,"RESULT":13865,"Song":13866,"1027":13867,"00077":13868,"4194":13869,"pushcli":13870,"too":13871,"ĠOpSelection":13872,"ĠOpSelectionMerge":13873,"076":13874,"921":13875,"Ġvmovd":13876,"3040":13877,"Ġrethrow":13878,"Unwind":13879,"<<<<":13880,"amma":13881,"Ġbody":13882,"Ġ628":13883,"Ġ710":13884,"idle":13885,"stage":13886,"6800":13887,"Ġgoes":13888,"uzzy":13889,"(.":13890,"ĠDONE":13891,"Ġstyle":13892,"movss":13893,"0106":13894,"ĠOverworld":13895,"00072":13896,"xffffe":13897,"Poke":13898,"ĠColumn":13899,"ĠFl":13900,"Ġ708":13901,"SPC":13902,"PARM":13903,"Ed":13904,"Ġ718":13905,"Ġ*-":13906,"Ġfilled":13907,"JC":13908,"Ġapicid":13909,"ĠFPU":13910,"cross":13911,"1125":13912,"triangle":13913,"Ġ690":13914,"AMARD":13915,"Ġkalloc":13916,"Ġvpbroadcastw":13917,"lex":13918,"ifth":13919,"Platform":13920,"Ġvcmp":13921,"olden":13922,"SteamAPI":13923,"Vel":13924,"1014":13925,"Ġ538":13926,"Ġ381":13927,"putchar":13928,";;;;;;;;;;;;;;;;;;;;;;;;;;;;;;;;;;;;;;;;;;;;;;;;;;;;;;;;;;;;;;;;;;;;;;;;;;;;;;;;":13929,"growproc":13930,"fall":13931,"QUEUE":13932,"'::`":13933,"083":13934,"Ġ412":13935,"ĠCr":13936,"poke":13937,"=-=-=-=-=-=-=-=-=-=-=-=-=-=-=-=-":13938,"greater":13939,"Ġ499":13940,"ĊĊĊĠ":13941,"Boss":13942,"fma":13943,"using":13944,"=!":13945,"aac":13946,"Ġcoef":13947,"Original":13948,"bound":13949,"Ġ3983":13950,"Large":13951,"bm":13952,"Ġ570":13953,"ĠEOF":13954,"Ġconio":13955,"CHILD":13956,"***********************************************************************":13957,"MPT":13958,"Ġlocals":13959,"Cl":13960,"Ġls":13961,"1002":13962,"ĠChannel":13963,"000017":13964,"PLAN":13965,"Ġaccompany":13966,"queta":13967,"SBB":13968,"945":13969,"allocproc":13970,"destination":13971,"946":13972,"Amp":13973,"och":13974,"reexecute":13975,"Apply":13976,"dta":13977,"Ċĉĉĉĉĉĉĉĉ":13978,"DEVICE":13979,"Ġâı¬":13980,"custom":13981,"Ġdue":13982,"TrainerHeader":13983,"sort":13984,"ÑĨ":13985,"@@$$":13986,"653":13987,"Team":13988,"Ġmovhlps":13989,"Chat":13990,"monitor":13991,"Ġplot":13992,"Ġ...,":13993,"Ġpinsrw":13994,"Ste":13995,"ĠMUST":13996,"ĠSimp":13997,"FON":13998,"nasm":13999,"ĠxB":14000,"lice":14001,"Ag":14002,"ä¿":14003,"Ġfil":14004,"Ġecho":14005,"cbf":14006,"ecf":14007,"throw":14008,"DJNZ":14009,"ĠVIC":14010,"Ġtransition":14011,"Ġ10000000":14012,"dices":14013,"),#":14014,"ĠOutputs":14015,"ATED":14016,"syntax":14017,"Ġaccompanying":14018,"Ġ267":14019,"BLT":14020,"NOW":14021,"Kbd":14022,"software":14023,"ĠWS":14024,"izer":14025,"ãģĹ":14026,"actual":14027,"!)":14028,"bsf":14029,"pagetable":14030,"Ġattr":14031,"INUE":14032,"arbage":14033,"nin":14034,"Ġpurpose":14035,"ills":14036,"ĠSecond":14037,"triple":14038,"Cb":14039,"1260":14040,"1249":14041,"Ġmovapd":14042,"1144":14043,"Ġcome":14044,"xmlSAX":14045,"Pokecenter":14046,"Damage":14047,"1875":14048,"ĠCx":14049,"trapno":14050,"HOST":14051,"ĠLENGTH":14052,"978":14053,"vile":14054,"Ġ678":14055,"EI":14056,"1424":14057,"ĠDISK":14058,"IER":14059,"LCALL":14060,"Ġ801035":14061,"bregx":14062,"ĠROUTINE":14063,"DIGIT":14064,"966":14065,"Ġhaving":14066,"TARGET":14067,"VRC":14068,"CCESS":14069,"Ġterminate":14070,"1560":14071,"085":14072,"NMI":14073,"Ġhandles":14074,"Ctx":14075,"upsample":14076,"saddr":14077,"1060":14078,"ldir":14079,"ĠLin":14080,"Trace":14081,"ĠEEPROM":14082,"Ġ802":14083,"fbe":14084,"oke":14085,"ĠNtGdiSet":14086,"ASE":14087,"Ġxd":14088,"Ġ801064":14089,"Ġ407":14090,"Cpu":14091,"sets":14092,"Ġ383":14093,"manager":14094,"SBCS":14095,"Sample":14096,"1320":14097,"='":14098,"1760":14099,"Ġtransform":14100,"Ġpipewrite":14101,"EXCEP":14102,"opensource":14103,"preter":14104,"Ġ@%%%%%%%%%%%%%%%%%%%%%%%%%%%%%%%%%%%%%%%%%%%%%%%%%%%%%%%%%%%%%%%%%%%%":14105,"mad":14106,"Ġ2008":14107,"ĠHW":14108,"POKE":14109,"based":14110,"*,":14111,"Ġ014":14112,"1900":14113,"Ġ377":14114,"structure":14115,"ĠJSAMPROW":14116,"ddf":14117,"RETI":14118,"Ġdistribute":14119,"Ġheld":14120,"Ġlaws":14121,"âĸ¡âĸ¡":14122,"ĠSPE":14123,"ĠLZ":14124,"ĠĠĠĠĠĠĠĠĠĠĠĠĠĠĠĠĠĠĠĠĠĠĠĠĠĠĠĠĠĠĠĠĠĠĠĠĠĠĠĠĠĠĠĠĠĠĠĠĠĠĠĠĠĠ":14125,"dff":14126,"Ġ371":14127,"Ġpusha":14128,"ĠTypeSpecifier":14129,"ĠHz":14130,"stderr":14131,"NODE":14132,"Ġabort":14133,"Ġagainst":14134,"ones":14135,"1132":14136,",#-":14137,";--------":14138,"Ġ434":14139,"Ġ366":14140,"fbf":14141,"Raise":14142,"HDR":14143,"ĠJDIMENSION":14144,"AAE":14145,"Ġcompiler":14146,"outstanding":14147,"Ġpsubb":14148,"775":14149,"Hack":14150,"Ġei":14151,"ĠSendMessage":14152,"Dos":14153,"ICON":14154,"Environment":14155,"aeskeygenassist":14156,"826":14157,"ulation":14158,"Ġescape":14159,"Throw":14160,"Ġciphertext":14161,"ĠOSE":14162,"Ġpreset":14163,"919":14164,"tq":14165,"Ġnorm":14166,"AAa":14167,".$":14168,"Ġdidn":14169,"herit":14170,"Place":14171,"ĠDecrement":14172,"Paint":14173,"Ġbg":14174,"ĠStudio":14175,"smpsVcDecayRate":14176,"Ġ416":14177,"1432":14178,"ĠLea":14179,"Sq":14180,"INVOKE":14181,"bac":14182,"2040":14183,"Ġ801068":14184,"FLT":14185,"MATCH":14186,"trunk":14187,"7200":14188,"Ġyield":14189,"077":14190,"1222":14191,"ĠxC":14192,"ior":14193,"Lquitgas":14194,"Feedback":14195,"URI":14196,"Ġfprintf":14197,"ĠxA":14198,"Statement":14199,"CSR":14200,"fixed":14201,"LANE":14202,"Board":14203,"Facing":14204,"Poll":14205,"ĠFAR":14206,"Ġenvironment":14207,"COND":14208,"Ġexactly":14209,"Ġ*--":14210,"1632":14211,"555555":14212,"mbc":14213,"yper":14214,"Ġ(.":14215,"Ġ801018":14216,"PSD":14217,"66666666":14218,"connect":14219,"lified":14220,"Ġcenter":14221,"=[":14222,"lowest":14223,"Ġusage":14224,"ACA":14225,"Ġregist":14226,"Ġkeyword":14227,"ĠÂ":14228,"ldaa":14229,"2880":14230,"Enlist":14231,"0801":14232,"Backup":14233,"Enlistment":14234,"comb":14235,"ANSI":14236,"åĪ°":14237,"uous":14238,"Ġmult":14239,"954":14240,"gtmax":14241,"Ġwall":14242,"anding":14243,"MPC":14244,"chars":14245,"swer":14246,"origin":14247,"OI":14248,"è¡Į":14249,"Ġbetter":14250,"1026":14251,"ĠEnemy":14252,"Changed":14253,"getfield":14254,"pkrd":14255,"ĠShip":14256,"000032":14257,"ĠParse":14258,"PPU":14259,"1664":14260,"CNSTU":14261,"Decrypt":14262,"65536":14263,"ĠBPL":14264,"image":14265,";;;;;;;;;;;;;;;;;;;;;;;;;;;;;;;;;;;;;;;;;;;;;;;;;;;;;;;;;;;;;;;;;;;;;;;;;;;;;;;":14266,"Ġcomparison":14267,"1304":14268,"ĠPARAM":14269,"Ġeobd":14270,"Ġsync":14271,"kthread":14272,"Ġ<$":14273,"ĠUSA":14274,"ĠSubroutine":14275,"TAIL":14276,"Security":14277,"åĮº":14278,"Ġquad":14279,"bly":14280,"masm":14281,"ĠUSER":14282,"pmuludq":14283,")>>":14284,"??$_":14285,"ccd":14286,"ermission":14287,"815":14288,"ĠTAY":14289,"00005097":14290,"unnel":14291,"EST":14292,"Ġ524":14293,"stit":14294,"Ġvcvt":14295,"Inf":14296,"Ġfew":14297,"Ġcpl":14298,"////////////////////////////////////////":14299,"ĉĉĉĉĊ":14300,"Ġmajor":14301,"ĠĊĉĉ":14302,"Ġtya":14303,"Ġstrchr":14304,"Ġsbbl":14305,"ivalent":14306,"utf":14307,"reti":14308,"MPTY":14309,"Ġsubtra":14310,"Ġmessages":14311,"Mess":14312,"sue":14313,"ĠĠĊĠĠĠĠĠĠĠĠĠ":14314,"abe":14315,"ivo":14316,"IELD":14317,"Ġ511":14318,"00071":14319,"Ġgroups":14320,"ĠGOL":14321,"Ġ353":14322,"ĠXDATA":14323,"*-":14324,"prefetch":14325,"DUP":14326,"Ġeob":14327,"ĠEITHER":14328,"1776":14329,"Ġldir":14330,"wrapper":14331,"Diff":14332,"631":14333,"1170":14334,"insb":14335,"ĠwEnemyMon":14336,"fsfull":14337,"Ġdots":14338,"quiresleep":14339,"ATTATA":14340,"car":14341,"åĬ":14342,"ebe":14343,"ĠOld":14344,"FISH":14345,"Ġsignature":14346,"NtQueryInformation":14347,"939":14348,",'$'":14349,"dv":14350,"Ġsim":14351,"curr":14352,"Ġcorner":14353,"2014":14354,"Ġ616":14355,"bee":14356,"DCTELEM":14357,"-%":14358,"Ġsort":14359,"argin":14360,"ĠKS":14361,"negative":14362,"Ġlittle":14363,"meta":14364,"ĠFT":14365,"Ġ363":14366,"ĠMIT":14367,"Detune":14368,"CU":14369,"Ġ698":14370,"ĠCPY":14371,"><><":14372,"nim":14373,"rees":14374,"Ġconver":14375,"xfef":14376,"Gcm":14377,"eea":14378,"ĠQuery":14379,"107374":14380,"ĠInfo":14381,"ĠOPEN":14382,"Don":14383,"1140":14384,"11000000":14385,"otion":14386,"autogenerated":14387,"inate":14388,"Ġpull":14389,"factor":14390,"Ġholding":14391,"nan":14392,"safestrcpy":14393,"DECODE":14394,"TEAM":14395,"Sched":14396,"Ð¼":14397,"2021":14398,"ITOR":14399,"SMB":14400,"STDOUT":14401,"mgr":14402,"Ġpx":14403,"ĠCAL":14404,"Ġrequires":14405,"925":14406,"RVM":14407,"Ġ=(":14408,"endw":14409,"ĠINTO":14410,"background":14411,"LIT":14412,"000024":14413,"EFLAGS":14414,"Ts":14415,"Ġ654":14416,"2915":14417,"anging":14418,"Shutdown":14419,"979":14420,"'m":14421,"000025":14422,"9090":14423,"AGON":14424,"Ġlinker":14425,"Host":14426,"Ġencryption":14427,"ĠgetVariable":14428,"PEAX":14429,"ĠDEFINED":14430,"Oak":14431,"ĠPSYCH":14432,"ĠSAV":14433,"YP":14434,"cce":14435,"ena":14436,"ĠRDI":14437,"oline":14438,"ĠNormal":14439,"drum":14440,"EntryPoint":14441,"ĠPARA":14442,"Ġseem":14443,"bbbbbb":14444,"LLER":14445,"88888888":14446,"iding":14447,"Ġ801067":14448,"divisor":14449,"Under":14450,"clone":14451,"QUAD":14452,"place":14453,"Ġindicates":14454,"---------+":14455,"Install":14456,"Ġadst":14457,"1313":14458,"Ġflipadst":14459,"HORS":14460,"IPS":14461,"ĠOBJECTTYPE":14462,";==":14463,"Ġpatent":14464,"ĠUp":14465,"INTRA":14466,"izes":14467,"DISABLE":14468,"Ġ':":14469,"ando":14470,"mulu":14471,"BASIC":14472,"CIE":14473,"uation":14474,"DOOR":14475,"973":14476,"2010":14477,"ased":14478,"Ġcongruent":14479,"Ġmoniker":14480,"movapd":14481,"Ġ552":14482,"gam":14483,"ini":14484,"erase":14485,"000019":14486,"Ġminimum":14487,"CCh":14488,"inity":14489,"Ġplaced":14490,"eclose":14491,"gnore":14492,"hal":14493,"Ġpcmpeqw":14494,"Ġdy":14495,"ĠAx":14496,"TCB":14497,"ĠxmmD":14498,"ranslation":14499,";|":14500,"lays":14501,"ĠFlags":14502,"%%%%%%%%%%%%%%%%%%%%%%%%%%%%%%%%%%%%%%%%%%%%%%%%%%%%%%%%%%%%%%%%%%%%%%%%%%%%%@":14503,"ĠSCRATCH":14504,"Ġ740":14505,"Ġimplicit":14506,"gm":14507,"SEQ":14508,"Ġlodsb":14509,"ç½":14510,"ĠNon":14511,"Composite":14512,"ĠICON":14513,"whitespace":14514,"Returns":14515,"ĠxE":14516,"Ġkmem":14517,"fptr":14518,"jm":14519,"0038":14520,"Ġ464":14521,"etable":14522,"ndo":14523,"freq":14524,"ritten":14525,"1485":14526,"2005":14527,"000036":14528,"insrd":14529,"SIs":14530,"CALLP":14531,"Ġ436":14532,"ulonglong":14533,"PPIDE":14534,"SMALL":14535,"3232":14536,"Ġpushcli":14537,"Ġminus":14538,"Works":14539,"SHUF":14540,"isten":14541,"ĠSLEEPING":14542,"fprintf":14543,"ĠScan":14544,"Ġgstate":14545,"Ġprints":14546,"ĠTOK":14547,"OPENSSL":14548,"Palettes":14549,"shot":14550,"Ġdimensions":14551,"9000":14552,";===============================================================================":14553,"DK":14554,"Ġpacksswb":14555,".+":14556,"Ġlanes":14557,"Visible":14558,"8012":14559,"Ġprep":14560,"ĠRequ":14561,"11011":14562,"ĠDoes":14563,"Events":14564,"Ġupd":14565,"1342177":14566,"Ġ471":14567,"1601":14568,"ĠBF":14569,"Ġ496":14570,"Ġ582":14571,"Ġaltered":14572,"ĠĠĠĠĠĠĠĠĠĠĠĠĊĠĠĠĠĠĠĠĠ":14573,"ĠALIAS":14574,"Flash":14575,"531":14576,"LMBH":14577,"edit":14578,"spin":14579,"asr":14580,"Ġpopcli":14581,"flat":14582,"4400":14583,"Ġ558":14584,"ĠFISHGROUP":14585,"2748":14586,"come":14587,"\">":14588,"TAX":14589,"xpos":14590,"EXTR":14591,"Ġquick":14592,"ĠDIGIT":14593,"958":14594,"937":14595,"ĠFilter":14596,"ĠwPlayer":14597,"Ġmicro":14598,"XCHG":14599,"`#'":14600,"1019":14601,"Operation":14602,"CLOCK":14603,"Ġtil":14604,"1376":14605,"Ġ395":14606,"'+$":14607,"andeq":14608,"NAND":14609,"ĠRDX":14610,"ELS":14611,"slide":14612,"Ġ------":14613,"ĠAcc":14614,"ĠCMD":14615,"Ġvadd":14616,"8500":14617,"slonglong":14618,"917":14619,"cba":14620,"Ġ422":14621,"pas":14622,"FLUSH":14623,"Ġdisclosed":14624,"ĠðŁĺ":14625,"1655":14626,",(__":14627,"Ime":14628,"æ®µ":14629,"ĠLoc":14630,"ĠMaterials":14631,"FENC":14632,"btst":14633,"Ġ486":14634,"exist":14635,"RAX":14636,"Ġ0011":14637,"1136":14638,"urf":14639,"Ġprevent":14640,"fun":14641,"remainder":14642,"sil":14643,"Startup":14644,"Ġ452":14645,"Redi":14646,"Ġ012":14647,"Ġ598":14648,"intc":14649,"gether":14650,"ç½®":14651,"¤º":14652,"ç¤º":14653,"Ġ484":14654,"incsrc":14655,"ĊĠĠĠĠĠĠĠĠĠĠĠĠĠĠĠĠĠĠĠĠĠĠ":14656,"farwritetext":14657,"Ġbigfile":14658,"Ð¸Ð¼":14659,"1220":14660,"Ġstdio":14661,"...\\":14662,"RESER":14663,"again":14664,"border":14665,"ARGUMENT":14666,"1248":14667,"nameiparent":14668,"ĠAUTHORS":14669,"wEnemy":14670,"Ġbattle":14671,"endasmfunc":14672,"GetSyscall":14673,"aux":14674,"Execution":14675,"rer":14676,"Ġ2014":14677,"ĠDISTR":14678,"Primary":14679,"rain":14680,"ĠĠĠĠĠĠĠĠĠĠĠĠĠĠĠĠĠĠĠĠĠĠĠĠĠĠĠĠĠĠĠĠĠĠĠĠĠĠĠĠĠĠĠĠĠĠĠĠĠĠĠĠĠĠĠĠĠĠ":14681,"ĠCHAN":14682,"BTFSS":14683,"Ġposted":14684,"AEBV":14685,"ĠPatch":14686,"ĠBig":14687,"CENTER":14688,"SON":14689,"Ġ$.":14690,"ĠSIG":14691,"LPH":14692,"ddc":14693,"onight":14694,"ĠSurface":14695,"Ġ602":14696,"1204":14697,"ĠĠĠĠĠĠĠĠĠĠĠĠĠĠĠĠĠĠĠĠĠĠĠĠĠĠĠĠĠĠĠĠĠĠĠĠĠĠĠĠĠĠĠĠĠĠĠĠĠĠĠ":14698,"located":14699,"ĠLGFR":14700,"Ġpiperead":14701,"ĠAPP":14702,"dbc":14703,"center":14704,"Ð¿":14705,"FFA":14706,"());":14707,"Ġvmlal":14708,"Ctl":14709,"Ġ343":14710,"efc":14711,"erves":14712,"Ġherein":14713,"Ġ472":14714,"0084":14715,"tay":14716,"abort":14717,"Ġbinomial":14718,"Names":14719,"ckets":14720,"Ġ385":14721,"Ġplatform":14722,"decode":14723,"Ġputdat":14724,"Hwnd":14725,")=(":14726,"kinit":14727,"Logging":14728,"PLIC":14729,"Ð°ÐµÐ¼":14730,"ĠCompiler":14731,"oston":14732,"100000":14733,"lshift":14734,"--------------------------------------------------------------------------------":14735,"idelock":14736,"Enumerate":14737,"Ġuploaded":14738,"cfb":14739,"ãģ«":14740,"ĠDefault":14741,"AUD":14742,"Ġ439":14743,"Ġ636":14744,"xfm":14745,"Ġparity":14746,"atomic":14747,"Ġ801027":14748,"UCSIs":14749,"INSt":14750,"DES":14751,"onightR":14752,"upe":14753,"vx":14754,"1156":14755,"ips":14756,"refcnt":14757,"subb":14758,"ident":14759,"ĠDetermine":14760,"ERIC":14761,"llll":14762,"ĠPHONE":14763,"Blue":14764,"Ġboard":14765,"Standard":14766,"PORTB":14767,"Ġreduction":14768,"ĠIMB":14769,"brne":14770,"Ġpminsw":14771,"ĠSTEP":14772,"ĠNorfair":14773,"Ġwarp":14774,"smpsLoop":14775,"1434":14776,";***********************************************************************":14777,"GetSyscallNumber":14778,"erange":14779,"ĠELF":14780,"Ġvmovq":14781,"Ġlonger":14782,"Hijack":14783,"Warp":14784,"year":14785,"ĠFIRE":14786,"dzx":14787,"1036":14788,"IDCT":14789,"123456789012345":14790,"vdp":14791,"xmlBuf":14792,"ĠTail":14793,"ĠAssembler":14794,"Wave":14795,"071":14796,"getcallerpcs":14797,"Stage":14798,"Ġ346":14799,"Ġversions":14800,"ĠRelease":14801,"ĠDisk":14802,"Fuzzy":14803,"rocessor":14804,"Ñħ":14805,"ĠBEGIN":14806,"Ġlinked":14807,"Adj":14808,"Values":14809,"aec":14810,"lect":14811,"1090":14812,"JSAMPLE":14813,"GBC":14814,"nv":14815,"Ġreproduced":14816,"Ġ429":14817,"Ġlxi":14818,"wave":14819,"00401":14820,"setupkvm":14821,"Ġadding":14822,"Ġhandlers":14823,"ĠCharacteristic":14824,"Ġ@%%%%%%%%%%%%%%%%%%%%%%%%%%%%%%%%%%%%%%%%%%%%%%%%%%%%%%%%%%%%%%%%%%%%%":14825,"Hot":14826,"esting":14827,"1602":14828,"ĠSUBROUTINE":14829,"Ġ801034":14830,"959":14831,"801082":14832,"ries":14833,"ĠLock":14834,"8584":14835,"RDY":14836,"40000":14837,"è¾":14838,"Ġminor":14839,"ĠPrepare":14840,"dbit":14841,"Descriptor":14842,"Ġ564":14843,"ĠFloat":14844,"ĠSB":14845,"constru":14846,"ĠBOOT":14847,"mHL":14848,"wall":14849,"Ġ576":14850,"Ġreload":14851,"Ġdirfile":14852,"snprintf":14853,"ĠAREA":14854,"seh":14855,"ĠThread":14856,"Ġeflags":14857,"oppel":14858,"80004":14859,"ĠSimplified":14860,"Fight":14861,"ĠVR":14862,"tempo":14863,"ĠPLUS":14864,"fce":14865,"Ġworldwide":14866,"mcs":14867,"usted":14868,"ĠDF":14869,"ĠDungeon":14870,"Ġ442":14871,"feb":14872,"ĠLOC":14873,"filters":14874,";================================":14875,"WW":14876,"XDEFINE":14877,"ĠÐŁ":14878,"DeclItem":14879,"Ġapproved":14880,"EET":14881,"Ġinduce":14882,"cpus":14883,"ISON":14884,"Abs":14885,"tok":14886,"Ġ588":14887,"Ġ*=":14888,"extended":14889,"ĠOne":14890,"ression":14891,"ĠInternal":14892,"SMS":14893,"nE":14894,"1380":14895,"reserve":14896,"unity":14897,"bcb":14898,"externFP":14899,"TOWER":14900,"Ġ2003":14901,"Ð¾Ð»":14902,"ov":14903,"Ġsem":14904,"),(":14905,"Ġ8012":14906,"922":14907,"Escape":14908,"ceb":14909,"Ġ801025":14910,"AAh":14911,"Ġ355":14912,"deh":14913,"00015":14914,"Ġmatches":14915,"ĠPHY":14916,"rece":14917,"lies":14918,"Colors":14919,"ZTV":14920,"Hidden":14921,"1164":14922,"ĠEF":14923,"Ġexpressly":14924,"bably":14925,"EADER":14926,"RESPON":14927,"icture":14928,"Ġimplication":14929,"YPER":14930,"Ġentity":14931,"Construct":14932,"SSD":14933,"TOBJ":14934,"Ġlocations":14935,"Ġpinsrd":14936,
[...]
