#version: 0.2
Ġ Ġ
ĠĠ ĠĠ
o n
r e
ĠĠĠĠ ĠĠĠĠ
ĠĠ Ġ
t h
e r
t i
i n
i s
e n
a r
l e
ti on
o r
a t
Ġ =
u n
s e
Ċ ĠĠĠĠ
s t
) ;
a l
Ġ {
d e
Ċ ĠĠĠĠĠĠĠĠ
th is
a n
r o
c tion
u r
ĉ ĉ
" ,
un ction
f unction
en t
Ġ c
Ċ ĠĠĠ
* *
Ġ }
m e
g e
t e
) ,
t ur
tur n
= =
re turn
p e
v ar
) {
Ġ (
c t
t o
i f
ĊĠĠĠĠ ĠĠĠ
u l
Ġ "
l a
Ġ *
Ġ '
at e
t y
u e
s s
Ġ n
c e
t r
c h
" :
i d
/ /
Ġ e
Ċ Ġ
Ġ f
a d
& &
l o
in g
} ,
( "
Ċ ĉĉ
ĊĠĠĠĠ Ġ
Ġ p
Ġ a
c k
a me
i t
m ent
i g
Ġ s
o l
] ,
' ,
ty pe
ge t
Ġ this
m p
ĊĠĠĠĠĠĠĠĠ ĠĠĠ
Ġ o
Ġ b
ĠĠĠĠ ĠĠĠ
Ġ d
Ġ th
v e
r a
c on
u t
Ġ 0
o de
. _
** **
- -
i l
x t
v al
Ġ 1
( )
m a
Ċ ĉ
0 0
Ġ re
e d
a b
m o
", "
e ct
ĊĠĠĠĠĠĠĠĠ ĠĠĠĠĠĠĠĠ
l i
Ġ if
e l
Ġth e
| |
: "
b j
e w
ul l
se t
u s
at a
Ġ function
h t
p a
p ro
Ġ in
) .
t er
( '
Ġ w
c o
Ġ return
or t
r i
s i
I n
en g
k e
Ġ //
re n
h e
de f
o p
o w
val ue
bj ect
Ġ var
a s
R e
) }
la ss
Ġ +
eng th
q u
t a
ul t
u m
Ġ [
ĊĠĠĠĠĠĠĠĠ ĠĠĠĠĠĠĠ
c a
Ġc on
p er
_ _
f or
Ġ i
l ength
d i
Ġ t
I C
Ġ to
ab le
an d
x p
en d
Ġ @
a p
u p
= "
f f
al l
Ġ m
le ment
Ġ st
A g
a m
) )
e s
v er
Ġ <
P ro
tion s
ĊĠĠĠĠĠĠĠĠ Ġ
ig ht
v ent
o t
( );
": "
Ġ 2
Ġ h
Ġ _
is t
, "
n ull
( ){
o d
i re
**** ****
o c
Ġ} ,
N ame
s p
in d
te xt
in e
ra y
de x
== =
a ult
ĠĠĠĠĠĠĠĠ ĠĠĠĠĠĠĠĠ
IC Ag
p ar
Ġ -
ke y
C on
v i
e xt
u se
-- --
ren t
1 2
Ġ T
u ment
u le
A A
Ġ tr
Ġ is
r or
n ame
O bject
a se
] ;
a ge
pro to
Ċĉĉ ĉĉ
d er
Ġ r
1 0
st r
S e
! ==
ad d
Ġ :
a ck
j s
d ata
Ġ* /
ar g
. /
Ġ $
u b
o m
o f
Ġ /
proto type
A r
&& (
s c
ar t
f i
p s
Q U
Ċĉĉ ĉ
re ate
s h
def ault
Ġf or
Ġ &&
ĠĠĠĠ Ġ
n g
ĊĠĠĠĠĠĠĠĠĠĠĠĠĠĠĠĠ ĠĠĠ
b er
a th
te d
mo d
xp ort
ro m
ro w
S t
Ċ ĊĠĠĠ
Ġn ew
Ġ= ==
qu ire
y pe
il d
s er
" )
i b
i z
at ch
} ;
a tion
l l
o o
an g
l y
D e
la y
1 1
Ġ C
ICAg ICAg
2 0
an ge
Ġ l
Ġ A
] .
te m
p o
E lement
al se
< /
id th
T ype
' );
[ "
\ "
Ġ value
( {
1 6
T o
Ġ} );
C h
o ut
Ġo f
Ġ g
o ur
o mp
Ġ se
Ġ 3
on e
p ut
ti ve
in t
= {
u te
an ce
Ġ= >
re a
Ġn ull
2 5
+ +
v o
Ġ ||
i th
Ġ de
Ġ S
Ġ M
w e
" ),
i c
Ġ )
e xport
" );
Ar ray
Ġtr ue
ct or
Ġ `
mod ule
i le
d ate
V al
mo ve
c ol
Ċ ĊĠ
ap p
: {
Ġe l
1 3
I d
e t
p re
type of
er s
Ġ .
( ),
Ġcon st
par am
di v
Ġ me
n ode
a y
Ġp ro
Ġ y
" ;
un d
ti ng
L E
1 4
Ġ ?
i m
' )
1 5
um ber
l u
p t
1 8
y le
c reate
n ew
on ent
us h
ch e
re s
Ġb e
2 4
lo ad
per ty
Ġc lass
] =
m l
for m
Ċ Ċ
C lass
q ue
} }
c all
' :
si tion
Ġ 4
S tr
1 9
f o
' ;
b ack
Ġf alse
our ce
an s
Ġ un
D ata
f ig
at tr
F B
Ġel se
f t
oc ument
er y
vo id
E r
in dex
1 7
t ent
E vent
3 2
******** ********
str ing
in ed
a c
Ġf rom
ar get
\ \
p ush
T i
Ġre s
] )
con st
Ġ L
ig n
Ġ it
6 4
" },
Ġ on
Val ue
a g
Er ror
b o
export s
i r
Ġ !
Ġ} ;
er ror
c lass
A t
d is
N ode
O N
. $
op tions
O R
u re
Ġ );
ti c
---- ----
], [
le t
L ist
) },
co mp
3 3
l ine
ro ll
at or
p tions
P o
Ċ ĠĠ
ra p
ta in
un t
def ined
: !
ur rent
ĊĠĠĠĠĠĠĠĠĠĠĠĠĠĠĠĠ ĠĠĠĠĠĠĠ
Str ing
Ġ and
9 9
arg ument
ff set
Ġ or
mp ort
ĠĠĠĠĠĠĠĠ ĠĠĠ
Ġ D
Ġe x
T E
) :
re f
iz e
Ġ ma
Ġ an
ow n
= !
Ġd ata
Ġ( )
or d
re d
ca se
Ti me
e x
se le
la ce
we b
E n
Ġ I
or m
2 9
Ġ get
O f
t on
a ch
) );
3 0
ss age
st yle
Ġ Re
ut ton
5 0
m b
ti me
re ss
} );
lo g
ce ss
2 7
2 8
/ **
il l
C ol
h as
{ "
k en
Ġn ame
te st
argument s
Ġc h
Ġ >
( (
: [
la b
ĊĠĠĠĠĠĠĠĠ ĠĠĠĠĠ
i on
lo ck
QU F
si on
sc ri
ind ow
b e
i ty
rea k
co m
en er
Ġ type
K e
ar ray
p lay
Ġ B
. ./
2 6
lo w
== ==
In dex
ht t
ĠT he
re move
c ted
pa rent
R E
o bject
Ċ ĊĠĠĠĠĠĠĠ
i mport
sp an
he ight
Ġ j
) ),
ib ute
re quire
H e
Pro perty
pa ck
3 4
l ate
el d
st ance
Ġ F
St ate
m in
( !
Ġ set
l s
h i
p x
y n
Ġre quire
s o
, -
Ġ P
3 7
h o
e lement
le ft
a ct
th od
+ "
3 6
I N
us er
a v
ht ml
p tion
b u
que st
omp onent
Ġ v
Ġ key
in k
[ '
p lace
0 4
3 5
u st
Ke y
", {
p p
w idth
ar d
. .
u i
Ġ 5
z e
T ext
} },
" >
3 8
st ate
li ck
vi ew
c ode
6 6
A C
od y
Ġp ar
st art
t le
Ġ/ **
Q u
up date
to p
Ġ !==
m it
ma ge
Ġ( !
e vent
ca tion
" ],
L o
B y
el se
" ).
" ]
g ro
Ġ U
/ *
t s
w a
: //
de d
a u
ur l
I D
Ġw ith
B QU
Se le
n o
() .
5 5
4 8
Ā Ā
ma p
ad er
3 9
il ter
00 00
le te
n e
en se
Ġa s
De f
" ===
d d
val id
i x
ch ild
c b
tain er
on t
lab el
um n
web pack
E R
Ġ W
Ù İ
Ġ k
a ve
M e
Ġ __
f e
E N
g er
is e
i tem
Ġo bject
Ġ x
f a
Ġ N
M ath
2 2
ti tle
6 7
Ġp o
in ter
i al
At tr
sp on
4 0
Ġ= =
] );
Ċ Ċĉ
} ),
Ġn ot
er t
> >
in put
Ġo ptions
= '
r c
I G
str u
g in
! =
n ext
) (
s ub
tr y
6 0
l f
Ġres ult
Ġth at
* /
Ġc ol
ca le
ar k
I T
m on
5 9
> <
6 8
and le
a ss
col or
all back
Ċĉĉĉĉ ĉĉ
si ze
able d
4 4
= [
pa th
or der
Ġ use
Ch ild
I tem
O D
ar y
Ġ O
qu al
V i
W idth
A n
M od
Ġ id
p i
++ )
5 7
c urrent
t arget
y mb
ri ct
Se t
la st
Ġ E
ymb ol
re ad
a mp
C o
; \
ma x
] ),
Qu ery
' ).
Ċ ĊĠĠĠĠĠ
P ar
n er
b ar
d ocument
Ġ< /
8 0
Ġ al
ff er
ode l
c ss
ta g
" +
c lu
S T
" ==
h a
ty le
pe ct
pro ps
ul d
U p
) ?
L e
def ine
qu ery
he ck
Ġe vent
( [
D ate
yn c
// //
c al
li ce
spon se
li c
i es
a x
Ġ H
Ġe lement
b reak
a k
x u
an t
te mp
S tyle
ĠĠĠĠĠĠĠĠ ĠĠĠĠĠĠĠ
X G
at us
a tic
7 7
pe c
ra g
ar ch
Ċĉĉĉĉ ĉ
Ġst r
l ist
A R
module s
ti al
con fig
ICAgICAg ICAgICAg
Ø §
r ight
R o
Ġw e
Ġ G
Ġ let
tr ans
lo b
5 8
so le
T r
tr ue
p ort
re place
6 9
i a
U n
Ġ u
i eld
c m
oo k
con tent
vi ce
and l
n umber
li ent
ĊĠĠĠĠĠĠĠĠĠĠĠĠĠĠĠĠ ĠĠĠĠĠĠĠĠĠĠĠĠĠĠĠĠ
or y
Ġ lo
o re
le m
- .
create Element
e c
Ġ 8
ĊĠĠĠĠĠĠĠĠĠĠĠĠĠĠĠĠ ĠĠĠĠĠĠĠĠĠĠĠ
Ġc ase
Ġd is
AA AA
S c
le an
4 7
Attr ibute
b ody
co pe
lo se
li b
o und
f ind
Ġst rict
par se
._ _
fi le
C ode
FB Q
Ġ default
4 9
Ġ} )
u c
o g
Col or
th er
5 6
Ġun defined
|| (
comp onent
Ġ en
Vi ew
d G
B u
2 1
l it
Ġ{ \
I H
en u
Ġw h
o ver
0 9
fo re
s ource
bo x
w n
8 8
Ġ array
M o
-------- --------
**************** ****************
U R
re e
Ġn ode
P ath
b utton
2 3
o ffset
i p
Ġb y
Ch ange
j ect
sc roll
th row
ti p
stru ctor
or k
m at
Ġ1 0
pa ce
M L
y a
Z X
as h
J S
F orm
g le
app ly
Ġ 7
S ize
E xp
p ri
N umber
ti es
i o
A T
He ight
k a
M ap
S E
à ¸
k an
ting s
) )}
j o
4 5
er r
, {
c l
b ind
Ġin stance
sh ow
ra w
S h
r ame
d own
Ġ Object
E ach
Z W
ent er
st e
( _
w indow
": {"
o u
co re
Def ault
Ġ 6
oc us
ac tive
che ck
Ġp re
ol d
htt ps
v ue
M P
C omponent
f n
Ġ ro
u d
w w
E D
s g
> </
ol ve
S S
ma tion
A L
fi r
c y
c ur
htt p
ro p
Ġn o
st er
O r
00 0
f alse
app end
a h
c le
B e
) &&
Ġc omp
' ]
= (
8 7
to ken
m atch
b ase
a ction
e k
Ġc reate
sele ct
ter n
to m
Ġ ],
( ?
9 7
ate d
$ {
lu gin
Ġ[ '
Mod ule
t ro
s rc
oo lean
if i
A N
Ġ ]
Con tent
F unction
A B
QUF D
arg s
m ber
E B
Ġ text
O n
st ro
M M
andl er
0 6
le d
==== ====
r id
c tive
arg in
T e
lob al
Ġ R
on g
Ġin dex
c lick
st atic
Ġex pect
i con
ti ls
e xp
pa ge
ic ense
F F
ĠĠĠĠĠĠĠĠĠĠĠĠĠĠĠĠ ĠĠĠĠĠĠĠĠĠĠĠĠĠĠĠĠ
sp lit
Ġd ocument
T ag
] [
a rent
m d
s w
f ilter
6 5
attr s
wa it
Ċ ĊĠĠĠĠĠĠĠĠĠĠĠ
child ren
it or
o me
Ġc an
ro up
Ġ ke
co unt
Ġp ath
un c
un defined
js on
Ġ error
gro und
Ġf ile
res ult
ti n
i v
dis play
Ġ \
th en
d o
_ .
Ù Ĵ
ot tom
u ch
0 7
1 00
s lice
Ġstr ing
me ssage
Ġa ss
am s
Ġy ang
cb i
+ =
O wn
se d
for Each
Ð °
8 9
f rom
m ise
w ord
ti l
Ġst ate
W e
l ink
ren der
Ġ+ =
he ad
amp le
? "
Ġst yle
List ener
index Of
|| "
O ptions
Ġ mo
r l
ap i
( /
3 1
po sition
ĠĠĠĠĠĠĠĠ Ġ
i e
ig in
I s
ust om
H T
fi x
it ch
Type s
In t
it er
b l
d ay
= \"
Ċ Ċĉĉ
5 4
ib le
T t
Ġse le
ab el
a tive
, !
add ing
ĀĀ ĀĀ
Time out
g is
in i
con text
id d
Ġh as
T I
En d
C ase
c at
temp late
Ġ 9
ad i
Ġd o
e ar
Pro ps
a i
f ter
m er
ĊĠĠĠĠĠĠĠĠĠĠĠĠĠĠĠĠ Ġ
Ġs ource
Con text
E x
ext end
orm al
S er
St art
per ties
W ith
Ù Ħ
( $
B lock
th e
if y
gro up
Ġs h
ur ation
In put
ĠL icense
Ġ Pro
} )
d oc
ig ger
Ġme thod
h andle
ch ar
0 3
Ġa re
O ffset
ri pt
de s
Ġ Error
i mage
b G
load er
v ate
ch ange
s pace
Ġ/ *
s u
Ġe xp
Ġi tem
pa c
Y W
me thod
h is
Y X
F ile
Ġe xport
4 6
ar n
d u
po int
? (
0 8
ĉĉ ĉĉ
Ġ at
In fo
Own Property
r y
0 1
N B
um er
a W
ri te
cbi Ag
4 2
Ġo ut
ï ¿
B utton
] +
Ġcon fig
ate g
Ġcon sole
se s
R ange
Y Y
rea ct
2 00
> \
Ġp er
Ġ V
AC K
an sition
Ġ |
Ġc allback
0 5
Ġc urrent
ĠM ath
F or
re am
el per
A l
ï¿ ½
e p
id er
B o
ver sion
Po int
rap h
C omp
i mation
Ġa pp
Con fig
ce s
attr ibute
O M
D E
s cope
la h
Ġb ase
A ll
scri pt
N o
Ġclass Name
mp ty
Po sition
7 5
g oo
TE D
la s
g s
ma in
7 9
return s
rap per
à ¤
}, "
con d
Ġo bj
Ġl ist
pe d
class Name
}, {
lo at
Ġse lf
&& !
Co unt
U T
A M
Ð µ
../ ../
a st
T op
Ġt arget
ve l
c lose
s k
t able
p end
scri ption
en ti
le x
an n
A P
ä ¸
col umn
a che
)} }
b a
D is
to ol
ol der
Ð ¾
op y
ig h
con tainer
ame ter
&& "
o bj
â Ģ
m s
con cat
` ,
re en
ck er
Ġ z
Ġ module
JS ON
fi eld
Ġ arguments
v g
p en
jo in
Re quest
" }
t n
o uld
b r
to String
Ġ add
fir st
au to
l ang
ã ģ
A D
U rl
Ġ user
5 2
Ġth row
se lf
or g
){ "
Ġ" +
Ġ[ ];
P re
8 4
v is
row ser
st atus
Ċĉ ĠĠĠ
e ach
Ġs c
) &&(
E xt
Ġb u
t d
Ġst art
pro p
M OD
/** */
as k
(? :
define Property
in ner
ir st
Ġb reak
Ġ end
el l
Ġw ill
b n
R ow
Ġf a
mo use
U LE
Me ssage
Ġw indow
) ||
de lete
Le ft
Re f
Ġ2 0
' ),
Ġa c
ab s
tro l
C om
b order
H R
y x
Ġ! =
L ength
Ġcon text
dis abled
Ġn e
Bu ffer
Ġ_ .
A u
po s
p op
b lock
ow er
Con tainer
ul ar
F ield
Ġa wait
Ð ½
Ġd an
> =
ff ect
o k
7 8
Ġ In
Ù Ĳ
', '
F a
Ġm atch
g gle
, [
P ACK
Ġ typeof
Ġ Array
ar i
P age
m and
b m
F rom
i B
W EB
le ction
Up date
__ (
l at
L ine
Sele ctor
U ser
T able
o us
b s
it s
f ocus
C B
(" .
form at
G E
Ù Ĩ
ï¿½ ï¿½
S B
E d
Ġwh en
Ġe lem
Ġs er
Ð ¸
Ġme ssage
Ġ ad
w i
Ġd i
b y
4 1
HT ML
ress ion
Ġass ert
a re
ta il
9 6
c d
Ġ li
Ġn umber
Ġ time
te s
d om
sele cted
Ġc heck
o s
Ġ test
con structor
Ġ le
u ted
S ymbol
) ){
c atch
Ġ{ };
) /
m odel
uc cess
M ode
up port
idd en
ser t
f ont
Ġs pec
' t
WEB PACK
l d
Ġ all
ĊĠĠĠĠĠĠĠĠĠĠĠĠĠĠĠĠ ĠĠĠĠĠĠĠĠĠĠĠĠĠĠĠ
C lick
ho uld
Ġre n
G roup
Ġinstance of
E qual
Ġ ti
//// ////
" )}
0 2
Ġ/ >
Ġc om
he ader
p atch
clu ster
" }},
op en
4 3
Ġ #
' s
I MP
in it
IC B
= >
s or
di re
8 6
5 3
} .
Ġexport s
Ġ K
u al
Ġn ext
Ġch ild
key s
m is
m ark
p h
Ġc omponent
a in
Ġ update
A c
op tion
e qual
Ġin put
Ġcol or
UR L
cle ar
L abel
se arch
OR TED
iz ed
Ù ħ
Ġ void
is h
A S
me di
v as
E l
O ut
Tr ans
p an
pac ity
tr igger
Ġw idth
MOD ULE
stro y
c or
ctor y
Ġa u
b ottom
res olve
Ù Ī
v m
Ġre quest
di r
To ken
\ /
Ġ1 6
f ill
en sion
end er
T arget
n av
x y
c lient
hi de
at er
Form at
' ],
l ight
ri x
i ve
() );
Ġ ar
Ġtr ans
n al
L ay
cluster K
5 1
() }
], "
Ġ[ "
if t
R O
Ġ url
9 8
ĠRe turn
7 6
g ress
Ñ Ĥ
IMP ORTED
9 0
] |
Ġ Y
param s
Ġ$ (
me mber
Ġ \"
Re s
r un
Sc roll
ance l
on th
n ot
las ses
Event Listener
B Q
bu g
ren ce
] }
Ġc o
Ġc ode
u age
} \
sh ould
s a
m enu
ĠT his
ro ot
S x
I mage
=[ ],
ce pt
],[ -
U FB
m argin
Ġs hould
I S
", [
": [
E S
Ġ J
pro perty
7 2
m ul
à ®
ag er
: :
c ord
, _
D es
A s
k it
si de
ĠD ate
() )
In ter
Ġy ou
EN T
hi ch
all y
r t
re quest
Ġvalue s
H andler
ma il
V er
lay er
9 2
Ġ} ),
m ode
Tt BQU
p y
Bo x
m m
ateg ory
d rop
Ġ &
s ing
25 5
Z G
M an
6 3
Ù ı
] :
Ñ Ģ
" !==
re sponse
Ċĉ Ġ
id get
C K
/* !
QUFD Q
A dd
) +
vi de
L O
" ))
trans form
8 3
V y
- \
Ġ1 2
** /
he re
ment s
Ù Ĭ
L ower
Ġ length
Ġma x
Ġcon tent
C allback
8 5
read y
st op
has OwnProperty
m an
i de
, .
c an
` .
7 4
R ight
Ġ args
re r
f low
call back
Ġm in
Ġe xt
tr a
ĠI f
Ġpar se
n one
w h
add Class
a a
t roll
b ser
j Query
at ure
s l
ta ch
L ink
ĠRe act
ĠA l
i tial
po st
ĠĠĠĠ ĠĠ
at tern
: ["
que ue
Ġ ,
Ġm en
Ġ height
I ON
Ġ$ {
(' .
M s
umer able
back ground
is Array
Ġ %
im g
$ .
.. .
" !=
Pro to
igin al
++ ){
Ġh ref
ex ample
Ġ$ .
u g
Val id
ifi ed
S ta
li de
Ġ Se
7 0
lic ense
M odel
li cation
j e
component s
I F
R l
C A
Ġj Query
" .
T H
t al
6 2
C heck
un k
f in
ĠReturn s
gis ter
NB O
I con
7 3
a tions
Ġo ffset
Lower Case
m i
Ġp arent
re ka
goo g
) ("
w ork
S ub
({ },
C O
Ġ q
D ocument
Ġc all
Ġs ub
Ġ title
lo t
pri vate
9 5
Ġ} \
ã Ĥ
) |
s vg
Ġun der
che ma
get Element
Ġren der
, '
le g
Ġpro perty
r ange
: (
$ /
to LowerCase
pro cess
Ġit er
Ġ la
T h
c n
In stance
ck et
Ġ1 1
ti f
ww w
Des c
c i
L L
troll er
T R
() },
parent Node
sw itch
pe cted
Ġh ave
th or
vi ous
, ,
: '
s cale
c enter
ss ion
g lobal
ad a
le s
9 4
d ash
sh a
**** **/
Ġl ine
Ġs o
Ġ Ð
< =
p adding
be fore
A pp
adi us
Ġ' ./
ã ĥ
TtBQU NBO
F n
] ],
Ġf irst
w rite
st ore
)) },
re sh
Ġ valid
e e
p lugin
) ).
li p
o om
U N
)} ),
L F
9 3
C H
8 2
ho st
IN G
Ġre move
Ġre sponse
Col umn
ï ¼
T he
t ab
Ġb er
con sole
it able
Ġ Ø
u D
a j
ate s
mon th
Ġpo sition
ex ec
m ary
u tils
H J
b oolean
ĊĠĠĠĠ ĠĠ
al ign
F ilter
C ache
He ader
p b
h er
Ġ label
p or
to ggle
(' #
(" #
at rix
Ġo pt
S ource
. \
h older
' +
c c
B ase
Ġ val
in fo
in stance
lo cation
pre v
Ġpro ps
A d
c G
Ġme reka
Ġ up
LE N
item s
Ġto ken
A x
p r
il ity
Ġ us
g Exp
)} ;
); \
O bj
ED IT
G et
g ra
g o
Ċ Ċĉĉĉ
Ġo ver
/ ******/
9 1
node Type
u k
Ġo ther
": {
D ay
\ ",
Ġb ack
lo cal
d one
la tive
ction s
Ñ ģ
o ff
# #
---------------- ----------------
"}, "
Ġw hich
la p
Ġ" ),
QUFDQ TtBQUNBO
s ort
s m
scri be
d W
set tings
ad ow
Ġ te
or age
Ġ row
ĀĀĀĀ ĀĀĀĀ
Ġ last
P arent
pi cker
M enu
Ġm ust
A I
Ġc al
6 1
a f
EDIT OR
es Module
Ġ log
Ġ" ./
Ġuse d
w rap
Ġon ly
Ġch ange
Ġ view
Ċ ĊĠĠĠĠĠĠĠĠĠĠĠĠĠĠĠ
ass ert
ch art
( `
Ġma y
cl one
@ @
Ġan y
de scription
in sert
head ers
Sele ct
] *
h idden
Ġas ync
ver t
et ch
X C
p l
\ '
c ent
c s
g a
sh ift
Ġtr y
append Child
d f
f unc
trans late
event s
P er
h ref
ge x
tain s
de rer
Ġdis play
x l
Ġf ield
M in
Ġ> =
T Y
======== ========
mod al
fa ce
L i
Ġwh ile
Ġb o
Ġp age
|| !
bo ard
ann el
Ġc ur
H t
X HR
Ser vice
Ġr ight
attribute s
Ø ±
di c
H E
in es
e mit
ed itor
t x
use d
g rid
ĠT ype
O ver
d a
Ġpar ams
"}}, [
A G
mo unt
ad ing
__ .
ameter s
; )
Ġh andle
Ġma p
T O
value s
] ]
8 1
e lem
g re
a ded
to uch
e m
ol y
ook s
h elper
"}, {
en v
F e
Ġfor mat
it le
Ġ http
< <
in ce
Ġcol umn
web kit
ca che
D own
Ġs u
Ġd ate
Re quire
d rag
clu de
, \
g b
Par ams
R ender
ub lic
i mp
ff ff
Res ult
7 1
a N
, (
M sg
de stroy
I E
S A
ad ata
r on
n ect
remove Class
u til
out er
ch ed
Ġh ar
= /
d ing
d b
R ect
tr ansition
P ri
ass ign
e st
Te mp
c ategory
á ĥ
C lient
M onth
Ġ[ ],
o ther
Po s
s ymbol
A TE
Ġrequire d
re ct
pre vent
Ġ left
v b
set Attribute
Ġto p
ĠS tr
ome try
n ormal
s end
fe rence
b tn
ith ub
)} },
Ġpro cess
tic al
tr ib
g ener
Ġi mp
di tion
Ġd ire
Ġ1 00
lab le
An d
ta tion
Ġ one
ĊĠĠĠĠĠĠĠĠ ĠĠĠĠ
a ti
+ (
en ce
ute s
Name s
ĠAl lah
T itle
") ]),
Ġ' /
d raw
h r
Ġ tag
ĠĠĠĠĠĠĠĠ ĠĠĠĠĠ
By Id
tif y
we en
hi te
v ider
add EventListener
Ġ( (
s pec
å ı
Ġpo int
U S
St atus
E C
k s
B ound
g u
ch or
' >
F loat
Block ly
Ð¾ Ð
] ?
bu ffer
f oo
f rame
M atch
g l
B l
own er
J s
n ow
L T
inter nal
V is
a rea
ĠW e
re q
P I
Event s
] },
Ġc atch
} (
we ek
Y ear
du ct
re t
Set tings
load ing
s ign
Ġ Ø§
Sele ction
AAAA AAAA
Ġ3 2
Ch ar
ang ular
lay out
Man ager
y ste
f ull
. ",
Ù ĳ
Ġst atic
Ġre f
T ra
LEN BQU
F rame
Ċĉ ĠĠĠĠĠ
ut er
J l
rag ment
B ack
Q g
le ase
le ar
of t
ĊĠĠĠĠĠĠĠĠĠĠĠĠĠĠĠĠ ĠĠĠĠĠ
( -
en ers
= -
b b
Ċĉ ĠĠĠĠĠĠĠ
ĠĠĠĠĠĠĠĠĠĠĠĠĠĠĠĠ ĠĠĠ
o st
+ '
(' ./
O pen
Ġ https
Pro mise
Ġ Con
w arn
æ ľ
Te st
y y
tr act
l t
V E
******************************** ********************************
ing s
Ġ query
ule s
ð Ł
Ġ De
Ġf ound
Proto type
g raph
ce ll
', ['
c I
M E
ro und
p Types
o pacity
w o
TE R
c la
Ġs ize
Ġo ption
Ċĉĉĉĉĉĉ ĉ
u res
te ger
} /
te x
To ol
stro ke
=[ ];
ang le
c ustom
Ġ2 4
B ar
static Class
Ġs rc
P O
lo or
)) :
ĠStr ing
ç ļ
Ġf n
ver se
a G
me ta
op ts
A ctive
A E
di o
] (
ate e
re gister
Ġ1 4
C E
CK EDITOR
Ġ. ..
I g
Ġr un
an k
F x
Re ad
Q ue
query Selector
tin ue
sele ction
"], ["
sele ctor
' ))
ne ction
Ġro ot
w ay
g ithub
and om
w ith
ini tial
m y
Ġ1 7
wh ile
Ro ot
D o
dis able
Ġres olve
O T
ca pe
"}, {"
Ġch ar
vide o
25 6
k i
w itch
mis sion
Ġw as
un i
Ġ pe
0000 0000
çļ Ħ
b le
f lex
Ġe d
Ġb ut
Ġc opy
: /
Ġ[ -
if f
ĉĉ ĉ
wa re
D OM
F D
prevent Default
V z
ĊĠĠĠĠĠĠĠĠĠĠĠĠĠĠĠĠĠĠĠĠĠĠĠĠĠĠĠĠĠĠĠĠ ĠĠĠ
S U
at s
ĠPro mise
D ire
re set
day s
D QUFD
m F
) *
d ist
Ġ1 5
Ar g
(" ./
ar ia
ord in
$ (
W indow
={ },
style s
get Attribute
app lication
an ts
mon y
:" #
l ing
al low
n um
is N
tail s
O ption
bu ild
ti fi
al og
A Y
") ),
an im
ar row
ĠType Error
enti fi
") },
++ ;
Item s
Ġbe fore
Node s
[ \
vis ible
Ġ X
su per
Ġw ork
n s
the me
ist ory
f la
Ġi mport
z M
Ġsh ow
B oolean
Re sponse
b W
A F
Ġin itial
] ||
has h
pa ss
U tils
Ġ ter
Ù ĩ
** *
Ġi mage
ial og
w g
A ction
ct x
C ell
en e
en umerable
iz er
Ġp ri
H O
c f
var i
Ġhar mony
Ġ' <
k ind
co py
N l
io s
yste m
Me thod
12 8
Key s
M ark
} ],
or s
n ing
w r
Ġ< =
F ull
Be fore
Ġ mod
ent ry
Ġ ];
tr im
C ON
d X
st ack
Temp late
Ġit u
a w
C all
( __
ho ver
Ġf ont
w rapper
Ġopt s
Mo use
Ġ{ },
( ()
end s
i ce
Ġg lobal
P a
medi a
Se arch
check ed
P E
Ġ' \
f ire
Pro perties
z m
M ax
ile d
Ġin vo
ICAgICAgICAgICAg ICAgICAgICAgICAg
d uration
ang uage
Ġ version
z t
ï¿½ï¿½ ï¿½ï¿½
a X
å ħ
Ġre ad
q l
Ġm argin
P an
å Ī
set s
Ġ( _
Ġ def
Ġb order
v t
Ġin ter
Ġelement s
he et
ã Ģ
P i
a fter
}, {"
g t
le ct
cond s
Ġ{ ?
en c
Ġb ody
sc reen
Ġne ed
pa che
l en
ol ute
"> </
lo c
() ),
c ard
g r
) \
A U
st ream
An imation
Ġc l
tip le
ator s
): (
s uccess
] ).
ix el
={ };
f loor
Ġm an
U s
as ync
TI ON
le ss
w ard
ax is
ve c
') );
Ġa fter
Ġde lete
Ġc ustom
. ","
Ġ old
ol u
Ð° Ð
de bug
G e
c ancel
() :
ti ck
an imation
p c
P lugin
O L
ur able
Z S
Ġ{ }
[ _
ä »
w idget
op er
A b
E s
>> >
E ffect
} `
C ur
$ $
f r
Ġ' @
M D
ha pe
L y
Ġor der
Ġl en
Ġt able
X T
Ġm eng
Ġb lock
out put
s ave
or iz
string ify
Ġdo es
We b
Re act
st ra
Ġr ange
res ource
L I
or iginal
Ġ' #
G rid
Ġ ),
Ġ ver
p th
Ġreturn s
Ġ JSON
à ¹
K E
di alog
=> {
sha pe
p ng
z y
), "
= _
s ent
ĠC opy
n d
B ody
Z m
} >
ix ed
iv en
n et
* (
end ar
Ġb utton
a e
C urrent
Value s
Ġke p
por ted
Ġ1 3
") );
Que ue
k u
99 99
tool tip
Ø ª
h igh
Ġsele ctor
doc s
p ha
C lose
Ġma ke
Ġset tings
U g
v c
sp lice
con tains
V G
M atrix
V u
Ġbe en
la tion
b i
Ġd one
Ġ ).
Ax is
AM E
can vas
(' /
er o
: -
stru ct
Ġo per
type s
Con trol
V s
d ak
inner HTML
__ _
t en
Ċ ĊĠĠĠĠĠĠĠĠĠ
d C
S cale
to Be
n ya
\ ":
Ġchild ren
OD E
U RE
ct u
U I
iz ation
s lide
Ġ[ {
aj ax
ign ore
E mpty
å ®
f il
Sc ript
parse Int
Ġa ction
Ġout put
N av
T ab
iter ator
[ ^
C reate
//////// ////////
in line
A Q
h c
getElement ById
a il
] )}
Ġp ass
Ġ Z
g ICAg
Ġ ./
c ul
Le vel
Sh ow
Ġ OR
D D
ser vice
I m
Ġkey s
n b
Ġau to
Ġd oc
con trol
Ã ©
Ñ ĥ
", (
er ge
N ext
S to
x ml
Sta ck
R U
) ","
cb l
n ap
ir cle
Lay out
comp lete
ï¼ Į
Ġsc roll
Lo g
Ġm ode
m sg
ve d
L oc
Ġfor m
able s
c lasses
W rapper
ension s
Ġre t
le vel
s up
Ġb rowser
St ream
re size
Child ren
pe ed
z b
Ġf ilter
Ġal low
l ong
vi ded
al i
si z
entifi er
valid ate
' ><
ma sk
ĠRe gExp
O P
Ġ" ",
Ġpro perties
To uch
Ġ ta
ĠCopy right
Ġg roup
ĠU n
Sele cted
Ġl ink
F ocus
Pro p
; ++
tern al
Ġ' ';
v en
\ .
" ])
if ic
Ġpro p
u h
__ )
ro t
Ġin to
y ear
set Timeout
Â ł
lo cale
FBQ yx
St orage
Ġti dak
Ġg ener
å Į
m x
lang uage
co ding
dis patch
il der
ĠC reate
to tal
ä º
N D
in st
A X
ter s
D rag
ai lable
Ġ{ "
ste p
er ial
au th
g ba
t ree
de sc
z L
],[ [
pa g
node Name
enti ty
la in
oriz ont
N v
ar r
Ġs upport
Ġp lace
add ress
t c
GE T
! !
C L
Ġg iven
We ek
e ffect
f d
} ).
o te
à ¯
Ġcon tainer
Ðµ Ð
is ion
Con troller
' \
ro uter
g ion
}} ),
å İ
eng an
å Ĳ
Ver sion
pend ing
li ed
ĠL T
Ġ{? }
Ġc ache
N ew
Ġc lient
class List
B E
Element s
re lative
un g
on ly
M S
YY YY
He ad
Ġi con
pa y
an y
Ġlo cal
Style s
j a
er red
ver y
Ġevent s
Prototype Of
si te
Ġ" <
/ ,
in s
x s
Or der
Tr ansition
f b
Ġe ach
pre fix
Ġ template
" ].
"> <
Ġre q
Lo cation
th ing
Pro gress
c re
e q
end ing
r ad
Ġus ing
Ġ Set
j b
Mo ve
Trans form
__( /*!
RE E
t adata
Ġvar i
Q k
com mon
o b
I ter
po inter
orizont al
Ġ err
ICAgICAg ICAg
e mpty
ic s
char Code
pro ject
D ir
Ã ¡
ith er
1 12
S ync
nav ig
Ġback ground
Ø ¨
R un
n a
Ġn ormal
ol low
pan el
Ġcon structor
S p
Ġ` _.
( ;
Ġst atus
Ġcal led
en able
i i
U M
] &&
drop down
C an
R ed
á ŀ
sh adow
h l
en ame
import ant
Ġ$ ('#
ĠPro pTypes
de red
b rowser
C al
)) )
ti m
pro perties
goo gle
action s
} )}
\" >
LE V
pro gress
Ġf ind
u id
à ¥
Ġ qu
Ġser ver
Ġa g
n ative
re m
Exp ression
sh ort
Ġy our
|| {
t p
OR T
ç Ķ
Ġc or
andl ers
) ",
r adius
I f
) [
Ġkep ada
Ġ html
Mod al
Com mand
g ment
Dis play
Ġp adding
} )),
ve lo
Sto re
ĠĠĠĠĠĠĠĠĠĠĠĠĠĠĠĠĠĠĠĠĠĠĠĠĠĠĠĠĠĠĠĠ ĠĠĠĠĠĠĠĠĠĠĠĠĠĠĠĠĠĠĠĠĠĠĠĠĠĠĠĠĠĠĠĠ
il y
à ¦
f c
f s
ser ver
y e
Ġse arch
ĠSe e
p attern
Ġs witch
R L
dG l
con nect
Ġm odel
un ctu
F I
O bser
se ction
char At
col lection
te red
Pro vider
Ġn on
Ġpro to
member Of
mer ge
Vis ible
Ġdis trib
Ġ} ).
Ġh andler
S cope
Ġli mit
12 0
v a
bo und
j i
Ġm ul
in ary
time out
æ ĸ
Ġ1 8
Ġsele cted
Ġor ang
Lay er
ar te
Ġpro vided
li mit
N S
s d
k g
Ġd engan
pre c
cla re
st d
; ){
å ¤
P S
LENBQU Ms
Sh ort
Ġmo re
AR R
Ġm ark
tro ls
o se
() ).
En abled
red u
ac ti
Ġc tx
ĠG et
Ġ 50
Ġe mpty
10 7
an i
unctu ation
Ġs ame
a ce
R en
R h
cm V
F E
T ree
N E
L W
* }
m t
Par se
l an
Ġ load
A fter
ge ometry
- =
n own
è ¯
pre vious
clu des
Ġs cope
P op
ed it
L ast
Lo ad
M ul
N T
L j
Ġitem s
ge s
z oom
s ince
Ġ+ +
act er
j p
mat erial
g g
P T
oft ware
Ġ --
ĠA n
p ol
R I
b ook
im um
O S
] ))
lat form
ĠC heck
Ġf unc
Add ress
ti ty
cd Fx
Ø ¯
point s
dire ction
in her
s upport
get OwnProperty
ind ing
run time
Ġ3 0
Ġin it
Ġ' ',
i k
W ork
helper s
M T
In valid
N e
s b
__ ["
T ask
au thor
Ġth en
Ġst ack
ib ling
Inter val
," ./
5 00
g i
æ Ĺ
Text ure
ce ption
si an
D ialog
Ġp a
Ġ ;
* \
if orm
C ap
": ["
leg ate
Ġs ome
] /
e mail
Ser ver
U P
al am
com mand
Ġv is
ug h
3 00
or ld
in valid
D O
ist s
Ġk a
config urable
Ġpo s
u a
Ġdistrib uted
ra tion
Ġc lear
Ġtrans form
D om
charCode At
ref e
Ġ' '
Ht ml
u de
s By
ĀĀĀĀĀĀĀĀ ĀĀĀĀĀĀĀĀ
sub str
Ġsu per
Lo ader
Ù ĥ
Ġf in
( \
over flow
/ >
Ġ4 0
(" _
ĠS ymbol
J y
ord s
æ ķ
Ġs cale
Ġlo dash
Y m
Ġ ra
1 10
Ġe ither
EN SE
ĠM e
+ ="
H elper
Ġobject s
he x
Al ign
S u
st rict
ĠN umber
anim ate
en code
ib ility
y s
pro mise
Ġex pected
Desc ript
require d
Ġ' .
our s
D B
Ġa ctive
lap se
Ġ1 9
L C
12 5
ta ct
On ly
c r
ĠĠĠĠĠĠĠĠĠĠĠĠĠĠĠĠ ĠĠĠĠĠĠĠ
Ġs p
gra m
ing le
ater ial
ER R
Ġ{ *}
sub string
Ġ" \
Ġ Data
Ġa b
12 12
B ottom
| \
N ot
el m
set State
Ġli ke
t or
U E
Po st
l er
ect or
y d
Ġ argument
Ġar r
Ġin st
ĠC h
al t
A w
ri de
Ġa x
Ġf ill
O ff
Change d
:[ {
Symbol s
.. ..
A pi
D iv
f x
IC ENSE
ĠO F
h b
ĠI N
ĠC ON
Ġs up
tr ack
Ġ[ ]
arte sian
Ġit s
l ta
en tial
Ċ Ċĉĉĉĉ
ĊĠĠĠĠĠĠĠĠĠĠĠĠĠĠĠĠĠĠĠĠĠĠĠĠĠĠĠĠĠĠĠĠ ĠĠĠĠĠĠĠ
z s
as c
place holder
D rop
ĠH T
å ¸
Ġ" #
idd le
name space
v able
b ile
S pec
N z
pe at
t t
Ġs ymbol
ma ke
â Ķ
( .
ro ss
ce ive
) +"
), !
art s
d c
i ct
r andom
i ck
C ard
:" ",
H ash
F irst
Ùĳ Ùİ
Ġ ",
pag ation
åİ ¿
L D
"], "
v s
Ġ Q
w ise
si ve
for mation
_ (
E E
Ð »
Ġ define
IT ION
:{ "
Ġwe b
" }}
T his
s chema
Ġresult s
c ar
Ġd ay
Ġs ign
at tach
Ed itor
st amp
Ġ( {
b abel
xu ICAg
== ="
Ġex ec
month s
s um
has Class
an sp
F R
" }),
Js on
ĠØ§ ÙĦ
st rap
S te
AP I
i an
ref resh
MM M
for ce
Ġb ound
ĠD OM
> '
B B
Ġst ore
Ġde scription
à ª
se ssion
}}, {
Ø ³
b g
ZX J
Ġiter atee
ĠU RL
S ort
as ing
check box
C T
L S
Ġ( $
") :
Fa ctory
av a
N j
Ġn ative
Pan el
S ibling
Ti ck
== "
Ġwith out
A ss
default s
co un
"}, [
Ġp lugin
an chor
im al
Ġv m
DE F
Ù ģ
Ġ' ../
w t
Ċĉ Ċ
KE Y
O per
ini tion
N AME
Ġthe re
P L
is ting
Ġst ream
] {
V AL
), (
å Ĭ
S C
ste ad
Ġm sg
H andle
æ ĺ
g en
D I
Ġsele ct
H ooks
le ted
l g
row s
Ġp rom
si c
ĠI E
V ER
(' <
f loat
Ar gs
O iB
w b
__ ,
F T
g n
Ġ 64
Pre fix
ser ies
0 64
op t
v ailable
Ġcol lection
Pro pagation
ĠI S
:" %
Ġspec ified
d t
Ġin i
tool bar
L G
k ed
scroll Top
pass word
en abled
me mo
p Z
Ċ ĊĠĠĠĠĠĠĠĠĠĠĠĠĠĠĠĠĠĠĠ
I B
ex pect
Ġc b
at ures
de lay
ist ance
Ġo pen
display Name
C ustom
Ġext ends
F unc
pri mary
a ting
play er
TY PE
js x
ub le
ĠB u
Ro ute
ol id
plugin s
Ġw arn
En ter
ĠY ou
N Y
M ENT
z one
i ent
S hape
P h
^ ^
date picker
p m
Ġal ready
! ./
Ġ" /
ca tions
Ġco unt
B A
X P
M g
33 33
cur sor
M i
in clude
a it
element s
F ont
ĠT o
k t
Ġf e
i te
Ġre l
N ODE
ro ugh
Ċĉĉĉĉĉĉ ĉĉ
or ang
up load
com ment
L m
Ġth an
R UFB
Ġ' [
25 0
ap ter
ne ss
Ñ ı
et ween
Ġ2 00
word s
um b
Ġc lose
t ask
Q ix
ut f
List eners
t cbiAg
sub mit
Ġpo st
Re move
(" \
TE XT
ĠĠĠĠĠĠĠĠ ĠĠĠĠ
P AR
Ġbu ffer
or ity
l ish
result s
Ġimp lement
V l
Ġd iv
y b
" ]=
yn am
fir m
ot strap
: #
medi ate
am ily
11 4
Ġl anguage
Ġparse Int
Ġd ari
: \
p ublic
S k
be gin
bu f
o use
Ġ attrs
me d
Ġ attribute
F i
4 00
w atch
A rea
er nal
isN aN
Ġi m
Tra ck
B O
ĠA dd
w hite
mo te
de cor
Ġp as
(/ \
exp and
xu ICAgICAg
ifi er
Ġn av
QUF F
(! (
e a
y B
A ng
Ġor iginal
Ù °
( ["
j ust
S pace
Ġre ject
se cond
ĠT r
Par ser
T im
A K
C lasses
ca use
la g
e b
Ġc ap
Lo ading
Ġn g
C C
way s
st ri
h p
s ue
h andler
:[ ],
Ġp unctuation
se c
) -
lo aded
â ĸ
Au to
], ["
Ċĉ ĠĠĠĠĠĠĠĠĠĠĠ
Ġs uccess
V t
ac cess
Ġc lick
( --
12 7
p ly
ãĢ Ĥ
fix ed
el p
pi pe
,, ,,
sh ot
Ġ ì
V ari
ha vi
! /
stra ct
C SS
Ġset Timeout
im ul
C x
} )},
mission s
N ormal
Re source
Ed it
Ġw rap
ĠV er
s ure
ser ial
Ġ temp
first Child
as on
10 10
Ġ license
dic ate
mb ed
ä ½
ched ule
Ġ header
ynam ic
Ġ4 8
si tions
en cy
view s
Ù Ĥ
V V
Ġto ol
"] (
ver tical
Ġ arg
P RO
parent Name
week days
pre ss
Require d
)} )}
dition al
è ¿
ĠA pache
U til
R G
M ed
Descript or
ri es
11 3
v d
t w
Ġ2 1
Ġm onth
Ġ move
Ġmethod s
ordin ates
Ġt ab
to Equal
Ð º
F y
)) );
" ){
Ġ ui
ur i
) ||(
exp ression
ro ke
Ag ent
P ass
Con structor
åĮ º
inter op
pr int
us ers
Ġbu ild
Ġexp ression
f ul
Ġ entry
key Code
Ġd ir
IN D
Ġ here
Ġw rapper
es cape
Ġe s
Ġn um
A GE
16 0
ĠA u
å į
dire ct
Ġfile s
S ign
pop up
re ject
_ =
LEV BQU
C ancel
Ġpre v
abs olute
G ener
04 3
Loc al
w ner
Up per
ad min
pp ing
in cludes
:{ },
Ġin stead
Ġp op
Ġmo use
Ren derer
tr l
Col lection
I M
Z SB
0000 00
27 5
ge st
le ave
fla gs
b d
vi ty
Ġg oo
Ġo p
Ø ¹
æ Ī
In teger
11 1
is Function
Lo cale
pack age
(" /
',[' ../
Ġspec ific
ren derer
wr itable
R T
la ck
ay load
m u
P lace
ro le
Re turn
ter m
Ġm erge
image s
M j
D uration
ch annel
Z n
Ġpre vious
map ped
p ow
t ure
f etch
Ġ" "
Re cord
li des
Ċĉĉĉĉĉĉ ĉĉĉĉ
E T
a ke
18 0
b c
; ;
pac ing
Can vas
g on
De lete
n t
Ġ$ ("#
ro ute
ro me
ĊĠĠĠĠĠĠĠĠĠĠĠĠĠĠĠĠ ĠĠĠĠĠĠĠĠĠ
me tadata
# !/
K C
e val
Ġo b
Ġpar ameter
ĠF or
script or
EN D
d at
al ah
} :
Bu ilder
un it
{ {
Point s
file s
an ya
É µ
th at
S a
"," #
IC A
getElement sBy
", !
E AA
vi ron
Ġex cept
tifi cation
AB LE
dire ctive
Ġin fo
low er
enc ies
L n
i ted
umer ic
f er
} )(
or ted
Ġ2 2
ĠC omponent
R ule
so me
I A
P lay
V k
ma th
Ġlo cation
OD O
ser ved
'] ]],
lo ts
Ġd om
Ġ 60
node s
c imal
] ],[[
o bser
G raph
de ep
Arg ument
refe rence
AT ION
Class Name
R adius
K G
u tion
text area
ĠU se
B h
\", \"
al ert
ren cy
*** !
Ġ St
s ync
In it
Re gExp
pro duct
Ġ2 5
L a
Ġ/ ^
pro xy
Re gex
ent ries
Ġnode s
UT C
H ost
std lib
as ure
Ġ ĉ
sl int
N O
mul ti
j query
10 1
N um
Ġh ash
S P
r ary
x e
ex pected
5 12
Ġprom ise
sa fe
Ġcon tinue
(" <
Ġ vec
c p
00 3
d ark
nb sp
Z V
ta x
sl ider
å Ń
je ction
W h
Ġa p
Z oom
ĠI D
bo ol
interop Require
document Element
r ules
å Ľ
u int
Ġsc ript
] &&(
)} );
M y
æķ °
Id s
/ {
I Z
11 6
] ="
fin ish
10 5
IG N
C AA
Ġexp ress
Ġn ow
0000 0
vo ke
B rowser
I i
(" +
Desc ri
Ġg o
d l
(/ ^
M et
Ġb ah
Ġd alam
and ard
or igin
={ {
Q s
pre sent
ro id
("_ "),
pend encies
p oly
tic s
a o
g ing
extend s
ĠA pp
Ġf etch
11 9
du ction
Ð ²
sm all
12 3
" ];
/ _
ĠE x
Ġ headers
Ġa kan
10 9
Ġc enter
Ġf ull
Attribute s
Ġ" .
Ġan imation
he el
Ġf lex
R p
b f
tool s
= ["
19 2
F ragment
E F
remove Child
10 8
con tinue
r an
bl ur
j q
Ġ` ${
," __
sub scribe
Ġbe cause
get Time
Ġd on
ĊĊ Ċ
)) ),
Ġ( "
a wait
memo ized
ĠA NY
Ġcl one
lo ud
Ġ! !
ab ase
redu ce
c u
Ġ json
D oc
di a
ab i
de vice
ch unk
g ame
Ġma in
As ync
match es
Ġ" ";
on ce
V ector
Ġc ell
C l
ini te
olu me
: $
c lip
} };
ĠF unction
Ġto tal
en ded
é Ģ
i ration
remove EventListener
Fe ature
Ch art
I L
A H
resource s
=/ ^
- "+
Ac cess
rad io
S chema
Comp lete
he ther
ati o
de v
ĠHT ML
M O
11 5
z d
il i
S o
=" ",
Ġ2 6
Ġdis patch
Ġ defined
AT A
z i
D i
} </
fa de
á »
Ġa pi
s q
' ];
Ġre place
Ġf ollow
Ġ RE
X B
ç »
= $
par ator
': '
ic al
ver s
ifi ers
Ġcreate d
Ġt mp
fa il
parse Float
nap shot
Ġc ss
Ġinvo ked
Ġs k
Ġe slint
user name
:" \
ĠU int
P r
. ");
i A
mark er
59 0
Z l
b it
qu ence
10 4
an ded
cl ar
? :
E mit
G lobal
ansp ort
W idget
Sc reen
% ;
Ġac cess
Ġcom mand
Con st
d ent
Ġ En
R atio
in ject
ĠO p
================ ================
Ġt ree
H igh
ĠM MMM
cal endar
Ġs ort
10 2
ff f
Ġa ct
] ){
Ġbo x
f V
c ry
tag Name
ĠT H
Ġal ign
Ġstyle s
c ircle
r gb
00 2
Ġe qual
+ ")
error s
d r
è ¡
k er
M app
mo z
M u
as sets
Head ers
N C
I mp
Ste p
è ®
Ar row
` ;
Ġse b
we ight
bl ue
. ',
jp g
F ixed
owner Document
) >
)? (
Ġs a
L ight
âĢ ĵ
## ##
asc ript
Ġwe ek
g ative
R pb
R v
Ġtype s
11 7
L im
Com ment
Ġ' -
av ascript
O ne
E xport
V ud
x x
red ential
' },
add Range
Ġw here
re cord
t mp
á Ģ
P l
ce d
Un it
L CB
ak an
. </
Ġst ep
r gba
O zs
} ));
Ġf s
t BQU
Ġ queue
Tag Name
m ar
re spon
Field s
re gex
S H
In itial
S l
++ ,
() (
h istory
W N
b ul
Par ameters
ann ot
Dis abled
P attern
` );
F C
LE l
Ġ2 7
Y g
NB Q
te ct
J o
column s
Ġf ire
Ġ2 55
mo ment
ub lish
en si
Ġ vi
name s
interopRequire Default
ti t
ĠA ll
et work
h h
Ġw r
w s
z z
mi tive
W rap
l ines
re st
F L
Ġse cond
adi ent
str ong
f l
å ¼
ge d
/ ^
log in
cul ate
page s
ï¿½ï¿½ï¿½ï¿½ ï¿½ï¿½ï¿½ï¿½
j ax
at an
} ",
s in
[ ]
S lide
high light
Column s
or th
S uccess
ARR AN
field s
st ar
icon s
U G
å¸ Ĥ
ĠA PI
!== (
A p
D im
Ge ometry
Ġser vice
ff ix
xu ICB
)} (
ĠW ARRAN
w d
ĠM ap
C ss
P SB
at ar
ERR OR
Ġw rite
AU LT
oc used
o e
Ch annel
la sh
66 66
A RE
yn tax
er a
2 24
by te
IN E
Ang le
S top
rot ate
y m
ĠM od
Ġde scribe
ri ting
co s
Med ia
":{ },"
ca p
q q
us tify
14 4
over lay
$/ ,
' .
å ľ
IG HT
child Nodes
; }
Ġs ave
imp le
Row s
)} )),
Ġp r
ĠC ol
i me
æ ł
m ory
lap sed
Ġ4 2
ss ible
TI ES
/ :
par t
ill ise
se e
ĠW IT
A SS
m ix
+ /
e f
Bound ing
Dire ction
ac count
(' ../
A V
t abs
r u
Ġerror s
Ġname s
FF FF
Ġre cord
Upper Case
xu ICAgICAgICAgICAg
XC J
Ġ2 3
Vi de
al s
N ative
on Change
t uk
AAAAAAAA AAAAAAAA
re verse
Ġpre fix
Ġ attr
à ´
V j
Ġa vailable
ar a
10 3
viron ment
IT Y
ĠĠĠĠĠĠĠĠ ĠĠ
Ġse e
6 55
Ġdis abled
Ġh elper
ouse l
ack age
13 0
15 0
V ENT
Ã Ń
Ġ} ));
Ġbah wa
SE T
Ar r
ĠN o
prec ated
Par am
âĶ Ģ
U U
S ystem
po se
id x
S D
vari ant
Met adata
Ġh igh
S UFB
s lot
con troller
W r
do main
ol ver
lo y
à ½
ĠT ODO
i que
Pro cess
Ġplace holder
Ġ attributes
ĠVer sion
B a
Au th
", ["
u mp
Ġ ÙĪ
Ġfa il
c um
tin ation
I t
r ule
al pha
text Content
il er
Tim er
ap at
) <
P URE
Id entifier
Ġd rag
Ġt wo
F u
Ġed itor
X ML
d x
U int
f ragment
si bl
Ð ¼
sk ip
Ñ Į
Ġch art
ĠĠĠĠĠĠĠĠĠĠĠĠĠĠĠĠ ĠĠĠĠĠĠĠĠĠĠĠ
ig ation
d s
|| [
12 2
is P
10 6
\\ .
H Q
Ġpas sed
In ternal
:" â
] ",
Ġ' ../../
to UpperCase
Ġs oftware
Ċĉ ĠĠĠĠ
Ġpar ameters
V ar
g h
Mapp ing
Pi cker
de code
C D
Ġm enu
J BQ
à¯ į
] -
Ġ' ,
Ġf il
is sing
L en
ach ed
) ',
c M
or ies
Re size
la gs
au dio
, $
.$ $
QU E
Û Į
Ġh ost
gre ed
lo dash
Vide o
foo ter
Ġj ust
Ñ ĭ
Ġu tils
ca st
P oly
t l
x hr
ĊĠĠĠĠ ĊĠĠĠ
v Z
Po inter
Ġ> >>
Ġ Ùħ
D raw
Ġ Event
Ġ Ċ
Ġ ignore
Mo unt
s n
late d
if rame
Ð ´
lic it
Ġun tuk
mat rix
ne cted
Ġthe y
\": \"
IH tcbiAg
E LE
y at
co ver
T P
Ġf rame
/ .
En try
ĠLicense d
comp are
Ġ{ @
W arn
() }}
Âł Âł
2 64
ub e
Ġexp and
set up
11 8
Ġen umerable
l ar
=" #
ĠĠĠĠĠĠĠĠĠĠĠĠĠĠĠĠ Ġ
J QUF
Cur sor
no tation
ĊĠĠĠĠĠĠĠĠ ĠĠ
M z
Ġch unk
querySelector All
Me ta
AC E
Ġf ocus
translate d
R Sx
Ġapp ly
pro file
B order
le h
Ġtr ack
v ance
Ġg over
}, _
// \
Tag s
M C
Ġ ***!
Ġ! ***
Ġde sc
Ġk am
k o
d ot
Ġp attern
di ces
Ġ ve
t b
place ment
à º
iration Time
å °
Ġy ear
Ġ2 8
12 4
Ġ4 5
ut ation
IG Z
__ */
Ġ< <
Ġx ml
Ġ' ')
u x
Ġ} }
"," \
Ġsele ction
un iform
pay load
Ġthe m
it al
Li ke
ic ro
is Valid
Ġm y
H ook
V e
oo se
14 7
F O
ac y
l z
Ġc y
i ma
Ġ YYYY
Y n
gener ate
S ide
ĠCreate s
" ],[
D F
ang er
X X
Ġtr ansition
Ġde scriptor
The me
à ¨
mul tiple
Tool tip
XHR cdFx
Ġb ar
Ġb it
Ġst op
Ġ4 3
Ġcan vas
YX J
Ġ js
H H
Ġre lative
| =
# __
tic le
File s
Ġt ask
col lapse
ul er
pe ar
Ġfunction s
]) :
F OR
ref s
L ICENSE
P e
Ġ' "
license s
m en
Id x
Ġre ference
çĶ ¨
Re gis
Ġcor rect
velo per
fin ally
cbl x
12 9
-------------------------------- --------------------------------
F QUFF
H B
K SB
Ġass ign
Ġb ind
ĠWARRAN TIES
Ġcon tain
xu XG
Ġun translated
o red
ut ure
L icense
ter min
âĢ ĭ
ot al
Ġe mail
] ={
Con nection
PAR AM
oo ter
que s
P ol
Ġoper ator
AR T
get Value
-- )
W F
Ġthe me
P ixel
C enter
re gis
Sub mit
Ġ- =
U se
Ġn one
al a
Ðµ Ð½
O p
Or igin
Ġ1 000
:" [
Ġw ant
is F
Ġd b
Q Q
clear Timeout
ab ility
Ġme mber
Co un
Ġ{ !
X Y
Ġob tain
Ġs m
ĠL o
ti le
v node
Ġvalid ate
( \"
lo ok
W ill
Ġde bug
A J
t body
Up load
Ht tp
ĠI t
Read y
Ø§ ÙĦ
bs olute
` `
d p
normal ize
x E
Lim it
") ||
N aN
Ġal so
Ġs ingle
N ya
re peat
G L
P ort
":[ {"
ĠBu ffer
Ġte lah
Ã ¤
S pan
lo op
ren ces
c li
on Click
u me
( ['
a pache
ĊĠĠĠĠĠĠĠĠĠĠĠĠĠĠĠĠĠĠĠĠĠĠĠĠĠĠĠĠĠĠĠĠ ĠĠĠĠĠĠĠĠĠĠĠ
B R
Ġdoes n
insert Before
Descri ption
Ġle vel
F ill
R outer
r up
de legate
Ġp ayload
Ġd own
Ñ ĩ
De vice
EN V
oper ator
) ({
Ġg l
Lo aded
Ġ' _
an e
à °
, ["
] ===
Ser ies
co der
._ .
a ma
LE d
k nown
=== (
de pth
) ],
Mark er
ch ain
de lta
p O
Ġs pace
b lob
Pop up
B inding
? |
Ġpoint s
Ġd if
al let
Ġon Click
serial ize
ti mer
âĶĢ âĶĢ
HO UT
ĠD is
D b
å ·
i od
3 20
Ġpro ject
ge o
ali as
Ġ **
Ġme ta
K Tt
sw i
Ġcon trol
ver tex
\" \
tr ation
an a
CO MP
O K
Ċĉ ĠĠ
Qk FB
M aterial
Ġac count
Ac count
IC omponent
13 5
d y
a z
LEl BQU
ch o
close st
s ame
stop Propagation
Ġin valid
ĠT HE
dic ator
37 5
PO ST
Ġre set
Ġfield s
e ded
2 20
ĉĉĉĉ ĉĉĉĉ
key down
s ap
D id
Ġ raw
) :"
De stroy
w in
append To
F S
)} )},
T ile
ĠC omp
lib rary
S ave
Z C
Ġ3 6
A W
O i
Ġact ual
> ',
Ġper missions
De lay
) "
j avascript
re al
bl ank
ĠWIT HOUT
Ġ ","
v id
con trols
ĠP ar
g able
å º
Iter ator
Bound s
Ġ Node
un shift
B tn
// #
Dis patch
Ġin formation
S VG
Z one
ren a
v ing
h orizontal
de tail
Ġlist ener
Ġd at
en um
is Empty
di m
al k
ic ode
comp uted
Ġtr igger
C lear
color s
havi or
equal s
state Node
Ġ$ ('.
it ter
Ġd raw
y l
12 1
)} }}
H l
G r
UR IComponent
s on
Ġc ore
act ers
Ġw riting
Ġd rop
q M
ĠK IND
Ã ³
ST R
A e
un ce
ook ie
T otal
n on
navig ator
B U
ON E
Ġim g
Ċĉ Ċĉ
=" '+
IH Ro
r s
ce il
é ĩ
ĠWe b
l b
Ġsup ported
st orage
00 1
b in
Ġ" -
") ?
dX J
Ġb oolean
() &&
Ġb l
34 5
Ġax is
spec ial
ax ios
scroll Left
Ġcon vert
P adding
ct ure
tr ies
A IN
Ġb tn
no tify
rt l
tag s
(" ../
; "
Ù ī
Ġres ource
U B
}}, "
ca pt
12 6
Y S
U i
Ġc lasses
lic able
. *
F r
olu tion
M a
SS x
Ġf loat
Ġad ded
QU N
L X
ĠTH REE
N ull
Ġd uration
To ggle
co ok
ĠU ser
Ġto uch
g ments
pop per
Client Rect
per cent
15 6
By tes
f ree
Ġlo cale
inter val
get PrototypeOf
u ff
Fn s
Ġ( '
S w
! (
36 0
ĠU p
l int
y t
Out put
ir s
up lic
redential s
Ġ3 1
AN D
18 4
13 6
_ ,
I AA
ind ent
]) );
l m
Ġs ure
ge xp
å ¯
") &&
B C
? \
16 7
Ġs end
leg end
li ance
and s
e red
ers on
In ner
)} },{
Ġst roke
last Index
":" ","
c lean
mo bile
h Y
Ġ} ],
E lem
33 3
Ġb etween
B AA
se ud
: .
0 275
qu are
c ut
de clare
e mp
20 17
re gion
Ġo pacity
Mul ti
f lat
initial ize
ra in
30 4
Sh adow
ĠO n
P ER
is Required
Back ground
; -
ä¸ Ģ
] \
lu g
create d
/ #
acti vate
bo otstrap
is Object
ĠT est
Ġm atrix
99 9
Ġre ct
D ITION
å ±
De tails
bind ing
Ġ> >
change d
Do main
c g
al ance
F z
I P
e v
& #
al y
Ġex ample
ic y
Ġen code
Ro le
je cted
z ip
"] },
C opy
prop Types
default Value
Ġgoo g
- (
Ġ' </
X HJ
],[ '
Ġmul tiple
F t
+ -
Ed ge
next Sibling
re g
con vert
out line
13 9
Full Year
e ase
Ġimplement ation
d m
19 0
14 0
ZX R
h s
Ġfollow ing
mul tip
? ?
w hich
ul p
C annot
? [
n i
' ]);
ti ces
æ ī
C TION
Ġpass word
å ĩ
Ġ3 3
}} );
el lo
C trl
M ask
ne ed
c z
man ager
Ġapp licable
list en
13 4
Se ssion
Ġtime out
Ġremove d
ang an
t f
AC T
method s
am era
gener ator
O pt
Ġ ].
p ad
Ñģ ÑĤ
A ctions
Ġreturn ed
> ",
d iff
chart s
c id
L anguage
Ġ 80
Ġ ata
13 7
set PrototypeOf
(? :[
pa use
38 4
Ġb ottom
o sition
19 9
Ġro le
Ġde clare
pro duction
p bm
Ġse ssion
Un defined
() +
G G
Trans action
proto col
de tails
) ===
uni que
In st
2 000
resh old
Ġp ort
Me mber
pa re
15 8
x a
g y
ab ort
FB R
par ser
We ight
par ameters
Ġimp lied
. ');
Ġfa ctory
user Agent
Ġ layer
dir name
c ross
D el
is sue
res ent
Bl ur
M AT
26 2
Ġadd ress
con tain
Ġw hether
ĀĀĀĀĀĀĀĀĀĀĀĀĀĀĀĀ ĀĀĀĀĀĀĀĀĀĀĀĀĀĀĀĀ
S heet
Ġ/* #__
":" \
ä ¹
ĠM IT
mo ck
i as
å Ĩ
ateg y
al f
Ġvari able
=" ";
pend ency
") +"
getElementsBy TagName
Ċĉĉ Ċĉ
Ġ" _
vis ibility
on y
Ċ ĊĊĠĠĠ
' ].
L ines
q t
Ġex tra
const ant
R i
vari able
sibl ing
à ²
ct rl
st ed
pa gin
Ġcomp liance
s heet
Ab stract
el ls
' re
p to
:" /
xy XG
I R
ex tra
di tions
8 00
Ġcom ment
Ġcon tains
Ġ' %
w p
Ð ¿
ur al
15 9
Ġo ff
s peed
4 04
Ch unk
([ ^
BQ V
Ġin clude
con nection
so cket
dd dd
+' "
Inter face
Ġv node
O pacity
Ġ' $
2 30
Ġg rid
k h
ĊĊ ĊĊ
ZG V
TO OL
get Item
- \\
JQUF J
16 8
ho me
13 1
Ġcomponent s
Ġp ublic
exp r
Ġ2 9
warn ing
an ti
strict Equal
Ġin ternal
= +
ĠT ext
13 8
Ġla w
en ar
)) ?
ĠC om
"," ./
form ance
pre view
S up
s oft
DITION S
ce i
Ġ3 4
******************************** ****************
:[ [
B g
Co re
Ġen coding
Ver tex
ed itable
Ex ception
//////////////// ////////////////
Ġo wn
w heel
6 00
15 2
o i
) ]
Ġin her
}} },
ĠB AS
ag in
p lot
H QUF
Change s
Ġs ince
P layer
ì Ŀ
Ġp h
Ġp art
Ċĉĉĉĉĉĉ ĉĉĉ
Error s
' ],['
)) :(
text ure
32 32
h our
F s
Ġother wise
Ġ ×
U L
Ġs chema
)} }),
memoized State
M AX
Emit ter
par ts
Ġgover ning
ĠCON DITIONS
Component s
in al
t xt
de g
und le
ZW N
Ġlimit ations
cur r
Ġlo ok
Ġ loading
TH REE
dist ance
Ġmo ment
ĠBAS IS
2 18
button s
g ate
s lides
Ġc a
option al
L ib
uc er
R ules
m iddle
15 7
ID E
~ ~
s pe
Ø ©
lay ers
p ing
re pos
as m
wi ki
Ġ3 5
h en
Ġdire ction
g ICAgICAgICAgICAg
20 20
Re ference
clar ation
ĠS T
H as
ĠUn less
Comp uted
24 0
++ ]=
r ate
Ġ[ [
Ġby te
æĺ ¯
p latform
comp ute
24 8
Ġcomp ar
Ġ he
page Y
An im
Ġ" '
AL L
ti li
Pass word
Ġa greed
Obser vable
te cted
() ){
u an
13 2
Ġ(! (
Argument s
D istance
"]) (
y si
}} }
å ½
x c
n var
H ide
P P
Ġs ha
Ġpar sed
ĠF orm
)&& !
H istory
Ġh ide
14 5
Ġmatch es
14 8
al tern
Ġpe g
ĠC SS
ĠRe move
Result s
") [
b t
Ġ}, \
S W
ä ¼
lu Z
ç ½
XC I
dGl vb
ac cept
F k
To String
scroll bar
W rite
In Progress
Ġw hite
Ġser ies
D ATA
sq rt
b ra
Ġo ur
ir ror
Ġ 67
un der
"), "
M B
e asing
Ġext end
li ve
illise conds
Drop down
æ Ŀ
Q t
s With
à¸ ²
G o
de scribe
Î ±
b ad
Ġco un
s en
Ġ*/ \
Ġp layer
)}, _
E mail
st at
) ==
bo ve
Ġon ce
C e
ffff ffff
ĠH H
id s
z a
page X
ex it
Ġth rough
Ġcomp lete
( ","
Ġde vice
g ICAgICAg
Obser ver
å ¹
Ġs olid
IZ E
cbiAg ICB
se l
Ġinvo ke
Pro xy
> "
ti ce
){ (
Ġex isting
Over lay
Ġ layout
(" [
c er
sing le
Ġ' ');
Ġr gba
Ġs um
Ġ); \
eng ine
) ]),
in voke
nav bar
Cap ture
= \'
B Y
Ġconfig uration
capt ure
Ġro ute
oo gle
Ġka rena
Ġa yat
Ġ' )
ser ve
] ||(
d n
Ġright s
content s
un ted
qu ot
mouse down
Ġ ë
Ġre gex
ä¸ Ń
" /
17 6
19 4
Ġcon nection
Animation Frame
H over
Ġde tails
li ke
ateg ories
Ġvis ible
Ġtrans late
ĊĠĠĠĠĠĠĠĠ ĊĠĠĠĠĠĠĠ
la tions
ĠB oolean
Label s
ke t
Ġ3 9
]) },
zt BQU
â ķ
fr ont
Ġbe ing
18 5
message s
aa aa
! *\
Ġin ner
Par ameter
') ).
An chor
value Of
ti vity
__ =
ab c
v Y
E A
iter al
ZX h
à ¶
label s
ho to
D ash
Def inition
X F
Ġto ggle
Ġo wner
20 6
B ind
ĠIn c
token s
doc Class
Ġg ame
37 4
Ġbase d
Date Time
20 15
/ @
"," $
Ġp i
St ar
TI P
YW x
No te
s r
get Bounding
Im mediate
global s
Ġag ain
Ġsc reen
> ';
con firm
? -
o th
Ġchange d
internal s
14 3
Se ction
Ġst ar
Ġ{ ...
H g
inher it
background Color
Ġ5 12
13 3
list eners
hi p
Ġchange s
comp ile
Ġgener ate
Ġspec ial
14 9
Ġg r
Ġwith in
Pro duct
j t
20 8
Module s
C la
V ue
Ġcur sor
ra m
mo ji
ä» ¶
2 28
16 3
cm d
ti o
no te
-- -
In sert
\", \
Fi ber
Le ave
32 7
Ġpar am
il la
Ġe ffect
inher its
=" +
Ġ! (
st or
e vt
Ġlo aded
Ġdire ctory
T er
../../ ../
call y
ro utes
Ð° Ð½
ĠS h
P RE
ç Ľ
> .
Ġ Ã
cbiAg ICAgICAg
path name
=\" #!/
f g
Ġo bser
fin ity
Ġg raph
re port
iter atee
Ġd iff
Re ader
st able
ĠC K
LI ST
Default s
k ge
Ġh idden
bn R
ĊĠĠĠĠĠĠĠĠ ĠĠĠĠĠĠ
Ċ Ċĉĉĉĉĉ
2 34
Ġrow s
ro om
ceive d
ĊĠĠĠĠĠĠĠĠĠĠĠĠĠĠĠĠ ĠĠĠĠĠĠĠĠĠĠĠĠĠ
ro tation
J t
á º
de tach
g reen
re lease
Ġs ide
ca ption
IN T
P C
Ġat tach
m V
Ġstatic Class
E L
ifi cation
S el
00000000 00000000
é ¡
Ġ} ]
Ġl ang
Z h
" \
Ġby tes
un used
in teger
Sh ader
à ·
\\ \"
è ¾
Ġchar acter
By te
Ġp arts
b ot
it ude
UR I
]= !
b re
Ġj o
Ġon Change
list ener
Ġac cept
Oper ation
. "
æľ Ī
Ġcan not
(' [
U t
u ate
h ave
_ \
ched uler
Dire ctive
ph one
or ph
B r
M I
Const ants
Ġoption al
al led
Ġname space
Ġnormal ize
sum mary
ub ble
Ġcomp are
A v
15 4
] },{
Ġg u
or ient
Al pha
25 4
() ?
29 6
q r
LEVBQU Us
Z U
AA U
" };
view port
Ġmen j
ĠM o
1212 1212
RUFB RSx
cur ity
c N
Off ense
cre ment
=" /
(?: \
LElBQU ks
14 2
": -
cum ul
Ġ" __
ma ps
exp anded
16 5
fa ctory
main ing
co ordinates
S ha
ir d
di an
Ġupdate d
H idden
O C
17 9
Ġseb ag
Ġ video
"," ","
SUFB SSx
Ġ' +
J v
State ment
LE D
filter s
Y ou
on s
P H
16 9
Str ict
Q yx
Ġm x
Ġ// /
14 6
3 64
co me
IH N
17 0
re store
B inary
key word
20 5
S ER
Object s
Ġdefault s
getOwnProperty Descriptor
Check ed
B D
fil ename
g end
Ġch annel
ur ing
ĠRe f
ĠData Table
exec ute
g c
' <
Ġe mit
remove Attribute
ed ge
s core
l k
E X
17 7
Pre vent
M argin
ai k
-- ;
Ġp ush
fe rent
mode ls
d mF
20 4
R C
é Ļ
); }
)) &&
N g
2 35
z A
ĠØ ¨
Ex ec
Ġ17 590
tr ie
Ġex ists
res sed
Ġ3 8
ĠL ist
font Size
Ġlo op
oc i
R y
Ġthe ir
ĠU sed
P ress
s pect
sha red
N on
(){ },
Ġ3 7
Ġta ke
Ġ Ñģ
at u
fe ature
Ġme mb
offset Width
Run time
)} ))}
Ġcom mon
G ame
Î µ
Ġen abled
H ex
) =>{
Q L
Q o
VAL UE
Ġ` ``
Pro ject
Ä ±
Ġau th
N r
S napshot
Ġau thor
ad o
.... ....
ä ¿
Ġc ancel
A O
is S
. "+
Ġcolumn s
l n
ordin ate
CO L
Com mon
20 7
? {
> ,
ul a
Ġs in
ĠE xp
Del ta
16 6
Î ¿
side bar
re po
Ġ Ā
DEF AULT
iz es
Char Code
LENBQU M
D C
Render Fns
gu id
Sta tic
20 2
Ġin sert
ma ster
multip ly
), {
clu ded
d anger
9 00
K F
pp le
} "
qu ote
Au dio
P AT
20 1
x f
la zy
æ Ń
* =
[ (
N U
cook ie
ĠAu thor
Export s
w c
Ġcomp uted
p in
directive s
Ø Ń
; (
2 27
16 4
Ġpo inter
En tity
A mount
Ċ ĊĠĠĠĠĠĠĠĠĠĠĠĠĠĠĠĠĠĠĠĠĠĠĠ
M on
"] );
Ġad ditional
æ į
term ine
Ġo c
frame s
if est
Pro pTypes
[ $
De pth
Ġx hr
N y
Ġ{ });
Ġbu f
l in
B J
il t
17 8
si tive
es h
Ġtoken s
Ġsk ip
` )
; </
ĠA t
Ġde lay
> }
hp cy
Ġe very
66 7
æ ŀ
||{ },
b ed
k b
Ã ¼
18 8
ĠĠĠĠĠĠĠĠĠĠĠĠĠĠĠĠ ĠĠĠĠĠĠĠĠĠĠĠĠĠĠĠ
ĊĠĠĠĠĠĠĠĠĠĠĠĠĠĠĠĠ ĠĠĠĠ
ve s
int s
Ġl ong
Ġm d
F j
get Data
car ousel
or ting
Ġ" ../
mp t
= _.
M erge
M ain
Ġcon nect
re l
Ġ. ./
**************************************************************** ****************************************************************
ĠD o
T W
. ";
Ġab out
Name space
2 32
Ġ JS
ch a
Ġarray s
Gener ator
getBounding ClientRect
line ar
n c
Tr igger
ava Script
Ġp lay
De bug
Ġkam u
() [
Ġpar ser
2 39
k k
F A
4 29
ĠL e
Ġin t
Ġa mount
2 26
De ep
Pro file
; &
J i
20 9
2 38
() )},
es lint
ĠG ener
', \
Ġs pan
() }),
!= (
I o
U V
H orizontal
ec ma
U u
R ate
move To
Ġc ached
AN S
Ġs hape
Ġ ge
av ing
ĠE xt
Ġme dia
h ooks
pri ce
P UT
:/ \
l c
ST ATE
ĠÐ ¿
tr i
Ġ" @
æ Ķ
K H
r r
d Array
Ġd im
Ġch ain
group s
re siz
am i
p ixel
Ċĉ ĠĠĠĠĠĠĠĠĠ
28 8
Ġ" )
} ))}
ri c
ĠV ue
N h
id entity
N G
pagin ation
time s
T ri
o id
ng ine
Ġoper ation
2 33
CH AN
Po ol
Ġ- >
[ ]+
ck e
input s
Ġin side
Ġd id
19 6
AB Q
æ ²
æ ³
cf g
") &&(
b ab
N i
p ull
Ġpre vent
a mount
) $/
Ġ 97
15 5
Ġre gister
. '
Z p
z Index
u th
Ġb a
E g
wh en
offset Height
Q n
() -
Ġal ways
Ġr s
z h
Ñ ĸ
F amily
Ġa bove
\\ \\
data set
form s
Ġw idget
Cl one
:" +
&& ("
20 3
' ])
H andlers
Ø ¬
=! !
17 5
us ia
on Mouse
Exp r
dis pose
no op
ĠS upport
)) &&(
" [
de mo
] ];
17 4
ar m
37 3
Ġb inding
Ex pected
Ġal ert
K S
20 16
× Ļ
Ġde st
sc ene
ĠC artesian
__ );
ĠT ime
Ċĉ ĠĠĠĠĠĠĠĠĠĠĠĠĠĠĠ
con tact
D iff
ro l
Ġchar acters
19 8
coun try
2 25
à §
Ġdire ct
g ICAgICAgICAg
second ary
ĠA c
19 1
Ċ ĊĊĠ
S O
Ġ4 1
ĠE XP
d H
High light
FL AG
æ İ
t u
Ġun it
LEd BQU
b lack
TOOL TIP
() ||
ix in
18 9
ut ter
ĠI s
]) [
ann ya
Ġro uter
Ġm er
M AP
scope d
14 1
} ))
net work
S peed
icro soft
ame l
Re gion
Callback s
M IN
Ġa void
(_ .
'],[' ../
ri ver
V node
o v
h ook
C b
Ġfor ce
g ray
A h
Ġf ree
ĊĠĠĠĠĠĠĠĠĠĠĠĠĠĠĠĠĠĠĠĠĠĠĠĠĠĠĠĠĠĠĠĠ ĠĠĠĠĠĠĠĠĠĠĠĠĠĠĠĠĠĠĠĠĠĠĠĠĠĠĠĠĠĠĠĠ
let te
/ ${
1 000
loc ity
Ø ´
Fa ctor
ch at
ir c
( ":
d k
g p
Se gment
s Q
u A
re ply
C ategory
Ġfa iled
Ġde s
ĠN abi
") ){
I y
Ġre served
Ġ à¤
é Ĺ
head ing
er ies
P t
pol ate
ma W
30 8
si mp
Ġp ada
lain Object
Cal led
S rc
W ord
Ġal t
Mo ck
const ants
Ġp an
2 36
v ation
f amily
dir ty
F ound
W orld
c cl
for ward
l ision
op s
R aw
Ġparse Float
Ġtag s
B reak
Ġid x
E VENT
ext ernal
un ded
ĠĠĠĠĠĠĠĠ ĠĠĠĠĠĠ
language s
by tes
å ¾
fo x
Ġar ia
24 5
Ġ1 28
Valid ation
ä¸ į
W hite
ans w
h dG
f y
Ġw ait
pi ck
ta p
A i
li ps
:" \\
velo p
( ...
.$ .
S vg
pri te
L QUF
Def erred
log ger
)/ ,
b ut
on es
D t
So cket
() };
Ġu til
ä¸ ª
g ui
******** ****
F AI
ser ted
Ġd apat
Z T
Ġor igin
Ġtool tip
A q
Ġde lta
Ġapp lication
s ystem
S Y
ç §
qu o
ç ī
2 29
Ġpro duct
ELE MENT
e mbed
Ġp oly
n el
bound s
18 7
par tial
de st
aG l
current Target
D ATE
l ng
M ar
lan e
+" -
Ġe val
pop over
g IH
ma c
Z v
I j
Ġad a
ak a
") ).
component Will
cal c
Su per
Fa il
as a
ĠĠĠĠĠĠĠĠĠĠĠĠĠĠĠĠ ĠĠĠĠĠ
Ġbo ol
C F
end or
Ġc lean
cm F
w B
Ġh ooks
Ġ ÙĦ
ca ched
Q i
Ext ension
Pri ce
on ed
s pacing
S m
4 48
an ner
ĠN ote
^^ ^^
$ ("#
Ġdif ferent
L l
ĠL ICENSE
Y y
Warn ing
X V
h y
h andlers
n arrow
Color s
Im g
r d
06 2
,- .
fin al
K i
([ \
ver ted
dd d
cal culate
com mit
ĊĊĉ Ġ
ma ti
Ġ{ {
ag raph
3 50
ĠF ire
Ġw ord
n n
QU FB
Prevent ed
j u
de p
22 2
Q W
Ġman usia
n ed
ad io
_ "+
U D
User s
è §
ARR AY
S IZE
ĊĠĠĠĠĠĠĠĠĠĠĠĠĠĠĠĠĠĠĠĠĠĠĠĠĠĠĠĠĠĠĠĠ ĠĠĠĠĠĠĠĠĠĠĠĠĠĠĠ
che me
à¤ ¾
[" \
ish ed
ut or
è ĩ
] ',
en coding
Ġne eded
e X
h ot
") +
YX Rl
' }
} ();
Ġp ixel
Ġme tadata
Ġd ialog
var s
Ġmen y
â µ
6 27
altern ate
AA Q
c x
Ġan im
Se conds
Lay ers
M t
Mapping URL
yx DQUFD
H ave
Ġf i
valid ator
Ġa ctions
H ours
] }}
ĠW hen
ats by
Ass ign
g or
Vari able
member of
ĠB ase
Ġtrans action
ces sed
24 6
navig ation
Ġse l
Ġus ers
æĸ ĩ
" });
Ġre g
30 6
decor ate
ar ies
Ġti ck
ar an
pro vider
n function
ĠUp date
Ġis Array
re direct
Ġh ook
A Ag
Ġt s
ĠA d
Lo gin
æ Ģ
à¤ °
Ġf lag
Ġ\ '
7 00
ready State
Fa iled
n pm
S witch
18 6
c ision
he s
ĠCK EDITOR
Ġnav ig
lu ster
s y
D at
Ġb ag
} ):
Ġsh ort
25 2
Lo ck
æ ĭ
Ġdire ctive
h n
cbiAg ICAgICAgICAgICAg
D T
b old
Ġset up
15 3
k r
Ġsource MappingURL
S um
Ġde stroy
from CharCode
Ġg en
å Ģ
ĠTr ans
Ġw ay
à¸² à¸
Ġd istance
do jo
Ġcheck ed
S end
close d
Ġ ĊĠĠĠĠĠĠĠ
Ġr ule
Ġmo ck
h d
29 1
P ay
f un
P R
N A
Ġp ackage
uplic ate
set Value
F ooter
is m
und o
um bn
Ġ lower
ĠB lock
dG F
Ð¾Ð ²
EC T
Group s
parent s
Ġre gis
c ting
cal ar
Ġl ines
-- ;)
C artesian
Tool bar
un bind
Ġex ist
C AC
} (),
s chedule
MM MM
:" _
âĢ Ļ
20 18
lo ating
30 7
Ġlist eners
ques tion
: ",
"> \
C or
æ ±
Ġh ow
) ];
Ġpro gress
b k
ase s
per i
Z t
Ġin teger
umbn ail
G AA
å ī
K V
Ġthe se
LO AD
Ġlog ger
Ġset ting
down load
ĠU I
U o
2 37
Ġm aterial
f ab
M esh
Fa ce
Ġpath s
remove Attr
Ġen able
h at
Ġ modules
FB S
Ġ9 6
P art
s ample
20 19
Opt s
to Fixed
effect Tag
ä¸ Ĭ
T y
L at
Ġ2 56
Er r
ath er
I X
de l
Ġme mp
ent s
Ġfin al
Ø§ ÙĨ
line To
D ER
fla g
Content s
F o
cur rency
pre pend
=== !
on load
li ze
trans parent
Ġ$ $
æĹ ¶
fo und
ta ke
"] },"
time stamp
load ers
zi er
2 16
Ġ hex
tick y
ĠB e
Ġw ould
se ct
ub b
Ġ Ùģ
log o
effect s
Con stra
D R
> -
Z ero
Ġpri vate
Ġ5 00
Ġin line
(` ${
Ø °
Ġ modal
Ver tical
Ġsp lit
/ (
" &&
ĠS er
F lag
17 3
cei ver
19 7
mod ifiers
Ġbe gin
å® ļ
Ad apter
C a
In line
Ġstring s
get Date
vis it
I TE
4 28
Ġser ial
ĠM OD
get FullYear
> /
H i
read able
× ķ
Ġ ^
++ ]
C ar
en s
ĠF loat
> ');
"] ),
G R
F il
to Array
at ter
st a
medi um
}` );
ĠN O
Ġiter ate
ĠP er
IF wi
() (),
Ġcon troller
Ġre act
ĊĊĉ ĠĠĠ
)? "
Ġtext ure
24 9
f it
k n
Ġ ÙĬ
i ting
C lip
c loud
Ð ±
V B
: _
æľ ī
SE LE
I O
E Q
S n
Re set
Ġmessage s
mouse up
32 8
Ġad alah
ca mer
Ġdef erred
bG L
ĠF ile
Ñ ħ
v r
A o
Ġ enter
Au thor
Ġre al
Pre vious
fe rences
TH ER
24 7
Def ined
() )}
I VE
Ġ1 10
un ch
Ġa bsolute
Ð ³
(? !
S ION
Ġ ĊĠĠĠ
ãģ ®
Ad min
Ġbo th
Ġmatch ed
Ġ ĉĉ
Ġw atch
Ġro t
Nav igation
a red
Ġke ep
44 4
/ +
Vu Y
sup ported
service s
í ķ
Ġun ique
H V
m r
Ġ angular
Co ord
Attr s
then tic
get Computed
Ġpo ssible
") ])
Per cent
24 4
re lated
back drop
ĠT e
outer Height
Do uble
Ġdis able
> {
Ġo leh
yn ch
create Text
tes ting
C I
LE TE
ly ph
CL ASS
ĠC o
åľ ¨
C ls
ig it
id entifier
com m
15 1
fa ces
cur sive
Å į
T s
h int
A y
ta h
ĠS c
W S
pe t
ut able
ma g
Ñ Ī
rt ual
T UFB
c ity
22 3
"] ],
x ff
trans action
Ðµ ÑĢ
MOD E
E u
x v
By b
' )}
cbl xu
h elp
V o
Al low
C y
allow ed
Ġa rea
ro ad
ti ll
st ub
ini tions
B ook
av atar
is o
k ZX
19 5
Ġre present
cl js
Ġ4 4
one Of
Ġc m
M v
E e
Z a
con nected
ext ensions
N etwork
p ted
% ",
le tion
In to
Un known
11 11
ĠMod ule
Ġpro vide
coun ter
Ï Ħ
Ġw ho
ani ti
aGl zL
Ġde code
Sa fe
v olume
OR S
tr ics
16 1
Place holder
] +"
N OT
Ġhas n
is ed
Ġ20 18
=" '
agin ation
FB T
7 68
R V
Message s
H o
Ġo th
g ulp
ĠS ource
w orld
object s
st ats
B atch
CE SS
Ġs vg
d id
Ġde ep
30 9
U r
C S
C N
scri ber
Ã §
A m
am b
h u
Ġ à®
Ã º
f ocused
ar ge
Sl ider
LE tBQU
P ending
Ġ" ).
ad just
},{" ./
ith m
deep Equal
At tach
(" ^
29 5
pre dicate
ad ap
R IGHT
qu i
lo sing
ĠW M
Ġcom mit
($ (
pri ority
TI ME
Ġ Default
x d
":" â
0 12
,_ (
Ġ' &
H Vy
Valid ator
@@ @@
2 11
ynch ron
2 12
Ġuse State
v Ly
ran ch
Ġpr int
57 6
á Ł
," "],
y o
f p
Ġplugin s
O UT
){ }
" />
siz ing
tr ic
(' _
}}, [
Ġen tity
19 3
æ Į
ig its
Ġr ules
TR IB
Ġpre dicate
æ µ
,[ {
2 99
Ġsh adow
Ġen v
Ġf ix
C r
over ride
w here
Î ¹
Ċĉĉĉ Ċĉĉ
VAL ID
1010 1010
F ind
and id
to JSON
xuICAgICAg ICB
Pri ority
Exp and
ater n
iz ing
swi per
A k
link s
B its
Ġ loader
parse d
member s
tw itter
mo re
04 4
af ari
original Event
k ing
De tail
g x
($ .
drag gable
ex tract
ire s
ĠB o
D S
p df
G u
ZG Vy
tit ude
Ġr andom
Ġis sue
get Month
BQ W
get UTC
Ġs ur
V w
) >>
Poly gon
ĠN OT
Ã ¶
è ´
(); \
up per
Ġan chor
O k
cbiAg ICAg
ve ctor
set ting
STR ING
cal led
pro gram
getOwnProperty Symbols
dG hpcy
---------------------------------------------------------------- --------
N s
Ref lect
20 14
E t
te ction
I l
Ġ{ '
mouse move
Ġh andlers
Ref resh
Ġe vt
Ġun til
( \\
Re st
} `,
N UM
ĠR ange
é Ŀ
Ġiter ator
Ġ[ _
Ġwh at
> ";
m id
Ass ert
Ġfil ename
atern ion
Http Request
))} }
get Parent
Ġ" $
ĠRef lect
Ð ·
bo unce
fil led
bm N
Filter s
U SE
xuICAg IH
| [
Sc ene
St ats
T G
r ank
P ublic
N QUF
touch es
ST ART
H ome
u v
Ġse ction
è¯ ·
Ġre st
Ġapp lied
Ð° ÑĤ
F in
Tr ue
27 8
"+ (
() =>
issue s
ç Ĥ
=" [
f old
Ġmark er
Z D
E M
redu x
I mport
Con trols
25 7
Sup ported
s lots
Ġde precated
C ircle
s ur
à «
A ST
33 6
n it
4 68
!== "
me asure
O wner
next Tick
Ġ3 00
Ġhelper s
fl ush
B w
exp irationTime
sc ss
con dition
n th
des ign
m ad
(){ }
LENBQUMs Q
Ġuser name
æĸ °
d ynamic
à¥ į
d en
Ġc ar
Ro tation
è¡ ¨
17 2
] };
ta ck
T S
z ero
camer a
J h
Ġed ge
full screen
25 8
sd k
:" -
outer Width
for med
? !./
Ġ Ð½
' ðŁ
ne gative
To Array
Y i
con f
ï¿½ï¿½ï¿½ï¿½ï¿½ï¿½ï¿½ï¿½ ï¿½ï¿½ï¿½ï¿½ï¿½ï¿½ï¿½ï¿½
Ġin spect
Ġconfig urable
Ġmonth s
Cal endar
act ual
O G
C i
E ngine
ed back
ĠE d
36 8
dispatch Event
? !
gr adient
U ri
o a
L ong
Config uration
Ġc ould
Ġstyle d
M issing
R F
FBQyx DQUFD
g an
in side
On ce
"} ],"
Ġc ategory
2 10
pe g
De claration
Ġover flow
key board
ç½ ®
- %
Ġs lice
C tor
26 0
Con tact
Ð° ÑĢ
Ï ģ
pre ad
x b
R D
35 7
Ġs w
con struct
X N
)} };
25 9
ĠÐ ²
x i
let on
ff ers
"> '
Pre v
Ġr adius
Ġj ustify
Ġneed s
sh ip
u ting
ĠH andle
f ri
Ġoc cur
cor rect
Ġpro xy
Ġ Int
ie m
Block s
Ġsm all
Ġs uch
Str ategy
Tool s
up le
gre g
]= [
E val
then ti
R k
vid ers
M ore
Ġcustom izer
}) ();
Ġout er
create Class
temp t
R S
s v
10 24
Ġes cape
Ġ er
r n
x n
L P
') [
PO S
wrap ped
åħ ¥
in v
ĊĠĠ ĊĠ
package s
/ ><
ĠAuthor s
Ġed it
Ġc ard
velop ment
Ġl ight
ĠCheck s
Ġ âĢ
= }
Pre view
ac c
orient ation
limit er
older s
u ally
ine ss
h ours
Ġde pth
toggle Class
Ġexpand able
Ġf lat
S ingle
re mote
js comp
Ġd ot
pl us
b atch
u uid
mis s
ra ft
, \"
De cor
m n
-- ,
Ġ Ke
)+ (
Ġmod ify
Ġ Name
it ory
Button s
use s
B i
(' ');
U Int
Ġp resent
Ġ$ ('
remove Listener
Ġz oom
50 9
Ġnumber s
Ġbound s
] \\
è ¦
L ng
D a
To g
the ad
Ġ View
ĠO r
sp y
C t
ut c
h an
Ñ Ĩ
16 2
b log
R W
gICAg ICB
e very
AD D
re ason
ZX N
ãĥ ¼
ur n
un stable
ar c
Ġvi a
valid ation
68 8
Scroll bar
ä¸ º
match ed
Ġp ad
Coun ter
an es
Ġ Element
D QUF
time line
inst all
Ġre d
simp le
à¸ Ļ
ĠX ML
s ist
v nd
update d
Ġ ])
/ ",
Ġcurrent ly
a ha
Ġdo main
f lip
?" ":
"} ],
) ((
è ½
2 13
; ",
ĠØ ¹
Y s
ex ists
Transition End
I e
ak Map
Ġs peed
) =>
bn N
en sor
30 5
Min utes
2 15
le e
ation al
Ċ ĊĠĠĠĠĠĠĠĠĠĠĠĠĠ
Ġsh orth
){ !
Ġdefault Value
Ġ ]);
j ustify
Ġ geometry
seud o
ĠMOD ULE
graph y
ĠP re
=' #!/
vi e
Pro gram
Ġax ios
i ca
HQUF H
2 14
status Code
Ġ$ (".
åı ĸ
get Current
IHRo aX
ld HVy
, ,"
":" #
18 3
B lob
D Q
() }},
U TE
Ġtr a
Ġpar tial
al ways
u cture
L iteral
Ġre ader
W atch
Mo bile
Ġwarn ing
el low
p lain
in Array
Ġpar a
ï¼ ļ
] !==
L INE
su me
de cimal
V h
Ġ5 6
st age
Ġata u
_ [
Ġm s
Ġti mer
UN D
d lib
Å ¡
ĠM ake
Ġ4 7
Ġ" \\
to Have
17 1
)} ).
æ ı
n l
Token s
Ġbit mask
cl us
Call Check
Ġ" );
si um
des tination
P QUF
ç ¤
FF ER
il ing
Ġapp end
callback s
Imp l
d HJ
T C
29 0
Ġf oo
S upport
ou gh
æĹ ¥
US ER
LO CK
l igh
il tin
H N
p ublish
v bm
Ġla in
Ġ Ro
is Open
) !==
Ġallow ed
s nap
XHR cd
Ġread y
ba sic
Pri mitive
in a
g atsby
sign ature
" ?
Sel f
Ġ Input
Pri vate
F ire
ĠI mage
prec ision
se parator
// /
sw al
Ġy ield
F lags
Ġd uring
Ed itable
Ġcolor s
u f
P arts
av ailable
du ce
ĠS oftware
z en
thenti cation
S L
ne y
ĠC e
Ġup per
]) &&
e ven
ka h
Hl w
Ġ{ })
C QUF
Match es
é ĥ
Y e
ward s
Ġh istory
) %
eX Bl
Ġ4 6
C ookie
Ġso cket
LC J
co gn
Over flow
key up
ui te
t ween
; \\
Ġen sure
In dent
Ġg re
vis ion
throw s
Ġs lot
] ]=
Ġno op
Ġclear Timeout
25 3
te am
Month s
re load
No tification
å ĳ
32 9
default Props
local Storage
== (
Ġt sd
W t
$ ('#
support s
in f
56 5
l v
Day s
Method s
Ġma ka
byte Length
Page s
com ments
B t
am d
é ¢
AF AAU
Ġse g
RO W
Ã ł
ĠC ode
re ader
26 8
tifi cations
di on
md W
Work er
V U
Q j
date time
Ġw in
Se cond
u DE
]) &&(
26 5
ORT S
s us
g ers
r f
hl js
Ġget ter
Ġz ero
li ct
En umerable
Ġ 68
sk in
è¡ Į
Ph one
l ush
à¹ Ī
Ġ5 3
ĠM us
Ġre ason
e le
Ġma sk
Sh ift
Ġin ject
v cn
En um
Ġe ase
O e
Ġlet ter
b id
ĠĠĠĠĠĠĠĠĠĠĠĠĠĠĠĠĠĠĠĠĠĠĠĠĠĠĠĠĠĠĠĠĠĠĠĠĠĠĠĠĠĠĠĠĠĠĠĠĠĠĠĠĠĠĠĠĠĠĠĠĠĠĠĠ ĠĠĠĠĠĠĠĠĠĠĠĠĠĠĠĠĠĠĠĠĠĠĠĠĠĠĠĠĠĠĠĠĠĠĠĠĠĠĠĠĠĠĠĠĠĠĠĠĠĠĠĠĠĠĠĠĠĠĠĠĠĠĠĠ
à ¼
ive d
Ġp en
He ading
read only
×ķ ×
å Ł
. "),
Ġrot ate
27 9
g it
c ret
char acter
is String
âĸ Ī
k ata
Ġlo c
P lease
ĠF OR
ke ep
Ä į
al an
37 8
get Selection
su bject
M n
ver ify
Ġren derer
C tx
Ġp ut
Regis try
TR ANS
Ġe ven
C g
ĠD EF
64 0
! ="
; ',
id iem
], !
Cur ve
R AP
ph p
$/ .
re gexp
C RE
Ġ( ++
Ġdisplay Name
Ser ial
24 3
define Properties
n umeric
Es cape
hb H
si a
dXJ u
po graphy
[^ \
th umb
B it
A a
o site
Ġview Box
L Y
50 4
uD C
200 9
getComputed Style
æĪ Ĳ
Ġproto type
35 9
A Z
b S
Ġ* =
Mod ified
R a
2 19
Ġmax imum
C M
ver age
n y
class CallCheck
è ĥ
Ġp l
View port
ZX I
sp rite
li er
Ġren dered
ub ic
Key board
"," -
34 4
]) ),
r x
S lots
L ang
answ er
gor ithm
ous ly
cor dion
#### ####
ist an
cI i
se gment
Ġs lide
j ava
. ":"
ĠCon structor
Ġis Object
IG Nv
Ġsub mit
ĠGet s
h ar
AN G
à¸ Ń
expand o
c ls
ch rome
% ,
26 7
im an
on d
26 9
de pendencies
add Listener
T AG
Ġweb pack
es m
30 3
Ġan other
\ -
Ġrequire s
c mp
static RenderFns
Ġf lags
B F
v ated
Ġ il
l ider
se q
66 6
f uture
gu h
path s
> &
Lo op
co v
fe atures
à µ
it a
Ġbe low
Ġgener ated
offset s
iv u
18 2
g Y
x C
N one
DE LETE
Ġmenj adi
Jl c
start sWith
] ],[
Ġf r
Ch ain
ç Ĳ
Ġfe ature
f A
)} .
isP lainObject
s il
st o
mo us
' ></
Ġ ){
r b
Ġj q
Ġf ragment
Ġcall s
32 6
j an
Í ı
35 2
T F
p d
Ġp t
ire ct
ya W
imp l
g K
Ġ" [
]) ?
06 27
33 0
Ø ®
S pacing
uD D
Ġresolve d
V F
Render ing
name d
,,,, ,,,,
27 7
inter face
tab Index
35 5
ãĢ ģ
et ter
De v
28 7
Ġday s
get Text
( ',
Path s
start Time
Íı Íı
J e
El m
mati cally
char set
script en
/ '
al loc
TY P
client X
Ġ0 0
um an
uh an
{ \
27 0
Red ucer
Ġs till
B ig
) >=
]], ["
M ut
__ __
D og
; ","
D ot
pa st
v L
F low
or ig
20 13
Ġ/ \
33 4
En v
lar ge
me t
," $
t wo
and roid
B s
tra ce
c ip
ĠS pec
p u
Ġn etwork
un its
ma y
end o
) ||"
g al
Ġbrowser s
X R
Ġto String
i kan
ce l
const ra
LO G
ca ped
S lice
ers ist
De legate
Key Down
pa ste
S py
Ġti le
W U
Ġmul ti
ÂłÂł ÂłÂł
F etch
18 1
Ġ" ;
2 17
36 7
34 8
Ġp atch
root Scope
C R
Ġcallback s
B L
QU nit
33 8
Y t
" ],[[
al le
Ġd a
q e
Ġ4 00
28 6
35 4
ĠG oogle
Tr ansport
Ġd ia
ĠM atrix
ç º
k y
} =
(' @
N t
Ġm issing
M AA
Ġse conds
../../ ../../
ĠG e
? .
Ġ" *
ĠN aN
ge red
D one
b ig
l on
Ġdirect ly
stru ction
Ġ7 0
End point
ili ties
pre pare
LEdBQU cs
O l
n u
Con f
Ġro om
60 8
Ġmod ified
rot tle
touch start
38 8
DO WN
Zn VuY
Ġp erson
Un iform
cI m
S G
TER N
Ġa pa
Ġup load
36 5
CON T
D IS
Ġif rame
29 4
Set ting
q a
Ġ angle
Ġgoo gle
z Y
Ġ9 0
source s
dash board
M at
j dGlvb
Ù ĭ
tab index
T Sx
T wo
Ġ head
T ween
," \
R t
Û ķ
ĠL og
Î ½
. <
Ã £
Ð ¹
28 0
Al ert
Date Format
I Q
ĠB utton
T a
W E
css Text
Ġsa fe
={ "
sp inner
AT OR
Ġs imple
lu id
Ġ" ")
Ti p
command s
ag ram
b inary
> (
CO MM
h bW
s ass
} ',
toString Tag
l bn
29 8
AR D
Ġrun ning
ĠS tyle
S ur
9999 9999
Z e
With out
O F
on ts
c js
ä¸ ĭ
Ġtest s
Check box
Ex ample
Ø ²
Ġvari ables
R n
G B
ë ĭ
34 7
imp lement
xu IC
3 99
',' \
U m
æ Ł
ĉĉĉĉ ĉ
âĢ Ŀ
full y
f red
Z i
Ġde v
in ya
Pan e
p tr
Re port
w y
ä ¾
p hi
XC Is
no re
ani ma
ig gered
od d
ang kan
Ġp ending
29 7
host name
Ġse quence
Re place
6 57
sp b
Dim ensions
C ells
IC E
R m
f as
z o
Ð¸ Ð½
F older
ad s
J n
need s
æį ®
33 9
/ "+
Ġs i
al u
ĠØ ª
u FF
p n
ĠA ss
33 7
Z F
Ġdata Type
Ġ 99
q K
St roke
Ġm ut
èĩ ª
Ġt x
De pendency
Ġref resh
C amera
client Width
Ġcontain ing
c v
Ġsuper Class
))} },
() ):
k ZW
se conds
}} (
ag ing
Se quence
U e
IC h
y ield
], {
ĠMe ssage
if e
ren dered
Con nect
S lot
op le
S i
Ġp latform
n X
Ġf ixed
Ġs ystem
Ġ entries
cell s
Sp lit
amel Case
i um
;; ;;
I jo
si ble
Ġcap ture
åĬ ł
b iB
Ġme mory
++ ];
L t
ĠO ption
do uble
aW Yg
28 9
P M
o j
}), "
local host
File Sync
(' \
M irror
i ed
ca de
) <<
cess ary
poly gon
Ġa jax
En coding
Trans fer
look up
AAAA A
Q e
35 8
an ch
VER SION
37 7
Ġ um
l BQ
ri des
re ams
ĠM AX
QU FBQ
[ -
ag ent
åı ¯
Ġext ension
f u
ver ter
Ġpan el
() =>{
50 8
Ġsin on
get All
ĠS O
( ",
22 1
åŃ Ĺ
AR Y
Ġm at
cor ner
Ġc la
ĠC lass
client Height
ĠP lease
Ġl ater
is In
34 9
b us
ĠH t
HE AP
Ġiter ation
resolve d
H I
Ġen vironment
Dir ty
template s
ung guh
: \"
x D
Ġsc ene
Ġ 66
at able
j w
å¤ §
Ġ" </
Ġass oci
cur ve
ff ic
rup al
In dicator
ĠSt dlib
clu ding
E XP
w cm
00 7
component Did
Ġvari ant
Un its
C Q
yn the
col lapsed
ĠU SE
Ġ5 1
ĠOn ly
ri pple
*/ ,
AFAAU ABQ
dG V
B z
p ub
months Short
04 30
U l
Ġvalid ation
ab out
W I
]) /
Ġse gment
ul ate
40 1
Time line
Ġexec ute
al th
Ġtime stamp
28 5
37 9
A jax
Ġ ul
min ute
N ow
Ġsymbol s
Th row
p ense
H Builder
- '
Ġm end
] ||"
36 9
3 12
Fe atures
= ${
per ti
Code s
Ba sic
24 2
||{ };
," -
N N
c ing
ony mous
K AA
37 6
ctrl Key
am mad
[ ]}
H M
Ġxml ns
dG Vy
Dire ctory
| $
Ġs ite
Ġis n
Ġover ride
on error
ĠL a
; --
64 8
Y o
active Element
l is
h ind
Ġinitial ize
Po sitions
Range s
ĠC O
ĊĠĠĠĠĠĠĠĠĠĠĠĠĠĠĠĠĠĠĠĠĠĠĠĠĠĠĠĠĠĠĠĠ Ġ
P X
[] ]+
Array Buffer
er al
` ${
ĠS ub
per son
A li
20 12
çĤ ¹
json p
28 4
all ery
ĠEXP ORTS
get Child
is Buffer
23 1
exp ress
F ix
ar p
er ts
26 6
M ixin
IL ITY
âĶĢâĶĢ âĶĢâĶĢ
64 7
unk nown
å ¦
Ġst orage
ĠD es
def er
Char acter
é ĺ
A z
Ġ 69
Resource s
W ARE
39 7
xu ICAgICAgICAgICAgICAgICAgICAgICAg
bar s
pa per
R X
ç ®
Ġ10 24
in te
c lock
Ġfont Size
Q AA
Ġper cent
B S
00 8
40 8
50 7
å¯ ¹
68 6
' ){
Ġ Û
ĠO pen
ST AT
Ġdat abase
aw s
Ġpro gram
() '],['../
Bu ild
25 1
ĠRe ference
Ġro und
à¹ Ģ
we et
Ġrequest s
g d
(" @
Link s
max Width
HBuilder X
4 69
s olid
Ġsu bject
S imple
j k
ĠĠĠĠĠĠĠĠĠĠĠĠĠĠĠĠ ĠĠĠĠĠĠĠĠĠ
b its
get Name
Be gin
RE D
,[ [
O t
Trans late
createText Node
SELE CT
Ġp ol
String s
th on
El se
% =
Ġb inary
(" -
)&& "
Ġke b
Ġc ity
tr ibute
En tries
Ġb aik
Def ine
D P
ĠO ther
M ay
Ð¾Ð »
Ġy et
38 9
uh ammad
vZ H
J ldHVy
pi e
FBQ zt
Re lative
ĠL ink
s lug
RE SS
d inal
Full screen
(" ");
j or
oper ation
Ġ' ;
}/ {
Ġ4 9
App lication
åĪ Ĩ
50 5
V n
R Cx
= __
B ra
Ġ5 5
e moji
æ Ľ
event Name
Ġo Settings
tick s
Ġre size
38 5
Ġver tical
6 04
P y
R andom
Q G
Ð¾ ÑĢ
sh are
Helper s
Record s
Ġfin ally
ap pear
and box
d E
\/ \/
al ity
fa st
Ac ti
Ġe t
su g
internal Type
Co ords
+" </
respon sive
e g
Wh ile
cry pt
ĊĠĠ ĉ
R le
encode d
it ten
mis sing
= \
Q R
Pol icy
å ¿
d h
})( \\
dat abase
ir t
D A
": !
tr an
Ġh app
s quare
pro tected
åī į
è Ģ
w x
Ġor ig
(' -
ĀĀĀĀĀĀĀĀĀĀĀĀĀĀĀĀĀĀĀĀĀĀĀĀĀĀĀĀĀĀĀĀ ĀĀĀĀĀĀĀĀĀĀĀĀĀĀĀĀĀĀĀĀĀĀĀĀĀĀĀĀĀĀĀĀ
Ðµ ÑĤ
ĠA ND
Equal s
Ġcontent s
60 9
={ ()
response Text
IS O
Ġbutton s
B ER
ver ts
Ġ6 5
Res olve
), _
yy yy
C redentials
P ackage
è ·
Ġve ctor
Stop ped
Ġ' \\
l and
Ø £
" ./
V m
x A
60 1
"> '+
dG hl
)} }},
Ġtime s
ti s
Ġo k
Ġm ong
is Default
ĊĊ ĠĠ
aly tics
br anch
K EN
cb n
p ur
j c
Ro om
de veloper
ction ary
st and
sign ed
Ġse ed
B G
is on
L H
ight s
s at
Ġdes tination
Ġne sted
v n
K it
Ġs wi
ĠC L
resiz able
data Type
Ġ} ))
oc ial
isF inite
C U
S us
Ġd t
Ġin dent
Ġle ss
Ġ5 2
x link
30 1
Line ar
AAAAAAAAAAAAAAAA AAAAAAAAAAAAAAAA
Ġi a
fa ke
m c
mouse over
' "
7 07
> ");
Ġid entifier
ta tions
] ._
t ty
ry pto
Format ter
OR E
| \\
Ġbefore Each
{ -
Ġwrap ped
ĠN ew
Update s
la m
G t
b one
TEXT URE
em scripten
3 15
V T
ve ls
Ġn s
tic ip
x k
Re g
rea ting
tic les
= $.
ul ation
LElBQUks Q
Ġe v
C re
S calar
Ġnavig ator
ĠE VENT
34 0
ad apter
Ġbag i
Ġac ti
Z SA
d z
end if
Attr ib
Ġla zy
Ġmo unt
bo se
Ġpro vider
Read able
å Ŀ
r ink
bu ilder
Ġinter val
mo st
andid ate
lastIndex Of
} '
mix in
48 0
ib G
g m
27 2
}` ;
Mul tiple
client Y
Ġt ween
vo ice
update Queue
Ġlog in
cre ase
ri p
37 0
", {"
Com mit
State s
istan bul
V O
f older
z n
"] ').
EC TION
Man y
Ùĳ Ù°
an tity
() &&(
w as
J q
áĥ Ĳ
P U
I I
': '\
ĠC an
Th reshold
Ġin f
H a
xt ure
pro vide
B X
$ _
Tra ce
K a
S HO
h ello
J Q
Ġk now
33 5
Ġre port
user Id
N k
áĥ ĺ
Ġbackground Color
J a
tr ict
Ġ1 50
s aW
col s
ĠJ avaScript
AAAA AA
æ Ĭ
à® ¿
PAT H
auto complete
è İ
P ack
Gr adient
67 8
scroll To
Se parator
ĠT O
30 2
We bGL
Éµ Éµ
34 6
mul ate
Ex act
Ø§ Ø±
r ing
âĢĭ âĢĭ
Ġp ublish
; !
Ġ" %
3 13
dGl v
}) ).
Ġdef inition
Ġallow s
pZ iA
" )}}
Ex it
80 8
(), "
K K
comp osition
âĢ į
e ver
Ġto o
! +
Ġext ernal
age ment
x B
ðŁ ı
l j
)> -
Ġ[ \
ç ¬
St andard
g acy
gra de
B ad
sub tract
struct ure
Ñ İ
] }),
Ġ[ ]);
ç ł
ç¤ º
Ġ5 8
LE FT
åĲ į
æ ¸
ordin al
po lation
Ġsource URL
) '
]}, {"
finish ed
percent age
ta pi
," _
39 8
li m
Ġp ack
Ġal ias
l ined
Ġ Î
éĢ ī
4 64
Z M
ÐµÐ ´
\" >\
38 7
fo ot
x F
V olume
99 8
J G
+ ",
ext ension
ĠIn itial
. ,
n D
Ġf allback
Ġh elp
R z
}} }}
m al
select All
Ġs ync
ĠS VG
Ġm us
stri p
Ġinher ited
B I
d ater
:/ ^
Con tract
57 8
Ġcor respon
40 7
Ġd ynamic
H our
à ³
SUFBSSx DQUFD
um my
X e
ad ded
vi rtual
fla sh
comp ress
se p
er arch
Ð¸ ÑĤ
Ø µ
( ^
ue s
59 2
ĠBlock ly
U Is
cept or
ĊĠĠĠĠĠĠĠĠĠĠĠĠĠĠĠĠĠĠĠĠĠĠĠĠĠĠĠĠĠĠĠĠ ĠĠĠĠĠĠĠĠĠĠĠĠĠĠĠĠĠĠĠ
offset Parent
FAI LED
en ch
Ġ ĊĠĠĠĠĠĠĠĠĠĠĠ
Ġag ar
t cG
r atch
40 9
/ =
N V
m k
Ġview port
p f
u ct
Ġc lip
35 6
Image s
ensi tive
cumul ator
u L
Ġwork InProgress
æ Ļ
×Ļ ×
Ġex tract
3 32
à¹Ģ à¸
Update d
OR Y
ĠH E
N b
Constra int
Ġ )}
J z
code s
Ġh i
Ġme ans
Ġau dio
An notation
: **
Ġexp licit
Ġm ight
U UFB
memoized Props
._ $
J vb
}}, {"
z le
selected Index
DE X
obser ve
ĠL I
Ġbe havior
)), "
ce ed
trie ve
Ġ}); \
Be en
us ing
FI LE
({ "
get Context
test s
gener ated
Su ffix
Ġ5 7
Ġm iddle
N a
Abstract Component
LO B
T abs
={ }),
ynthe tic
ex ception
Vy Y
00 4
ĠRe quest
ICAgICAgICAgICAgICAgICAgICAgICAg ICAgICAgICAgICAgICAgICAgICAgICAg
P ush
no tification
Z hc
Ġc op
Ġg ra
S chedule
function s
Ġh our
b ility
Ġex ception
FT WARE
D g
\" );\
C loud
Ġno te
Ġs ample
In ject
} |
uD F
er n
Ġpri mary
n r
un icode
LO W
Ċĉĉ ĠĠĠ
) ({},
LQUF L
ç İ
Wh en
Red irect
Ġd y
Request s
ĠP op
Z y
ĠA nd
de ps
Q X
res ume
Ġs amp
27 4
Ġ5 9
is Active
))} ;
VV VV
M d
Con dition
à¹ ī
Return s
ĠÐ º
ĠP RO
pa lette
to ast
St ub
b lem
Ġt d
r m
en sure
xu XHRcdFx
US H
tifi c
K t
f m
B us
ĠIn ter
à¼ ĭ
z on
Z CB
å §
P latform
Ġsebag ai
Ġcur r
er c
_ ;
58 7
min utes
I p
Al t
Time s
W l
free ze
RT L
J j
Ne ed
Z E
ke mon
ĠI ter
id ing
NQUF N
YX R
andl ing
(" $
Ġcall ing
Ġtr im
ex ist
be zier
Ġ" '+
EN TER
me sh
M k
e ps
3 24
: %
å Ĵ
swi pe
in tah
Ġmo st
æ ģ
Ġre gion
O b
ed ges
)} :
el y
read cr
99 7
Ġ2 48
is Number
Me asure
à® ķ
" ||
A ri
38 6
D ynamic
ra ction
Ġb g
æķ° æį®
th rough
By ZXR
K y
on click
Ġfa ce
add r
mix ins
] <<
\/ \
40 6
Ġj ob
ç ´
64 5
ĠT h
Ġ\" ./
go od
p id
67 9
P G
T x
å Ļ
Ġf low
Ġauto matically
ĠSO FTWARE
p hoto
") ],
Ġse m
remove Data
IG lm
/ \
IC K
ZG F
Ġs en
BU FFER
ç «
J B
G ER
Ã «
G en
Pi pe
e mber
De cimal
Ġwhite space
pa used
Wr iter
ãģ Ĺ
encode URIComponent
48 8
dmF y
c ml
Un til
B ACK
Ġno tice
tr ansport
scroll Height
Q E
data Table
Ġl on
é »
Iter atee
â Ĥ
50 6
[ ])[
vi des
ĠB ack
local s
ç Ń
ĠÐ ´
Offset s
S prite
"," +
Ð°Ð ²
Ġkey word
RG B
cal lee
t m
Se p
Sh own
C J
è¦ ģ
De pendencies
graph ics
__ ("
c ri
s yntax
ver tices
ad vance
60 7
çĲ Ĩ
Ġuse s
C n
55 6
ç ±
st s
Ġse par
Ġs orted
cid ent
Ġse perti
ima tions
line Width
Ġc r
Format Symbols
s XG
ug ges
c ategories
x h
Ï ĥ
w M
Exp irationTime
Ġp un
Event Emitter
Ġcon ditions
Rect angle
gu ard
in dices
Ġcompar ator
V a
cy B
de c
))} ),
bi h
s dW
Ġme mo
Ac cept
ma s
cry pto
th read
J an
Ġar row
| -
39 5
Valid ate
Ùĳ ÙĲ
z er
ire d
M utation
App ly
Ã ¥
ä» ¥
TO KEN
=' #
destroy ed
Ġ` <
Ġan t
ts d
b C
64 9
end point
b x
S M
Ġh ari
000 2
Ġen ti
å¼ ı
co mb
V M
Ġcon f
59 7
se ed
ve red
UT H
graph ic
4 14
isDefault Prevented
R QUF
DE V
49 6
ç ¼
Ġlabel s
state change
Ġw ell
R s
Mo z
is Undefined
Ġg ot
27 6
Ġcal endar
R M
Ġm is
Ġnew Value
ĠArray Buffer
Ġ5 4
T T
q s
29 3
ĠCe sium
, __
( ":"
d yn
à¯ ģ
ĠN e
Ġd ddd
Ġse k
Down load
bW Vud
00 5
target s
fil tered
ar ticle
LL L
Read Only
L anes
no tations
T w
mi me
s umer
def inition
T AB
Ġde cor
FB U
sw ap
[ ],
44 7
qui val
Con firm
38 0
} ]
," @
K ind
p loy
Function s
Ġ" \"
Ġre direct
last Effect
st andard
Ġmatch ing
no v
Mark up
Ġ \\
ãĤ Ĵ
39 6
char s
Ġgroup s
)( ?
border Color
In finity
de tect
Ren dered
z c
lock ed
Ġpro file
Ġre spon
ĠO THER
39 4
as ul
Ġ ty
W ait
acti vity
Ġc e
Ġ7 5
]= (
á µ
weekdays Short
leg al
ï ¸
Ġde pendencies
},{ }],
Ã£ o
Ġin te
ab ilities
Ġ Ar
ak er
al ing
Re mote
MP TY
Ġ$ ('<
S pread
ĠR ed
z r
one y
O W
29 2
Ġe tc
Ġpro per
F QUF
Ġp lain
Ġcon dition
j n
margin Left
set Item
vent ory
n ight
C ODE
re qu
X t
Ġ ut
24 1
ri ent
ĠDEF AULT
In dices
åĬ ¨
c L
(' "
P ref
Q C
Ġvalid ator
Log ger
P Y
e y
s V
ĠR un
")} ),
project s
List Item
Ġ' );
)) ){
post css
Sp here
D Y
Ch at
er ived
scri ptions
36 6
f allback
(), !
k dW
get Node
clone Node
LEtBQU ss
v l
Z j
ip pet
Ø «
A bsolute
to do
ph ase
que lize
min Width
Place ment
> ","
c pp
weekdays Min
K o
C luster
jo b
Ġ istanbul
ĠL ay
é Ķ
LEN G
ensi ty
Ġk ind
gre y
or dered
% }.
37 2
Ġb ad
è Ĭ
Con tain
Se gments
ver sed
"," \\
]) |
Ġsupport s
To Props
g if
Mod ifier
J U
m un
il on
ĠCol or
40 5
Ġfe atures
4 58
34 3
Ġk er
Ġ" :
LE NBQ
IG F
s ig
f ollow
state s
ne sted
Ġpri ce
ê °
output s
69 6
get State
Sub scription
ur ls
57 5
Pay ment
i ps
handle d
q n
at ype
){ },
Get ter
lips oid
get Property
as set
Ġ library
Ġ Key
":[ ],"
(' ../../
X ml
d F
sp read
eval uate
ãģ Ħ
Touch es
mer ica
A vailable
D r
AA A
Ġsome thing
o va
Ġ7 2
bu iltin
Q B
Ġcoun ter
32 1
road cast
y i
E P
tili ty
J ul
h it
S ame
Ġ' {
Ex tra
li cations
M iddle
__ [
has er
current Item
P ower
æł ĩ
id up
Ġre lated
B rt
V S
? '
scri bed
77 8
ki an
ig ure
Time stamp
3 19
g w
Ġsha red
scroll er
ra c
b as
b X
FI X
Comp are
ligh ted
un subscribe
S ample
co ords
mo tion
S yntax
Ġka um
h yd
Ġ' :
Ġn a
åĽ ŀ
Ġap pro
IN DEX
Ġt ent
ĠHT TP
Ġ Ð¸
04 35
Ġ uri
64 6
E a
u Li
k top
enc il
k w
di ting
remove All
Ġ6 3
= .
decor ators
ĠF R
R adio
Ġ Ùĥ
ff ered
Ġ ol
Ġ ign
Ġd x
ĊĠĠĠĠĠĠĠĠĠĠĠĠĠĠĠĠ ĠĠĠĠĠĠĠĠ
= $(
Type dArray
me mory
Ġ1 20
ff e
li es
@@ @
file Name
U JBQ
åĪ °
b p
related Target
mo oth
T QUF
Ġ low
Ġwe re
cket s
range s
so und
Ġinput s
xy z
E i
H ub
Ġre ferences
4 16
A j
po ol
04 8
Rh dG
R Y
Ġb i
LENG TH
i am
q c
b an
scroll Parent
Index es
def erred
top ic
ref er
Re gister
co in
ST Y
Ġlocal Storage
FB RU
pa ren
v h
ĠC ustom
Ð¾Ð ´
Ġlink s
J C
Ġc re
En vironment
c art
rid ge
Ġw orld
59 8
Ġpop up
is Equal
à¸ ģ
Ġassoci ated
| [^
av or
sup press
Ġs ent
Ġber iman
% ;\
TUFB TSx
ĠD on
if ference
Ge o
sec ret
ĠSe ts
Ġb r
on Error
se ek
View er
é ģ
&&( !
Ġ lib
Ġex act
ÐµÐ º
g ap
n v
attach Event
") (
K T
Ġ ss
Ġspec ify
Ġ ~
g B
an notation
' });
Ġde l
oper ations
Ġwork s
con tract
per formance
[ ];
[ \\
mer idiem
Ġlicense d
p lied
Type Error
SA FE
b at
26 3
/ ',
") )}
44 3
Ġno thing
Per iod
te ch
Ġin cluded
selector s
tra it
po ssible
irt ual
Ġre lease
Ġver ify
ĠA b
de precated
AP P
Ċ Ċĉĉĉĉĉĉ
% ',
sor ted
æ ¯
com ing
o ct
Ġb lob
Ġc ookie
Ġpo sitions
() ))
def s
fV xuXG
0000 000
ag ger
æĸ ¹
es ome
termin ate
Å ¾
mouse leave
Menu Item
Ġm on
Ġap pear
mouse enter
W d
Json p
IN VALID
ec tive
shift Key
7 45
åĽ ¾
ay a
Ġar ound
ĠĠĠĠĠĠĠĠĠĠĠĠĠĠĠĠĠĠĠĠĠĠĠĠĠĠĠĠĠĠĠĠ ĠĠĠĠĠĠĠ
um bs
"] ="
" ',
require s
l Y
day Of
:" ðŁ
at ur
auto play
regis tration
ĠS afari
E Y
Que s
Ġ He
p ic
55 5
x o
Ġsign ature
Ġm ar
Ġc c
0 17
enti ties
3232 3232
(' :
> ").
mi kian
K D
AC s
à¤ ¿
Ġal pha
Ġc amera
Ġk o
W OR
Li te
S ome
Coun try
get ah
l r
O FF
Ġ vo
Ġover lay
Ġs aw
ĠP ri
A bs
) \\
web gl
åį ķ
O ld
Ġim mediate
mis es
YX Ig
ĠN ot
Bound ary
r al
? ",
Ġp ick
Ġ 77
k in
Ġwr itable
ac cent
$ (".
iter able
Zhc iB
N n
Ġe asing
toHave Been
èĥ ½
ste ps
57 9
ĠC al
655 35
7 08
getElementsBy ClassName
Ġh over
ĠB y
Ġit self
in vert
tili ties
(/^ \
LOB AL
C CESS
relative Time
P x
le af
AS H
LF V
m ut
view Box
V Node
P ayload
FBR yx
Ġde termine
h al
C at
Ġbu g
s ticky
aniti ze
Ext ent
late st
Ġro tation
p g
ãĥ ³
w bG
block s
this Arg
Plugin s
=/ \
Ġshorth and
00 9
moz illa
I u
Ù ĵ
Ġ*/ ,
vZH Vs
sort able
Ġh o
u dio
DEF INE
style d
set Style
F IG
previous Sibling
COL OR
mark down
Ġco ordinates
Ġ ÑĤ
S hould
face book
60 5
Ġre maining
åĢ ¼
ĠT ra
ar ter
! --
Ġc md
æ °
88 8
Oper ator
ance stor
E mbed
aaaa aaaa
s ul
R ot
Ġrun time
68 7
00 6
Ġde tect
Vt ZW
Ġle ast
refe rences
pen ded
69 7
ret ch
p unctuation
ĠTo ol
3 14
Q c
ate st
Ġ[ ,
bar ney
ab e
å ĵ
inter polate
H elp
æ ¨
! ");
o sed
w YW
ug a
ĠOther wise
ook up
60 6
or ter
3 10
Ġb its
Ġe le
Ġ" {
å¦ Ĥ
B n
å »
lay ui
Ġ"+ (
Ġend point
Ġop tim
Side bar
=" _
navig ate
Rl ci
s lick
is i
An ce
3 16
ĠU til
Ġdrop down
ready statechange
Ġi e
PQUF P
ĠS o
F U
4 50
99 5
'] [
ãģ Ļ
Ġaccept s
Jo in
+ )?
STY LE
12121212 12121212
=' <
ma pping
O rient
IG lu
( +
we st
M V
Q m
58 9
Ġ'/ '
Key word
View s
Ð°Ð »
f v
49 8
< '
gICAgICAgICAgICAg ICAg
b etween
ian a
Col lapse
Ad just
f X
[ ++
N p
gu ild
Ġpa irs
mod ified
ce ler
pan e
P ad
ur s
pect Ratio
La tin
ĠM AIN
Regis tration
IT LE
k ar
Y a
u o
AN CE
ĠTo ken
5 36
39 3
IH t
B T
4 77
Ġcomp ile
d v
in o
q i
M G
at om
node Value
di ct
âĸĪ âĸĪ
Ġle ading
Is Enumerable
Ġin variant
Re ceive
Ġtr ail
Ġr gb
\" ></
)), (
Ġper formance
par ameter
& (
Initial ized
Ġde cimal
Vari ables
0 15
P in
à¸ ±
---- -
32 3
b ur
u j
Ġcomp iled
pa ir
Ġm t
Ð¾ ÑĤ
Ġ Ċĉĉ
app le
ĠN av
Ġinter face
ĠW hether
Ġdo uble
(" |
ĠS H
de pend
W ater
Instance s
pre s
change s
++ ],
Ġname d
un ia
be ta
5 24
is Re
Date picker
work er
Ñ į
Ï Ģ
um i
Ġ( #
B alance
Ro utes
G a
h adap
iz zle
ĠD ia
ĠRange Error
Ġ0 1
As set
Ġrender ing
68 9
å¼ Ģ
k l
57 7
58 6
Ġa v
Z hbH
Ġnav igation
Ġconfig ure
Ex ists
lit eral
ark an
O ther
Ġcal culate
[ [
39 2
58 4
Ġin serted
Ġs lider
_ )
+ \
k p
AR I
O O
select able
co ord
59 4
J D
27 3
Ġf uture
d ow
mouse out
C UR
toHaveBeen Called
per iod
all en
en queue
clus ive
ĠĠĠĠĠĠĠĠĠĠĠĠĠĠĠĠĠĠĠĠĠĠĠĠĠĠĠĠĠĠĠĠ ĠĠĠ
la ku
âĸ «
( <
: </
I V
I a
[" +
Ġm ener
Target s
44 9
st ory
Ġinstance s
An y
à¸ £
ar ity
HE AD
l tr
Z mF
p le
ut ors
v ZG
AB AA
IN PUT
irc ular
let ter
in dicator
Ñ Ħ
inter sect
]| \
B LOCK
Ġcl js
ĠR asul
ud ah
set Request
80 7
or a
é ħ
ĠT able
Un ique
Pattern s
lect ron
isN ull
Ġc er
G ra
File Name
pl an
M x
Ġj est
link ed
"), (
v w
Ġagain st
Le gend
read Only
E XT
ra tio
47 9
use State
front end
65 4
b um
áµ Ĵ
SE D
Ġi i
obser ver
seud os
meta Key
3 11
ĠF e
]|| {
Tick s
c E
Ġre ceived
Un mount
str ument
Ġmod ifiers
FOR M
Ġis Function
æ ¡
S F
ĠRe s
Ġ\ ************************************************
Ext ernal
Ġ' __
Ġlook up
F alse
as y
Ġle gend
s ql
En code
ca ret
g J
Ġb atch
Ġs chedule
LL LL
Id entity
s ender
long itude
emit ter
ti d
are t
cy cle
7 04
99 6
Ġcon tact
ÐµÐ »
ĠF S
Ġp eng
S hip
55 9
39 0
troll ers
am l
)} });
ti ps
Ġant ara
Ġse su
Ġa bs
38 3
Y T
åĻ ¨
8 64
ĠP age
Ġcase s
Ġ_ (
Sta mp
M is
(" *
48 6
z aW
margin Top
u ar
Ġtool bar
has Attribute
Q p
V R
ar ator
Ġper bu
n Ä
Ġst andard
Ġmatch er
g ICAgICAgICAgICAgICAgICAgICAgICAg
set Data
current Time
au g
G ui
")} ;
l h
F H
define Locale
+" .
bn Rl
||[ ],
se mb
/* .
Ġout side
æŀ ľ
Ġth ose
Ġver tex
Ġmin utes
Ġre mote
ç Ļ
ĠM uhammad
fill Style
ĠâĢ ľ
g C
O U
clip board
cd n
veloper Error
+ .
(" --
T od
ICAgICAg ICB
c lo
O ct
Ġ ri
script s
49 7
j og
55 8
ne ctions
Ġb in
32 2
)) )}
MO VE
AH g
à ©
80 9
contain ers
5 40
m orph
AFAAUABQ AFAAUABQ
w E
UT F
get Line
or n
N vb
pa int
Ġper form
RE AD
Var s
à¥ ĩ
} ))},
Allow ed
ow l
", \
instance of
__ ;
cbiAg ICAgICAgICAg
} _
find One
s pa
save d
W a
Char s
ĠF ace
55 7
87 5
La zy
Ġc ells
e ql
en ing
Nv dXJ
y es
Ġ Qu
è µ
V ec
Ġx s
op tim
M A
48 7
æľ ¬
ati s
ti tion
NvdXJ j
P agination
ĊĠĠĠĠĠĠĠĠĠĠĠĠĠĠĠĠĠĠĠĠĠĠĠĠĠĠĠĠĠĠĠĠ ĠĠĠĠĠ
0 10
F rag
W i
F IN
Ġ} )(
0 11
ata kan
an cy
66 8
log y
u ation
Ġupdate s
/ "
type Of
remove d
+" '
spec ies
j uk
66 9
Access or
default View
44 5
Me mo
Ġstar ting
dim ension
L ow
H ref
,_ =
Ġkam i
ZhbH Vl
M ac
s id
ffff ff
} -
G T
Ġcomp ute
For ce
ti er
ĠMe reka
IG V
0 13
Ext ensions
X Hg
Y j
drag ging
W in
Ġpop per
quival ent
Ġcomp ati
mo unted
0 16
ap is
Ġ Select
Ġp ur
t re
Ġ/ \.
iz ard
res ses
b E
ç» Ħ
Ġswi per
48 9
F h
AC TION
Ġnormal ized
4 30
à¸ ĩ
è ±
ĠI con
b undle
] "===
G O
Ġz one
æ ·
request AnimationFrame
ĠK ami
4 67
â ´
Ġw ords
)/ (
Ġsh ift
à¤ ¨
rol lable
4 25
y ing
t return
Ġ{ \\
58 8
Sx DQUFD
80 5
Vis ibility
Ġman y
be hind
ĠP lugin
N umeric
pe ek
mo ving
A merica
trib utors
Ġj i
key frames
ĠF oo
Ġjo in
N AM
3 25
Set up
I w
S core
P g
Ġf ir
K n
cbi Aq
d j
Ġp ay
ve locity
(){ "
ra il
Ġst ored
Ġelem s
")) },
47 5
Ġre p
g lyph
h and
3 18
V QUF
to day
Ġ turn
IE W
59 5
P n
se qu
Ġ}; \
Ġcopy right
Ġtrans parent
di ri
HE LP
Ċ ĊĠĠĠĠĠĠĠĠĠĠĠĠĠĠĠĠĠĠĠĠĠĠĠĠĠĠĠ
ĠMODULE S
u kan
Ø ¡
ĠL ang
x z
Ġ Po
F ri
Ġfil tered
([ ],
Z z
SU B
Ġp lease
åĲ İ
ĠM MM
Ad ded
call s
12 34
mu dian
gener al
b alance
gest ure
G LOBAL
Comp osition
XC Ig
inner Width
SU CCESS
58 5
P W
âĢ Į
ĊĠĠĠĠĠĠĠĠĠĠĠĠ ĊĠĠĠĠĠĠĠĠĠĠĠ
thentic ated
éĻ ¤
ait u
Î ¼
status Text
S V
ĠC all
LF NBQ
is ti
} ());
Ġd ib
)( ?:
Ġne cessary
Ġp x
Dispatch er
Create d
last Child
ng content
la titude
(( (
ĠĠĠĠĠĠĠĠĠĠĠĠĠĠĠĠ ĠĠĠĠ
UN T
ĠB rowser
Ġp lot
Ï ħ
tific ate
27 1
)|| !
Ġin cluding
28 2
E H
BA SE
99 2
ca m
Ġmong oose
ing ga
/*! ************************************************
Ġst ats
pre serve
module Id
parent Element
48 5
ig gers
webpack Jsonp
æ ¬
And roid
P lan
ĠW RAP
ĠW indow
AC TI
aG Ug
28 1
Ġme asure
ar ing
co very
me s
Ġm b
ĊĊ ĊĠĠĠĠĠĠĠ
te l
Pri mary
m ust
F old
'] (
áĥĲ áĥ
Ġle ave
U J
Ġchar s
max imum
W n
Request ed
)}} )},
setRequest Header
Ġa z
A pr
; _
Ù Į
U b
max Height
ĠS to
345 67
40 3
Ġata s
pe dia
a si
Ġinst all
26 1
J ob
ĠV ector
template Loader
} [
Task s
T n
Ġgu ard
47 4
P ORT
Font Size
Ġh ot
"} .
E AC
por ter
ZW xl
par agraph
M IT
Ġad just
........ ........
LF FBQ
$ ('.
R u
(! !
' ll
P ie
=[ {
comp iler
Sum mary
_ /
Ġcal cul
o ice
YX Nz
E PS
rup t
å ŀ
O m
Ġkep ad
set Property
ro zen
min i
Com ments
éĿ ¢
Ġ ĊĠĠĠĠĠ
sh op
Ġp or
component Instance
gICAgICAgICAg ICB
Ġ=== ================================
Ġcorrespon ding
59 6
ma tic
)} ))},
Ab out
U X
u pa
For ward
MAT H
Ġ1 80
ta ined
Col lapsed
Ġ( ;
D ark
qq qq
Ġc trl
y ui
é Ľ
Ġ} }>
é ľ
Ġt t
TERN AL
AI L
)} ));
Ġpixel s
Ġb ers
SU PP
Ġo s
34 2
Q y
U a
Ġmen ye
uff le
V r
ï¸ ı
w l
ĠW ork
config uration
ç ľ
67 6
G n
v Li
re p
push Stack
re sp
ĠG raph
Fr ont
]) ).
ĠB ig
un e
Ġc tor
IN TE
3 17
Ġ" &
Ġe mbed
Ali as
Index Of
Ġimage s
I AL
X S
e th
ysi cs
Ï Ĥ
min imum
ĠO ver
A SE
åĩ º
id ent
array s
Ġro utes
M ON
G oogle
Ð¾ Ð½
Se g
F lat
TO P
T ex
åı ĳ
ar ti
Ú ©
** */
47 8
e u
Web kit
dic ates
HT TP
d D
trib ution
Ġflat ten
A sc
ç± »
J O
W allet
Ċĉ ĠĠĠĠĠĠĠĠĠĠĠĠĠĠĠĠĠĠĠ
c HJ
); "
() ));
CH AR
Conf lict
I r
68 4
28 3
Event Plugin
Z H
focus in
Pa ir
bound ing
e i
peri ment
Ġ[ `
static Style
77 6
Ġ6 1
Ġth ree
Q a
c wd
19 99
Ġcon trols
Ġne ver
Ġre peat
bad ge
ly phi
e at
Ġcorrect ly
ed u
ĠM an
Res olver
Ġfilter s
C md
Ġat tempt
67 2
ĠA R
] }},
- ]+
o op
g utter
69 8
Ġsup plied
C Y
X Fx
57 4
Ġre sp
es ting
ZX M
Ġf older
Ġcom b
ck s
48 4
G F
ĠD ocument
V UFB
f w
wr iter
å ¥
] '
v endor
org an
è® ¾
Ġsave d
er tion
Ġweek days
Cur rency
77 7
bG V
get Field
lyphi con
Re spon
th umbnail
ĠRe ad
m us
may be
w ic
inject or
q b
kdW xl
80 6
ac cordion
Ġpri mitive
adi ans
Ġ' *
Be havior
99 1
dis miss
S IGN
I W
èİ ·
34 34
38 1
de scriptor
x hc
B N
000 1
w ind
à ±
vis ual
Ġne gative
V irtual
En able
P lot
U k
Ġ* \
inner Height
JQUFJ LENBQUMs
Î »
s tit
ð Ŀ
Out er
ai ting
t z
Q r
M EN
Ġcl oned
50 3
AK w
Ġy aitu
touch end
P V
ii ii
flat ten
f ar
), \
ga ma
erarch y
ĠTr ue
Ġpage s
Ġde sign
é¡ µ
handle s
T ON
Ġinher it
ra ting
)) ||
ĠCh rome
æľ Ł
Or dinal
th ree
ĠFR OM
M r
Context Menu
RE S
m ui
sil ent
ä½ ¿
border Width
W o
:" "},
åĪ Ĺ
49 5
s cheme
]; \
Out side
data Types
+" _
ver bose
Date s
åĲ ¦
gra tion
da ting
Q Sx
Window s
Q l
49 4
)* (
date Format
Ġ1 12
Ġproto col
OR M
Ġpri ority
fa iled
Ġanim ate
tr ast
ĠM aha
id a
pe x
Dim ension
Ġfor Each
66 5
=' _
7 88
ĠDataTable s
decor ation
get Default
33 1
if ies
ĠN AME
) ]=
äº º
Ġplace ment
lip se
asm ine
on readystatechange
Ġexp r
âķ Ĳ
É Ļ
Ċ ĊĠĠĠĠ
de req
ook ies
pe ll
LIST S
Ġtrail ing
get Next
Full Screen
li min
w allet
pri mitive
Ġre export
ps ilon
W y
n om
(/ [
Ġline ar
67 7
=" <
QUE ST
Ġpa ir
P erson
() ],
ç ¨
")} },
æİ ¥
æ³ ķ
, /^
Ġset s
iter ia
ac ute
ro pe
Ġ Value
99 4
Ð¾Ð º
Sign ature
end ant
content Type
p ower
]) *
=" ${
ĠA s
ang ing
pa s
Ġstr ucture
s ys
374 18
cm Nl
instance s
Comp iler
à® ¾
æ ĥ
method Name
poly fill
ĠØ ³
zd HJ
Ġ2 50
Å Ł
â Ī
Z ml
Ġm illiseconds
qu ick
Ä ĥ
Ġre ceive
6 25
f H
Ġh al
property IsEnumerable
Number s
] >
Ig nore
Ġis NaN
Nav ig
Ac tivity
string s
'> ;
åĴ Į
ç ©
Ro und
UM ENT
c rop
Ġa gama
Ġp ula
TYP ES
67 5
)? |
sign al
Const ant
Y z
X l
Ġget s
y cle
ĠReact DOM
ä¼ ļ
AA C
qu ared
u ped
Comp leted
H ello
Ġ Ċĉ
ĠEx ample
() ===
}; \
ĠÐ ¼
om an
Ġ" ");
Me mory
j st
O a
at o
spe ctor
G l
") ||"
Sha re
":" /
!== !
J k
Ġh it
pro mpt
Ġ./ _
T ITLE
Or iginal
h v
Descript ors
tif act
ĠD E
Ġcomp leted
inner Text
Ġdocument ation
Vari ant
Ġcoun try
m ped
è ī
i co
); )
Z Z
config ure
56 56
Ġd d
D U
proto buf
Ġad min
ĠĠĠĠĠĠĠĠĠĠĠĠĠĠĠĠ ĠĠĠĠĠĠĠĠĠĠĠĠĠ
ind er
à¤ ķ
09 3
+" /
aj a
Ġe ar
P lane
await er
Re peat
regis try
H n
Ġse h
64 4
gui de
co ur
i ra
long DateFormat
ri ve
I k
p k
Ġh a
F UN
== ===
39 1
red it
ĠT emp
loy ee
re et
Q ur
0 14
la x
) ._
ĊĠĠĠĠĠĠĠĠĠĠĠĠĠĠĠĠ ĠĠ
P AGE
ĠF ound
Z s
w k
n ers
Ġe st
Ġ eng
St at
view er
ě [
get B
y r
5 37
touch move
Rl c
Ġobser ver
re v
à® ¤
ĠE X
Ø ·
\. ?|
Te am
J r
par s
M icrosoft
se gments
m g
Ġte am
is Def
FF F
× ¨
format ter
M U
Ġc x
md c
è °
cI l
ca ting
Vis ual
Ph ase
Ġf lush
ãģ «
en ces
36 3
," "),
JldHVy biB
ĠD rupal
FB QU
] ();
Ġc ast
Ġle bih
ch r
":" ",
TH E
ä¿ ¡
Pop over
W W
enc ry
Se q
initial ized
() `
é ķ
un ya
ä½ ľ
P D
(" ../../
Z r
Ty pography
M l
68 0
V ID
Ġ engine
N ONE
Ġber kata
; },
Dat abase
cI ix
Par tial
Ã ¸
Ġc ross
45 4
rea tive
Ġ\ ****************************************************************
S izing
Ġ1 60
. \"
P z
div id
K r
! ');
Ġm id
p kg
S ite
55 4
x r
Ġj e
Ġdown load
å± ±
Ġ Index
)) /
"}}, "
illise cond
:{ };
is Enabled
nÄ ł
j it
Th an
Ġex it
q L
h alf
Y G
kh ir
pay ment
ctu ally
Ġrequest ed
Ġ Content
out ube
AA AB
x Axis
Star ted
I v
no s
le ep
add To
FB O
Ġma pping
element Type
09 4
un juk
Ġfa ke
Ċĉ Ċĉĉ
Ġc ircle
Tra cker
ĠC allback
ud ent
regis tered
y ellow
Ċĉĉĉĉĉĉĉĉĉĉ ĉ
u Ly
Ġwr iter
Over ride
f onts
35 3
pos itory
y Axis
ĠXML HttpRequest
h sl
åĨ ħ
":{ }}
tim ers
Ġme an
'; \
ĠĠĠĠĠĠĠĠĠĠĠĠĠĠĠĠ ĠĠ
next Day
ag a
C LO
b h
normal ized
" }}),
col lision
J p
xu ICAgICAgICAg
j d
Ġgener ator
ãĤ ĭ
Ġ8 5
) !=
custom er
Ġscript s
re search
R el
j bG
match er
Ġun its
Ġb ot
m uted
04 38
sub scription
ma jor
u C
] <
: ',
] },"
47 6
force d
çĶ Ł
Ġte x
xml ns
Ance stor
ĠHE AP
un load
xu Ly
Ġte tapi
i q
c w
alt Key
ĠC tor
Ġfile Name
] ==
qual ity
Ġindex es
ÐµÐ½ Ð¸
éĹ ´
D ict
E G
ĠCh ange
(_ ,
b ir
mb ah
ĠWe akMap
åŃ ĺ
LT S
H P
CHAN GE
css Hooks
36 2
is es
White space
Ġl at
4 24
LO AT
ĊĠĠĠĠĠĠĠĠĠĠĠĠĠĠĠĠĠĠĠĠĠĠĠĠĠĠĠĠĠĠĠĠ ĠĠĠĠĠĠĠĠĠĠĠĠĠĠĠĠĠĠĠĠĠĠĠ
uni app
x FF
Ù į
BY TE
04 42
custom izer
E w
Ġh old
UP DATE
S r
Ġh ours
Ġse parator
Document Position
ĠF ind
O BJ
Ġs ang
Y mF
à¸ ¡
ĠS k
Ġse orang
at kan
Q D
ka X
Ġ í
ì Ĺ
68 5
Ġper mission
||[ ]).
ffic ient
38 2
new Value
E mp
on Drag
S izes
+ ":
sh ader
Q b
ĠM ed
Ð½ Ð¾
f ol
æ ¶
04 7
(/ %
Ã ª
est ed
X H
ti ally
te e
,[ -
Y u
× Ķ
)}} (
tur un
69 5
Re al
set Start
look behind
j r
(. *
: ()=>
ul lah
('_ '),
ĠR d
çł ģ
8 35
if ec
| (
Ġv ue
on Touch
49 67
version s
bul let
Ġre gexp
V C
4 37
Pr ism
Co ordinates
Ġ" ../../
ĠPar se
si e
re le
66 0
]) ]),
key words
uniform s
Fa ke
QUFDQ Sx
6 50
pre f
Ġmin imum
am ma
ai kan
Icon s
J ax
get Selected
Ġn umeric
U ID
ul o
dG h
Q w
sc al
f ac
Ġhigh light
g IG
h ow
gre es
alle l
à® °
com bo
' d
R B
pec tive
Ġdi ri
Ġ} ]);
ĠD rop
ild card
D n
Ġ7 3
Pr int
EB UG
c XG
open ed
T U
tag name
Ġal i
iter ate
ve al
yste ms
in verse
áĥ Ķ
ifec ycle
Se cret
w ill
font Family
M en
S lides
G RO
con c
F lex
à¸ µ
go to
ap ps
ĠRe served
type script
V I
- >
10 88
å½ ĵ
Ġter hadap
Inner HTML
:" .
5 25
> `
M AR
g z
POS ITION
æ º
ĠFire fox
text Align
SHO W
g ue
Ġph one
obser vable
Ġg ulp
SC RI
A f
Ġsource s
5 16
Event Target
j aG
ðŁ ĳ
ĊĠĠĠĠĠĠĠĠĠĠĠĠĠĠĠĠĠĠĠĠĠĠĠĠĠĠĠĠĠĠĠĠ ĠĠĠĠĠĠĠĠĠ
comp ose
Ġh orizontal
Ġset ter
Ġel m
Ġmay be
+" *
J d
B v
ĠI tem
trans fer
å° ı
Ð Ł
ĠCon verts
task s
Q z
M w
Ġ adding
font Weight
ffffffff ffffffff
PRO TO
Ġd ue
Ġm ix
Ġy y
ĠSer vice
d river
Ġ6 2
su k
HTML Element
Ġmod ifier
M b
Ġmemp er
Ch rome
start Container
] ].
69 4
)} ):
Ġconst ants
G S
Ġb ul
vari ables
de terminate
Ym xl
Ġ Ä
Ġ" :"
u ary
is ted
Ġst d
key press
Ġinst alled
a ir
M F
87 9
HR pb
ex isting
CON FIG
c amelCase
m illiseconds
Ġperbu atan
por ting
ke leton
response Type
Ġfin ish
", _
c H
Proto col
ro s
render ing
po sed
s napshot
ĠO per
à¸ ¥
='# '
red raw
Re lease
s ZW
Î ·
gICAgICAg IH
X a
Ġst ub
U HJ
Ġma th
Ġfail s
Â Ħ
Ġthis Arg
Ã ¨
C ent
ĠReference Error
B ubble
sc an
}` )
Ġseh ingga
RE CT
jq x
=[ ].
j YW
Ġ ,{
ubb les
f luid
() /
an o
CON ST
H older
(?: \\
get ter
Ġin di
Ġs al
ap r
k endo
V D
R r
ma h
ra se
post Message
Ġfire d
X r
Ġin dices
Ag greg
Number FormatSymbols
5 44
H y
ĠFace book
run ning
widget s
IHRoaX Mu
j j
pending Props
ĠT uhan
con sume
ĠP ass
Mo unted
By Name
ĠU tils
ĠM y
constra int
Ġme m
Ġ ))
49 0
Ġ' "+
Ġoffset s
tr ac
W ords
æĸĩ ä»¶
F w
n op
Ġn i
Propagation Stopped
4 26
55 2
S wi
current Value
Un do
br and
Ġb ook
LF d
Ġf o
Ġ que
Ġal tern
/*! ****************************************************************
UT TON
b on
n h
ĠÐ ·
Lat Lng
20 11
S orting
SS AGE
Â ĥ
Z Tog
09 6
? ',
p Y
_ :
04 40
ve y
f rag
&&! (
äº Ĩ
io us
57 0
Name d
T ap
4 32
post s
same Else
IT H
Ġregis tered
a ctor
IHRo ZSB
Pa irs
G i
ma le
data Source
IC d
attr ib
Ġtr ansport
ĠC or
Set ter
Ġsum mary
Ġfin ished
H yd
Option al
Ġpo sitive
Ġst at
> "+
Ġ( -
contain ment
T D
number s
w u
ed iting
ÐµÐ ¼
Th read
mo val
TR I
find Index
and a
ro les
34 1
Ġ20 13
{ }
() });
re generator
__ $
b ubble
++ ])
W V
60 2
ES C
A MP
mi ted
Ġt an
F ree
le ading
las tic
Vs ZW
Ġd u
ar ound
":" _
Ġd unia
ĠA ST
dis connect
TE ST
De code
uth y
x html
example s
ĠR ights
inter n
47 2
de velopment
\\ \
ĉĉĉĉ ĉĉ
ins pect
8 113
åľ °
ãģĹ ãģ
":" +
ä¸Ģ ä¸ª
x dW
su ffix
is Visible
ĠM ark
æ ´
V IEW
t one
Ġas set
get Id
og raph
man ifest
W heel
200 7
Run ner
Ġde legate
ex clude
', {
sh own
")) :
5 33
fe e
fire base
ì ł
æģ ¯
get First
80 1
O c
F allback
M AN
w ire
Ġb ranch
insert After
à¤ ¸
S ound
": _
\" ><
ĠCol lection
"," â
IN TER
Ġa ctually
on Close
Ques tion
readable State
C LE
window s
09 2
Ġex clude
wiki pedia
Ġre ply
wi LF
Book mark
ol l
arg v
si m
77 5
ä½¿ çĶ¨
s To
ĠIn finity
S N
56 1
ma ble
ĠL ine
Ġre store
sp in
ench mark
u B
A tom
In voke
ĠE S
ĠP ublic
59 1
Ġversion s
Ġlon ger
(" "),
R pc
Ġp at
h old
Ġre verse
Ġimplement ed
Ġqu o
INTE GER
U A
77 9
Ġinitial ised
a ff
ka W
)) )},
u FD
Ø¨ Ø±
Per mission
Ġde leted
Z o
107 37418
Ġcon tract
fade In
Mo ment
DO C
Ġ ------------------------------------------------------------------------
35 1
t v
'] ++;
Ġp ref
do y
allen ge
U v
over view
Sk ip
se curity
ĠSe arch
im ize
N F
=" -
row n
Orient ation
re try
ç ¡
au d
Ġse c
4 18
"] ["
STAT US
* !*\
"> {
pZiA o
] +=
; };
FB QUE
50 2
] ").
Vz L
N W
at ural
); (
u to
Ġa khir
b H
Ġbe st
Ġpi pe
NUM BER
Ġsh allow
CH E
AM D
Ġ ÙĤ
ul se
se quence
U sed
) :!
D an
N et
47 0
Ġ tin
ill s
Ġs core
pri v
ĠØ§ÙĦ ÙĦ
Bu f
OP TION
Ġc reating
Ċĉ ĠĠĠĠĠĠĠĠ
ra ise
channel s
G ap
ĠG roup
æł ¼
Constructor Return
J avaScript
per sist
é «
== '
m v
g ot
J K
set End
ab stract
ĠB SD
ubb led
pro d
min Height
88 9
s f
Bind ings
e W
rea ch
a C
Ġexec ution
Ġcheck box
tim ing
Ġf un
ĠS p
ĠD i
al lo
M ED
Out line
=/^ (?:
L AY
P atch
fa ctor
Ġcon verted
ver ters
45 45
Ms Q
5 11
' m
lo ur
F l
Ġcon cat
ĠC ard
66 2
> '+
XX XX
| '
67 4
lex er
last Day
L ookup
Ġs n
Ġcal c
Ġid s
B lack
20 48
K u
C art
([ [
Ġab ort
à® ©
E asing
z l
ãĥ Ī
wh at
- "
t an
è¿ Ļ
Ð¾Ð ±
lab s
clar ations
97 6
' %
u dd
J b
offset Top
Com bo
ck editor
į ç½®
k c
Ġ ent
at os
) </
]) ){
part ment
are st
Ġ7 6
=" "+
Ġf ooter
AR N
Ġseg ala
ĠCom mon
Ġb enar
é ĸ
al one
Bl ue
I x
H r
04 5
ct ype
V X
s cheduler
***! *\
Ġw on
to k
40 2
Lib rary
Ġ*/ )
Ag Q
r and
bind ings
getOwnProperty Names
Ċĉĉĉĉ Ċĉĉĉ
89 8
fe ed
ĠS u
R AN
é ļ
ard own
re ceiver
Data Table
åı Ĥ
57 1
il ar
)/ .
åĮ ĸ
} ${
TE NT
èİ· åıĸ
Ġ$ ("
) `
begin Path
ck o
:" {
Ġpre view
Ġwork er
T uple
Ðº Ð°
Ġevent Name
Is In
Ùĳ Ùı
l ator
scoped Slots
R Q
4 20
Par sing
Ġ **/
O j
Ġkey board
è ¥
Ġad apter
B d
I SS
æĹ ı
4 13
return Value
anima tions
y u
V c
D c
Ġw allet
Ġd ist
_ $
** !*\
Ġj uga
Ġe mp
E o
requ ency
S K
() }},{
Ð ¡
Ġan ak
ad ditional
havi our
en vironment
th reshold
Ġuse Effect
Ã ¢
last Week
br ush
end ak
Ð Ĵ
Ġ8 8
gre p
B b
h ic
o auth
Se curity
Ġdirective s
ç Ł
Pa ste
[]+ [])[
Au g
present ation
7 87
20 21
Ġ Â
C ity
gan ization
Ġcur rency
Back end
next Week
UR N
Ð¾Ð ¼
á Ħ
---------------- --------
Inter action
IC ByZXR
j spb
Ã ½
Ġpo ol
v v
le y
ticip ant
Ġnode Name
æ »
E q
(" '
Su bject
f z
Ġ'../../ ../
pro viders
Ġext ensions
record s
åº ¦
Ġdata set
Ġac c
ĠÐ ±
readcr umb
he st
DI R
ĠE mber
Ġb umi
u di
ĠW HE
xt ures
Ġcon firm
54 6
è ¨
}} (),
Ae AB
X n
J T
get Style
---- --
s ca
H D
S cheduler
laku kan
Anim ate
anim ated
bl end
'); \
ER O
Ġbu ilt
CAA C
getah ui
ci pe
lations hip
Ġfi ber
F XY
ðŁ ĩ
get Type
same Day
ĠØ ±
Ġre po
line Height
ease In
Ġ ]),
E qu
Ġre cursive
Y r
Ġconst ant
acti vated
4 56
ti ka
under line
Qu eries
Ġgre ater
lu ck
Ġany thing
un set
Emit ted
Ġd ise
ĊĠĠ ĉĉ
(){ };
0 24
ba z
j adi
á ħ
handle Change
N m
0 55
\\ /
c j
el come
B k
+ ?
as an
Ġrecord s
I z
064 4
æĪ ·
D erived
] ]);
ĠOption al
Input s
Ġget All
Match er
36 1
j ul
89 6
C ED
ĠW EB
!+ []+
Zv cm
] ';
comp any
Ġin cludes
p seudos
right ness
Ġs py
4 27
Ġreturn ing
ĠSer ver
A re
unc ate
Ġ" ${
Ġmerge d
Ġtext area
Ġcom ments
Ġh alf
() ',
Ġfor ward
h w
re maining
W ID
Ġde tail
AT TRIB
ĠSh ow
ce pted
FXY q
ì ļ
ce eded
Pa use
Ġ> </
ys is
}) [
ul filled
Attach ment
Ġ9 5
Ġbl ur
min Date
ĠLa zy
Fail ure
Ġscroll ing
æĺ¯ åĲ¦
ING S
y ZW
ital ic
,{ },
dep loy
} \\
F ocused
Iter able
star ted
ITE M
Ø º
ĠNO TE
ig o
50 1
Ġbu ilder
ĠBu ild
to Locale
([ {
Ġuser Id
en o
get User
D AY
Pro jection
Effect s
el s
Sub scriber
G V
cm Vz
ser if
me ss
à¸ §
Ġs y
( :
44 1
Exp anded
format s
ĠMod al
' ",
possible ConstructorReturn
ĠU N
"," .
Ġz ip
compare DocumentPosition
ç ķ
Ax es
Ne gative
h ance
new s
Ġfa ctor
Ġ1 92
H alf
ĠM odel
OM E
Ġblock s
.$ {
XHR c
Ġmode ls
year s
IT S
ital ize
Ġg ive
Ġign ored
V BO
Mut ability
+ =(
MB OL
Ġencode URIComponent
ACs AKw
raw l
K w
mark up
L IN
Ġ[ ...
our se
20 10
UUFB U
) "},
Ġid entity
Ġw s
F it
De coder
; ">
ĉĉĉĉĉĉĉĉ ĉĉĉĉĉĉĉĉ
q o
v js
Q T
h k
sm art
4 38
u fe
å® ī
') ),
Ġ ĊĠĠĠĠ
Rot ate
", -
60 3
++ }
() ];
Trans lation
ch ai
Ro aX
à® ®
F N
P c
o ser
md x
YX Rh
44 6
se g
xuICAgICAgICAgICAg ICAg
me an
from Array
Y E
ì Ħ
Ġmeng h
ĠP a
Ari a
Ġindex Of
c redentials
\ ":[
Port al
work space
Ġ9 8
åħ ³
Ġclose d
Ġprocess ing
vers ation
l B
Ġ ĊĠ
Ġ7 9
," ").
mo s
ĠG ET
Con nected
UU FD
L TE
get Hours
Ġde mikian
n z
ĠF ield
Ġu uid
10101010 10101010
Ġ} .
super Class
mat ter
SP ACE
X i
ends With
FB V
L u
à¸ Ķ
Ġ| =
Ġfail ure
symbol s
+ ";
3 000
YX Rpb
current Page
h one
dc lo
I ss
"] [
ê ¸
B ranch
pe er
dclo udio
AT IVE
to ur
Ġp ull
R yaW
_ );
queue d
Ġ Query
ci pi
H ot
M m
se m
&& -
7 54
(( ?:
ĠThe re
/** \
C P
QUFF Q
vers al
M Q
(". "+
Ġ7 4
Ġp y
R ad
Ġus age
b all
Author ization
b or
Ġimmediate ly
Qu aternion
ou th
0 25
200 8
dir sV
4 40
^ =
ama zon
57 2
X o
(" %
Ġmin ute
with out
è® ¤
ĠCh art
fade Out
ĠCon vert
Ġe quivalent
ug ht
3333 33
Ġ Start
In f
éĢ ļ
ca ps
] :[
ID D
CONT RO
Ġro unded
qu ad
create Range
å¹ ´
E ST
Ä ģ
37 1
cur ry
b w
partial s
Ġass ume
h bG
byte Offset
Ġ Config
gre gate
æı Ĳ
ÑĢ Ð¸
= ((
k B
4 11
D K
vi te
ĠO ptions
li able
" '
******************************** ********
ĠO ut
enti fy
Ġd ark
Ġiter able
as in
Ġa st
\\ \",
IH sg
ZW Qg
æĢ §
Is Q
YW N
147 48
Con sumer
04 9
Member s
Y AA
(" {
ï¼ ī
Ġcop ies
al ker
c In
block quote
Av atar
i or
34567 89
655 36
87 8
ing er
ï¼ Ī
45 3
cla mp
className s
F g
T L
Ġ) \
Process ing
yx FQUFF
Al lah
Ġis Valid
ab b
Off ice
re at
Ġpre cision
]| [
Ġb undle
("-- ")]),
X QUF
in crement
Ġclick ed
E y
E O
star ting
dirsV dirsV
greed y
siz es
ĠB ar
k m
N u
read FileSync
Ġ7 1
Back drop
â Ļ
Def s
Me trics
jst ree
Ste ps
M p
K X
g un
Fy Z
Ġrepresent ation
g host
Q H
Ø§ Ùħ
Ġ[ ].
W H
Ġformat ted
Ð°Ð º
åı ·
t LS
COMM ENT
Mon itor
^^^^ ^^^^
4 34
Ġdisplay ed
h am
dim ensions
Ġra tio
Y C
Ġmul tip
margin Right
Ġst rip
Y U
di gest
ra b
H int
Ġc os
P resent
current Color
ĠLay out
B c
mp z
Ġco ords
Ã³ n
v y
cu ssion
D uplicate
ER S
at tle
P j
G b
() *
Ġ( _.
ACTI VE
on Select
Ġi alah
Ġh anya
Co ordinate
Ġwho le
YW Js
Track s
list s
Ġc ls
N w
R b
ym ce
in active
By ZX
ID s
xv YW
W b
clear Interval
fe edback
Û ¤
ult ure
6 64
\ ":{
OD Y
Ġexec uted
5 48
Ġb es
Ġf loating
([ ]);
k au
st one
Ġc over
Mark ers
In formation
Ġmark up
åį Ĺ
Ø ¶
Ġcomponent Did
Ġts lib
; /
Ġper iod
I b
de bounce
Ġor ient
ux V
Ġh ad
yl on
max Date
M h
ĠF a
j un
"] ',
||" ",
] ])
d CB
O o
/ ./
C OD
N ested
è¿ ĩ
ĠC ar
Pl us
V K
Ġca use
ynchron ous
ĠG o
arch ive
Mul tip
ĠC lient
Pe er
cho ol
Ġ/* !
L z
ab br
Ġqu ote
), [
fir mation
äº İ
Ġjq XHR
Ġa m
ĠÛ Ĺ
97 8
Ġba sic
ĊĠĠĠĠ ĉ
++ );
age d
Ġp ie
) >>>
Ġwr ong
number Of
) (),
Qu ad
Ġ... </
Ġhapp en
UL AR
dat atable
bb les
ously Set
V b
cbiAg ICAgICAgICAgICAgICAgICAgICAgICAg
C c
ĠDe termine
Ġre jected
lap sible
U x
E diting
16 77
Cla mped
80 3
ĠThe se
cm luZ
get Day
Scroll Top
LO C
al ysis
'] ['
Ġno tification
J u
éĩ ı
é Ĥ
I h
lo rer
e o
4 19
Ġ' ${
Ġpi cker
Ġa ble
gener ic
L r
)), !
Ġthrow s
Def initions
! ",
cG x
w id
pre load
writable State
r ub
g f
ĠAnd roid
mb ali
Mouse Down
clean up
Ġ20 14
w m
Ġ" ^
white space
mark ers
ĠM enu
Ġ( __
ãĤ ¹
4 12
}} )},
jQuery Interface
Ġe m
Ġ1 23
Ġr ad
S ugges
0 37
Ġtr iggered
47 3
K uxV
00 26
ab ric
ex act
do es
ust ed
up lex
ouslySet InnerHTML
st y
6 56
80 2
Frame s
ĠAu to
S quare
F b
W UFB
ĠB lob
V J
5 28
ĠF ilter
äº ĭ
ĠM on
6 37
Ġreg ular
n T
," ../
() }}),
url encoded
Col s
field set
curr Pos
()}, _
pro jection
p v
ÍıÍı ÍıÍı
Î º
) $/,
PL AY
de limiter
dyn Call
re w
data sets
refer rer
In spector
ĠI MP
replace With
m ute
per form
L g
ol ate
ME SSAGE
margin s
sp ot
n x
Ġ7 8
is Disabled
W T
context menu
a pa
, ,[
e ff
")) ),
( ${
Ġe q
TRANS ITION
12 00
Close d
E MPTY
si red
Ġ2 40
Sp inner
B ul
ig hest
Ġd en
ï¿½ï¿½ï¿½ï¿½ï¿½ï¿½ï¿½ï¿½ï¿½ï¿½ï¿½ï¿½ï¿½ï¿½ï¿½ï¿½ ï¿½ï¿½ï¿½ï¿½ï¿½ï¿½ï¿½ï¿½ï¿½ï¿½ï¿½ï¿½ï¿½ï¿½ï¿½ï¿½
Ġde ps
Ġma de
__ ||
0 39
S b
")]) ]),
ro pp
å§ ĭ
dom Node
native Event
Ġka fir
æ ®
Ġon to
prop Name
Ġ Header
ap pro
Ġindi cating
CL UD
CA LE
E m
der r
man ual
: \/\/
Ar c
tion al
Ġsen diri
LFFBQ VE
] });
Ð» Ð¸
Ġpoly fill
Ġ State
s ym
ri ed
Ġuse ful
è ģ
Ġs ay
divid ual
scale X
ĠP M
$/ ;
ä¼ ł
Post Loader
AN T
cho ice
Ġsuccess fully
n K
Ġd ash
Ġ' ').
un ion
index ed
B etween
il li
m utation
Ġag ent
product s
h m
]* ?
Graph ics
6 16
] &
oneOf Type
style PostLoader
get Model
de coder
Ġdoc Class
ì ŀ
v K
+" \
Serial izer
u ck
æī Ģ
no tes
on ical
v an
ĠM ul
f loating
s ider
Scroll ing
]* \
w alk
k ely
ng Model
Align ment
std out
(" )
ren ame
4 55
Of Week
bm V
E le
FBRU E
Ġ ĉĉĉ
Ġch rome
Ġd er
w D
é Ĵ
Data Source
Ġr x
R j
Parse Exact
\\\", \\\"
47 1
8 37
Service s
,_ ,
Î ¯
,,,,,,,, ,[-
div ider
?" ":"
Ġ{ /*
start Date
Ġhandle d
x or
4 35
Car ousel
get Content
x axis
ĊĠĠĠĠĠĠĠĠĠĠĠĠĠĠĠĠĠĠĠĠĠĠĠĠĠĠĠĠĠĠĠĠ ĠĠĠĠĠĠĠĠĠĠĠĠĠ
n once
4 66
ĠP O
mouse wheel
} )}),
IE LD
Ter m
Ġ4 48
Ġre pre
min us
Pri v
mo vie
is tic
Ġfrom Index
P DF
={ });
"] },{
à¤ ®
Or Callback
l bnR
ĠAl low
Ġinitial ized
Remove d
RE QUEST
Ġ' (
ë ¡
=' "+
Ġ} ];
B UTTON
Ġ question
* .
(" ;
âķĲ âķĲ
ĠO bser
n m
Ġu id
Ġ'. '
HB vcn
97 5
pex charts
Ġf loor
eng er
sub title
ĠEx ec
Command s
G y
æŁ ¥
4 10
P tr
Ġ Post
comp arator
4 57
K b
99 3
V N
){ _
Imp lement
88 7
æ ĵ
ur a
Array s
im ana
Event Type
è± ¡
P RI
Ġbyte Length
( ++
67 1
åŃ Ĳ
n es
w v
}, [
ard s
S X
us age
Ġter se
Ġse en
Ġgo od
5 15
]) ||
1 0000
4 39
Ġtake s
) ();
6 24
" <
Ġ# #
ĠP USH
if at
Ġm m
I frame
48 2
m irror
z dGF
k v
bn Q
Ġmap ped
Ġse d
Ġ3 60
pol icy
CO UNT
ungguh nya
pageY Offset
EAA Q
ON T
J QU
Ġen um
ser tion
U y
u dG
4 59
> ;
even odd
",[ ["
] ['
å· ŀ
K AI
C atch
sh im
Ġcap tion
fe b
d g
T ail
zM zM
-- ){
Pi ck
P b
no Conflict
] /,
58 3
T ABLE
Ġpartial s
comp ressed
with Credentials
Ordinal Parse
l ify
Un icode
E b
Process or
U w
Ġtask s
In te
å ķ
5 35
li te
M N
OP EN
68 3
an onymous
Ã ´
Ġout line
mF t
yd CB
ĠSc roll
Ijo i
Con sole
account s
Ð½ Ð¸
property Name
Ma ster
J H
get P
éĥ ¨
Ġsh own
09 8
i h
set Option
g row
5 20
åĬ Ł
Ġre duce
ĠMe thod
Ġb id
åħ ĥ
uc y
Ġs it
ĠJ o
67 0
Ġattach ed
4 60
set Interval
sele cting
tra iling
dis allowed
F Q
()} )},
% "
Ġ6 00
z u
() ",
6 10
å» º
ĠLo ad
sibl ings
oc al
Pro por
à¤ Ĥ
E h
AHg AeAB
\ \"
"=== (
4 33
sh i
4 15
Ġconst ra
à¸ Ĺ
Receive Props
({ });
end a
To Show
48 1
token ize
red o
b anner
CLUD ING
n w
07 8
Ġdoc s
Ġ ancestor
Clear Timeout
J m
áŁ Ĵ
46 2
Ġb el
ĠP ath
("./ _
S quared
ĠT Y
log out
po sitions
x m
Nv bG
ĠS ta
Bu cket
O X
Spec ial
Us age
mod ifier
Ġcheck s
c C
ease Out
intern ational
Zm Zm
' ve
Y our
Ġf it
Z QUF
Ġl iteral
ãģ §
67 3
if def
Ġbe come
V d
56 2
Ġp ast
Ã ±
Ġj a
ĠP e
6 38
th rottle
Un safe
us ion
Ġ_ =
g allery
man tic
offset X
to Object
H it
G re
Pixel s
state Mutability
ĠR outer
O s
FAI L
th ird
}) ","$
tri angle
è®¾ ç½®
T u
Ġv olume
Sha red
)) ).
Web pack
Ġ Point
E v
xx xx
":" {
ĠD ATA
Ġpro blem
Ġmargin Top
getProperty Value
or ary
ĠS a
D EBUG
=" "
x g
cover age
Ġst age
Co uld
Ð¾Ð ³
is k
Ġ$ $.
Ñ ī
mm ar
s anitize
Ġ ing
Test s
ĠDis trict
FBQyxDQUFD O
c ance
Ġun less
} ){
Month OrdinalParse
]? \
ĠMus a
SY MBOL
Ġno tify
Comp osite
69 2
+ ","+
Ġs orting
Qj tBQU
Y A
me tric
RE F
5 14
B p
e ch
% {
àµ į
k at
or i
E I
padding Right
TI AL
"} ).
Ġun known
Ġc luster
Man ifest
64 3
Ġ testing
]+ /
bl click
Ġd it
$ ,
Ġcompati bility
65 3
77 4
Ġbound ing
ro unded
Ġc t
dW x
te ctor
et s
XCIs XG
m illisecond
k al
Re q
Ã ¦
:' <
j peg
Ġchar set
58 2
Un der
stroke Width
tr ansp
Ġdi ber
åŀ ĭ
âĤ Ĵ
d on
L ive
DI V
//////////////////////////////// ////////////////////////////////
tr in
Ġas sets
Ġser ta
IN IT
Ġh ome
am u
Ri pple
get Config
b z
Ġcon tributors
Fin ish
ãĤ ¤
ques tions
Ġsu ffix
def initions
ca mp
={ (
pass ive
next Effect
Ġresource s
Ġac cumulator
V W
åŁ İ
le cted
å ģ
ĠT R
RE GE
6 36
st retch
Ġh ati
int ro
Sm all
h Z
re c
man y
54 2
F ar
Ġa sc
è¿ Ķ
comp leted
Ġc fg
b box
Ġdi per
b roadcast
ztBQU VBO
set Date
Ġp kg
s B
ìĿ ´
fd m
Q x
Ð ¶
Re ceived
os ing
XML HttpRequest
u tions
Ġre stri
ĊĊĉ ĠĠĠĠĠĠĠ
ati ble
to a
T B
Ġproper ly
theme s
04 1
ĠH ow
CA TE
Ġvis ibility
Ġi o
in c
ĊĊ ĊĠĠĠĠĠ
Ġassign ed
prefix Cls
Sta ge
Ġis F
è¾ ĵ
× Ĳ
iz ations
(? =
__[ \"
exp ires
Ðµ Ñģ
T l
Ġre load
7 97
lips is
vi a
Inter section
ee ded
getOwnProperty Descriptors
Sort able
Style d
áĥĶ áĥ
Percent age
py thon
i ch
D l
Ġ ÙĨ
format ted
Ġtype d
5 13
"," _
," .
bo th
g ree
ex tr
M X
b ri
Ġter ms
AT TR
z ed
ON G
a head
ĠAdd s
cs v
u ZW
Ġ20 17
à® ª
U sing
è ĭ
sk ew
6 39
c losing
os en
Ġse gments
)- (
< \/
__ :
f SB
K h
Ġ Container
C ube
D igit
xuIC og
| ^
se ctions
åħ ¨
(" __
TH OD
fire Event
D igits
5 34
le ctor
In s
Ġb ra
Destroy ed
C lean
ĠG ame
4 17
- ${
event Type
Ġrect angle
Ġ10 7
S q
ĠSto re
C w
Ġmo bile
Ġselector s
AC AA
è· ¯
si h
56 3
S Q
IN FO
Nav bar
6 11
F lash
CA w
G A
ate way
g od
any ak
% "),
_ ":"
&&( (
Ġ` '
SU FD
abi la
j l
f Sx
F LOAT
s co
Ġ tip
() +"
Ġke h
ĠST ATE
a pexcharts
69 1
Ġ answer
s late
ang ent
ĠD O
9 68
(" ="
IH R
prop Hooks
' </
p ure
TRIB UT
57 3
Ġde pend
4 36
An sw
V Q
çĽ ®
Ġan notation
Ġstate s
cord ing
7 18
v bG
bu y
TR ACT
b v
Ġ( $.
Ġtab index
SD K
Pre cision
ext ent
Ġ utf
mit ted
bu at
componentDid Mount
P s
C ross
r p
sub array
)) +
," \\
AS K
=' "
), $
J F
=" .
Ø ¦
99 0
m cm
pa ger
sca yt
ICA vLy
Fil ename
Ġterse but
ph en
Registration Names
implement ation
Ġ} (
rele vance
re ceive
if fi
E p
ersist ent
- _
to Match
:! !
ax es
Po sitive
(" ("
Ġw a
lu de
Ġ'- '
Selector s
to s
on Before
QUFDQ Ts
59 3
G Y
Ġ8 1
ç Ĭ
Re ply
Ġs us
T m
44 2
o res
ĠS izzle
dic ators
ĠM in
åĲ Ī
k x
To ast
" +"
Or Default
ACsAKw Ar
M ag
Ġti m
ly ing
Ġd uplicate
ĠS ET
IC T
umn ya
Ġb lack
stru ctions
Ġclean up
ĠC H
P ur
DQUFD O
inter faces
raw Name
ĠHt tp
X I
res olution
OR DER
Ġe c
M illiseconds
Ġs yntax
inher ited
RE T
Ġla gi
77 2
Ġlog ic
," ");
Ġd st
offset Y
Run ning
Le af
ĠEd itor
Str uct
Ġco ordinate
U mV
u X
45 1
c as
Ġman ager
de leted
Ð°Ð ¹
' /
":[ [
sen ting
j g
Ġver tices
w ar
is Horizontal
Ġfr ont
OBJ ECT
Ġ Id
~~ ~~
ç ¦
",{" _
ĠM at
Click ed
celer ation
ne g
request s
Ġl arge
MI SS
d ense
termin al
Ġtarget s
Tr an
Ò ¯
Water Mark
") +(
55 3
TtBQU NB
uplic ates
leg acy
Script s
Ċĉ ĊĉĊ
Ġhandle Obj
Vj dG
Code Mirror
Middle ware
Ġ}) ();
react Internal
to graphic
V p
are r
LFV BQV
)}, "
y outube
common s
` \
ĠG rid
0000000000000000 0000000000000000
read Int
ca ya
T d
w an
Ġ â
f mt
scale Y
translate Y
add Dependency
Swi pe
09 7
L IGHT
log s
N ER
Ġb etter
By ZW
Assign ment
li hat
i er
U F
14748 364
O ps
Ed ges
v XG
is ons
D y
b and
ac le
ci te
get Root
) ])
i pe
Ġ/ ></
Ġoccur red
5 49
Ð°Ð ·
å¦Ĥ æŀľ
gle w
T ODO
5 27
ãģ ¯
Z Sh
it tle
XHRcd H
Event Handler
Or g
$ &
t pl
or ange
b ro
å¤ ļ
æŃ £
RQUF R
ARI ABLE
à¸ ¢
64 2
stack ed
Le ss
type d
Ġ ĊĠĠĠĠĠĠĠĠĠĠĠĠĠĠĠ
] )}}
Ġstatic RenderFns
is Shown
Th rough
Ġvar s
fn s
Ch arts
ëĭ ¤
to c
Ġ ÑĢ
tin a
au ge
Ø§ Ø¹
Ġto do
h j
Ġcommand s
isEmpty Object
LEVBQUUs Q
entifi ers
Ġst eps
Background Color
Bo otstrap
8 33
Ġ( $(
(" "+
Ġph ase
fab ric
Un expected
ha W
æĽ ´
F d
25 25
de queue
NE SS
Check er
Bh Y
process ing
97 1
Ġ8 9
à¦ ¾
ĠD an
66 3
Form Data
set Text
Ġpre pare
Ġf all
S lash
f S
FOR MAT
lm nop
Ġc ent
j ac
CHE CK
Normal s
)) ))
cla im
Ġ Éµ
Str ip
limit ers
M W
å½ ķ
Ġstar ted
K l
i ces
66 1
Data Type
I TED
("^ "+
Ġtr an
comp iled
5 26
ĠS chema
))} (
L IC
J g
" })
[" [
make Array
Ġa ir
çī ĩ
User name
Ġsub scription
Ġs ap
=[ ]),
ak tu
F ee
åıĤ æķ°
ui Dialog
ĠS ome
is Loading
UR ATION
TQUF T
PO SE
Ð°Ð ´
ĠL IM
04 6
F igure
ISO String
s ocial
/ )
97 9
Ġdim ension
× ľ
KF wi
get S
5 47
transition end
Dash board
default Prevented
à¸ ´
Ġstate ment
RE G
å· ²
Ġtr ace
å ¢
Ġ1 44
In cident
Ġstart s
Ġh olders
w dX
ti ca
8 57
7 14
v u
Ġ8 3
mo o
Ġde pendency
u ib
work InProgress
Ġ1 11
a le
LI ED
& ":
id le
pro v
WID TH
page Size
top Level
\":{ \"
7 89
N X
ĠS ave
ER Y
y ri
åĬ ¡
m ixed
v ron
èĬ Ĥ
B undle
AA B
it ab
Y L
w ysi
al lax
ti e
à® Ł
par ty
Schedule d
sug ges
lo o
à¸ Ħ
YW Nr
date s
Ġu int
Ġ geo
er ce
is a
Ġobser vable
ĠFound ation
Õ ¡
PRE FIX
h ue
ç ³
te lah
NAM ES
Ġlist en
d w
fill Color
5 30
S un
LFNBQ V
Ġon Error
45 2
Ðº Ð¸
Lo go
à¥ Ģ
6666 67
quo ted
Ġi p
dire ctory
ÙĬ ÙĪ
I c
CON N
f h
handle Obj
å® ¹
; '
je las
Ġ8 4
reg ular
iv ot
ĠDe lete
RT C
(" >
el t
ĠP r
stroke Style
la k
Z Sx
sh rink
68 2
ĀĀĀĀĀĀĀĀĀĀĀĀĀĀĀĀĀĀĀĀĀĀĀĀĀĀĀĀĀĀĀĀĀĀĀĀĀĀĀĀĀĀĀĀĀĀĀĀĀĀĀĀĀĀĀĀĀĀĀĀĀĀĀĀ ĀĀĀĀĀĀĀĀĀĀĀĀĀĀĀĀĀĀĀĀĀĀĀĀĀĀĀĀĀĀĀĀĀĀĀĀĀĀĀĀĀĀĀĀĀĀĀĀĀĀĀĀĀĀĀĀĀĀĀĀĀĀĀĀ
)) |
A sia
dGlv bn
ĠA ction
F G
Â °
5 10
v p
Ġv endor
ĠDe veloperError
Ter min
tem ber
Map s
Ġc redentials
k ut
Source s
cbiAg IC
Ġencode d
sh ell
ĠWEB PACK
à¦ °
Ġsu atu
be e
ãĤ ¯
tin u
Ġserial ize
Ġ àª
N L
sort By
æ Ħ
54 3
Ġcon nected
ĊĠĠĠĠĠĠ ĊĠĠĠĠĠ
S I
pay able
å¯¹ è±¡
Per missions
ect ors
ul ah
ĠRasul ullah
4 99
en a
Ġcom bin
ung an
D u
W A
Ġchunk s
pres sed
Ġ], \
T X
Qk FD
04 41
éľ Ģ
u FE
h E
D s
FB Y
ĠA ng
YXJ n
T hi
ä¸ ľ
lan es
n p
Ù ¾
I LE
HELP URL
y k
translate X
Ġ8 2
, #
RE SU
a ur
ĠH ash
OP ER
P u
Ġeval uate
Ġf rag
Table s
y c
pi v
Sur face
} )}}
429 4967
ĠH elper
_ '
ATTRIB UTE
Ġ20 20
ĠV AR
ip her
æľ Ģ
ĠRemove s
M er
Ġaz ab
Ġp ow
Normal izer
row se
)) ):
5 18
ĠEvent Emitter
Ġs pa
Ġpro cessed
ang les
69 0
Ġs im
ĠG lobal
wrapper State
e lectron
Mi me
Ġoper ations
g X
locale Data
D M
ĠS ign
co ordinate
c ial
Ġen ough
the re
is Defined
ma gn
Ġinf inite
Error Message
e E
ch ine
un ity
J w
Ġes caped
Ġre try
s In
Ġsub Class
Ġmend apat
d st
06 3
ĠÃ ł
get Document
6 32
Ġrepre senting
on Update
K CB
CON TENT
ĠS ystem
lo cations
ĠS IG
Z u
04 0
," <
Ġun iform
day Names
s x
z f
st ors
v f
un a
get Cell
Ij pb
je st
Ġexplicit ly
46 3
Ġm al
Ġwe ight
Vud C
/ ;
for ma
g as
Ġyear s
Search Params
(?:[ ^
List s
íķ ĺ
ch ase
E c
"," /
set Selection
97 0
h im
Ġs lides
V P
åħ ¶
LEV BQ
Re verse
Z Tt
mx Utils
LEVBQU U
p at
80 80
Ġf ocused
( \'
b ing
Ġf lip
allo on
064 5
q cy
Ð½ Ñĭ
m di
, _.
Ġ' --
L A
)); \
88 4
Ġ8 7
m or
an alytics
file Path
is XML
a wa
be havior
5 32
Ġ{ $
la ps
id o
R R
sc r
forward Ref
Vu Z
Ġm r
read UInt
, ",
Ġtent ang
on Focus
Ġd ol
Ġde ploy
Ġh idup
âĢĭâĢĭ âĢĭâĢĭ
queue Hooks
md l
ĠAn y
cc c
Ġ: :
d RegistrationNames
è Ļ
con t
G U
é ĵ
( ({
â´ °
Ġp ot
Se ts
48 3
Ġh y
start Offset
5 17
De c
border Top
Re po
te or
Ġpe t
Ġter min
Ġvis it
áŀ ¶
Mode ls
Ġcre ation
Ġra sul
æ² »
Ve locity
ĠRE ACT
c ube
200 6
Y l
) ");
opt group
ÂłÂłÂłÂł ÂłÂłÂłÂł
RO P
. ')
éĩ į
A ct
Ġc ome
get Input
Ġh andling
G C
Ġs ql
FI L
P TION
s al
dom Props
& =
7 36
49 2
:% ?
Ġcor ner
j ump
uc ers
FIN ITY
on Load
Ġbl ue
W ed
// !
get View
pro j
), _=
LF l
appear ance
O iA
Cal cul
t vec
on al
Ġc rypto
Pa used
5 29
F oo
p al
play ing
State ToProps
L mpz
ãĥ «
## #
5 64
Ġ8 6
With in
Ġserial ized
anti ate
is ation
cut s
06 25
}} </
); },
data grid
) &
æ± Ĥ
Z b
r st
è¿Ķ åĽŀ
] :"
bu ilt
container Info
ĊĠĠĠĠĠĠĠĠĠĠĠĠĠĠĠĠĠĠĠĠĠĠĠĠĠĠĠĠĠĠĠĠ ĠĠĠĠĠĠĠĠĠĠĠĠĠĠĠĠĠĠĠĠĠĠĠĠĠĠĠ
Mod ify
u F
FFFF FFFF
imp licit
Active Class
Y w
Ġcomp iler
se en
hic le
j v
Ġr ate
Y V
={ [
Event Listeners
ĠÐ½ Ð°
a imana
is Un
F inal
Ġcomp ose
Nl bG
g ender
T en
s ol
ĠP UR
focus out
} )}},
ad or
P hoto
ĠP ART
46 1
U z
bu cket
Bo ard
L b
ä» £
IA Ag
listen To
J ECTION
ĠS tack
cI iB
; $
pre cation
inter action
ãģ Ł
I ST
Å Ĥ
Ġte ch
Ġe e
06 31
trin sic
Ġc lock
)( _
rol led
Qu ote
7 50
")} (
book mark
Ur ls
/ );
r pc
Ġa mp
ĊĠĠ ĊĠĠĠ
AC H
Ġ( ((
9 87
Y UFB
d an
Ġ1 27
Ġformat ter
current Element
Ġb us
Ġmember ikan
scroll ing
Ġ10 1
n an
77 0
Ġ9 2
Ġcompar isons
g IC
å® ŀ
pi cture
d ifference
ä¿¡ æģ¯
Ġme di
xuICAg IG
ad os
con trollers
5 19
Ġy e
åĩ ½
Ġj alan
H h
] ()
ĠT ag
5 68
no tifications
me trics
Ġ{} ));
Eu rope
Ñ Ĭ
Ġs imp
=" {
Ġb alance
Ġk ed
R ew
6 22
D p
Ã °
ub G
fol io
Ġsang at
DD A
use Effect
poly line
mon itor
sequ ent
O V
v ZGV
" &&(
äº Į
ZXJ zaW
||" ").
C u
L N
Propor tions
× ĳ
ZG l
her o
ÙĬ ÙĨ
S R
padding Left
è¥ ¿
des ktop
Ġ" (
Q A
Ġmen getahui
z w
Ġrange s
ç¼ ĸ
Le gacy
58 1
ì §
P ublish
back end
PO INT
ABLE D
mar ket
Dis able
($ $
Ġs wt
ali ases
T b
Pop per
m ig
v ant
PRO PER
` ](
ch an
Ii wi
ĠP DF
end Date
Ġcreate s
4 65
Ver tices
er ature
Ġp in
__*/ __
cG Vy
a E
Draw er
ke h
PL ACE
C ached
Ġbound ary
Ġa ge
get Option
d igit
pos al
BO X
cal cul
K SA
vi ation
get Instance
Pol ice
bu ffers
Text Field
Ġ=================================== ================================
l p
Rl X
A live
styles heet
Ġ20 19
(" \\
] "]=
i j
Ġcer tain
Ġar ity
T g
En ti
Ġgover ned
get In
(/ [\
K Sx
stroke Color
e qu
min or
ĠG L
######## ########
m q
Ġ Context
si mulate
a ign
Tri angle
W z
ĠRe gister
:" $
x vc
"), !
0 36
à¸ ª
base Url
mx Constants
AR G
selection Start
Ċĉĉĉ Ġ
pre tty
ĠF irst
h ZGVy
g lyphicon
:: -
Ġget Iteratee
) ":"
000 3
Ġ10 2
"}}, {
handle Click
Con verter
Ġma g
áĥĺ áĥ
ĠPUR POSE
B M
MP L
Ġd ates
co st
æ Ĥ
Mark down
4 22
get Length
ZXh wb
ce ptions
Ġs imul
7 57
out lined
object Spread
IH Rv
di vide
Res olution
Ry dW
6 17
ĠS P
Web Kit
sec ure
Open Layers
CRE ATE
get Position
m ce
o q
Jy b
ĠR ender
T A
de activate
Ð½ Ð°
ĠN UM
AB C
Find er
Ġjs hint
pipe s
fil er
7 12
Ġdo jo
obj Value
Ġ10 6
Ġdata Source
point ment
ë ¥
ol ong
Ġdefine Properties
Second ary
KAA K
u ti
time Stamp
ĠPro xy
jq XHR
èī ²
Ġglobal s
cor s
LF xuICB
Ġread able
Exec ution
Ġa o
(() =>{
Ġg ran
() )&&
B QUF
he ap
B AR
ra f
Ġk nown
enar io
é ª
Ġth ings
pre t
m B
Ċĉĉĉ ĠĠĠ
çĶ¨ æĪ·
G g
Ġal gorithm
× ŀ
mp lY
ĠA N
5 69
7 13
Ġis String
C ategories
Ġf ore
Fe edback
zL m
bab ly
Ġ" }
à® ²
Ġdim ensions
Ġbo otstrap
"/ ></
in validate
is Window
Ġ End
ĠA pi
attach ment
Ġf abric
s ti
CH I
Ġl atest
]= -
. +
O AA
Ö Ģ
P SA
icon Name
block ly
s amp
Ġs aja
Ġsepar ate
Ġp c
Ġbyte Offset
leaf let
Ġwork ing
ZX Ig
Ġ1 36
ĠTemp late
Ġs napshot
up un
Data set
ĠT ry
åĩ½ æķ°
Info s
F X
Ġc n
Ġdat ang
0 18
Ġmake s
67 1088
Content Loaded
focus able
RG BA
)} _
ga X
Ġpoly gon
f Y
align ment
Red u
Ġ{ (
draw er
Es Q
F wi
er ti
piv ot
AM AGE
is Date
or ing
mark ed
Ġsesu atu
Ġ2 24
Ġan imations
æ± Ł
Format ted
(?! \
QUFBQ TtBQU
79 8
x w
"/ ><
H Y
={ '
49 3
Ġ Property
Ġdocument s
createElement NS
cord ova
ku asa
MON TH
ge om
Ġno Assert
A ge
07 2
kr atos
Ñ ĺ
å ĭ
=' ']
core js
Ġgo ing
Ġma c
spec ific
") ("
sub menu
vance d
b ang
s olver
u u
Wrap ped
5 38
Ġpar sing
set Position
\" ;\
il le
(" &
ir y
Ġenti re
ç© º
comp act
Without Properties
Con vert
SO UR
Ġ9 1
pe m
val Hooks
cry pted
Ġto day
re vision
pp ings
j Y
Dire ct
âĢ Ķ
,[ ],"
mb da
! (!
Ġm utation
ah kan
set ter
ant t
Se e
åŃ ¦
ĠJ U
6 26
ld m
g A
8 18
F W
az ure
h C
po site
Ġli ve
> "),
A UTH
tal k
t var
Û Ĺ
ĠT er
Ġmove d
:[ .
Ġj spb
ĠØ ¯
Pref ilter
é« ĺ
J c
ë Ĭ
V ectors
on Blur
M ake
at t
Format s
04 32
å¤ ©
ĠM icrosoft
Ġclose st
F ore
r v
lu ZGV
ud c
play ers
g th
89 5
loc ate
IGlm ICh
ey J
09 0
))} )),
p XG
VVVV VVVV
&& _
ta k
an sion
Ġsem ua
k d
port al
DOM Node
no Error
Comp act
ç ¾
ĠSpec ify
6 20
p z
peri ence
S at
88 5
Or Undefined
De tection
è½ ½
As sets
Ġme sh
viron ments
! ../../../../
un link
st an
Str ucture
ab o
Ġp agination
å¹ ³
Ġfa de
Ġtemplate s
sta ff
q w
Base line
Ġ lock
Zn Jvb
com ma
( #
a ca
dom Element
Ġed ges
á ´
W ildcard
Col lision
Ab ort
re stri
65 2
264 0
danger ouslySetInnerHTML
pb XB
); -
ĠM ain
ĠIn valid
à¥ ģ
componentWill Mount
tur ing
MEN U
ON ENT
R QU
ĠK a
J P
b ag
64 1
U C
Document s
li a
é» ĺ
Ø§ Øª
Ap pear
åı¯ ä»¥
Ġto Integer
type def
"} )),
æĪ ĳ
ĠW r
ccl xu
ç» ĵ
Ġmember s
} ","
ê ³
Ġt abs
Week days
pe bbles
wait For
Ġtrans lation
ĠT ab
st ored
set Options
× ©
Dat atype
F QUFD
bo un
Ġscroll Top
R AD
first Effect
Ġ( );
Ġcur ve
< !
Au thenticated
SUPP ORT
49 1
Ġed itable
get Last
Ġter m
Not Found
064 6
ORM AL
âĸ ĳ
âĶĢâĶĢâĶĢâĶĢ âĶĢâĶĢâĶĢâĶĢ
week day
æ £
é¡ ¹
={ `
G est
78 5
æĶ ¹
> ').
Ang ular
Ġ1 19
pt s
Ġon click
IHtcbiAg ICB
æĿ ¥
W s
G reen
Ġin v
get Size
ag nos
ajax Settings
Gener ic
ç ¥
ul u
"," [
schema s
Ġf ar
AB ILITY
u z
o Settings
||{ }).
Ð Ŀ
æĹ¶ éĹ´
Ġpro pTypes
] ').
******************************** ************
iter ation
; _.
Ġ1 25
I AE
time zone
st reams
Ext end
ä¸ ī
B ot
Ġpro vides
VQUF V
ãģ ¾
changed Touches
mode s
Ġme la
has Data
send Message
ĠTrans form
3333 3333
. ")}
ui ck
à¤ ²
per mission
R g
s un
Ġ20 15
ref lect
GRO UP
es caped
Ġ2 000
B ODY
88 2
it ation
ab rupt
iz r
à¤ ¬
ĠRe source
Per Page
) ');
: ${
ve mber
AP E
79 2
ĠIMP LIED
5 50
5 39
* -
+" -"+
Ġgr ant
e j
Ġw aktu
Fu Z
Ġh am
un mount
pb md
264 2
j akan
ĠD AMAGE
bound ary
09 1
box Sizing
ĠB E
Ġin tern
OP Y
get Range
Ġma ster
Ġ1 30
con n
) ";
v ault
Capture d
N Q
s ch
ĠH ome
Ġac cording
s mooth
Thi ck
Ġd igits
Ġu a
Ġcomponent Name
yy y
): [
Ref s
ĠN ative
"> &
W AA
Qu o
ah an
200 5
ãģ Į
ĠCO MP
Re store
æĮ ĩ
high lighted
Â ·
w C
D ist
capture d
Ġb anyak
H u
te ardown
goo se
Ġ*/ }
qu a
9 38
ong o
De p
s andbox
è° ĥ
]||{ },
()} )),
Err noError
Ġtop ic
M c
h QUF
li very
re cogn
ĠC lear
add Child
Ċĉĉ Ġ
Ġver y
P B
Ġf ast
bG VtZW
ĠInitial ize
y axis
in ventory
set From
Ġp lane
K Q
fi ber
cour se
Ġke mbali
on line
LE S
ĠM ISS
ì Ľ
ysi cal
ĠÄ ĳ
O g
") ||(
a an
li mited
gK iB
temp ts
] )}),
C LI
fi xtures
wheel Delta
======== ====
ca ught
Ġ ON
) "+
Ġ roll
oo led
Ċĉ ĊĉĠ
[^ >
wi de
M Y
Ġdef er
cre te
SER V
to ISOString
le HBvcn
){ }}
Ġ1 14
," &
Ġch at
Ġthrow n
Ġc ubic
à® µ
K g
0 38
< (
Comp lex
create Event
fir med
åĪ Ļ
} "],
K W
S ING
ç¬ ¦
åı £
graph ql
Ġdrag gable
:" <
Ġ Ñĥ
:[ ]},
à¸ ļ
Ġtype dArray
Wr itable
R vd
Z k
start Angle
ĠMISS ING
# ","#
col group
VUFB V
å ¡
è ¢
20 110
Ġpro duction
wa iting
L s
V A
ĠRe set
content Window
aGlzL m
Ġ4 04
Cap tion
ya h
FBQ z
], (
ĠCo un
in ting
zd CB
anima ting
Ġs uc
V f
el ve
thentic ate
ĠTH IS
um l
Ġman ifest
Svg Icon
Track ing
f ly
g old
Ġcustom ize
è ª
LFd BQV
lib s
=/^ \
Ú ¯
qu antity
Ġ_ $
CL ICK
69 3
Document Fragment
k ZV
Ġeffect s
Oper ations
document Mode
Ġpa use
is ta
pattern s
Rl b
j ar
Ã µ
web ix
FFFF FF
tc cl
u at
Ġmar ket
Ġ} )),
Z ERO
ls o
DateTime Patterns
App end
ge ther
y M
ê¸ °
ave l
7 22
LE T
lu c
! ',
function al
") ?"
ĠS ince
in determinate
gr unt
); };
From Element
ul lable
ì ĭ
Ġ` /
55 1
[ --
object WithoutProperties
vel te
æ¨ ¡
L k
ĠS imple
ĠM a
Ġext ended
de serialize
f ancy
() )),
R c
a co
Ä ħ
block ed
8 34
{ };
Re siz
Ð° Ñģ
s z
Con ditions
04 2
Resolve d
Ġ/ =
sh aka
Nl c
mod ify
add on
es is
line Number
ne ar
Ġsw ap
y ou
cipi ent
ĠB a
user Data
]: (
}/ ${
State From
S im
ï ½
:[ ]}
Ġke tika
initial Value
U CH
([^ \
t foot
und ay
Ġ1 15
RUFB R
N d
× ª
Ġ{ ","
) <=
ĠC OPY
Ġse cret
ann ing
QUFDQ TtBQUNB
> )
ch i
mis sive
/* :
bW F
e mulate
ĠE l
Ġcomp lex
78 6
>> >=
0 19
Ġsha re
ro uped
Ġs ound
=" __
ĊĠĠ ĉĉĉ
Math Jax
G it
Con t
ĠB l
Work space
Ġ} )}
no ck
row Index
wa ve
su mable
ME THOD
import s
ĠI mp
av ail
offset Left
Ð°Ð ¼
pol l
padding Top
ge yB
Re try
ĠIs lam
he alth
Ġav atar
é»ĺ è®¤
] ++;
å¤ ±
es ri
Ġvis ual
inter section
Matches Selector
5 000
Z O
month Names
Key down
fail ure
led by
ĠPro ject
Ġp ower
åĪ ł
optim ize
mon goose
sc i
tr ap
\ ")
Sc ratch
Ġb abel
man age
c andidate
M R
is Integer
r um
Ġ(! _
Ġl t
w ater
un wrap
ê ²
7 15
m ic
Bu g
| "
Par agraph
ĠTool tip
] ?(
n B
å± ŀ
Ġbu kan
Key words
S TE
Ġb ig
S AA
w AA
z dG
tin ymce
Ġstatic Props
68 1
Ġum at
F m
list Item
è¾ĵ åħ¥
i u
Ġd ie
à¥ ĭ
K er
N ld
c reative
Spec ifier
ak s
FIL TER
Mod ifiers
ì Ĭ
Ġimport s
ĠK EY
8 26
88 88
R UN
åº Ķ
6 18
è ¶
Un able
Ġ Ùĩ
Ġwatch er
Th umb
Ã§ Ã£o
Ġ/^ (?:
trans lation
si ty
Ġ/ ><
Ġ5 000
J hY
Ġdif ference
Ġin crement
B IND
5 99
ĠF IT
sug gest
Fo ot
> ')
P seudo
Into View
5 60
è Ī
Immediate Propagation
Decor ator
old Value
q d
M id
is Ready
åĲ Į
H b
g wt
con s
54 1
kan nya
advance d
re lation
con trast
I AI
:{ }};
P k
Ġlink ed
iv ing
Ġgr unt
state ment
sin on
Ġ9 3
IL ON
ä¾ ĭ
77 1
ĠL ocal
draw Image
Ġbase Is
cI j
pos able
isArray Like
â Ħ
ĠĠĠĠĠĠĠĠĠĠĠĠĠĠĠĠ ĠĠĠĠĠĠ
ĠB UT
od G
c artesian
(); )
ks XG
Ġg t
Ġ10 5
aG lz
IGZ yb
æĭ ©
draw ing
re vert
om b
H uman
and o
Ġhar ta
q y
exec Command
20 28
Ġ ur
åĪ ¶
P ull
Ġr adio
ion ic
ĠPro perties
We akMap
get Scroll
Ñĥ Ð½
M ix
Ġmener angkan
Ġber buat
C k
Ġjo int
me ter
Ġtr i
ĠA x
Ġgr adient
":" ðŁ
ĠMed ia
ĠRe quire
Pro mpt
B id
SH ORT
RO LL
9 08
Ġ1 04
tra verse
tr on
Ġ1 90
no unce
MAR K
s R
ts x
F IELD
ãģ ¨
à§ į
unya i
abc def
è¿ Ľ
pri ate
89 4
ER CHAN
N eeded
V g
Ġtag Name
Ke ep
M H
ff ee
æĢ ģ
("# "+
maW xl
)? [
Ġhas Own
Z g
éĢī æĭ©
is Mounted
str al
Ġ/ >\
v x
F f
å ²
Content Type
sc lude
h g
Ġ Ã©
T ur
cross Domain
Ġke c
C lock
ĠIN JECTION
Ġt body
à¯ Ī
æ¶ Ī
]) ],
Key Press
GAA G
Ġa e
Ġ3 20
Tim ing
! '
Min us
aw ab
Sus pense
Bl ank
Ġh yd
Ġgu aran
Bad ge
6 15
Ġh h
get Minutes
å¤ Ħ
QUFFQ TtBQUNBO
in ing
Ġi OS
read ing
N c
F J
Ġre trieve
I ES
Ġ2 20
Ġr t
bra him
O E
Ġ1 16
Ġman ually
ao Columns
","- ","
D X
F c
J un
D w
` ).
] :{};
atter y
Å Ļ
touch ed
get Response
KC k
ĠLIM ITED
ti les
Ġprom ises
ia pa
Ġc ategories
Ġacti vate
Ġview s
Te ch
8 28
à¤ µ
Ġ --------
Drag ging
Ġproto Props
has Own
ĠA M
Ð°Ð ¿
Ġs heet
OL DER
R f
L etter
eW xl
as is
ng If
ĊĊĉ ĠĠĠĠĠ
cy A
q unit
ch oose
7 27
K c
5 22
rect angle
Ġre cur
Ġj query
IM AGE
y ZX
èĩª æ²»
replace ment
Ġt w
Ì ģ
S y
as n
ĠO UT
mer ce
Ġs ig
ĠEn sure
ĠForm at
ĠĠĠĠĠĠĠĠĠĠĠĠĠĠĠĠ ĠĠĠĠĠĠĠĠ
Co st
Ġs il
termin es
6 14
z aX
jelas kan
') ]
;;;; ;;;;
cn J
IC sg
6 99
rad ial
07 9
Ġorient ation
Ġpar tic
Ġ"- "
Ġbase Rest
C er
ĠCom mand
Pack et
style Sheet
Ġra ther
comp lex
Ġ[ ]).
ers pective
d td
Ġtemp at
Ï Ĩ
ĠLazy Wrapper
K nown
m f
] ["
ill ing
Ġ Status
Un named
Comp letion
e ast
å½ĵ åīį
no Assert
pl ural
89 3
Ġmember i
fig ure
Ġtop Level
è £
er i
ir cum
Ġalign ment
Ġgraph ql
K Y
ĠS E
I EB
Ġspace s
)) :"
ĠD raw
Fil tered
ator y
ta W
S ent
In side
ch alk
u Y
M ail
Ġres olver
ach es
cy an
F ollow
Ġvi rtual
Cor ner
ĠS te
Ġprevious ly
Ġaccount s
sub scriber
Ġdestroy ed
du ced
bir th
7 69
AR ROW
Ġau thentication
Ġre ceiver
") &&!
SIGN ED
Ġevery thing
Text area
Bu ffers
Ġenti ties
dot s
79 3
from Index
ee e
tran sitions
à¹ Ĵ
amazon aws
\" ],
ĠAc count
Ġc artesian
8 24
ok it
Ñĥ ÑĤ
get Component
frame work
Ġinvo cation
ĠD UP
m utable
Ġmargin Left
Enti ties
K R
n f
Highlight Rules
ra s
Ġmemp unyai
Ġ+ \
ãģ ª
Ġ layers
6 12
K iB
X HQ
cd k
Ġg ithub
66 67
C G
P m
ik mat
97 4
IHtcbiAg ICAg
n orth
ĠH igh
CHI LD
ĠCon st
dayOf MonthOrdinalParse
j Q
"}} },
Ġp ub
Ġpe er
int l
matrix World
is IE
wr itten
b oo
q x
tifi er
Widget s
utor ial
ĠD B
vertical Align
| [\
uc s
close Path
now rap
ĠAn imation
Ġ' `
Å «
8 40
U c
D river
")) &&
Ġakhir at
$ ("
click ed
m icrosoft
Ġu v
base line
in set
Key Up
Ġexpand o
Ġ') ');
delta Y
mm utable
Pipe line
q B
Re ason
Def er
Ġtick s
stri ke
X b
dmF sdW
con verters
= ",
O y
ëĭ Ī
ĠC urrent
inter polation
åĪł éĻ¤
cbiAgICAg IH
Ġde al
Re p
L AB
Ġ defineProperty
Is Im
n uniform
Ġs ibling
äºĭ ä»¶
pos it
ss r
di jit
m icro
C s
P ASS
d as
Ġth reshold
Ġstring ify
ĠAt tribute
)}} ]),
X h
)) *
ma suk
Ġc at
Ġs prite
d to
u Ijo
ar s
f ld
Ġreplace ment
fo g
oi ces
YX Rp
Ġke s
zL CJ
Ġemit ter
De mo
ERCHAN TAB
current Slide
Ġ' ,'
à »
ĠÐ¿ ÑĢ
9 28
ĠPro duct
Ġnative Event
Z B
m sie
}), (
Ġmo unted
Ġc p
ĠL LC
å° Ĩ
lab or
ĠJ an
dC QUF
pe ated
comm ended
(' $
im mediate
w f
Ġhas OwnProperty
â´° âµ
Ġ/^ \
æĪ ĸ
Ġ1 0000
({ '
vZ iB
Ġregis tration
is PropagationStopped
Ġ20 16
Valid ity
use Ref
Ġ Stream
ãĥ ĥ
Play ing
[]+[])[ +
js xs
65 1
DEFAULT S
remove Item
uIjo zLCJ
J J
20 29
ĠRe lease
File Path
night ly
2 14748364
} :{
resolve With
ç¡ ®
S cheme
Thick ness
te ams
ĠPART IC
Bo ol
nom bre
P ub
L in
native Element
Ġm ime
Ġpre serve
component Normalizer
Ġco ord
H and
ĉĉĉĉ ĉĉĉ
Ve ga
IHRoaX M
K s
table s
Ġun icode
æ¬ ¡
boun ced
Ġpe ople
ag o
c las
Ġs lug
am an
LEtBQUss Q
D h
(( [
S QL
Q h
cur acy
lo sure
el met
Ġcomponent Will
X L
+" ]
éĺ ³
+ ((
Ex isting
ui tem
D L
ĠD ire
RV S
Ġ[ ])
') (
ren gth
Ġissue s
inline Code
7 28
ĊĠĠĠĠ ĉĉ
ass erts
h on
9 29
Ġman ip
cl oned
:"- ",
6 35
0 28
ce D
po sitive
ABAA EAAQ
Y b
h bm
Ġbind ings
Ġwho se
0 131
ch k
ĠU RI
à¸ °
FBQ W
r is
Ġ Ag
]) (
s uite
5 67
ĊĠĠĠĠĠĠĠĠĠĠĠĠĠĠĠĠ ĠĠĠĠĠĠ
off ice
. `,
N f
Anim ated
.$ $.
DE P
X p
K B
Ġform Data
ä¿ Ŀ
get Token
":" <
Ġs andbox
Ġse s
ĠAng ular
20 100
ĠcomponentDid Mount
Ġcap ital
% ':
line Start
]* )
ur ations
pe ople
Î ³
, ","
9 84
)( [
Fa de
[" _
ao Data
w YXJ
ri ch
U h
T here
9 14
Ch oice
ĠW ith
registration Name
6 34
=== '
so uth
de pendency
ĠBo otstrap
sa f
Ġeng kau
ĠA DD
t k
la unch
Ġ_ ,
Doc s
get Key
ĠN ormal
Ġji ka
active Index
Ġth ird
qu arter
Copy right
87 2
77 3
Ġ". "
ĠTY PE
IH Jl
14 86
Ġ QUnit
an notations
ateg or
Map per
ĠD om
Reg ular
9 47
jac ent
Î ¬
[]]+ (!!
Ġs ik
E very
k ti
; }}
æ ¹
ĠD I
Th umbnail
avor ite
W ARN
col lect
label ledby
Ġw aiting
/** /*.
ĠRes ult
C aret
ĠJ oi
æ Ĵ
Ġse ek
Ġexp ose
( /*
v ol
copy right
or gs
object Mode
=[ [
Mg PSB
Ġexp anded
Ġde tach
Ġsh all
] ^
la cer
Ġs quare
]+ $/
get Index
jdGlvb iB
Ġs pe
") >-
? ","
ĠWIT H
componentWill ReceiveProps
p B
Ċĉ ĊĉĠĠĠ
XQUF X
spe ll
NvdXJj ZX
"}}, {"
vb W
Ġcol lapse
XB vbm
:" "}
stop ImmediatePropagation
Ġside bar
Ġ( "+
8 25
ĠRe sponse
Ġcol s
è ı
Ġhandle s
Ġpet unjuk
Ġf old
ust um
i lation
uk um
Match ing
WI SE
Ġbo ard
vc HRpb
Z c
Ġpass ing
// >>
Fin ished
De ps
IDD EN
RESU LT
8 48
SOUR CE
" _
RE MOVE
0 27
56 25
ĠA CTION
Ġbegin ning
FBT yx
pre set
tween s
Link ed
ab bre
write UInt
mb re
IG H
Ġinter action
ho le
e tag
sub scriptions
E V
0 26
} ))),
Ġ Vi
Ġget ting
b md
FUN CTION
0 29
bu ffered
Sta tics
cla red
Ġs lots
:// /./
F P
. )
Ġ1 40
0 35
Ġ/** */
repos itory
end Container
Ġcon sist
Q jt
ne cting
base d
6 28
Ġth read
spec ular
m C
lo od
No v
Ġin correct
75 2
Pixel Ratio
,, ,"
ĠGener ator
Ġg reen
' }}
0 34
FBS yxDQUFD
Tile s
P lainObject
IN FINITY
Set Timeout
Ġ' }
Ġback end
07 5
9 09
cmV ud
constra ints
U W
æ³ ¨
From String
R d
ou ch
ograph ic
vi o
ĠS w
ĠR ow
RE N
cG U
per missions
ka head
() ]
O B
ĠPARTIC ULAR
Ð¸ ÑĢ
f ed
}} ]),
Man ip
pbXB vcn
Ġm u
IF T
ë¡ ľ
res ence
Last Index
dd manager
margin Bottom
J W
] "
ĠLI ABILITY
w all
è¯ ķ
fri ca
at al
De tector
é¢ ĺ
FO UND
Ġth ing
á´ ¼
as pectRatio
Ġear ly
]) +
tim ate
get ById
OPTION S
d rain
Custom er
An imations
á´¼ áµĴ
Ġsuccess ful
h ZG
o x
40 96
áµĴ á´¼áµĴ
Buffer Geometry
convert To
Ġ' :'
bi tr
Iter ation
aX N
88 3
Over view
ca re
Ġshorth ands
als y
can Use
Ġper intah
Ġde tected
E sc
",[ ],
ERCHANTAB ILITY
) ('
Di ctionary
ä¹ ī
åĪĹ è¡¨
Ġp lan
Template s
SH A
8 55
ĠMus limin
Ġover rid
Ġcon struct
ĠExp r
g PSB
N ORMAL
me try
ĠM ar
re strict
F q
H c
ĠP haser
]+ \
/ [
10 23
} &
Ro les
H d
al bum
7 37
Ġs izes
à¸ «
HE IGHT
current User
Ġscroll bar
de e
8 17
LE R
08 5
7 67
M K
ext ended
(/ <
Ġ4 80
J E
spec ified
87 6
order s
vd m
ch ip
ê° Ģ
Ġb ro
Ġch r
Ġset Interval
OS F
r aries
4 31
s yn
i ro
ë ¦
Ġcon v
up dater
Derived StateFrom
Q V
as ci
Ġservice s
Jq ZWN
____ ____
` }
Se c
XY Z
O zt
ra tic
inst alled
I OS
xp Y
shape s
é ¦
ce p
0 33
ra ce
COD ES
à¤ Ł
v cm
cal ing
08 3
Ġpattern s
CONTRO LS
Õ ¥
th ick
ĊĠĠĠĠ ĊĠĠĠĠĠĠĠ
+ _
Ġ ĊĠĠĠĠĠĠĠĠĠĠĠĠĠĠĠĠĠĠĠ
":" ^
fV xu
un escape
":{ }},"
Q Y
ur an
IH Jlc
P v
pageX Offset
F un
se ll
] !=
Ġ ang
}> {
Ġdecor ators
ropp able
bG U
source Map
ĠA p
7 19
C OR
out side
U ES
6 13
good s
=" {{
ss l
IG lz
YX Jl
Ġ til
g mail
}/ >
str ategy
6 29
H A
è Ĳ
èĬĤ çĤ¹
get Active
ver ity
force Update
m w
enti ment
get Path
ĠAc cess
ĠS YS
7 24
æĪĲ åĬŁ
Ð ŀ
sto ck
à¸ ķ
T K
ai lab
ç¨ ĭ
Ġappro priate
)( \\
ĠFIT NESS
d ar
no tice
periment al
Ġli kely
handle Mouse
LFVBQV Us
un lock
Ġget Default
Ġ9 4
tr ip
78 1
ffff fff
Ġw p
," /
Ġjustify Content
vis itor
ac cumulator
Ä Ļ
17 590
8 04
AA c
aug ht
ĠCOPY RIGHT
Ġc li
(? =\
We st
Object URL
ĠD ay
m J
Ġ2 15
Ġ< >
7 84
Â Ļ
Ġbes ar
Ġpro jection
MD Aw
ĠS yntax
; ":
æĺ İ
under score
Ġparent Node
cook ies
:{ }},
\/ ?
Ġalign Items
Pl ural
Ġwr itten
ĠMo ck
Ġlog ged
h ub
Ġinvoke s
=_ (
ID Ag
Ġnew Obj
Â ļ
go ing
r il
Ġl alu
Ġy yyy
1 00000000
con version
09 5
context s
Acti vate
Ġo e
ĠclassName s
I EN
67 67
arti st
7 06
ĠM ERCHANTABILITY
Lock ed
S s
Context s
Ġor g
AL PH
* ",
Ġs calar
ĠD ialog
ÐµÐ ²
Ġac tivity
mp uan
po kemon
get Uint
QUFBQ Sx
u YW
Cre ator
iam Vj
(' ../../../
to Number
bG F
r g
Pa ren
om it
Ġsk in
' >\
comp atible
ĠisArray Like
Ġ(! $
QU I
bm Ft
Ġline Number
Ø§ Ø¨
al lation
Ġl g
helper Proportions
Un ary
bm Rl
Ġlog o
col span
set Immediate
ĠG MT
POS IT
98 5
DEF IN
ĠH ost
Ġke mudian
n P
is UTC
E psilon
i Display
C he
Ġkeb enar
p seudo
Start Time
Ġ à¦
04 34
y ang
è Ĥ
Ð¸ Ñģ
190 58
B ias
ĠA sync
error Message
pbm Rle
Answ er
ĠCol umn
Ġh aving
]+ )/
> |
ĠM atch
In serted
inv Cluster
track ing
i ti
../../ ../../../
D x
11 99
Ġqu eries
ZS wg
Strict Equal
QUFBQTtBQU FBO
}], ["
m fp
Ġoth ers
) "},{"
X Object
O VER
DateTime Symbols
5 23
Ġpro mpt
Ġfilter ing
Button Text
q p
ä¿ ®
àª ¾
Re lation
87 4
Ġ!! (
H s
EN S
N P
phase dRegistrationNames
xp c
. ".
))} ))}
Ġde velopment
Fe ed
Ġh and
IHtcbiAg ICAgICAg
A yat
8 32
Ġcol lision
o B
ler ance
te le
O d
answ ers
å £
() ?"
st encil
get Width
æĺ ¾
YW dl
j B
": $
comp letion
} ],"
Ġ --------------------------------
iso Week
5 66
Q cm
S ince
Ġn et
is Selected
"] ||
Z f
ĠA P
oper a
5 45
07 4
Ġcreate Element
Ġsrc Value
N M
Ġle gacy
ay at
aX Zl
åĽ ½
(" ?
T k
() :(
79 6
ĠWindow s
React Component
0 57
ul ting
document ation
Ġpercent age
Vis itor
+' </
matches Selector
7 44
Z w
i tion
border Left
ĠP L
enum s
i ku
is RTL
Z Index
ç Ħ
move s
Ġsamp ai
d ra
DOM ContentLoaded
FR OM
ĊĠĠĠĠĠĠĠĠĠĠĠĠĠĠĠĠĠĠĠĠĠĠĠĠĠĠĠĠĠĠĠĠ ĠĠĠĠĠĠĠĠĠĠĠĠĠĠĠĠĠ
Ġtry ing
7 17
TYP ED
jbG Fz
Sus pended
zd H
Cancel led
ĠM ax
t B
BYTE S
Ġm uch
"}), "
Image Data
86 3
se par
Mo ved
Ġrepresent s
_ ();
comp osing
0 77
p w
Constra ints
Ġcontent Type
Ġc losing
9 17
m h
Ġkey down
&&! !
U id
Comp at
ĠWe bGL
google apis
ĊĠĠĠĠĠĠĠĠĠĠĠĠĠĠĠĠĠĠĠĠĠĠĠĠĠĠĠĠĠĠĠĠ ĠĠĠĠĠĠĠĠĠĠĠĠĠĠĠĠĠĠĠĠĠĠĠĠĠĠĠĠĠĠĠ
ĠY ah
ynchron ously
sub Class
Ð¾Ð ¹
D URATION
f bW
7 58
Drag gable
T c
h ard
Ġsel alu
g Q
ICA q
88 6
X d
Mime Type
ĠIn ternal
FOR E
componentDid Update
go v
ìĹ Ĳ
exists Sync
Ġpay ment
(' ')
=" \
Ð½ Ñı
P ressed
s an
] ":
$ =
panel s
8 15
ãģ ĭ
e h
0 67
is tr
Exec ute
ç±» åŀĭ
Ġweb site
ĠBack bone
List ening
vide os
]] ]]
od s
Ġmax Width
] ');
las hes
éħ įç½®
ol on
Ï Į
Ġs atu
field Name
ĠL O
ãģ ķ
éĩ ĳ
sus pense
E ls
bug gy
S ti
Ġfont Weight
R adians
CON TEXT
Y B
7 05
cb m
L oose
RE AM
S orted
è Ĺ
sn ippet
iz ers
Ġ1 09
Ġmus yri
Ġimport ant
cept ors
Ġresponse s
9 89
pro mises
WU FD
8 16
run s
Ġro les
Ġup on
Ġnext Props
om in
getAttribute Node
ÙĪ ÙĦ
0 66
B OT
index es
Style Sheet
re jected
Ġal ong
Cor rect
Ii wic
ri m
O LE
componentWill Unmount
Ġ10 3
éľĢ è¦ģ
ĠTest s
]+ )\
R QUN
IC Ym
ìĿ Ħ
ts lib
Ġn ear
class names
Re jected
K NO
Ġin dicator
AW S
Sh ell
get X
Pa lette
9 37
Ġaccess or
à® ¯
M us
+ $/
Ġn b
16 384
lo s
Ġtra verse
IHt cblx
May be
inter active
Ġ Define
ren d
f k
éĶ Ļ
bo ot
adi i
Ġd ar
Ġin dividual
connect or
)+ '
depend ent
C losing
P w
I iB
ĠAu th
J R
Ð¾ Ñģ
)$/ .
Ġs uite
ensi ble
pac er
6 19
IN TERNAL
Pl umb
1677 72
Chunk s
Ġa ku
(? :"+
es c
Ġali ases
Ġg lob
ĠT w
pack et
UN SIGNED
ker nel
Ġres olution
Ġkey Code
IC ON
author ized
Ġhigh er
qu eries
Re c
10737418 23
}} };
intah kan
d raft
Ġqu ick
Ġsort able
Ġover write
w izard
No tes
Ġ( \
ãĤ ĵ
s low
]; "
0 32
comm end
S RC
4 21
lo ut
Ġin ten
track s
Sm art
Role Size
AA E
LF xuICAgICAgICAgICAg
Y x
32323232 32323232
Index ed
semb ly
n S
decode URIComponent
ĠT ree
6 58
sk y
This Initialized
}} }),
n cc
SE CON
ç§ °
Ġsh ader
) "),
Config s
is Element
Form Group
7 47
Ġl ittle
è¯· æ±Ĥ
Ċ Ċĉĉĉĉĉĉĉ
havi ors
B AB
ĠA UTH
æĹı èĩªæ²»
+ |
I TER
p itch
FBS yx
E W
Ġr u
G h
con trib
Ġsign al
max Length
stru cted
COL UM
Ġ"/ "
Tod ay
k ill
Ġ tail
(); }
Ġc ance
ĠP R
Ġcomb ine
Gener al
Full Name
adi tional
H k
t YX
ĠS W
Request AnimationFrame
") :"
G c
/ ?
Z A
P ut
"> ',
U j
jsonp Callback
Ġorder s
g hi
QkFB a
Ġ\" "
aaaaaaaa aaaaaaaa
Ä ĵ
Ġf t
Ġme mer
ĠHt ml
Ġre trie
. âĢĿ
__ ("./
p bn
Vy cm
n atural
å±ŀ æĢ§
," +
ph an
4 23
break points
pop ulate
current Style
à¤ ¤
ÉµÉµ element
9 44
Valid ators
xp bm
Ġprop Name
bG VzL
s T
OFF SET
THE ME
ĠM en
ĠPRO VID
` :
comp at
ĠDis play
AR CH
uni q
padding Bottom
ĠCL ASS
w dGlvbn
[ ,
Ġ Def
con cept
Ġde limiter
Q S
case s
Ġcheck ing
+ )\
side red
exp licit
V q
U d
int ent
cn t
URE S
Sx FQUFF
H L
O w
Ġmen ur
set Active
ARE A
Ġf x
Ġ Events
write Int
vi con
åı ĺ
ĠIter ator
ng doc
AT T
Tr y
8 36
dG Vt
Ġsh im
attribute Name
mime Type
start Of
l D
012 3456789
B old
Ġpath name
àª °
sp r
mac ro
fi xture
$ ('
me o
ib l
css Class
data Transfer
F lush
Ġs ym
ï »
me m
Ġb s
u y
time picker
a D
men uitem
H S
author ization
EPS ILON
O z
Ġ" !
W c
ĊĠĠĠĠ ĊĠĠĠĠĠĠĠĠĠĠĠ
c ubic
Ġch ai
)} )(
comb ine
N I
Ġm orph
)) [
QU AL
Ġse ll
ailab ility
Ġget Value
Ġg it
Ġde p
In clude
Ġ2 04
light s
o h
Ġtime line
" ";
6 33
outer HTML
di h
Ġ` %
Ġst ri
Ġfunction ality
Ġar ticle
Ġfir man
R vc
ĠDes cri
new line
Ġis Number
% ]
na ke
cip her
Se par
date Time
RU FD
? _
86 1
Fe b
Ġs udah
9 26
w riting
ĠO ne
Jy ZW
Ġh is
gICAgICAgICAgICAg ICAgICAgICAg
", ":
A st
' '
chunk s
ĠPop per
J f
Inject or
Ġf ri
J I
84 3
ĠBo x
P haser
on Complete
Ġ} ());
æĹ ł
W ITH
i ke
ãĥ¼ ãĥ
Ä Ł
8 58
9 88
200 1
le ctive
[\ ]
7 38
Î¿ Ïħ
qu ill
la tin
Ġt xt
6 59
ãĤ ·
get By
:" @
der n
9 04
Ġh ard
base State
Ap pro
F K
inf inite
Ġkepad anya
G w
T Z
Ġicon s
cei pt
on KeyDown
le ad
= ++
gICAgICAgICAgICAg ICAgICAg
0 59
format Date
G MT
sw ing
assert ThisInitialized
S oftware
ph rase
di es
6666 7
MO USE
UI LD
b el
æ· »
let s
Ġma king
po ch
æĺ¾ ç¤º
:' ',
v in
In crement
Ċĉĉĉĉĉĉĉĉĉĉ ĉĉ
Ġth rottle
run ner
Ġv s
isNull OrUndefined
create DocumentFragment
Ġp ress
Ġconfigure d
Ġexpression s
L arge
t g
Ġscope d
\\. |[^
form Data
Î Ń
Sign al
Ġfire base
9 25
term ined
Ġdir ty
Ġy a
li ca
React DOM
Ġproduct s
lo ss
Õ¡ Õ
ĠI brahim
du mp
on Start
Ġg a
ĠZ one
un supported
Ġ[ ['
8 97
Ġseb el
éĩ Į
X y
Navig ator
TRI STATE
ï¼ ģ
åĮ ħ
Ġcon sidered
st ers
ĠØ ´
Ġo t
b es
Ġc art
8 54
Ġequal ity
rag ma
O TE
,[ ,,"
\" .
ĠS hould
Bounding Box
ĠAb stract
ro gate
Ġw ire
R x
clus ion
ĠU P
F QU
[" __
merge d
off line
S ys
X Sw
Ġ Settings
Ġtext Align
79 0
d ont
xuICAg IC
] )):
Ġp df
(" ").
Re pository
æĶ ¯
Ġnavig ate
F p
ĠObser vable
") +")
get Row
ne gate
ver ti
,[ ]),
Ġar c
9 60
Ry YW
valid ators
Ġkebenar an
We ak
I ER
EN ER
12 07
g M
S ig
f Tt
col lapsible
Ġmiddle ware
ĠSource Index
ĠA lso
Ġiterate es
rop y
() :"
mx graph
of s
Mouse Event
Vs b
ffe cted
Sp ot
Ġwarn ings
L ANG
Ġold Value
KNO WN
Ġ\' '
5 80
Ġ heading
ur uh
ab a
Se ed
Ġtemplate Url
i to
.* ?
Z ip
Event Name
gb W
ng Class
ĠComp utes
P A
r ated
ZX Nz
man agement
:" (
7 48
Ġ$ ("<
14 14
sha ke
å ł
arn ya
kdWxl cy
D G
aGlzL n
Q v
Ġm ixin
ĠSt andard
Device s
à¹Ĵ à¹Ĵ
R w
sh arp
CON TRIBUT
N x
] */
7 20
Ġb t
Ú Ĩ
- $
Ġp u
V L
fri end
******************************** ****
pa que
Ġn y
ĠN g
handle Event
Ġ ht
IG J
Ġk ony
Ġsign ed
28 57
ĠEXP RESS
Ġb ubble
Ð°Ð ±
Ġpost s
Ġ'_ '
z g
isti ne
Qg PSB
ks ud
Q f
å ĸ
18 75
ĠIN CLUDING
Ġ ting
à¹ ģ
current Index
Ġsimp ly
ĠPROVID ED
Ġinstalled Modules
ĠC OL
Aggreg ation
Ġ1 13
UN SAFE
]/ .
1212121212121212 1212121212121212
7 10
J yx
Decor ation
Match ed
Ġre ally
Watch er
(" ",
Code Point
is s
On Click
Ġn or
K Sk
QU ERY
ud a
N H
is Node
78 2
ĠL et
? /
Y c
has Focus
C AP
Ġ/> ,
Cla zz
Sw ap
ce mber
Ġk el
Ġf ee
over write
> "],
9 58
ãģ Ĩ
Min ute
Ġo j
() ||(
start X
Ġ( /
Number Of
FBQ Sx
Ġ\" ),\
w A
ĠC alled
a led
In verse
Ġla titude
a side
); !
detach Event
* ,\
ĠC ancel
Vz c
Ċĉ ĠĠĠĠĠĠĠĠĠĠĠĠĠ
ĠB ound
H andling
me tal
che vron
Ġoffset Parent
j h
ap on
22 22
V x
IGNv bnN
b rightness
FR AG
ĠCon trol
delta X
Ġ2 88
R gb
)== (
_ ","
the ta
)} )).
ak ing
Ġbu cket
è Į
lang Dir
Ġs iapa
Ug PSB
Ġk al
s lash
wp ck
Ri ch
Call s
Ġfor ms
Ġ10 8
isS ame
vZHVs ZXM
çĬ ¶
Ġopen ed
Max imum
ue l
+" ."+
ncc wpck
ho use
))} );
ç Ī
Ø³ Øª
ç ģ
cap italize
K HR
be st
Con struct
Ġ[' $
con v
first Day
ĠJ e
Ġ'@ /
ãĤ ¿
NBQ W
Ter ms
LE VE
ĠS end
ĠDAMAGE S
C AAAA
]+ ?
k f
si x
b la
AAAAAAAAAAAAAAAAAAAAAAAAAAAAAAAA AAAAAAAAAAAAAAAAAAAAAAAAAAAAAAAA
te ed
Ker nel
mF sdW
7 29
Cap ability
ĠLo gin
Ġc i
q f
ëĬ Ķ
Ġ Position
Ġon Submit
Top ic
hover State
() \
---- ---
() >
âĶ Ĥ
á Ĩ
ĊĠĠĠĠĠĠĠĠĠĠĠĠĠĠĠĠ ĠĠĠĠĠĠĠĠĠĠĠĠ
Ġid entify
Ġ"* "
sp ark
ĠY ang
=/ [
mon o
7 56
Ġ1 76
SCRI PT
RE ACT
S ql
De ploy
B and
d igits
up on
Ġpro duce
Vz Ijpb
æŃ ¤
Pro viders
border Bottom
Ð Ķ
04 43
re start
à¤ ľ
ĠCON TRACT
Ġformat s
d HR
Gre ater
Ġlo ose
d blclick
Cy cle
J Y
é ł
in dicators
Ġmeng ing
ĠDrop down
ak u
ĠSe quelize
0 56
ĠØ ®
Descri ptions
Ġreplace d
Account s
s YXNz
]) ])
à« į
G ED
Ġ` _
æ·» åĬł
qqqq qqqq
O H
j QUF
Ġy t
M f
Ġat om
No tifications
", .
97 3
Ex ist
ÑĨ Ð¸
NE W
)) (
åĵ ģ
context Menu
)+ ")
le vels
79 5
ëĭĪ ëĭ¤
Ġw alk
Jy wg
7 16
è½ ¬
E z
Con tains
SA MP
__ );\
(" }
Sh arp
a ffix
9 69
n ah
process or
WOR D
L d
Ġ( +
7 49
scroll Width
}}, _
K z
d ummy
Connect or
æľ į
19 98
ĠV ER
++]; )
ty p
high WaterMark
JBQ W
b alloon
},{" ../
C d
Ġap abila
7 34
R oll
SH AD
cbiAgICAgICAgICAgICAg ICB
))} },{
Ġ` ,
T mFt
Web Socket
8 68
hi ps
Sh op
Ġsc ratch
bid i
* ?
cumul ate
âĢ ¦
OT OR
ang i
79 4
f all
_ "
Ġdo ing
f our
Element Sibling
dG g
J QUN
$ ","
$ ",
) ^
":{}} }],["
Ġham ba
9 06
RO OT
le ting
Qix DQUFD
he art
Ä Ľ
æ Ĳ
di e
Ġpartic ular
needs Context
7 26
\ ',
si r
O u
Directive s
order By
sc rollable
Ġcode Point
Æ °
accept s
æ ļ
Ġr ank
wbG F
Ã ¬
N q
S g
qu id
10 80
try Entries
06 28
bra ce
W RAP
Re view
fail s
å ĥ
Ġa k
Ġnumber Of
Ġon Press
mus ic
Ġmeng atakan
e ye
upa kan
multiply By
ersist ence
))}, _
Ci Ag
ĠSH ALL
é¡µ éĿ¢
v dX
aik at
7 64
> '),
() ?(
M orph
mun ity
NT S
Ġ/ [
Char acters
Ġ` {
CLO SE
k J
de claration
unique Id
9 67
9 07
Ġpl us
Pi cture
\\ \":
ãĥ ©
E j
atis tics
xvYW Rlci
lu k
trac ted
P ure
in verted
UT O
b able
Ġe a
78 3
ä½ ł
W IN
FH IR
g ht
E ast
P UB
ĠB N
card s
æĥ ħ
13 13
Ġma ps
Public Key
LIN K
with in
à ¾
` ),
7 66
re view
300 2
Ġinitial ization
Ġclear Interval
Table Cell
ĠS C
p C
Ġ-- >
ICAgICAgICAgICAg ICAg
Pa per
Ġsp here
Z UFB
Ch oose
L U
Ġn om
ĠP oly
vZGV fbW
Ġr and
ĠSu per
} @
èĢ ħ
ket ch
b en
ST REAM
Text Node
XHRc dG
pr ise
åĳ ¨
qual ified
border Radius
Ð ĺ
ta kan
re veal
ç® ¡
Ġ( /*
able Tags
à¸ ·
è® ¡
çº §
v or
em y
Buffer Attribute
ex cel
transform s
remove Event
). ","
pro cessed
8 12
Y SB
0 22
ent a
Ġ` "+
Î ®
ĊĠĠĠĠ ĊĠĠĠĠĠĠĠĠĠĠĠĠĠĠĠ
play list
Ġa a
å· ¥
n Vl
Gest ure
IS ING
Ġ2 08
Ġme lakukan
ĠForm Data
+ )/
DOC UMENT
qr st
Y ield
B W
(() =>
te t
9 35
G row
Ġs nap
Ġ1 18
ĠK n
elve tica
; <
25 47
has is
Ġexp ires
7 55
and ing
In strument
: +
R ix
emulate TransitionEnd
ĠRe place
)+ _
j dX
ĠV AL
re versed
U AA
Clip board
064 8
76 2
ST ORE
ĠT i
H olders
Ġ1 26
ensi tivity
y aml
9 12
Ġs cheduler
LEdBQUcs Q
Width s
Post s
char ge
Ġb b
node Index
set Content
l w
6 30
Bu dW
mark s
8 38
Ġget Data
æľ º
Clamped Array
V Y
_ ("
Play list
9 36
ĠCan vas
Ġf our
ma vg
Ġget State
ID I
POSIT IVE
L c
q g
7 25
Tri m
86 2
97 2
J x
... ",
] ')
con ditions
Ġred ucer
ĊĠĠĠĠĠĠĠĠĠĠĠĠĠĠĠĠĠĠĠĠĠĠĠĠĠĠĠĠĠĠĠĠ ĠĠĠĠĠĠĠĠĠĠĠĠĠĠĠĠĠĠĠĠĠĠĠĠĠĠĠĠĠĠĠĠĠĠĠĠĠĠĠĠĠĠĠĠĠĠĠĠĠĠĠĠĠĠĠĠĠĠĠĠĠĠĠĠĠĠĠĠĠĠĠĠĠĠĠĠĠĠĠĠĠĠĠĠĠĠĠĠĠĠĠĠĠĠĠĠĠĠĠĠĠĠĠĠĠĠĠĠĠĠĠĠĠĠĠĠĠĠĠĠĠĠĠĠĠĠĠĠ
bound aries
05 2
front matter
æº Ĳ
C ANCE
68 75
first Name
Draw ing
Ġend s
Ġ áĥ
set UTC
9 27
l un
get Target
No tify
G ateway
ZWxl Y
W ay
array Of
Ġspecial ized
Ġpack et
ti ap
ä½ ĵ
ik ut
j x
Ġc he
is True
scroll Element
Text Input
Le vels
pos x
Ġter d
ada an
IC AL
- +
Channel s
Source Map
] &&"
Ġnew State
T M
Vs ZWN
}} }},
Ġsecond ary
7 65
) ]}
ãĤ Į
tra de
W x
ç ²
) (!
Ġlang it
Des ktop
Strict Regex
Ġì ŀ
Ġs ans
à¤ ª
Ġde sired
ĠØ§ÙĦ Ø³
cz og
çĽ ¸
k YXRh
UU ID
ÐµÐ½ ÑĤ
# "+
D ifference
tr uncate
q h
ĠM S
Ī ĺ
un register
ĠDe tect
Ġ Ċĉĉĉ
L CA
$ \
Open ed
,"./ _
wire frame
Ġs pacing
root Node
U Y
LG l
S olver
ar io
M UL
middle ware
á ¸
pos y
CONT AIN
T V
Yn V
par allel
asci i
I K
Order s
ĠV e
cG Fy
ug gest
Ġ Selector
WF w
Fe br
ance stors
Ġs ing
Ġz Index
Show ing
Ġs x
Ab br
An alytics
Z Q
N orth
setAttribute NS
stru c
R ing
9 64
Parent s
B in
Ù Ĺ
Ġn t
ATION S
1111 1111
lo re
HJ l
7 11
Ġsebag aimana
J X
Ġpro bably
IG Rl
widget Name
arrow s
Global s
B f
Webpack Plugin
Ġadd s
Iss ue
udG Vud
H ar
Comp ar
Ġfir ing
easeIn Out
,! !
Stack Trace
æį ¢
clean Data
Mark s
Ġinter section
Ġs pread
Ġin dicate
S nap
Ġ</ >
an M
[^ \\
Ġc s
Ġd river
Ġh l
Ġ Ñĩ
75 3
Ġshort cut
script ors
Ð°Ð½ Ð¸
åº ı
8 67
åĽ¾ çīĩ
V ARIABLE
zone Offset
li e
Ġm ixed
"), {
ven ue
ĠWHE THER
Ġ\" \\
ä½ į
prec ate
]= \"
ZW F
ĠLI ABLE
WUFB W
L ex
Ġp seudo
ure d
w ZXJ
Ġd igit
Ġtrans fer
aW R
ãģ ¦
get Label
de scribed
NE T
ĠT ask
ign e
-- ;){
a de
ĠE s
âĸĳ âĸĳ
Ġa ff
D d
res olver
in variant
ĠAR ISING
default Checked
ach ing
Ġc mp
ur ther
O h
str m
Ġcompar ison
Ð Ĳ
Ġkey words
Ġ20 12
Bl end
Ġ1 39
******************************************************************************************************************************** ****************************************************************
7 32
LCJ zb
Ġf ew
||! (
Ġre le
87 3
G x
g nore
' };
use Context
dG gg
={ }.
RE CTION
sh allow
98 3
GL ctx
siz ed
9 59
Poly fill
. ")
88 1
ĠF lag
ĠC ore
mouse Down
F ast
font Style
St encil
US D
p ink
?{ }:
st derr
X s
89 1
ä¹ ĭ
s entiment
Comp ile
!! (
Ġtransform s
s tick
on ential
je ctions
ĠMo ve
dat um
abcdef ghi
Ġres ume
Ġa way
cn M
Ġ1 24
le c
st yl
P f
al ive
attr Handle
De tach
rx js
G Q
ĠS erial
Ġbound aries
mut ations
ps um
child ExpirationTime
ĠApp ly
C rypto
R J
Ġ& #
=" "),
cry ption
Ver ify
r k
Ġv a
ID ENT
Inter ceptor
AJ Q
Ġlist s
Ġmer upakan
C ut
Ġt u
ĠPre vent
9 49
Ġl ng
n ick
set Current
ÑģÑĤ ÑĢ
end Time
& ");
j m
play back
ç´ ł
> ${
z og
ĠF ix
BE FORE
FBR yxDQUFD
end ors
," %
zdH ls
gr ad
ç½ ĳ
8 50
E mber
S olid
YX Nl
Ġstr ategy
I Y
ZW Q
Ġcon n
ĊĊĊĊ ĊĊĊĊ
Top Level
Ġstr uct
ged In
attach ed
Ġd ow
layout s
6666 6666
ĠAd min
content editable
à¸ Ī
K m
tifi ed
Sugges tions
8 66
M AC
Ġ Route
Par sed
9 57
Ġh int
j asmine
De leted
Data View
Ġtrans formed
AD AA
ALPH A
Ġ8 00
rot ask
Months Parse
ĠGener ate
tin ya
ĠC lose
elem s
V H
(' %
I AC
` !
Ġpackage s
e ting
write FileSync
work s
J BQU
åİ Ł
); _.
Ġ3 000
Ġparent s
9 33
D ROP
13 107
ĠEd ge
a verage
Ġpre pend
768 4
an si
Ġm l
Ġlong itude
noop ener
ca ke
ment o
< >
YWx z
Des ign
ĠA WS
bu gs
8 56
al g
ĠPri vate
Ġi r
get Children
9 66
Ġ ----------------------------------------------------------------
æĸ¹ æ³ķ
89 2
there um
çŃ ¾
ĊĠĠĠĠĠĠĠĠĠĠĠĠĠĠĠĠ ĊĠĠĠĠĠĠĠĠĠĠĠĠĠĠĠ
Pro mises
col l
EAA A
M aj
Ġ ue
Med ium
g j
B attle
)=> {"
k Z
*( \
J zt
ĠV ari
get Event
X c
light box
ri er
ĠC lean
ĠHow ever
or row
IH x
Ġpar tially
g AA
is te
toLocale String
utc Offset
D rain
Ġp hoto
|| _
Zm lu
55 296
Ġnamespace s
\":[ \"
Ġen vironments
CONTRIBUT OR
ĠÐ ³
pl ane
dp Div
COMP ONENT
cbiAgICAgICAg ICB
Ġrecursive ly
xu XHR
Ġ( [
Ġon Close
ãģ ĵ
7 35
] ][
s ystems
Ġmark ed
Ġì ł
Ġhar us
s S
Ġ3 84
oper ators
b ol
Ċ ĊĠĠĠĠĠĠĠĠĠĠĠĠĠĠĠĠĠĠĠĠĠĠĠĠĠĠĠĠĠĠĠ
IH ZhbHVl
ibl ings
d od
multi line
Ġle s
k ap
J L
Ġis Def
Ã ĩ
è Ħ
ĠA MD
ĠH OLDER
æ° ´
++ )(
An aly
:/ [
Ġde c
R tl
Ġdevice s
end Offset
: ","
get Point
Flat ten
di agram
Ġchar ge
In tro
Ġm uk
/* #__
Child Context
à¤ ¯
S aving
til de
Pro cessed
car a
l na
Ġb old
le arn
get Height
cm Ft
TE X
Over rides
g ain
be at
åĮ Ĺ
el lipsis
Ġfa ster
SER VER
At Index
C ALL
"] ("
dis placement
AC CESS
b ubbled
abcdefghi jk
f ort
Product s
Ġpl ural
Ġp end
W D
in y
he at
(( ?
Date Picker
Border Color
ĠOTHER WISE
s ong
} ]},
delegate Type
Ġco st
dW U
Ġter jadi
ACsAKwAr ACsAKwAr
7 59
D lg
ad ers
Ġme lihat
H z
("," ),
As pectRatio
f ew
SE CRE
ĠT itle
8 13
add Event
Pa int
aWYg KG
"] ');
("(" )]),
dto pt
G s
abo ve
ĠTe ch
Y D
orig Type
Transition ing
TIME OUT
Ġm i
speed s
Multip lier
Ġpe mb
KTt cbiAgICB
src Element
XF xu
ĠĠĠĠĠĠĠĠĠĠĠĠĠĠĠĠĠĠĠĠĠĠĠĠĠĠĠĠĠĠĠĠ ĠĠĠĠĠĠĠĠĠĠĠ
T oo
í Ĭ
src Value
ĠC ur
ä¸Ĭ ä¼ł
Ġcom ma
d uplicate
Inst all
)} )}),
p ot
roll up
Q uick
ĠT EXT
(") ")]),
ATE NTS
velo pe
Ġgran ted
in serted
Ġon es
data Index
08 4
96 1
Ġre ading
",""," ","","
re es
ĠM aka
Ġsa ma
Z d
sur face
ãĤ Ĭ
D on
Ext ended
à¹ Ħ
9 34
Ġ-- -
ĠE ach
(" ")}
an j
Ġl ar
U K
Ar ticle
R N
Ġ xt
Ġre v
Line Number
Ġsec ure
or x
I tal
9 11
IS H
åĪ Ŀ
Bra cket
Ġ2 10
Oi An
be low
è´ ¥
ĠT ORT
collection s
P as
Ġab stract
Ġre moving
De precated
ng cc
è į
I so
al gorithm
06 5
æµ ·
ç³ »
unique Sort
Y es
MS G
watch er
Lo gs
è§ £
IN SER
Ġn orm
ĠHTML Element
Ġassign ment
turun kan
8 59
9 77
W k
C fg
Ġstart Time
Be arer
Ġs q
HO O
Lo cations
User Id
g lob
Ġinitial State
slice d
H C
Touch ed
Ġv ol
RE NT
SECRE T
g D
el lipse
n il
"," ðŁ
apply Matrix
is Block
# \
Un supported
Ġtrack s
AC U
cy I
IMP ORT
åķ Ĩ
P K
9 18
T CH
}} ).
[]]+ ([
ĠGraph QL
kar ma
jquery ui
bas ename
Ġc are
get Seconds
ng On
input Value
B x
n ex
] ");
+" /"+
é Ł
Ġborder Radius
13107 36
Ġp ressed
lmnop qrst
F Y
Ġc ookies
Ġse telah
YX N
9 55
Form Item
Q O
á ¹
ĠIn tern
locale s
Ġres ulting
slides ToShow
log ical
ĊĠĠ ĊĠĠĠĠĠ
Ġcy cle
es ungguhnya
getResponse Header
Ġtable s
(` /
= #
G D
arg er
ti r
IGlm IC
||[ ];
Z pbm
Ó ©
EC TED
LFdBQV cs
pag ate
19 85
()} )}
× ł
9 48
template Url
7 30
). \
Ġj angan
ut a
ĠM IN
map per
get Body
} )):
9 53
Ġin d
Ġin verse
Ġme t
on message
à¸ ¹
s RUFBRSx
8 27
98 1
spec tive
å¤± è´¥
E ven
red Mul
ìĿ ĺ
+ ":"+
~ /
Re conc
aw esome
8 52
Ċĉĉ ĠĠĠĠ
.$ =
@ \
T OM
Des tination
æĺ Ł
C ast
module Name
ĠG it
get Title
Read only
å Ĥ
Ġre cogn
op f
cn Vl
get Object
M ach
Box es
Ġi de
")) )
con sent
finally Loc
PAR TIAL
M ixed
pur ple
g E
NU LL
å¤Ħ çĲĨ
j f
Or ganization
"} )},
Ġb ur
96 2
Ġreg ard
ĠCode Mirror
re mpuan
Ð¾Ð ¿
X hr
r z
start s
r h
X J
] :{},
e li
Nl cn
FBQyx FQUFF
__ ",
Ġ( ){
T ensor
ç µ
K J
)} ))
pa irs
ern izr
B P
Ġrun s
cancel led
% '
'> "
0 23
onMouse Down
8 10
LW NvbG
js Plumb
} )};
Ġ} ();
ĠA jax
9 16
G N
ID ATE
8 44
Save d
LG V
ha ir
Ġ` $
(" //
": (
Ġnew Data
) ';
called With
Ġ ,"
sh am
ĠtypedArray Tags
d ld
75 1
Ġpat ent
Ġh ack
Ġ Defaults
GG LE
YX Vs
ann ed
trigger Handler
ss ib
(". "),
bu mp
mx Event
Ġd r
St able
ĠB Y
HO ST
âĢį âĻ
"}, (
æĮ ī
0 68
rub y
U Q
Ġt f
à® ³
M AIN
FU LL
F raction
} ]);
Ġn er
Ġse curity
K O
Ġel lipsoid
call Count
or te
un safe
ĠA S
ĠCesium Math
d Hlw
on Enter
!! []+
0 58
type String
12 04
St ory
0 88
pro c
Â ¤
Frame buffer
Ġì Ŀ
ĠR ect
Oper a
ĠOr der
V AR
Regis tered
ĠOut put
Ġper mit
* [
0 21
ĠØ ¬
ĠØ Ń
found ation
? ((
q m
Ġ3 52
err y
K d
tr ain
('./ _
Ġaltern ative
B IN
Â ¯
Re jection
R ay
Ġde termined
ĠV is
ä¸ »
ia tions
Scroll er
ĉ ĠĠĠ
. "},
aX Jl
Frag Color
9 39
Ġassert Equals
Ġac ross
) ]);
Ġte ll
fancy box
Ġ lic
tinu ous
BQV ks
Data URL
Ġg ui
control led
s uc
ĠYah udi
98 2
set Transform
u w
Ġmouse down
In tent
Ġlog s
ig ital
P d
nD an
find er
8 22
); ++
Ġc wd
36 36
D en
h ib
05 3
Ġkey up
7 33
le ge
Ġp ane
R ating
mx Graph
NE XT
ç¬ ¬
6 23
g dGhpcy
**************** ************
s Sort
ta pe
"], (
loo kahead
] ]}
Ġte tap
sing leton
(". ");
saf ari
Ġs ugges
() <
Handle s
AI M
Me ss
. `);
Ġregis try
+ ,
ĠP layer
,' ']]],
T f
Top o
Ġgu ild
line cap
Ġequal s
Ġ1 17
vue tify
Ġj ump
end Angle
ol er
Ġde serialize
Component Update
z ZW
76 3
S amp
com merce
table t
Ġz a
- '+
Ġf mt
}), {
Ġen c
Ġfi xture
ro red
import Default
Ð°Ð ³
IC LE
code Point
mag ic
Ġg as
ys heet
, ##
A ir
Ġon Mouse
G d
Ġc aret
D ON
åı °
à¸ ¸
08 6
hs la
5 21
K p
d nd
topLevel Type
pen ame
Ġ6 55
Out let
yy l
Ġdef ines
áĢ º
Ġ` -
(/ (
Ġstatus Code
ul ated
è¾ ĳ
COLUM N
ĠEn ables
ĠRelease d
0 87
") :(
Ġw heel
y g
type Identifier
m ing
bus iness
App lications
> {{
Z Y
Diff use
C f
Ġcon sider
E f
l us
Ġre c
on Input
Ġt reat
Q d
Ð¸ Ð»
abcdefghijk lmnopqrst
erti a
ar b
ì ķ
Redu ce
9 54
dmFy IG
9 01
ma i
ç® Ĺ
7 46
Zh dWx
we ather
") ?(
æ² ¡
äº ¤
")} );
Ġ' ^
S pa
ri ck
k ha
er as
&& /
global Eval
B H
Ġw x
)? )?
Render Target
readcr umbs
c up
":[ ]},{"
called Once
Ð¸ÑĤ ÑĮ
tr iggered
," (\\
Ġfile Path
ah ulu
ra sh
Ġsamp ler
; }.
v k
à· Ĭ
ter ms
:" ".
ĠM ode
Nv bnR
Ġhapp ens
aa a
i en
re cur
per spective
Ġcall er
Format ting
Ġafter Each
Ġoth Is
Ġnode Type
U tc
Ġad vance
Rp bm
In active
('/ ',
Ġframe s
Ġcon t
KC kge
06 1
]|| [],
K k
get Center
=[ ]}
vc iB
ĠStyle Sheet
ĠCh ar
} ]}
HEAD ER
isValid Element
Ġ/> }
Match ers
ĠC ache
Ġg i
84 1
Ø§ Ø¯
Ġlet ters
Apr il
obser vers
Ġs ender
') ){
"," ../
Th u
ĊĊ ĊĊĊ
fn Get
ti cket
; ');
96 3
=" ===
Ġbase Get
material s
described by
T N
' },{
al so
() ']]],
ë¥ ¼
c ion
parent Id
ãģ ı
ian Date
Route Handler
S en
PRO CED
)( \
H W
S uite
Dis tribution
Ġsesu ai
Ġ' =
Ġinter polate
Ġb enchmark
E k
Ġborder Color
m Data
w asm
çĻ »
Dis miss
Ġst reams
Ċĉĉĉĉ Ġ
ĠCON N
C TR
ub er
< %=
un ary
E ng
r ZX
is Comment
bj og
Iy Mj
Ġstd out
V Hlw
tin y
Curve To
ĠPar ameters
Ġ1 32
au thentication
Ġl n
par k
æĿ ¡
get Y
Al gorithm
åĨħ å®¹
| _
Ġseb ab
8 42
Ġformat ting
ĠSta tic
an el
last Need
S pe
Ġs ifat
à® ±
wi LCB
go To
M ust
f on
Inter polation
................ ................
ĠWARRAN TY
au x
ÙĪ ÙĨ
QUFB O
R P
} ];
ç§ »
7 09
pri me
Ġcol lect
wi ce
Ġin crease
8 77
ĠData Types
ç ¢
check out
9 24
Ä «
th i
* $/
Ġmen ge
t float
v X
Ġ âĢĵ
08 2
er os
ãĥ ª
8 29
]+ (
>"," </
qu ir
Touch able
by B
Å Ľ
8 19
slides Per
t ar
iku ti
Ġc amelCase
w z
local ize
Ġpri or
WOR K
Compact NumberFormatSymbols
Ġe moji
h f
æĶ ¾
50 50
component Name
format ting
ZGV m
add Command
IH Byb
è¯ ¥
XCI p
Sele ctions
8 69
ĠCO MM
ĠO S
On Change
Ġta ken
,[" \
tr ust
æ ¢
por ation
Mis c
()} ).
An notations
Ġexp orted
9 15
ti k
ĠW orld
ST AR
åĲį ç§°
Text ures
andid ates
5656 5656
up grade
sh uffle
P od
b U
Ar ch
æĵ į
dis trict
Ġc amp
Ġa go
KTt cbiAg
En ded
query Params
Ċĉĉĉĉĉ Ċĉĉĉĉ
(?:\ .\
åĽ Ľ
([ +-
Ä ĩ
ĠĠĠĠĠĠĠĠĠĠĠĠĠĠĠĠĠĠĠĠĠĠĠĠĠĠĠĠĠĠĠĠ Ġ
element Ref
7 40
dom Utils
up loader
lat lng
n QkFB
ab ylon
do ub
sample s
RET URN
LAB EL
q z
ãĤ ¢
ar ded
à¨ °
æĮ ģ
Ġcomb ined
]) ),(
Al tern
ome tries
Ġ1 35
8 80
e charts
start Node
ĠS ynthetic
pb iB
ĠS ha
**************** ********
Tod o
(; ;)
ìĿ ¼
ĠMul ti
po ster
IG Fu
Ġs ending
push State
space s
Ġto ast
e gg
Bit map
ĠRed is
Ġcomp any
C W
w Q
pro vided
Drop Down
7 99
: _.
ĠØ £
ĠD rag
'] ").
Ġdi ct
ì§ Ģ
ks an
Ð¿ ÑĢ
Ø§ ÛĮ
LEVE L
ä» ĸ
regenerator Runtime
in to
Z N
bb re
Ġbase Url
l ife
11 00
removeAll Listeners
Ð Ĺ
Ġg ap
ĠP ATENTS
Ġlazy load
E moji
on Scroll
Sk in
selected Item
yui test
8 65
ãģ į
cG F
fill Rect
Ġj asmine
ti cker
AND IDATE
0 69
9 65
8 14
fir man
move d
ĠTrans action
)) ||(
Ġmove s
ë ĵ
V v
ont able
Respon sive
Ġv t
Ġun i
}/ ,
olu tions
+=" \
slide Count
r w
get DerivedStateFrom
, ~
y z
PAT CH
| "+
å° ±
en av
? ("
ĊĠĠĠĠĠĠĠĠĠĠĠĠĠĠĠĠĠĠĠĠĠĠĠĠĠĠĠĠĠĠĠĠ ĠĠĠĠĠĠĠĠĠĠĠĠĠĠĠĠĠĠĠĠĠ
Contain ers
Ð ļ
F ac
Con tinue
M ASK
ml tcG
sele c
kuasa an
Ġn pm
Project s
hyd rate
Ġ ze
isN ew
# $
o ck
Ġf luid
h or
set Size
th esis
hi erarchy
Inter polate
6 21
éĥ ½
tin ct
t weet
ĠS ur
urs day
type ahead
so ck
. ]
min X
, $.
client s
qK io
bra cket
Ġlast Index
() !==
Sep tember
Ġ ERROR
od ash
Ġclone ableTags
progress bar
hs v
n vec
:" ^
å® Į
Ċ ĊĠĠĠĠĠĠĠĠĠĠĠĠĠĠĠĠĠ
à¦ ¿
Ġan Object
de partment
R ank
auto focus
Par ticle
stand alone
ï» ¿
ĠZ e
Ġ# ##
ĠIn st
Ġre strict
05 1
EN TI
U LL
Ġch oose
:"â ī
ĠOper a
, /
av g
stit ute
Â ģ
Ġ1 22
":" -
IG l
iterate es
jo bs
luZ y
G P
ç ª
ol lar
Ġke adaan
f Yy
h D
break point
Ġto Object
LEN D
Weekdays Parse
ĠF i
Ġmargin Bottom
borderTop Width
q j
") ===
Bar s
f rozen
ÑĢ Ð°
' ]=
co d
t Y
Ġread only
e missive
AF TER
Ġfull y
ui Hash
Ġpop ulate
Ġlower case
u AA
sign up
an aly
get Or
LEVBQU Ms
kk kk
se ctor
Ġbl ank
g W
Check s
ZG lz
line End
Ġget Current
"} )}
Ġdid n
ta X
07 6
Ġpol icy
In v
Ġ'/ ',
BO OLE
J M
é ¾
Ġt en
Ġmo ving
Ġm ig
col Span
ĠUn icode
Ġth ough
L Q
Ġ/* ------------------------------------------------------------------------
la ting
Gu ard
get Max
Ġo u
ok u
ugh ness
ĠNav igation
Ġx link
Cal c
way at
Ġma u
V IS
ud y
N AV
H f
Tr uthy
jo y
st reet
on Resize
Ġ2 72
++ ]);
api Key
Ġdis tribute
Ġo ct
IF n
hQUF h
c X
Query Params
ri tical
get Cursor
? %
ima ting
[ ].
+ /,
State Change
access Token
Ġpa ste
,_ (),
B IT
ĠC la
+ \-
drag start
I ME
n ZX
ĠI mport
cmF uc
Mo tion
Ext ensible
is Mobile
ĠPO ST
for k
mask ed
ID B
Be zier
No YW
rom ium
Ġimp licit
Ġre named
Ġsub scribe
l O
s ans
Ġber firman
F V
c D
Ġs ensor
Dispatch ToProps
inte gration
t te
Ġ END
spa wn
d yb
áŀ ĺ
n orm
respon d
)}, {
ĠE mpty
Ġta p
unique ID
En coder
Shape s
ĠN ON
Se ek
Ġup dating
From Node
åĨ Ļ
SP EC
pro t
Ġk i
BOOLE AN
ca o
XB s
Ġ1 21
5 31
çĬ¶ æĢģ
13 10
0 54
ub m
mk dir
Fk ZXI
b ubbles
ĠHOLDER S
Ġa mal
Ċĉ ĠĠĠĠĠĠĠĠĠĠĠĠĠĠĠĠĠĠĠĠĠĠĠ
ful filled
o Api
åĲ ĳ
"> ${
c annot
", '
XBvbm Vud
get Window
ĠT og
next Props
ĠE ngine
79 1
UN IT
P IN
Ċĉ Ċĉĉĉ
Warn ings
N ON
ĠM M
grid Options
namespace s
To Point
Ġ! _
(' --
ĠG u
getUTC FullYear
st udent
Element Child
)? \
NE G
$ |
ĠS TR
get Column
EAA E
0 30
é ©
Auto complete
fold ing
"] :
(' {
è¯ ¯
Z q
In ventory
ZQUF Z
W R
m oney
){ .
mouse Up
Au thentication
In vo
attach ments
] ";
ĠM E
æĵį ä½ľ
e fficient
m z
altern ative
" </
un expected
ual i
Ġto gether
ri ces
9 52
se x
Ġkepad amu
,[ ],
ĠAn im
use Callback
ĠA ctive
ĊĊ ĊĠĠĠĠĠĠĠĠĠĠĠ
pre d
tifact s
Ġre main
Ġner aka
us an
C ubic
K I
åĪ Ľ
ĠAt tach
set Time
\" /><
+ ='
d it
ta i
h q
ç ı
state ments
igh bor
EPS G
9 19
array Buffer
Vnode Queue
Ġsed ang
LOAD ING
in cip
] )};
ID x
se ss
7 80
Ġlazyload RouteHandler
get Container
s velte
ĠN on
ĠT ouch
In struction
Ġkey press
file overview
Ġerror Message
[]]+(!! []+[])[+
l isting
content Editable
Inter active
MPL ATE
)) <
U HN
.$ _
final ize
b ank
par allax
(' |
B j
ord ova
min Y
replace State
get ters
Int l
component Options
clone Element
Ġor dinal
Be haviour
AA e
Ġdecode URIComponent
æ¸ ħ
Ġin ser
per f
}} },"
ĠGener al
Ġexpect s
xl bmd
Ġinst anti
K f
Div ider
sen oop
Ġcla mp
H w
U tilities
× ¤
K x
Ġinter sect
C p
str start
Ġ ll
un def
Ġ' !
ĠS Y
AN GE
Custom Event
eng ar
ĠF etch
Ġka umnya
CANCE L
F ACT
gui des
çİ °
g k
rid ay
il io
y w
++ ),
Ġdraw ing
F loor
if ted
d ur
el f
Ġcode s
G lyph
Ġl u
pa red
Ġ) [
Th en
Close st
ig bee
=" $
A frica
\ [
Ġ FB
le H
Ġd iter
FRAG MENT
vari ants
ĠĠĠĠĠĠĠĠĠĠĠĠĠĠĠĠ ĠĠĠĠĠĠĠĠĠĠ
organ ization
7 03
has Content
Ġter masuk
à§ ĩ
W aiting
ĠM ust
s he
ç®¡ çĲĨ
sk ill
D W
T p
G W
fore ign
struct s
ToString Tag
Ġdi turunkan
MMMM MMMM
ĠKe ep
Õ «
full Path
* _
ph ysics
Rle HQ
à¤ ¹
ari an
Ċĉĉ ĠĠĠĠĠĠĠ
0 20
si tes
Display ed
Respon der
J ECT
get Re
ex change
Man agement
h oriz
($ ("#
ì ľ
FBQU Es
ĠSW AP
Attach ed
Gui de
[^> ]*
9 56
æ ¥
P agin
] ("
}` }
D IT
Ġn abi
row Span
('. '
Move s
ĠW rite
Ch ip
ĠTr ansition
C nt
q v
Â »
to Throw
vo tes
('/ ');
magn itude
ah al
çŃ ī
gl er
9 13
QUFDQTtBQUNBO ztBQUVBO
Co in
ĠC ANDIDATE
bounding Box
Bu ZX
Tab Index
Graph ic
à± į
æ® µ
Form Control
L TR
set Selected
max Y
e S
Ġcurrent Time
" "
Ġfont Family
å¸ ¸
M ui
T esting
Ġmener ima
200 2
Comp oser
3434 3434
YX I
pipe line
> */
Data Grid
moo thing
Ġ" â
Ġsim ilar
YUFB Y
le tions
ĠRun time
8 601
Al ready
=== _
AL IGN
tin t
aGlzL l
Int ensity
9 46
Ġ+ '
expression s
Ġp b
flex box
Ġis Empty
0 60
Ġ\ @
Cla use
ĠU sing
Ġconstra int
Br and
éķ ¿
Ġa ren
Ì Ģ
DIS ABLED
getP ooled
Ġp s
mo j
ĠB ut
é £
å¹ ¶
9 30
9999 99
H p
); }}
tin el
Zp ZX
ĠT op
im u
ZXJ z
decimal s
ĠS witch
AT CH
NE L
Ġo g
pic ally
l ands
å¯ Ĩ
sen sor
ak si
Ġb oo
n ice
Ġad dition
Min imum
' })
Ø§ Ø¡
ĠPer mission
comp osite
ĠTe am
ĠS m
Ġref s
SELECT OR
cbiAgICAgICAgICAgICAg ICAgICAg
Ġ( <
P ac
WEB GL
çº ¿
ĠU TF
ten sor
vio let
Ġd s
di ction
Z pZ
Ä Ĺ
Ġcon version
v ill
ìĽ Ķ
+ )
F CK
get Base
à¹ Į
Ġ__ _
Ġlog ging
áŀ Ģ
find All
æ² ³
di ctionary
IE CB
ë ³
Log ical
W m
Ġma jor
v dG
la mbda
se orang
Ġ3 04
"] ).
Ġguaran teed
Ġown Keys
Fire fox
7 42
u tr
16 00
s Type
set Color
En dian
Ġk t
on a
ty pography
Ġd ummy
Ġbecome s
t ZW
handle Error
i ka
ĠS UB
un til
od o
Ġde tection
Ġle ad
some thing
Ġc ut
YX Ro
toBe Defined
8 45
Ġt c
Ġdrag ging
w alker
v z
ç ĭ
pZ H
Cap abilities
Face t
Ġf igure
av en
Ġtrack ing
a q
De veloperError
gate way
pack ed
06 33
last Name
å¿ ħ
9 32
? ");
Ġ] \
89 0
wa W
Ø Į
Ġ20 11
Qu ality
S an
:[ ["
Line String
J A
KH RoaX
par tition
No vember
ĊĠĠĠĠĠĠĠĠĠĠĠĠĠĠĠĠĠĠĠĠĠĠĠĠĠĠĠĠĠĠĠĠ ĠĠĠĠĠĠĠĠĠĠĠĠĠĠĠĠĠĠĠĠĠĠĠĠĠ
; ":"
se quelize
Ġse qu
MAT CH
Trans actions
Nv bnRl
dGlvb i
R q
() ==
> :
Sp ans
st ories
Ġ1 70
Ġmark ers
seq Id
sp here
ÙĬ Ø©
å®ļ ä¹ī
07 1
ed i
Ġkey ed
Ð¸ Ð¼
ZX Zl
j wt
Re cogn
Ġde grees
ĠPro cess
cmV xdW
+ ='<
get Pixel
Css Class
Ġmut ations
Ġ' ðŁ
Key frame
Ax ios
671088 63
; ").
c redit
){ $
Ġrespon sive
LE t
No b
n umer
last Modified
ĠEx tract
_ ["
Ġget OwnProperty
Ġinserted VnodeQueue
?[ ]:
E ar
E XC
shadow Root
ç»Ħ ä»¶
Te le
scal ar
Ġc ourse
Ġde claration
Ġve locity
Py thon
ĠP lace
T un
V BQ
Ġde pending
multiply Scalar
L atest
bul k
HR l
Ġb n
max length
Mapp ings
overflow Y
ta ge
text ures
}); \
]), "
:/ (^
short Code
J ava
Ù ĸ
() &&!
web site
Ġst uff
contact s
')) )
cs rf
Iterator Prototype
ĊĠĠĠĠĠĠĠĠĠĠĠĠĠĠĠĠĠĠĠĠĠĠĠĠĠĠĠĠĠĠĠĠĠĠĠĠĠĠĠĠĠĠĠĠĠĠĠĠĠĠĠĠĠĠĠĠĠĠĠĠĠĠĠĠĠĠĠĠĠĠĠĠĠĠĠĠĠĠĠĠĠĠĠĠĠĠĠĠĠĠĠĠĠĠĠĠĠĠĠĠĠĠĠĠĠĠĠĠĠĠĠĠĠĠĠĠĠĠĠĠĠĠĠĠĠĠĠĠĠĠĠĠĠĠĠĠĠĠĠĠĠĠĠĠĠĠĠĠĠĠĠĠĠĠĠĠĠĠĠĠ ĠĠĠĠĠĠĠĠĠĠĠĠĠĠĠĠĠĠĠĠĠĠĠĠĠĠĠĠĠĠĠĠĠĠĠĠĠĠĠ
":[" "],"
interopRequire Wildcard
_ ${
ov XG
W O
() )}),
áĥ Ŀ
~~ (
8 99
Ġ1 37
Display Name
create Comment
Dis posable
id ak
8 000
e per
æ ¼
Ġsc an
encry pt
F M
UB LE
(" </
dirsVdirsV dirsVdirsV
4294967 295
Min Max
S ensor
Ġs cheme
for um
Icon Button
n Table
Ġ/ (
)) )),
Ġ] (
H x
Form s
Ġdo sa
co vered
ĠCor poration
56 320
z aG
ti cally
Ġtool s
over rides
j aran
v B
(){ !
dis connected
intersect s
h x
Ġno referrer
(' +
ME M
76 1
l QUF
Ġrelative Time
; ;){
(' ',
Wh at
Ġelement Type
áŀ ļ
match ing
re ceived
Ġcol lapsed
Ġf ulfilled
ha k
Ġ/> ;
Ġmen jelaskan
Ġmal aikat
quo ise
u ator
Ġsepar ated
âĢĶ âĢĶ
è¯ ģ
ç ¿
Ġmin Width
n ZXR
07 0
Ã© s
æľį åĬ¡
Ass ertion
ĊĠĠĠĠĠĠĠĠĠĠĠĠĠĠĠĠĠĠĠĠĠĠĠĠĠĠĠĠĠĠĠĠĠĠĠĠĠĠĠĠĠĠĠĠĠĠĠĠĠĠĠĠĠĠĠĠĠĠĠĠĠĠĠĠ ĠĠĠĠĠĠĠĠĠĠĠ
n or
Ġgener ic
ĠM ouse
Y TP
ãĢ Ģ
Parsing Node
8 47
Ġ< !--
EN CE
original Position
Ph ysics
n Z
ame lize
wy g
S ender
get Options
}} )}(
E K
EVENT S
ph er
; ":"â
Ġd yn
=[" $
à½ Ĥ
å¾ Ĺ
sp ring
Context Types
Di agram
Aw esome
. #
)) ?(
Ġpe rempuan
ase d
Ġat tack
8 49
warn ings
Big Integer
vi ties
Transform s
U Z
Ġ4 29
Ġcalcul ated
toHaveBeenCalled With
Ġ ray
IGN sYXNz
=" ".
data Point
Ġd rain
Ġ' {{
UHN Qc
}} ();
H IDDEN
G allery
? "+
Ġp ers
w O
Local Storage
× ¢
9 45
":" ")+(
Ġsub scriber
"; (
ot one
we ak
Vu ZGVy
Ġmer idiem
De pend
"] ],"
D j
M al
en tical
H K
INSER T
9 41
Ġde bounced
Ġma ti
Ġ& :
Ġbu ffers
S outh
W p
} {
Ġx e
Ġ" ").
L mF
rr rr
flow ing
Ġ Arguments
":" $
07 3
$$ ,
Ġsebag ian
v Q
è ²
n in
Str ipe
åĩ »
C V
\ .\
n pc
Ġr m
track er
Ġk ar
ĊĉĊĉ Ċĉ
8 11
Found ation
IF rame
client Id
Ġover rides
=! (
Ã Ĳ
çĽ ´
Ġe i
Ġarg v
åı ª
Child Nodes
Ġlimit s
("," );
getUTC Month
priv acy
Ġ1 67
ren c
Ġwh y
'ðŁ ĺ
: \\
ne ver
CLI ENT
Ġpar agraph
Y k
Il legal
Cer tificate
L B
9 40
Un iq
hp bG
context Types
)}}, _
R ST
Id le
Ġ3 50
Ġcomp ress
Response Headers
De tect
87 0
$ )/
In variant
as pect
Ġ=== ================
ABAAEAAQ ABAAEAAQ
å Ķ
($ ('#
7 21
IH Bh
W u
Ġ1 33
TUFBTSx DQUFD
AA D
åĿ Ģ
aW xk
room s
Ġget User
Ġth umbnail
y our
Sl iding
Ġe ff
getTime zoneOffset
PO P
FO C
I FB
Ġ' ?
si cs
ĠS ort
ĠS ELE
ure lia
do ctype
Ġmethod Name
ĠJ ul
Ġmemo ized
igh b
SE S
ci A
thick ness
LG t
9 50
matches Property
XHJ cbiAgICAgICAg
ĠM utation
E ase
Co ver
Ġchain ing
L f
n if
Bl cn
Ġ` .
AT H
U f
b il
Ġ undo
Ġfor ced
create Error
ĠCon tact
Ġgo to
Ġq q
"} ]},{
Ġis Open
I AN
p ine
in Range
get Page
ab r
][ _
ÐµÐ ¹
9 375
H j
Ġ1 29
SO CK
F QUFB
finished Work
ĠIn ject
DON OR
8 39
")) :(
Stack ed
Bz UHNQc
ud it
ĠO Auth
E st
rt c
"],[ ,,"
Ġ urls
, {"
. ';
Ġc od
Ġke kuasaan
ÙĪ Ø±
Ġsp ot
7 39
IG h
cbl xuICB
Ġbad ge
7 02
Ġinter ceptor
c gi
Ð ľ
() ]=
fire store
$ (_
Ġs pell
Ġw t
Ġtr uthy
re di
Ġ[ {"
à³ į
user Name
Log ic
Ji Yg
Z P
Implement ation
RAN GE
f rac
w ks
c is
> `;
Ġw i
ew idth
canUse DOM
selection End
Card s
ÍıÍıÍıÍı ÍıÍıÍıÍı
Ġst and
Ġcon ven
[ {
row span
Ġmonths Short
la Wd
Ġ ken
su res
ent ly
q N
am bi
(/ &
ra wn
Ġun used
FBT yxDQUFD
, +
C ulture
XHQ vLy
] (),
à¸ ŀ
sor ting
Ġ Headers
F ulfilled
Ġle af
9 86
le ans
Sh im
igh ting
Jv dX
Ġ(( __
token izer
Sign ed
Ġsal at
mark o
vi ated
Ġoutput s
=' +
Ġ) );
scroll IntoView
Qg Y
Ġ4 01
Comp any
CD ATA
ĠAss ign
S j
get Start
FO O
É Ľ
* !
S uc
Ġ( /^
bG lu
* (?:
fire fox
éª Į
Poly mer
Mode s
æł ·
âĪ Ļ
éĶĻ è¯¯
T it
d B
C AN
q k
ãĤ ī
Ġin jected
Ġline Height
Ġs aving
z k
), -
Ġch anging
Ġexact ly
æĹıèĩªæ²» åİ¿
ĠC l
ac ion
enti ally
æĭ ī
AA AC
real m
áº £
c B
ì ĸ
Ġrun ner
Ġ$ $$
87 1
Ġfield Name
In Month
ack bar
W here
data source
Ġb box
"," %
Re cursive
H AND
get File
æľ ª
old Vnode
ac i
FAIL URE
A mp
Exp ired
Ġoccur s
9 05
ĠA B
äº Ķ
:"â Ī
er gy
Ġ( `
ĠSc ene
Some thing
clas sed
Query String
Ã ¿
àº ²
re ction
Ġpro viders
ĠData View
LX N
() ):(
d type
d ag
ag onal
WARN ING
P F
Ġ( ${
amb da
Ġevent Type
Space s
0 50
Ġis o
Ġh r
ĊĊ ĊĊĠĠĠ
ticip ants
Ġch oice
is Match
ãĤ ¦
Zt Ll
cG V
ĠL abel
Ġwork space
è® °
XV p
K A
P ivot
ĠB ani
ane ous
C ookies
ĠRead able
B anner
Ġinvo king
Ġmemp ero
scroll Y
Red o
x cbiAg
in ted
cmV hdG
upper case
v j
Ġg rouped
lat n
A ctor
B ridge
on ic
Type Name
ĠCON CATE
åĬł è½½
T J
is Error
ĠP IX
è¢ «
Ġshould n
Ġs l
8 23
D f
ma ppings
AR GET
Path Seg
Jv dW
Ġdise but
IN FR
END ING
ç ħ
Ð ¢
su med
W f
Ġsa at
W all
å® ĥ
Ġst ride
se mi
ĠB it
Byte Array
Ġ" ="
Ġadd Class
Ġextend Statics
Ġre pository
o ber
F ibG
)} }}),
") >=
Ġg utter
ĠisObject Like
val s
ma ss
Uniform s
clipboard Data
Zml s
compress or
Ġ" --
y h
8 46
co ffee
IC ATION
Br ush
C andidate
om i
h cm
- ".
RE EN
mon ic
(), (
namespace URI
text Color
Ġrelated Target
Termin al
FB a
X u
ĊĠĠĠĠĠĠĠĠĠĠĠĠĠĠĠĠ ĠĠĠĠĠĠĠĠĠĠ
Ġext ent
start Y
Pro d
NA TED
\" ]
S ty
po ses
. ]+
Multi Polygon
ICAgICAgICAgICAgICAgICAgICAgICAgICAgICAgICAgICAgICAgICAgICAgICAg ICAgICAgICAgICAgICAgICAgICAgICAgICAgICAgICAgICAgICAgICAgICAgICAg
ĠN ow
static s
s la
ĠCONCATE NATED
Ġs low
XHRcd C
Ġ mp
Redirect s
G utter
+" _"+
Change Event
creative commons
par ticles
la cing
Ġicon Name
* ((
small talk
LFl BQVks
Mach ine
z cG
G IN
S ticky
b idden
C wg
K j
Ġn ikmat
Ġstart Date
linked in
X z
hi pping
Ġmeng ikuti
amp aikan
b ooks
() )?
alloc Unsafe
f Sk
Me tric
position Abs
b enar
7 60
Ġh p
":" (
Ġ× Ķ
getB Box
L DE
)} }},[
Of Year
pro vides
Ġ Enter
sw f
Ġ'" '
Ġt uple
(), {
y ect
mo v
Custom Data
ĠR ight
Ġca used
ĠEn able
y ZGVy
user id
ĠIn stead
Sta tis
ĠM O
h B
cross Origin
ĠM ob
transition Duration
QkFB b
T mp
laWd od
ha ti
U ST
199 2547
n k
Ġ) )}
8 53
Y H
Mutation Observer
Ġb h
Ġde bounce
'ðŁ ĳ
b rowse
om ial
by Id
Ġdol or
DD D
Ġdefault Message
, ...
8 30
x Lj
TER S
Nj cml
en sing
Ġtr iggers
p un
"," "]],
tion ally
å¤ į
DR AW
G p
Ġor acle
w ell
ĠK T
uFD F
à¦ ¨
ĠE ng
à¦ ¬
J Z
Ġin tro
1992547 40
code mirror
Y O
Ġnon ce
Â º
ĠLe ft
]; )
get Dom
HR y
en hance
"} (
Row Index
P iB
Ġen ded
æī ĭ
U uid
ĠAl ert
P ersistent
sr f
Ġc ircular
dateFormat Item
un uh
"," "),
men us
li au
Ġh u
Ġv an
Ġe psilon
port s
J hc
Ġno tes
led ge
Strip ped
o Ag
ĠS ER
DE C
Break point
zdHJ pbm
n of
encry pted
ĠApp lication
olong an
ĠCONN ECTION
xvc jog
on Submit
get Items
Mut ations
Ġi psum
æīĢ æľī
Ġe th
y an
g id
08 1
w off
Dispatch es
ues day
AA CD
prop Fix
toBe Truthy
L ane
_ ),
a ster
Ġ2 52
)}} (),
gra ms
m int
h bnN
ĠE xport
attrs Map
Ġrestri ction
b D
Ġtrans actions
background Image
g te
Nh bG
STAT IC
c ca
Ġde leg
flow s
Aug ust
re porter
is Collapsed
à¸²à¸ £
J pc
Ø ¸
pixel s
10 48
+ |\
can onical
à¸ Ĥ
val u
Re ject
wa h
pref erred
get Initial
PS An
hbW U
IMP LE
P lain
Con sumable
jsx FileName
G ray
Ġ] [
19 00
Ġhost name
Ġx l
PROCED URES
Ġj wt
="# "
Ċ ĊĠĠĠĠĠĠĠĠ
de t
find ById
IGN vb
mdx Type
a S
end ants
React Current
ZGV maW
ĠExec ute
Q SA
u tilities
Ġmouse up
Î ´
ĠW ill
isObject Like
b ird
FBQyx JQUFJ
15 15
node js
L V
EE EE
ist ant
h ir
Add r
dayOf Year
w oman
Ġc loud
author s
Ġpa ren
cance lable
attr Name
common js
Ġg lyph
Ġ20 21
xuICAgICAgICAgICAg ICAgICAg
N R
YX B
ĠEn try
css Classes
æķ Ī
T pl
handle Input
H AS
IM G
C redential
get Class
Safe Integer
deg ree
A TED
ĠD at
8 51
W C
ĠT ake
Ġag greg
Ġcop ied
iam at
ĠFor ce
/ ****************************************************************
port folio
ãĢĤ ",
getUTC Date
Ġsup press
Ġs lash
Ġwidget s
á ģ
Ġarray Map
S imul
import Star
r buggy
Th ree
44 44
12 65
Ġex perience
Ġlist ening
06 39
Ġback wards
TO GGLE
LEd BQ
Ġbel ong
is View
], \
Gener ate
c ff
Ã¡ n
vo te
Ġkec uali
x im
box es
Ġdef initions
line join
Ġq s
ĠPar ser
= %
in jection
RUFBRSx DQUFD
TE M
bus y
qu aternion
S CH
ag greg
getData set
ĠCh ild
ĠRes olve
ç¼ĸ è¾ĳ
à¸µ à¹Ī
public Key
DEFIN ED
Ġper f
Com bin
Ġ èİ·åıĸ
Ġ ĉĉĉĉ
Ġ2 30
ä¿® æĶ¹
Ġf b
ĠWHE RE
Ġ" >
und s
ĠH o
Jl Y
dat atype
Ø§Ø¹ Ø©
0 99
9 02
L on
:" '
start Index
b F
ĠRe cord
ĠD own
h ad
i w
Ġcomp osed
resiz er
ST D
Ref ine
k BAA
pe l
G M
9 20
b is
FBQyx HQUFH
ksan akan
ĠAu dio
Bo unce
Dom Util
Ġ{ }),
Re maining
S afari
ld s
ain ya
åĪĽ å»º
ĠE MPTY
Back ward
L R
N BQU
Ġ'\ ';
æī §
p is
ç« ¯
i ties
ĠCal endar
Ġa i
ĠC ap
YW xp
Out lined
Ġon Complete
ĠF ull
ĠU rl
sheet s
YmF ja
D k
s now
0 89
S ENS
Ġbe ta
Z x
lu x
})) [
Ġpref erred
re jection
){ __
=[ ]);
PAT TERN
Error Code
K AC
36 00
c ert
SH IFT
* )
T or
Ġver b
IH tccl
has Value
Ġun escape
Ex pect
|| -
Ġfunction al
Ġurl ParsingNode
Fil led
W EE
ener gy
read File
Re gexp
AY S
Ġa h
ĊĊĉ ĠĠĠĠĠĠĠĠĠĠĠ
Â ¦
à´ ¿
éĻ Ĳ
ĠF ILE
Tree Node
Ġse ctions
Ġqu aternion
_ '+
new Val
Ġf fffffff
C br
g U
ë ł
ĠT y
Ġ), \
cIi wg
9 80
X f
RI TE
pie ce
z oo
Ġse cara
ĠG r
prov ince
L ife
REGE X
bit map
Ġ Video
re pe
M oney
ÑĢ Ñĥ
L et
ĠI sl
gro uped
. "},{
ra h
,' "
g T
implement s
ĠB ody
FBQ Tt
Con nections
}} },{
={ _
dl Yn
C j
r ng
con verter
i Phone
con nections
ĠTR ANS
Q M
(){ (
Year s
ADD RESS
)) ]),
Un i
ĠA L
S qr
prev Object
Ġ1 34
Play back
7 01
M aker
ZmF sc
c ircular
tBQU NBO
re cent
ND ER
Ġ($ )
âĤĴ âĤĴ
"] ();
caps ulation
S il
G f
) !
hc HB
EXP ORT
; ,
fore ground
)? /
3333 3
', "
ill is
get Offset
9 22
Ġ} \\
IN GE
la ma
instance Of
ä» ¬
let ters
ÙĦ Ø§
Spec ular
),{ },{
Ġr y
app ing
gra ve
ht m
h ala
D tcbiAg
Ġse di
lations hips
] )}},
P ow
})} },{
F inite
]) )}
* \\
× Ĺ
in an
ĠL anguage
à¶ »
ĠEd it
DEP TH
", -.
IC R
error Handler
Y h
15 00
Jy YX
model Value
ti st
Ġ20 10
Before Update
ĠConst ants
z illa
try s
Ġf amily
Equ ation
Access Token
H m
Ġun expected
TR Y
story book
Ġre cent
Ġas m
Ġ}) ).
ç ·
Ġ' \'
Ġsek ali
input mask
E U
out dent
Ġl ife
Ġpo kemon
ĠT arget
di ted
% ]{
Ġ arch
Ġwhen ever
' ]),
G k
]? [
IN ST
ĉ Ġ
M TE
ĠJU MP
Con sent
iffi th
ZW lna
å ³
zL j
Ġmusyri k
Ġ*/ (
()} };
- /
\" /
He alth
Dot s
Mus ic
Ġdistrib ution
ç´ ¢
J V
Un handled
JS X
Ġse seorang
Un ion
P or
scope Id
+" %
Hyd ration
Ġmx Point
cent ered
)< (
MS IE
Ġmut ates
St reams
g ar
re trieve
Version s
dis cord
App le
reduce Right
B AD
uFD CF
6 31
type Descriptions
9 31
P p
oc m
B RE
Ġ older
Ġb al
Suspended Time
æ²¡ æľī
Ġo Table
Ġtab Index
on touchstart
Ġ$ __
Ġcomp osition
ĠL OG
D v
Ġ1 38
weekdays ParseExact
nes day
ĠM ay
UN KNOWN
Ġda mage
REGE XP
exp ose
MAN Y
ut down
Component Name
str Test
ĠS ync
Ġv r
(". ")]),
trib utions
')) );
un pack
Ġd ua
ĠU s
ZGVm YXVs
M ER
Ġme trics
lo k
)} )):
g antt
re cursive
text box
Ġy Axis
ĠI gnore
g amma
hh bm
set Element
throw Error
( ("
Ġc d
||" ";
æĺŁ æľŁ
è «
Ġc andidate
axis X
Ġend Date
Ġal am
Ġs b
æı Ĵ
ĠTog gle
l igne
se k
ME T
SU FF
Decimal s
O ffer
] "==
(" (^
ax y
from Right
re liable
max X
e z
ga G
D V
H old
ed a
base Path
ë ı
ed d
' :"
)| (
dlYn BhY
Count s
pr ing
åį Ī
:[ ,
Ġbul an
åħ ¬
+") "),
Brt Begin
P Q
_ ",
ma inder
ac f
çī ¹
) \/
gr iffith
xx x
à· Ĵ
Ġview er
")]) ],
ĠP ol
SET T
_ &&
Ġ% >
fun ct
Y p
Ġdiber i
idup an
Ġc as
ZX Mg
e ager
iz able
th umbs
Ġe diting
By Key
ĠI a
pre ter
SS SS
), __
user Info
loc ator
W X
an ji
ZW J
cho ices
borderLeft Width
Ġk ita
Ġqu antity
L v
N Z
FBQyx NQUFN
Ġd anger
200 3
æĮĩ å®ļ
Font Family
=- =-
ĠID s
atur day
ĠL ib
z Q
hb mdl
g ZW
cI jog
Ġperson s
Ġle vels
A bove
ant d
('@ /
itor ies
[ +
Ġx Axis
md griffith
TO UCH
ass oci
à° °
wysi html
top ics
S ensitive
Ġcon structed
default Options
ATT ACH
un ified
Ġma kan
Ĥ ¬
ĠAx ios
C MD
æ¡ Ĩ
Men us
æĻ Ĥ
) ":
OD U
A VE
b T
ĠR en
p luck
FE TCH
ĠW idget
Ġfe ed
S ing
! </
Ġma upun
ft p
Ġgener al
U TION
ĠS ide
ĠDe termines
ĠAdd ress
L ml
Ins ensitive
l C
Node Type
Scroll Left
4545 4545
Ġwait For
close On
IH RydW
LC An
Ġca uses
+- ]?\
Ġconf lict
Tr usted
V ic
ãģĻ ãĤĭ
ber t
ĠB inary
Ï ī
id ian
sub s
prop or
9 23
H U
ĠAss ert
IC trl
Rh dGl
Ġe arn
fr m
S d
b attery
," ",
mit er
ãĥ ķ
B vc
de crypt
ĠM aterial
ĠCon troller
"]) ("
)) ));
sp o
Ġ/^ (
TW O
g Z
Re moval
Ġ/> );
D raft
Â Ĥ
Ġtrans formation
Ġproject s
Act ual
Ġ> \
FBQyx LQUFL
ĠOpen Layers
Jan uary
V ATE
bG Fz
ĠV EH
íķ ľ
mon god
check s
ten ant
ĠM ON
ĠExp ose
response s
HO OK
Ġpor tions
] ","
Up loader
ĠIS O
ĠL im
Ġ1 68
Ġth ink
Ġh sl
Ð² Ð°
s j
Ġcon sec
ĠĠĠĠĠĠĠĠĠĠĠĠĠĠĠĠ ĠĠĠĠĠĠĠĠĠĠĠĠ
Ġ7 00
SP ON
Ġsebel um
de clarations
co at
ÙĬ Ø±
ÙĪ Ø§
ch t
Ġget Element
Domain s
ro uting
Qs Q
Fi xture
ØŃ Ø¯
ĠVEH ICLE
! ../../../../../
S unday
kh luk
sliced ToArray
x vY
in voice
IC kge
Initial ize
2020 2020
éĹ ®
Ï į
ĠI P
ID og
isN ative
ĠDescri ption
ĠO ff
that Returns
Wr ong
lo pe
Offset Y
Ġm ata
Y f
f arm
Ð» Ñı
Ġacti vated
ä¸ İ
")}, _
css Number
ÐµÐ½ ÑĮ
ut us
Ġb one
de leg
Ġse p
update Value
Ùĩ Ø±
take Right
æī§ è¡Į
map box
component Id
kZW Zpbm
ĠÉµ ngcc
target Touches
LT F
Ġ2 16
B log
Ġ Props
ĠUpdate s
ì ĺ
ag i
SC ROLL
Ġlo st
W ire
p j
fill Opacity
log ic
p ix
æ ¦
client Left
è ³
if a
INGE MENT
ĠDe veloper
r B
sk i
Con cat
Con cept
G X
DE ST
Ġ1 54
M TI
AFAAUABQAFAAUABQ AFAAUABQAFAAUABQ
Ġdate picker
ĠURL s
Cent ral
isN umeric
ĠAP Is
á ł
ch allenge
Ġ" ../../../
M ip
Re served
Ġon error
ĠW atch
y f
n am
as kan
ist or
Ġmedi um
z OiB
und a
Ġhere by
jYW xs
S z
DI ST
åŃĹ ç¬¦
SC AL
ke ts
rap pe
å¼ ķ
7 23
D QU
dis cussion
anchor s
sugges tions
pZH Ro
C m
ir l
ro ve
Pro j
å® ģ
(; ;){
scrollbar Width
Y F
De limiter
55 55
ICAgICAgICAgICAg ICAgICAg
Ġsur ga
u ated
ka i
transition To
i ence
Ġmeng er
T j
to Date
add Point
on ing
++ ++
css Props
scroll spy
ĠPro file
\\. )*
":" %
aW V
Op tim
Ġin dicates
orth and
to pe
L h
cur Op
ÙĦ Ùī
Collection s
C amp
n Q
0 100
åĪĿ å§ĭ
props Data
ĠSet up
ĠĠĠĠĠĠĠĠĠĠĠĠĠĠĠĠĠĠĠĠĠĠĠĠĠĠĠĠĠĠĠĠ ĠĠĠĠĠ
Ġobj Value
I q
ex e
åħĥ ç´ł
RE C
U FFER
N J
lib c
Con version
Ġget ters
w ib
: |
] >>>
Offset X
ĠT ween
focus Node
Ġclient s
Ġb ias
Ð¾Ð ¶
./ ,
Ġ[' _
lat Lng
Ġf d
set ReadOnly
vb i
Qix FQUFF
Rp dm
List FormatSymbols
Ġnav bar
ĠC lick
[" *
L TI
get Url
Re stri
AAAA B
ver al
INFR INGEMENT
)} \
Ġun a
Ġde veloper
b rawl
áŀ ĵ
stri pe
bab ylon
S f
il de
replace Child
hZGVy L
a Data
tr as
Border Width
Ġ1 42
non payable
c ro
gre ater
à¸ Ľ
P erspective
add Button
Ġ2 12
Ġlimit ation
$ ,"
8 60
trigger Event
() ({},
gICAg fV
TE MPLATE
Ġmen ing
à¤ Ĺ
F sb
li me
çī ©
Ġco erce
ĠG iven
Ġde limiters
ces ses
] "),
âĢ ľ
00 04
)} `);
Line Width
PI XI
Add resses
Ġ' ='
åľ° åĿĢ
L K
LO CALE
W Q
s On
amb il
) ").
Ġo mit
OR D
k z
format ters
ĠY our
Dis k
Ġtranslate Y
is RegExp
": ",
Ġis In
M q
Qu antity
Ġreceive s
stan tial
) ].
ii i
ĠMob ile
ĠWeb Socket
Ġterd apat
ĠT OP
r ust
ceed s
u Q
Object Type
XHJ cbiAgICB
8 20
B rawl
fo od
To Generator
AL SE
fH wg
k lass
+" `
dev tools
s chool
get Color
Ġchannel s
ab lish
Ġh ukum
Ġde mo
H IDE
Ġb abylon
n O
clone Deep
Ġobtain ing
k ule
Ad vanced
," ")),
ang g
Ġcol span
Ġpre fixed
pointer Type
ins pe
Consumable Array
b q
")) );
is or
[ ]]
ç» ı
: _,
ĊĊ Ċĉ
Com ma
ĠSk ip
trans actions
200 4
document s
Ġdo y
DOM Element
CT OR
12 14
u FB
ĠP ush
è º
m uni
Ġ ary
min ta
(_ )
ssib ly
× ĵ
ĠA void
Ġ& =
with Stripped
Ġaltern ate
ti con
],[ .
RE SET
de select
Re cent
Ġp ure
Ġno tation
Ac cordion
Ġinher its
ĠCal culate
IC og
ing To
! \
Ġ' ['
Ġmark down
Ġspa wn
03 00
ĠLo cation
Ġexp irationTime
Ġmon itor
({ \
Ġa met
al o
[ ]).
y arn
çľ ĭ
stop ped
Ġf lash
=/ <
LG dCQUF
aG V
Ġmap StateToProps
create Context
capt cha
((?: \\
}} )),
æ¯ Ķ
æ ħ
ia W
Y d
j us
Ġre dis
'] ).
M CA
C rop
Ġ qual
Ġpas ti
ĊĠĠĠĠĠĠĠĠĠĠĠĠĠĠĠĠĠĠĠĠĠĠĠĠĠĠĠĠĠĠĠĠĠĠĠĠĠĠĠĠĠĠĠĠĠĠĠĠĠĠĠĠĠĠĠĠĠĠĠĠĠĠĠĠ ĠĠĠ
x X
||" "===
Trans formed
ĠStyle s
in visible
get Source
ff b
Prop Type
Z QUN
Ġ` ;
luZ yB
( /*!
Ad ap
//////// ////
ĠD IS
DI RECT
mo m
Ġdefault Props
ZV wi
G ithub
o ffer
ĠW ord
æĸ Ń
ene ss
F loating
Ċĉĉĉĉĉĉĉĉĉĉ ĉĉĉ
Peer Connection
trib utor
h un
]={ }),
u dGV
W j
Pro filer
Ġmempero leh
B Z
P itch
() )}}
ti po
ch er
Ġop posite
Maj or
Ð ĳ
click able
E TH
)} >
au gment
æ ½
G Fy
s leep
a H
Ġnew Val
x Q
ZW R
And Events
Ġhtml For
get Local
åĬ Ľ
Ġopen ing
Ġsedi kit
meridiem Parse
On line
7 43
Ġcla im
s ynthetic
T Cx
Ġch ance
Bu ilt
ĠF UN
Ġad ap
Ġ// --
Con firmation
={ <
be red
Or ig
Ġ") ";
F ONT
und les
Ġpage Size
Â ¥
T oler
Ġsub stantial
auto Focus
AA AE
ĠVER SION
Ġ1 52
r q
mouse Move
SS R
par senoop
READ Y
Õ ¸
static Props
ink an
Ġh endak
watch ers
le ader
Ġval s
Ġto Array
Ġattach ment
Spec s
wr ong
(.* ?
in strument
L AST
Merge d
odG hpcy
read dir
Rule Set
mongod b
al ready
Ġse tiap
íĬ ¸
199254740 991
animation end
(', ');
trans lations
l or
SENS OR
super class
') ]),
Ġst y
ific ant
ork ed
Brt End
S id
pag ing
Jo int
p D
pp y
cn Jl
Nav Link
ar ily
la d
ĠP i
YW lu
comm unity
I SE
async ToGenerator
inter ceptor
&&" "!==
00 10
fYy h
B m
T ue
Ġab ility
Ġ4 16
b readcrumb
Ġn u
get Bounds
FBQ ztBQU
}) \
chain able
V UE
b K
con ditional
ä» »
Ġsw al
ãģ Ĥ
("," )]),
Ġper nah
IB M
Ġc ube
n M
v ator
ateg ies
E J
y A
Ġmax Height
c ir
Ġmen cip
Ġ*/ );
access or
Ġfull screen
"}} )],
cr iteria
ĠBig Number
in formation
fe c
browser s
() ._
!== -
FUN C
Ġref lect
Short cut
S al
ho vered
Le ap
De precation
åĿ Ĺ
B ITS
lo ose
T z
Ġwh om
id ad
Ġde t
device s
(" ")
")) ||
Ġset Value
Ã ħ
per s
Clean up
Text Content
target Id
bm Nl
æĶ ¶
set Hours
Ġ]; \
àº Ļ
IGNv bG
ĠHe re
Ġsee ms
gICAg cmV
u FFFF
ĠE e
":" ")+
IS TE
Tra iling
ĠIs rail
starting Index
n oc
in struction
K U
ot or
}", ,,,"
Ġstatus Text
í ĺ
Is RUFB
- ",
ue st
sw agger
Ġdi ke
d roppable
SE ARCH
Re active
Ġse lain
Ġan onymous
YXRp Y
Ġget Tag
éĽ Ĩ
Input Value
è¯ Ń
C ourse
z dW
ĠA T
Ti er
+=" <
h cmd
isF ocused
m il
CHAN GED
ìĦ ľ
æĽ´ æĸ°
PS J
Double Click
ĠBl ue
Ġk h
Timeout Id
first ElementChild
AA w
Text Color
K v
ail s
onMouse Move
Ġdi ctionary
H Nl
Ġin coming
reach able
C X
is Zero
ZS k
******************************************************************************************************************************** ********************************************************************************************************************************
Øª ÙĪ
en es
In Out
Ð¾Ð ·
user content
to ConsumableArray
ĠF ont
ĠAUTH ORS
Ġmain tain
J pZ
v cGVy
fill Text
de cl
Ġ" ".
Ġ ĊĠĠ
resiz ing
cnJ he
u Z
Ġo mitted
10 25
Ġtime zone
j ak
Ġdata Priv
BOT TOM
de termine
use Memo
hl Y
TOOL S
Ġin s
Cla mp
Ġexec uting
upload s
. %
Gener ated
Ġcreated At
publish ed
30 30
an alysis
yb S
what wg
Ġcontext s
MI X
ch ant
Ġa mb
Ġ1 53
up les
=" \\
"] }
å¯ ¼
Text Track
Jy k
pin ned
Ġno tifications
override MimeType
ÙĤ ÙĬ
] ]),
ĠN ext
Ã ²
trans lator
sha de
Code c
Ġcustom er
C li
out let
xl bWVud
BudW xs
toMatch Snapshot
Ġstate ments
k ir
}} "
create From
pass port
cover line
UG IN
Ġd ur
Mon day
Bo b
ro d
siz er
) _
j y
Ġpot ential
arn ing
], _
16 16
LE X
RE L
ERR NO
1010101010101010 1010101010101010
C Ag
on us
is Boolean
String To
Rel ated
Trans parent
panel Title
isXML Doc
Ã ĳ
Û ļ
== -
ad b
Tim ers
ENTI FI
a urelia
Ġk itab
")} },{
Ġvis itor
J ump
Ġth umb
stack overflow
bg Color
, *
display ed
Ms R
dp bm
ue ss
Ġshow ing
F v
Ġst able
is Group
Ġmix ins
sele ctions
ĠImp lement
ri a
vi es
day light
extr as
Man age
Ġresolve s
b Y
Ġanim ated
ffect s
Ġf urther
Ġd in
ĠSh ort
ut ters
mul a
h uman
(" (
proto Props
"> ';
Ġinner HTML
G H
gp u
Ġ1 49
is Static
lan ation
Ã ¹
g Ki
Ġ Configuration
INIT IAL
key vault
poly mer
Ð ł
Fy cmF
ĠW rap
H OME
get Previous
AA k
pa ya
pre process
Ġ/** \
( ;++
R ULE
OiB cIm
l te
fa vicon
Text Area
un queued
Ġfollow ed
ra ps
re porting
ë¦ ¬
oo oo
OR K
il legal
"!== (
ĠisF inite
emp hasis
b ridge
dXJu IG
/# /
Ġauthor ization
ĠR O
Back up
1234 56
ĠPIX I
bas is
ACU AJQ
W w
",[ ],"
g v
to Contain
ĠL L
group Id
ZnJvb S
multi select
on End
is Hidden
Ġa verage
12 345
/ ';
V Z
è ¼
li k
RE PLACE
IGZ v
è ©
Ġ2 38
da ily
Ġ gesture
Ġ" )+"
å¤ ĸ
li h
" $
cb mV
] ]],
col on
ĠD ELE
Ġ" ])),(
Ġspec ification
LF xuICAgICAg
er ing
full Width
à¸Ń à¸ĩ
f ish
Ġbase For
Ġlook s
il s
HO LD
g ri
Ġpro d
Ġs olution
Is R
To Class
delay ed
ge cko
à¦ ķ
Ġpass ive
Ġg lyphicon
ĠF ooter
Ġdecode d
â´°âµ Ļ
Ġis Un
is File
template Object
m YWxz
ĠP ay
Ġclick s
ĠĠ Ċ
ĠH O
memo ize
W M
ic rotask
CL G
prepend To
shi pping
={ }){
i et
Par ty
Ġac cessed
inst antiate
High lighted
Ġplay list
Com b
he ure
Ġdis connected
9 42
Jl YW
Scope d
scale s
$ :
S v
cc ion
áŀ Ł
Red raw
get Scale
Ġrequest AnimationFrame
La unch
stand ing
RG F
è¯· è¾ĵåħ¥
âĢĭâĢĭâĢĭâĢĭ âĢĭâĢĭâĢĭâĢĭ
R Z
"," *
sc atter
base URL
YL ON
Ġ XHR
dispatch Config
rad ix
dn Vl
Ñĥ Ð¼
R A
SAMP LE
:[ ]};
"> {{
sc ode
S ynthetic
cm s
ĠCL AIM
Ġ/*------------------------------------------------------------------------ */
Ġ Valid
ro bot
ir th
Moz illa
mess enger
lbn Q
S izzle
Ġch alk
Jl YXRl
] ],"
Transform er
Ġst ory
ber ry
Ð¸ Ð¹
process Data
Ġoverrid den
& =-
I UM
ic ies
ag gregate
Re m
Re load
{ '
ne tes
bind Key
Sub tree
Ġber ada
Ġlic ensing
MS FT
ĠLog ger
ss a
Cre ation
Ġflex Direction
Ġtim ers
en is
Ġref er
ç» Ł
D N
ctor Parameters
Ġat t
Ġkeh idupan
g ICAq
Ġback drop
red its
ĠP lay
ĠV ec
çĶ ±
serial ized
LENBQUMs R
Ġlanguage s
dojo x
Â £
inger print
ĠA fter
ck ed
è§ Ĩ
f CB
); _
Render able
Re mark
("/ ");
bitr ary
Lim its
cumul ated
b cb
Ġta k
6 000
Ġ Info
we ave
ìĭ ľ
ang o
ĠDE AL
R H
id u
YW xs
Container Ref
is PrototypeOf
Base d
Ġre ached
ab at
))} }),
å® ¶
__ ){"
Ġne g
Ġdir inya
Ġg ender
24 24
char acters
27 27
is Dirty
ĠComponent s
è Ń
hyd ra
Mz I
delegate Count
={ `${
Ġd erived
bind Type
uber netes
O x
KEY S
gu y
th ru
AC Q
ht ag
ĠM ore
Ġ../ ../
in vo
en ate
ĠDate Time
Ġpop over
Ġre lation
ĠJ avascript
Focus able
pe ts
ber apa
anchor Node
) ==="
ate ver
æ¯ ı
ĠS ize
Ns YXNz
cI k
) ]},
set View
ie ve
Ġac cepted
ud HJ
ĠU t
Pac ific
9 10
ĠAc cept
}} });
ĠP h
ĊĠĠĠĠĠĠĠĠĠĠĠĠĠĠĠĠĠĠĠĠĠĠĠĠĠĠĠĠĠĠĠĠĠĠĠĠĠĠĠĠĠĠĠĠĠĠĠĠĠĠĠĠĠĠĠĠĠĠĠĠĠĠĠĠĠĠĠĠĠĠĠĠĠĠĠĠĠĠĠĠĠĠĠĠĠĠĠĠĠĠĠĠĠĠĠĠĠĠĠĠĠĠĠĠĠĠĠĠĠĠĠĠĠĠĠĠĠĠĠĠĠĠĠĠĠĠĠĠĠĠĠĠĠĠĠĠĠĠĠĠĠĠĠĠĠĠĠĠĠĠĠĠĠĠĠĠĠĠĠĠĠĠĠĠĠĠĠĠĠĠĠĠĠĠĠĠĠĠĠĠĠĠĠĠĠĠĠĠĠĠĠĠĠĠĠĠĠĠĠ ĊĠĠĠĠĠĠĠĠĠĠĠĠĠĠĠĠĠĠĠĠĠĠĠĠĠĠĠĠĠĠĠĠĠĠĠĠĠĠĠĠĠĠĠĠĠĠĠĠĠĠĠĠĠĠĠĠĠĠĠĠĠĠĠĠĠĠĠĠĠĠĠĠĠĠĠĠĠĠĠĠĠĠĠĠĠĠĠĠĠĠĠĠĠĠĠĠĠĠĠĠĠĠĠĠĠĠĠĠĠĠĠĠĠĠĠĠĠĠĠĠĠĠĠĠĠĠĠĠĠĠĠĠĠĠĠĠĠĠĠĠĠĠĠĠĠĠĠĠĠĠĠĠĠĠĠĠĠĠĠĠĠĠĠĠĠĠĠĠĠĠĠĠĠĠĠĠĠĠĠĠĠĠĠĠĠĠĠĠĠĠĠĠĠĠĠĠĠĠĠ
S pell
W g
] ==="
Ġ' &#
L M
Ġse q
ĠG en
lis ted
å ¨
To Hex
Ro uting
Th at
s keleton
Ġor ganization
h ari
get Snapshot
={ }));
Le ading
M OTOR
Y q
ĠA rab
short cut
onMouse Up
embed ded
] ?"
($ ,
m fe
jQUF j
Ġm il
LW xvYWRlci
ĀĀĀĀĀĀĀĀĀĀĀĀĀĀĀĀĀĀĀĀĀĀĀĀĀĀĀĀĀĀĀĀĀĀĀĀĀĀĀĀĀĀĀĀĀĀĀĀĀĀĀĀĀĀĀĀĀĀĀĀĀĀĀĀĀĀĀĀĀĀĀĀĀĀĀĀĀĀĀĀĀĀĀĀĀĀĀĀĀĀĀĀĀĀĀĀĀĀĀĀĀĀĀĀĀĀĀĀĀĀĀĀĀĀĀĀĀĀĀĀĀĀĀĀĀĀĀĀ ĀĀĀĀĀĀĀĀĀĀĀĀĀĀĀĀĀĀĀĀĀĀĀĀĀĀĀĀĀĀĀĀĀĀĀĀĀĀĀĀĀĀĀĀĀĀĀĀĀĀĀĀĀĀĀĀĀĀĀĀĀĀĀĀĀĀĀĀĀĀĀĀĀĀĀĀĀĀĀĀĀĀĀĀĀĀĀĀĀĀĀĀĀĀĀĀĀĀĀĀĀĀĀĀĀĀĀĀĀĀĀĀĀĀĀĀĀĀĀĀĀĀĀĀĀĀĀĀ
Ġre name
Ġcached SetTimeout
no logy
I U
ac curacy
35 35
ĠC ell
session Storage
P AY
de ck
vi z
Ġdiber ikan
ĠK r
v endors
Ġ çļĦ
D z
clip Path
H ow
ĠDEAL INGS
Ġcon nections
bj s
Ġt wice
ub y
Ġ` "
al im
su er
ANG LE
W P
i tes
Ns aW
F De
ce an
flat Map
` #
19 70
cn Jv
Hi erarchy
chan ism
Ġlog out
; ";
co res
," "]
Ġcomp ared
on Composition
Ġ2 01
)} (),
on Destroy
sugges tion
H ouse
({ }),
cb mltcG
Ġ3 27
Ùİ ","
Ġlocal s
ĠDo es
Ġm irror
Ġ1 77
Ly oq
FOC US
; "),
B ro
"," @
sa X
cn N
forma tions
ke s
Ġcached ClearTimeout
ex cluded
ne monic
Ġsm art
is Destroyed
b ow
('. ');
ent e
Ġpipe line
XXXX XXXX
Ġn v
mer cial
scale d
dire cted
8 191
open ing
get Host
compress ible
b B
Ġ1 84
Con ditional
du ces
s X
Table Row
open source
to gram
Ġ1 58
client Top
Select able
J kZX
bi as
No tice
tt f
ĠR i
Ġ1 41
pa rency
Ġnative Max
PROPER TY
n Tr
Å ¥
Ġplay ing
" #
è Ĵ
ĠCoun ty
par a
Ġo ps
è¯ ¢
w esome
or tools
Ġadd resses
urn ished
ĠP latform
gal kan
C op
B ones
stop s
300 1
Ġ1 47
end points
Ġmen eg
Property Name
Ġr ing
ĠD engan
à« ĩ
ÙĬ ÙĦ
/*!************************************************ ****
initial izer
G j
b J
scroll X
And Update
Ġread Only
ger i
content Document
VER T
hbH Nl
M uhammad
Ġf raction
gre t
Ġ' '),
Ġs r
lab e
ati ent
Ln N
Animation End
IGZ hbHNl
ced ure
Ġent ered
Ġo m
S ensitivity
ĠF ir
len s
F mt
ml ink
ajax Setup
Light s
cre ation
cre ator
Ġc bs
Ġsub license
Ġ1 45
fire With
D ummy
Q F
Ġtr ansp
ÙĴ Ùĵ
ÐµÐ ³
t uple
=" %
n Allah
get Layout
Ġp g
e lapsed
Ġm k
back up
ĠE t
serial izer
Ital ic
co lour
Object Id
Ġvalid ators
created At
u tility
ĠD ESC
~~~~ ~~~~
ĠS hape
(/ ([
ctor ies
ENTIFI ER
a F
Ġattr ib
Ġe u
=\" #
Ġfil led
D er
d CA
Ġr n
Al ways
le f
O A
bG w
âĸĪâĸĪ âĸĪâĸĪ
J une
pa ti
:[ ^
Ġpas ses
Ġmap DispatchToProps
ff d
Se gs
bo to
} ]},{
RUFBR Tt
Ïĥ ÏĦ
h itch
ar ticles
S ZW
Fs bG
SE CTION
ign ored
¿ ","
IG Eg
D H
u AB
(' ^
LENBQUMs SUFBSSxDQUFD
Z Sc
MAA w
n ic
Ġc rop
ĠP RE
drag end
20 26
Ġsub tract
Up dating
N SU
IH JldHVybiB
"} };
ĠFire base
à½ ĸ
ck le
Ym Vy
Need s
ce iving
ĠA e
= &
Å ĳ
ĉ Ċ
uc HJ
Nj Y
I J
P ACE
Ġre draw
. `
Ġremove s
phen ate
T xt
Y P
ĠB Icon
ĠN etwork
ss ign
] &&!
Ġr ng
ĠO P
Ex change
Ġborder Width
s Im
Ġpa per
Ġintern ally
å ĺ
Ġdata View
MED IA
z render
Fu Y
ĠS ingle
Log out
Ġcover age
Z J
((?:\\ \\.|[^
ĠNON INFRINGEMENT
Ġres pective
incip al
mo cha
gICAgICAg IG
Ïģ Î¹
ABC DEF
Ġun signed
ex perimental
getAll ResponseHeaders
è ĳ
od ata
=' /
LOC AL
I AB
Jl Z
\. [
D ST
Ne arest
Ġked ua
ĠU TC
ID A
Mo vie
ĠCon nection
an u
éķ ĩ
ĠRect angle
Ġma sa
Ġis Active
ĠB ind
ĠC ODE
Ġun safe
Ġadd To
+") ",
IC S
ĠN ull
Ġ\ ****************************************
AM EB
ĠWork er
s ce
up al
componentWill Update
E OF
P references
])} )),
b al
Ġindex ed
on Open
i pa
M ass
} )?
Ġcon tained
h z
ak at
Ġauto complete
Ġ') ';
Ġpa used
G ain
T one
d O
move ment
Ġchild Val
lower case
bul ma
add Error
a ui
} #
Ð £
Toler ance
ĠY A
Ġmenjadi kan
L ambda
U tility
v IF
is Multi
WIN DO
ç ĸ
Ġn umer
éĢ ģ
áº ¡
9 03
AQ EB
claim er
kZW ZhdWx
FI RST
get String
Ġset Immediate
G AC
Ġsource Map
vi meo
Panel s
ĠGener ated
PUB LIC
f j
Ġma khluk
ĠK itab
T urn
Â ²
Embed ded
@@@@ @
ĠO K
UT CH
Ġpre load
19 48
Ġun ion
Mac ro
Ġauthor s
B oo
page Number
Ġstroke Width
Ġa f
åį ģ
Ġ( --
slide Up
:"â Ĭ
type Name
O Auth
js hint
H IGH
on Show
Ġi z
HR w
Ġplace d
Ġm ys
add Field
location Name
DI RECTION
M arch
é ½
Ġ Ð¾ÑĤ
In her
ĠA ct
k j
é ¼
ĠPass word
U ge
ol lo
Ġ(! !
group By
Ġpie ce
b A
New s
c ue
dispatch Listeners
Ġ1 56
sa le
M icro
H v
SC x
æĤ ¨
7 41
(! _
c iB
ud ge
Ġ und
distance To
Fri end
Ġwindow s
Header Name
am er
Week s
ER IC
N K
Ð¾ ÑģÑĤ
}, \"
Force Update
ç ĳ
Ġh ak
d og
get Random
LO UR
emit Event
Weight s
Ġpur pose
ç Į
Ġ lexer
sl iding
ab il
Progress Bar
Ġs z
Ġis Buffer
Ġng Model
is Custom
Ġstack ed
æķ° ç»Ħ
Ð± ÑĢ
Ġin vert
cance led
ca y
ĠThe me
ÙĨ ÙĪ
Ġset State
Ġl ifecycle
B q
Ġ1 48
ĠL ong
Ġdi ma
Jul y
CUR RENT
de ad
ce so
ĠIn stance
XHJ cbl
Ġrele vant
ST OR
hdG No
mal ink
ĠN E
Up grade
i OS
Ġ} },
__*/ _
yyl loc
M ute
P AN
am ar
ced ence
Ġon line
c fe
er p
C od
se mantic
ll d
can Play
project Id
Ġele vation
Ġ' >
Ġ1 57
um in
Bus iness
e lastic
Ġmemer intahkan
Ġb ert
(/ [^
Ġax es
å¸ ĥ
Ġlicense s
Sugges tion
wysi wyg
Ġ\************************************************ ********
P al
te in
Ġ ÑĦ
un selecting
Ġ2 05
Ġr adians
"); "
FBQ y
combo box
recogn ized
k Q
Ġc u
Ġ1 59
=" "}
Ġassert Equal
P at
dr upal
uIjozLCJ maWxl
b XG
), _.
build ing
)}; _.
template Cache
Ġobject Proto
Scroll Bar
å¤ ´
Ġdata Index
Ġapp ended
ifa ces
Ġma sih
ĠB ook
before Each
Nya XB
}, (
no b
hash change
Ġnew ly
be an
qK l
laps ing
h bs
Ġto JSON
ff c
(/ (\
p on
Ġs ticky
?" #
ìĬ ¤
xu fVxuXG
pas sed
ĠA C
Mar ket
O SE
Re ceiver
Ġallow Null
Ġc ater
Spec ific
comp ression
drop Right
ar ri
NEG ATIVE
get Map
Ġexp onent
u vs
Ġ ðŁ
YE AR
Ġun set
K yB
ma chine
read As
utr al
n ature
,,,,,,,, ,,,,,,,,
G ENER
ÐµÐ½Ð¸ Ñı
li est
Ġor dered
Ġen queue
G I
um bu
O ztBQU
is Touch
Ġemit ted
Ġtan pa
Ġ EN
D AT
k Y
st atistics
do cker
R ng
ur na
)}} };
ĠM et
**************** ****
tra its
ĠÐ »
(): &#
C z
% );
Ġ! $
cl ub
er tions
is Root
ĠP AR
IGZ p
][ \
ail y
p unch
]],[ ,,"
For Of
% \
tr iggers
In cludes
Ġschedule d
n import
Ġke se
Order ID
LOG IC
Us XG
Off line
æł¼ å¼ı
/ '+
Ġmuk min
ç ¶
s Y
Ġp layers
:{ _
current View
Group Name
is First
Ġdi lakukan
åı ³
Ġmenye mbah
Ġget Node
âķĲâķĲ âķĲâķĲ
tw img
ĠĠĠĠĠĠĠĠĠĠĠĠĠĠĠĠĠĠĠĠĠĠĠĠĠĠĠĠĠĠĠĠ ĠĠĠĠĠĠĠĠĠĠĠĠĠĠĠ
Comp ute
Ad ditional
dGlv bl
ESC APE
Ġ3 72
"> =
Ġd as
' `
ĠD ash
T Q
re cipe
I ce
Ġ7 68
nK PX
* ,
f requency
Ġ ĊĠĠĠĠĠĠĠĠĠ
ARG UMENT
a A
áĥĿ áĥ
Or dered
); $
Throw n
LG FBQW
); --
Ġin struction
Ġunder lying
pick r
() "
Ø§ Ø³
Bu y
Ġ" ~
Type d
09 30
Ġ quality
ĠO e
ow m
04 31
Ċĉĉĉĉĉ Ġ
Î¿ ÏĤ
Ġbers ama
re cover
Ġsh uffle
R vb
add Method
ci Ã³n
Ġchar Code
() )&&(
Wrap ping
create ObjectURL
Ex ited
author ity
Ġlook ing
c F
line Style
B K
Re t
ĠO SF
Ġ/^ [
OPER ATOR
LEV BQW
Ġl in
Ġmencip takan
Ġse veral
Cat alog
Ġshow s
en umber
to Integer
To Scroll
o y
ur y
AB w
é º
Fu ZG
d U
PV wi
Ġ1 31
dX Nl
zz le
Ġ}) \
Play ers
20 180
cancel AnimationFrame
red ucer
Ġbuild s
Cla im
Sub scribe
CO LOUR
illi on
log ging
Samp ler
im mutable
åħ Ń
æłĩ çŃ¾
mb G
de scriptors
ml t
web socket
Ġmx Utils
d q
/* ::
Ã¡ r
Ġsmall er
ĸ åĮº
unc ated
u ifaces
get Block
Vu ZC
Ġthe ta
html For
tre es
Ġ1 91
Ġfirst Name
con necting
Ġdid Warn
dataset Index
ITER ATOR
)|| ["
Pass ive
XSw ib
Ġla unch
ÐµÐ ·
Ġno me
},{" @
Ġd p
ĠThe y
show ing
set Values
le ared
={ }}
Ġper formed
TR IM
ĠNe ed
border Right
blocked On
C Z
Ġmax Length
) ")
b R
se o
or al
tmp l
", $
Tran sitions
ĠC a
ĠY e
Descriptor Proto
b io
exp onent
Ap ps
diff use
sp ar
]) \\
Ġpre tty
B V
Ac celeration
total Time
å½ ¢
00 20
device PixelRatio
000 5
Navig ate
ment e
Ġ1 88
normal s
valid ated
()} (
y Lj
ch osen
view Date
Content Editable
LENBQUMs S
ss ian
AA PL
jdGlvb ig
` <
at tempt
Validation Error
z ation
Image Sharp
get Visible
Sc rollable
ĠExp ression
d ue
so y
IG VsZW
Per f
C AD
Ġb ang
Log gedIn
(?: (?:
Line cap
overflow X
XHJcbl xyXG
sc anner
ä¸Ń çļĦ
XHJ cbiAg
Î ¸
Ġcompati ble
Ġ2 14
amp ing
md ld
H elvetica
sd p
Ġcome s
Vi a
Ġoffset Y
Cr iteria
" -
D m
},{ \"
vis ited
D rupal
S ocial
ĠSet ting
å· Ŀ
ĠH ide
set Cursor
":" &
è¡¨ ç¤º
c A
ĠCommon JS
Group Id
AE g
render s
prop Value
×ķ× ª
to lerance
ĠGe ometry
Nv bm
Ġ200 3
Ġraw Name
," ")}
Ġlast Name
Î½ Î±
ho ffset
Ġbi la
t I
is Symbol
ĠP t
Ġisn an
add Back
Ġ ÏĦ
Ã ľ
Ġd ahulu
Syntax Error
P SE
Ġmodule Name
fin ance
Ġti les
current Node
J vd
Â ©
Ġ" )}
Ġ2 35
ĠP l
UTCH ours
Z CA
v db
ap an
ä¸į èĥ½
lv l
åŁ º
z ZWxlY
ed Updates
! `
is Server
]. [
ĠF low
weekdays Parse
Ġsh ell
ĠS DK
apply To
100 1
)) ):(
Sh rink
Ġnext Tick
round ing
Rv ci
ĠSpec ial
ZnJvbS An
ĠS L
event Manager
is Extensible
AMEB UFFER
Per formance
æĶ¯ æĮģ
is Async
ĠL td
; ");
ĠUP DATE
ti ed
ĠWeb pack
2 0000
Ġcon verter
back ward
d A
FB c
da mage
Ø ¤
im ized
(/ \/
Ġskip ped
Ġre lationship
!= -
da e
pre ted
screen X
å° Ķ
Ġemp loyee
TE NS
de m
19 50
no script
L p
ĠGe cko
0 31
n j
Ġ' (?:
Æ° á»
pre fer
jo hn
'> "+
Ġ'# '
Break s
ka XN
S Z
Ġs id
EE E
Ø³ Ø¨
n Se
(":" )]),
Re lationship
Ġe g
Ġp ah
pro blem
çĻ» å½ķ
W elcome
Ġweek day
te k
Ġ// =>
Lat n
De leg
k bd
Ġorder ing
Co verage
how Many
Î ²
register Language
t zm
Ġbe liau
IM AL
end um
handle Submit
âĢ ¢
)&& ("
uv w
)}), [
ì ĥ
Ġag ree
á Ī
Ġvar ious
Ġ200 9
ĠSYS RES
Es R
":" ./
=( ()=>{
x M
CUR RY
cli pping
Ġ Root
Z QU
re connect
ĠC loud
Set State
Vl cn
bat tle
Ġe asy
ad y
ĠA D
ĠF re
Ġfn s
/ ),
"] },{"
Lex er
) ':
Ġ[ ]),
ĠT hen
red Sqr
ity Parser
xs rf
on Hide
Ġquery Params
set Header
ir an
Border Box
"]= (
ok t
Ti cker
ZX Qg
a void
context ual
mail to
aX R
Ð°ÑĤ ÑĮ
C TED
X g
ĠQ e
ĠF lash
F Z
aj ib
çĤ¹ åĩ»
Ġcollection s
y ak
Ġtouch es
K q
Ġmanip ulation
Ġapp lications
| ~
R SA
b cd
d ri
ĠH istory
Sn ippet
LGV BQW
B readcrumb
C ENT
q cz
Ã¡ s
n A
Ġ1 43
Ġus ually
w elcome
12 64
temp ting
% &
K P
N ear
F light
X SA
ç ĥ
th an
con versation
QU OTE
Strict Mode
UIs Q
ce DY
Ġd ig
high charts
Ri wayat
Â «
ç Ŀ
is c
is Over
B Box
S YS
W ave
Y Q
l ift
h wb
+" +
at tack
Ð¸ÑĤ Ðµ
ÐµÐ½Ð¸ Ðµ
URL s
ĠCreate d
Ġdecor ator
j z
W B
g ad
Ġap ps
Ġbah kan
Ng Module
morph Targets
u IG
":" ")+"
restri cted
à¯ ĩ
ĠPro to
Ġ ****************************************************************
to oth
20 200
Ġfrag ments
U DO
c O
ĠH al
IGV sc
l x
Fill er
æĦ ı
Ġbu y
& :
ĠI e
Ġv p
lb HNl
endak i
Ġoption ally
Ġq e
ST ACK
Mask ed
09 15
Ġp p
Un load
+ )|
pin ch
à½ Ł
G as
Ġ1 66
on Add
Ġel s
Cre ators
ĠCustom Event
t C
ĠT hat
?" -
69 444
Ġsur face
gICAgICAgICAgICAgICAgICAgICAgICAg ICAg
D uplicates
ÙĲ Ùĳ
ĠS up
to Hex
on After
get Parameter
bn Vsb
ĠF F
Ġh er
Ġw o
FB Z
ĠP ort
æŀ Ħ
OR IZ
]* =
RW xlbWVud
w oo
({ _
form ula
Dis connect
ÙĬ Ø³
ud fff
before Send
ĠLay er
Node List
Par ticipant
Ġdelay ed
or ry
Ġ' ).
ĠTe tapi
event Namespace
wrap All
å· ¦
en force
Ġstop ped
Ġil mu
è ĵ
yb rid
PROPER TIES
S CALE
Ġel t
AF E
ãĥ³ ãĥ
7 31
ĠBa sic
g q
ex emp
du cation
F onts
L w
tur quoise
Ġre Is
CO LL
Ġc js
ra ve
ĠO o
fire d
ĠMON TH
ot s
+" ").
('/ ')
ta ma
pol ar
Ar rows
By Index
")} )},
ad v
]} )),
("| ")+")
Ġde clared
AL LOW
up t
external Id
transition End
Ġinitial Value
æ ¤
Ġn h
ë ©
md n
Ġt l
ĠR a
scroll Speed
t utorial
parse Date
Ġ{? =}
safe String
Ġ' ..
__ ),
ä¸ ļ
Ġë °
our nal
à¤ ¦
("# ")]),
Ġman ual
ãģĹãģ ¦
Ġ× Ĳ
Ð¾Ð» ÑĮ
Ġj avascript
é Į
A UTO
E QUAL
U O
Ġmer asa
screen Y
Ġsp inner
ĠEx pected
VVVVVVVV VVVVVVVV
cmVxdW ly
tr ash
in vite
parse JSON
Mo ving
ai Display
needs Update
06 29
__*/ (
par ticle
Po ssible
tran sclude
LG NBQW
ĠSte p
Ġp tr
range Count
èĢ ĥ
ma zon
Check Box
region al
Ġhandle Error
j ah
Ġ) :
Ġspec ifies
Ġinter polation
xuICAgICAgICAgICAg ICAgICAgICB
" %
ver ified
ĠDe vice
ĠT t
ĠF rame
present s
Ġex ceptions
onMouse Leave
isN ot
Non Negative
]) :(
P N
Ġw ide
)} )};
Ġre generator
ĠE u
AL OG
gra mmar
à¨ ¾
Ġ Validate
RE SPON
Ġtranslate X
ĠSc ript
s C
}; _.
Ġ4 96
Ġ Ċĉĉĉĉ
and y
"}, ":
domain s
# /
ë °
is Transitioning
LGl CQUF
ĠP erson
Us Q
ĠDis cord
Rendering Context
Ġses ungguhnya
Ġy o
' ===
Ġtemp orary
Ġmenger jakan
X M
m j
Ġp ict
call er
ti ze
wo od
Ġsik sa
v ak
Ġswi pe
DEV TOOLS
ÑĤ Ð¸
zz z
BO ARD
hb iB
K M
Ġas pect
cat alog
Ġmenj awab
B ag
pointer Id
measure Text
bn u
ä¹ Ł
en coder
au h
github usercontent
has Children
ĠE DIT
uti ne
V oid
Ùħ Ø¨Ø±
N ATIVE
q Q
}, !
Ġl arger
xz ZSB
(' *
ir on
ĠM ongo
NT Q
ca ptions
Ġsome times
ĠMap Cache
X Q
la mat
à³ Ĩ
Ġmo tion
)} )}},
ld CB
ë §
arg a
:/ [\
Ġ{} ).
FBQyx PQUFP
pbmRle C
900 7
Y v
is A
Ġman age
/ %
De cember
color picker
Ġass oc
sem ver
Ġto Number
> .</
T v
ĠM t
," "]},"
} )));
"," "],["
root Element
ĠS top
æĿ ĥ
Ġexample s
quo tes
set Title
drag Start
ì Ĩ
Ġ' ),
Con v
10 11
bn M
ĠI F
EAA G
Ġfire s
ĠC t
qKio qKio
X Axis
Font Color
Ġupper case
X k
get Meta
Ġpri v
Ġde scri
Be low
fe ren
ji an
Pie ces
Ġu tility
Start Index
open vdb
kg PT
r fc
fe male
z x
ĠCom ment
Ġma il
Ġ/ <
Up O
\ ':
fi k
âķ ĳ
si des
rea ssign
T ARGET
SS ION
Ġnew Child
Ñĥ Ð»
Ġ" )),
SE QU
Ġ$ _
Event Handlers
PL Y
Ã ī
")} )),
C ENTER
active Class
Ġp our
ç ¯
Ġclass ified
Bu ffered
ä» İ
vo s
ĠList Cache
d get
Ã¤ n
Re ferences
ac d
ID ENTIFIER
bm Vy
before Destroy
URL SearchParams
O dd
Ġì ķ
const rain
Ġh ue
get ClientRect
ĠSe ssion
Acti vated
ĠA V
ag reen
ac l
If Needed
Y Axis
Ġ( ...
m ur
ready Wait
Ġc ara
is Primitive
Ġ' ('
AF c
ĠCar ousel
ĠMethod s
an nounce
Ġis Loading
cp u
ate ly
En umer
Ġo cc
æŁ¥ è¯¢
ĠCom mit
AI g
aG F
au thenticate
Ġ Selection
': _
Ð¾Ð³ Ð¾
uvw xyz
åĪ ¤
cloned RuleSet
Ġthe ad
ĠHandle s
)} },"
=\" "
Check out
f ra
ch es
Û ĩ
at ables
Ġa ctor
AF AA
Ġ2 11
Ġn r
Ġ1 75
Ġpublish ed
Ġmargin Right
Ġf urnished
Ġc aught
OR w
Ġid entifi
is Before
exp orted
Ġqu ad
Ġs yn
s ay
ĠDis patch
request ed
Ï ĩ
æĹ¥ æľŁ
C v
SCAL LS
COMP LETE
for Own
find Last
00000000 0000
luck ysheet
Exp ansion
064 7
Ġdef s
Web Inspector
M TY
":" [
33 55
gICAg Y
y OiB
167772 16
Fire base
inter ceptors
V ol
Ġon Load
al ph
Re lay
æ£ Ģ
ol ving
): -
Ġmem ili
ch dir
ĠI NT
Poly line
}, \
Ġ2 17
update s
å¢ ŀ
onMouse Enter
B UILD
); });
PASS WORD
ë Ĳ
ĠT im
Ġme d
éĢļ è¿ĩ
comp oser
and er
Sh allow
Generator Function
O Q
t L
Ġr v
Ġq t
Ġi en
at k
Ġi v
Ġun bind
next ElementSibling
Browser Env
Ġ' ]
On Error
ĠIn it
men tion
p q
j grid
ĊĠĠĠĠĠĠĠĠĠĠĠĠĠĠĠĠ ĠĠĠĠĠĠĠĠĠĠĠĠĠĠ
g res
Ġg s
_ =!
XHJ cblx
,[ ,,,,,,,,,[-
ACUAJQ Al
å·ŀ å¸Ĥ
Type Checker
)+" \
ĠB ad
! "
tool box
10 19
Ex tract
P ast
Ġn am
ĠLo ading
j ZW
u aW
")) &&(
FBQyx JQUFJLENBQUMs
wa ul
Ġauto play
Ca pacity
Ġoff line
Transition Duration
ìļ Ķ
Ġ2 34
)}} )}
Ġà¤ ķ
sat uration
Overflow ing
ĠDe bug
Handle d
à° Ĥ
int en
Ġcomp letion
SVG PathSeg
IHRoaXMu X
Th ursday
Server s
class operations
Ġis Boolean
Arrow Down
Ġplay back
ï¸ı ",
on Success
clo sure
Ġ2 70
toHaveBeenCalled Times
á» į
Ã Ł
Re porter
ĠF r
ĠG B
F lip
AD MIN
Jv cm
Ġ" //
Ġ1 46
> "},
UV W
Memo ized
Ġl iter
}} .
V ED
Ġb log
store Name
9 21
jdGlvb iA
Mouse Move
ump ad
{" +
327 68
å Ħ
Ġoper ators
/> ").
temp erature
desc endant
E FF
set tle
à® ļ
L ifecycle
create Position
Febr uary
LFFBQVE sQ
L MN
ĠH i
global Data
Ð°Ð ¶
base Power
get List
âĶ ľ
YW Jl
à¹ ĥ
TENS ION
e cho
sus pend
Git Hub
Ġre active
ĠPro gress
am ond
Ġinitial isation
MS Pointer
s mi
Dim s
fir ing
dat al
GG GG
erarch ical
d pZHRo
Ġ*/ ;
Ġdis pose
face t
ty pename
Token izer
? $
as ures
handle bars
Ġcr iteria
|| ("
local Name
Ġlast Day
b V
c HV
ĠGe o
Ġ*/ }.
çĶ »
ĠA PP
UJ BQU
Ġra h
Ġstart Index
çī Ī
Ġsub title
åĲ ¯
ç Ĺ
Ġch allenge
ĠO t
Ġsp lice
ecma script
BuZX cg
% )
R ename
child ContextTypes
ĠN B
Ġro bot
region s
ĠÐ½ Ðµ
tool tips
ol i
AD Q
") +'
og g
Ġb anner
Ġs leep
ex cept
ass oc
re voke
Ċĉĉ ĠĠĠĠĠĠĠĠĠĠĠ
Ġ1 64
Ġcomp osite
f re
Ġ Deferred
By Type
Ġ1 55
ud f
Â į
get El
finish Node
g dGhl
In d
IR ON
z ing
Ġtest ed
Ġactive Element
Ġquo tes
Ġlo t
Ġar range
mo ut
0 80
j et
(); "
åħ Ī
Ġ Ñħ
ab ar
ĠD t
ĠB B
åŁ Ł
cbiAgICAgICAgICAg IH
Re order
getElementsBy Name
getDerivedStateFrom Props
} ):(
Ġ"_ "
ĠNUM BER
ĠU S
ĠCon nect
$ $.
No op
æ ¿
SUPP ORTED
imul ated
game s
ĠCL ONE
is Immediate
pre release
Pie ce
Or Tools
Ġplugin Name
Ġ ------------------------
à¤ ¶
dialog s
__ ){
ĠE mit
pa i
At Time
ref low
auto Play
isRe served
çŁ ¥
ren ch
åıĸ æ¶Ī
Ġalign ed
unjuk kan
æµ ĭ
×Ļ× Ŀ
Û Ļ
lect ric
app Id
âĤ ¬
() ","
AB A
Ġ_ ;
For Value
Be st
("{ ")]),
C ircular
áŀ Ķ
AC g
Ġ# \
Ġbro ken
Ġme ma
Ġpol l
bG lk
IDE O
Ġ2 13
19 47
Te X
Ġcar ry
Ġaff ili
pointer s
Prefix es
x ffff
Ġin verted
base Stats
Ġobser ve
O v
W K
Ġw b
ile s
g Jy
æī ĵ
on Remove
Ad jacent
èĹ ı
P df
i VB
Start Vnode
KG go
Ã ĺ
fa cade
Code words
outer Radius
AE s
coun tries
áĢ ¬
U H
Pre dicate
Re sume
Ġ1 99
uk ul
T ube
PRO VID
include Instance
F riday
x vd
a AA
Field Value
Ġch a
Ġwas m
mag enta
Ġch oices
Ġadd r
gaX Mg
Ġe asi
ve x
Ġcon sume
ĠD oc
Touch Move
("} ")]),
ABCDEF G
exec ution
IB LE
Vt YmVy
Ġ'/ ')
k D
enu h
E AR
G v
to Element
ff a
before Create
ĠDELE TE
var ying
Ġo ffer
file Id
ãĥ Ń
ands ontable
n aW
dGl m
p ID
ĠS n
d if
ãģ £
write File
ĳ Ħ
Id ent
Sample s
find DOMNode
ĠĠĠĠĠĠĠĠĠĠĠĠĠĠĠĠĠĠĠĠĠĠĠĠĠĠĠĠĠĠĠĠ ĠĠĠĠĠĠĠĠĠ
æł ¹
Y ul
try Loc
Ġcur ried
Ce sium
qu er
Ð¸ Ñİ
CHAN NEL
keep Alive
ë ²
re served
sh o
Ġex cess
Ġmeasure ment
Ã ĥ
app lications
composition end
Iteratee Call
Ġc amel
Position To
Rv Y
event Data
ĠSt ar
Ġ1 87
Pro duction
Touch Start
]= _
Ġtran sitions
+ (?:\.\
h ls
as ily
Ġmin Height
t Z
}} @
i y
s List
× §
Ġspy On
aa f
Ġjob Title
Line Dash
REN CE
ĠDis able
ĠMe kah
S aturday
Å ł
Ġ Storage
Ġsub sequent
C AL
tin uation
ZWxl bWVud
re mark
trib uted
h cn
| #
ICA ge
la ki
wrapper El
ubG VuZ
n float
PY mplY
Ġf avor
CA SE
ele vation
should ComponentUpdate
Ġl s
IF wic
Ġfree ze
Ġor d
v ml
iVB ORw
Ġs iblings
ome tric
struc turing
Ġ1 65
áĥ ¡
AB g
to g
ular ity
LF xuICAgICAgICAgICAgICAgICAgICAgICAg
Ġembed ded
hE Ug
oc olate
Se ctions
20 97
fig caption
me js
ĠWeb Kit
transition ing
= ()=>{
12 06
Ġ vert
ic i
mF y
ST OP
ĠApp le
156 25
x ds
Ġal loc
AAAA NSU
isArray Buffer
C ipher
â ģ
jo int
Regex Token
Jo bs
B LEND
de b
aniti zer
ajax Prefilter
á» Ļ
scope s
\" ),
:[ ]},{
Pol l
str y
Ġoffset X
Ġsh op
ZS kge
ATTACH MENT
E ui
g pO
({ },"
agnos tic
B ank
se agreen
RAN DOM
ar um
He ap
Ġlo s
Ġsu itable
Ġcomplete ly
Move ment
state Params
KGgo AAAANSU
set Default
158 592
Event Names
ĠL ast
Ġa y
ca e
ĠT EST
ow s
ĠL t
Ġra ting
$/ ,"
obser ved
Ġst ores
template Settings
Ġbuild ing
QR ST
current ly
Ġw ent
vi c
+" &
ĠJ son
uni prot
Car tographic
Ġre start
)}), (
Ġ=================================================================== =====
Ġe qu
S caling
ê µ
Ä± n
F our
}} )}
/^ (
Ġx y
qu ux
Ġde coder
An alysis
Û İ
iter ations
KGgoAAAANSU hEUg
T uesday
Ġequal Func
pop state
' #
h bn
IF tcbiAg
om y
æķ ´
g P
t bl
19 49
S ix
T AL
b ower
ĠB i
ĠU SER
Ġ ENV
has Family
77 77
p X
13 56
Å ¼
() )};
Ã© e
Ġcater waul
b ordered
ĠSp lit
x ed
Ag o
co ol
:! (
, ++
h hbmdl
Ġ locked
Ġis PlainObject
ĠD ATE
select start
in sertion
original Element
ĠOver ride
m ult
Ġ× ľ
async Iterator
view To
è ħ
'ðŁ Ĵ
que e
Ġcurrent Page
ĠR t
Ship Country
ãĤ «
FBU yx
Q ge
ti mp
Re v
ĠAttribute s
Ġ ê°
full Name
OiB mdW
Ġ{ {{
Ġg olongan
By ZXN
ĠH a
Base Url
},{"./ _
Z UN
YX Bw
|\ [
ÙĨ Ø¯
ĠT ABLE
ê ·
Ġbu iltin
acti vation
Ġ2 29
item Style
ãĤ ¸
ag ia
Ġdash board
Ġx a
Ġ1 69
Inter pol
Ġn n
ti ble
I ge
/> ",
pull All
Ġadjust ed
un nel
de a
Ġth ru
Font Style
% {-
Ġmod ification
t j
ï¿½ï¿½ï¿½ï¿½ï¿½ï¿½ï¿½ï¿½ï¿½ï¿½ï¿½ï¿½ï¿½ï¿½ï¿½ï¿½ï¿½ï¿½ï¿½ï¿½ï¿½ï¿½ï¿½ï¿½ï¿½ï¿½ï¿½ï¿½ï¿½ï¿½ï¿½ï¿½ ï¿½ï¿½ï¿½ï¿½ï¿½ï¿½ï¿½ï¿½ï¿½ï¿½ï¿½ï¿½ï¿½ï¿½ï¿½ï¿½ï¿½ï¿½ï¿½ï¿½ï¿½ï¿½ï¿½ï¿½ï¿½ï¿½ï¿½ï¿½ï¿½ï¿½ï¿½ï¿½
Ġ å¦Ĥæŀľ
po i
ali k
Order Date
Ġpa lette
SCRI PTION
Ġfore ign
ĠM erge
hover able
Ġmenur ut
G z
is ub
Frame work
Normal ized
P en
lo ye
Ġd ont
Ġ2 32
config s
w Y
Ġk u
prefix er
Ġaccess Token
30 59
9 43
x j
Ġ') '
Ġw ish
Ġ2 19
Ġ3 36
? %;
Ġb as
Ġbreak point
server s
Å ŀ
Ġì Ĺ
b rown
f an
= ":
or o
Ġma cam
C as
axis Y
QkFB c
expect s
y ml
Ship Name
Ġ ÏĢ
end ers
ic an
ĠN ULL
Over lap
Ġ Õ
Ġline Width
Ġmela ksanakan
n ls
z zy
set Transition
ic ial
AN Y
Ġimp orted
Wed nesday
ĠMutation Observer
ë Ĥ
g auge
st ride
VER TEX
child Count
Ġattribute Name
Appear ance
èĻ Ł
å ´
Ġbus iness
Ġdata Types
Ġquo ted
Ġ lay
c q
"] ],[
)? (?:
ë ª
à· Ģ
o A
à¹ ĩ
ler p
[" @@
Url Tree
E Z
b P
y p
ĠC ircle
di ce
persist ent
ĠU e
]| \\
Ġd raft
si ckle
S ID
En ergy
Ġt n
Ġr c
tc XG
frag ments
Margin s
YTP layer
Ġs ungguh
ON LY
)$/ ;
Ship Address
D J
M DE
ĠF IX
select Node
Ġ1 89
Ġ1 94
NO TE
Oct ober
) :{
L ab
04 56
bG l
ml j
ircum flex
cf b
am mer
Ġ$ ,
s Search
over lap
ro ps
Ġscroll Left
Ġtra versed
e G
on Cancel
men ub
a es
Ġnorm ally
xds oft
re o
/^ (?:
Ġmemo ize
DO UBLE
Ġsel uruh
to wn
() ))}
Start Date
S ol
]) ||(
Touchable Opacity
B er
ĠP RI
Dis posed
Height s
As sembly
drag ged
uniprot Id
à§ ģ
Ġy i
la v
global Alpha
S yn
Component Tree
à¤ ı
transp ose
Ġasc ii
/ "),
Ġbu ffered
= ("
in crease
p ill
Id entifiers
=[ ]},
reference d
arb age
Ġis Integer
create HTML
RE ATE
branch es
F requency
Ġd f
ach er
Ġmaterial s
ĠTra ck
isUn def
Ġh older
Ġmatch ers
u ari
con firmed
b HR
})} );
Y ellow
m uk
debug ger
[]+[])[ !+[]+
] ]:
Ġg uid
Ø¬ Ùħ
se y
X Sx
dis count
pol ling
16 05
Ġle ap
cs XG
Ġ( (!
Ĩ Ĵ
+" ="+
At t
Zp bG
Ġ^ =
luc HV
is Paused
12 66
clear Rect
," "):
app lied
dG Vk
cul ty
fa at
mis c
Ġ1 51
ĠL i
Ġ Keyboard
is After
un ix
Ġ` \
< _
? /,
se cs
week s
Dom Event
éģ ĵ
8 21
ri al
Ġand roid
Ġplace s
aha i
Ġ"# "
no log
photo s
M Z
Ġme ss
ld yB
Private Key
RE NDER
Ġpre set
zL n
Request Id
O yB
n exports
ab orted
Ġma suk
CS V
Period s
in er
Ġch osen
UUFBU SxDQUFD
Pre set
AS CI
ca ster
attr Hooks
)/ ;
Ġcur ry
nQkFB Z
W G
ĠReact Current
Ġ16 1
åĳ ½
get Zoom
CATE G
ub ah
Ġchild Node
cbiAgIC og
Ġme me
ĠX e
f C
Ġon Select
Click Handler
full name
oct okit
Unique Id
\"], \"
Da mage
gold en
:" ";
Ġr d
ifi cations
bl ing
Rh cn
Exp lorer
mi um
:\" \\
Ġty pically
on change
aX Ro
assign ment
(" ".
Ġstr ong
o ss
(_ ),
Ġ1 79
à² °
CAC HE
qu ar
æ ©
ĠQ t
ç§ Ĵ
c redential
Is S
Ġfe edback
qu iz
åħ¶ ä»ĸ
Ġre moval
,[ (
NvbnRl bn
cI ik
slide Down
| <
en i
äº ¬
å¹ ¿
R PC
Ġ8 64
handle Close
ĠL ight
Ġdrop ped
Ø ¥
cd f
IRON MENT
L ater
Ut bG
gra b
sp lash
X D
=" ',
label Position
add Item
Touch End
for d
RI PT
KTt cblx
is Local
Ġz t
z B
Ġre porter
20 22
; //
') },
Total Payment
Ġmedia Type
(' &
ĠNo tes
id ers
à¸²à¸ Ļ
ĠTw itter
Ġ ERR
ĠStyle d
ke in
ĠRen derer
Ġa bbre
Char set
* ="
ĠRe cursive
transform Origin
Lm V
flat pickr
vK ip
77 44
ro ck
ma j
Ġnext State
slide To
åİ »
Ġc nt
ĠF in
", ,,[
ot lin
Sub title
WebGL Renderer
Ġhandle Change
Ġconnect or
Ġs ong
Ġ) <
Computed Style
ìŀ Ĳ
U q
Ġan aly
IT AL
\/\ //
ra co
Sc an
SING LE
pro yect
ä»£ çłģ
Ġ2 25
Ġser ve
Ġid entifiers
12 05
ĠOn ce
Ġ") ");
ĠPop over
Ġasc ending
æıĲ ç¤º
un signed
Ass oci
access ibility
CONN ECT
http Backend
Ġgre at
ri k
Qt Y
Encode d
Par a
Ġ- (
b et
ma tical
array buffer
ĠD uplex
Nj c
Ġper forms
p IHtcblx
() %
b mp
Î ĳ
agnos tics
TR A
S keleton
Ġweekdays Short
el lipsoid
Ġcapture d
E ACE
í Ļ
ä¹ ¡
f B
Ġ} }</
get Transformed
Ġh ighest
ï¼ Ł
çĶ º
od HRw
Ġset an
Access ors
ch romium
Statis tics
\ ",[
Ġbe have
o ses
Ag B
local ity
sa UJBQ
inner Radius
à¶ ±
I ED
))} :
Q q
Ġlo cations
ByZX F
spr int
key stroke
li x
View Model
Bu YW
04 37
IC k
Ġvi m
provides Module
IC ES
cent ral
Ġp resence
O ID
l ig
... ',
CAA A
, `
Max Width
) '],['../
åĳ ĺ
Up dater
block Size
QRST UVW
"], {
Ġne arest
Selection Change
AB I
xv ci
Ġ2 45
V el
max imize
8 31
inf late
ĠFUN CTION
is sor
Ġoptions OrCallback
Ġval or
decode d
? |\
Ġp m
alloc ate
sa les
ADAA MAAw
Ġrah mat
E vt
Ġh ub
add Attribute
ĠR ule
ing atan
Co s
Ro ughness
bon us
isImmediate PropagationStopped
al er
Ġo pp
ĠIn sert
Line join
Ġ(_ ,
a CB
Â ±
}, $
ac cepted
c ab
Ġp refer
ĠURL SearchParams
W v
:[ '
]+ )
ãĥ Ĺ
W q
k on
89 89
my sql
Image Url
iDisplay Start
ĠL odash
ligh ting
cmV m
sign in
In jection
Ke kule
Need Update
Ġd c
ĠJ a
web p
Ġ' ?'
Ġd ag
áŀ ı
G lob
G ree
l L
Ġ" +"
overlay s
le HQ
Man aged
series Index
Ġ turun
ĠA nal
Ġass ertion
er ative
Ġremove Class
get JSON
reate d
ĠWeb kit
sus pended
HI JK
end Of
env Map
j dW
]); \
Njcml w
à ¬
Ġget Set
drag over
P ARE
ĠM ini
cu it
ĠFile Reader
cbn ZhciB
æ ¾
ed ron
"); \
Ġ20 2
Ñģ Ñı
X Rl
dev kit
Arrow Up
ji kan
ung arian
Ġbel um
reactInternal Memoized
âµ ī
Ġtan ah
ati bility
]*/ :
Vertex Attrib
Ã Ī
pm n
% %
Ġ Pos
private Key
] <=
mo ke
Ġcolumn Number
= <
Ġ" ðŁ
)+ ((
css Position
Ġset Is
bn Nl
lower Case
Scroll Y
å¼Ģ å§ĭ
S ong
âĪĻ âĪĻ
get Native
z p
Ġframe work
éĹ Ń
W izard
pec ting
\. ?\
Ġdot s
)(? :\
Ġs ol
notify With
Pure Component
è¿Ļ ä¸ª
Ð¼ Ð°
ED GE
PO INTER
NlbG VjdG
is An
x ls
Ġ2 22
ub W
ĠW in
Ġcl oning
active Date
Serial ize
Ġs anitize
Ġ{}; \
ĠÐ¸ Ð·
Ġil en
Q P
table Name
à¦ ®
ip hone
ini ti
tah ui
Ġ1 85
ced il
isP ure
âĢį ðŁ
Ġx n
sign In
Decor ators
ĠĠĠĠĠĠĠĠĠĠĠĠĠĠĠĠĠĠĠĠĠĠĠĠĠĠĠĠĠĠĠĠĠĠĠĠĠĠĠĠĠĠĠĠĠĠĠĠĠĠĠĠĠĠĠĠĠĠĠĠĠĠĠĠĠĠĠĠĠĠĠĠĠĠĠĠĠĠĠĠĠĠĠĠĠĠĠĠĠĠĠĠĠĠĠĠĠĠĠĠĠĠĠĠĠĠĠĠĠĠĠĠĠĠĠĠĠĠĠĠĠĠĠĠĠĠĠĠ ĠĠĠĠĠĠĠĠĠĠĠĠĠĠĠĠĠĠĠĠĠĠĠĠĠĠĠĠĠĠĠĠĠĠĠĠĠĠĠĠĠĠĠĠĠĠĠĠĠĠĠĠĠĠĠĠĠĠĠĠĠĠĠĠĠĠĠĠĠĠĠĠĠĠĠĠĠĠĠĠĠĠĠĠĠĠĠĠĠĠĠĠĠĠĠĠĠĠĠĠĠĠĠĠĠĠĠĠĠĠĠĠĠĠĠĠĠĠĠĠĠĠĠĠĠĠĠĠ
Ġmean ing
an c
sub Vectors
ĠUser s
Language s
SECON D
e motion
ĠE mail
Ġen crypted
Ġì Ħ
i ush
gue sts
^ \
ĠB r
,! (
ìł ķ
get Raw
pa k
app Name
JS Compiler
Ġover written
Ġwithout Suffix
ĠService s
man ent
ul kan
14 29
"> ,
Co lour
Ġeasi er
insert At
ÛĮ ÙĨ
text Style
| {
:[ */
pb i
/*:: ]*/:
QRSTUVW XYZ
]+ ",
Ġweekdays Min
Ġ1 86
Ġt z
Nav Item
Ġtemp or
.âĢĿ ","
H ighest
ĠT a
ĠP hone
cer tificate
event Types
Ġn is
FI LL
kZWZpbm Vk
ĠBound ing
d rive
por ters
Cur r
è¾ ¾
ĠMan ager
&& $
ve st
tween ers
text Node
M es
Red ucers
] >=
":" @
ĠN t
Ġrender s
Ġmove ment
re me
ch id
we ep
Ġrow Index
Ġdecimal s
ãĢĤ </
å¥ ½
=_ ,
P aging
P ada
ìļ ©
z j
prefix ed
cz o
Color Picker
Ġs un
Ġre view
Ġlast Week
need Readable
ĠH ar
B UG
ta iled
NUM ERIC
set Document
Ġerror Callback
te tur
request Id
CON DU
weight kg
K N
ĠB t
Ġbe berapa
åį ¡
\\\": \\\"
AA AD
ss er
ĠA LL
Ġab orted
dar ken
loye es
Ġd ip
target Element
ĊĠĠĠĠĠĠĠĠĠĠĠĠĠĠĠĠĠĠĠĠĠĠĠĠĠĠĠĠĠĠĠĠĠĠĠĠĠĠĠĠĠĠĠĠĠĠĠĠĠĠĠĠĠĠĠĠĠĠĠĠĠĠĠĠ ĠĠĠĠĠĠĠ
a B
To Bytes
ĠA SC
Ġ3 65
HE X
work ing
Ġcla zz
è°ĥ çĶ¨
Resiz able
H ASH
e ol
run e
Ig no
G m
ĠTr igger
))} ));
SUFBSSx FQUFF
Measure ment
Mouse Up
é¾ Ļ
13 00
uFF EF
CU ST
ĠNo tification
Ġst derr
LMN OP
ol vers
ĠKT Util
is Absolute
=/ [\
Jo hn
",[" [
G uid
l bl
to ber
bind Buffer
aa Sorting
Type Id
; $.
M uted
stit ution
an ak
dash array
\" ;
\/ (\
Ġtr uncate
any alah
214748364 8
K L
ĠS im
Ġ*/ :
AR GE
Ġshape s
abcdefghijklmnopqrst uvwxyz
r j
El lipsoid
plain text
< -
ĠâĢ Ķ
Ġnew line
HJ ldHVy
JldHVy bi
W Y
\ ')
{" ./
Ġregenerator Runtime
Q I
[ \"
=== -
scroll Sensitivity
e AAe
el le
Pri me
\" ./
à¯ Ĩ
LIGHT S
å± ķ
pagin ate
has Next
in clusive
Ċĉĉ Ċ
Ari al
("=" )]),
W RITE
Ġc id
pro tect
ZX Mv
Label Position
text Baseline
rom an
parent Window
Ġinte rest
Response s
ĠVer ify
ÑĥÐ½ Ð´
p R
f id
cancel Bubble
Bh cmFt
} ||
us r
cor ners
grid Row
YWNr Z
d fa
omin ator
target Inst
9 51
F ly
ex clusive
ĠIn formation
Layout Effect
çľ ģ
* "
D AA
bounding Sphere
xp QkFBa
Ġlocal Var
scrollbar s
ing System
cc cc
Ġscale Y
ut s
: ":
Ġnext Day
debug ID
Qs XG
ĠEn tity
COMM AND
ĠI bnu
ĠØ «
à· ĥ
Vo ice
pl ant
+ ~
MD A
ABCDEFG HIJK
g ZnVuY
E OL
up s
temp ted
c amel
max Zoom
Ġ2 80
pointer out
Ġt ang
av id
Case s
MDAw MDAw
X w
ar range
From Instance
Web site
j sp
Phone Number
get Total
sor ter
RU FBQ
egg Groups
18 00
Ġsimul ate
[ ${
ab ling
IN F
ãģ Ľ
Ġconstructor s
Ln Z
L ONG
g R
Ġo d
Ġk endo
AT ORS
ĠC B
Comp arator
initial State
Ġmac ro
g I
â Ŀ
ĠDe v
De grees
Detector Ref
in ertia
X m
sto res
èµ Ħ
,[ _(
", /\
orizont ally
Link Id
limit s
Ġ[ /
ip pets
å¿ ĥ
] !./
re covery
ĠSe m
å®ŀ ä¾ĭ
un select
ĠW h
source Index
éħ į
æŃ ¥
S low
Rad ial
) !=(
Ġ1 74
k C
um ing
w ho
ĠSe ction
cbiAgICAgICAgICAgICAg ICAg
Ġconstra ints
Ġ3 68
c ategor
Ġ Ð¾Ð±
is Arguments
]) \
pointer Events
Aw s
sn iff
é Ħ
Ġweb kit
invCluster Size
p lier
Ġg ray
men tions
exemp lar
(" ")},
Ġ3 40
åħ ·
Å ĭ
Ġ2 18
Tr iggers
ĠF t
Ġde termin
CONTAIN ER
q Y
ç ĵ
à¥ Ĥ
KT Util
d Ch
Ġf ac
CONDU IT
ĠG NU
c ad
New lines
unmount Component
tn cm
12 80
* )?
," ","
ĠC r
is ter
y ond
contract s
Ġ lex
ĠA h
Ġapp lies
short Desc
ZWN r
214748364 7
ul fill
vers enum
Ġ ě[
', [
Ġst e
Ġs ynchronous
ĠF rom
current State
des k
j ay
Ġd l
we red
ster n
]} )}
Tw itter
] )))
use less
ICAgICAgICAgICAg ICB
Ġw ater
De st
CONTRO L
Ln Byb
Ġis IterateeCall
isS imulated
ĠKa rena
11 14
â ī
Ġcontrol led
è§ Ī
F QUN
au di
IF Y
Lj E
height m
Ġnew Props
áĢ Ķ
Ġf c
Ġrad ix
a un
Ġt sc
19 87
en sive
sub type
Ap pointment
åŃĺ åľ¨
Ġ' ">'
)) -
__ /
Val s
man tics
Ġq r
xp Yi
ĠCK Source
bab kan
Pas sed
Ġh ello
camp aign
H Mg
'+ (
M ini
"] ){
Brawl Lib
t IC
z or
Ġ States
YXR ja
get Param
h pp
ĠIN VALID
================================ ================================
o Event
p ulse
. \\
p ragma
Ġc aches
11 10
Prop Name
ĠPro vider
mm ing
v IE
lo be
20 70
emp loyee
Big Number
Vega Lite
To Remove
List en
Ġpad ahal
data Points
ĠN ODE
no Data
")} ).
ĠY UI
Js aW
slot ted
ĠL LL
ZX Jyb
cri min
Ġh n
Ġmouse over
` '
Ġover lap
Ø± Ø¨
cmV j
PROTO TYPE
e fa
*/ )
gr ant
Re liable
Ym Vs
X x
)}} )),
Å Ħ
ĠM n
Obj s
VAL UES
Ġ Er
/^ \
Ġport al
Ù ķ
is Last
st re
Ġun supported
h in
mo vable
15 1985
Property Descriptor
Ġo a
b ones
ct r
prev All
Detach ed
- [
A verage
ĠO leh
anchor Offset
drag on
Dash Offset
Pending Time
mig ration
un handled
chunk Size
Bra ce
f dih
ip ad
BQ X
Ġ questions
Ġb ubbles
e mo
Ó Ļ
Ġ}), \
Ġte k
k ubernetes
set Filters
Ð°Ð¿ ÑĢ
à° ¿
Back bone
Con versation
L isting
M ig
P USH
Ġsn ippet
Ġnative Min
è¿ ŀ
AH Q
Ġs at
new State
iamVj dC
Oi Ax
ĠST AT
LFNBQV Ms
ð ŀ
HO UR
ul ator
item Id
áĥ ķ
IM ATION
Ġma gn
be en
ND b
Ġ190 58
pb WF
Per Block
LI MIT
Sk ill
ĠComp lex
co upon
Ġg un
vid ing
áº ¿
ĠS ame
line Color
c il
map StateToProps
Ġcomp act
è¿Ľ è¡Į
P reference
67 08
R yb
Control led
Ġgo es
ìĸ ´
ABCDEFGHIJK LMNOP
set Visible
ĠM onth
ng Module
ĊĠĠĠĠĠĠĠĠĠĠĠĠĠĠĠĠĠĠĠĠĠĠĠĠĠĠĠĠĠĠĠĠ ĠĠĠĠĠĠĠĠĠĠĠĠĠĠĠĠĠĠĠĠĠĠĠĠĠĠĠĠĠ
b ff
Ġx i
ud ents
U gb
FB b
c orked
ud o
calcul ated
Ġ answers
è Ķ
si mul
/*! ****************************************
FBQyx RQUFR
hy per
éĶ ®
CTR L
f al
Ġit ulah
By ID
ĠìĿ ´
t ui
ĠL LLL
à¦ ²
Ġmemb awa
search bar
is Stopped
ig u
ti co
," [
Ġme le
Form ula
Contact s
D Z
i Pad
pointer over
function Name
Ġf act
j KF
25 00
YX Mg
pro posal
Al g
exemplar City
è Ľ
ar ang
}) ],
ĠAl ways
fe z
rup ted
be a
Ġs impl
Ġs uggest
ĠD OC
w J
FR AMEBUFFER
aud it
ï¿½ \
thumbnail s
G K
w j
Ġd uplicates
async Factory
ĠWr itable
ĠRequire d
Ġpath Params
multi Select
ĠA li
Label Text
un selectable
Ġme s
])} )):
| (?:
Ġ1 200
Ġwas n
bag ai
))} ))},
æĪĳ ä»¬
/*: :[*/
Vy cmVud
EC ON
Ġh anyalah
ĠC ity
Log ging
get Image
Ġre m
]{ @
åº ĵ
L ISTE
Ã ĸ
ne st
'] ],
Ġr r
ung kin
0 101
h ack
FR AME
' ","
Ġk on
Ġmen unjukkan
Inte gration
De clarations
Tra de
Ġn af
v atar
&&" [
P ing
touch Start
Ġtra de
Um Vz
H F
75 28
alah an
Ġf ra
Ġ2 36
wB X
218 8
Ġfollow s
EM A
isN il
' -'
=/^ (
v ince
z v
\" }.
Of Month
Aggreg ator
local ization
Zm ll
Ġ1 78
([ ]),
pointer down
la pping
Inter sect
Ġre define
Text s
Ġn m
gICAgICAgICAgICAgICAg ICB
a cos
}," ./
Ġconsist ent
ĠCol lapse
AN TS
Star ting
attrib s
u E
access ible
rbuggy QSA
add resses
ID w
from Element
Ġlong DateFormat
ã Ħ
Ġmark s
i add
Q J
Ġbu kti
éĹ ¨
addPoint Cloud
oo ser
Ve hicle
ĠMon day
` \"
() "},{"
å± Ĥ
pur chase
Modifier State
Ġstop s
bs TransitionEnd
B one
Ã »
serialize Binary
ra tions
]), !
Ġoptim ization
check Types
LINE AR
Ùķ ÙĲ
months Parse
ar ithm
Ġj t
check er
Ba sics
p bs
Ġ[]; \
ÐµÐº ÑĥÐ½Ð´
MUL TI
"} ]}
[ ])}
Ġne geri
as r
ĠD a
res is
IG Jl
Ġcol l
multiplyBy Scalar
Ġr tl
lat er
è¾ ¹
ic olon
Ac cum
X q
wg c
åĪĿå§ĭ åĮĸ
PSE UDO
Ġi x
... </
Ġmouse move
avatar s
a ac
ĠLT S
To Number
event Handler
àª ¨
create Node
last Rendered
Ġdyn Call
isP M
& \
set To
)} }},{
ÑĤ Ð¾
Scroll Position
Ġ./ ../
æ §
]; }
ĠS uccess
replace All
primitive s
ĠGit Hub
Ø§ÙĦ Ø£
z ones
Ġdepend s
LET TER
D rive
de li
id i
ĠF n
ile Transaction
Ġlist Cache
get Top
By aW
); ","
In tern
\/\ *
ð ĳĦ
/ ";
Ġreturn Value
get Fold
C ES
is ot
all s
ĠSyntax Error
Ġe lapsed
M zM
Ġ" "},
In trinsic
__ :[]}
Ġuser Data
_ -
step per
ĠFre der
Ġ ĊĠĠĠĠĠĠĠĠ
st mt
u Zml
ĠM B
13 33
Back space
e asy
ver b
26 57
DOM Property
ĠV t
(); !
ĠP en
TI F
inner Ref
cmVz b
Ġuse Ref
Ġ16 2
Ã¤ r
listener Count
G round
Fac ility
ĠF lat
Ġup grade
n C
for In
ĠS ans
gr an
Sup ply
Ġproperty Name
e ed
Ġd art
K an
AT URE
Ġgui de
ĠSP EC
000 7
DE T
çĽ ĳ
Ġt sickle
ĠK iamat
ĠÛ ļ
Q ztBQU
Õ¥ Õ
ii ig
Ph ysical
Bounding Sphere
Ġt anda
PE AT
api Param
n H
Ġ ripple
Ġp lug
before unload
? )/
Ġex cluded
T ax
ĠØ§ÙĦØ³ Ø§Ø¹Ø©
é Ń
éĴ ®
FACT ORY
Ġe ver
touch cancel
}: ${
: `
ber g
hd HRy
g aW
get Header
Ġb enda
Ġdata sets
) ').
h dC
w YXJl
ad ler
LOAD ED
Ġproblem s
Ġwh atever
Ġcomp ilation
ĠKe mudian
g G
Ġv en
exp lo
]} )},
ur is
") ]
Â §
Ry ZW
è ĸ
Ġs ys
Ġm n
vue x
! ";
Ġuse Styles
partial Right
h its
Ġcurrent Value
Ġco in
o Features
ver ting
create Buffer
CU BE
Ġrecur sion
éĵ ¾
DE SC
SETT INGS
P Vw
T q
Acti vation
At tempt
Be ing
j cmVhdG
Ġbo leh
Shader Chunk
person al
", '<
Ġc ake
cGx hdG
Ġsil ent
s pacer
], $
Sta tion
ĠY ear
C am
Pol ling
NvdXJjZX Mv
ĠD alam
Ġqueue d
ĠH AS
:{ '
button Element
||{ __
YA HOO
get Inst
ĠPro vide
API Request
W L
to o
15 18
dis p
zy me
Uniform Location
leave Cb
e thereum
FE RENCE
Y R
u q
pre fetch
assign ed
Ġprop Value
in progress
+' .
Ġscale X
Ġ2 09
Ġcancel led
S IG
PRO P
labe led
o Language
ç £
is Set
37 42
A mb
Inf inite
ĠLe vel
set Max
ĠDes c
SERV ICE
|| ((
Ġ1 71
session Id
cmp n
Ġab c
Return Value
Ġsha ka
abb en
renc ies
insert Node
ĠKn abben
ha el
Ġper ingatan
Lj I
Ġimplement s
ĠtopLevel Types
vdm Vy
bo keh
ud C
Ġq a
ĠA bu
code c
ak i
Ġback ward
Ġrespon d
(" "):
ĠFreder ico
Ġ{... *}
ĠComp ute
ĠisArrayLike Object
[...]
