{
  "version": "1.0",
  "truncation": null,
  "padding": null,
  "added_tokens": [
    {
      "id": 0,
      "content": "<|endoftext|>",
      "single_word": false,
      "lstrip": false,
      "rstrip": false,
      "normalized": true,
      "special": true
    }
  ],
  "normalizer": null,
  "pre_tokenizer": {
    "type": "ByteLevel",
    "add_prefix_space": false,
    "trim_offsets": true,
    "use_regex": true
  },
  "post_processor": {
    "type": "ByteLevel",
    "add_prefix_space": true,
    "trim_offsets": false,
    "use_regex": true
  },
  "decoder": {
    "type": "ByteLevel",
    "add_prefix_space": true,
    "trim_offsets": true,
    "use_regex": true
  },
  "model": {
    "type": "BPE",
    "dropout": null,
    "unk_token": null,
    "continuing_subword_prefix": "",
    "end_of_word_suffix": "",
    "fuse_unk": false,
    "byte_fallback": false,
    "ignore_merges": false,
    "vocab": {
      "<|endoftext|>": 0,
      "!": 1,
      "\"": 2,
      "#": 3,
      "$": 4,
      "%": 5,
      "&": 6,
      "'": 7,
      "(": 8,
      ")": 9,
      "*": 10,
      "+": 11,
      ",": 12,
      "-": 13,
      ".": 14,
      "/": 15,
      "0": 16,
      "1": 17,
      "2": 18,
      "3": 19,
      "4": 20,
      "5": 21,
      "6": 22,
      "7": 23,
      "8": 24,
      "9": 25,
      ":": 26,
      ";": 27,
      "<": 28,
      "=": 29,
      ">": 30,
      "?": 31,
      "@": 32,
      "A": 33,
      "B": 34,
      "C": 35,
      "D": 36,
      "E": 37,
      "F": 38,
      "G": 39,
      "H": 40,
      "I": 41,
      "J": 42,
      "K": 43,
      "L": 44,
      "M": 45,
      "N": 46,
      "O": 47,
      "P": 48,
      "Q": 49,
      "R": 50,
      "S": 51,
      "T": 52,
      "U": 53,
      "V": 54,
      "W": 55,
      "X": 56,
      "Y": 57,
      "Z": 58,
      "[": 59,
      "\\": 60,
      "]": 61,
      "^": 62,
      "_": 63,
      "`": 64,
      "a": 65,
      "b": 66,
      "c": 67,
      "d": 68,
      "e": 69,
      "f": 70,
      "g": 71,
      "h": 72,
      "i": 73,
      "j": 74,
      "k": 75,
      "l": 76,
      "m": 77,
      "n": 78,
      "o": 79,
      "p": 80,
      "q": 81,
      "r": 82,
      "s": 83,
      "t": 84,
      "u": 85,
      "v": 86,
      "w": 87,
      "x": 88,
      "y": 89,
      "z": 90,
      "{": 91,
      "|": 92,
      "}": 93,
      "~": 94,
      "¡": 95,
      "¢": 96,
      "£": 97,
      "¤": 98,
      "¥": 99,
      "¦": 100,
      "§": 101,
      "¨": 102,
      "©": 103,
      "ª": 104,
      "«": 105,
      "¬": 106,
      "®": 107,
      "¯": 108,
      "°": 109,
      "±": 110,
      "²": 111,
      "³": 112,
      "´": 113,
      "µ": 114,
      "¶": 115,
      "·": 116,
      "¸": 117,
      "¹": 118,
      "º": 119,
      "»": 120,
      "¼": 121,
      "½": 122,
      "¾": 123,
      "¿": 124,
      "À": 125,
      "Á": 126,
      "Â": 127,
      "Ã": 128,
      "Ä": 129,
      "Å": 130,
      "Æ": 131,
      "Ç": 132,
      "È": 133,
      "É": 134,
      "Ê": 135,
      "Ë": 136,
      "Ì": 137,
      "Í": 138,
      "Î": 139,
      "Ï": 140,
      "Ð": 141,
      "Ñ": 142,
      "Ò": 143,
      "Ó": 144,
      "Ô": 145,
      "Õ": 146,
      "Ö": 147,
      "×": 148,
      "Ø": 149,
      "Ù": 150,
      "Ú": 151,
      "Û": 152,
      "Ü": 153,
      "Ý": 154,
      "Þ": 155,
      "ß": 156,
      "à": 157,
      "á": 158,
      "â": 159,
      "ã": 160,
      "ä": 161,
      "å": 162,
      "æ": 163,
      "ç": 164,
      "è": 165,
      "é": 166,
      "ê": 167,
      "ë": 168,
      "ì": 169,
      "í": 170,
      "î": 171,
      "ï": 172,
      "ð": 173,
      "ñ": 174,
      "ò": 175,
      "ó": 176,
      "ô": 177,
      "õ": 178,
      "ö": 179,
      "÷": 180,
      "ø": 181,
      "ù": 182,
      "ú": 183,
      "û": 184,
      "ü": 185,
      "ý": 186,
      "þ": 187,
      "ÿ": 188,
      "Ā": 189,
      "ā": 190,
      "Ă": 191,
      "ă": 192,
      "Ą": 193,
      "ą": 194,
      "Ć": 195,
      "ć": 196,
      "Ĉ": 197,
      "ĉ": 198,
      "Ċ": 199,
      "ċ": 200,
      "Č": 201,
      "č": 202,
      "Ď": 203,
      "ď": 204,
      "Đ": 205,
      "đ": 206,
      "Ē": 207,
      "ē": 208,
      "Ĕ": 209,
      "ĕ": 210,
      "Ė": 211,
      "ė": 212,
      "Ę": 213,
      "ę": 214,
      "Ě": 215,
      "ě": 216,
      "Ĝ": 217,
      "ĝ": 218,
      "Ğ": 219,
      "ğ": 220,
      "Ġ": 221,
      "ġ": 222,
      "Ģ": 223,
      "ģ": 224,
      "Ĥ": 225,
      "ĥ": 226,
      "Ħ": 227,
      "ħ": 228,
      "Ĩ": 229,
      "ĩ": 230,
      "Ī": 231,
      "ī": 232,
      "Ĭ": 233,
      "ĭ": 234,
      "Į": 235,
      "į": 236,
      "İ": 237,
      "ı": 238,
      "Ĳ": 239,
      "ĳ": 240,
      "Ĵ": 241,
      "ĵ": 242,
      "Ķ": 243,
      "ķ": 244,
      "ĸ": 245,
      "Ĺ": 246,
      "ĺ": 247,
      "Ļ": 248,
      "ļ": 249,
      "Ľ": 250,
      "ľ": 251,
      "Ŀ": 252,
      "ŀ": 253,
      "Ł": 254,
      "ł": 255,
      "Ń": 256,
      "ĠĠ": 257,
      "ĠĠĠĠ": 258,
      "on": 259,
      "re": 260,
      "ĠĠĠĠĠĠĠĠ": 261,
      "ĠĠĠ": 262,
      "th": 263,
      "er": 264,
      "ti": 265,
      "in": 266,
      "is": 267,
      "en": 268,
      "ar": 269,
      "le": 270,
      "tion": 271,
      "or": 272,
      "at": 273,
      "Ġ=": 274,
      "un": 275,
      "se": 276,
      "ĊĠĠĠĠ": 277,
      "st": 278,
      ");": 279,
      "al": 280,
      "Ġ{": 281,
      "de": 282,
      "ĊĠĠĠĠĠĠĠĠ": 283,
      "this": 284,
      "an": 285,
      "ro": 286,
      "ction": 287,
      "ur": 288,
      "ĉĉ": 289,
      "\",": 290,
      "unction": 291,
      "function": 292,
      "ent": 293,
      "Ġc": 294,
      "ĊĠĠĠ": 295,
      "**": 296,
      "Ġ}": 297,
      "me": 298,
      "ge": 299,
      "te": 300,
      "),": 301,
      "tur": 302,
      "turn": 303,
      "==": 304,
      "return": 305,
      "pe": 306,
      "var": 307,
      "){": 308,
      "Ġ(": 309,
      "ct": 310,
      "to": 311,
      "if": 312,
      "ĊĠĠĠĠĠĠĠ": 313,
      "ul": 314,
      "Ġ\"": 315,
      "la": 316,
      "Ġ*": 317,
      "Ġ'": 318,
      "ate": 319,
      "ty": 320,
      "ue": 321,
      "ss": 322,
      "Ġn": 323,
      "ce": 324,
      "tr": 325,
      "ch": 326,
      "\":": 327,
      "id": 328,
      "//": 329,
      "Ġe": 330,
      "ĊĠ": 331,
      "Ġf": 332,
      "ad": 333,
      "&&": 334,
      "lo": 335,
      "ing": 336,
      "},": 337,
      "(\"": 338,
      "Ċĉĉ": 339,
      "ĊĠĠĠĠĠ": 340,
      "Ġp": 341,
      "Ġa": 342,
      "ck": 343,
      "ame": 344,
      "it": 345,
      "ment": 346,
      "ig": 347,
      "Ġs": 348,
      "ol": 349,
      "],": 350,
      "',": 351,
      "type": 352,
      "get": 353,
      "Ġthis": 354,
      "mp": 355,
      "ĊĠĠĠĠĠĠĠĠĠĠĠ": 356,
      "Ġo": 357,
      "Ġb": 358,
      "ĠĠĠĠĠĠĠ": 359,
      "Ġd": 360,
      "Ġth": 361,
      "ve": 362,
      "ra": 363,
      "con": 364,
      "ut": 365,
      "Ġ0": 366,
      "ode": 367,
      "._": 368,
      "****": 369,
      "--": 370,
      "il": 371,
      "xt": 372,
      "val": 373,
      "Ġ1": 374,
      "()": 375,
      "ma": 376,
      "Ċĉ": 377,
      "00": 378,
      "Ġre": 379,
      "ed": 380,
      "ab": 381,
      "mo": 382,
      "\",\"": 383,
      "ect": 384,
      "ĊĠĠĠĠĠĠĠĠĠĠĠĠĠĠĠĠ": 385,
      "li": 386,
      "Ġif": 387,
      "el": 388,
      "Ġthe": 389,
      "||": 390,
      ":\"": 391,
      "bj": 392,
      "ew": 393,
      "ull": 394,
      "set": 395,
      "us": 396,
      "ata": 397,
      "Ġfunction": 398,
      "ht": 399,
      "pa": 400,
      "pro": 401,
      "Ġin": 402,
      ").": 403,
      "ter": 404,
      "('": 405,
      "Ġw": 406,
      "co": 407,
      "Ġreturn": 408,
      "ort": 409,
      "ri": 410,
      "si": 411,
      "In": 412,
      "eng": 413,
      "ke": 414,
      "Ġ//": 415,
      "ren": 416,
      "he": 417,
      "def": 418,
      "op": 419,
      "ow": 420,
      "value": 421,
      "bject": 422,
      "Ġvar": 423,
      "as": 424,
      "Re": 425,
      ")}": 426,
      "lass": 427,
      "Ġ+": 428,
      "ength": 429,
      "qu": 430,
      "ta": 431,
      "ult": 432,
      "um": 433,
      "Ġ[": 434,
      "ĊĠĠĠĠĠĠĠĠĠĠĠĠĠĠĠ": 435,
      "ca": 436,
      "Ġcon": 437,
      "per": 438,
      "__": 439,
      "for": 440,
      "Ġi": 441,
      "length": 442,
      "di": 443,
      "Ġt": 444,
      "IC": 445,
      "Ġto": 446,
      "able": 447,
      "and": 448,
      "xp": 449,
      "end": 450,
      "Ġ@": 451,
      "ap": 452,
      "up": 453,
      "=\"": 454,
      "ff": 455,
      "all": 456,
      "Ġm": 457,
      "lement": 458,
      "Ġst": 459,
      "Ag": 460,
      "am": 461,
      "))": 462,
      "es": 463,
      "ver": 464,
      "Ġ<": 465,
      "Pro": 466,
      "tions": 467,
      "ĊĠĠĠĠĠĠĠĠĠ": 468,
      "ight": 469,
      "vent": 470,
      "ot": 471,
      "();": 472,
      "\":\"": 473,
      "Ġ2": 474,
      "Ġh": 475,
      "Ġ_": 476,
      "ist": 477,
      ",\"": 478,
      "null": 479,
      "(){": 480,
      "od": 481,
      "ire": 482,
      "********": 483,
      "oc": 484,
      "Ġ},": 485,
      "Name": 486,
      "sp": 487,
      "ind": 488,
      "text": 489,
      "ine": 490,
      "ray": 491,
      "dex": 492,
      "===": 493,
      "ault": 494,
      "ĠĠĠĠĠĠĠĠĠĠĠĠĠĠĠĠ": 495,
      "ICAg": 496,
      "par": 497,
      "Ġ-": 498,
      "key": 499,
      "Con": 500,
      "vi": 501,
      "ext": 502,
      "use": 503,
      "----": 504,
      "rent": 505,
      "12": 506,
      "ĠT": 507,
      "ument": 508,
      "ule": 509,
      "AA": 510,
      "Ġtr": 511,
      "Ġis": 512,
      "ror": 513,
      "name": 514,
      "Object": 515,
      "ase": 516,
      "];": 517,
      "age": 518,
      "proto": 519,
      "Ċĉĉĉĉ": 520,
      "der": 521,
      "Ġr": 522,
      "10": 523,
      "str": 524,
      "Se": 525,
      "!==": 526,
      "add": 527,
      "Ġ:": 528,
      "ack": 529,
      "js": 530,
      "data": 531,
      "Ġ*/": 532,
      "arg": 533,
      "./": 534,
      "Ġ$": 535,
      "ub": 536,
      "om": 537,
      "of": 538,
      "Ġ/": 539,
      "prototype": 540,
      "Ar": 541,
      "&&(": 542,
      "sc": 543,
      "art": 544,
      "fi": 545,
      "ps": 546,
      "QU": 547,
      "Ċĉĉĉ": 548,
      "reate": 549,
      "sh": 550,
      "default": 551,
      "Ġfor": 552,
      "Ġ&&": 553,
      "ĠĠĠĠĠ": 554,
      "ng": 555,
      "ĊĠĠĠĠĠĠĠĠĠĠĠĠĠĠĠĠĠĠĠ": 556,
      "ber": 557,
      "ath": 558,
      "ted": 559,
      "mod": 560,
      "xport": 561,
      "rom": 562,
      "row": 563,
      "St": 564,
      "ĊĊĠĠĠ": 565,
      "Ġnew": 566,
      "Ġ===": 567,
      "quire": 568,
      "ype": 569,
      "ild": 570,
      "ser": 571,
      "\")": 572,
      "ib": 573,
      "iz": 574,
      "atch": 575,
      "};": 576,
      "ation": 577,
      "ll": 578,
      "oo": 579,
      "ang": 580,
      "ly": 581,
      "De": 582,
      "lay": 583,
      "11": 584,
      "ĠC": 585,
      "ICAgICAg": 586,
      "20": 587,
      "ange": 588,
      "Ġl": 589,
      "ĠA": 590,
      "].": 591,
      "tem": 592,
      "po": 593,
      "Element": 594,
      "alse": 595,
      "</": 596,
      "idth": 597,
      "Type": 598,
      "');": 599,
      "[\"": 600,
      "\\\"": 601,
      "Ġvalue": 602,
      "({": 603,
      "16": 604,
      "To": 605,
      "Ġ});": 606,
      "Ch": 607,
      "out": 608,
      "Ġof": 609,
      "Ġg": 610,
      "our": 611,
      "omp": 612,
      "Ġse": 613,
      "Ġ3": 614,
      "one": 615,
      "put": 616,
      "tive": 617,
      "int": 618,
      "={": 619,
      "ute": 620,
      "ance": 621,
      "Ġ=>": 622,
      "rea": 623,
      "Ġnull": 624,
      "25": 625,
      "++": 626,
      "vo": 627,
      "Ġ||": 628,
      "ith": 629,
      "Ġde": 630,
      "ĠS": 631,
      "ĠM": 632,
      "we": 633,
      "\"),": 634,
      "ic": 635,
      "Ġ)": 636,
      "export": 637,
      "\");": 638,
      "Array": 639,
      "Ġtrue": 640,
      "ctor": 641,
      "Ġ`": 642,
      "module": 643,
      "ile": 644,
      "date": 645,
      "Val": 646,
      "move": 647,
      "col": 648,
      "ĊĊĠ": 649,
      "app": 650,
      ":{": 651,
      "Ġel": 652,
      "13": 653,
      "Id": 654,
      "et": 655,
      "pre": 656,
      "typeof": 657,
      "ers": 658,
      "Ġ.": 659,
      "(),": 660,
      "Ġconst": 661,
      "param": 662,
      "div": 663,
      "Ġme": 664,
      "node": 665,
      "ay": 666,
      "Ġpro": 667,
      "Ġy": 668,
      "\";": 669,
      "und": 670,
      "ting": 671,
      "LE": 672,
      "14": 673,
      "Ġ?": 674,
      "im": 675,
      "')": 676,
      "15": 677,
      "umber": 678,
      "lu": 679,
      "pt": 680,
      "18": 681,
      "yle": 682,
      "create": 683,
      "new": 684,
      "onent": 685,
      "ush": 686,
      "che": 687,
      "res": 688,
      "Ġbe": 689,
      "24": 690,
      "load": 691,
      "perty": 692,
      "Ġclass": 693,
      "]=": 694,
      "ml": 695,
      "form": 696,
      "ĊĊ": 697,
      "Class": 698,
      "que": 699,
      "}}": 700,
      "call": 701,
      "':": 702,
      "sition": 703,
      "Ġ4": 704,
      "Str": 705,
      "19": 706,
      "fo": 707,
      "';": 708,
      "back": 709,
      "Ġfalse": 710,
      "ource": 711,
      "ans": 712,
      "Ġun": 713,
      "Data": 714,
      "fig": 715,
      "attr": 716,
      "FB": 717,
      "Ġelse": 718,
      "ft": 719,
      "ocument": 720,
      "ery": 721,
      "void": 722,
      "Er": 723,
      "index": 724,
      "17": 725,
      "tent": 726,
      "Event": 727,
      "32": 728,
      "****************": 729,
      "string": 730,
      "ined": 731,
      "ac": 732,
      "Ġfrom": 733,
      "arget": 734,
      "\\\\": 735,
      "push": 736,
      "Ti": 737,
      "Ġres": 738,
      "])": 739,
      "const": 740,
      "ĠL": 741,
      "ign": 742,
      "Ġit": 743,
      "64": 744,
      "\"},": 745,
      "Ġon": 746,
      "Value": 747,
      "ag": 748,
      "Error": 749,
      "bo": 750,
      "exports": 751,
      "ir": 752,
      "Ġ!": 753,
      "Ġ};": 754,
      "error": 755,
      "class": 756,
      "At": 757,
      "dis": 758,
      "Node": 759,
      "ON": 760,
      ".$": 761,
      "options": 762,
      "OR": 763,
      "ure": 764,
      "Ġ);": 765,
      "tic": 766,
      "--------": 767,
      "],[": 768,
      "let": 769,
      "List": 770,
      ")},": 771,
      "comp": 772,
      "33": 773,
      "line": 774,
      "roll": 775,
      "ator": 776,
      "ptions": 777,
      "Po": 778,
      "ĊĠĠ": 779,
      "rap": 780,
      "tain": 781,
      "unt": 782,
      "defined": 783,
      ":!": 784,
      "urrent": 785,
      "ĊĠĠĠĠĠĠĠĠĠĠĠĠĠĠĠĠĠĠĠĠĠĠĠ": 786,
      "String": 787,
      "Ġand": 788,
      "99": 789,
      "argument": 790,
      "ffset": 791,
      "Ġor": 792,
      "mport": 793,
      "ĠĠĠĠĠĠĠĠĠĠĠ": 794,
      "ĠD": 795,
      "Ġex": 796,
      "TE": 797,
      "):": 798,
      "ref": 799,
      "ize": 800,
      "Ġma": 801,
      "Ġan": 802,
      "own": 803,
      "=!": 804,
      "Ġdata": 805,
      "Ġ()": 806,
      "ord": 807,
      "red": 808,
      "case": 809,
      "Time": 810,
      "ex": 811,
      "sele": 812,
      "lace": 813,
      "web": 814,
      "En": 815,
      "ĠI": 816,
      "orm": 817,
      "29": 818,
      "Ġget": 819,
      "Of": 820,
      "ton": 821,
      "ach": 822,
      "));": 823,
      "30": 824,
      "ssage": 825,
      "style": 826,
      "ĠRe": 827,
      "utton": 828,
      "50": 829,
      "mb": 830,
      "time": 831,
      "ress": 832,
      "});": 833,
      "log": 834,
      "cess": 835,
      "27": 836,
      "28": 837,
      "/**": 838,
      "ill": 839,
      "Col": 840,
      "has": 841,
      "{\"": 842,
      "ken": 843,
      "Ġname": 844,
      "test": 845,
      "arguments": 846,
      "Ġch": 847,
      "Ġ>": 848,
      "((": 849,
      ":[": 850,
      "lab": 851,
      "ĊĠĠĠĠĠĠĠĠĠĠĠĠĠ": 852,
      "ion": 853,
      "lock": 854,
      "QUF": 855,
      "sion": 856,
      "scri": 857,
      "indow": 858,
      "be": 859,
      "ity": 860,
      "reak": 861,
      "com": 862,
      "ener": 863,
      "Ġtype": 864,
      "Ke": 865,
      "array": 866,
      "play": 867,
      "ĠB": 868,
      "../": 869,
      "26": 870,
      "low": 871,
      "====": 872,
      "Index": 873,
      "htt": 874,
      "ĠThe": 875,
      "remove": 876,
      "cted": 877,
      "parent": 878,
      "RE": 879,
      "object": 880,
      "ĊĊĠĠĠĠĠĠĠ": 881,
      "import": 882,
      "span": 883,
      "height": 884,
      "Ġj": 885,
      ")),": 886,
      "ibute": 887,
      "require": 888,
      "He": 889,
      "Property": 890,
      "pack": 891,
      "34": 892,
      "late": 893,
      "eld": 894,
      "stance": 895,
      "ĠF": 896,
      "State": 897,
      "min": 898,
      "(!": 899,
      "Ġset": 900,
      "ls": 901,
      "hi": 902,
      "px": 903,
      "yn": 904,
      "Ġrequire": 905,
      "so": 906,
      ",-": 907,
      "ĠP": 908,
      "37": 909,
      "ho": 910,
      "element": 911,
      "left": 912,
      "act": 913,
      "thod": 914,
      "+\"": 915,
      "36": 916,
      "IN": 917,
      "user": 918,
      "av": 919,
      "html": 920,
      "ption": 921,
      "bu": 922,
      "quest": 923,
      "omponent": 924,
      "Ġv": 925,
      "Ġkey": 926,
      "ink": 927,
      "['": 928,
      "place": 929,
      "04": 930,
      "35": 931,
      "ust": 932,
      "Key": 933,
      "\",{": 934,
      "pp": 935,
      "width": 936,
      "ard": 937,
      "..": 938,
      "ui": 939,
      "Ġ5": 940,
      "ze": 941,
      "Text": 942,
      "}},": 943,
      "\">": 944,
      "38": 945,
      "state": 946,
      "lick": 947,
      "view": 948,
      "code": 949,
      "66": 950,
      "AC": 951,
      "ody": 952,
      "Ġpar": 953,
      "start": 954,
      "tle": 955,
      "Ġ/**": 956,
      "Qu": 957,
      "update": 958,
      "top": 959,
      "Ġ!==": 960,
      "mit": 961,
      "mage": 962,
      "Ġ(!": 963,
      "event": 964,
      "cation": 965,
      "\"],": 966,
      "Lo": 967,
      "By": 968,
      "else": 969,
      "\").": 970,
      "\"]": 971,
      "gro": 972,
      "ĠU": 973,
      "/*": 974,
      "ts": 975,
      "wa": 976,
      "://": 977,
      "ded": 978,
      "au": 979,
      "url": 980,
      "ID": 981,
      "Ġwith": 982,
      "BQU": 983,
      "Sele": 984,
      "no": 985,
      "().": 986,
      "55": 987,
      "48": 988,
      "ĀĀ": 989,
      "map": 990,
      "ader": 991,
      "39": 992,
      "ilter": 993,
      "0000": 994,
      "lete": 995,
      "ne": 996,
      "ense": 997,
      "Ġas": 998,
      "Def": 999,
      "\"===": 1000,
      "dd": 1001,
      "valid": 1002,
      "ix": 1003,
      "child": 1004,
      "cb": 1005,
      "tainer": 1006,
      "ont": 1007,
      "label": 1008,
      "umn": 1009,
      "webpack": 1010,
      "ER": 1011,
      "ĠW": 1012,
      "Ùİ": 1013,
      "Ġk": 1014,
      "ave": 1015,
      "Me": 1016,
      "Ġ__": 1017,
      "fe": 1018,
      "EN": 1019,
      "ger": 1020,
      "ise": 1021,
      "item": 1022,
      "Ġobject": 1023,
      "Ġx": 1024,
      "fa": 1025,
      "ĠN": 1026,
      "Math": 1027,
      "22": 1028,
      "title": 1029,
      "67": 1030,
      "Ġpo": 1031,
      "inter": 1032,
      "ial": 1033,
      "Attr": 1034,
      "spon": 1035,
      "40": 1036,
      "Ġ==": 1037,
      "]);": 1038,
      "ĊĊĉ": 1039,
      "}),": 1040,
      "Ġnot": 1041,
      "ert": 1042,
      ">>": 1043,
      "input": 1044,
      "Ġoptions": 1045,
      "='": 1046,
      "rc": 1047,
      "IG": 1048,
      "stru": 1049,
      "gin": 1050,
      "!=": 1051,
      "next": 1052,
      ")(": 1053,
      "sub": 1054,
      "try": 1055,
      "60": 1056,
      "lf": 1057,
      "Ġresult": 1058,
      "Ġthat": 1059,
      "*/": 1060,
      "Ġcol": 1061,
      "cale": 1062,
      "ark": 1063,
      "IT": 1064,
      "mon": 1065,
      "59": 1066,
      "><": 1067,
      "68": 1068,
      "andle": 1069,
      "ass": 1070,
      "color": 1071,
      "allback": 1072,
      "Ċĉĉĉĉĉĉ": 1073,
      "size": 1074,
      "abled": 1075,
      "44": 1076,
      "=[": 1077,
      "path": 1078,
      "order": 1079,
      "Ġuse": 1080,
      "Child": 1081,
      "Item": 1082,
      "OD": 1083,
      "ary": 1084,
      "ĠO": 1085,
      "qual": 1086,
      "Vi": 1087,
      "Width": 1088,
      "An": 1089,
      "Mod": 1090,
      "Ġid": 1091,
      "pi": 1092,
      "++)": 1093,
      "57": 1094,
      "current": 1095,
      "target": 1096,
      "ymb": 1097,
      "rict": 1098,
      "Set": 1099,
      "last": 1100,
      "ĠE": 1101,
      "ymbol": 1102,
      "read": 1103,
      "amp": 1104,
      "Co": 1105,
      ";\\": 1106,
      "max": 1107,
      "]),": 1108,
      "Query": 1109,
      "').": 1110,
      "ĊĊĠĠĠĠĠ": 1111,
      "Par": 1112,
      "ner": 1113,
      "bar": 1114,
      "document": 1115,
      "Ġ</": 1116,
      "80": 1117,
      "Ġal": 1118,
      "ffer": 1119,
      "odel": 1120,
      "css": 1121,
      "tag": 1122,
      "\"+": 1123,
      "clu": 1124,
      "ST": 1125,
      "\"==": 1126,
      "ha": 1127,
      "tyle": 1128,
      "pect": 1129,
      "props": 1130,
      "uld": 1131,
      "Up": 1132,
      ")?": 1133,
      "Le": 1134,
      "define": 1135,
      "query": 1136,
      "heck": 1137,
      "Ġevent": 1138,
      "([": 1139,
      "Date": 1140,
      "ync": 1141,
      "////": 1142,
      "cal": 1143,
      "lice": 1144,
      "sponse": 1145,
      "lic": 1146,
      "ies": 1147,
      "ax": 1148,
      "ĠH": 1149,
      "Ġelement": 1150,
      "break": 1151,
      "ak": 1152,
      "xu": 1153,
      "ant": 1154,
      "temp": 1155,
      "Style": 1156,
      "ĠĠĠĠĠĠĠĠĠĠĠĠĠĠĠ": 1157,
      "XG": 1158,
      "atus": 1159,
      "atic": 1160,
      "77": 1161,
      "pec": 1162,
      "rag": 1163,
      "arch": 1164,
      "Ċĉĉĉĉĉ": 1165,
      "Ġstr": 1166,
      "list": 1167,
      "AR": 1168,
      "modules": 1169,
      "tial": 1170,
      "config": 1171,
      "ICAgICAgICAgICAg": 1172,
      "Ø§": 1173,
      "right": 1174,
      "Ro": 1175,
      "Ġwe": 1176,
      "ĠG": 1177,
      "Ġlet": 1178,
      "trans": 1179,
      "lob": 1180,
      "58": 1181,
      "sole": 1182,
      "Tr": 1183,
      "true": 1184,
      "port": 1185,
      "replace": 1186,
      "69": 1187,
      "ia": 1188,
      "Un": 1189,
      "Ġu": 1190,
      "ield": 1191,
      "cm": 1192,
      "ook": 1193,
      "content": 1194,
      "vice": 1195,
      "andl": 1196,
      "number": 1197,
      "lient": 1198,
      "ĊĠĠĠĠĠĠĠĠĠĠĠĠĠĠĠĠĠĠĠĠĠĠĠĠĠĠĠĠĠĠĠĠ": 1199,
      "ory": 1200,
      "Ġlo": 1201,
      "ore": 1202,
      "lem": 1203,
      "-.": 1204,
      "createElement": 1205,
      "ec": 1206,
      "Ġ8": 1207,
      "ĊĠĠĠĠĠĠĠĠĠĠĠĠĠĠĠĠĠĠĠĠĠĠĠĠĠĠĠ": 1208,
      "Ġcase": 1209,
      "Ġdis": 1210,
      "AAAA": 1211,
      "Sc": 1212,
      "lean": 1213,
      "47": 1214,
      "Attribute": 1215,
      "body": 1216,
      "cope": 1217,
      "lose": 1218,
      "lib": 1219,
      "ound": 1220,
      "find": 1221,
      "Ġstrict": 1222,
      "parse": 1223,
      ".__": 1224,
      "file": 1225,
      "Code": 1226,
      "FBQ": 1227,
      "Ġdefault": 1228,
      "49": 1229,
      "Ġ})": 1230,
      "uc": 1231,
      "og": 1232,
      "Color": 1233,
      "ther": 1234,
      "56": 1235,
      "Ġundefined": 1236,
      "||(": 1237,
      "component": 1238,
      "Ġen": 1239,
      "View": 1240,
      "dG": 1241,
      "Bu": 1242,
      "21": 1243,
      "lit": 1244,
      "Ġ{\\": 1245,
      "IH": 1246,
      "enu": 1247,
      "Ġwh": 1248,
      "over": 1249,
      "09": 1250,
      "fore": 1251,
      "source": 1252,
      "box": 1253,
      "wn": 1254,
      "88": 1255,
      "Ġarray": 1256,
      "Mo": 1257,
      "----------------": 1258,
      "********************************": 1259,
      "UR": 1260,
      "ree": 1261,
      "Ġnode": 1262,
      "Path": 1263,
      "button": 1264,
      "23": 1265,
      "offset": 1266,
      "ip": 1267,
      "Ġby": 1268,
      "Change": 1269,
      "ject": 1270,
      "scroll": 1271,
      "throw": 1272,
      "tip": 1273,
      "structor": 1274,
      "ork": 1275,
      "mat": 1276,
      "Ġ10": 1277,
      "pace": 1278,
      "ML": 1279,
      "ya": 1280,
      "ZX": 1281,
      "ash": 1282,
      "JS": 1283,
      "Form": 1284,
      "gle": 1285,
      "apply": 1286,
      "Ġ7": 1287,
      "Size": 1288,
      "Exp": 1289,
      "pri": 1290,
      "Number": 1291,
      "ties": 1292,
      "io": 1293,
      "AT": 1294,
      "Height": 1295,
      "ka": 1296,
      "Map": 1297,
      "SE": 1298,
      "à¸": 1299,
      "kan": 1300,
      "tings": 1301,
      "))}": 1302,
      "jo": 1303,
      "45": 1304,
      "err": 1305,
      ",{": 1306,
      "cl": 1307,
      "bind": 1308,
      "Ġinstance": 1309,
      "show": 1310,
      "raw": 1311,
      "Sh": 1312,
      "rame": 1313,
      "down": 1314,
      "ĠObject": 1315,
      "Each": 1316,
      "ZW": 1317,
      "enter": 1318,
      "ste": 1319,
      "(_": 1320,
      "window": 1321,
      "\":{\"": 1322,
      "ou": 1323,
      "core": 1324,
      "Default": 1325,
      "Ġ6": 1326,
      "ocus": 1327,
      "active": 1328,
      "check": 1329,
      "Ġpre": 1330,
      "old": 1331,
      "https": 1332,
      "vue": 1333,
      "MP": 1334,
      "Component": 1335,
      "fn": 1336,
      "Ġro": 1337,
      "ud": 1338,
      "ww": 1339,
      "ED": 1340,
      "sg": 1341,
      "></": 1342,
      "olve": 1343,
      "SS": 1344,
      "mation": 1345,
      "AL": 1346,
      "fir": 1347,
      "cy": 1348,
      "cur": 1349,
      "http": 1350,
      "rop": 1351,
      "Ġno": 1352,
      "ster": 1353,
      "Or": 1354,
      "000": 1355,
      "false": 1356,
      "append": 1357,
      "ah": 1358,
      "cle": 1359,
      "Be": 1360,
      ")&&": 1361,
      "Ġcomp": 1362,
      "']": 1363,
      "=(": 1364,
      "87": 1365,
      "token": 1366,
      "match": 1367,
      "base": 1368,
      "action": 1369,
      "ek": 1370,
      "Ġcreate": 1371,
      "select": 1372,
      "tern": 1373,
      "tom": 1374,
      "Ġ],": 1375,
      "(?": 1376,
      "97": 1377,
      "ated": 1378,
      "${": 1379,
      "lugin": 1380,
      "Ġ['": 1381,
      "Module": 1382,
      "tro": 1383,
      "src": 1384,
      "oolean": 1385,
      "ifi": 1386,
      "AN": 1387,
      "Ġ]": 1388,
      "Content": 1389,
      "Function": 1390,
      "AB": 1391,
      "QUFD": 1392,
      "args": 1393,
      "mber": 1394,
      "EB": 1395,
      "Ġtext": 1396,
      "On": 1397,
      "stro": 1398,
      "MM": 1399,
      "andler": 1400,
      "06": 1401,
      "led": 1402,
      "========": 1403,
      "rid": 1404,
      "ctive": 1405,
      "argin": 1406,
      "Te": 1407,
      "lobal": 1408,
      "ĠR": 1409,
      "ong": 1410,
      "Ġindex": 1411,
      "click": 1412,
      "static": 1413,
      "Ġexpect": 1414,
      "icon": 1415,
      "tils": 1416,
      "exp": 1417,
      "page": 1418,
      "icense": 1419,
      "FF": 1420,
      "ĠĠĠĠĠĠĠĠĠĠĠĠĠĠĠĠĠĠĠĠĠĠĠĠĠĠĠĠĠĠĠĠ": 1421,
      "split": 1422,
      "Ġdocument": 1423,
      "Tag": 1424,
      "][": 1425,
      "arent": 1426,
      "md": 1427,
      "sw": 1428,
      "filter": 1429,
      "65": 1430,
      "attrs": 1431,
      "wait": 1432,
      "ĊĊĠĠĠĠĠĠĠĠĠĠĠ": 1433,
      "children": 1434,
      "itor": 1435,
      "ome": 1436,
      "Ġcan": 1437,
      "roup": 1438,
      "Ġke": 1439,
      "count": 1440,
      "Ġpath": 1441,
      "unc": 1442,
      "undefined": 1443,
      "json": 1444,
      "Ġerror": 1445,
      "ground": 1446,
      "Ġfile": 1447,
      "result": 1448,
      "tin": 1449,
      "iv": 1450,
      "display": 1451,
      "Ġ\\": 1452,
      "then": 1453,
      "do": 1454,
      "_.": 1455,
      "ÙĴ": 1456,
      "ottom": 1457,
      "uch": 1458,
      "07": 1459,
      "100": 1460,
      "slice": 1461,
      "Ġstring": 1462,
      "message": 1463,
      "Ġass": 1464,
      "ams": 1465,
      "Ġyang": 1466,
      "cbi": 1467,
      "+=": 1468,
      "Own": 1469,
      "sed": 1470,
      "forEach": 1471,
      "Ð°": 1472,
      "89": 1473,
      "from": 1474,
      "mise": 1475,
      "word": 1476,
      "til": 1477,
      "Ġstate": 1478,
      "We": 1479,
      "link": 1480,
      "render": 1481,
      "Ġ+=": 1482,
      "head": 1483,
      "ample": 1484,
      "?\"": 1485,
      "Ġstyle": 1486,
      "Listener": 1487,
      "indexOf": 1488,
      "||\"": 1489,
      "Options": 1490,
      "Ġmo": 1491,
      "rl": 1492,
      "api": 1493,
      "(/": 1494,
      "31": 1495,
      "position": 1496,
      "ĠĠĠĠĠĠĠĠĠ": 1497,
      "ie": 1498,
      "igin": 1499,
      "Is": 1500,
      "ustom": 1501,
      "HT": 1502,
      "fix": 1503,
      "itch": 1504,
      "Types": 1505,
      "Int": 1506,
      "iter": 1507,
      "bl": 1508,
      "day": 1509,
      "=\\\"": 1510,
      "ĊĊĉĉ": 1511,
      "54": 1512,
      "ible": 1513,
      "Tt": 1514,
      "Ġsele": 1515,
      "abel": 1516,
      "ative": 1517,
      ",!": 1518,
      "adding": 1519,
      "ĀĀĀĀ": 1520,
      "Timeout": 1521,
      "gis": 1522,
      "ini": 1523,
      "context": 1524,
      "idd": 1525,
      "Ġhas": 1526,
      "TI": 1527,
      "End": 1528,
      "Case": 1529,
      "cat": 1530,
      "template": 1531,
      "Ġ9": 1532,
      "adi": 1533,
      "Ġdo": 1534,
      "ear": 1535,
      "Props": 1536,
      "ai": 1537,
      "fter": 1538,
      "mer": 1539,
      "ĊĠĠĠĠĠĠĠĠĠĠĠĠĠĠĠĠĠ": 1540,
      "Ġsource": 1541,
      "Context": 1542,
      "Ex": 1543,
      "extend": 1544,
      "ormal": 1545,
      "Ser": 1546,
      "Start": 1547,
      "perties": 1548,
      "With": 1549,
      "ÙĦ": 1550,
      "($": 1551,
      "Block": 1552,
      "the": 1553,
      "ify": 1554,
      "group": 1555,
      "Ġsh": 1556,
      "uration": 1557,
      "Input": 1558,
      "ĠLicense": 1559,
      "ĠPro": 1560,
      "})": 1561,
      "doc": 1562,
      "igger": 1563,
      "Ġmethod": 1564,
      "handle": 1565,
      "char": 1566,
      "03": 1567,
      "Ġare": 1568,
      "Offset": 1569,
      "ript": 1570,
      "des": 1571,
      "ĠError": 1572,
      "image": 1573,
      "bG": 1574,
      "loader": 1575,
      "vate": 1576,
      "change": 1577,
      "space": 1578,
      "Ġ/*": 1579,
      "su": 1580,
      "Ġexp": 1581,
      "Ġitem": 1582,
      "pac": 1583,
      "YW": 1584,
      "method": 1585,
      "his": 1586,
      "YX": 1587,
      "File": 1588,
      "Ġexport": 1589,
      "46": 1590,
      "arn": 1591,
      "du": 1592,
      "point": 1593,
      "?(": 1594,
      "08": 1595,
      "ĉĉĉĉ": 1596,
      "Ġat": 1597,
      "Info": 1598,
      "OwnProperty": 1599,
      "ry": 1600,
      "01": 1601,
      "NB": 1602,
      "umer": 1603,
      "aW": 1604,
      "rite": 1605,
      "cbiAg": 1606,
      "42": 1607,
      "Ġout": 1608,
      "ï¿": 1609,
      "Button": 1610,
      "]+": 1611,
      "Ġconfig": 1612,
      "ateg": 1613,
      "Ġconsole": 1614,
      "ses": 1615,
      "Range": 1616,
      "YY": 1617,
      "react": 1618,
      "200": 1619,
      ">\\": 1620,
      "Ġper": 1621,
      "ĠV": 1622,
      "ACK": 1623,
      "ansition": 1624,
      "Ġ|": 1625,
      "Ġcallback": 1626,
      "05": 1627,
      "Ġcurrent": 1628,
      "ĠMath": 1629,
      "For": 1630,
      "ream": 1631,
      "elper": 1632,
      "Al": 1633,
      "ï¿½": 1634,
      "ep": 1635,
      "ider": 1636,
      "Bo": 1637,
      "version": 1638,
      "Point": 1639,
      "raph": 1640,
      "Comp": 1641,
      "imation": 1642,
      "Ġapp": 1643,
      "Config": 1644,
      "ces": 1645,
      "attribute": 1646,
      "OM": 1647,
      "DE": 1648,
      "scope": 1649,
      "lah": 1650,
      "Ġbase": 1651,
      "All": 1652,
      "script": 1653,
      "No": 1654,
      "ĠclassName": 1655,
      "mpty": 1656,
      "Position": 1657,
      "75": 1658,
      "goo": 1659,
      "TED": 1660,
      "las": 1661,
      "gs": 1662,
      "main": 1663,
      "79": 1664,
      "returns": 1665,
      "rapper": 1666,
      "à¤": 1667,
      "},\"": 1668,
      "cond": 1669,
      "Ġobj": 1670,
      "Ġlist": 1671,
      "ped": 1672,
      "className": 1673,
      "},{": 1674,
      "loat": 1675,
      "Ġself": 1676,
      "&&!": 1677,
      "Count": 1678,
      "UT": 1679,
      "AM": 1680,
      "Ðµ": 1681,
      "../../": 1682,
      "ast": 1683,
      "Top": 1684,
      "Ġtarget": 1685,
      "vel": 1686,
      "close": 1687,
      "sk": 1688,
      "table": 1689,
      "pend": 1690,
      "scription": 1691,
      "enti": 1692,
      "lex": 1693,
      "ann": 1694,
      "AP": 1695,
      "ä¸": 1696,
      "column": 1697,
      "ache": 1698,
      ")}}": 1699,
      "ba": 1700,
      "Dis": 1701,
      "tool": 1702,
      "older": 1703,
      "Ð¾": 1704,
      "opy": 1705,
      "igh": 1706,
      "container": 1707,
      "ameter": 1708,
      "&&\"": 1709,
      "obj": 1710,
      "âĢ": 1711,
      "ms": 1712,
      "concat": 1713,
      "`,": 1714,
      "reen": 1715,
      "cker": 1716,
      "Ġz": 1717,
      "Ġmodule": 1718,
      "JSON": 1719,
      "field": 1720,
      "Ġarguments": 1721,
      "vg": 1722,
      "pen": 1723,
      "join": 1724,
      "Request": 1725,
      "\"}": 1726,
      "tn": 1727,
      "ould": 1728,
      "br": 1729,
      "toString": 1730,
      "Ġadd": 1731,
      "first": 1732,
      "auto": 1733,
      "lang": 1734,
      "ãģ": 1735,
      "AD": 1736,
      "Url": 1737,
      "Ġuser": 1738,
      "52": 1739,
      "Ġthrow": 1740,
      "self": 1741,
      "org": 1742,
      "){\"": 1743,
      "Ġ\"+": 1744,
      "Ġ[];": 1745,
      "Pre": 1746,
      "84": 1747,
      "vis": 1748,
      "rowser": 1749,
      "status": 1750,
      "ĊĉĠĠĠ": 1751,
      "each": 1752,
      "Ġsc": 1753,
      ")&&(": 1754,
      "Ext": 1755,
      "Ġbu": 1756,
      "td": 1757,
      "Ġstart": 1758,
      "prop": 1759,
      "MOD": 1760,
      "/***/": 1761,
      "ask": 1762,
      "(?:": 1763,
      "defineProperty": 1764,
      "inner": 1765,
      "irst": 1766,
      "Ġbreak": 1767,
      "Ġend": 1768,
      "ell": 1769,
      "Ġwill": 1770,
      "bn": 1771,
      "Row": 1772,
      "Ġfa": 1773,
      "mouse": 1774,
      "ULE": 1775,
      "Message": 1776,
      "Ġwindow": 1777,
      ")||": 1778,
      "delete": 1779,
      "Left": 1780,
      "Ref": 1781,
      "Ġ20": 1782,
      "'),": 1783,
      "Ġac": 1784,
      "abs": 1785,
      "trol": 1786,
      "Com": 1787,
      "border": 1788,
      "HR": 1789,
      "yx": 1790,
      "Ġ!=": 1791,
      "Length": 1792,
      "Ġcontext": 1793,
      "disabled": 1794,
      "Ġne": 1795,
      "Buffer": 1796,
      "Ġ_.": 1797,
      "Au": 1798,
      "pos": 1799,
      "pop": 1800,
      "block": 1801,
      "ower": 1802,
      "Container": 1803,
      "ular": 1804,
      "Field": 1805,
      "Ġawait": 1806,
      "Ð½": 1807,
      "Ġdan": 1808,
      ">=": 1809,
      "ffect": 1810,
      "ok": 1811,
      "78": 1812,
      "ĠIn": 1813,
      "ÙĲ": 1814,
      "','": 1815,
      "Fa": 1816,
      "Ġmatch": 1817,
      "ggle": 1818,
      ",[": 1819,
      "PACK": 1820,
      "Ġtypeof": 1821,
      "ĠArray": 1822,
      "ari": 1823,
      "Page": 1824,
      "mand": 1825,
      "bm": 1826,
      "From": 1827,
      "iB": 1828,
      "WEB": 1829,
      "lection": 1830,
      "Update": 1831,
      "__(": 1832,
      "lat": 1833,
      "Line": 1834,
      "Selector": 1835,
      "User": 1836,
      "Table": 1837,
      "ous": 1838,
      "bs": 1839,
      "its": 1840,
      "focus": 1841,
      "CB": 1842,
      "(\".": 1843,
      "format": 1844,
      "GE": 1845,
      "ÙĨ": 1846,
      "ï¿½ï¿½": 1847,
      "SB": 1848,
      "Ed": 1849,
      "Ġwhen": 1850,
      "Ġelem": 1851,
      "Ġser": 1852,
      "Ð¸": 1853,
      "Ġmessage": 1854,
      "Ġad": 1855,
      "wi": 1856,
      "Ġdi": 1857,
      "by": 1858,
      "41": 1859,
      "HTML": 1860,
      "ression": 1861,
      "Ġassert": 1862,
      "are": 1863,
      "tail": 1864,
      "96": 1865,
      "cd": 1866,
      "Ġli": 1867,
      "Ġnumber": 1868,
      "Ġtime": 1869,
      "tes": 1870,
      "dom": 1871,
      "selected": 1872,
      "Ġcheck": 1873,
      "os": 1874,
      "Ġtest": 1875,
      "constructor": 1876,
      "Ġle": 1877,
      "uted": 1878,
      "Symbol": 1879,
      ")){": 1880,
      "catch": 1881,
      "Ġ{};": 1882,
      ")/": 1883,
      "model": 1884,
      "uccess": 1885,
      "Mode": 1886,
      "upport": 1887,
      "idden": 1888,
      "sert": 1889,
      "font": 1890,
      "Ġspec": 1891,
      "'t": 1892,
      "WEBPACK": 1893,
      "ld": 1894,
      "Ġall": 1895,
      "ĊĠĠĠĠĠĠĠĠĠĠĠĠĠĠĠĠĠĠĠĠĠĠĠĠĠĠĠĠĠĠĠ": 1896,
      "Click": 1897,
      "hould": 1898,
      "Ġren": 1899,
      "Group": 1900,
      "Ġinstanceof": 1901,
      "Equal": 1902,
      "Ġti": 1903,
      "////////": 1904,
      "\")}": 1905,
      "02": 1906,
      "Ġ/>": 1907,
      "Ġcom": 1908,
      "header": 1909,
      "patch": 1910,
      "cluster": 1911,
      "\"}},": 1912,
      "open": 1913,
      "43": 1914,
      "Ġ#": 1915,
      "'s": 1916,
      "IMP": 1917,
      "init": 1918,
      "ICB": 1919,
      "=>": 1920,
      "sor": 1921,
      "dire": 1922,
      "86": 1923,
      "53": 1924,
      "}.": 1925,
      "Ġexports": 1926,
      "ĠK": 1927,
      "ual": 1928,
      "Ġnext": 1929,
      "Ġchild": 1930,
      "keys": 1931,
      "mis": 1932,
      "mark": 1933,
      "ph": 1934,
      "Ġcomponent": 1935,
      "ain": 1936,
      "Ġupdate": 1937,
      "Ac": 1938,
      "option": 1939,
      "equal": 1940,
      "Ġinput": 1941,
      "Ġcolor": 1942,
      "URL": 1943,
      "clear": 1944,
      "Label": 1945,
      "search": 1946,
      "ORTED": 1947,
      "ized": 1948,
      "Ùħ": 1949,
      "Ġvoid": 1950,
      "ish": 1951,
      "AS": 1952,
      "medi": 1953,
      "vas": 1954,
      "El": 1955,
      "Out": 1956,
      "Trans": 1957,
      "pan": 1958,
      "pacity": 1959,
      "trigger": 1960,
      "Ġwidth": 1961,
      "MODULE": 1962,
      "stroy": 1963,
      "cor": 1964,
      "ctory": 1965,
      "Ġau": 1966,
      "bottom": 1967,
      "resolve": 1968,
      "ÙĪ": 1969,
      "vm": 1970,
      "Ġrequest": 1971,
      "dir": 1972,
      "Token": 1973,
      "\\/": 1974,
      "Ġ16": 1975,
      "fill": 1976,
      "ension": 1977,
      "ender": 1978,
      "Target": 1979,
      "nav": 1980,
      "xy": 1981,
      "client": 1982,
      "hide": 1983,
      "ater": 1984,
      "Format": 1985,
      "'],": 1986,
      "light": 1987,
      "rix": 1988,
      "ive": 1989,
      "());": 1990,
      "Ġar": 1991,
      "Ġtrans": 1992,
      "nal": 1993,
      "Lay": 1994,
      "clusterK": 1995,
      "51": 1996,
      "()}": 1997,
      "],\"": 1998,
      "Ġ[\"": 1999,
      "ift": 2000,
      "RO": 2001,
      "Ġurl": 2002,
      "98": 2003,
      "ĠReturn": 2004,
      "76": 2005,
      "gress": 2006,
      "ÑĤ": 2007,
      "IMPORTED": 2008,
      "90": 2009,
      "]|": 2010,
      "ĠY": 2011,
      "params": 2012,
      "Ġ$(": 2013,
      "member": 2014,
      "Ġ\\\"": 2015,
      "Res": 2016,
      "run": 2017,
      "Scroll": 2018,
      "ancel": 2019,
      "onth": 2020,
      "not": 2021,
      "lasses": 2022,
      "EventListener": 2023,
      "BQ": 2024,
      "bug": 2025,
      "rence": 2026,
      "]}": 2027,
      "Ġco": 2028,
      "Ġcode": 2029,
      "uage": 2030,
      "}\\": 2031,
      "should": 2032,
      "sa": 2033,
      "menu": 2034,
      "ĠThis": 2035,
      "root": 2036,
      "Sx": 2037,
      "Image": 2038,
      "=[],": 2039,
      "cept": 2040,
      "],[-": 2041,
      "UFB": 2042,
      "margin": 2043,
      "Ġshould": 2044,
      "IS": 2045,
      "\",[": 2046,
      "\":[": 2047,
      "ES": 2048,
      "ĠJ": 2049,
      "property": 2050,
      "72": 2051,
      "mul": 2052,
      "à®": 2053,
      "ager": 2054,
      "::": 2055,
      "cord": 2056,
      ",_": 2057,
      "Des": 2058,
      "As": 2059,
      "kit": 2060,
      "side": 2061,
      "ĠDate": 2062,
      "())": 2063,
      "Inter": 2064,
      "Ġyou": 2065,
      "ENT": 2066,
      "hich": 2067,
      "ally": 2068,
      "rt": 2069,
      "request": 2070,
      "Ġvalues": 2071,
      "Handler": 2072,
      "mail": 2073,
      "Ver": 2074,
      "layer": 2075,
      "92": 2076,
      "Ġ}),": 2077,
      "mode": 2078,
      "TtBQU": 2079,
      "py": 2080,
      "Box": 2081,
      "mm": 2082,
      "ategory": 2083,
      "drop": 2084,
      "Ġ&": 2085,
      "sing": 2086,
      "255": 2087,
      "ZG": 2088,
      "Man": 2089,
      "63": 2090,
      "Ùı": 2091,
      "]:": 2092,
      "ÑĢ": 2093,
      "\"!==": 2094,
      "response": 2095,
      "ĊĉĠ": 2096,
      "idget": 2097,
      "CK": 2098,
      "/*!": 2099,
      "QUFDQ": 2100,
      "Add": 2101,
      ")+": 2102,
      "vide": 2103,
      "LO": 2104,
      "\"))": 2105,
      "transform": 2106,
      "83": 2107,
      "Vy": 2108,
      "-\\": 2109,
      "Ġ12": 2110,
      "**/": 2111,
      "here": 2112,
      "ments": 2113,
      "ÙĬ": 2114,
      "Lower": 2115,
      "Ġlength": 2116,
      "Ġmax": 2117,
      "Ġcontent": 2118,
      "Callback": 2119,
      "85": 2120,
      "ready": 2121,
      "stop": 2122,
      "hasOwnProperty": 2123,
      "man": 2124,
      "ide": 2125,
      ",.": 2126,
      "can": 2127,
      "`.": 2128,
      "74": 2129,
      "Right": 2130,
      "Ġargs": 2131,
      "rer": 2132,
      "flow": 2133,
      "callback": 2134,
      "Ġmin": 2135,
      "Ġext": 2136,
      "tra": 2137,
      "ĠIf": 2138,
      "Ġparse": 2139,
      "none": 2140,
      "wh": 2141,
      "addClass": 2142,
      "aa": 2143,
      "troll": 2144,
      "bser": 2145,
      "jQuery": 2146,
      "ature": 2147,
      "sl": 2148,
      "tach": 2149,
      "Link": 2150,
      "ĠReact": 2151,
      "ĠAl": 2152,
      "itial": 2153,
      "post": 2154,
      "ĠĠĠĠĠĠ": 2155,
      "attern": 2156,
      ":[\"": 2157,
      "queue": 2158,
      "Ġ,": 2159,
      "Ġmen": 2160,
      "Ġheight": 2161,
      "ION": 2162,
      "Ġ${": 2163,
      "('.": 2164,
      "Ms": 2165,
      "umerable": 2166,
      "background": 2167,
      "isArray": 2168,
      "Ġ%": 2169,
      "img": 2170,
      "$.": 2171,
      "...": 2172,
      "\"!=": 2173,
      "Proto": 2174,
      "iginal": 2175,
      "++){": 2176,
      "Ġhref": 2177,
      "example": 2178,
      "Ġ$.": 2179,
      "ug": 2180,
      "Valid": 2181,
      "ified": 2182,
      "Sta": 2183,
      "lide": 2184,
      "ĠSe": 2185,
      "70": 2186,
      "license": 2187,
      "Model": 2188,
      "lication": 2189,
      "je": 2190,
      "components": 2191,
      "IF": 2192,
      "Rl": 2193,
      "CA": 2194,
      "ĠjQuery": 2195,
      "\".": 2196,
      "TH": 2197,
      "tal": 2198,
      "62": 2199,
      "Check": 2200,
      "unk": 2201,
      "fin": 2202,
      "ĠReturns": 2203,
      "gister": 2204,
      "NBO": 2205,
      "Icon": 2206,
      "73": 2207,
      "ations": 2208,
      "Ġoffset": 2209,
      "LowerCase": 2210,
      "mi": 2211,
      "Ġparent": 2212,
      "reka": 2213,
      "goog": 2214,
      ")(\"": 2215,
      "work": 2216,
      "Sub": 2217,
      "({},": 2218,
      "CO": 2219,
      "Ġq": 2220,
      "Document": 2221,
      "Ġcall": 2222,
      "Ġsub": 2223,
      "Ġtitle": 2224,
      "lot": 2225,
      "private": 2226,
      "95": 2227,
      "Ġ}\\": 2228,
      "ãĤ": 2229,
      ")|": 2230,
      "svg": 2231,
      "Ġunder": 2232,
      "chema": 2233,
      "getElement": 2234,
      "Ġrender": 2235,
      ",'": 2236,
      "leg": 2237,
      "Ġproperty": 2238,
      "range": 2239,
      ":(": 2240,
      "$/": 2241,
      "toLowerCase": 2242,
      "process": 2243,
      "Ġiter": 2244,
      "Ġla": 2245,
      "Th": 2246,
      "cn": 2247,
      "Instance": 2248,
      "cket": 2249,
      "Ġ11": 2250,
      "tif": 2251,
      "www": 2252,
      "Desc": 2253,
      "ci": 2254,
      "LL": 2255,
      "troller": 2256,
      "TR": 2257,
      "()},": 2258,
      "parentNode": 2259,
      "switch": 2260,
      "pected": 2261,
      "Ġhave": 2262,
      "thor": 2263,
      "vious": 2264,
      ",,": 2265,
      ":'": 2266,
      "scale": 2267,
      "center": 2268,
      "ssion": 2269,
      "global": 2270,
      "ada": 2271,
      "les": 2272,
      "94": 2273,
      "dash": 2274,
      "sha": 2275,
      "******/": 2276,
      "Ġline": 2277,
      "Ġso": 2278,
      "ĠÐ": 2279,
      "<=": 2280,
      "padding": 2281,
      "before": 2282,
      "App": 2283,
      "adius": 2284,
      "Ġ'./": 2285,
      "ãĥ": 2286,
      "TtBQUNBO": 2287,
      "Fn": 2288,
      "]],": 2289,
      "Ġfirst": 2290,
      "write": 2291,
      "store": 2292,
      "))},": 2293,
      "resh": 2294,
      "Ġvalid": 2295,
      "ee": 2296,
      "plugin": 2297,
      ")).": 2298,
      "lip": 2299,
      "oom": 2300,
      "UN": 2301,
      ")}),": 2302,
      "LF": 2303,
      "93": 2304,
      "CH": 2305,
      "82": 2306,
      "host": 2307,
      "ING": 2308,
      "Ġremove": 2309,
      "Ġresponse": 2310,
      "Column": 2311,
      "ï¼": 2312,
      "The": 2313,
      "tab": 2314,
      "Ġber": 2315,
      "console": 2316,
      "itable": 2317,
      "ĠØ": 2318,
      "uD": 2319,
      "aj": 2320,
      "ates": 2321,
      "month": 2322,
      "Ġposition": 2323,
      "exec": 2324,
      "mary": 2325,
      "utils": 2326,
      "HJ": 2327,
      "boolean": 2328,
      "ĊĠĠĠĠĠĠ": 2329,
      "align": 2330,
      "Filter": 2331,
      "Cache": 2332,
      "Header": 2333,
      "pb": 2334,
      "her": 2335,
      "Ġlabel": 2336,
      "por": 2337,
      "toggle": 2338,
      "('#": 2339,
      "(\"#": 2340,
      "atrix": 2341,
      "Ġopt": 2342,
      "Source": 2343,
      ".\\": 2344,
      "holder": 2345,
      "'+": 2346,
      "cc": 2347,
      "Base": 2348,
      "Ġval": 2349,
      "info": 2350,
      "instance": 2351,
      "location": 2352,
      "prev": 2353,
      "Ġprops": 2354,
      "Ad": 2355,
      "cG": 2356,
      "Ġmereka": 2357,
      "Ġup": 2358,
      "LEN": 2359,
      "items": 2360,
      "Ġtoken": 2361,
      "Ax": 2362,
      "pr": 2363,
      "ility": 2364,
      "Ġus": 2365,
      "gExp": 2366,
      ")};": 2367,
      ");\\": 2368,
      "Obj": 2369,
      "EDIT": 2370,
      "Get": 2371,
      "gra": 2372,
      "go": 2373,
      "ĊĊĉĉĉ": 2374,
      "Ġover": 2375,
      "/******/": 2376,
      "91": 2377,
      "nodeType": 2378,
      "uk": 2379,
      "Ġother": 2380,
      "\":{": 2381,
      "Day": 2382,
      "\\\",": 2383,
      "Ġback": 2384,
      "local": 2385,
      "done": 2386,
      "lative": 2387,
      "ctions": 2388,
      "Ñģ": 2389,
      "off": 2390,
      "##": 2391,
      "--------------------------------": 2392,
      "\"},\"": 2393,
      "Ġwhich": 2394,
      "lap": 2395,
      "Ġ\"),": 2396,
      "QUFDQTtBQUNBO": 2397,
      "sort": 2398,
      "sm": 2399,
      "scribe": 2400,
      "dW": 2401,
      "settings": 2402,
      "adow": 2403,
      "Ġte": 2404,
      "orage": 2405,
      "Ġrow": 2406,
      "ĀĀĀĀĀĀĀĀ": 2407,
      "Ġlast": 2408,
      "Parent": 2409,
      "picker": 2410,
      "Menu": 2411,
      "Ġmust": 2412,
      "AI": 2413,
      "Ġcal": 2414,
      "61": 2415,
      "af": 2416,
      "EDITOR": 2417,
      "esModule": 2418,
      "Ġlog": 2419,
      "Ġ\"./": 2420,
      "Ġused": 2421,
      "wrap": 2422,
      "Ġonly": 2423,
      "Ġchange": 2424,
      "Ġview": 2425,
      "ĊĊĠĠĠĠĠĠĠĠĠĠĠĠĠĠĠ": 2426,
      "assert": 2427,
      "chart": 2428,
      "(`": 2429,
      "Ġmay": 2430,
      "clone": 2431,
      "@@": 2432,
      "Ġany": 2433,
      "description": 2434,
      "insert": 2435,
      "headers": 2436,
      "Select": 2437,
      "]*": 2438,
      "hidden": 2439,
      "Ġasync": 2440,
      "vert": 2441,
      "etch": 2442,
      "XC": 2443,
      "pl": 2444,
      "\\'": 2445,
      "cent": 2446,
      "cs": 2447,
      "ga": 2448,
      "shift": 2449,
      "Ġtry": 2450,
      "appendChild": 2451,
      "df": 2452,
      "func": 2453,
      "translate": 2454,
      "events": 2455,
      "Per": 2456,
      "href": 2457,
      "gex": 2458,
      "tains": 2459,
      "derer": 2460,
      "Ġdisplay": 2461,
      "xl": 2462,
      "Ġfield": 2463,
      "Min": 2464,
      "Ġ>=": 2465,
      "TY": 2466,
      "================": 2467,
      "modal": 2468,
      "face": 2469,
      "Li": 2470,
      "Ġwhile": 2471,
      "Ġbo": 2472,
      "Ġpage": 2473,
      "||!": 2474,
      "board": 2475,
      "annel": 2476,
      "Ġcur": 2477,
      "Ht": 2478,
      "XHR": 2479,
      "Service": 2480,
      "Ġright": 2481,
      "attributes": 2482,
      "Ø±": 2483,
      "dic": 2484,
      "HE": 2485,
      "ines": 2486,
      "emit": 2487,
      "editor": 2488,
      "tx": 2489,
      "used": 2490,
      "grid": 2491,
      "ĠType": 2492,
      "Over": 2493,
      "da": 2494,
      "Ġparams": 2495,
      "\"}},[": 2496,
      "AG": 2497,
      "mount": 2498,
      "ading": 2499,
      "__.": 2500,
      "ameters": 2501,
      ";)": 2502,
      "Ġhandle": 2503,
      "Ġmap": 2504,
      "TO": 2505,
      "values": 2506,
      "]]": 2507,
      "81": 2508,
      "elem": 2509,
      "gre": 2510,
      "aded": 2511,
      "touch": 2512,
      "em": 2513,
      "oly": 2514,
      "ooks": 2515,
      "helper": 2516,
      "\"},{": 2517,
      "env": 2518,
      "Fe": 2519,
      "Ġformat": 2520,
      "itle": 2521,
      "Ġhttp": 2522,
      "<<": 2523,
      "ince": 2524,
      "Ġcolumn": 2525,
      "webkit": 2526,
      "cache": 2527,
      "Down": 2528,
      "Ġsu": 2529,
      "Ġdate": 2530,
      "Require": 2531,
      "drag": 2532,
      "clude": 2533,
      ",\\": 2534,
      "gb": 2535,
      "Params": 2536,
      "Render": 2537,
      "ublic": 2538,
      "imp": 2539,
      "ffff": 2540,
      "Result": 2541,
      "71": 2542,
      "aN": 2543,
      ",(": 2544,
      "Msg": 2545,
      "destroy": 2546,
      "IE": 2547,
      "SA": 2548,
      "adata": 2549,
      "ron": 2550,
      "nect": 2551,
      "removeClass": 2552,
      "util": 2553,
      "outer": 2554,
      "ched": 2555,
      "Ġhar": 2556,
      "=/": 2557,
      "ding": 2558,
      "db": 2559,
      "Rect": 2560,
      "transition": 2561,
      "Pri": 2562,
      "assign": 2563,
      "est": 2564,
      "Temp": 2565,
      "category": 2566,
      "áĥ": 2567,
      "Client": 2568,
      "Month": 2569,
      "Ġ[],": 2570,
      "other": 2571,
      "Pos": 2572,
      "symbol": 2573,
      "ATE": 2574,
      "Ġrequired": 2575,
      "rect": 2576,
      "prevent": 2577,
      "Ġleft": 2578,
      "vb": 2579,
      "setAttribute": 2580,
      "Ġtop": 2581,
      "ĠStr": 2582,
      "ometry": 2583,
      "normal": 2584,
      "send": 2585,
      "ference": 2586,
      "btn": 2587,
      "ithub": 2588,
      ")}},": 2589,
      "Ġprocess": 2590,
      "tical": 2591,
      "trib": 2592,
      "gener": 2593,
      "Ġimp": 2594,
      "dition": 2595,
      "Ġdire": 2596,
      "Ġ100": 2597,
      "lable": 2598,
      "And": 2599,
      "tation": 2600,
      "Ġone": 2601,
      "ĊĠĠĠĠĠĠĠĠĠĠĠĠ": 2602,
      "ati": 2603,
      "+(": 2604,
      "ence": 2605,
      "utes": 2606,
      "Names": 2607,
      "ĠAllah": 2608,
      "Title": 2609,
      "\")]),": 2610,
      "Ġ'/": 2611,
      "draw": 2612,
      "hr": 2613,
      "Ġtag": 2614,
      "ĠĠĠĠĠĠĠĠĠĠĠĠĠ": 2615,
      "ById": 2616,
      "tify": 2617,
      "ween": 2618,
      "hite": 2619,
      "vider": 2620,
      "addEventListener": 2621,
      "Ġ((": 2622,
      "spec": 2623,
      "åı": 2624,
      "Ġpoint": 2625,
      "US": 2626,
      "Status": 2627,
      "EC": 2628,
      "ks": 2629,
      "Bound": 2630,
      "gu": 2631,
      "chor": 2632,
      "'>": 2633,
      "Float": 2634,
      "Blockly": 2635,
      "Ð¾Ð": 2636,
      "]?": 2637,
      "buffer": 2638,
      "foo": 2639,
      "frame": 2640,
      "Match": 2641,
      "gl": 2642,
      "Bl": 2643,
      "owner": 2644,
      "Js": 2645,
      "now": 2646,
      "LT": 2647,
      "internal": 2648,
      "Vis": 2649,
      "area": 2650,
      "ĠWe": 2651,
      "req": 2652,
      "PI": 2653,
      "Events": 2654,
      "]},": 2655,
      "Ġcatch": 2656,
      "}(": 2657,
      "week": 2658,
      "Year": 2659,
      "duct": 2660,
      "ret": 2661,
      "Settings": 2662,
      "loading": 2663,
      "sign": 2664,
      "ĠØ§": 2665,
      "Selection": 2666,
      "AAAAAAAA": 2667,
      "Ġ32": 2668,
      "Char": 2669,
      "angular": 2670,
      "layout": 2671,
      "Manager": 2672,
      "yste": 2673,
      "full": 2674,
      ".\",": 2675,
      "Ùĳ": 2676,
      "Ġstatic": 2677,
      "Ġref": 2678,
      "Tra": 2679,
      "LENBQU": 2680,
      "Frame": 2681,
      "ĊĉĠĠĠĠĠ": 2682,
      "uter": 2683,
      "Jl": 2684,
      "ragment": 2685,
      "Back": 2686,
      "Qg": 2687,
      "lease": 2688,
      "lear": 2689,
      "oft": 2690,
      "ĊĠĠĠĠĠĠĠĠĠĠĠĠĠĠĠĠĠĠĠĠĠ": 2691,
      "(-": 2692,
      "eners": 2693,
      "=-": 2694,
      "bb": 2695,
      "ĊĉĠĠĠĠĠĠĠ": 2696,
      "ĠĠĠĠĠĠĠĠĠĠĠĠĠĠĠĠĠĠĠ": 2697,
      "ost": 2698,
      "+'": 2699,
      "('./": 2700,
      "Open": 2701,
      "Ġhttps": 2702,
      "Promise": 2703,
      "ĠCon": 2704,
      "warn": 2705,
      "æľ": 2706,
      "Test": 2707,
      "yy": 2708,
      "tract": 2709,
      "lt": 2710,
      "VE": 2711,
      "****************************************************************": 2712,
      "ings": 2713,
      "Ġquery": 2714,
      "ules": 2715,
      "ðŁ": 2716,
      "ĠDe": 2717,
      "Ġfound": 2718,
      "Prototype": 2719,
      "graph": 2720,
      "cell": 2721,
      "',['": 2722,
      "cI": 2723,
      "ME": 2724,
      "round": 2725,
      "pTypes": 2726,
      "opacity": 2727,
      "wo": 2728,
      "TER": 2729,
      "cla": 2730,
      "Ġsize": 2731,
      "Ġoption": 2732,
      "Ċĉĉĉĉĉĉĉ": 2733,
      "ures": 2734,
      "teger": 2735,
      "}/": 2736,
      "tex": 2737,
      "Tool": 2738,
      "stroke": 2739,
      "=[];": 2740,
      "angle": 2741,
      "custom": 2742,
      "Ġ24": 2743,
      "Bar": 2744,
      "staticClass": 2745,
      "Ġsrc": 2746,
      "PO": 2747,
      "loor": 2748,
      ")):": 2749,
      "ĠString": 2750,
      "çļ": 2751,
      "Ġfn": 2752,
      "verse": 2753,
      "aG": 2754,
      "meta": 2755,
      "opts": 2756,
      "Active": 2757,
      "AE": 2758,
      "dio": 2759,
      "](": 2760,
      "atee": 2761,
      "register": 2762,
      "Ġ14": 2763,
      "CE": 2764,
      "CKEDITOR": 2765,
      "Ġ...": 2766,
      "Ig": 2767,
      "Ġrun": 2768,
      "ank": 2769,
      "Fx": 2770,
      "Read": 2771,
      "Que": 2772,
      "querySelector": 2773,
      "tinue": 2774,
      "selection": 2775,
      "\"],[\"": 2776,
      "selector": 2777,
      "'))": 2778,
      "nection": 2779,
      "Ġroot": 2780,
      "way": 2781,
      "github": 2782,
      "andom": 2783,
      "with": 2784,
      "initial": 2785,
      "my": 2786,
      "Ġ17": 2787,
      "while": 2788,
      "Root": 2789,
      "Do": 2790,
      "disable": 2791,
      "Ġresolve": 2792,
      "OT": 2793,
      "cape": 2794,
      "\"},{\"": 2795,
      "Ġchar": 2796,
      "video": 2797,
      "256": 2798,
      "ki": 2799,
      "witch": 2800,
      "mission": 2801,
      "Ġwas": 2802,
      "uni": 2803,
      "Ġpe": 2804,
      "00000000": 2805,
      "çļĦ": 2806,
      "ble": 2807,
      "flex": 2808,
      "Ġed": 2809,
      "Ġbut": 2810,
      "Ġcopy": 2811,
      ":/": 2812,
      "Ġ[-": 2813,
      "iff": 2814,
      "ĉĉĉ": 2815,
      "ware": 2816,
      "DOM": 2817,
      "FD": 2818,
      "preventDefault": 2819,
      "Vz": 2820,
      "ĊĠĠĠĠĠĠĠĠĠĠĠĠĠĠĠĠĠĠĠĠĠĠĠĠĠĠĠĠĠĠĠĠĠĠĠ": 2821,
      "SU": 2822,
      "ats": 2823,
      "ĠPromise": 2824,
      "Dire": 2825,
      "reset": 2826,
      "days": 2827,
      "DQUFD": 2828,
      "mF": 2829,
      ")*": 2830,
      "dist": 2831,
      "Ġ15": 2832,
      "Arg": 2833,
      "(\"./": 2834,
      "aria": 2835,
      "ordin": 2836,
      "$(": 2837,
      "Window": 2838,
      "={},": 2839,
      "styles": 2840,
      "getAttribute": 2841,
      "application": 2842,
      "ants": 2843,
      "mony": 2844,
      ":\"#": 2845,
      "ling": 2846,
      "allow": 2847,
      "num": 2848,
      "isN": 2849,
      "tails": 2850,
      "Option": 2851,
      "build": 2852,
      "tifi": 2853,
      "alog": 2854,
      "AY": 2855,
      "\")),": 2856,
      "anim": 2857,
      "arrow": 2858,
      "ĠTypeError": 2859,
      "entifi": 2860,
      "\")},": 2861,
      "++;": 2862,
      "Items": 2863,
      "Ġbefore": 2864,
      "Nodes": 2865,
      "[\\": 2866,
      "visible": 2867,
      "ĠX": 2868,
      "super": 2869,
      "Ġwork": 2870,
      "ns": 2871,
      "theme": 2872,
      "istory": 2873,
      "fla": 2874,
      "Ġimport": 2875,
      "zM": 2876,
      "Ġshow": 2877,
      "Boolean": 2878,
      "Response": 2879,
      "bW": 2880,
      "AF": 2881,
      "Ġinitial": 2882,
      "]||": 2883,
      "hash": 2884,
      "pass": 2885,
      "Utils": 2886,
      "Ġter": 2887,
      "Ùĩ": 2888,
      "***": 2889,
      "Ġimage": 2890,
      "ialog": 2891,
      "wg": 2892,
      "Action": 2893,
      "ctx": 2894,
      "Cell": 2895,
      "ene": 2896,
      "enumerable": 2897,
      "izer": 2898,
      "Ġpri": 2899,
      "HO": 2900,
      "cf": 2901,
      "vari": 2902,
      "Ġharmony": 2903,
      "Ġ'<": 2904,
      "kind": 2905,
      "copy": 2906,
      "Nl": 2907,
      "ios": 2908,
      "ystem": 2909,
      "Method": 2910,
      "128": 2911,
      "Keys": 2912,
      "Mark": 2913,
      "}],": 2914,
      "ors": 2915,
      "ning": 2916,
      "wr": 2917,
      "Ġ<=": 2918,
      "Full": 2919,
      "Before": 2920,
      "Ġmod": 2921,
      "entry": 2922,
      "Ġ];": 2923,
      "trim": 2924,
      "CON": 2925,
      "dX": 2926,
      "stack": 2927,
      "Template": 2928,
      "Ġitu": 2929,
      "aw": 2930,
      "Call": 2931,
      "(__": 2932,
      "hover": 2933,
      "Ġfont": 2934,
      "wrapper": 2935,
      "Ġopts": 2936,
      "Mouse": 2937,
      "Ġ{},": 2938,
      "(()": 2939,
      "ends": 2940,
      "ice": 2941,
      "Ġglobal": 2942,
      "Pa": 2943,
      "media": 2944,
      "Search": 2945,
      "checked": 2946,
      "PE": 2947,
      "Ġ'\\": 2948,
      "fire": 2949,
      "Properties": 2950,
      "zm": 2951,
      "Max": 2952,
      "iled": 2953,
      "Ġinvo": 2954,
      "ICAgICAgICAgICAgICAgICAgICAgICAg": 2955,
      "duration": 2956,
      "anguage": 2957,
      "Ġversion": 2958,
      "zt": 2959,
      "ï¿½ï¿½ï¿½ï¿½": 2960,
      "aX": 2961,
      "åħ": 2962,
      "Ġread": 2963,
      "ql": 2964,
      "Ġmargin": 2965,
      "Pan": 2966,
      "åĪ": 2967,
      "sets": 2968,
      "Ġ(_": 2969,
      "Ġdef": 2970,
      "Ġborder": 2971,
      "vt": 2972,
      "Ġinter": 2973,
      "Ġelements": 2974,
      "heet": 2975,
      "ãĢ": 2976,
      "Pi": 2977,
      "after": 2978,
      "},{\"": 2979,
      "gt": 2980,
      "lect": 2981,
      "conds": 2982,
      "Ġ{?": 2983,
      "enc": 2984,
      "Ġbody": 2985,
      "screen": 2986,
      "Ġneed": 2987,
      "pache": 2988,
      "len": 2989,
      "olute": 2990,
      "\"></": 2991,
      "loc": 2992,
      "()),": 2993,
      "card": 2994,
      "gr": 2995,
      ")\\": 2996,
      "AU": 2997,
      "stream": 2998,
      "Animation": 2999,
      "Ġcl": 3000,
      "tiple": 3001,
      "ators": 3002,
      "):(": 3003,
      "success": 3004,
      "]).": 3005,
      "ixel": 3006,
      "={};": 3007,
      "floor": 3008,
      "Ġman": 3009,
      "Us": 3010,
      "async": 3011,
      "TION": 3012,
      "less": 3013,
      "ward": 3014,
      "axis": 3015,
      "vec": 3016,
      "'));": 3017,
      "Ġafter": 3018,
      "Ġdelete": 3019,
      "Ġcustom": 3020,
      ".\",\"": 3021,
      "Ġold": 3022,
      "olu": 3023,
      "Ð°Ð": 3024,
      "debug": 3025,
      "Ge": 3026,
      "cancel": 3027,
      "():": 3028,
      "tick": 3029,
      "animation": 3030,
      "pc": 3031,
      "Plugin": 3032,
      "OL": 3033,
      "urable": 3034,
      "ZS": 3035,
      "Ġ{}": 3036,
      "[_": 3037,
      "ä»": 3038,
      "widget": 3039,
      "oper": 3040,
      "Ab": 3041,
      "Es": 3042,
      ">>>": 3043,
      "Effect": 3044,
      "}`": 3045,
      "Cur": 3046,
      "$$": 3047,
      "fr": 3048,
      "Ġ'@": 3049,
      "MD": 3050,
      "hape": 3051,
      "Ly": 3052,
      "Ġorder": 3053,
      "Ġlen": 3054,
      "Ġtable": 3055,
      "XT": 3056,
      "Ġmeng": 3057,
      "Ġblock": 3058,
      "output": 3059,
      "save": 3060,
      "oriz": 3061,
      "stringify": 3062,
      "Ġdoes": 3063,
      "Web": 3064,
      "React": 3065,
      "stra": 3066,
      "Ġrange": 3067,
      "resource": 3068,
      "LI": 3069,
      "original": 3070,
      "Ġ'#": 3071,
      "Grid": 3072,
      "Ġ),": 3073,
      "Ġver": 3074,
      "pth": 3075,
      "Ġreturns": 3076,
      "ĠJSON": 3077,
      "à¹": 3078,
      "KE": 3079,
      "dialog": 3080,
      "=>{": 3081,
      "shape": 3082,
      "png": 3083,
      "zy": 3084,
      "),\"": 3085,
      "=_": 3086,
      "sent": 3087,
      "ĠCopy": 3088,
      "nd": 3089,
      "Body": 3090,
      "Zm": 3091,
      "}>": 3092,
      "ixed": 3093,
      "iven": 3094,
      "net": 3095,
      "*(": 3096,
      "endar": 3097,
      "Ġbutton": 3098,
      "ae": 3099,
      "Current": 3100,
      "Values": 3101,
      "Ġkep": 3102,
      "ported": 3103,
      "Ġ13": 3104,
      "\"));": 3105,
      "Queue": 3106,
      "ku": 3107,
      "9999": 3108,
      "tooltip": 3109,
      "Øª": 3110,
      "high": 3111,
      "Ġselector": 3112,
      "docs": 3113,
      "pha": 3114,
      "Close": 3115,
      "Ġmake": 3116,
      "Ġsettings": 3117,
      "Ug": 3118,
      "vc": 3119,
      "splice": 3120,
      "contains": 3121,
      "VG": 3122,
      "Matrix": 3123,
      "Vu": 3124,
      "Ġbeen": 3125,
      "lation": 3126,
      "bi": 3127,
      "Ġdone": 3128,
      "Ġ).": 3129,
      "Axis": 3130,
      "AME": 3131,
      "canvas": 3132,
      "('/": 3133,
      "ero": 3134,
      ":-": 3135,
      "struct": 3136,
      "Ġoper": 3137,
      "types": 3138,
      "Control": 3139,
      "Vs": 3140,
      "dak": 3141,
      "innerHTML": 3142,
      "___": 3143,
      "ten": 3144,
      "ĊĊĠĠĠĠĠĠĠĠĠ": 3145,
      "dC": 3146,
      "Scale": 3147,
      "toBe": 3148,
      "nya": 3149,
      "\\\":": 3150,
      "Ġchildren": 3151,
      "ODE": 3152,
      "URE": 3153,
      "ctu": 3154,
      "UI": 3155,
      "ization": 3156,
      "slide": 3157,
      "Ġ[{": 3158,
      "ajax": 3159,
      "ignore": 3160,
      "Empty": 3161,
      "å®": 3162,
      "fil": 3163,
      "Script": 3164,
      "parseInt": 3165,
      "Ġaction": 3166,
      "Ġoutput": 3167,
      "Nav": 3168,
      "Tab": 3169,
      "iterator": 3170,
      "[^": 3171,
      "Create": 3172,
      "////////////////": 3173,
      "inline": 3174,
      "AQ": 3175,
      "hc": 3176,
      "getElementById": 3177,
      "ail": 3178,
      "])}": 3179,
      "Ġpass": 3180,
      "ĠZ": 3181,
      "gICAg": 3182,
      "Ġ./": 3183,
      "cul": 3184,
      "Level": 3185,
      "Show": 3186,
      "ĠOR": 3187,
      "DD": 3188,
      "service": 3189,
      "Im": 3190,
      "Ġkeys": 3191,
      "nb": 3192,
      "Ġauto": 3193,
      "Ġdoc": 3194,
      "control": 3195,
      "Ã©": 3196,
      "Ñĥ": 3197,
      "\",(": 3198,
      "erge": 3199,
      "Next": 3200,
      "Sto": 3201,
      "xml": 3202,
      "Stack": 3203,
      "RU": 3204,
      ")\",\"": 3205,
      "cbl": 3206,
      "nap": 3207,
      "ircle": 3208,
      "Layout": 3209,
      "complete": 3210,
      "ï¼Į": 3211,
      "Ġscroll": 3212,
      "Log": 3213,
      "Ġmode": 3214,
      "msg": 3215,
      "ved": 3216,
      "Loc": 3217,
      "Ġform": 3218,
      "ables": 3219,
      "classes": 3220,
      "Wrapper": 3221,
      "ensions": 3222,
      "Ġret": 3223,
      "level": 3224,
      "sup": 3225,
      "Ġbrowser": 3226,
      "Stream": 3227,
      "resize": 3228,
      "Children": 3229,
      "peed": 3230,
      "zb": 3231,
      "Ġfilter": 3232,
      "Ġallow": 3233,
      "long": 3234,
      "vided": 3235,
      "ali": 3236,
      "siz": 3237,
      "entifier": 3238,
      "validate": 3239,
      "'><": 3240,
      "mask": 3241,
      "ĠRegExp": 3242,
      "OP": 3243,
      "Ġ\"\",": 3244,
      "Ġproperties": 3245,
      "Touch": 3246,
      "Ġta": 3247,
      "ĠCopyright": 3248,
      "Ġgroup": 3249,
      "ĠUn": 3250,
      "Selected": 3251,
      "Ġlink": 3252,
      "Focus": 3253,
      "Prop": 3254,
      ";++": 3255,
      "ternal": 3256,
      "Ġ'';": 3257,
      "ven": 3258,
      "\\.": 3259,
      "\"])": 3260,
      "ific": 3261,
      "Ġprop": 3262,
      "uh": 3263,
      "__)": 3264,
      "rot": 3265,
      "Ġinto": 3266,
      "year": 3267,
      "setTimeout": 3268,
      "Âł": 3269,
      "locale": 3270,
      "FBQyx": 3271,
      "Storage": 3272,
      "Ġtidak": 3273,
      "Ġgener": 3274,
      "åĮ": 3275,
      "mx": 3276,
      "language": 3277,
      "coding": 3278,
      "dispatch": 3279,
      "ilder": 3280,
      "ĠCreate": 3281,
      "total": 3282,
      "äº": 3283,
      "ND": 3284,
      "inst": 3285,
      "AX": 3286,
      "ters": 3287,
      "Drag": 3288,
      "ailable": 3289,
      "Ġ{\"": 3290,
      "step": 3291,
      "erial": 3292,
      "auth": 3293,
      "gba": 3294,
      "tree": 3295,
      "desc": 3296,
      "zL": 3297,
      "],[[": 3298,
      "pag": 3299,
      "nodeName": 3300,
      "entity": 3301,
      "lain": 3302,
      "orizont": 3303,
      "Nv": 3304,
      "arr": 3305,
      "Ġsupport": 3306,
      "Ġplace": 3307,
      "address": 3308,
      "tc": 3309,
      "GET": 3310,
      "!!": 3311,
      "CL": 3312,
      "Ġgiven": 3313,
      "Week": 3314,
      "effect": 3315,
      "fd": 3316,
      "}).": 3317,
      "ote": 3318,
      "à¯": 3319,
      "Ġcontainer": 3320,
      "ÐµÐ": 3321,
      "ision": 3322,
      "Controller": 3323,
      "'\\": 3324,
      "router": 3325,
      "gion": 3326,
      "}}),": 3327,
      "åİ": 3328,
      "engan": 3329,
      "åĲ": 3330,
      "Version": 3331,
      "pending": 3332,
      "lied": 3333,
      "ĠLT": 3334,
      "Ġ{?}": 3335,
      "Ġcache": 3336,
      "New": 3337,
      "Ġclient": 3338,
      "classList": 3339,
      "BE": 3340,
      "Elements": 3341,
      "relative": 3342,
      "ung": 3343,
      "only": 3344,
      "MS": 3345,
      "YYYY": 3346,
      "Head": 3347,
      "Ġicon": 3348,
      "pay": 3349,
      "any": 3350,
      "Ġlocal": 3351,
      "Styles": 3352,
      "ja": 3353,
      "erred": 3354,
      "very": 3355,
      "Ġevents": 3356,
      "PrototypeOf": 3357,
      "site": 3358,
      "Ġ\"<": 3359,
      "/,": 3360,
      "ins": 3361,
      "xs": 3362,
      "Order": 3363,
      "Transition": 3364,
      "fb": 3365,
      "Ġeach": 3366,
      "prefix": 3367,
      "Ġtemplate": 3368,
      "\"].": 3369,
      "\"><": 3370,
      "Ġreq": 3371,
      "Location": 3372,
      "thing": 3373,
      "Progress": 3374,
      "cre": 3375,
      "eq": 3376,
      "ending": 3377,
      "rad": 3378,
      "Ġusing": 3379,
      "ĠSet": 3380,
      "jb": 3381,
      "Move": 3382,
      "Transform": 3383,
      "__(/*!": 3384,
      "REE": 3385,
      "tadata": 3386,
      "Ġvari": 3387,
      "Qk": 3388,
      "common": 3389,
      "ob": 3390,
      "Iter": 3391,
      "pointer": 3392,
      "orizontal": 3393,
      "Ġerr": 3394,
      "ICAgICAgICAg": 3395,
      "empty": 3396,
      "ics": 3397,
      "charCode": 3398,
      "project": 3399,
      "Dir": 3400,
      "Ã¡": 3401,
      "ither": 3402,
      "112": 3403,
      "Sync": 3404,
      "navig": 3405,
      "Ġbackground": 3406,
      "Ø¨": 3407,
      "Run": 3408,
      "na": 3409,
      "Ġnormal": 3410,
      "ollow": 3411,
      "panel": 3412,
      "Ġconstructor": 3413,
      "Sp": 3414,
      "Ġ`_.": 3415,
      "(;": 3416,
      "Ġstatus": 3417,
      "Ġcalled": 3418,
      "enable": 3419,
      "ii": 3420,
      "UM": 3421,
      "]&&": 3422,
      "dropdown": 3423,
      "Can": 3424,
      "Red": 3425,
      "áŀ": 3426,
      "shadow": 3427,
      "hl": 3428,
      "ename": 3429,
      "important": 3430,
      "Ġ$('#": 3431,
      "ĠPropTypes": 3432,
      "dered": 3433,
      "browser": 3434,
      "Cal": 3435,
      ")))": 3436,
      "tim": 3437,
      "properties": 3438,
      "google": 3439,
      "actions": 3440,
      "})}": 3441,
      "\\\">": 3442,
      "LEV": 3443,
      "progress": 3444,
      "Ġfind": 3445,
      "uid": 3446,
      "à¥": 3447,
      "Ġqu": 3448,
      "Ġserver": 3449,
      "Ġag": 3450,
      "native": 3451,
      "rem": 3452,
      "Expression": 3453,
      "short": 3454,
      "Ġyour": 3455,
      "||{": 3456,
      "tp": 3457,
      "ORT": 3458,
      "çĶ": 3459,
      "Ġcor": 3460,
      "andlers": 3461,
      ")\",": 3462,
      "radius": 3463,
      "If": 3464,
      ")[": 3465,
      "Ġkepada": 3466,
      "Ġhtml": 3467,
      "Modal": 3468,
      "Command": 3469,
      "gment": 3470,
      "Display": 3471,
      "Ġpadding": 3472,
      "})),": 3473,
      "velo": 3474,
      "Store": 3475,
      "ĠĠĠĠĠĠĠĠĠĠĠĠĠĠĠĠĠĠĠĠĠĠĠĠĠĠĠĠĠĠĠĠĠĠĠĠĠĠĠĠĠĠĠĠĠĠĠĠĠĠĠĠĠĠĠĠĠĠĠĠĠĠĠĠ": 3476,
      "ily": 3477,
      "à¦": 3478,
      "fc": 3479,
      "fs": 3480,
      "server": 3481,
      "ye": 3482,
      "Ġsearch": 3483,
      "ĠSee": 3484,
      "pattern": 3485,
      "Ġswitch": 3486,
      "RL": 3487,
      "dGl": 3488,
      "connect": 3489,
      "Ġmodel": 3490,
      "unctu": 3491,
      "FI": 3492,
      "Obser": 3493,
      "section": 3494,
      "charAt": 3495,
      "collection": 3496,
      "tered": 3497,
      "Provider": 3498,
      "Ġnon": 3499,
      "Ġproto": 3500,
      "memberOf": 3501,
      "merge": 3502,
      "Visible": 3503,
      "Ġdistrib": 3504,
      "Ġ}).": 3505,
      "Ġhandler": 3506,
      "Scope": 3507,
      "Ġlimit": 3508,
      "120": 3509,
      "va": 3510,
      "bound": 3511,
      "ji": 3512,
      "Ġmul": 3513,
      "inary": 3514,
      "timeout": 3515,
      "æĸ": 3516,
      "Ġ18": 3517,
      "Ġselected": 3518,
      "Ġorang": 3519,
      "Layer": 3520,
      "arte": 3521,
      "Ġprovided": 3522,
      "limit": 3523,
      "NS": 3524,
      "sd": 3525,
      "kg": 3526,
      "Ġdengan": 3527,
      "prec": 3528,
      "clare": 3529,
      "std": 3530,
      ";){": 3531,
      "å¤": 3532,
      "PS": 3533,
      "LENBQUMs": 3534,
      "Short": 3535,
      "Ġmore": 3536,
      "ARR": 3537,
      "Ġmark": 3538,
      "trols": 3539,
      "ose": 3540,
      "()).": 3541,
      "Enabled": 3542,
      "redu": 3543,
      "acti": 3544,
      "Ġctx": 3545,
      "ĠGet": 3546,
      "Ġ50": 3547,
      "Ġempty": 3548,
      "107": 3549,
      "ani": 3550,
      "unctuation": 3551,
      "Ġsame": 3552,
      "ace": 3553,
      "Ren": 3554,
      "Rh": 3555,
      "cmV": 3556,
      "FE": 3557,
      "Tree": 3558,
      "NE": 3559,
      "LW": 3560,
      "*}": 3561,
      "mt": 3562,
      "Parse": 3563,
      "lan": 3564,
      "Ġload": 3565,
      "After": 3566,
      "geometry": 3567,
      "-=": 3568,
      "nown": 3569,
      "è¯": 3570,
      "previous": 3571,
      "cludes": 3572,
      "Ġscope": 3573,
      "Pop": 3574,
      "edit": 3575,
      "Last": 3576,
      "Load": 3577,
      "Mul": 3578,
      "NT": 3579,
      "Lj": 3580,
      "Ġitems": 3581,
      "ges": 3582,
      "zoom": 3583,
      "since": 3584,
      "Ġ++": 3585,
      "acter": 3586,
      "jp": 3587,
      "material": 3588,
      "gg": 3589,
      "PT": 3590,
      "oftware": 3591,
      "Ġ--": 3592,
      "ĠAn": 3593,
      "pol": 3594,
      "RI": 3595,
      "book": 3596,
      "imum": 3597,
      "OS": 3598,
      "]))": 3599,
      "latform": 3600,
      "ĠCheck": 3601,
      "Ġfunc": 3602,
      "Address": 3603,
      "tity": 3604,
      "cdFx": 3605,
      "Ø¯": 3606,
      "points": 3607,
      "direction": 3608,
      "inher": 3609,
      "support": 3610,
      "getOwnProperty": 3611,
      "inding": 3612,
      "runtime": 3613,
      "Ġ30": 3614,
      "Ġinit": 3615,
      "Ġ'',": 3616,
      "ik": 3617,
      "Work": 3618,
      "helpers": 3619,
      "MT": 3620,
      "Invalid": 3621,
      "Ne": 3622,
      "sb": 3623,
      "__[\"": 3624,
      "Task": 3625,
      "author": 3626,
      "Ġthen": 3627,
      "Ġstack": 3628,
      "ibling": 3629,
      "Interval": 3630,
      ",\"./": 3631,
      "500": 3632,
      "gi": 3633,
      "æĹ": 3634,
      "Texture": 3635,
      "ception": 3636,
      "sian": 3637,
      "Dialog": 3638,
      "Ġpa": 3639,
      "Ġ;": 3640,
      "*\\": 3641,
      "iform": 3642,
      "Cap": 3643,
      "\":[\"": 3644,
      "legate": 3645,
      "Ġsome": 3646,
      "]/": 3647,
      "email": 3648,
      "Server": 3649,
      "UP": 3650,
      "alam": 3651,
      "command": 3652,
      "Ġvis": 3653,
      "ugh": 3654,
      "300": 3655,
      "orld": 3656,
      "invalid": 3657,
      "DO": 3658,
      "ists": 3659,
      "Ġka": 3660,
      "configurable": 3661,
      "Ġpos": 3662,
      "ua": 3663,
      "Ġdistributed": 3664,
      "ration": 3665,
      "Ġclear": 3666,
      "Ġtransform": 3667,
      "Dom": 3668,
      "charCodeAt": 3669,
      "refe": 3670,
      "Ġ''": 3671,
      "Html": 3672,
      "ude": 3673,
      "sBy": 3674,
      "ĀĀĀĀĀĀĀĀĀĀĀĀĀĀĀĀ": 3675,
      "substr": 3676,
      "Ġsuper": 3677,
      "Loader": 3678,
      "Ùĥ": 3679,
      "Ġfin": 3680,
      "(\\": 3681,
      "overflow": 3682,
      "/>": 3683,
      "Ġ40": 3684,
      "(\"_": 3685,
      "ĠSymbol": 3686,
      "Jy": 3687,
      "ords": 3688,
      "æķ": 3689,
      "Ġscale": 3690,
      "Ġlodash": 3691,
      "Ym": 3692,
      "Ġra": 3693,
      "110": 3694,
      "Ġeither": 3695,
      "ENSE": 3696,
      "ĠMe": 3697,
      "+=\"": 3698,
      "Helper": 3699,
      "Ġobjects": 3700,
      "hex": 3701,
      "Align": 3702,
      "Su": 3703,
      "strict": 3704,
      "ĠNumber": 3705,
      "animate": 3706,
      "encode": 3707,
      "ibility": 3708,
      "ys": 3709,
      "promise": 3710,
      "Ġexpected": 3711,
      "Descript": 3712,
      "required": 3713,
      "Ġ'.": 3714,
      "ours": 3715,
      "DB": 3716,
      "Ġactive": 3717,
      "lapse": 3718,
      "Ġ19": 3719,
      "LC": 3720,
      "125": 3721,
      "tact": 3722,
      "Only": 3723,
      "cr": 3724,
      "ĠĠĠĠĠĠĠĠĠĠĠĠĠĠĠĠĠĠĠĠĠĠĠ": 3725,
      "Ġsp": 3726,
      "gram": 3727,
      "ingle": 3728,
      "aterial": 3729,
      "ERR": 3730,
      "Ġ{*}": 3731,
      "substring": 3732,
      "Ġ\"\\": 3733,
      "ĠData": 3734,
      "Ġab": 3735,
      "1212": 3736,
      "Bottom": 3737,
      "|\\": 3738,
      "Not": 3739,
      "elm": 3740,
      "setState": 3741,
      "Ġlike": 3742,
      "tor": 3743,
      "UE": 3744,
      "Post": 3745,
      "ler": 3746,
      "ector": 3747,
      "yd": 3748,
      "Ġargument": 3749,
      "Ġarr": 3750,
      "Ġinst": 3751,
      "ĠCh": 3752,
      "alt": 3753,
      "Aw": 3754,
      "ride": 3755,
      "Ġax": 3756,
      "Ġfill": 3757,
      "Off": 3758,
      "Changed": 3759,
      ":[{": 3760,
      "Symbols": 3761,
      "....": 3762,
      "Api": 3763,
      "Div": 3764,
      "fx": 3765,
      "ICENSE": 3766,
      "ĠOF": 3767,
      "hb": 3768,
      "ĠIN": 3769,
      "ĠCON": 3770,
      "Ġsup": 3771,
      "track": 3772,
      "Ġ[]": 3773,
      "artesian": 3774,
      "Ġits": 3775,
      "lta": 3776,
      "ential": 3777,
      "ĊĊĉĉĉĉ": 3778,
      "ĊĠĠĠĠĠĠĠĠĠĠĠĠĠĠĠĠĠĠĠĠĠĠĠĠĠĠĠĠĠĠĠĠĠĠĠĠĠĠĠ": 3779,
      "zs": 3780,
      "asc": 3781,
      "placeholder": 3782,
      "Drop": 3783,
      "ĠHT": 3784,
      "å¸": 3785,
      "Ġ\"#": 3786,
      "iddle": 3787,
      "namespace": 3788,
      "vable": 3789,
      "bile": 3790,
      "Spec": 3791,
      "Nz": 3792,
      "peat": 3793,
      "tt": 3794,
      "Ġsymbol": 3795,
      "make": 3796,
      "âĶ": 3797,
      "(.": 3798,
      "ross": 3799,
      "ceive": 3800,
      ")+\"": 3801,
      "),!": 3802,
      "arts": 3803,
      "dc": 3804,
      "ict": 3805,
      "random": 3806,
      "ick": 3807,
      "Card": 3808,
      ":\"\",": 3809,
      "Hash": 3810,
      "First": 3811,
      "ÙĳÙİ": 3812,
      "Ġ\",": 3813,
      "pagation": 3814,
      "åİ¿": 3815,
      "LD": 3816,
      "\"],\"": 3817,
      "vs": 3818,
      "ĠQ": 3819,
      "wise": 3820,
      "sive": 3821,
      "formation": 3822,
      "_(": 3823,
      "EE": 3824,
      "Ð»": 3825,
      "Ġdefine": 3826,
      "ITION": 3827,
      ":{\"": 3828,
      "Ġweb": 3829,
      "\"}}": 3830,
      "This": 3831,
      "schema": 3832,
      "Ġresults": 3833,
      "car": 3834,
      "Ġday": 3835,
      "Ġsign": 3836,
      "attach": 3837,
      "Editor": 3838,
      "stamp": 3839,
      "Ġ({": 3840,
      "babel": 3841,
      "xuICAg": 3842,
      "===\"": 3843,
      "Ġexec": 3844,
      "months": 3845,
      "sum": 3846,
      "hasClass": 3847,
      "ansp": 3848,
      "FR": 3849,
      "\"}),": 3850,
      "Json": 3851,
      "ĠØ§ÙĦ": 3852,
      "strap": 3853,
      "Ste": 3854,
      "API": 3855,
      "ian": 3856,
      "refresh": 3857,
      "MMM": 3858,
      "force": 3859,
      "Ġbound": 3860,
      "ĠDOM": 3861,
      ">'": 3862,
      "BB": 3863,
      "Ġstore": 3864,
      "Ġdescription": 3865,
      "àª": 3866,
      "session": 3867,
      "}},{": 3868,
      "Ø³": 3869,
      "bg": 3870,
      "ZXJ": 3871,
      "Ġiteratee": 3872,
      "ĠURL": 3873,
      "Sort": 3874,
      "asing": 3875,
      "checkbox": 3876,
      "CT": 3877,
      "LS": 3878,
      "Ġ($": 3879,
      "\"):": 3880,
      "Factory": 3881,
      "ava": 3882,
      "Nj": 3883,
      "Ġnative": 3884,
      "Panel": 3885,
      "Sibling": 3886,
      "Tick": 3887,
      "==\"": 3888,
      "Ġwithout": 3889,
      "Ass": 3890,
      "defaults": 3891,
      "coun": 3892,
      "\"},[": 3893,
      "Ġplugin": 3894,
      "anchor": 3895,
      "imal": 3896,
      "Ġvm": 3897,
      "DEF": 3898,
      "Ùģ": 3899,
      "Ġ'../": 3900,
      "wt": 3901,
      "ĊĉĊ": 3902,
      "KEY": 3903,
      "Oper": 3904,
      "inition": 3905,
      "NAME": 3906,
      "Ġthere": 3907,
      "PL": 3908,
      "isting": 3909,
      "Ġstream": 3910,
      "]{": 3911,
      "VAL": 3912,
      "),(": 3913,
      "åĬ": 3914,
      "SC": 3915,
      "stead": 3916,
      "Ġmsg": 3917,
      "Handle": 3918,
      "æĺ": 3919,
      "gen": 3920,
      "DI": 3921,
      "Ġselect": 3922,
      "Hooks": 3923,
      "leted": 3924,
      "lg": 3925,
      "rows": 3926,
      "Ġprom": 3927,
      "sic": 3928,
      "ĠIE": 3929,
      "VER": 3930,
      "('<": 3931,
      "float": 3932,
      "Args": 3933,
      "OiB": 3934,
      "wb": 3935,
      "__,": 3936,
      "FT": 3937,
      "gn": 3938,
      "Ġ64": 3939,
      "Prefix": 3940,
      "series": 3941,
      "064": 3942,
      "opt": 3943,
      "vailable": 3944,
      "Ġcollection": 3945,
      "Propagation": 3946,
      "ĠIS": 3947,
      ":\"%": 3948,
      "Ġspecified": 3949,
      "dt": 3950,
      "Ġini": 3951,
      "toolbar": 3952,
      "LG": 3953,
      "ked": 3954,
      "scrollTop": 3955,
      "password": 3956,
      "enabled": 3957,
      "memo": 3958,
      "pZ": 3959,
      "ĊĊĠĠĠĠĠĠĠĠĠĠĠĠĠĠĠĠĠĠĠ": 3960,
      "IB": 3961,
      "expect": 3962,
      "Ġcb": 3963,
      "atures": 3964,
      "delay": 3965,
      "istance": 3966,
      "Ġopen": 3967,
      "displayName": 3968,
      "Custom": 3969,
      "Ġextends": 3970,
      "Func": 3971,
      "primary": 3972,
      "ating": 3973,
      "player": 3974,
      "TYPE": 3975,
      "jsx": 3976,
      "uble": 3977,
      "ĠBu": 3978,
      "Route": 3979,
      "olid": 3980,
      "plugins": 3981,
      "Ġwarn": 3982,
      "Enter": 3983,
      "ĠYou": 3984,
      "NY": 3985,
      "MENT": 3986,
      "zone": 3987,
      "ient": 3988,
      "Shape": 3989,
      "Ph": 3990,
      "^^": 3991,
      "datepicker": 3992,
      "pm": 3993,
      "Ġalready": 3994,
      "!./": 3995,
      "Ġ\"/": 3996,
      "cations": 3997,
      "Ġcount": 3998,
      "BA": 3999,
      "XP": 4000,
      "Mg": 4001,
      "3333": 4002,
      "cursor": 4003,
      "Mi": 4004,
      "include": 4005,
      "ait": 4006,
      "elements": 4007,
      "Font": 4008,
      "ĠTo": 4009,
      "kt": 4010,
      "Ġfe": 4011,
      "ite": 4012,
      "Ġrel": 4013,
      "NODE": 4014,
      "rough": 4015,
      "Ċĉĉĉĉĉĉĉĉ": 4016,
      "orang": 4017,
      "upload": 4018,
      "comment": 4019,
      "Lm": 4020,
      "Ġthan": 4021,
      "RUFB": 4022,
      "Ġ'[": 4023,
      "250": 4024,
      "apter": 4025,
      "ness": 4026,
      "Ñı": 4027,
      "etween": 4028,
      "Ġ200": 4029,
      "words": 4030,
      "umb": 4031,
      "Ġclose": 4032,
      "task": 4033,
      "Qix": 4034,
      "utf": 4035,
      "Listeners": 4036,
      "tcbiAg": 4037,
      "submit": 4038,
      "Ġpost": 4039,
      "Remove": 4040,
      "(\"\\": 4041,
      "TEXT": 4042,
      "ĠĠĠĠĠĠĠĠĠĠĠĠ": 4043,
      "PAR": 4044,
      "Ġbuffer": 4045,
      "ority": 4046,
      "lish": 4047,
      "results": 4048,
      "Ġimplement": 4049,
      "Vl": 4050,
      "Ġdiv": 4051,
      "yb": 4052,
      "\"]=": 4053,
      "ynam": 4054,
      "firm": 4055,
      "otstrap": 4056,
      ":#": 4057,
      "mediate": 4058,
      "amily": 4059,
      "114": 4060,
      "Ġlanguage": 4061,
      "ĠparseInt": 4062,
      "Ġdari": 4063,
      ":\\": 4064,
      "public": 4065,
      "Sk": 4066,
      "begin": 4067,
      "buf": 4068,
      "ouse": 4069,
      "Ġattrs": 4070,
      "med": 4071,
      "Ġattribute": 4072,
      "Fi": 4073,
      "400": 4074,
      "watch": 4075,
      "Area": 4076,
      "ernal": 4077,
      "isNaN": 4078,
      "Ġim": 4079,
      "Track": 4080,
      "BO": 4081,
      "ĠAdd": 4082,
      "white": 4083,
      "mote": 4084,
      "decor": 4085,
      "Ġpas": 4086,
      "(/\\": 4087,
      "expand": 4088,
      "xuICAgICAg": 4089,
      "ifier": 4090,
      "Ġnav": 4091,
      "QUFF": 4092,
      "(!(": 4093,
      "ea": 4094,
      "yB": 4095,
      "Ang": 4096,
      "Ġoriginal": 4097,
      "Ù°": 4098,
      "([\"": 4099,
      "just": 4100,
      "Space": 4101,
      "Ġreject": 4102,
      "second": 4103,
      "ĠTr": 4104,
      "Parser": 4105,
      "Tim": 4106,
      "AK": 4107,
      "Classes": 4108,
      "cause": 4109,
      "lag": 4110,
      "eb": 4111,
      "Ġcap": 4112,
      "Loading": 4113,
      "Ġng": 4114,
      "CC": 4115,
      "ways": 4116,
      "stri": 4117,
      "hp": 4118,
      "sue": 4119,
      "handler": 4120,
      ":[],": 4121,
      "Ġpunctuation": 4122,
      "sec": 4123,
      ")-": 4124,
      "loaded": 4125,
      "âĸ": 4126,
      "Auto": 4127,
      "],[\"": 4128,
      "ĊĉĠĠĠĠĠĠĠĠĠĠĠ": 4129,
      "Ġsuccess": 4130,
      "Vt": 4131,
      "access": 4132,
      "Ġclick": 4133,
      "(--": 4134,
      "127": 4135,
      "ply": 4136,
      "ãĢĤ": 4137,
      "fixed": 4138,
      "elp": 4139,
      "pipe": 4140,
      ",,,,": 4141,
      "shot": 4142,
      "Ġì": 4143,
      "Vari": 4144,
      "havi": 4145,
      "!/": 4146,
      "stract": 4147,
      "CSS": 4148,
      "ĠsetTimeout": 4149,
      "imul": 4150,
      "Cx": 4151,
      "})},": 4152,
      "missions": 4153,
      "Normal": 4154,
      "Resource": 4155,
      "Edit": 4156,
      "Ġwrap": 4157,
      "ĠVer": 4158,
      "sure": 4159,
      "serial": 4160,
      "Ġtemp": 4161,
      "firstChild": 4162,
      "ason": 4163,
      "1010": 4164,
      "Ġlicense": 4165,
      "dicate": 4166,
      "mbed": 4167,
      "ä½": 4168,
      "chedule": 4169,
      "Ġheader": 4170,
      "ynamic": 4171,
      "Ġ48": 4172,
      "sitions": 4173,
      "ency": 4174,
      "views": 4175,
      "ÙĤ": 4176,
      "VV": 4177,
      "Ġtool": 4178,
      "\"](": 4179,
      "vertical": 4180,
      "Ġarg": 4181,
      "PRO": 4182,
      "parentName": 4183,
      "weekdays": 4184,
      "press": 4185,
      "Required": 4186,
      ")})}": 4187,
      "ditional": 4188,
      "è¿": 4189,
      "ĠApache": 4190,
      "Util": 4191,
      "RG": 4192,
      "Med": 4193,
      "Descriptor": 4194,
      "ries": 4195,
      "113": 4196,
      "vd": 4197,
      "tw": 4198,
      "Ġ21": 4199,
      "Ġmonth": 4200,
      "Ġmove": 4201,
      "Ġmethods": 4202,
      "ordinates": 4203,
      "Ġtab": 4204,
      "toEqual": 4205,
      "Ðº": 4206,
      "Fy": 4207,
      ")));": 4208,
      "\"){": 4209,
      "Ġui": 4210,
      "uri": 4211,
      ")||(": 4212,
      "expression": 4213,
      "roke": 4214,
      "Agent": 4215,
      "Pass": 4216,
      "Constructor": 4217,
      "åĮº": 4218,
      "interop": 4219,
      "print": 4220,
      "users": 4221,
      "Ġbuild": 4222,
      "Ġexpression": 4223,
      "ful": 4224,
      "Ġentry": 4225,
      "keyCode": 4226,
      "Ġdir": 4227,
      "IND": 4228,
      "Ġhere": 4229,
      "Ġwrapper": 4230,
      "escape": 4231,
      "Ġes": 4232,
      "Ġnum": 4233,
      "AGE": 4234,
      "160": 4235,
      "ĠAu": 4236,
      "åį": 4237,
      "direct": 4238,
      "Ġfiles": 4239,
      "Sign": 4240,
      "popup": 4241,
      "reject": 4242,
      "_=": 4243,
      "LEVBQU": 4244,
      "Cancel": 4245,
      "Ġprev": 4246,
      "absolute": 4247,
      "Gener": 4248,
      "043": 4249,
      "Local": 4250,
      "wner": 4251,
      "Upper": 4252,
      "admin": 4253,
      "pping": 4254,
      "includes": 4255,
      ":{},": 4256,
      "Ġinstead": 4257,
      "Ġpop": 4258,
      "Ġmouse": 4259,
      "Renderer": 4260,
      "trl": 4261,
      "Collection": 4262,
      "IM": 4263,
      "ZSB": 4264,
      "000000": 4265,
      "275": 4266,
      "gest": 4267,
      "leave": 4268,
      "flags": 4269,
      "bd": 4270,
      "vity": 4271,
      "Ġgoo": 4272,
      "Ġop": 4273,
      "Ø¹": 4274,
      "æĪ": 4275,
      "Integer": 4276,
      "111": 4277,
      "isFunction": 4278,
      "Locale": 4279,
      "package": 4280,
      "(\"/": 4281,
      "',['../": 4282,
      "Ġspecific": 4283,
      "renderer": 4284,
      "writable": 4285,
      "RT": 4286,
      "lack": 4287,
      "ayload": 4288,
      "mu": 4289,
      "Place": 4290,
      "role": 4291,
      "Return": 4292,
      "term": 4293,
      "Ġmerge": 4294,
      "images": 4295,
      "Mj": 4296,
      "Duration": 4297,
      "channel": 4298,
      "Zn": 4299,
      "Ġprevious": 4300,
      "mapped": 4301,
      "pow": 4302,
      "ture": 4303,
      "fetch": 4304,
      "Ġ\"\"": 4305,
      "Record": 4306,
      "lides": 4307,
      "Ċĉĉĉĉĉĉĉĉĉĉ": 4308,
      "ET": 4309,
      "ake": 4310,
      "180": 4311,
      "bc": 4312,
      ";;": 4313,
      "pacing": 4314,
      "Canvas": 4315,
      "gon": 4316,
      "Delete": 4317,
      "nt": 4318,
      "Ġ$(\"#": 4319,
      "route": 4320,
      "rome": 4321,
      "ĊĠĠĠĠĠĠĠĠĠĠĠĠĠĠĠĠĠĠĠĠĠĠĠĠĠ": 4322,
      "metadata": 4323,
      "#!/": 4324,
      "KC": 4325,
      "eval": 4326,
      "Ġob": 4327,
      "Ġparameter": 4328,
      "ĠFor": 4329,
      "scriptor": 4330,
      "END": 4331,
      "dat": 4332,
      "alah": 4333,
      "}:": 4334,
      "Builder": 4335,
      "unit": 4336,
      "{{": 4337,
      "Points": 4338,
      "files": 4339,
      "anya": 4340,
      "Éµ": 4341,
      "that": 4342,
      "Sa": 4343,
      "\",\"#": 4344,
      "ICA": 4345,
      "getElementsBy": 4346,
      "\",!": 4347,
      "EAA": 4348,
      "viron": 4349,
      "Ġexcept": 4350,
      "tification": 4351,
      "ABLE": 4352,
      "directive": 4353,
      "Ġinfo": 4354,
      "lower": 4355,
      "encies": 4356,
      "Ln": 4357,
      "ited": 4358,
      "umeric": 4359,
      "fer": 4360,
      "})(": 4361,
      "orted": 4362,
      "Ġ22": 4363,
      "ĠComponent": 4364,
      "Rule": 4365,
      "some": 4366,
      "IA": 4367,
      "Play": 4368,
      "Vk": 4369,
      "math": 4370,
      "Ġlocation": 4371,
      "ODO": 4372,
      "served": 4373,
      "']]],": 4374,
      "lots": 4375,
      "Ġdom": 4376,
      "Ġ60": 4377,
      "nodes": 4378,
      "cimal": 4379,
      "]],[[": 4380,
      "obser": 4381,
      "Graph": 4382,
      "deep": 4383,
      "Argument": 4384,
      "reference": 4385,
      "ATION": 4386,
      "ClassName": 4387,
      "Radius": 4388,
      "KG": 4389,
      "ution": 4390,
      "textarea": 4391,
      "ĠUse": 4392,
      "Bh": 4393,
      "\\\",\\\"": 4394,
      "alert": 4395,
      "rency": 4396,
      "***!": 4397,
      "ĠSt": 4398,
      "sync": 4399,
      "Init": 4400,
      "RegExp": 4401,
      "product": 4402,
      "Ġ25": 4403,
      "La": 4404,
      "Ġ/^": 4405,
      "proxy": 4406,
      "Regex": 4407,
      "entries": 4408,
      "Ġnodes": 4409,
      "UTC": 4410,
      "Host": 4411,
      "stdlib": 4412,
      "asure": 4413,
      "Ġĉ": 4414,
      "slint": 4415,
      "NO": 4416,
      "multi": 4417,
      "jquery": 4418,
      "101": 4419,
      "Num": 4420,
      "Ġhash": 4421,
      "SP": 4422,
      "rary": 4423,
      "xe": 4424,
      "expected": 4425,
      "512": 4426,
      "Ġpromise": 4427,
      "safe": 4428,
      "Ġcontinue": 4429,
      "(\"<": 4430,
      "Ġvec": 4431,
      "cp": 4432,
      "003": 4433,
      "dark": 4434,
      "nbsp": 4435,
      "ZV": 4436,
      "tax": 4437,
      "slider": 4438,
      "åŃ": 4439,
      "jection": 4440,
      "Wh": 4441,
      "Ġap": 4442,
      "Zoom": 4443,
      "ĠID": 4444,
      "bool": 4445,
      "interopRequire": 4446,
      "documentElement": 4447,
      "rules": 4448,
      "åĽ": 4449,
      "uint": 4450,
      "Ġscript": 4451,
      "]&&(": 4452,
      ")});": 4453,
      "My": 4454,
      "æķ°": 4455,
      "Ids": 4456,
      "/{": 4457,
      "IZ": 4458,
      "116": 4459,
      "]=\"": 4460,
      "finish": 4461,
      "105": 4462,
      "IGN": 4463,
      "CAA": 4464,
      "Ġexpress": 4465,
      "Ġnow": 4466,
      "00000": 4467,
      "voke": 4468,
      "Browser": 4469,
      "Ii": 4470,
      "(\"+": 4471,
      "Descri": 4472,
      "Ġgo": 4473,
      "dl": 4474,
      "(/^": 4475,
      "Met": 4476,
      "Ġbah": 4477,
      "Ġdalam": 4478,
      "andard": 4479,
      "origin": 4480,
      "={{": 4481,
      "Qs": 4482,
      "present": 4483,
      "roid": 4484,
      "(\"_\"),": 4485,
      "pendencies": 4486,
      "poly": 4487,
      "tics": 4488,
      "ao": 4489,
      "ging": 4490,
      "extends": 4491,
      "ĠApp": 4492,
      "Ġfetch": 4493,
      "119": 4494,
      "duction": 4495,
      "Ð²": 4496,
      "small": 4497,
      "123": 4498,
      "\"];": 4499,
      "/_": 4500,
      "ĠEx": 4501,
      "Ġheaders": 4502,
      "Ġakan": 4503,
      "109": 4504,
      "Ġcenter": 4505,
      "Ġfull": 4506,
      "Attributes": 4507,
      "Ġ\".": 4508,
      "Ġanimation": 4509,
      "heel": 4510,
      "Ġflex": 4511,
      "Rp": 4512,
      "bf": 4513,
      "tools": 4514,
      "=[\"": 4515,
      "192": 4516,
      "Fragment": 4517,
      "EF": 4518,
      "removeChild": 4519,
      "108": 4520,
      "continue": 4521,
      "ran": 4522,
      "blur": 4523,
      "jq": 4524,
      "Ġ`${": 4525,
      ",\"__": 4526,
      "subscribe": 4527,
      "Ġbecause": 4528,
      "getTime": 4529,
      "Ġdon": 4530,
      "ĊĊĊ": 4531,
      "))),": 4532,
      "Ġ(\"": 4533,
      "await": 4534,
      "memoized": 4535,
      "ĠANY": 4536,
      "Ġclone": 4537,
      "loud": 4538,
      "Ġ!!": 4539,
      "abase": 4540,
      "reduce": 4541,
      "cu": 4542,
      "Ġjson": 4543,
      "Doc": 4544,
      "dia": 4545,
      "abi": 4546,
      "device": 4547,
      "chunk": 4548,
      "game": 4549,
      "Ġmain": 4550,
      "Async": 4551,
      "matches": 4552,
      "Ġ\"\";": 4553,
      "once": 4554,
      "Vector": 4555,
      "Ġcell": 4556,
      "Cl": 4557,
      "inite": 4558,
      "olume": 4559,
      ":$": 4560,
      "clip": 4561,
      "}};": 4562,
      "ĠFunction": 4563,
      "Ġtotal": 4564,
      "ended": 4565,
      "éĢ": 4566,
      "iration": 4567,
      "removeEventListener": 4568,
      "Feature": 4569,
      "Chart": 4570,
      "IL": 4571,
      "AH": 4572,
      "resources": 4573,
      "=/^": 4574,
      "-\"+": 4575,
      "Access": 4576,
      "radio": 4577,
      "Schema": 4578,
      "Complete": 4579,
      "hether": 4580,
      "atio": 4581,
      "dev": 4582,
      "ĠHTML": 4583,
      "MO": 4584,
      "115": 4585,
      "zd": 4586,
      "ili": 4587,
      "So": 4588,
      "=\"\",": 4589,
      "Ġ26": 4590,
      "Ġdispatch": 4591,
      "Ġdefined": 4592,
      "ATA": 4593,
      "zi": 4594,
      "Di": 4595,
      "}</": 4596,
      "fade": 4597,
      "á»": 4598,
      "Ġapi": 4599,
      "sq": 4600,
      "'];": 4601,
      "Ġreplace": 4602,
      "Ġfollow": 4603,
      "ĠRE": 4604,
      "XB": 4605,
      "ç»": 4606,
      "=$": 4607,
      "parator": 4608,
      "':'": 4609,
      "ical": 4610,
      "vers": 4611,
      "ifiers": 4612,
      "Ġcreated": 4613,
      "Ġtmp": 4614,
      "fail": 4615,
      "parseFloat": 4616,
      "napshot": 4617,
      "Ġcss": 4618,
      "Ġinvoked": 4619,
      "Ġsk": 4620,
      "Ġeslint": 4621,
      "username": 4622,
      ":\"\\": 4623,
      "ĠUint": 4624,
      "Pr": 4625,
      ".\");": 4626,
      "iA": 4627,
      "marker": 4628,
      "590": 4629,
      "Zl": 4630,
      "bit": 4631,
      "quence": 4632,
      "104": 4633,
      "anded": 4634,
      "clar": 4635,
      "?:": 4636,
      "Emit": 4637,
      "Global": 4638,
      "ansport": 4639,
      "Widget": 4640,
      "Screen": 4641,
      "%;": 4642,
      "Ġaccess": 4643,
      "Ġcommand": 4644,
      "Const": 4645,
      "dent": 4646,
      "ĠEn": 4647,
      "Ratio": 4648,
      "inject": 4649,
      "ĠOp": 4650,
      "================================": 4651,
      "Ġtree": 4652,
      "High": 4653,
      "ĠMMMM": 4654,
      "calendar": 4655,
      "Ġsort": 4656,
      "102": 4657,
      "fff": 4658,
      "Ġact": 4659,
      "]){": 4660,
      "Ġbox": 4661,
      "fV": 4662,
      "cry": 4663,
      "tagName": 4664,
      "ĠTH": 4665,
      "Ġalign": 4666,
      "Ġstyles": 4667,
      "circle": 4668,
      "rgb": 4669,
      "002": 4670,
      "Ġequal": 4671,
      "+\")": 4672,
      "errors": 4673,
      "dr": 4674,
      "è¡": 4675,
      "ker": 4676,
      "Mapp": 4677,
      "moz": 4678,
      "Mu": 4679,
      "assets": 4680,
      "Headers": 4681,
      "NC": 4682,
      "Imp": 4683,
      "Step": 4684,
      "è®": 4685,
      "Arrow": 4686,
      "`;": 4687,
      "Ġseb": 4688,
      "weight": 4689,
      "blue": 4690,
      ".',": 4691,
      "jpg": 4692,
      "Fixed": 4693,
      "ownerDocument": 4694,
      ")>": 4695,
      ")?(": 4696,
      "Ġsa": 4697,
      "Light": 4698,
      "âĢĵ": 4699,
      "####": 4700,
      "ascript": 4701,
      "Ġweek": 4702,
      "gative": 4703,
      "Rpb": 4704,
      "Rv": 4705,
      "Ġtypes": 4706,
      "117": 4707,
      "Lim": 4708,
      "Comment": 4709,
      "Ġ'-": 4710,
      "avascript": 4711,
      "One": 4712,
      "Export": 4713,
      "Vud": 4714,
      "xx": 4715,
      "redential": 4716,
      "'},": 4717,
      "addRange": 4718,
      "Ġwhere": 4719,
      "record": 4720,
      "tmp": 4721,
      "áĢ": 4722,
      "Pl": 4723,
      "ced": 4724,
      "Unit": 4725,
      "LCB": 4726,
      "akan": 4727,
      ".</": 4728,
      "Ġstep": 4729,
      "rgba": 4730,
      "Ozs": 4731,
      "}));": 4732,
      "Ġfs": 4733,
      "tBQU": 4734,
      "Ġqueue": 4735,
      "TagName": 4736,
      "mar": 4737,
      "respon": 4738,
      "Fields": 4739,
      "regex": 4740,
      "SH": 4741,
      "Initial": 4742,
      "Sl": 4743,
      "++,": 4744,
      "()(": 4745,
      "history": 4746,
      "WN": 4747,
      "bul": 4748,
      "Parameters": 4749,
      "annot": 4750,
      "Disabled": 4751,
      "Pattern": 4752,
      "`);": 4753,
      "FC": 4754,
      "LEl": 4755,
      "Ġ27": 4756,
      "Yg": 4757,
      "NBQ": 4758,
      "tect": 4759,
      "Jo": 4760,
      "columns": 4761,
      "Ġfire": 4762,
      "Ġ255": 4763,
      "moment": 4764,
      "ublish": 4765,
      "ensi": 4766,
      "Ġvi": 4767,
      "names": 4768,
      "interopRequireDefault": 4769,
      "tit": 4770,
      "ĠAll": 4771,
      "etwork": 4772,
      "hh": 4773,
      "Ġwr": 4774,
      "ws": 4775,
      "zz": 4776,
      "mitive": 4777,
      "Wrap": 4778,
      "lines": 4779,
      "rest": 4780,
      "FL": 4781,
      "Ġsecond": 4782,
      "adient": 4783,
      "strong": 4784,
      "fl": 4785,
      "å¼": 4786,
      "ged": 4787,
      "/^": 4788,
      "login": 4789,
      "culate": 4790,
      "pages": 4791,
      "ï¿½ï¿½ï¿½ï¿½ï¿½ï¿½ï¿½ï¿½": 4792,
      "jax": 4793,
      "atan": 4794,
      "}\",": 4795,
      "sin": 4796,
      "[]": 4797,
      "Slide": 4798,
      "highlight": 4799,
      "Columns": 4800,
      "orth": 4801,
      "Success": 4802,
      "ARRAN": 4803,
      "fields": 4804,
      "star": 4805,
      "icons": 4806,
      "UG": 4807,
      "å¸Ĥ": 4808,
      "ĠAPI": 4809,
      "!==(": 4810,
      "Ap": 4811,
      "Dim": 4812,
      "Geometry": 4813,
      "Ġservice": 4814,
      "ffix": 4815,
      "xuICB": 4816,
      ")}(": 4817,
      "ĠWARRAN": 4818,
      "wd": 4819,
      "ĠMap": 4820,
      "Css": 4821,
      "PSB": 4822,
      "atar": 4823,
      "ERROR": 4824,
      "Ġwrite": 4825,
      "AULT": 4826,
      "ocused": 4827,
      "oe": 4828,
      "Channel": 4829,
      "lash": 4830,
      "6666": 4831,
      "ARE": 4832,
      "yntax": 4833,
      "era": 4834,
      "224": 4835,
      "byte": 4836,
      "INE": 4837,
      "Angle": 4838,
      "Stop": 4839,
      "rotate": 4840,
      "ym": 4841,
      "ĠMod": 4842,
      "Ġdescribe": 4843,
      "riting": 4844,
      "cos": 4845,
      "Media": 4846,
      "\":{},\"": 4847,
      "cap": 4848,
      "qq": 4849,
      "ustify": 4850,
      "144": 4851,
      "overlay": 4852,
      "$/,": 4853,
      "'.": 4854,
      "åľ": 4855,
      "IGHT": 4856,
      "childNodes": 4857,
      ";}": 4858,
      "Ġsave": 4859,
      "imple": 4860,
      "Rows": 4861,
      ")})),": 4862,
      "Ġpr": 4863,
      "ĠCol": 4864,
      "ime": 4865,
      "æł": 4866,
      "mory": 4867,
      "lapsed": 4868,
      "Ġ42": 4869,
      "ssible": 4870,
      "TIES": 4871,
      "/:": 4872,
      "part": 4873,
      "illise": 4874,
      "see": 4875,
      "ĠWIT": 4876,
      "ASS": 4877,
      "mix": 4878,
      "+/": 4879,
      "ef": 4880,
      "Bounding": 4881,
      "Direction": 4882,
      "account": 4883,
      "('../": 4884,
      "AV": 4885,
      "tabs": 4886,
      "ru": 4887,
      "Ġerrors": 4888,
      "Ġnames": 4889,
      "FFFF": 4890,
      "Ġrecord": 4891,
      "UpperCase": 4892,
      "xuICAgICAgICAgICAg": 4893,
      "XCJ": 4894,
      "Ġ23": 4895,
      "Vide": 4896,
      "als": 4897,
      "Native": 4898,
      "onChange": 4899,
      "tuk": 4900,
      "AAAAAAAAAAAAAAAA": 4901,
      "reverse": 4902,
      "Ġprefix": 4903,
      "Ġattr": 4904,
      "à´": 4905,
      "Vj": 4906,
      "Ġavailable": 4907,
      "ara": 4908,
      "103": 4909,
      "vironment": 4910,
      "ITY": 4911,
      "ĠĠĠĠĠĠĠĠĠĠ": 4912,
      "Ġsee": 4913,
      "655": 4914,
      "Ġdisabled": 4915,
      "Ġhelper": 4916,
      "ousel": 4917,
      "ackage": 4918,
      "130": 4919,
      "150": 4920,
      "VENT": 4921,
      "ÃŃ": 4922,
      "Ġ}));": 4923,
      "Ġbahwa": 4924,
      "SET": 4925,
      "Arr": 4926,
      "ĠNo": 4927,
      "precated": 4928,
      "Param": 4929,
      "âĶĢ": 4930,
      "UU": 4931,
      "System": 4932,
      "pose": 4933,
      "idx": 4934,
      "SD": 4935,
      "variant": 4936,
      "Metadata": 4937,
      "Ġhigh": 4938,
      "SUFB": 4939,
      "slot": 4940,
      "controller": 4941,
      "Wr": 4942,
      "domain": 4943,
      "olver": 4944,
      "loy": 4945,
      "à½": 4946,
      "ĠTODO": 4947,
      "ique": 4948,
      "Process": 4949,
      "Ġplaceholder": 4950,
      "Ġattributes": 4951,
      "ĠVersion": 4952,
      "Ba": 4953,
      "Auth": 4954,
      "\",[\"": 4955,
      "ump": 4956,
      "ĠÙĪ": 4957,
      "Ġfail": 4958,
      "cum": 4959,
      "tination": 4960,
      "It": 4961,
      "rule": 4962,
      "alpha": 4963,
      "textContent": 4964,
      "iler": 4965,
      "Timer": 4966,
      "apat": 4967,
      ")<": 4968,
      "PURE": 4969,
      "Identifier": 4970,
      "Ġdrag": 4971,
      "Ġtwo": 4972,
      "Fu": 4973,
      "Ġeditor": 4974,
      "XML": 4975,
      "dx": 4976,
      "Uint": 4977,
      "fragment": 4978,
      "sibl": 4979,
      "Ð¼": 4980,
      "skip": 4981,
      "ÑĮ": 4982,
      "Ġchart": 4983,
      "ĠĠĠĠĠĠĠĠĠĠĠĠĠĠĠĠĠĠĠĠĠĠĠĠĠĠĠ": 4984,
      "igation": 4985,
      "ds": 4986,
      "||[": 4987,
      "122": 4988,
      "isP": 4989,
      "106": 4990,
      "\\\\.": 4991,
      "HQ": 4992,
      "Ġpassed": 4993,
      "Internal": 4994,
      ":\"â": 4995,
      "]\",": 4996,
      "Ġ'../../": 4997,
      "toUpperCase": 4998,
      "Ġsoftware": 4999,
      "ĊĉĠĠĠĠ": 5000,
      "Ġparameters": 5001,
      "Var": 5002,
      "gh": 5003,
      "Mapping": 5004,
      "Picker": 5005,
      "decode": 5006,
      "CD": 5007,
      "Ġmenu": 5008,
      "JBQ": 5009,
      "à¯į": 5010,
      "]-": 5011,
      "Ġ',": 5012,
      "Ġfil": 5013,
      "issing": 5014,
      "Len": 5015,
      "ached": 5016,
      ")',": 5017,
      "cM": 5018,
      "ories": 5019,
      "Resize": 5020,
      "lags": 5021,
      "audio": 5022,
      ",$": 5023,
      ".$$": 5024,
      "QUE": 5025,
      "ÛĮ": 5026,
      "Ġhost": 5027,
      "greed": 5028,
      "lodash": 5029,
      "Video": 5030,
      "footer": 5031,
      "Ġjust": 5032,
      "Ñĭ": 5033,
      "Ġutils": 5034,
      "cast": 5035,
      "Poly": 5036,
      "tl": 5037,
      "xhr": 5038,
      "ĊĠĠĠĠĊĠĠĠ": 5039,
      "vZ": 5040,
      "Pointer": 5041,
      "Ġ>>>": 5042,
      "ĠÙħ": 5043,
      "Draw": 5044,
      "ĠEvent": 5045,
      "ĠĊ": 5046,
      "Ġignore": 5047,
      "Mount": 5048,
      "sn": 5049,
      "lated": 5050,
      "iframe": 5051,
      "Ð´": 5052,
      "licit": 5053,
      "Ġuntuk": 5054,
      "matrix": 5055,
      "nected": 5056,
      "Ġthey": 5057,
      "\\\":\\\"": 5058,
      "IHtcbiAg": 5059,
      "ELE": 5060,
      "yat": 5061,
      "cover": 5062,
      "TP": 5063,
      "Ġframe": 5064,
      "/.": 5065,
      "Entry": 5066,
      "ĠLicensed": 5067,
      "compare": 5068,
      "Ġ{@": 5069,
      "Warn": 5070,
      "()}}": 5071,
      "ÂłÂł": 5072,
      "264": 5073,
      "ube": 5074,
      "Ġexpand": 5075,
      "setup": 5076,
      "118": 5077,
      "Ġenumerable": 5078,
      "lar": 5079,
      "=\"#": 5080,
      "ĠĠĠĠĠĠĠĠĠĠĠĠĠĠĠĠĠ": 5081,
      "JQUF": 5082,
      "Cursor": 5083,
      "notation": 5084,
      "ĊĠĠĠĠĠĠĠĠĠĠ": 5085,
      "Mz": 5086,
      "Ġchunk": 5087,
      "querySelectorAll": 5088,
      "Meta": 5089,
      "ACE": 5090,
      "Ġfocus": 5091,
      "translated": 5092,
      "RSx": 5093,
      "Ġapply": 5094,
      "profile": 5095,
      "Border": 5096,
      "leh": 5097,
      "Ġtrack": 5098,
      "vance": 5099,
      "Ġgover": 5100,
      "},_": 5101,
      "//\\": 5102,
      "Tags": 5103,
      "MC": 5104,
      "Ġ***!": 5105,
      "Ġ!***": 5106,
      "Ġdesc": 5107,
      "Ġkam": 5108,
      "ko": 5109,
      "dot": 5110,
      "Ġpattern": 5111,
      "dices": 5112,
      "Ġve": 5113,
      "tb": 5114,
      "placement": 5115,
      "àº": 5116,
      "irationTime": 5117,
      "å°": 5118,
      "Ġyear": 5119,
      "Ġ28": 5120,
      "124": 5121,
      "Ġ45": 5122,
      "utation": 5123,
      "IGZ": 5124,
      "__*/": 5125,
      "Ġ<<": 5126,
      "Ġxml": 5127,
      "Ġ'')": 5128,
      "ux": 5129,
      "Ġ}}": 5130,
      "\",\"\\": 5131,
      "Ġselection": 5132,
      "uniform": 5133,
      "payload": 5134,
      "Ġthem": 5135,
      "ital": 5136,
      "Like": 5137,
      "icro": 5138,
      "isValid": 5139,
      "Ġmy": 5140,
      "Hook": 5141,
      "Ve": 5142,
      "oose": 5143,
      "147": 5144,
      "FO": 5145,
      "acy": 5146,
      "lz": 5147,
      "Ġcy": 5148,
      "ima": 5149,
      "ĠYYYY": 5150,
      "Yn": 5151,
      "generate": 5152,
      "Side": 5153,
      "ĠCreates": 5154,
      "\"],[": 5155,
      "DF": 5156,
      "anger": 5157,
      "XX": 5158,
      "Ġtransition": 5159,
      "Ġdescriptor": 5160,
      "Theme": 5161,
      "à¨": 5162,
      "multiple": 5163,
      "Tooltip": 5164,
      "XHRcdFx": 5165,
      "Ġbar": 5166,
      "Ġbit": 5167,
      "Ġstop": 5168,
      "Ġ43": 5169,
      "Ġcanvas": 5170,
      "YXJ": 5171,
      "Ġjs": 5172,
      "HH": 5173,
      "Ġrelative": 5174,
      "|=": 5175,
      "#__": 5176,
      "ticle": 5177,
      "Files": 5178,
      "Ġtask": 5179,
      "collapse": 5180,
      "uler": 5181,
      "pear": 5182,
      "Ġfunctions": 5183,
      "]):": 5184,
      "FOR": 5185,
      "refs": 5186,
      "LICENSE": 5187,
      "Pe": 5188,
      "Ġ'\"": 5189,
      "licenses": 5190,
      "men": 5191,
      "Idx": 5192,
      "Ġreference": 5193,
      "çĶ¨": 5194,
      "Regis": 5195,
      "Ġcorrect": 5196,
      "veloper": 5197,
      "finally": 5198,
      "cblx": 5199,
      "129": 5200,
      "----------------------------------------------------------------": 5201,
      "FQUFF": 5202,
      "HB": 5203,
      "KSB": 5204,
      "Ġassign": 5205,
      "Ġbind": 5206,
      "ĠWARRANTIES": 5207,
      "Ġcontain": 5208,
      "xuXG": 5209,
      "Ġuntranslated": 5210,
      "ored": 5211,
      "uture": 5212,
      "License": 5213,
      "termin": 5214,
      "âĢĭ": 5215,
      "otal": 5216,
      "Ġemail": 5217,
      "]={": 5218,
      "Connection": 5219,
      "PARAM": 5220,
      "ooter": 5221,
      "ques": 5222,
      "Pol": 5223,
      "Ġoperator": 5224,
      "ART": 5225,
      "getValue": 5226,
      "--)": 5227,
      "WF": 5228,
      "Ġtheme": 5229,
      "Pixel": 5230,
      "Center": 5231,
      "regis": 5232,
      "Submit": 5233,
      "Ġ-=": 5234,
      "Use": 5235,
      "Ġnone": 5236,
      "ala": 5237,
      "ÐµÐ½": 5238,
      "Op": 5239,
      "Origin": 5240,
      "Ġ1000": 5241,
      ":\"[": 5242,
      "Ġwant": 5243,
      "isF": 5244,
      "Ġdb": 5245,
      "QQ": 5246,
      "clearTimeout": 5247,
      "ability": 5248,
      "Ġmember": 5249,
      "Coun": 5250,
      "Ġ{!": 5251,
      "XY": 5252,
      "Ġobtain": 5253,
      "Ġsm": 5254,
      "ĠLo": 5255,
      "tile": 5256,
      "vnode": 5257,
      "Ġvalidate": 5258,
      "(\\\"": 5259,
      "look": 5260,
      "Will": 5261,
      "Ġdebug": 5262,
      "AJ": 5263,
      "tbody": 5264,
      "Upload": 5265,
      "Http": 5266,
      "ĠIt": 5267,
      "Ready": 5268,
      "Ø§ÙĦ": 5269,
      "bsolute": 5270,
      "``": 5271,
      "dp": 5272,
      "normalize": 5273,
      "xE": 5274,
      "Limit": 5275,
      "\")||": 5276,
      "NaN": 5277,
      "Ġalso": 5278,
      "Ġsingle": 5279,
      "Nya": 5280,
      "repeat": 5281,
      "GL": 5282,
      "Port": 5283,
      "\":[{\"": 5284,
      "ĠBuffer": 5285,
      "Ġtelah": 5286,
      "Ã¤": 5287,
      "Span": 5288,
      "loop": 5289,
      "rences": 5290,
      "cli": 5291,
      "onClick": 5292,
      "ume": 5293,
      "(['": 5294,
      "apache": 5295,
      "ĊĠĠĠĠĠĠĠĠĠĠĠĠĠĠĠĠĠĠĠĠĠĠĠĠĠĠĠĠĠĠĠĠĠĠĠĠĠĠĠĠĠĠĠ": 5296,
      "BR": 5297,
      "Ġdoesn": 5298,
      "insertBefore": 5299,
      "Description": 5300,
      "Ġlevel": 5301,
      "Fill": 5302,
      "Router": 5303,
      "rup": 5304,
      "delegate": 5305,
      "Ġpayload": 5306,
      "Ġdown": 5307,
      "Ñĩ": 5308,
      "Device": 5309,
      "ENV": 5310,
      "operator": 5311,
      ")({": 5312,
      "Ġgl": 5313,
      "Loaded": 5314,
      "Ġ'_": 5315,
      "ane": 5316,
      "à°": 5317,
      ",[\"": 5318,
      "]===": 5319,
      "Series": 5320,
      "coder": 5321,
      "._.": 5322,
      "ama": 5323,
      "LEd": 5324,
      "known": 5325,
      "===(": 5326,
      "depth": 5327,
      ")],": 5328,
      "Marker": 5329,
      "chain": 5330,
      "delta": 5331,
      "pO": 5332,
      "Ġspace": 5333,
      "blob": 5334,
      "Popup": 5335,
      "Binding": 5336,
      "?|": 5337,
      "Ġpoints": 5338,
      "Ġdif": 5339,
      "allet": 5340,
      "ĠonClick": 5341,
      "serialize": 5342,
      "timer": 5343,
      "âĶĢâĶĢ": 5344,
      "HOUT": 5345,
      "ĠDis": 5346,
      "Db": 5347,
      "å·": 5348,
      "iod": 5349,
      "320": 5350,
      "Ġproject": 5351,
      "geo": 5352,
      "alias": 5353,
      "Ġ**": 5354,
      "Ġmeta": 5355,
      "KTt": 5356,
      "swi": 5357,
      "Ġcontrol": 5358,
      "vertex": 5359,
      "\\\"\\": 5360,
      "tration": 5361,
      "ana": 5362,
      "COMP": 5363,
      "OK": 5364,
      "ĊĉĠĠ": 5365,
      "QkFB": 5366,
      "Material": 5367,
      "Ġaccount": 5368,
      "Account": 5369,
      "IComponent": 5370,
      "135": 5371,
      "dy": 5372,
      "az": 5373,
      "LElBQU": 5374,
      "cho": 5375,
      "closest": 5376,
      "same": 5377,
      "stopPropagation": 5378,
      "Ġinvalid": 5379,
      "ĠTHE": 5380,
      "dicator": 5381,
      "375": 5382,
      "POST": 5383,
      "Ġreset": 5384,
      "Ġfields": 5385,
      "eded": 5386,
      "220": 5387,
      "ĉĉĉĉĉĉĉĉ": 5388,
      "keydown": 5389,
      "sap": 5390,
      "Did": 5391,
      "Ġraw": 5392,
      "):\"": 5393,
      "Destroy": 5394,
      "win": 5395,
      "appendTo": 5396,
      "FS": 5397,
      ")})},": 5398,
      "Tile": 5399,
      "ĠComp": 5400,
      "library": 5401,
      "Save": 5402,
      "ZC": 5403,
      "Ġ36": 5404,
      "AW": 5405,
      "Oi": 5406,
      "Ġactual": 5407,
      ">',": 5408,
      "Ġpermissions": 5409,
      "Delay": 5410,
      ")\"": 5411,
      "javascript": 5412,
      "real": 5413,
      "blank": 5414,
      "ĠWITHOUT": 5415,
      "Ġ\",\"": 5416,
      "vid": 5417,
      "controls": 5418,
      "ĠPar": 5419,
      "gable": 5420,
      "åº": 5421,
      "Iterator": 5422,
      "Bounds": 5423,
      "ĠNode": 5424,
      "unshift": 5425,
      "Btn": 5426,
      "//#": 5427,
      "Dispatch": 5428,
      "Ġinformation": 5429,
      "SVG": 5430,
      "Zone": 5431,
      "rena": 5432,
      "ving": 5433,
      "horizontal": 5434,
      "detail": 5435,
      "Ġlistener": 5436,
      "Ġdat": 5437,
      "enum": 5438,
      "isEmpty": 5439,
      "dim": 5440,
      "alk": 5441,
      "icode": 5442,
      "computed": 5443,
      "Ġtrigger": 5444,
      "Clear": 5445,
      "colors": 5446,
      "havior": 5447,
      "equals": 5448,
      "stateNode": 5449,
      "Ġ$('.": 5450,
      "itter": 5451,
      "Ġdraw": 5452,
      "yl": 5453,
      "121": 5454,
      ")}}}": 5455,
      "Hl": 5456,
      "Gr": 5457,
      "URIComponent": 5458,
      "son": 5459,
      "Ġcore": 5460,
      "acters": 5461,
      "Ġwriting": 5462,
      "Ġdrop": 5463,
      "qM": 5464,
      "ĠKIND": 5465,
      "Ã³": 5466,
      "STR": 5467,
      "Ae": 5468,
      "unce": 5469,
      "ookie": 5470,
      "Total": 5471,
      "non": 5472,
      "navigator": 5473,
      "BU": 5474,
      "ONE": 5475,
      "Ġimg": 5476,
      "ĊĉĊĉ": 5477,
      "=\"'+": 5478,
      "IHRo": 5479,
      "rs": 5480,
      "ceil": 5481,
      "éĩ": 5482,
      "ĠWeb": 5483,
      "lb": 5484,
      "Ġsupported": 5485,
      "storage": 5486,
      "001": 5487,
      "bin": 5488,
      "Ġ\"-": 5489,
      "\")?": 5490,
      "dXJ": 5491,
      "Ġboolean": 5492,
      "()&&": 5493,
      "Ġbl": 5494,
      "345": 5495,
      "Ġaxis": 5496,
      "special": 5497,
      "axios": 5498,
      "scrollLeft": 5499,
      "Ġconvert": 5500,
      "Padding": 5501,
      "cture": 5502,
      "tries": 5503,
      "AIN": 5504,
      "Ġbtn": 5505,
      "notify": 5506,
      "rtl": 5507,
      "tags": 5508,
      "(\"../": 5509,
      ";\"": 5510,
      "Ùī": 5511,
      "Ġresource": 5512,
      "UB": 5513,
      "}},\"": 5514,
      "capt": 5515,
      "126": 5516,
      "YS": 5517,
      "Ui": 5518,
      "Ġclasses": 5519,
      "licable": 5520,
      ".*": 5521,
      "Fr": 5522,
      "olution": 5523,
      "Ma": 5524,
      "SSx": 5525,
      "Ġfloat": 5526,
      "Ġadded": 5527,
      "QUN": 5528,
      "LX": 5529,
      "ĠTHREE": 5530,
      "Null": 5531,
      "Ġduration": 5532,
      "Toggle": 5533,
      "cook": 5534,
      "ĠUser": 5535,
      "Ġtouch": 5536,
      "gments": 5537,
      "popper": 5538,
      "ClientRect": 5539,
      "percent": 5540,
      "156": 5541,
      "Bytes": 5542,
      "free": 5543,
      "Ġlocale": 5544,
      "interval": 5545,
      "getPrototypeOf": 5546,
      "uff": 5547,
      "Fns": 5548,
      "Ġ('": 5549,
      "Sw": 5550,
      "!(": 5551,
      "360": 5552,
      "ĠUp": 5553,
      "lint": 5554,
      "yt": 5555,
      "Output": 5556,
      "irs": 5557,
      "uplic": 5558,
      "redentials": 5559,
      "Ġ31": 5560,
      "AND": 5561,
      "184": 5562,
      "136": 5563,
      "_,": 5564,
      "IAA": 5565,
      "indent": 5566,
      "]));": 5567,
      "lm": 5568,
      "Ġsure": 5569,
      "gexp": 5570,
      "å¯": 5571,
      "\")&&": 5572,
      "BC": 5573,
      "?\\": 5574,
      "167": 5575,
      "Ġsend": 5576,
      "legend": 5577,
      "liance": 5578,
      "ands": 5579,
      "ered": 5580,
      "erson": 5581,
      "Inner": 5582,
      ")}},{": 5583,
      "Ġstroke": 5584,
      "lastIndex": 5585,
      "\":\"\",\"": 5586,
      "clean": 5587,
      "mobile": 5588,
      "hY": 5589,
      "Ġ}],": 5590,
      "Elem": 5591,
      "333": 5592,
      "Ġbetween": 5593,
      "BAA": 5594,
      "seud": 5595,
      ":.": 5596,
      "0275": 5597,
      "quare": 5598,
      "cut": 5599,
      "declare": 5600,
      "emp": 5601,
      "2017": 5602,
      "region": 5603,
      "Ġopacity": 5604,
      "Multi": 5605,
      "flat": 5606,
      "initialize": 5607,
      "rain": 5608,
      "304": 5609,
      "Shadow": 5610,
      "ĠOn": 5611,
      "PER": 5612,
      "isRequired": 5613,
      "Background": 5614,
      ";-": 5615,
      "ä¸Ģ": 5616,
      "]\\": 5617,
      "lug": 5618,
      "created": 5619,
      "/#": 5620,
      "activate": 5621,
      "bootstrap": 5622,
      "isObject": 5623,
      "ĠTest": 5624,
      "Ġmatrix": 5625,
      "999": 5626,
      "Ġrect": 5627,
      "DITION": 5628,
      "å±": 5629,
      "Details": 5630,
      "binding": 5631,
      "Ġ>>": 5632,
      "changed": 5633,
      "Domain": 5634,
      "cg": 5635,
      "alance": 5636,
      "Fz": 5637,
      "IP": 5638,
      "ev": 5639,
      "&#": 5640,
      "aly": 5641,
      "Ġexample": 5642,
      "icy": 5643,
      "Ġencode": 5644,
      "Role": 5645,
      "jected": 5646,
      "zip": 5647,
      "\"]},": 5648,
      "Copy": 5649,
      "propTypes": 5650,
      "defaultValue": 5651,
      "Ġgoog": 5652,
      "-(": 5653,
      "Ġ'</": 5654,
      "XHJ": 5655,
      "],['": 5656,
      "Ġmultiple": 5657,
      "Ft": 5658,
      "+-": 5659,
      "Edge": 5660,
      "nextSibling": 5661,
      "reg": 5662,
      "convert": 5663,
      "outline": 5664,
      "139": 5665,
      "FullYear": 5666,
      "ease": 5667,
      "Ġimplementation": 5668,
      "dm": 5669,
      "190": 5670,
      "140": 5671,
      "ZXR": 5672,
      "hs": 5673,
      "Ġfollowing": 5674,
      "multip": 5675,
      "??": 5676,
      "which": 5677,
      "ulp": 5678,
      "Cannot": 5679,
      "?[": 5680,
      "ni": 5681,
      "']);": 5682,
      "tices": 5683,
      "æī": 5684,
      "CTION": 5685,
      "Ġpassword": 5686,
      "åĩ": 5687,
      "Ġ33": 5688,
      "}});": 5689,
      "ello": 5690,
      "Ctrl": 5691,
      "Mask": 5692,
      "need": 5693,
      "cz": 5694,
      "manager": 5695,
      "Ġapplicable": 5696,
      "listen": 5697,
      "134": 5698,
      "Session": 5699,
      "Ġtimeout": 5700,
      "Ġremoved": 5701,
      "angan": 5702,
      "tf": 5703,
      "ACT": 5704,
      "methods": 5705,
      "amera": 5706,
      "generator": 5707,
      "Opt": 5708,
      "Ġ].": 5709,
      "pad": 5710,
      "ÑģÑĤ": 5711,
      "Actions": 5712,
      "Ġreturned": 5713,
      ">\",": 5714,
      "diff": 5715,
      "charts": 5716,
      "cid": 5717,
      "Language": 5718,
      "Ġ80": 5719,
      "Ġata": 5720,
      "137": 5721,
      "setPrototypeOf": 5722,
      "(?:[": 5723,
      "pause": 5724,
      "384": 5725,
      "Ġbottom": 5726,
      "osition": 5727,
      "199": 5728,
      "Ġrole": 5729,
      "Ġdeclare": 5730,
      "production": 5731,
      "pbm": 5732,
      "Ġsession": 5733,
      "Undefined": 5734,
      "()+": 5735,
      "GG": 5736,
      "Transaction": 5737,
      "protocol": 5738,
      "details": 5739,
      ")===": 5740,
      "unique": 5741,
      "Inst": 5742,
      "2000": 5743,
      "reshold": 5744,
      "Ġport": 5745,
      "Member": 5746,
      "pare": 5747,
      "158": 5748,
      "xa": 5749,
      "gy": 5750,
      "abort": 5751,
      "FBR": 5752,
      "parser": 5753,
      "Weight": 5754,
      "parameters": 5755,
      "Ġimplied": 5756,
      ".');": 5757,
      "Ġfactory": 5758,
      "userAgent": 5759,
      "Ġlayer": 5760,
      "dirname": 5761,
      "cross": 5762,
      "Del": 5763,
      "issue": 5764,
      "resent": 5765,
      "Blur": 5766,
      "MAT": 5767,
      "262": 5768,
      "Ġaddress": 5769,
      "contain": 5770,
      "Ġwhether": 5771,
      "ĀĀĀĀĀĀĀĀĀĀĀĀĀĀĀĀĀĀĀĀĀĀĀĀĀĀĀĀĀĀĀĀ": 5772,
      "Sheet": 5773,
      "Ġ/*#__": 5774,
      "\":\"\\": 5775,
      "ä¹": 5776,
      "ĠMIT": 5777,
      "mock": 5778,
      "ias": 5779,
      "åĨ": 5780,
      "ategy": 5781,
      "alf": 5782,
      "Ġvariable": 5783,
      "=\"\";": 5784,
      "pendency": 5785,
      "\")+\"": 5786,
      "getElementsByTagName": 5787,
      "ĊĉĉĊĉ": 5788,
      "Ġ\"_": 5789,
      "visibility": 5790,
      "ony": 5791,
      "ĊĊĊĠĠĠ": 5792,
      "'].": 5793,
      "Lines": 5794,
      "qt": 5795,
      "Ġextra": 5796,
      "constant": 5797,
      "Ri": 5798,
      "variable": 5799,
      "sibling": 5800,
      "à²": 5801,
      "ctrl": 5802,
      "sted": 5803,
      "pagin": 5804,
      "Ġcompliance": 5805,
      "sheet": 5806,
      "Abstract": 5807,
      "ells": 5808,
      "'re": 5809,
      "pto": 5810,
      ":\"/": 5811,
      "xyXG": 5812,
      "IR": 5813,
      "extra": 5814,
      "ditions": 5815,
      "800": 5816,
      "Ġcomment": 5817,
      "Ġcontains": 5818,
      "Ġ'%": 5819,
      "wp": 5820,
      "Ð¿": 5821,
      "ural": 5822,
      "159": 5823,
      "Ġoff": 5824,
      "speed": 5825,
      "404": 5826,
      "Chunk": 5827,
      "([^": 5828,
      "BQV": 5829,
      "Ġinclude": 5830,
      "connection": 5831,
      "socket": 5832,
      "dddd": 5833,
      "+'\"": 5834,
      "Interface": 5835,
      "Ġvnode": 5836,
      "Opacity": 5837,
      "Ġ'$": 5838,
      "230": 5839,
      "Ġgrid": 5840,
      "kh": 5841,
      "ĊĊĊĊ": 5842,
      "ZGV": 5843,
      "TOOL": 5844,
      "getItem": 5845,
      "-\\\\": 5846,
      "JQUFJ": 5847,
      "168": 5848,
      "home": 5849,
      "131": 5850,
      "Ġcomponents": 5851,
      "Ġpublic": 5852,
      "expr": 5853,
      "Ġ29": 5854,
      "warning": 5855,
      "anti": 5856,
      "strictEqual": 5857,
      "Ġinternal": 5858,
      "=+": 5859,
      "ĠText": 5860,
      "138": 5861,
      "Ġlaw": 5862,
      "enar": 5863,
      "))?": 5864,
      "ĠCom": 5865,
      "\",\"./": 5866,
      "formance": 5867,
      "preview": 5868,
      "Sup": 5869,
      "soft": 5870,
      "DITIONS": 5871,
      "cei": 5872,
      "Ġ34": 5873,
      "************************************************": 5874,
      ":[[": 5875,
      "Bg": 5876,
      "Core": 5877,
      "Ġencoding": 5878,
      "Vertex": 5879,
      "editable": 5880,
      "Exception": 5881,
      "////////////////////////////////": 5882,
      "Ġown": 5883,
      "wheel": 5884,
      "600": 5885,
      "152": 5886,
      "oi": 5887,
      ")]": 5888,
      "Ġinher": 5889,
      "}}},": 5890,
      "ĠBAS": 5891,
      "agin": 5892,
      "plot": 5893,
      "HQUF": 5894,
      "Changes": 5895,
      "Ġsince": 5896,
      "Player": 5897,
      "ìĿ": 5898,
      "Ġph": 5899,
      "Ġpart": 5900,
      "Ċĉĉĉĉĉĉĉĉĉ": 5901,
      "Errors": 5902,
      "'],['": 5903,
      ")):(": 5904,
      "texture": 5905,
      "3232": 5906,
      "hour": 5907,
      "Fs": 5908,
      "Ġotherwise": 5909,
      "Ġ×": 5910,
      "UL": 5911,
      "Ġschema": 5912,
      ")}}),": 5913,
      "memoizedState": 5914,
      "MAX": 5915,
      "Emitter": 5916,
      "parts": 5917,
      "Ġgoverning": 5918,
      "ĠCONDITIONS": 5919,
      "Components": 5920,
      "inal": 5921,
      "txt": 5922,
      "deg": 5923,
      "undle": 5924,
      "ZWN": 5925,
      "Ġlimitations": 5926,
      "curr": 5927,
      "Ġlook": 5928,
      "Ġloading": 5929,
      "THREE": 5930,
      "distance": 5931,
      "Ġmoment": 5932,
      "ĠBASIS": 5933,
      "218": 5934,
      "buttons": 5935,
      "gate": 5936,
      "slides": 5937,
      "Ġca": 5938,
      "optional": 5939,
      "Lib": 5940,
      "ucer": 5941,
      "Rules": 5942,
      "middle": 5943,
      "157": 5944,
      "IDE": 5945,
      "~~": 5946,
      "spe": 5947,
      "Ø©": 5948,
      "layers": 5949,
      "ping": 5950,
      "repos": 5951,
      "asm": 5952,
      "wiki": 5953,
      "Ġ35": 5954,
      "hen": 5955,
      "Ġdirection": 5956,
      "gICAgICAgICAgICAg": 5957,
      "2020": 5958,
      "Reference": 5959,
      "claration": 5960,
      "ĠST": 5961,
      "Has": 5962,
      "ĠUnless": 5963,
      "Computed": 5964,
      "240": 5965,
      "++]=": 5966,
      "rate": 5967,
      "Ġ[[": 5968,
      "Ġbyte": 5969,
      "æĺ¯": 5970,
      "platform": 5971,
      "compute": 5972,
      "248": 5973,
      "Ġcompar": 5974,
      "Ġhe": 5975,
      "pageY": 5976,
      "Anim": 5977,
      "Ġ\"'": 5978,
      "ALL": 5979,
      "tili": 5980,
      "Password": 5981,
      "Ġagreed": 5982,
      "Observable": 5983,
      "tected": 5984,
      "()){": 5985,
      "uan": 5986,
      "132": 5987,
      "Ġ(!(": 5988,
      "Arguments": 5989,
      "Distance": 5990,
      "\"])(": 5991,
      "ysi": 5992,
      "}}}": 5993,
      "å½": 5994,
      "xc": 5995,
      "nvar": 5996,
      "Hide": 5997,
      "PP": 5998,
      "Ġsha": 5999,
      "Ġparsed": 6000,
      "ĠForm": 6001,
      ")&&!": 6002,
      "History": 6003,
      "Ġhide": 6004,
      "145": 6005,
      "Ġmatches": 6006,
      "148": 6007,
      "altern": 6008,
      "Ġpeg": 6009,
      "ĠCSS": 6010,
      "ĠRemove": 6011,
      "Results": 6012,
      "\")[": 6013,
      "bt": 6014,
      "Ġ},\\": 6015,
      "SW": 6016,
      "ä¼": 6017,
      "luZ": 6018,
      "ç½": 6019,
      "XCI": 6020,
      "dGlvb": 6021,
      "accept": 6022,
      "Fk": 6023,
      "ToString": 6024,
      "scrollbar": 6025,
      "Write": 6026,
      "InProgress": 6027,
      "Ġwhite": 6028,
      "Ġseries": 6029,
      "DATA": 6030,
      "sqrt": 6031,
      "bra": 6032,
      "Ġour": 6033,
      "irror": 6034,
      "Ġ67": 6035,
      "under": 6036,
      "\"),\"": 6037,
      "MB": 6038,
      "easing": 6039,
      "Ġextend": 6040,
      "live": 6041,
      "illiseconds": 6042,
      "Dropdown": 6043,
      "æĿ": 6044,
      "Qt": 6045,
      "sWith": 6046,
      "à¸²": 6047,
      "Go": 6048,
      "describe": 6049,
      "Î±": 6050,
      "bad": 6051,
      "Ġcoun": 6052,
      "sen": 6053,
      "Ġ*/\\": 6054,
      "Ġplayer": 6055,
      ")},_": 6056,
      "Email": 6057,
      "stat": 6058,
      ")==": 6059,
      "bove": 6060,
      "Ġonce": 6061,
      "Ce": 6062,
      "ffffffff": 6063,
      "ĠHH": 6064,
      "ids": 6065,
      "za": 6066,
      "pageX": 6067,
      "exit": 6068,
      "Ġthrough": 6069,
      "Ġcomplete": 6070,
      "(\",\"": 6071,
      "Ġdevice": 6072,
      "gICAgICAg": 6073,
      "Observer": 6074,
      "å¹": 6075,
      "Ġsolid": 6076,
      "IZE": 6077,
      "cbiAgICB": 6078,
      "sel": 6079,
      "Ġinvoke": 6080,
      "Proxy": 6081,
      ">\"": 6082,
      "tice": 6083,
      "){(": 6084,
      "Ġexisting": 6085,
      "Overlay": 6086,
      "Ġlayout": 6087,
      "(\"[": 6088,
      "cer": 6089,
      "single": 6090,
      "Ġ'');": 6091,
      "Ġrgba": 6092,
      "Ġsum": 6093,
      "Ġ);\\": 6094,
      "engine": 6095,
      ")]),": 6096,
      "invoke": 6097,
      "navbar": 6098,
      "Capture": 6099,
      "=\\'": 6100,
      "BY": 6101,
      "Ġconfiguration": 6102,
      "capture": 6103,
      "Ġroute": 6104,
      "oogle": 6105,
      "Ġkarena": 6106,
      "Ġayat": 6107,
      "Ġ')": 6108,
      "serve": 6109,
      "]||(": 6110,
      "dn": 6111,
      "Ġrights": 6112,
      "contents": 6113,
      "unted": 6114,
      "quot": 6115,
      "mousedown": 6116,
      "Ġë": 6117,
      "Ġregex": 6118,
      "ä¸Ń": 6119,
      "\"/": 6120,
      "176": 6121,
      "194": 6122,
      "Ġconnection": 6123,
      "AnimationFrame": 6124,
      "Hover": 6125,
      "Ġdetails": 6126,
      "like": 6127,
      "ategories": 6128,
      "Ġvisible": 6129,
      "Ġtranslate": 6130,
      "ĊĠĠĠĠĠĠĠĠĊĠĠĠĠĠĠĠ": 6131,
      "lations": 6132,
      "ĠBoolean": 6133,
      "Labels": 6134,
      "ket": 6135,
      "Ġ39": 6136,
      "])},": 6137,
      "ztBQU": 6138,
      "âķ": 6139,
      "front": 6140,
      "Ġbeing": 6141,
      "185": 6142,
      "messages": 6143,
      "aaaa": 6144,
      "!*\\": 6145,
      "Ġinner": 6146,
      "Parameter": 6147,
      "')).": 6148,
      "Anchor": 6149,
      "valueOf": 6150,
      "tivity": 6151,
      "__=": 6152,
      "abc": 6153,
      "vY": 6154,
      "EA": 6155,
      "iteral": 6156,
      "ZXh": 6157,
      "à¶": 6158,
      "labels": 6159,
      "hoto": 6160,
      "Dash": 6161,
      "Definition": 6162,
      "XF": 6163,
      "Ġtoggle": 6164,
      "Ġowner": 6165,
      "206": 6166,
      "Bind": 6167,
      "ĠInc": 6168,
      "tokens": 6169,
      "docClass": 6170,
      "Ġgame": 6171,
      "374": 6172,
      "Ġbased": 6173,
      "DateTime": 6174,
      "2015": 6175,
      "/@": 6176,
      "\",\"$": 6177,
      "Ġpi": 6178,
      "Star": 6179,
      "TIP": 6180,
      "YWx": 6181,
      "Note": 6182,
      "sr": 6183,
      "getBounding": 6184,
      "Immediate": 6185,
      "globals": 6186,
      "Ġagain": 6187,
      "Ġscreen": 6188,
      ">';": 6189,
      "confirm": 6190,
      "?-": 6191,
      "oth": 6192,
      "Ġchanged": 6193,
      "internals": 6194,
      "143": 6195,
      "Section": 6196,
      "Ġstar": 6197,
      "Ġ{...": 6198,
      "Hg": 6199,
      "inherit": 6200,
      "backgroundColor": 6201,
      "Ġ512": 6202,
      "133": 6203,
      "listeners": 6204,
      "hip": 6205,
      "Ġchanges": 6206,
      "compile": 6207,
      "Ġgenerate": 6208,
      "Ġspecial": 6209,
      "149": 6210,
      "Ġgr": 6211,
      "Ġwithin": 6212,
      "Product": 6213,
      "jt": 6214,
      "208": 6215,
      "Modules": 6216,
      "Cla": 6217,
      "Vue": 6218,
      "Ġcursor": 6219,
      "ram": 6220,
      "moji": 6221,
      "ä»¶": 6222,
      "228": 6223,
      "163": 6224,
      "cmd": 6225,
      "tio": 6226,
      "note": 6227,
      "---": 6228,
      "Insert": 6229,
      "\\\",\\": 6230,
      "Fiber": 6231,
      "Leave": 6232,
      "327": 6233,
      "Ġparam": 6234,
      "illa": 6235,
      "Ġeffect": 6236,
      "inherits": 6237,
      "=\"+": 6238,
      "Ġ!(": 6239,
      "stor": 6240,
      "evt": 6241,
      "Ġloaded": 6242,
      "Ġdirectory": 6243,
      "Ter": 6244,
      "../../../": 6245,
      "cally": 6246,
      "routes": 6247,
      "Ð°Ð½": 6248,
      "ĠSh": 6249,
      "PRE": 6250,
      "çĽ": 6251,
      ">.": 6252,
      "ĠÃ": 6253,
      "cbiAgICAgICAg": 6254,
      "pathname": 6255,
      "=\\\"#!/": 6256,
      "fg": 6257,
      "Ġobser": 6258,
      "finity": 6259,
      "Ġgraph": 6260,
      "report": 6261,
      "iteratee": 6262,
      "Ġdiff": 6263,
      "Reader": 6264,
      "stable": 6265,
      "ĠCK": 6266,
      "LIST": 6267,
      "Defaults": 6268,
      "kge": 6269,
      "Ġhidden": 6270,
      "bnR": 6271,
      "ĊĠĠĠĠĠĠĠĠĠĠĠĠĠĠ": 6272,
      "ĊĊĉĉĉĉĉ": 6273,
      "234": 6274,
      "Ġrows": 6275,
      "room": 6276,
      "ceived": 6277,
      "ĊĠĠĠĠĠĠĠĠĠĠĠĠĠĠĠĠĠĠĠĠĠĠĠĠĠĠĠĠĠ": 6278,
      "rotation": 6279,
      "Jt": 6280,
      "áº": 6281,
      "detach": 6282,
      "green": 6283,
      "release": 6284,
      "Ġside": 6285,
      "caption": 6286,
      "INT": 6287,
      "PC": 6288,
      "Ġattach": 6289,
      "mV": 6290,
      "ĠstaticClass": 6291,
      "EL": 6292,
      "ification": 6293,
      "Sel": 6294,
      "0000000000000000": 6295,
      "é¡": 6296,
      "Ġ}]": 6297,
      "Ġlang": 6298,
      "Zh": 6299,
      "\"\\": 6300,
      "Ġbytes": 6301,
      "unused": 6302,
      "integer": 6303,
      "Shader": 6304,
      "à·": 6305,
      "\\\\\\\"": 6306,
      "è¾": 6307,
      "Ġcharacter": 6308,
      "Byte": 6309,
      "Ġparts": 6310,
      "bot": 6311,
      "itude": 6312,
      "URI": 6313,
      "]=!": 6314,
      "bre": 6315,
      "Ġjo": 6316,
      "ĠonChange": 6317,
      "listener": 6318,
      "Ġaccept": 6319,
      "Operation": 6320,
      ".\"": 6321,
      "æľĪ": 6322,
      "Ġcannot": 6323,
      "('[": 6324,
      "Ut": 6325,
      "uate": 6326,
      "have": 6327,
      "_\\": 6328,
      "cheduler": 6329,
      "Directive": 6330,
      "phone": 6331,
      "orph": 6332,
      "Br": 6333,
      "MI": 6334,
      "Constants": 6335,
      "Ġoptional": 6336,
      "alled": 6337,
      "Ġnamespace": 6338,
      "Ġnormalize": 6339,
      "summary": 6340,
      "ubble": 6341,
      "Ġcompare": 6342,
      "Av": 6343,
      "154": 6344,
      "]},{": 6345,
      "Ġgu": 6346,
      "orient": 6347,
      "Alpha": 6348,
      "254": 6349,
      "()?": 6350,
      "296": 6351,
      "qr": 6352,
      "LEVBQUUs": 6353,
      "ZU": 6354,
      "AAU": 6355,
      "\"};": 6356,
      "viewport": 6357,
      "Ġmenj": 6358,
      "ĠMo": 6359,
      "12121212": 6360,
      "RUFBRSx": 6361,
      "curity": 6362,
      "cN": 6363,
      "Offense": 6364,
      "crement": 6365,
      "=\"/": 6366,
      "(?:\\": 6367,
      "LElBQUks": 6368,
      "142": 6369,
      "\":-": 6370,
      "cumul": 6371,
      "Ġ\"__": 6372,
      "maps": 6373,
      "expanded": 6374,
      "165": 6375,
      "factory": 6376,
      "maining": 6377,
      "coordinates": 6378,
      "Sha": 6379,
      "ird": 6380,
      "dian": 6381,
      "Ġupdated": 6382,
      "Hidden": 6383,
      "OC": 6384,
      "179": 6385,
      "Ġsebag": 6386,
      "Ġvideo": 6387,
      "\",\"\",\"": 6388,
      "SUFBSSx": 6389,
      "Ġ'+": 6390,
      "Jv": 6391,
      "Statement": 6392,
      "LED": 6393,
      "filters": 6394,
      "You": 6395,
      "ons": 6396,
      "PH": 6397,
      "169": 6398,
      "Strict": 6399,
      "Qyx": 6400,
      "Ġmx": 6401,
      "Ġ///": 6402,
      "146": 6403,
      "364": 6404,
      "come": 6405,
      "IHN": 6406,
      "170": 6407,
      "restore": 6408,
      "Binary": 6409,
      "keyword": 6410,
      "205": 6411,
      "SER": 6412,
      "Objects": 6413,
      "Ġdefaults": 6414,
      "getOwnPropertyDescriptor": 6415,
      "Checked": 6416,
      "BD": 6417,
      "filename": 6418,
      "gend": 6419,
      "Ġchannel": 6420,
      "uring": 6421,
      "ĠRef": 6422,
      "ĠDataTable": 6423,
      "execute": 6424,
      "gc": 6425,
      "'<": 6426,
      "Ġemit": 6427,
      "removeAttribute": 6428,
      "edge": 6429,
      "score": 6430,
      "lk": 6431,
      "EX": 6432,
      "177": 6433,
      "Prevent": 6434,
      "Margin": 6435,
      "aik": 6436,
      "--;": 6437,
      "Ġpush": 6438,
      "ferent": 6439,
      "models": 6440,
      "dmF": 6441,
      "204": 6442,
      "RC": 6443,
      "éĻ": 6444,
      ");}": 6445,
      "))&&": 6446,
      "Ng": 6447,
      "235": 6448,
      "zA": 6449,
      "ĠØ¨": 6450,
      "Exec": 6451,
      "Ġ17590": 6452,
      "trie": 6453,
      "Ġexists": 6454,
      "ressed": 6455,
      "Ġ38": 6456,
      "ĠList": 6457,
      "fontSize": 6458,
      "Ġloop": 6459,
      "oci": 6460,
      "Ry": 6461,
      "Ġtheir": 6462,
      "ĠUsed": 6463,
      "Press": 6464,
      "spect": 6465,
      "shared": 6466,
      "Non": 6467,
      "(){},": 6468,
      "Ġ37": 6469,
      "Ġtake": 6470,
      "ĠÑģ": 6471,
      "atu": 6472,
      "feature": 6473,
      "Ġmemb": 6474,
      "offsetWidth": 6475,
      "Runtime": 6476,
      ")}))}": 6477,
      "Ġcommon": 6478,
      "Game": 6479,
      "Îµ": 6480,
      "Ġenabled": 6481,
      "Hex": 6482,
      ")=>{": 6483,
      "QL": 6484,
      "Qo": 6485,
      "VALUE": 6486,
      "Ġ```": 6487,
      "Project": 6488,
      "Ä±": 6489,
      "Ġauth": 6490,
      "Nr": 6491,
      "Snapshot": 6492,
      "Ġauthor": 6493,
      "ado": 6494,
      "........": 6495,
      "ä¿": 6496,
      "Ġcancel": 6497,
      "AO": 6498,
      "isS": 6499,
      ".\"+": 6500,
      "Ġcolumns": 6501,
      "ln": 6502,
      "ordinate": 6503,
      "COL": 6504,
      "Common": 6505,
      "207": 6506,
      "?{": 6507,
      ">,": 6508,
      "ula": 6509,
      "Ġsin": 6510,
      "ĠExp": 6511,
      "Delta": 6512,
      "166": 6513,
      "Î¿": 6514,
      "sidebar": 6515,
      "repo": 6516,
      "ĠĀ": 6517,
      "DEFAULT": 6518,
      "izes": 6519,
      "CharCode": 6520,
      "LENBQUM": 6521,
      "DC": 6522,
      "RenderFns": 6523,
      "guid": 6524,
      "Static": 6525,
      "202": 6526,
      "Ġinsert": 6527,
      "master": 6528,
      "multiply": 6529,
      "),{": 6530,
      "cluded": 6531,
      "danger": 6532,
      "900": 6533,
      "KF": 6534,
      "pple": 6535,
      "}\"": 6536,
      "quote": 6537,
      "Audio": 6538,
      "PAT": 6539,
      "201": 6540,
      "xf": 6541,
      "lazy": 6542,
      "æŃ": 6543,
      "*=": 6544,
      "[(": 6545,
      "NU": 6546,
      "cookie": 6547,
      "ĠAuthor": 6548,
      "Exports": 6549,
      "wc": 6550,
      "Ġcomputed": 6551,
      "pin": 6552,
      "directives": 6553,
      "ØŃ": 6554,
      ";(": 6555,
      "227": 6556,
      "164": 6557,
      "Ġpointer": 6558,
      "Entity": 6559,
      "Amount": 6560,
      "ĊĊĠĠĠĠĠĠĠĠĠĠĠĠĠĠĠĠĠĠĠĠĠĠĠ": 6561,
      "Mon": 6562,
      "\"]);": 6563,
      "Ġadditional": 6564,
      "æį": 6565,
      "termine": 6566,
      "Ġoc": 6567,
      "frames": 6568,
      "ifest": 6569,
      "PropTypes": 6570,
      "[$": 6571,
      "Depth": 6572,
      "Ġxhr": 6573,
      "Ny": 6574,
      "Ġ{});": 6575,
      "Ġbuf": 6576,
      "lin": 6577,
      "BJ": 6578,
      "ilt": 6579,
      "178": 6580,
      "sitive": 6581,
      "esh": 6582,
      "Ġtokens": 6583,
      "Ġskip": 6584,
      "`)": 6585,
      ";</": 6586,
      "ĠAt": 6587,
      "Ġdelay": 6588,
      ">}": 6589,
      "hpcy": 6590,
      "Ġevery": 6591,
      "667": 6592,
      "æŀ": 6593,
      "||{},": 6594,
      "bed": 6595,
      "kb": 6596,
      "Ã¼": 6597,
      "188": 6598,
      "ĠĠĠĠĠĠĠĠĠĠĠĠĠĠĠĠĠĠĠĠĠĠĠĠĠĠĠĠĠĠĠ": 6599,
      "ĊĠĠĠĠĠĠĠĠĠĠĠĠĠĠĠĠĠĠĠĠ": 6600,
      "ves": 6601,
      "ints": 6602,
      "Ġlong": 6603,
      "Ġmd": 6604,
      "Fj": 6605,
      "getData": 6606,
      "carousel": 6607,
      "orting": 6608,
      "Ġ\"../": 6609,
      "mpt": 6610,
      "=_.": 6611,
      "Merge": 6612,
      "Main": 6613,
      "Ġconnect": 6614,
      "rel": 6615,
      "Ġ../": 6616,
      "********************************************************************************************************************************": 6617,
      "ĠDo": 6618,
      "TW": 6619,
      ".\";": 6620,
      "Ġabout": 6621,
      "Namespace": 6622,
      "232": 6623,
      "ĠJS": 6624,
      "cha": 6625,
      "Ġarrays": 6626,
      "Generator": 6627,
      "getBoundingClientRect": 6628,
      "linear": 6629,
      "nc": 6630,
      "Trigger": 6631,
      "avaScript": 6632,
      "Ġplay": 6633,
      "Debug": 6634,
      "Ġkamu": 6635,
      "()[": 6636,
      "Ġparser": 6637,
      "239": 6638,
      "kk": 6639,
      "FA": 6640,
      "429": 6641,
      "ĠLe": 6642,
      "Ġint": 6643,
      "Ġamount": 6644,
      "226": 6645,
      "Deep": 6646,
      "Profile": 6647,
      ";&": 6648,
      "Ji": 6649,
      "209": 6650,
      "238": 6651,
      "())},": 6652,
      "eslint": 6653,
      "ĠGener": 6654,
      "',\\": 6655,
      "Ġspan": 6656,
      "()}),": 6657,
      "!=(": 6658,
      "Io": 6659,
      "UV": 6660,
      "Horizontal": 6661,
      "ecma": 6662,
      "Uu": 6663,
      "Rate": 6664,
      "moveTo": 6665,
      "Ġcached": 6666,
      "ANS": 6667,
      "Ġshape": 6668,
      "Ġge": 6669,
      "aving": 6670,
      "ĠExt": 6671,
      "Ġmedia": 6672,
      "hooks": 6673,
      "price": 6674,
      "PUT": 6675,
      ":/\\": 6676,
      "lc": 6677,
      "STATE": 6678,
      "ĠÐ¿": 6679,
      "tri": 6680,
      "Ġ\"@": 6681,
      "æĶ": 6682,
      "KH": 6683,
      "rr": 6684,
      "dArray": 6685,
      "Ġdim": 6686,
      "Ġchain": 6687,
      "groups": 6688,
      "resiz": 6689,
      "ami": 6690,
      "pixel": 6691,
      "ĊĉĠĠĠĠĠĠĠĠĠ": 6692,
      "288": 6693,
      "Ġ\")": 6694,
      "}))}": 6695,
      "ric": 6696,
      "ĠVue": 6697,
      "Nh": 6698,
      "identity": 6699,
      "NG": 6700,
      "pagination": 6701,
      "times": 6702,
      "Tri": 6703,
      "oid": 6704,
      "ngine": 6705,
      "Ġoperation": 6706,
      "233": 6707,
      "CHAN": 6708,
      "Pool": 6709,
      "Ġ->": 6710,
      "[]+": 6711,
      "cke": 6712,
      "inputs": 6713,
      "Ġinside": 6714,
      "Ġdid": 6715,
      "196": 6716,
      "ABQ": 6717,
      "æ²": 6718,
      "æ³": 6719,
      "cfg": 6720,
      "\")&&(": 6721,
      "bab": 6722,
      "Ni": 6723,
      "pull": 6724,
      "Ġprevent": 6725,
      "amount": 6726,
      ")$/": 6727,
      "Ġ97": 6728,
      "155": 6729,
      "Ġregister": 6730,
      ".'": 6731,
      "Zp": 6732,
      "zIndex": 6733,
      "uth": 6734,
      "Ġba": 6735,
      "Eg": 6736,
      "when": 6737,
      "offsetHeight": 6738,
      "Qn": 6739,
      "()-": 6740,
      "Ġalways": 6741,
      "Ġrs": 6742,
      "zh": 6743,
      "Ñĸ": 6744,
      "Family": 6745,
      "Ġabove": 6746,
      "\\\\\\\\": 6747,
      "dataset": 6748,
      "forms": 6749,
      "Ġwidget": 6750,
      "Clone": 6751,
      ":\"+": 6752,
      "&&(\"": 6753,
      "203": 6754,
      "'])": 6755,
      "Handlers": 6756,
      "Ø¬": 6757,
      "=!!": 6758,
      "175": 6759,
      "usia": 6760,
      "onMouse": 6761,
      "Expr": 6762,
      "dispose": 6763,
      "noop": 6764,
      "ĠSupport": 6765,
      "))&&(": 6766,
      "\"[": 6767,
      "demo": 6768,
      "]];": 6769,
      "174": 6770,
      "arm": 6771,
      "373": 6772,
      "Ġbinding": 6773,
      "Expected": 6774,
      "Ġalert": 6775,
      "KS": 6776,
      "2016": 6777,
      "×Ļ": 6778,
      "Ġdest": 6779,
      "scene": 6780,
      "ĠCartesian": 6781,
      "__);": 6782,
      "ĠTime": 6783,
      "ĊĉĠĠĠĠĠĠĠĠĠĠĠĠĠĠĠ": 6784,
      "contact": 6785,
      "Diff": 6786,
      "rol": 6787,
      "Ġcharacters": 6788,
      "198": 6789,
      "country": 6790,
      "225": 6791,
      "à§": 6792,
      "Ġdirect": 6793,
      "gICAgICAgICAg": 6794,
      "secondary": 6795,
      "ĠAc": 6796,
      "191": 6797,
      "ĊĊĊĠ": 6798,
      "SO": 6799,
      "Ġ41": 6800,
      "ĠEXP": 6801,
      "dH": 6802,
      "Highlight": 6803,
      "FLAG": 6804,
      "æİ": 6805,
      "tu": 6806,
      "Ġunit": 6807,
      "LEdBQU": 6808,
      "black": 6809,
      "TOOLTIP": 6810,
      "()||": 6811,
      "ixin": 6812,
      "189": 6813,
      "utter": 6814,
      "ĠIs": 6815,
      "])[": 6816,
      "annya": 6817,
      "Ġrouter": 6818,
      "Ġmer": 6819,
      "MAP": 6820,
      "scoped": 6821,
      "141": 6822,
      "}))": 6823,
      "network": 6824,
      "Speed": 6825,
      "icrosoft": 6826,
      "amel": 6827,
      "Region": 6828,
      "Callbacks": 6829,
      "MIN": 6830,
      "Ġavoid": 6831,
      "(_.": 6832,
      "'],['../": 6833,
      "river": 6834,
      "Vnode": 6835,
      "ov": 6836,
      "hook": 6837,
      "Cb": 6838,
      "Ġforce": 6839,
      "gray": 6840,
      "Ah": 6841,
      "Ġfree": 6842,
      "ĊĠĠĠĠĠĠĠĠĠĠĠĠĠĠĠĠĠĠĠĠĠĠĠĠĠĠĠĠĠĠĠĠĠĠĠĠĠĠĠĠĠĠĠĠĠĠĠĠĠĠĠĠĠĠĠĠĠĠĠĠĠĠĠĠ": 6843,
      "lette": 6844,
      "/${": 6845,
      "1000": 6846,
      "locity": 6847,
      "Ø´": 6848,
      "Factor": 6849,
      "chat": 6850,
      "irc": 6851,
      "(\":": 6852,
      "dk": 6853,
      "gp": 6854,
      "Segment": 6855,
      "sQ": 6856,
      "uA": 6857,
      "reply": 6858,
      "Category": 6859,
      "Ġfailed": 6860,
      "Ġdes": 6861,
      "ĠNabi": 6862,
      "\")){": 6863,
      "Iy": 6864,
      "Ġreserved": 6865,
      "Ġà¤": 6866,
      "éĹ": 6867,
      "heading": 6868,
      "eries": 6869,
      "Pt": 6870,
      "polate": 6871,
      "maW": 6872,
      "308": 6873,
      "simp": 6874,
      "Ġpada": 6875,
      "lainObject": 6876,
      "Called": 6877,
      "Src": 6878,
      "Word": 6879,
      "Ġalt": 6880,
      "Mock": 6881,
      "constants": 6882,
      "Ġpan": 6883,
      "236": 6884,
      "vation": 6885,
      "family": 6886,
      "dirty": 6887,
      "Found": 6888,
      "World": 6889,
      "ccl": 6890,
      "forward": 6891,
      "lision": 6892,
      "ops": 6893,
      "Raw": 6894,
      "ĠparseFloat": 6895,
      "Ġtags": 6896,
      "Break": 6897,
      "Ġidx": 6898,
      "EVENT": 6899,
      "external": 6900,
      "unded": 6901,
      "ĠĠĠĠĠĠĠĠĠĠĠĠĠĠ": 6902,
      "languages": 6903,
      "bytes": 6904,
      "å¾": 6905,
      "fox": 6906,
      "Ġaria": 6907,
      "245": 6908,
      "Ġ128": 6909,
      "Validation": 6910,
      "ä¸į": 6911,
      "White": 6912,
      "answ": 6913,
      "hdG": 6914,
      "fy": 6915,
      "Ġwait": 6916,
      "pick": 6917,
      "tap": 6918,
      "Ai": 6919,
      "lips": 6920,
      ":\"\\\\": 6921,
      "velop": 6922,
      "(...": 6923,
      ".$.": 6924,
      "Svg": 6925,
      "prite": 6926,
      "LQUF": 6927,
      "Deferred": 6928,
      "logger": 6929,
      ")/,": 6930,
      "but": 6931,
      "ones": 6932,
      "Dt": 6933,
      "Socket": 6934,
      "()};": 6935,
      "Ġutil": 6936,
      "ä¸ª": 6937,
      "gui": 6938,
      "************": 6939,
      "FAI": 6940,
      "serted": 6941,
      "Ġdapat": 6942,
      "ZT": 6943,
      "Ġorigin": 6944,
      "Ġtooltip": 6945,
      "Aq": 6946,
      "Ġdelta": 6947,
      "Ġapplication": 6948,
      "system": 6949,
      "SY": 6950,
      "ç§": 6951,
      "quo": 6952,
      "çī": 6953,
      "229": 6954,
      "Ġproduct": 6955,
      "ELEMENT": 6956,
      "embed": 6957,
      "Ġpoly": 6958,
      "nel": 6959,
      "bounds": 6960,
      "187": 6961,
      "partial": 6962,
      "dest": 6963,
      "aGl": 6964,
      "currentTarget": 6965,
      "DATE": 6966,
      "lng": 6967,
      "Mar": 6968,
      "lane": 6969,
      "+\"-": 6970,
      "Ġeval": 6971,
      "popover": 6972,
      "gIH": 6973,
      "mac": 6974,
      "Zv": 6975,
      "Ij": 6976,
      "Ġada": 6977,
      "aka": 6978,
      "\")).": 6979,
      "componentWill": 6980,
      "calc": 6981,
      "Super": 6982,
      "Fail": 6983,
      "asa": 6984,
      "ĠĠĠĠĠĠĠĠĠĠĠĠĠĠĠĠĠĠĠĠĠ": 6985,
      "Ġbool": 6986,
      "CF": 6987,
      "endor": 6988,
      "Ġclean": 6989,
      "cmF": 6990,
      "wB": 6991,
      "Ġhooks": 6992,
      "ĠÙĦ": 6993,
      "cached": 6994,
      "Qi": 6995,
      "Extension": 6996,
      "Price": 6997,
      "oned": 6998,
      "spacing": 6999,
      "Sm": 7000,
      "448": 7001,
      "anner": 7002,
      "ĠNote": 7003,
      "^^^^": 7004,
      "$(\"#": 7005,
      "Ġdifferent": 7006,
      "Ll": 7007,
      "ĠLICENSE": 7008,
      "Yy": 7009,
      "Warning": 7010,
      "XV": 7011,
      "hy": 7012,
      "handlers": 7013,
      "narrow": 7014,
      "Colors": 7015,
      "Img": 7016,
      "rd": 7017,
      "062": 7018,
      ",-.": 7019,
      "final": 7020,
      "Ki": 7021,
      "([\\": 7022,
      "verted": 7023,
      "ddd": 7024,
      "calculate": 7025,
      "commit": 7026,
      "ĊĊĉĠ": 7027,
      "mati": 7028,
      "Ġ{{": 7029,
      "agraph": 7030,
      "350": 7031,
      "ĠFire": 7032,
      "Ġword": 7033,
      "nn": 7034,
      "QUFB": 7035,
      "Prevented": 7036,
      "ju": 7037,
      "dep": 7038,
      "222": 7039,
      "QW": 7040,
      "Ġmanusia": 7041,
      "ned": 7042,
      "adio": 7043,
      "_\"+": 7044,
      "UD": 7045,
      "Users": 7046,
      "è§": 7047,
      "ARRAY": 7048,
      "SIZE": 7049,
      "ĊĠĠĠĠĠĠĠĠĠĠĠĠĠĠĠĠĠĠĠĠĠĠĠĠĠĠĠĠĠĠĠĠĠĠĠĠĠĠĠĠĠĠĠĠĠĠĠ": 7050,
      "cheme": 7051,
      "à¤¾": 7052,
      "[\"\\": 7053,
      "ished": 7054,
      "utor": 7055,
      "èĩ": 7056,
      "]',": 7057,
      "encoding": 7058,
      "Ġneeded": 7059,
      "eX": 7060,
      "hot": 7061,
      "\")+": 7062,
      "YXRl": 7063,
      "'}": 7064,
      "}();": 7065,
      "Ġpixel": 7066,
      "Ġmetadata": 7067,
      "Ġdialog": 7068,
      "vars": 7069,
      "Ġmeny": 7070,
      "âµ": 7071,
      "627": 7072,
      "alternate": 7073,
      "AAQ": 7074,
      "cx": 7075,
      "Ġanim": 7076,
      "Seconds": 7077,
      "Layers": 7078,
      "Mt": 7079,
      "MappingURL": 7080,
      "yxDQUFD": 7081,
      "Have": 7082,
      "Ġfi": 7083,
      "validator": 7084,
      "Ġactions": 7085,
      "Hours": 7086,
      "]}}": 7087,
      "ĠWhen": 7088,
      "atsby": 7089,
      "Assign": 7090,
      "gor": 7091,
      "Variable": 7092,
      "memberof": 7093,
      "ĠBase": 7094,
      "Ġtransaction": 7095,
      "cessed": 7096,
      "246": 7097,
      "navigation": 7098,
      "Ġsel": 7099,
      "Ġusers": 7100,
      "æĸĩ": 7101,
      "\"});": 7102,
      "Ġreg": 7103,
      "306": 7104,
      "decorate": 7105,
      "aries": 7106,
      "Ġtick": 7107,
      "aran": 7108,
      "provider": 7109,
      "nfunction": 7110,
      "ĠUpdate": 7111,
      "ĠisArray": 7112,
      "redirect": 7113,
      "Ġhook": 7114,
      "AAg": 7115,
      "Ġts": 7116,
      "ĠAd": 7117,
      "Login": 7118,
      "æĢ": 7119,
      "à¤°": 7120,
      "Ġflag": 7121,
      "Ġ\\'": 7122,
      "700": 7123,
      "readyState": 7124,
      "Failed": 7125,
      "npm": 7126,
      "Switch": 7127,
      "186": 7128,
      "cision": 7129,
      "hes": 7130,
      "ĠCKEDITOR": 7131,
      "Ġnavig": 7132,
      "luster": 7133,
      "sy": 7134,
      "Dat": 7135,
      "Ġbag": 7136,
      "}):": 7137,
      "Ġshort": 7138,
      "252": 7139,
      "Lock": 7140,
      "æĭ": 7141,
      "Ġdirective": 7142,
      "hn": 7143,
      "cbiAgICAgICAgICAgICAg": 7144,
      "DT": 7145,
      "bold": 7146,
      "Ġsetup": 7147,
      "153": 7148,
      "kr": 7149,
      "ĠsourceMappingURL": 7150,
      "Sum": 7151,
      "Ġdestroy": 7152,
      "fromCharCode": 7153,
      "Ġgen": 7154,
      "åĢ": 7155,
      "ĠTrans": 7156,
      "Ġway": 7157,
      "à¸²à¸": 7158,
      "Ġdistance": 7159,
      "dojo": 7160,
      "Ġchecked": 7161,
      "Send": 7162,
      "closed": 7163,
      "ĠĊĠĠĠĠĠĠĠ": 7164,
      "Ġrule": 7165,
      "Ġmock": 7166,
      "hd": 7167,
      "291": 7168,
      "Pay": 7169,
      "fun": 7170,
      "PR": 7171,
      "NA": 7172,
      "Ġpackage": 7173,
      "uplicate": 7174,
      "setValue": 7175,
      "Footer": 7176,
      "ism": 7177,
      "undo": 7178,
      "umbn": 7179,
      "Ġlower": 7180,
      "ĠBlock": 7181,
      "dGF": 7182,
      "Ð¾Ð²": 7183,
      "ECT": 7184,
      "Groups": 7185,
      "parents": 7186,
      "Ġregis": 7187,
      "cting": 7188,
      "calar": 7189,
      "Ġlines": 7190,
      "--;)": 7191,
      "Cartesian": 7192,
      "Toolbar": 7193,
      "unbind": 7194,
      "Ġexist": 7195,
      "CAC": 7196,
      "}(),": 7197,
      "schedule": 7198,
      "MMMM": 7199,
      ":\"_": 7200,
      "âĢĻ": 7201,
      "2018": 7202,
      "loating": 7203,
      "307": 7204,
      "Ġlisteners": 7205,
      "question": 7206,
      ":\",": 7207,
      "\">\\": 7208,
      "Cor": 7209,
      "æ±": 7210,
      "Ġhow": 7211,
      ")];": 7212,
      "Ġprogress": 7213,
      "bk": 7214,
      "ases": 7215,
      "peri": 7216,
      "Zt": 7217,
      "Ġinteger": 7218,
      "umbnail": 7219,
      "GAA": 7220,
      "åī": 7221,
      "KV": 7222,
      "Ġthese": 7223,
      "LOAD": 7224,
      "Ġlogger": 7225,
      "Ġsetting": 7226,
      "download": 7227,
      "ĠUI": 7228,
      "Uo": 7229,
      "237": 7230,
      "Ġmaterial": 7231,
      "fab": 7232,
      "Mesh": 7233,
      "Face": 7234,
      "Ġpaths": 7235,
      "removeAttr": 7236,
      "Ġenable": 7237,
      "hat": 7238,
      "Ġmodules": 7239,
      "FBS": 7240,
      "Ġ96": 7241,
      "Part": 7242,
      "sample": 7243,
      "2019": 7244,
      "Opts": 7245,
      "toFixed": 7246,
      "effectTag": 7247,
      "ä¸Ĭ": 7248,
      "Ty": 7249,
      "Lat": 7250,
      "Ġ256": 7251,
      "Err": 7252,
      "ather": 7253,
      "IX": 7254,
      "del": 7255,
      "Ġmemp": 7256,
      "ents": 7257,
      "Ġfinal": 7258,
      "Ø§ÙĨ": 7259,
      "lineTo": 7260,
      "DER": 7261,
      "flag": 7262,
      "Contents": 7263,
      "Fo": 7264,
      "currency": 7265,
      "prepend": 7266,
      "===!": 7267,
      "onload": 7268,
      "lize": 7269,
      "transparent": 7270,
      "Ġ$$": 7271,
      "æĹ¶": 7272,
      "found": 7273,
      "take": 7274,
      "\"]},\"": 7275,
      "timestamp": 7276,
      "loaders": 7277,
      "zier": 7278,
      "216": 7279,
      "Ġhex": 7280,
      "ticky": 7281,
      "ĠBe": 7282,
      "Ġwould": 7283,
      "sect": 7284,
      "ubb": 7285,
      "ĠÙģ": 7286,
      "logo": 7287,
      "effects": 7288,
      "Constra": 7289,
      "DR": 7290,
      ">-": 7291,
      "Zero": 7292,
      "Ġprivate": 7293,
      "Ġ500": 7294,
      "Ġinline": 7295,
      "(`${": 7296,
      "Ø°": 7297,
      "Ġmodal": 7298,
      "Vertical": 7299,
      "Ġsplit": 7300,
      "/(": 7301,
      "\"&&": 7302,
      "ĠSer": 7303,
      "Flag": 7304,
      "173": 7305,
      "ceiver": 7306,
      "197": 7307,
      "modifiers": 7308,
      "Ġbegin": 7309,
      "å®ļ": 7310,
      "Adapter": 7311,
      "Ca": 7312,
      "Inline": 7313,
      "Ġstrings": 7314,
      "getDate": 7315,
      "visit": 7316,
      "ITE": 7317,
      "428": 7318,
      "Ġserial": 7319,
      "ĠMOD": 7320,
      "getFullYear": 7321,
      ">/": 7322,
      "Hi": 7323,
      "readable": 7324,
      "×ķ": 7325,
      "Ġ^": 7326,
      "++]": 7327,
      "Car": 7328,
      "ens": 7329,
      "ĠFloat": 7330,
      ">');": 7331,
      "\"]),": 7332,
      "GR": 7333,
      "Fil": 7334,
      "toArray": 7335,
      "atter": 7336,
      "sta": 7337,
      "medium": 7338,
      "}`);": 7339,
      "ĠNO": 7340,
      "Ġiterate": 7341,
      "ĠPer": 7342,
      "IFwi": 7343,
      "()(),": 7344,
      "Ġcontroller": 7345,
      "Ġreact": 7346,
      "ĊĊĉĠĠĠ": 7347,
      ")?\"": 7348,
      "Ġtexture": 7349,
      "249": 7350,
      "fit": 7351,
      "kn": 7352,
      "ĠÙĬ": 7353,
      "iting": 7354,
      "Clip": 7355,
      "cloud": 7356,
      "Ð±": 7357,
      "VB": 7358,
      ":_": 7359,
      "æľī": 7360,
      "SELE": 7361,
      "IO": 7362,
      "EQ": 7363,
      "Sn": 7364,
      "Reset": 7365,
      "Ġmessages": 7366,
      "mouseup": 7367,
      "328": 7368,
      "Ġadalah": 7369,
      "camer": 7370,
      "Ġdeferred": 7371,
      "bGL": 7372,
      "ĠFile": 7373,
      "Ñħ": 7374,
      "vr": 7375,
      "Ao": 7376,
      "Ġenter": 7377,
      "Author": 7378,
      "Ġreal": 7379,
      "Previous": 7380,
      "ferences": 7381,
      "THER": 7382,
      "247": 7383,
      "Defined": 7384,
      "())}": 7385,
      "IVE": 7386,
      "Ġ110": 7387,
      "unch": 7388,
      "Ġabsolute": 7389,
      "Ð³": 7390,
      "(?!": 7391,
      "SION": 7392,
      "ĠĊĠĠĠ": 7393,
      "ãģ®": 7394,
      "Admin": 7395,
      "Ġboth": 7396,
      "Ġmatched": 7397,
      "Ġĉĉ": 7398,
      "Ġwatch": 7399,
      "Ġrot": 7400,
      "Navigation": 7401,
      "ared": 7402,
      "Ġkeep": 7403,
      "444": 7404,
      "/+": 7405,
      "VuY": 7406,
      "supported": 7407,
      "services": 7408,
      "íķ": 7409,
      "Ġunique": 7410,
      "HV": 7411,
      "mr": 7412,
      "Ġangular": 7413,
      "Coord": 7414,
      "Attrs": 7415,
      "thentic": 7416,
      "getComputed": 7417,
      "Ġpossible": 7418,
      "\")])": 7419,
      "Percent": 7420,
      "244": 7421,
      "related": 7422,
      "backdrop": 7423,
      "ĠTe": 7424,
      "outerHeight": 7425,
      "Double": 7426,
      "Ġdisable": 7427,
      ">{": 7428,
      "Ġoleh": 7429,
      "ynch": 7430,
      "createText": 7431,
      "testing": 7432,
      "CI": 7433,
      "LETE": 7434,
      "lyph": 7435,
      "CLASS": 7436,
      "ĠCo": 7437,
      "åľ¨": 7438,
      "Cls": 7439,
      "igit": 7440,
      "identifier": 7441,
      "comm": 7442,
      "151": 7443,
      "faces": 7444,
      "cursive": 7445,
      "Åį": 7446,
      "Ts": 7447,
      "hint": 7448,
      "Ay": 7449,
      "tah": 7450,
      "ĠSc": 7451,
      "WS": 7452,
      "pet": 7453,
      "utable": 7454,
      "mag": 7455,
      "ÑĪ": 7456,
      "rtual": 7457,
      "TUFB": 7458,
      "city": 7459,
      "223": 7460,
      "\"]],": 7461,
      "xff": 7462,
      "transaction": 7463,
      "ÐµÑĢ": 7464,
      "MODE": 7465,
      "Eu": 7466,
      "xv": 7467,
      "Byb": 7468,
      "')}": 7469,
      "cblxu": 7470,
      "help": 7471,
      "Vo": 7472,
      "Allow": 7473,
      "Cy": 7474,
      "allowed": 7475,
      "Ġarea": 7476,
      "road": 7477,
      "till": 7478,
      "stub": 7479,
      "initions": 7480,
      "Book": 7481,
      "avatar": 7482,
      "iso": 7483,
      "kZX": 7484,
      "195": 7485,
      "Ġrepresent": 7486,
      "cljs": 7487,
      "Ġ44": 7488,
      "oneOf": 7489,
      "Ġcm": 7490,
      "Mv": 7491,
      "Ee": 7492,
      "Za": 7493,
      "connected": 7494,
      "extensions": 7495,
      "Network": 7496,
      "pted": 7497,
      "%\",": 7498,
      "letion": 7499,
      "Into": 7500,
      "Unknown": 7501,
      "1111": 7502,
      "ĠModule": 7503,
      "Ġprovide": 7504,
      "counter": 7505,
      "ÏĦ": 7506,
      "Ġwho": 7507,
      "aniti": 7508,
      "aGlzL": 7509,
      "Ġdecode": 7510,
      "Safe": 7511,
      "volume": 7512,
      "ORS": 7513,
      "trics": 7514,
      "161": 7515,
      "Placeholder": 7516,
      "]+\"": 7517,
      "NOT": 7518,
      "Ġhasn": 7519,
      "ised": 7520,
      "Ġ2018": 7521,
      "=\"'": 7522,
      "agination": 7523,
      "FBT": 7524,
      "768": 7525,
      "RV": 7526,
      "Messages": 7527,
      "Ho": 7528,
      "Ġoth": 7529,
      "gulp": 7530,
      "ĠSource": 7531,
      "world": 7532,
      "objects": 7533,
      "stats": 7534,
      "Batch": 7535,
      "CESS": 7536,
      "Ġsvg": 7537,
      "did": 7538,
      "Ġdeep": 7539,
      "309": 7540,
      "Ur": 7541,
      "CS": 7542,
      "CN": 7543,
      "scriber": 7544,
      "Ã§": 7545,
      "Am": 7546,
      "amb": 7547,
      "hu": 7548,
      "Ġà®": 7549,
      "Ãº": 7550,
      "focused": 7551,
      "arge": 7552,
      "Slider": 7553,
      "LEtBQU": 7554,
      "Pending": 7555,
      "Ġ\").": 7556,
      "adjust": 7557,
      "},{\"./": 7558,
      "ithm": 7559,
      "deepEqual": 7560,
      "Attach": 7561,
      "(\"^": 7562,
      "295": 7563,
      "predicate": 7564,
      "adap": 7565,
      "RIGHT": 7566,
      "qui": 7567,
      "losing": 7568,
      "ĠWM": 7569,
      "Ġcommit": 7570,
      "($(": 7571,
      "priority": 7572,
      "TIME": 7573,
      "ĠDefault": 7574,
      "xd": 7575,
      "\":\"â": 7576,
      "012": 7577,
      ",_(": 7578,
      "Ġ'&": 7579,
      "HVy": 7580,
      "Validator": 7581,
      "@@@@": 7582,
      "211": 7583,
      "ynchron": 7584,
      "212": 7585,
      "ĠuseState": 7586,
      "vLy": 7587,
      "ranch": 7588,
      "Ġprint": 7589,
      "576": 7590,
      "áŁ": 7591,
      ",\"\"],": 7592,
      "yo": 7593,
      "fp": 7594,
      "Ġplugins": 7595,
      "OUT": 7596,
      "){}": 7597,
      "\"/>": 7598,
      "sizing": 7599,
      "tric": 7600,
      "('_": 7601,
      "}},[": 7602,
      "Ġentity": 7603,
      "193": 7604,
      "æĮ": 7605,
      "igits": 7606,
      "Ġrules": 7607,
      "TRIB": 7608,
      "Ġpredicate": 7609,
      "æµ": 7610,
      ",[{": 7611,
      "299": 7612,
      "Ġshadow": 7613,
      "Ġenv": 7614,
      "Ġfix": 7615,
      "Cr": 7616,
      "override": 7617,
      "where": 7618,
      "Î¹": 7619,
      "ĊĉĉĉĊĉĉ": 7620,
      "VALID": 7621,
      "10101010": 7622,
      "Find": 7623,
      "andid": 7624,
      "toJSON": 7625,
      "xuICAgICAgICB": 7626,
      "Priority": 7627,
      "Expand": 7628,
      "atern": 7629,
      "izing": 7630,
      "swiper": 7631,
      "Ak": 7632,
      "links": 7633,
      "Bits": 7634,
      "Ġloader": 7635,
      "parsed": 7636,
      "members": 7637,
      "twitter": 7638,
      "more": 7639,
      "044": 7640,
      "afari": 7641,
      "originalEvent": 7642,
      "king": 7643,
      "Detail": 7644,
      "gx": 7645,
      "($.": 7646,
      "draggable": 7647,
      "extract": 7648,
      "ires": 7649,
      "ĠBo": 7650,
      "DS": 7651,
      "pdf": 7652,
      "Gu": 7653,
      "ZGVy": 7654,
      "titude": 7655,
      "Ġrandom": 7656,
      "Ġissue": 7657,
      "getMonth": 7658,
      "BQW": 7659,
      "getUTC": 7660,
      "Ġsur": 7661,
      "Vw": 7662,
      ")>>": 7663,
      "Polygon": 7664,
      "ĠNOT": 7665,
      "Ã¶": 7666,
      "è´": 7667,
      "();\\": 7668,
      "upper": 7669,
      "Ġanchor": 7670,
      "Ok": 7671,
      "cbiAgICAg": 7672,
      "vector": 7673,
      "setting": 7674,
      "STRING": 7675,
      "called": 7676,
      "program": 7677,
      "getOwnPropertySymbols": 7678,
      "dGhpcy": 7679,
      "------------------------------------------------------------------------": 7680,
      "Ns": 7681,
      "Reflect": 7682,
      "2014": 7683,
      "Et": 7684,
      "tection": 7685,
      "Il": 7686,
      "Ġ{'": 7687,
      "mousemove": 7688,
      "Ġhandlers": 7689,
      "Refresh": 7690,
      "Ġevt": 7691,
      "Ġuntil": 7692,
      "(\\\\": 7693,
      "Rest": 7694,
      "}`,": 7695,
      "NUM": 7696,
      "ĠRange": 7697,
      "éĿ": 7698,
      "Ġiterator": 7699,
      "Ġ[_": 7700,
      "Ġwhat": 7701,
      ">\";": 7702,
      "mid": 7703,
      "Assert": 7704,
      "Ġfilename": 7705,
      "aternion": 7706,
      "HttpRequest": 7707,
      "))}}": 7708,
      "getParent": 7709,
      "Ġ\"$": 7710,
      "ĠReflect": 7711,
      "Ð·": 7712,
      "bounce": 7713,
      "filled": 7714,
      "bmN": 7715,
      "Filters": 7716,
      "USE": 7717,
      "xuICAgIH": 7718,
      "|[": 7719,
      "Scene": 7720,
      "Stats": 7721,
      "TG": 7722,
      "rank": 7723,
      "Public": 7724,
      "NQUF": 7725,
      "touches": 7726,
      "START": 7727,
      "Home": 7728,
      "uv": 7729,
      "Ġsection": 7730,
      "è¯·": 7731,
      "Ġrest": 7732,
      "Ġapplied": 7733,
      "Ð°ÑĤ": 7734,
      "Fin": 7735,
      "True": 7736,
      "278": 7737,
      "\"+(": 7738,
      "()=>": 7739,
      "issues": 7740,
      "çĤ": 7741,
      "=\"[": 7742,
      "fold": 7743,
      "Ġmarker": 7744,
      "ZD": 7745,
      "EM": 7746,
      "redux": 7747,
      "Import": 7748,
      "Controls": 7749,
      "257": 7750,
      "Supported": 7751,
      "slots": 7752,
      "Ġdeprecated": 7753,
      "Circle": 7754,
      "sur": 7755,
      "à«": 7756,
      "AST": 7757,
      "336": 7758,
      "nit": 7759,
      "468": 7760,
      "!==\"": 7761,
      "measure": 7762,
      "Owner": 7763,
      "nextTick": 7764,
      "Ġ300": 7765,
      "Ġhelpers": 7766,
      "flush": 7767,
      "Bw": 7768,
      "expirationTime": 7769,
      "scss": 7770,
      "condition": 7771,
      "nth": 7772,
      "design": 7773,
      "mad": 7774,
      "(){}": 7775,
      "LENBQUMsQ": 7776,
      "Ġusername": 7777,
      "æĸ°": 7778,
      "dynamic": 7779,
      "à¥į": 7780,
      "den": 7781,
      "Ġcar": 7782,
      "Rotation": 7783,
      "è¡¨": 7784,
      "172": 7785,
      "]};": 7786,
      "tack": 7787,
      "TS": 7788,
      "zero": 7789,
      "camera": 7790,
      "Jh": 7791,
      "Ġedge": 7792,
      "fullscreen": 7793,
      "258": 7794,
      "sdk": 7795,
      ":\"-": 7796,
      "outerWidth": 7797,
      "formed": 7798,
      "?!./": 7799,
      "ĠÐ½": 7800,
      "'ðŁ": 7801,
      "negative": 7802,
      "ToArray": 7803,
      "Yi": 7804,
      "conf": 7805,
      "ï¿½ï¿½ï¿½ï¿½ï¿½ï¿½ï¿½ï¿½ï¿½ï¿½ï¿½ï¿½ï¿½ï¿½ï¿½ï¿½": 7806,
      "Ġinspect": 7807,
      "Ġconfigurable": 7808,
      "Ġmonths": 7809,
      "Calendar": 7810,
      "actual": 7811,
      "OG": 7812,
      "Ci": 7813,
      "Engine": 7814,
      "edback": 7815,
      "ĠEd": 7816,
      "368": 7817,
      "dispatchEvent": 7818,
      "?!": 7819,
      "gradient": 7820,
      "Uri": 7821,
      "oa": 7822,
      "Long": 7823,
      "Configuration": 7824,
      "Ġcould": 7825,
      "Ġstyled": 7826,
      "Missing": 7827,
      "RF": 7828,
      "FBQyxDQUFD": 7829,
      "gan": 7830,
      "inside": 7831,
      "Once": 7832,
      "\"}],\"": 7833,
      "Ġcategory": 7834,
      "210": 7835,
      "peg": 7836,
      "Declaration": 7837,
      "Ġoverflow": 7838,
      "keyboard": 7839,
      "ç½®": 7840,
      "-%": 7841,
      "Ġslice": 7842,
      "Ctor": 7843,
      "260": 7844,
      "Contact": 7845,
      "Ð°ÑĢ": 7846,
      "Ïģ": 7847,
      "pread": 7848,
      "xb": 7849,
      "RD": 7850,
      "357": 7851,
      "Ġsw": 7852,
      "construct": 7853,
      "XN": 7854,
      ")}};": 7855,
      "259": 7856,
      "ĠÐ²": 7857,
      "xi": 7858,
      "leton": 7859,
      "ffers": 7860,
      "\">'": 7861,
      "Prev": 7862,
      "Ġradius": 7863,
      "Ġjustify": 7864,
      "Ġneeds": 7865,
      "ship": 7866,
      "uting": 7867,
      "ĠHandle": 7868,
      "fri": 7869,
      "Ġoccur": 7870,
      "correct": 7871,
      "Ġproxy": 7872,
      "ĠInt": 7873,
      "iem": 7874,
      "Blocks": 7875,
      "Ġsmall": 7876,
      "Ġsuch": 7877,
      "Strategy": 7878,
      "Tools": 7879,
      "uple": 7880,
      "greg": 7881,
      "]=[": 7882,
      "Eval": 7883,
      "thenti": 7884,
      "Rk": 7885,
      "viders": 7886,
      "More": 7887,
      "Ġcustomizer": 7888,
      "})();": 7889,
      "Ġouter": 7890,
      "createClass": 7891,
      "tempt": 7892,
      "RS": 7893,
      "sv": 7894,
      "1024": 7895,
      "Ġescape": 7896,
      "Ġer": 7897,
      "rn": 7898,
      "xn": 7899,
      "LP": 7900,
      "')[": 7901,
      "POS": 7902,
      "wrapped": 7903,
      "åħ¥": 7904,
      "inv": 7905,
      "ĊĠĠĊĠ": 7906,
      "packages": 7907,
      "/><": 7908,
      "ĠAuthors": 7909,
      "Ġedit": 7910,
      "Ġcard": 7911,
      "velopment": 7912,
      "Ġlight": 7913,
      "ĠChecks": 7914,
      "ĠâĢ": 7915,
      "=}": 7916,
      "Preview": 7917,
      "acc": 7918,
      "orientation": 7919,
      "limiter": 7920,
      "olders": 7921,
      "ually": 7922,
      "iness": 7923,
      "hours": 7924,
      "Ġdepth": 7925,
      "toggleClass": 7926,
      "Ġexpandable": 7927,
      "Ġflat": 7928,
      "Single": 7929,
      "remote": 7930,
      "jscomp": 7931,
      "Ġdot": 7932,
      "plus": 7933,
      "batch": 7934,
      "uuid": 7935,
      "miss": 7936,
      "raft": 7937,
      ",\\\"": 7938,
      "Decor": 7939,
      "mn": 7940,
      "--,": 7941,
      "ĠKe": 7942,
      ")+(": 7943,
      "Ġmodify": 7944,
      "ĠName": 7945,
      "itory": 7946,
      "Buttons": 7947,
      "uses": 7948,
      "Bi": 7949,
      "('');": 7950,
      "UInt": 7951,
      "Ġpresent": 7952,
      "Ġ$('": 7953,
      "removeListener": 7954,
      "Ġzoom": 7955,
      "509": 7956,
      "Ġnumbers": 7957,
      "Ġbounds": 7958,
      "]\\\\": 7959,
      "è¦": 7960,
      "Lng": 7961,
      "Da": 7962,
      "Tog": 7963,
      "thead": 7964,
      "ĠView": 7965,
      "ĠOr": 7966,
      "spy": 7967,
      "Ct": 7968,
      "utc": 7969,
      "han": 7970,
      "ÑĨ": 7971,
      "162": 7972,
      "blog": 7973,
      "RW": 7974,
      "gICAgICB": 7975,
      "every": 7976,
      "ADD": 7977,
      "reason": 7978,
      "ZXN": 7979,
      "ãĥ¼": 7980,
      "urn": 7981,
      "unstable": 7982,
      "arc": 7983,
      "Ġvia": 7984,
      "validation": 7985,
      "688": 7986,
      "Scrollbar": 7987,
      "ä¸º": 7988,
      "matched": 7989,
      "Ġpad": 7990,
      "Counter": 7991,
      "anes": 7992,
      "ĠElement": 7993,
      "DQUF": 7994,
      "timeline": 7995,
      "install": 7996,
      "Ġred": 7997,
      "simple": 7998,
      "à¸Ļ": 7999,
      "ĠXML": 8000,
      "sist": 8001,
      "vnd": 8002,
      "updated": 8003,
      "Ġ])": 8004,
      "/\",": 8005,
      "Ġcurrently": 8006,
      "aha": 8007,
      "Ġdomain": 8008,
      "flip": 8009,
      "?\"\":": 8010,
      "\"}],": 8011,
      ")((": 8012,
      "è½": 8013,
      "213": 8014,
      ";\",": 8015,
      "ĠØ¹": 8016,
      "Ys": 8017,
      "exists": 8018,
      "TransitionEnd": 8019,
      "Ie": 8020,
      "akMap": 8021,
      "Ġspeed": 8022,
      ")=>": 8023,
      "bnN": 8024,
      "ensor": 8025,
      "305": 8026,
      "Minutes": 8027,
      "215": 8028,
      "lee": 8029,
      "ational": 8030,
      "ĊĊĠĠĠĠĠĠĠĠĠĠĠĠĠ": 8031,
      "Ġshorth": 8032,
      "){!": 8033,
      "ĠdefaultValue": 8034,
      "Ġ]);": 8035,
      "justify": 8036,
      "Ġgeometry": 8037,
      "seudo": 8038,
      "ĠMODULE": 8039,
      "graphy": 8040,
      "ĠPre": 8041,
      "='#!/": 8042,
      "vie": 8043,
      "Program": 8044,
      "Ġaxios": 8045,
      "ica": 8046,
      "HQUFH": 8047,
      "214": 8048,
      "statusCode": 8049,
      "Ġ$(\".": 8050,
      "åıĸ": 8051,
      "getCurrent": 8052,
      "IHRoaX": 8053,
      "ldHVy": 8054,
      ",,\"": 8055,
      "\":\"#": 8056,
      "183": 8057,
      "Blob": 8058,
      "DQ": 8059,
      "()}},": 8060,
      "UTE": 8061,
      "Ġtra": 8062,
      "Ġpartial": 8063,
      "always": 8064,
      "ucture": 8065,
      "Literal": 8066,
      "Ġreader": 8067,
      "Watch": 8068,
      "Mobile": 8069,
      "Ġwarning": 8070,
      "ellow": 8071,
      "plain": 8072,
      "inArray": 8073,
      "Ġpara": 8074,
      "ï¼ļ": 8075,
      "]!==": 8076,
      "LINE": 8077,
      "sume": 8078,
      "decimal": 8079,
      "Vh": 8080,
      "Ġ56": 8081,
      "stage": 8082,
      "Ġatau": 8083,
      "_[": 8084,
      "Ġms": 8085,
      "Ġtimer": 8086,
      "UND": 8087,
      "dlib": 8088,
      "Å¡": 8089,
      "ĠMake": 8090,
      "Ġ47": 8091,
      "Ġ\"\\\\": 8092,
      "toHave": 8093,
      "171": 8094,
      ")}).": 8095,
      "æı": 8096,
      "nl": 8097,
      "Tokens": 8098,
      "Ġbitmask": 8099,
      "clus": 8100,
      "CallCheck": 8101,
      "Ġ\");": 8102,
      "sium": 8103,
      "destination": 8104,
      "PQUF": 8105,
      "ç¤": 8106,
      "FFER": 8107,
      "iling": 8108,
      "Ġappend": 8109,
      "callbacks": 8110,
      "Impl": 8111,
      "dHJ": 8112,
      "TC": 8113,
      "290": 8114,
      "Ġfoo": 8115,
      "Support": 8116,
      "ough": 8117,
      "æĹ¥": 8118,
      "USER": 8119,
      "LOCK": 8120,
      "ligh": 8121,
      "iltin": 8122,
      "HN": 8123,
      "publish": 8124,
      "vbm": 8125,
      "Ġlain": 8126,
      "ĠRo": 8127,
      "isOpen": 8128,
      ")!==": 8129,
      "Ġallowed": 8130,
      "snap": 8131,
      "XHRcd": 8132,
      "Ġready": 8133,
      "basic": 8134,
      "Primitive": 8135,
      "ina": 8136,
      "gatsby": 8137,
      "signature": 8138,
      "\"?": 8139,
      "Self": 8140,
      "ĠInput": 8141,
      "Private": 8142,
      "Fire": 8143,
      "ĠImage": 8144,
      "precision": 8145,
      "separator": 8146,
      "///": 8147,
      "swal": 8148,
      "Ġyield": 8149,
      "Flags": 8150,
      "Ġduring": 8151,
      "Editable": 8152,
      "Ġcolors": 8153,
      "uf": 8154,
      "Parts": 8155,
      "available": 8156,
      "duce": 8157,
      "ĠSoftware": 8158,
      "zen": 8159,
      "thentication": 8160,
      "SL": 8161,
      "ney": 8162,
      "ĠCe": 8163,
      "Ġupper": 8164,
      "])&&": 8165,
      "even": 8166,
      "kah": 8167,
      "Hlw": 8168,
      "Ġ{})": 8169,
      "CQUF": 8170,
      "Matches": 8171,
      "éĥ": 8172,
      "Ye": 8173,
      "wards": 8174,
      "Ġhistory": 8175,
      ")%": 8176,
      "eXBl": 8177,
      "Ġ46": 8178,
      "Cookie": 8179,
      "Ġsocket": 8180,
      "LCJ": 8181,
      "cogn": 8182,
      "Overflow": 8183,
      "keyup": 8184,
      "uite": 8185,
      "tween": 8186,
      ";\\\\": 8187,
      "Ġensure": 8188,
      "Indent": 8189,
      "Ġgre": 8190,
      "vision": 8191,
      "throws": 8192,
      "Ġslot": 8193,
      "]]=": 8194,
      "Ġnoop": 8195,
      "ĠclearTimeout": 8196,
      "253": 8197,
      "team": 8198,
      "Months": 8199,
      "reload": 8200,
      "Notification": 8201,
      "åĳ": 8202,
      "329": 8203,
      "defaultProps": 8204,
      "localStorage": 8205,
      "==(": 8206,
      "Ġtsd": 8207,
      "Wt": 8208,
      "$('#": 8209,
      "supports": 8210,
      "inf": 8211,
      "565": 8212,
      "lv": 8213,
      "Days": 8214,
      "Methods": 8215,
      "Ġmaka": 8216,
      "byteLength": 8217,
      "Pages": 8218,
      "comments": 8219,
      "Bt": 8220,
      "amd": 8221,
      "é¢": 8222,
      "AFAAU": 8223,
      "Ġseg": 8224,
      "ROW": 8225,
      "Ãł": 8226,
      "ĠCode": 8227,
      "reader": 8228,
      "268": 8229,
      "tifications": 8230,
      "dion": 8231,
      "mdW": 8232,
      "Worker": 8233,
      "VU": 8234,
      "Qj": 8235,
      "datetime": 8236,
      "Ġwin": 8237,
      "Second": 8238,
      "uDE": 8239,
      "])&&(": 8240,
      "265": 8241,
      "ORTS": 8242,
      "sus": 8243,
      "gers": 8244,
      "rf": 8245,
      "hljs": 8246,
      "Ġgetter": 8247,
      "Ġzero": 8248,
      "lict": 8249,
      "Enumerable": 8250,
      "Ġ68": 8251,
      "skin": 8252,
      "è¡Į": 8253,
      "Phone": 8254,
      "lush": 8255,
      "à¹Ī": 8256,
      "Ġ53": 8257,
      "ĠMus": 8258,
      "Ġreason": 8259,
      "ele": 8260,
      "Ġmask": 8261,
      "Shift": 8262,
      "Ġinject": 8263,
      "vcn": 8264,
      "Enum": 8265,
      "Ġease": 8266,
      "Oe": 8267,
      "Ġletter": 8268,
      "bid": 8269,
      "ĠĠĠĠĠĠĠĠĠĠĠĠĠĠĠĠĠĠĠĠĠĠĠĠĠĠĠĠĠĠĠĠĠĠĠĠĠĠĠĠĠĠĠĠĠĠĠĠĠĠĠĠĠĠĠĠĠĠĠĠĠĠĠĠĠĠĠĠĠĠĠĠĠĠĠĠĠĠĠĠĠĠĠĠĠĠĠĠĠĠĠĠĠĠĠĠĠĠĠĠĠĠĠĠĠĠĠĠĠĠĠĠĠĠĠĠĠĠĠĠĠĠĠĠĠĠĠĠ": 8270,
      "à¼": 8271,
      "ived": 8272,
      "Ġpen": 8273,
      "Heading": 8274,
      "readonly": 8275,
      "×ķ×": 8276,
      "åŁ": 8277,
      ".\"),": 8278,
      "Ġrotate": 8279,
      "279": 8280,
      "git": 8281,
      "cret": 8282,
      "character": 8283,
      "isString": 8284,
      "âĸĪ": 8285,
      "kata": 8286,
      "Ġloc": 8287,
      "Please": 8288,
      "ĠFOR": 8289,
      "keep": 8290,
      "Äį": 8291,
      "alan": 8292,
      "378": 8293,
      "getSelection": 8294,
      "subject": 8295,
      "Mn": 8296,
      "verify": 8297,
      "Ġrenderer": 8298,
      "Ctx": 8299,
      "Ġput": 8300,
      "Registry": 8301,
      "TRANS": 8302,
      "Ġeven": 8303,
      "Cg": 8304,
      "ĠDEF": 8305,
      "640": 8306,
      "!=\"": 8307,
      ";',": 8308,
      "idiem": 8309,
      "],!": 8310,
      "Curve": 8311,
      "RAP": 8312,
      "php": 8313,
      "$/.": 8314,
      "regexp": 8315,
      "CRE": 8316,
      "Ġ(++": 8317,
      "ĠdisplayName": 8318,
      "Serial": 8319,
      "243": 8320,
      "defineProperties": 8321,
      "numeric": 8322,
      "Escape": 8323,
      "hbH": 8324,
      "sia": 8325,
      "dXJu": 8326,
      "pography": 8327,
      "[^\\": 8328,
      "thumb": 8329,
      "Bit": 8330,
      "Aa": 8331,
      "osite": 8332,
      "ĠviewBox": 8333,
      "LY": 8334,
      "504": 8335,
      "uDC": 8336,
      "2009": 8337,
      "getComputedStyle": 8338,
      "æĪĲ": 8339,
      "Ġprototype": 8340,
      "359": 8341,
      "AZ": 8342,
      "bS": 8343,
      "Ġ*=": 8344,
      "Modified": 8345,
      "Ra": 8346,
      "219": 8347,
      "Ġmaximum": 8348,
      "CM": 8349,
      "verage": 8350,
      "ny": 8351,
      "classCallCheck": 8352,
      "èĥ": 8353,
      "Ġpl": 8354,
      "Viewport": 8355,
      "ZXI": 8356,
      "sprite": 8357,
      "lier": 8358,
      "Ġrendered": 8359,
      "ubic": 8360,
      "Keyboard": 8361,
      "\",\"-": 8362,
      "344": 8363,
      "])),": 8364,
      "rx": 8365,
      "Slots": 8366,
      "Lang": 8367,
      "answer": 8368,
      "gorithm": 8369,
      "ously": 8370,
      "cordion": 8371,
      "########": 8372,
      "istan": 8373,
      "cIi": 8374,
      "segment": 8375,
      "Ġslide": 8376,
      "java": 8377,
      ".\":\"": 8378,
      "ĠConstructor": 8379,
      "ĠisObject": 8380,
      "IGNv": 8381,
      "Ġsubmit": 8382,
      "ĠGets": 8383,
      "har": 8384,
      "ANG": 8385,
      "à¸Ń": 8386,
      "expando": 8387,
      "cls": 8388,
      "chrome": 8389,
      "%,": 8390,
      "267": 8391,
      "iman": 8392,
      "ond": 8393,
      "269": 8394,
      "dependencies": 8395,
      "addListener": 8396,
      "TAG": 8397,
      "Ġwebpack": 8398,
      "esm": 8399,
      "303": 8400,
      "Ġanother": 8401,
      "\\-": 8402,
      "Ġrequires": 8403,
      "cmp": 8404,
      "staticRenderFns": 8405,
      "Ġflags": 8406,
      "BF": 8407,
      "vated": 8408,
      "Ġil": 8409,
      "lider": 8410,
      "seq": 8411,
      "666": 8412,
      "future": 8413,
      "guh": 8414,
      "paths": 8415,
      ">&": 8416,
      "Loop": 8417,
      "cov": 8418,
      "features": 8419,
      "àµ": 8420,
      "ita": 8421,
      "Ġbelow": 8422,
      "Ġgenerated": 8423,
      "offsets": 8424,
      "ivu": 8425,
      "182": 8426,
      "gY": 8427,
      "xC": 8428,
      "None": 8429,
      "DELETE": 8430,
      "Ġmenjadi": 8431,
      "Jlc": 8432,
      "startsWith": 8433,
      "]],[": 8434,
      "Ġfr": 8435,
      "Chain": 8436,
      "çĲ": 8437,
      "Ġfeature": 8438,
      "fA": 8439,
      ")}.": 8440,
      "isPlainObject": 8441,
      "sil": 8442,
      "sto": 8443,
      "mous": 8444,
      "'></": 8445,
      "Ġ){": 8446,
      "rb": 8447,
      "Ġjq": 8448,
      "Ġfragment": 8449,
      "Ġcalls": 8450,
      "326": 8451,
      "jan": 8452,
      "Íı": 8453,
      "352": 8454,
      "TF": 8455,
      "pd": 8456,
      "Ġpt": 8457,
      "irect": 8458,
      "yaW": 8459,
      "impl": 8460,
      "gK": 8461,
      "Ġ\"[": 8462,
      "])?": 8463,
      "0627": 8464,
      "330": 8465,
      "Ø®": 8466,
      "Spacing": 8467,
      "uDD": 8468,
      "Ġresolved": 8469,
      "VF": 8470,
      "Rendering": 8471,
      "named": 8472,
      ",,,,,,,,": 8473,
      "277": 8474,
      "interface": 8475,
      "tabIndex": 8476,
      "355": 8477,
      "ãĢģ": 8478,
      "etter": 8479,
      "Dev": 8480,
      "287": 8481,
      "Ġdays": 8482,
      "getText": 8483,
      "(',": 8484,
      "Paths": 8485,
      "startTime": 8486,
      "ÍıÍı": 8487,
      "Je": 8488,
      "Elm": 8489,
      "matically": 8490,
      "charset": 8491,
      "scripten": 8492,
      "/'": 8493,
      "alloc": 8494,
      "TYP": 8495,
      "clientX": 8496,
      "Ġ00": 8497,
      "uman": 8498,
      "uhan": 8499,
      "{\\": 8500,
      "270": 8501,
      "Reducer": 8502,
      "Ġstill": 8503,
      "Big": 8504,
      ")>=": 8505,
      "]],[\"": 8506,
      "Mut": 8507,
      "____": 8508,
      "Dog": 8509,
      ";\",\"": 8510,
      "Dot": 8511,
      "past": 8512,
      "vL": 8513,
      "Flow": 8514,
      "orig": 8515,
      "2013": 8516,
      "Ġ/\\": 8517,
      "334": 8518,
      "Env": 8519,
      "large": 8520,
      "met": 8521,
      ",\"$": 8522,
      "two": 8523,
      "android": 8524,
      "Bs": 8525,
      "trace": 8526,
      "cip": 8527,
      "ĠSpec": 8528,
      "pu": 8529,
      "Ġnetwork": 8530,
      "units": 8531,
      "may": 8532,
      "endo": 8533,
      ")||\"": 8534,
      "gal": 8535,
      "Ġbrowsers": 8536,
      "XR": 8537,
      "ĠtoString": 8538,
      "ikan": 8539,
      "cel": 8540,
      "constra": 8541,
      "LOG": 8542,
      "caped": 8543,
      "Slice": 8544,
      "ersist": 8545,
      "Delegate": 8546,
      "KeyDown": 8547,
      "paste": 8548,
      "Spy": 8549,
      "Ġtile": 8550,
      "WU": 8551,
      "Ġmulti": 8552,
      "ÂłÂłÂłÂł": 8553,
      "Fetch": 8554,
      "181": 8555,
      "Ġ\";": 8556,
      "217": 8557,
      "367": 8558,
      "348": 8559,
      "Ġpatch": 8560,
      "rootScope": 8561,
      "CR": 8562,
      "Ġcallbacks": 8563,
      "BL": 8564,
      "QUnit": 8565,
      "338": 8566,
      "Yt": 8567,
      "\"],[[": 8568,
      "alle": 8569,
      "Ġda": 8570,
      "qe": 8571,
      "Ġ400": 8572,
      "286": 8573,
      "354": 8574,
      "ĠGoogle": 8575,
      "Transport": 8576,
      "Ġdia": 8577,
      "ĠMatrix": 8578,
      "çº": 8579,
      "ky": 8580,
      "}=": 8581,
      "('@": 8582,
      "Nt": 8583,
      "Ġmissing": 8584,
      "MAA": 8585,
      "Ġseconds": 8586,
      "../../../../": 8587,
      "ĠGe": 8588,
      "?.": 8589,
      "Ġ\"*": 8590,
      "ĠNaN": 8591,
      "gered": 8592,
      "Done": 8593,
      "big": 8594,
      "lon": 8595,
      "Ġdirectly": 8596,
      "struction": 8597,
      "Ġ70": 8598,
      "Endpoint": 8599,
      "ilities": 8600,
      "prepare": 8601,
      "LEdBQUcs": 8602,
      "Ol": 8603,
      "nu": 8604,
      "Conf": 8605,
      "Ġroom": 8606,
      "608": 8607,
      "Ġmodified": 8608,
      "rottle": 8609,
      "touchstart": 8610,
      "388": 8611,
      "DOWN": 8612,
      "ZnVuY": 8613,
      "Ġperson": 8614,
      "Uniform": 8615,
      "cIm": 8616,
      "SG": 8617,
      "TERN": 8618,
      "Ġapa": 8619,
      "Ġupload": 8620,
      "365": 8621,
      "CONT": 8622,
      "DIS": 8623,
      "Ġiframe": 8624,
      "294": 8625,
      "Setting": 8626,
      "qa": 8627,
      "Ġangle": 8628,
      "Ġgoogle": 8629,
      "zY": 8630,
      "Ġ90": 8631,
      "sources": 8632,
      "dashboard": 8633,
      "Mat": 8634,
      "jdGlvb": 8635,
      "Ùĭ": 8636,
      "tabindex": 8637,
      "TSx": 8638,
      "Two": 8639,
      "Ġhead": 8640,
      "Tween": 8641,
      ",\"\\": 8642,
      "Rt": 8643,
      "Ûķ": 8644,
      "ĠLog": 8645,
      "Î½": 8646,
      ".<": 8647,
      "Ã£": 8648,
      "Ð¹": 8649,
      "280": 8650,
      "Alert": 8651,
      "DateFormat": 8652,
      "IQ": 8653,
      "ĠButton": 8654,
      "Ta": 8655,
      "WE": 8656,
      "cssText": 8657,
      "Ġsafe": 8658,
      "={\"": 8659,
      "spinner": 8660,
      "ATOR": 8661,
      "Ġsimple": 8662,
      "luid": 8663,
      "Ġ\"\")": 8664,
      "Tip": 8665,
      "commands": 8666,
      "agram": 8667,
      "binary": 8668,
      ">(": 8669,
      "COMM": 8670,
      "hbW": 8671,
      "sass": 8672,
      "}',": 8673,
      "toStringTag": 8674,
      "lbn": 8675,
      "298": 8676,
      "ARD": 8677,
      "Ġrunning": 8678,
      "ĠStyle": 8679,
      "Sur": 8680,
      "99999999": 8681,
      "Ze": 8682,
      "Without": 8683,
      "OF": 8684,
      "onts": 8685,
      "cjs": 8686,
      "ä¸ĭ": 8687,
      "Ġtests": 8688,
      "Checkbox": 8689,
      "Example": 8690,
      "Ø²": 8691,
      "Ġvariables": 8692,
      "Rn": 8693,
      "GB": 8694,
      "ëĭ": 8695,
      "347": 8696,
      "implement": 8697,
      "xuIC": 8698,
      "399": 8699,
      "','\\": 8700,
      "Um": 8701,
      "æŁ": 8702,
      "ĉĉĉĉĉ": 8703,
      "âĢĿ": 8704,
      "fully": 8705,
      "fred": 8706,
      "Zi": 8707,
      "Ġdev": 8708,
      "inya": 8709,
      "Pane": 8710,
      "ptr": 8711,
      "Report": 8712,
      "wy": 8713,
      "ä¾": 8714,
      "phi": 8715,
      "XCIs": 8716,
      "nore": 8717,
      "anima": 8718,
      "iggered": 8719,
      "odd": 8720,
      "angkan": 8721,
      "Ġpending": 8722,
      "297": 8723,
      "hostname": 8724,
      "Ġsequence": 8725,
      "Replace": 8726,
      "657": 8727,
      "spb": 8728,
      "Dimensions": 8729,
      "Cells": 8730,
      "ICE": 8731,
      "Rm": 8732,
      "fas": 8733,
      "zo": 8734,
      "Ð¸Ð½": 8735,
      "Folder": 8736,
      "ads": 8737,
      "Jn": 8738,
      "needs": 8739,
      "æį®": 8740,
      "339": 8741,
      "/\"+": 8742,
      "Ġsi": 8743,
      "alu": 8744,
      "ĠØª": 8745,
      "uFF": 8746,
      "pn": 8747,
      "ĠAss": 8748,
      "337": 8749,
      "ZF": 8750,
      "ĠdataType": 8751,
      "Ġ99": 8752,
      "qK": 8753,
      "Stroke": 8754,
      "Ġmut": 8755,
      "èĩª": 8756,
      "Ġtx": 8757,
      "Dependency": 8758,
      "Ġrefresh": 8759,
      "Camera": 8760,
      "clientWidth": 8761,
      "Ġcontaining": 8762,
      "cv": 8763,
      "ĠsuperClass": 8764,
      "))}},": 8765,
      "()):": 8766,
      "kZW": 8767,
      "seconds": 8768,
      "}}(": 8769,
      "aging": 8770,
      "Sequence": 8771,
      "Ue": 8772,
      "ICh": 8773,
      "yield": 8774,
      "],{": 8775,
      "ĠMessage": 8776,
      "ife": 8777,
      "rendered": 8778,
      "Connect": 8779,
      "Slot": 8780,
      "ople": 8781,
      "Si": 8782,
      "Ġplatform": 8783,
      "nX": 8784,
      "Ġfixed": 8785,
      "Ġsystem": 8786,
      "Ġentries": 8787,
      "cells": 8788,
      "Split": 8789,
      "amelCase": 8790,
      "ium": 8791,
      ";;;;": 8792,
      "Ijo": 8793,
      "sible": 8794,
      "Ġcapture": 8795,
      "åĬł": 8796,
      "biB": 8797,
      "Ġmemory": 8798,
      "++];": 8799,
      "Lt": 8800,
      "ĠOption": 8801,
      "double": 8802,
      "aWYg": 8803,
      "289": 8804,
      "PM": 8805,
      "oj": 8806,
      "}),\"": 8807,
      "localhost": 8808,
      "FileSync": 8809,
      "('\\": 8810,
      "Mirror": 8811,
      "ied": 8812,
      "cade": 8813,
      ")<<": 8814,
      "cessary": 8815,
      "polygon": 8816,
      "Ġajax": 8817,
      "Encoding": 8818,
      "Transfer": 8819,
      "lookup": 8820,
      "AAAAA": 8821,
      "Qe": 8822,
      "358": 8823,
      "anch": 8824,
      "VERSION": 8825,
      "377": 8826,
      "Ġum": 8827,
      "lBQ": 8828,
      "rides": 8829,
      "reams": 8830,
      "ĠMAX": 8831,
      "QUFBQ": 8832,
      "[-": 8833,
      "agent": 8834,
      "åı¯": 8835,
      "Ġextension": 8836,
      "fu": 8837,
      "verter": 8838,
      "Ġpanel": 8839,
      "()=>{": 8840,
      "508": 8841,
      "Ġsinon": 8842,
      "getAll": 8843,
      "ĠSO": 8844,
      "(\",": 8845,
      "221": 8846,
      "åŃĹ": 8847,
      "ARY": 8848,
      "Ġmat": 8849,
      "corner": 8850,
      "Ġcla": 8851,
      "ĠClass": 8852,
      "clientHeight": 8853,
      "ĠPlease": 8854,
      "Ġlater": 8855,
      "isIn": 8856,
      "349": 8857,
      "bus": 8858,
      "ĠHt": 8859,
      "HEAP": 8860,
      "Ġiteration": 8861,
      "resolved": 8862,
      "HI": 8863,
      "Ġenvironment": 8864,
      "Dirty": 8865,
      "templates": 8866,
      "ungguh": 8867,
      ":\\\"": 8868,
      "xD": 8869,
      "Ġscene": 8870,
      "Ġ66": 8871,
      "atable": 8872,
      "jw": 8873,
      "å¤§": 8874,
      "Ġ\"</": 8875,
      "Ġassoci": 8876,
      "curve": 8877,
      "ffic": 8878,
      "rupal": 8879,
      "Indicator": 8880,
      "ĠStdlib": 8881,
      "cluding": 8882,
      "EXP": 8883,
      "wcm": 8884,
      "007": 8885,
      "componentDid": 8886,
      "Ġvariant": 8887,
      "Units": 8888,
      "CQ": 8889,
      "ynthe": 8890,
      "collapsed": 8891,
      "ĠUSE": 8892,
      "Ġ51": 8893,
      "ĠOnly": 8894,
      "ripple": 8895,
      "*/,": 8896,
      "AFAAUABQ": 8897,
      "dGV": 8898,
      "Bz": 8899,
      "pub": 8900,
      "monthsShort": 8901,
      "0430": 8902,
      "Ul": 8903,
      "Ġvalidation": 8904,
      "about": 8905,
      "WI": 8906,
      "])/": 8907,
      "Ġsegment": 8908,
      "ulate": 8909,
      "401": 8910,
      "Timeline": 8911,
      "Ġexecute": 8912,
      "alth": 8913,
      "Ġtimestamp": 8914,
      "285": 8915,
      "379": 8916,
      "Ajax": 8917,
      "Ġul": 8918,
      "minute": 8919,
      "Now": 8920,
      "Ġsymbols": 8921,
      "Throw": 8922,
      "pense": 8923,
      "HBuilder": 8924,
      "-'": 8925,
      "Ġmend": 8926,
      "]||\"": 8927,
      "369": 8928,
      "312": 8929,
      "Features": 8930,
      "=${": 8931,
      "perti": 8932,
      "Codes": 8933,
      "Basic": 8934,
      "242": 8935,
      "||{};": 8936,
      ",\"-": 8937,
      "NN": 8938,
      "cing": 8939,
      "onymous": 8940,
      "KAA": 8941,
      "376": 8942,
      "ctrlKey": 8943,
      "ammad": 8944,
      "[]}": 8945,
      "HM": 8946,
      "Ġxmlns": 8947,
      "dGVy": 8948,
      "Directory": 8949,
      "|$": 8950,
      "Ġsite": 8951,
      "Ġisn": 8952,
      "Ġoverride": 8953,
      "onerror": 8954,
      "ĠLa": 8955,
      ";--": 8956,
      "648": 8957,
      "Yo": 8958,
      "activeElement": 8959,
      "lis": 8960,
      "hind": 8961,
      "Ġinitialize": 8962,
      "Positions": 8963,
      "Ranges": 8964,
      "ĠCO": 8965,
      "ĊĠĠĠĠĠĠĠĠĠĠĠĠĠĠĠĠĠĠĠĠĠĠĠĠĠĠĠĠĠĠĠĠĠ": 8966,
      "PX": 8967,
      "[]]+": 8968,
      "ArrayBuffer": 8969,
      "eral": 8970,
      "`${": 8971,
      "ĠSub": 8972,
      "person": 8973,
      "Ali": 8974,
      "2012": 8975,
      "çĤ¹": 8976,
      "jsonp": 8977,
      "284": 8978,
      "allery": 8979,
      "ĠEXPORTS": 8980,
      "getChild": 8981,
      "isBuffer": 8982,
      "231": 8983,
      "express": 8984,
      "Fix": 8985,
      "arp": 8986,
      "erts": 8987,
      "266": 8988,
      "Mixin": 8989,
      "ILITY": 8990,
      "âĶĢâĶĢâĶĢâĶĢ": 8991,
      "647": 8992,
      "unknown": 8993,
      "å¦": 8994,
      "Ġstorage": 8995,
      "ĠDes": 8996,
      "defer": 8997,
      "Character": 8998,
      "éĺ": 8999,
      "Az": 9000,
      "Ġ69": 9001,
      "Resources": 9002,
      "WARE": 9003,
      "397": 9004,
      "xuICAgICAgICAgICAgICAgICAgICAgICAg": 9005,
      "bars": 9006,
      "paper": 9007,
      "RX": 9008,
      "ç®": 9009,
      "Ġ1024": 9010,
      "inte": 9011,
      "clock": 9012,
      "ĠfontSize": 9013,
      "QAA": 9014,
      "Ġpercent": 9015,
      "BS": 9016,
      "008": 9017,
      "408": 9018,
      "507": 9019,
      "å¯¹": 9020,
      "686": 9021,
      "'){": 9022,
      "ĠÛ": 9023,
      "ĠOpen": 9024,
      "STAT": 9025,
      "Ġdatabase": 9026,
      "aws": 9027,
      "Ġprogram": 9028,
      "()'],['../": 9029,
      "Build": 9030,
      "251": 9031,
      "ĠReference": 9032,
      "Ġround": 9033,
      "à¹Ģ": 9034,
      "weet": 9035,
      "Ġrequests": 9036,
      "gd": 9037,
      "(\"@": 9038,
      "Links": 9039,
      "maxWidth": 9040,
      "HBuilderX": 9041,
      "469": 9042,
      "solid": 9043,
      "Ġsubject": 9044,
      "Simple": 9045,
      "jk": 9046,
      "ĠĠĠĠĠĠĠĠĠĠĠĠĠĠĠĠĠĠĠĠĠĠĠĠĠ": 9047,
      "bits": 9048,
      "getName": 9049,
      "Begin": 9050,
      "RED": 9051,
      ",[[": 9052,
      "Ot": 9053,
      "Translate": 9054,
      "createTextNode": 9055,
      "SELECT": 9056,
      "Ġpol": 9057,
      "Strings": 9058,
      "thon": 9059,
      "Else": 9060,
      "%=": 9061,
      "Ġbinary": 9062,
      "(\"-": 9063,
      ")&&\"": 9064,
      "Ġkeb": 9065,
      "Ġcity": 9066,
      "tribute": 9067,
      "Entries": 9068,
      "Ġbaik": 9069,
      "Define": 9070,
      "DP": 9071,
      "ĠOther": 9072,
      "May": 9073,
      "Ð¾Ð»": 9074,
      "Ġyet": 9075,
      "389": 9076,
      "uhammad": 9077,
      "vZH": 9078,
      "JldHVy": 9079,
      "pie": 9080,
      "FBQzt": 9081,
      "Relative": 9082,
      "ĠLink": 9083,
      "slug": 9084,
      "RESS": 9085,
      "dinal": 9086,
      "Fullscreen": 9087,
      "(\"\");": 9088,
      "jor": 9089,
      "operation": 9090,
      "Ġ';": 9091,
      "}/{": 9092,
      "Ġ49": 9093,
      "Application": 9094,
      "åĪĨ": 9095,
      "505": 9096,
      "Vn": 9097,
      "RCx": 9098,
      "=__": 9099,
      "Bra": 9100,
      "Ġ55": 9101,
      "emoji": 9102,
      "æĽ": 9103,
      "eventName": 9104,
      "ĠoSettings": 9105,
      "ticks": 9106,
      "Ġresize": 9107,
      "385": 9108,
      "Ġvertical": 9109,
      "604": 9110,
      "Py": 9111,
      "Random": 9112,
      "QG": 9113,
      "Ð¾ÑĢ": 9114,
      "share": 9115,
      "Helpers": 9116,
      "Records": 9117,
      "Ġfinally": 9118,
      "appear": 9119,
      "andbox": 9120,
      "dE": 9121,
      "\\/\\/": 9122,
      "ality": 9123,
      "fast": 9124,
      "Acti": 9125,
      "Ġet": 9126,
      "sug": 9127,
      "internalType": 9128,
      "Coords": 9129,
      "+\"</": 9130,
      "responsive": 9131,
      "eg": 9132,
      "While": 9133,
      "crypt": 9134,
      "ĊĠĠĉ": 9135,
      "Rle": 9136,
      "encoded": 9137,
      "itten": 9138,
      "missing": 9139,
      "=\\": 9140,
      "QR": 9141,
      "Policy": 9142,
      "å¿": 9143,
      "dh": 9144,
      "})(\\\\": 9145,
      "database": 9146,
      "irt": 9147,
      "DA": 9148,
      "\":!": 9149,
      "tran": 9150,
      "Ġhapp": 9151,
      "square": 9152,
      "protected": 9153,
      "åīį": 9154,
      "èĢ": 9155,
      "wx": 9156,
      "Ġorig": 9157,
      "('-": 9158,
      "ĀĀĀĀĀĀĀĀĀĀĀĀĀĀĀĀĀĀĀĀĀĀĀĀĀĀĀĀĀĀĀĀĀĀĀĀĀĀĀĀĀĀĀĀĀĀĀĀĀĀĀĀĀĀĀĀĀĀĀĀĀĀĀĀ": 9159,
      "ÐµÑĤ": 9160,
      "ĠAND": 9161,
      "Equals": 9162,
      "Ġcontents": 9163,
      "609": 9164,
      "={()": 9165,
      "responseText": 9166,
      "ISO": 9167,
      "Ġbuttons": 9168,
      "BER": 9169,
      "verts": 9170,
      "Ġ65": 9171,
      "Resolve": 9172,
      "),_": 9173,
      "yyyy": 9174,
      "Credentials": 9175,
      "Package": 9176,
      "è·": 9177,
      "Ġvector": 9178,
      "Stopped": 9179,
      "Ġ'\\\\": 9180,
      "land": 9181,
      "Ø£": 9182,
      "\"./": 9183,
      "Vm": 9184,
      "xA": 9185,
      "601": 9186,
      "\">'+": 9187,
      "dGhl": 9188,
      ")}}},": 9189,
      "Ġtimes": 9190,
      "tis": 9191,
      "Ġok": 9192,
      "Ġmong": 9193,
      "isDefault": 9194,
      "ĊĊĠĠ": 9195,
      "alytics": 9196,
      "branch": 9197,
      "KEN": 9198,
      "cbn": 9199,
      "pur": 9200,
      "jc": 9201,
      "Room": 9202,
      "developer": 9203,
      "ctionary": 9204,
      "stand": 9205,
      "signed": 9206,
      "Ġseed": 9207,
      "BG": 9208,
      "ison": 9209,
      "LH": 9210,
      "ights": 9211,
      "sat": 9212,
      "Ġdestination": 9213,
      "Ġnested": 9214,
      "vn": 9215,
      "Kit": 9216,
      "Ġswi": 9217,
      "ĠCL": 9218,
      "resizable": 9219,
      "dataType": 9220,
      "Ġ}))": 9221,
      "ocial": 9222,
      "isFinite": 9223,
      "CU": 9224,
      "Sus": 9225,
      "Ġdt": 9226,
      "Ġindent": 9227,
      "Ġless": 9228,
      "Ġ52": 9229,
      "xlink": 9230,
      "301": 9231,
      "Linear": 9232,
      "AAAAAAAAAAAAAAAAAAAAAAAAAAAAAAAA": 9233,
      "Ġia": 9234,
      "fake": 9235,
      "mc": 9236,
      "mouseover": 9237,
      "'\"": 9238,
      "707": 9239,
      ">\");": 9240,
      "Ġidentifier": 9241,
      "tations": 9242,
      "]._": 9243,
      "tty": 9244,
      "rypto": 9245,
      "Formatter": 9246,
      "ORE": 9247,
      "|\\\\": 9248,
      "ĠbeforeEach": 9249,
      "{-": 9250,
      "Ġwrapped": 9251,
      "ĠNew": 9252,
      "Updates": 9253,
      "lam": 9254,
      "Gt": 9255,
      "bone": 9256,
      "TEXTURE": 9257,
      "emscripten": 9258,
      "315": 9259,
      "VT": 9260,
      "vels": 9261,
      "Ġns": 9262,
      "ticip": 9263,
      "xk": 9264,
      "Reg": 9265,
      "reating": 9266,
      "ticles": 9267,
      "=$.": 9268,
      "ulation": 9269,
      "LElBQUksQ": 9270,
      "Ġev": 9271,
      "Cre": 9272,
      "Scalar": 9273,
      "Ġnavigator": 9274,
      "ĠEVENT": 9275,
      "340": 9276,
      "adapter": 9277,
      "Ġbagi": 9278,
      "Ġacti": 9279,
      "ZSA": 9280,
      "dz": 9281,
      "endif": 9282,
      "Attrib": 9283,
      "Ġlazy": 9284,
      "Ġmount": 9285,
      "bose": 9286,
      "Ġprovider": 9287,
      "Readable": 9288,
      "åĿ": 9289,
      "rink": 9290,
      "builder": 9291,
      "Ġinterval": 9292,
      "most": 9293,
      "andidate": 9294,
      "lastIndexOf": 9295,
      "}'": 9296,
      "mixin": 9297,
      "480": 9298,
      "ibG": 9299,
      "gm": 9300,
      "272": 9301,
      "}`;": 9302,
      "Multiple": 9303,
      "clientY": 9304,
      "Ġtween": 9305,
      "voice": 9306,
      "updateQueue": 9307,
      "Ġlogin": 9308,
      "crease": 9309,
      "rip": 9310,
      "370": 9311,
      "\",{\"": 9312,
      "Commit": 9313,
      "States": 9314,
      "istanbul": 9315,
      "VO": 9316,
      "folder": 9317,
      "zn": 9318,
      "\"]').": 9319,
      "ECTION": 9320,
      "Many": 9321,
      "ÙĳÙ°": 9322,
      "antity": 9323,
      "()&&(": 9324,
      "was": 9325,
      "Jq": 9326,
      "áĥĲ": 9327,
      "PU": 9328,
      "II": 9329,
      "':'\\": 9330,
      "ĠCan": 9331,
      "Threshold": 9332,
      "Ġinf": 9333,
      "Ha": 9334,
      "xture": 9335,
      "provide": 9336,
      "BX": 9337,
      "$_": 9338,
      "Trace": 9339,
      "Ka": 9340,
      "SHO": 9341,
      "hello": 9342,
      "JQ": 9343,
      "Ġknow": 9344,
      "335": 9345,
      "Ġreport": 9346,
      "userId": 9347,
      "Nk": 9348,
      "áĥĺ": 9349,
      "ĠbackgroundColor": 9350,
      "Ja": 9351,
      "trict": 9352,
      "Ġ150": 9353,
      "saW": 9354,
      "cols": 9355,
      "ĠJavaScript": 9356,
      "AAAAAA": 9357,
      "æĬ": 9358,
      "à®¿": 9359,
      "PATH": 9360,
      "autocomplete": 9361,
      "èİ": 9362,
      "Pack": 9363,
      "Gradient": 9364,
      "678": 9365,
      "scrollTo": 9366,
      "Separator": 9367,
      "ĠTO": 9368,
      "302": 9369,
      "WebGL": 9370,
      "ÉµÉµ": 9371,
      "346": 9372,
      "mulate": 9373,
      "Exact": 9374,
      "Ø§Ø±": 9375,
      "ring": 9376,
      "âĢĭâĢĭ": 9377,
      "Ġpublish": 9378,
      ";!": 9379,
      "Ġ\"%": 9380,
      "313": 9381,
      "dGlv": 9382,
      "})).": 9383,
      "Ġdefinition": 9384,
      "Ġallows": 9385,
      "pZiA": 9386,
      "\")}}": 9387,
      "Exit": 9388,
      "808": 9389,
      "(),\"": 9390,
      "KK": 9391,
      "composition": 9392,
      "âĢį": 9393,
      "ever": 9394,
      "Ġtoo": 9395,
      "!+": 9396,
      "Ġexternal": 9397,
      "agement": 9398,
      "xB": 9399,
      "ðŁı": 9400,
      "lj": 9401,
      ")>-": 9402,
      "Ġ[\\": 9403,
      "ç¬": 9404,
      "Standard": 9405,
      "gacy": 9406,
      "grade": 9407,
      "Bad": 9408,
      "subtract": 9409,
      "structure": 9410,
      "Ñİ": 9411,
      "]}),": 9412,
      "Ġ[]);": 9413,
      "çł": 9414,
      "ç¤º": 9415,
      "Ġ58": 9416,
      "LEFT": 9417,
      "åĲį": 9418,
      "æ¸": 9419,
      "ordinal": 9420,
      "polation": 9421,
      "ĠsourceURL": 9422,
      ")'": 9423,
      "]},{\"": 9424,
      "finished": 9425,
      "percentage": 9426,
      "tapi": 9427,
      ",\"_": 9428,
      "398": 9429,
      "lim": 9430,
      "Ġpack": 9431,
      "Ġalias": 9432,
      "lined": 9433,
      "ĠÎ": 9434,
      "éĢī": 9435,
      "464": 9436,
      "ZM": 9437,
      "ÐµÐ´": 9438,
      "\\\">\\": 9439,
      "387": 9440,
      "foot": 9441,
      "xF": 9442,
      "Volume": 9443,
      "998": 9444,
      "JG": 9445,
      "+\",": 9446,
      "extension": 9447,
      "ĠInitial": 9448,
      ".,": 9449,
      "nD": 9450,
      "Ġfallback": 9451,
      "Ġhelp": 9452,
      "Rz": 9453,
      "}}}}": 9454,
      "mal": 9455,
      "selectAll": 9456,
      "Ġsync": 9457,
      "ĠSVG": 9458,
      "Ġmus": 9459,
      "strip": 9460,
      "Ġinherited": 9461,
      "BI": 9462,
      "dater": 9463,
      ":/^": 9464,
      "Contract": 9465,
      "578": 9466,
      "Ġcorrespon": 9467,
      "407": 9468,
      "Ġdynamic": 9469,
      "Hour": 9470,
      "à³": 9471,
      "SUFBSSxDQUFD": 9472,
      "ummy": 9473,
      "Xe": 9474,
      "added": 9475,
      "virtual": 9476,
      "flash": 9477,
      "compress": 9478,
      "sep": 9479,
      "erarch": 9480,
      "Ð¸ÑĤ": 9481,
      "Øµ": 9482,
      "(^": 9483,
      "ues": 9484,
      "592": 9485,
      "ĠBlockly": 9486,
      "UIs": 9487,
      "ceptor": 9488,
      "ĊĠĠĠĠĠĠĠĠĠĠĠĠĠĠĠĠĠĠĠĠĠĠĠĠĠĠĠĠĠĠĠĠĠĠĠĠĠĠĠĠĠĠĠĠĠĠĠĠĠĠĠ": 9489,
      "offsetParent": 9490,
      "FAILED": 9491,
      "ench": 9492,
      "ĠĊĠĠĠĠĠĠĠĠĠĠĠ": 9493,
      "Ġagar": 9494,
      "tcG": 9495,
      "ratch": 9496,
      "409": 9497,
      "/=": 9498,
      "NV": 9499,
      "mk": 9500,
      "Ġviewport": 9501,
      "pf": 9502,
      "uct": 9503,
      "Ġclip": 9504,
      "356": 9505,
      "Images": 9506,
      "ensitive": 9507,
      "cumulator": 9508,
      "uL": 9509,
      "ĠworkInProgress": 9510,
      "æĻ": 9511,
      "×Ļ×": 9512,
      "Ġextract": 9513,
      "332": 9514,
      "à¹Ģà¸": 9515,
      "Updated": 9516,
      "ORY": 9517,
      "ĠHE": 9518,
      "Nb": 9519,
      "Constraint": 9520,
      "Ġ)}": 9521,
      "Jz": 9522,
      "codes": 9523,
      "Ġhi": 9524,
      "Ġmeans": 9525,
      "Ġaudio": 9526,
      "Annotation": 9527,
      ":**": 9528,
      "Ġexplicit": 9529,
      "Ġmight": 9530,
      "UUFB": 9531,
      "memoizedProps": 9532,
      "._$": 9533,
      "Jvb": 9534,
      "}},{\"": 9535,
      "zle": 9536,
      "selectedIndex": 9537,
      "DEX": 9538,
      "observe": 9539,
      "ĠLI": 9540,
      "Ġbehavior": 9541,
      ")),\"": 9542,
      "ceed": 9543,
      "trieve": 9544,
      "Ġ});\\": 9545,
      "Been": 9546,
      "using": 9547,
      "FILE": 9548,
      "({\"": 9549,
      "getContext": 9550,
      "tests": 9551,
      "generated": 9552,
      "Suffix": 9553,
      "Ġ57": 9554,
      "Ġmiddle": 9555,
      "Na": 9556,
      "AbstractComponent": 9557,
      "LOB": 9558,
      "Tabs": 9559,
      "={}),": 9560,
      "ynthetic": 9561,
      "exception": 9562,
      "VyY": 9563,
      "004": 9564,
      "ĠRequest": 9565,
      "ICAgICAgICAgICAgICAgICAgICAgICAgICAgICAgICAgICAgICAgICAgICAgICAg": 9566,
      "Push": 9567,
      "notification": 9568,
      "Zhc": 9569,
      "Ġcop": 9570,
      "Ġgra": 9571,
      "Schedule": 9572,
      "functions": 9573,
      "Ġhour": 9574,
      "bility": 9575,
      "Ġexception": 9576,
      "FTWARE": 9577,
      "Dg": 9578,
      "\\\");\\": 9579,
      "Cloud": 9580,
      "Ġnote": 9581,
      "Ġsample": 9582,
      "Inject": 9583,
      "}|": 9584,
      "uDF": 9585,
      "ern": 9586,
      "Ġprimary": 9587,
      "nr": 9588,
      "unicode": 9589,
      "LOW": 9590,
      "ĊĉĉĠĠĠ": 9591,
      ")({},": 9592,
      "LQUFL": 9593,
      "çİ": 9594,
      "When": 9595,
      "Redirect": 9596,
      "Ġdy": 9597,
      "Requests": 9598,
      "ĠPop": 9599,
      "Zy": 9600,
      "ĠAnd": 9601,
      "deps": 9602,
      "QX": 9603,
      "resume": 9604,
      "Ġsamp": 9605,
      "274": 9606,
      "Ġ59": 9607,
      "isActive": 9608,
      "))};": 9609,
      "VVVV": 9610,
      "Md": 9611,
      "Condition": 9612,
      "à¹ī": 9613,
      "Returns": 9614,
      "ĠÐº": 9615,
      "ĠPRO": 9616,
      "palette": 9617,
      "toast": 9618,
      "Stub": 9619,
      "blem": 9620,
      "Ġtd": 9621,
      "rm": 9622,
      "ensure": 9623,
      "xuXHRcdFx": 9624,
      "USH": 9625,
      "tific": 9626,
      "Kt": 9627,
      "fm": 9628,
      "Bus": 9629,
      "ĠInter": 9630,
      "à¼ĭ": 9631,
      "zon": 9632,
      "ZCB": 9633,
      "å§": 9634,
      "Platform": 9635,
      "Ġsebagai": 9636,
      "Ġcurr": 9637,
      "erc": 9638,
      "_;": 9639,
      "587": 9640,
      "minutes": 9641,
      "Ip": 9642,
      "Alt": 9643,
      "Times": 9644,
      "Wl": 9645,
      "freeze": 9646,
      "RTL": 9647,
      "Jj": 9648,
      "Need": 9649,
      "ZE": 9650,
      "kemon": 9651,
      "ĠIter": 9652,
      "iding": 9653,
      "NQUFN": 9654,
      "YXR": 9655,
      "andling": 9656,
      "(\"$": 9657,
      "Ġcalling": 9658,
      "Ġtrim": 9659,
      "exist": 9660,
      "bezier": 9661,
      "Ġ\"'+": 9662,
      "ENTER": 9663,
      "mesh": 9664,
      "Mk": 9665,
      "eps": 9666,
      "324": 9667,
      ":%": 9668,
      "åĴ": 9669,
      "swipe": 9670,
      "intah": 9671,
      "Ġmost": 9672,
      "æģ": 9673,
      "Ġregion": 9674,
      "Ob": 9675,
      "edges": 9676,
      ")}:": 9677,
      "ely": 9678,
      "readcr": 9679,
      "997": 9680,
      "Ġ248": 9681,
      "isNumber": 9682,
      "Measure": 9683,
      "à®ķ": 9684,
      "\"||": 9685,
      "Ari": 9686,
      "386": 9687,
      "Dynamic": 9688,
      "raction": 9689,
      "Ġbg": 9690,
      "æķ°æį®": 9691,
      "through": 9692,
      "ByZXR": 9693,
      "Ky": 9694,
      "onclick": 9695,
      "Ġface": 9696,
      "addr": 9697,
[...]
